#version: 0.2
Ġ t
Ġ a
Ġt h
Ġ i
Ġth e
Ġ s
e r
Ġ w
Ġ o
i n
Ġ .
r e
Ġ b
n d
Ġ h
Ġ ,
Ġ c
Ġ f
Ġ m
a t
o u
Ġ p
in g
o r
Ġt o
e s
e n
o n
Ġ d
e d
Ġa nd
Ġ n
i s
Ġ l
i t
l l
a r
a s
o t
Ġo f
a n
Ġi n
Ġi s
Ġi t
Ġ g
Ġ re
o m
Ġ e
l e
i c
u t
v e
Ġ [
u s
Ġb e
Ġo n
Ġn ot
Ġw h
Ġh a
l y
o o
a l
Ġth at
Ġ y
a c
Ġth is
Ġs t
v er
e t
Ġf or
i on
o w
B E
M BE
N U
MBE R
NU MBER
g h
t er
l d
a d
Ġy ou
it h
en t
a y
Ġw ith
i d
Ġw as
r o
a ll
c t
oo k
s t
Ġ u
Ġa n
k e
Ġb ut
s e
c h
Ġha ve
Ġs h
Ġa s
r i
t h
Ġl i
a m
i r
Ġc h
i m
Ġd o
u r
Ġa re
Ġm y
Ġh e
Ġs e
ou ld
Ġ j
c e
i ll
Ġb ook
Ġm o
Ġs o
gh t
Ġ r
Ġw e
p p
all y
Ġn e
Ġa l
b le
us t
i l
Ġd e
Ġe x
Ġp ro
Ġa t
i e
Ġc om
Ġo r
a g
Ġm e
Ġf r
Ġh er
Ġ k
Ġc on
Ġ us
Ġw or
p e
Ġa m
Ġthe y
ou t
Ġs u
ver y
Ġon e
a in
Ġs om
u l
es t
er s
es s
Ġa ll
Ġa b
an t
ac k
q u
Ġw ill
Ġw ould
e m
e l
Ġp l
Ġfr om
Ġi f
Ġre ad
Ġo ut
Ġ v
is t
Ġu p
Ġt r
at ion
Ġc an
Ġli ke
ar t
h er
o l
at e
on e
ou gh
a p
Ġn o
u m
Ġj ust
Ġl o
Ġu n
u n
Ġthe re
i ve
er e
Ġab out
a k
ar d
i f
Ġl e
Ġg et
o p
oo d
Ġsom e
a nd
Ġf e
in d
as t
ou nd
u re
Ġh as
Ġsh e
Ġmo re
Ġt im
Ġwh en
or t
Ġ en
Ġh is
Ġha d
ic e
Ġ !
Ġb y
i g
i es
or y
Ġwh at
on g
v en
Ġ very
e ct
Ġh ow
Ġwh o
Ġo th
Ġthe m
Ġbe c
Ġ qu
Ġan y
am e
Ġwor k
Ġg o
a ble
Ġin t
ic h
Ġp re
g e
i ght
it y
o s
Ġd id
a re
Ġc o
Ġm an
Ġa d
Ġch ar
K N
N KN
O W
U NKN
OW N
UNKN OWN
re at
c k
a ke
Ġp r
ou s
Ġcom p
a us
Ġg ood
in e
it e
Ġtim e
it t
Ġoth er
v ie
Ġth an
id e
p t
Ġw r
Ġk n
Ġd is
Ġa f
ac t
Ġwh ich
Ġc l
. .
Ġo ver
aus e
Ġst ory
Ġyou r
Ġ. ..
ar s
s o
Ġs c
a b
o re
Ġt e
Ġon ly
Ġdo es
Ġa r
Ġbec ause
Ġre ally
Ġw ere
Ġthe ir
i re
Ġm u
Ġwe ll
A D
B AD
Ġf ir
ic k
p l
u ct
Ġe ven
e nd
in k
h ing
Ġthe se
i v
Ġb u
Ġmu ch
Ġal so
in t
l f
Ġof f
Ġto o
Ġfir st
ag e
Ġ ?
Ġt w
Ġaf ter
Ġp o
as e
u e
ou r
Ġre c
Ġl ook
Ġb ack
Ġw ant
ac h
Ġbe t
Ġc ould
p er
ion s
ac ter
u d
ow n
Ġchar acter
Ġg reat
Ġs p
i p
Ġi m
i z
m ent
ing s
Ġb r
vie w
Ġint o
Ġa g
Ġw ay
ve l
ou ght
Ġg r
Ġbe en
s s
Ġb l
i le
Ġus e
a v
nd er
n t
Ġb o
Ġs er
e p
Ġe very
Ġre view
Ġ ke
Ġthe n
Ġcon t
Ġy e
ur n
ac e
Ġth r
Ġkn ow
is h
Ġd es
f er
Ġa ct
Ġp er
Ġf l
ay s
o se
Ġe nd
ot her
Ġth ink
f e
Ġp art
Ġin ter
Ġne w
Ġ ro
Ġpro d
Ġne ed
ut h
ad e
Ġa pp
Ġp h
Ġtw o
Ġp e
a il
Ġse e
Ġlo ve
i ous
en s
en ce
Ġmo st
i al
Ġs m
Ġse em
Ġin st
itt le
an ce
Ġl ittle
r y
Ġst r
ul t
Ġthr ough
Ġh o
Ġn ow
as s
u ll
Ġa c
Ġprod uct
Ġs pe
Ġf ind
at ed
ic al
an s
o y
Ġd if
Ġa uth
Ġm ake
Ġman y
ot h
t ing
Ġs a
w n
at er
Ġs et
Ġfe el
re e
v ed
Ġauth or
Ġsom et
f ul
ic t
pe ct
a z
Ġ ri
se lf
Ġst ill
i ly
o g
or m
Ġm ay
v ing
Ġwh ile
Ġd own
i gh
Ġh im
Ġit s
an g
w e
Ġs l
Ġg u
f f
c o
Ġbet ter
Ġre s
f t
Ġha pp
Ġp ur
Ġe as
ak es
u ally
Ġpe op
Ġl ong
ar y
Ġli fe
Ġin c
Ġpeop le
Ġf o
Ġcharacter s
n ot
om e
Ġag ain
ation s
d er
Ġst art
b er
Ġm ade
Ġu nder
Ġre al
Ġa w
at ch
Ġne ver
v es
Ġsh ould
Ġs ay
Ġwh ere
Ġt ri
Ġg ot
p le
Ġbu y
r a
ble m
Ġre m
Ġbe ing
Ġcan not
Ġpro blem
Ġl ot
Ġp ut
th ing
f ore
Ġpl ay
t e
g in
Ġtr y
i ld
e ver
ver s
ou nt
Ġfe w
Ġh igh
u b
Ġbook s
Ġim p
t y
Ġgo ing
as ed
at ing
Ġhe l
ar k
Ġan other
al ity
at ter
Ġat t
Ġo wn
Ġdif fer
Ġs ame
Ġh ard
Ġf in
ig n
Ġha nd
c i
Ġo ld
Ġsomet hing
re ss
Ġf ound
Ġp ers
Ġbe fore
Ġc le
is e
Ġre l
c es
Ġs im
Ġb it
Ġread ing
x t
l es
a pp
n ing
Ġc r
at her
Ġhow ever
Ġde c
Ġhel p
Ġs in
or d
Ġye ars
Ġm on
Ġo p
om m
Ġus ed
Ġri ght
a ir
Ġe m
it ing
d e
Ġch e
Ġad d
Ġinter est
Ġj o
Ġbe l
Ġth ose
Ġam az
Ġth ing
ent s
j oy
Ġpur ch
Ġs ound
Ġke ep
Ġsu pp
Ġc ase
c ess
Ġen joy
Ġth ings
ow er
Ġth ough
ak ing
it ion
Ġt urn
Ġin s
Ġth ought
omm end
Ġser ies
Ġrec ommend
Ġen ough
Ġli ght
g g
or s
Ġb ad
Ġsin ce
Ġper f
u al
Ġar ound
Ġcon s
Ġl ast
Ġpo int
b e
Ġb oth
Ġpers on
Ġb est
Ġf un
at h
g et
Ġm in
Ġo ur
Ġc ar
as on
Ġde f
Ġt ake
Ġdiffer ent
Ġe ach
p h
Ġsm all
i a
Ġw ar
Ġg l
Ġqu ality
Ġre t
Ġwh y
iz e
Ġis s
Ġs ur
Ġ ed
i ble
ri end
l ess
Ġher e
Ġex t
Ġg ive
Ġwith out
Ġf il
Ġb ig
Ġd r
an ge
Ġd ay
Ġb ought
m o
Ġe v
a ve
Ġsu re
ate ly
ab ly
b s
Ġsh ow
Ġwor ld
Ġhe ad
o d
Ġf am
ar ly
Ġno vel
Ġin f
a u
Ġpre t
k s
v ice
Ġtim es
Ġn ice
i an
Ġsu ch
Ġcomp le
t ain
is s
Ġf act
i x
Ġf it
Ġf ar
Ġd et
co nd
Ġp os
Ġus ing
ce pt
oo l
Ġex pect
o int
Ġor der
Ġse cond
Ġe l
Ġk ind
ag es
at ure
S D
U SD
Ġc all
Ġg en
Ġm us
f ort
re d
Ġpret ty
Ġseem s
Ġact ually
Ġlook ing
Ġm akes
Ġf riend
Ġi nd
Ġeas y
Ġl et
re ad
g r
Ġto p
w ard
n e
Ġph one
l i
we en
l ud
Ġcom e
Ġac c
Ġbet ween
n ect
Ġdis app
ic s
u es
Ġex per
Ġr un
Ġre ce
Ġsc re
w ays
Ġl ess
Ġd ri
on s
Ġs y
ter s
Ġbel ie
y s
Ġret urn
k ed
e ad
Ġ es
Ġg ame
ot t
c ed
Ġc ol
Ġst ars
Ġye ar
Ġc am
i ence
c ri
Ġamaz on
Ġte ll
ll ow
Ġre pl
Ġl ist
Ġpr ice
en se
ic ally
Ġe ver
g er
p s
Ġf ull
Ġmon th
Ġinc lud
Ġre ason
i b
Ġm ight
Ġal ways
st and
re n
ut e
at ive
Ġaw ay
Ġc are
ct ion
Ġt y
Ġch ild
Ġm ain
Ġdisapp oint
Ġmo vie
Ġp ower
as h
Ġcon nect
Ġha ving
ar n
Ġho ld
Ġqu ite
Ġnot hing
Ġon ce
Ġsa id
Ġc ou
mo st
Ġne xt
one y
itt en
Ġw atch
Ġwork s
Ġs ide
Ġco ver
Ġst and
Ġw om
ent ion
Ġop en
th is
l ed
Ġm a
Ġdis c
a w
i o
t s
Ġsh o
Ġwr iting
Ġreview s
Ġ z
ast ic
Ġperf ect
Ġun it
ou se
Ġw o
h ip
Ġwr itten
Ġsu b
Ġcomple te
it ch
Ġm ar
Ġwor th
Ġa ble
v ious
Ġre p
Ġwe e
Ġany thing
Ġm oney
Ġs k
Ġw ater
Ġs ong
Ġal most
Ġsh ort
Ġdes cri
Ġinterest ing
i pp
Ġin v
Ġdef in
Ġb atter
Ġun t
Ġpr ot
Ġt er
Ġpro b
Ġso l
Ġpl ace
Ġh ist
Ġfil m
Ġbo x
Ġs w
Ġth ree
or ies
Ġh um
Ġpl ot
Ġget ting
Ġre g
Ġi de
Ġo ri
Ġle ft
Ġwant ed
Ġex pl
Ġl ar
Ġal b
u ck
Ġcom m
Ġevery thing
at es
Ġto get
Ġtoget her
n ess
Ġch r
Ġp ict
Ġse ver
Ġp ie
al k
Ġhapp en
Ġ ent
Ġc or
Ġtry ing
Ġprob ably
el t
Ġpict ure
Ġc ame
Ġalb um
ap s
Ġmus ic
Ġfam ily
Ġst ar
t en
Ġunder stand
id ed
Ġw a
ith er
Ġco ll
m e
Ġp ack
n er
Ġpro v
Ġbe gin
Ġex p
Ġunt il
iv ed
p r
Ġqu ick
b o
Ġh ome
Ġcon f
Ġy et
Ġb re
Ġ vers
al s
us h
Ġf elt
Ġpre s
Ġori gin
Ġdes ign
Ġtri ed
Ġo b
e ll
ur ing
Ġre f
Ġm et
Ġcom es
Ġmay be
j ect
Ġsever al
Ġs ize
d s
Ġh our
Ġle ast
id er
Ġb as
Ġfo llow
Ġover all
Ġh on
em ent
Ġwo nder
Ġinst ead
Ġscre en
Ġe ar
i ed
Ġm ust
Ġe ff
Ġm iss
Ġtoo k
Ġs ch
u g
Ġoth ers
Ġd one
id es
et s
Ġd ays
Ġp ast
Ġsome one
f ic
Ġr om
ci ally
r uct
Ġinst all
ul ar
it er
a le
ow s
u p
il ity
iv es
Ġfor m
it ed
ap h
Ġf ree
ar ch
Ġr ather
Ġch ap
Ġread er
Ġdefin ite
Ġrece ived
Ġst y
Ġen g
Ġf ine
Ġc our
Ġho pe
Ġb ott
n g
o ck
er a
Ġsc en
Ġha lf
Ġsupp ort
Ġcon c
Ġf all
Ġwho le
Ġlo ved
Ġpurch ased
Ġes pe
Ġinf orm
th ough
Ġapp e
Ġespe cially
Ġc er
au gh
os ed
i er
Ġm ind
Ġg ir
Ġspe c
Ġa v
Ġf an
Ġdefinite ly
a ut
m an
er ic
Ġd ire
Ġany one
Ġhapp y
t on
Ġp le
Ġp ol
Ġw ent
Ġe ither
Ġle arn
Ġe le
on t
s ter
Ġcont ro
Ġn um
Ġhon est
Ġc ap
Ġl ine
d y
av or
Ġal though
Ġmonth s
Ġdet ail
ire d
Ġchr ist
Ġsu per
Ġche ap
l ing
Ġp ages
Ġjo b
w h
Ġar t
Ġg i
Ġrepl ac
ment s
Ġstart ed
ol og
it s
w are
Ġb ri
Ġcou ple
Ġde al
Ġbl ack
Ġex am
ub l
Ġc ut
are nt
Ġre st
ish ed
Ġel se
Ġp ick
Ġit em
Ġp ort
iz ed
Ġb ro
Ġprot ect
Ġiss ues
Ġhe art
Ġk id
Ġmo d
read y
Ġpl astic
d ay
Ġal ready
Ġiss ue
Ġh or
Ġst ories
ent ly
Ġs ing
Ġbelie ve
vel op
Ġm aking
Ġb ag
th e
Ġtr ans
ull y
Ġqu est
am es
Ġstr ong
Ġe t
Ġp ri
Ġse c
are d
Ġcer tain
ion al
Ġcle an
Ġst ud
in es
Ġget s
Ġn ight
Ġo k
Ġp ain
u gg
Ġli ked
Ġm ag
re t
Ġas s
Ġf ig
Ġt akes
Ġwork ing
pt ion
Ġte ch
Ġde velop
Ġcomp an
o c
Ġfe ature
Ġgir l
u ff
is ed
Ġbatter y
if ic
Ġgen er
on es
Ġlook s
Ġp ubl
Ġp age
Ġmy self
Ġfin ally
Ġcomplete ly
Ġab s
ar r
at t
Ġc ard
Ġst e
Ġp ass
Ġcons ider
Ġcl ass
is m
her e
Ġbe aut
Ġproblem s
Ġan n
Ġtr ue
Ġpo or
ar ing
Ġad v
Ġso ft
Ġm ark
o ve
Ġorigin al
Ġvers ion
Ġwr ong
Ġdisappoint ed
Ġeas ily
Ġs n
Ġv ie
Ġcol or
Ġal ong
Ġme an
ust om
Ġet c
Ġc reat
re s
Ġvie w
Ġfriend s
st em
Ġc op
Ġyou ng
ro ss
ot e
Ġexper ience
Ġpos s
a h
Ġke y
Ġwork ed
Ġpl an
Ġex c
Ġcont in
Ġdif fic
Ġcam era
Ġdiffic ult
Ġit self
l ine
Ġam eric
Ġsy stem
c c
Ġh ouse
Ġm ed
an k
Ġrel ations
n y
Ġle ad
Ġc ur
if e
Ġc ustom
Ġm id
Ġd ist
Ġgi ven
Ġli ve
Ġfig ure
Ġenjoy ed
Ġlar ge
Ġinform ation
Ġh u
ir d
Ġm ater
e w
Ġtr ack
Ġup d
ut es
Ġpurch ase
Ġde p
Ġd uring
Ġent ire
Ġgo es
Ġf avor
Ġw ind
pp ed
Ġsty le
Ġpart ic
ist s
Ġcomp l
c y
Ġof ten
Ġs on
Ġmater ial
Ġsur pr
Ġrelations hip
Ġph ot
m m
Ġcon st
ou ch
Ġs it
Ġm om
Ġa p
Ġv ide
Ġch ang
Ġme m
Ġl ater
Ġre d
Ġhist ory
Ġcour se
Ġrec ord
Ġdire ct
Ġbe h
p ly
Ġide a
un ately
Ġseem ed
it ies
Ġneed ed
Ġco st
Ġimp ort
t ed
ot s
ic es
g an
Ġhour s
Ġf ail
Ġy es
Ġf air
Ġt est
o ice
m ed
Ġl ack
Ġg re
Ġspe ak
Ġlist en
in ess
Ġsim ply
el s
Ġsomet im
Ġex ce
Ġcle ar
en ces
r act
Ġre le
Ġv ol
am s
Ġle vel
ll er
Ġre qu
Ġb and
it ive
f ully
Ġm ention
Ġher o
Ġun fort
ll ing
ust r
Ġdo ing
d d
Ġmo ve
Ġc re
um e
Ġw ish
Ġs ent
um p
Ġmin utes
i et
Ġch ange
Ġp ull
Ġins ide
Ġbott om
as ter
Ġro om
Ġl ow
Ġp ar
Ġto ld
Ġsometim es
Ġp ay
Ġwom an
Ġh op
Ġbre ak
Ġv al
Ġh ot
qu e
Ġde vice
Ġd ark
Ġcomp ut
r ic
Ġa ud
Ġ x
Ġc ount
Ġpie ce
ens ive
iv ing
Ġ er
Ġlo c
at s
Ġgu ess
Ġg ave
Ġm ess
Ġf our
u c
Ġto t
Ġmy ster
Ġbeaut if
Ġt v
Ġdo g
Ġv ar
ut ion
Ġsch ool
Ġcl ose
Ġm en
Ġd ra
Ġst ick
ain s
a pe
Ġneed s
i ent
Ġs ense
Ġop in
Ġag o
re me
Ġhe av
Ġser vice
Ġcontro l
Ġpart s
Ġcompan y
Ġs ign
Ġpre vious
w ay
Ġche ck
Ġpro f
Ġe y
c us
bo ard
Ġs us
Ġst ay
Ġa ir
Ġchild ren
Ġv is
Ġex act
Ġan g
Ġunfort unately
Ġexce ll
ant ly
Ġf a
Ġt ouch
Ġcom fort
Ġperf orm
Ġinst ruct
Ġrom ance
Ġlong er
Ġbu ild
Ġf ast
am p
Ġs we
Ġbr and
Ġpre ss
Ġst ore
Ġdec ided
Ġevery one
Ġse lf
Ġd ro
Ġext reme
Ġb us
Ġse en
Ġp op
Ġd v
s ide
Ġfr ont
Ġb ased
Ġst ep
Ġwith in
Ġtr a
Ġcall ed
Ġm atter
b r
Ġsong s
Ġen ter
Ġg ri
y ing
m s
Ġde v
o nd
Ġlo st
Ġtech n
en g
Ġorder ed
Ġ %
Ġf ill
k ing
Ġty pe
Ġon es
Ġt it
Ġs ad
Ġexcell ent
Ġsl ow
Ġp a
ag ed
Ġc d
Ġex cept
Ġi r
Ġty p
em pt
ri ble
Ġre se
Ġwr ite
Ġpr in
Ġact ion
Ġpres ent
Ġm other
Ġres ult
Ġser ious
Ġhigh ly
w here
r aph
Ġspe nd
in s
Ġst op
ap er
an e
Ġb or
Ġte xt
ict ion
ter n
Ġquick ly
Ġst uff
Ġn orm
Ġwh ite
ol ute
Ġsim ple
Ġun i
Ġd ou
Ġt alk
er n
Ġcomput er
Ġs le
Ġb i
Ġbuy ing
Ġwee k
Ġwom en
Ġnum ber
Ġm ach
Ġm ount
Ġn on
Ġchap ter
Ġs at
Ġ ve
Ġabs olute
h aps
il ar
Ġvide o
Ġp air
Ġf ant
Ġpr int
ist ic
Ġper haps
Ġd ue
Ġob vious
Ġma j
Ġupd ate
oo se
Ġn ame
Ġread ers
d le
Ġb ar
Ġeff ect
s y
in ed
Ġpl ac
b and
Ġbec ome
Ġke pt
Ġf ood
Ġi ll
Ġm ot
Ġt al
Ġwor ds
Ġk ill
Ġpr om
u ly
l ight
ic ed
Ġcop y
Ġend ing
Ġcoll ect
or k
Ġem ot
ro d
Ġagain st
Ġperson al
Ġsa w
Ġim ag
Ġamaz ing
Ġres p
re ct
Ġfavor ite
Ġmaj or
j ust
Ġimport ant
ure s
r or
Ġfo cus
Ġfor ward
Ġf ather
Ġann oy
Ġo cc
Ġs ays
Ġext ra
Ġsu gg
Ġsugg est
Ġadd ition
augh ter
Ġcustom er
Ġhappen ed
us s
id ent
Ġthink ing
Ġsupp osed
Ġfeel s
Ġw ire
Ġn arr
Ġbeautif ul
Ġbo y
Ġf ut
Ġd i
Ġc ook
Ġwe ar
l o
Ġro ck
Ġexam ple
Ġapp ro
Ġkid s
Ġc ool
Ġf re
Ġhum an
Ġad m
se l
Ġw all
Ġwee ks
Ġsing le
Ġm or
Ġsw itch
Ġrese arch
Ġf ix
Ġso on
Ġt able
Ġs ou
a im
Ġsu c
Ġdri ve
b ook
o oth
Ġsl ight
e f
ip s
Ġbegin ning
ain ed
os s
Ġall ow
Ġpro gr
Ġnot e
Ġwa it
Ġs ort
Ġatt empt
Ġbut ton
Ġle av
Ġi d
Ġreplac ement
Ġh us
Ġar ri
l and
ipp ing
u nd
Ġde ath
Ġwant s
Ġopin ion
Ġgu y
Ġextreme ly
Ġimp ress
Ġw ife
Ġl iter
Ġhu ge
Ġg e
Ġcom ing
Ġdv d
ak en
Ġpro cess
Ġoff er
as es
i or
Ġh ar
el ess
Ġexpect ed
Ġh ol
Ġt ight
Ġn or
Ġse nd
Ġm ult
Ġdis co
Ġto day
Ġj ack
Ġde ad
is ter
Ġshow s
g ing
Ġpr act
Ġli ves
Ġhus band
Ġheav y
an ces
Ġtr uly
Ġhand s
Ġg ives
ap t
re nt
Ġp aper
Ġf ace
Ġm il
m ing
Ġle ave
Ġre fer
at or
itt ing
Ġfut ure
Ġm ic
Ġcont act
r ant
ne y
Ġwor d
Ġt aking
Ġrun ning
Ġscen es
ag ing
Ġm r
Ġpro per
olog y
ph one
s w
b ed
Ġabsolute ly
Ġdes p
Ġwe ight
Ġcertain ly
Ġc able
Ġpo st
an n
Ġn et
k en
Ġinter n
M L
X ML
f act
Ġhe ar
Ġr id
em ber
Ġm is
Ġd aughter
Ġme ans
Ġam ount
Ġp arent
Ġsim ilar
Ġpl us
Ġexact ly
Ġturn ed
Ġatt ach
Ġaf f
Ġg iving
Ġf ore
i en
Ġmod el
m b
Ġb en
Ġad just
Ġinclud ed
Ġthrough out
Ġbus iness
Ġkn ew
Ġm ix
is ing
pl ay
Ġw in
Ġsoft ware
ain ing
il t
ri ed
Ġle g
Ġus ually
Ġvol ume
at ic
Ġev ent
Ġf ive
Ġinstruct ions
Ġav ail
Ġset ting
Ġameric an
Ġmid dle
Ġwonder ful
Ġb ed
Ġchar ge
Ġde ep
sel ves
a x
Ġsa ve
Ġint rod
Ġcor rect
Ġlook ed
Ġan sw
ir t
og raph
Ġap art
Ġmach ine
Ġgr ou
Ġplay ing
Ġw alk
Ġth ird
Ġo pp
Ġa ge
un ch
Ġe p
ur al
Ġbec om
ou d
Ġmyster y
Ġen c
Ġd re
ore d
Ġsp o
Ġe arly
Ġhim self
as ing
Ġbeh ind
Ġl a
Ġus b
f fe
med i
Ġproduct s
g ed
wh at
Ġpie ces
r ay
Ġauthor s
Ġtr ou
et her
it es
l t
Ġt em
Ġhe ard
Ġfun ction
Ġinclud ing
le ct
g es
l us
ang er
al th
Ġsp ace
Ġp an
Ġsit u
Ġto ol
ver t
h n
Ġdra w
Ġbo dy
Ġr ub
Ġun less
Ġinv ol
Ġfeel ing
Ġprogr am
Ġmet al
Ġsol id
Ġpicture s
Ġsu mm
Ġfo ot
Ġtra vel
Ġc al
Ġhist or
er t
Ġsuc cess
ure d
Ġf ur
pt ions
Ġt reat
Ġrem ember
Ġinv est
Ġyour self
Ġe qu
Ġcomfort able
Ġhand le
Ġposs ible
Ġim medi
Ġout side
Ġfin ish
Ġco ffe
Ġenter tain
e x
pp ing
Ġj our
Ġac ross
Ġd am
Ġavail able
Ġsc r
Ġimp ro
Ġcur rent
Ġsub ject
Ġs ens
Ġr ad
Ġtit le
Ġare a
Ġp ot
ie ld
Ġa ut
Ġsound s
Ġl uck
Ġfr ustr
Ġde li
in ation
is on
ire s
Ġdesp ite
Ġco nd
ow ing
Ġf ight
Ġdec ent
pe nd
ent ial
Ġspec ial
i ally
Ġstand ard
Ġli ving
ph ones
Ġher self
ib ly
Ġm ine
Ġv oice
ck s
h o
th er
k y
Ġli m
in a
Ġm ist
Ġde m
Ġo h
Ġjo hn
Ġth in
c ial
Ġele ct
Ġt ast
um b
Ġd ig
p ar
Ġun c
Ġs av
m y
un g
Ġt aken
Ġprof ess
Ġcoffe e
it al
it or
in y
Ġr a
Ġc at
Ġple ase
Ġf iction
Ġg ar
b y
Ġi p
Ġkn own
Ġp en
Ġst o
Ġin ch
Ġrepl ace
Ġpur p
Ġd ial
Ġne g
u ed
Ġan t
Ġcl aim
k es
Ġbl ue
if t
Ġac cess
Ġend ed
Ġfl o
Ġplay er
Ġinterest ed
Ġwar rant
Ġbr ing
Ġknow s
Ġc ent
Ġse arch
Ġl ab
Ġt re
Ġg ames
Ġsay ing
li ke
Ġdescri ption
Ġmo der
l ish
Ġman u
Ġh it
Ġfe et
Ġannoy ing
Ġex ch
Ġstr ugg
Ġsp ent
Ġfeature s
Ġto wn
Ġfl aw
Ġkey board
Ġb ul
Ġturn s
Ġpol it
Ġthem selves
Ġl ay
Ġquest ion
Ġeff ort
Ġal one
Ġwas te
Ġb all
Ġf ans
le t
Ġhapp ens
Ġact ual
Ġtot ally
Ġr ating
Ġcompl ain
s on
Ġconnect ion
Ġmanu fact
Ġc aus
ant s
Ġs il
Ġf ire
Ġto ward
Ġch ance
im e
Ġp ad
g n
Ġstr a
o id
w ise
Ġme et
Ġapp re
ul arly
c um
Ġst re
Ġchap ters
Ġcle arly
Ġconf us
iv id
l er
are ly
Ġpo ck
f ace
Ġfl at
Ġgl ass
Ġmiss ing
Ġwr iter
Ġb ab
Ġstart s
Ġreg ard
Ġexp ensive
Ġdo or
Ġmost ly
Ġwh ether
Ġp at
Ġquest ions
Ġo per
Ġne ar
Ġab ove
i um
Ġc ult
Ġsome what
Ġgrou p
Ġperfect ly
Ġup on
Ġaud io
ation al
Ġc ir
Ġl ang
Ġimmedi ately
Ġr ich
le y
Ġper i
Ġstra ight
Ġpoint s
ou n
ri b
is ion
Ġp ush
b ers
Ġscen e
Ġperi od
Ġappre ci
Ġcl os
Ġslight ly
Ġcon cept
Ġany way
ll y
Ġway s
s et
ent y
Ġv i
Ġp et
Ġac cept
Ġfair ly
end ed
Ġswe et
lo ad
l ic
gr ound
Ġdetail s
Ġh ook
Ġc en
t o
Ġsp ir
Ġad ult
z z
Ġd a
Ġcar ry
Ġrem o
ab ility
Ġd ry
Ġnot iced
Ġc ord
Ġlot s
apt op
Ġl aptop
oo f
Ġus es
et y
eng th
Ġsho es
Ġmark et
Ġapp arent
Ġbas ically
Ġon line
Ġgl ad
Ġl ength
Ġbr other
Ġb ase
Ġl ed
Ġset t
Ġhop ing
Ġv ac
or n
Ġcom b
Ġdisco ver
is es
Ġg one
Ġfur ther
le x
Ġev ents
Ġexch ange
Ġlang u
Ġcomm un
Ġwor st
Ġs al
Ġmention ed
Ġbut t
Ġatt ention
Ġbro ken
Ġcr it
od y
Ġkind le
Ġw ood
i ans
Ġparent s
pl es
Ġwarrant y
Ġpl ug
ag on
Ġ ess
b ack
Ġfam il
g y
Ġnorm al
Ġbatter ies
Ġpre fer
Ġbri ght
Ġspe ed
Ġvar ious
u ced
Ġold er
Ġwor se
Ġmo v
Ġm ac
Ġu lt
Ġplay ed
Ġlo ck
Ġcon v
bs p
Ġsh ipping
Ġl and
Ġfun ny
Ġd est
Ġl aw
Ġgr and
Ġdisc uss
Ġcap t
Ġgener al
un k
Ġc u
Ġdou b
Ġhead phones
Ġn bsp
Ġthan k
Ġth ick
Ġpartic ular
Ġn one
Ġfl ash
w ork
c ing
Ġcollect ion
Ġc ri
Ġsle ep
Ġh ate
Ġtr uth
Ġc ast
r ing
Ġother wise
Ġmov ies
Ġend s
ri g
ul ous
Ġloc al
r on
Ġuse ful
Ġnot ice
Ġne arly
Ġso ld
Ġchrist ian
Ġn at
Ġwe ak
Ġpa id
Ġappe ar
Ġbas ic
Ġf em
Ġk ing
Ġsat is
Ġput ting
Ġm atch
og ue
Ġm ouse
Ġbe y
b ing
Ġl oose
Ġcount ry
Ġmoder n
Ġpos itive
Ġbec ame
Ġbl u
Ġb att
Ġok ay
Ġinc red
Ġm s
Ġrem ote
Ġsus p
Ġtri p
Ġth ri
Ġnovel s
ur y
Ġne cess
Ġwatch ing
Ġter rible
Ġtr ust
ri es
Ġprov ide
Ġs am
Ġse par
ip le
Ġadv ent
Ġdo ll
Ġr ange
ipp ed
Ġbu ilt
Ġarri ved
a ly
Ġre pe
Ġcen ter
Ġ ver
es e
v able
Ġbey ond
Ġdiffer ence
Ġs or
Ġh ang
Ġwind ows
Ġprov ided
Ġas pect
Ġhistor ical
Ġatt ract
er y
Ġb le
Ġse ction
Ġl augh
Ġb urn
Ġsur v
Ġsh ar
Ġfin al
Ġey es
Ġc ra
Ġtr ad
Ġh ur
us e
Ġpro ject
is hing
Ġlar ger
Ġfit s
Ġlo g
Ġbecom es
Ġfull y
Ġacc ount
Ġbo ard
Ġlike ly
Ġin it
Ġsee ing
Ġlangu age
Ġo bs
ect ive
Ġgr ound
es ome
m as
h e
Ġph ys
Ġhelp ful
Ġsmall er
Ġan im
et ic
m in
Ġm aster
Ġwe bs
ll ed
Ġrele ase
Ġf ing
Ġback ground
Ġpartic ularly
p or
Ġch all
Ġphot os
Ġex ist
Ġte en
Ġor gan
Ġansw er
Ġind e
Ġgre en
c on
Ġtrou ble
Ġchang ed
m a
ad es
Ġinstall ed
Ġconc ern
Ġval ue
Ġs our
ur ch
Ġmo ving
Ġb al
i ar
Ġl y
Ġadd ed
Ġrecommend ed
Ġem ail
Ġgu ide
Ġobvious ly
Ġexc ited
Ġfin ished
u ce
Ġdr am
Ġsurpr ised
Ġeng lish
Ġuni que
Ġacc ur
au ght
Ġrem ove
Ġdis play
Ġf ab
d ing
Ġbro ke
m er
Ġaw esome
ac y
Ġfind s
Ġd im
Ġsm ooth
Ġed ge
as y
Ġperform ance
Ġdep th
n a
Ġwh e
Ġcomm on
n ed
Ġspo il
Ġreturn ed
Ġco ld
Ġf ac
Ġmic ro
Ġrel ig
Ġevent ually
Ġte nd
Ġc red
Ġs ister
ud e
Ġch oice
it ions
Ġd an
Ġbor ing
Ġdevelop ment
Ġj e
Ġpurp ose
Ġm er
as ure
pp er
Ġhe alth
Ġse ller
Ġse ason
Ġw ide
Ġc art
Ġt ale
Ġsm ell
ens ion
Ġc ity
Ġide as
az y
Ġsto pped
ent ed
Ġkeep s
Ġhum or
Ġre v
Ġl ens
iz ing
Ġgu it
Ġl oud
Ġmult iple
Ġas se
Ġappe ars
ol ution
Ġr u
Ġ est
Ġcomp ared
Ġc up
if f
app ed
led ge
am ed
Ġb ill
Ġc ab
Ġad vert
Ġgu ys
as c
Ġbutt ons
Ġst uck
Ġeas ier
Ġrem ind
Ġre ach
Ġlight s
id ing
Ġh un
Ġcontin ue
Ġprin ter
Ġpre m
Ġbab y
Ġreal ize
Ġmom ent
Ġint rig
Ġcont ent
g ress
et h
Ġl ate
Ġg ift
ate ver
Ġrad io
Ġrec ently
Ġreview ers
Ġid ent
Ġh d
Ġwh atever
z e
Ġgr aph
Ġp sy
Ġplac es
Ġdesign ed
Ġreg ular
Ġtell s
Ġav oid
Ġso ci
Ġrub ber
Ġsc ience
Ġs ix
Ġserious ly
Ġdown load
Ġpos ition
Ġpack age
Ġm ill
Ġspir it
Ġsu n
Ġb other
Ġcoll e
f or
Ġph il
Ġopen ing
Ġt en
Ġchrist mas
Ġitem s
Ġc y
Ġab ility
Ġl ad
Ġsm art
Ġdet er
Ġst ate
Ġfollow ing
w s
Ġpsy ch
Ġlo ad
ver age
Ġlo ves
Ġocc as
Ġwa iting
Ġind ivid
Ġscr atch
Ġtalk ing
ar ning
Ġins ight
Ġproper ly
Ġfa ith
Ġsec ret
Ġar m
Ġse ll
er v
Ġh y
Ġwas h
Ġno ise
Ġimag ine
m ore
Ġde b
Ġleav es
Ġsk ill
Ġlearn ed
pect ive
b ody
d en
Ġhonest ly
Ġc atch
r u
Ġre ve
ip es
Ġme l
Ġst ri
Ġvi ol
Ġwr ote
Ġl ines
am ing
Ġclass ic
g est
Ġtell ing
Ġpubl ic
Ġins p
Ġha ir
Ġfe ll
ro om
Ġey e
Ġfind ing
Ġread y
Ġhigh er
Ġf i
Ġear th
ic ated
Ġimp oss
Ġun like
if y
iz ation
Ġshar p
Ġhor rible
Ġpro s
ct ions
Ġr ate
Ġwebs ite
en cy
Ġman ual
Ġ ut
ar ily
Ġt un
Ġfor g
a f
Ġult im
Ġdoub t
Ġint ell
Ġfill ed
Ġpre d
Ġl ower
Ġapparent ly
ri ght
Ġse qu
at a
p ut
Ġtw ist
Ġr ing
Ġag ree
Ġcam p
Ġmo de
Ġpl enty
Ġro ad
Ġch urch
Ġw al
Ġle arning
Ġneg ative
Ġsitu ation
Ġfant asy
Ġtrack s
Ġsatis f
Ġfe ed
Ġmess age
Ġjour ney
ugg ed
Ġhe at
if ied
Ġev il
i k
Ġtast e
Ġfil ter
ac hing
Ġpock et
Ġmom ents
li er
Ġst at
Ġsor ry
Ġtot al
Ġlo s
n o
Ġunderstand ing
Ġv ict
Ġentertain ing
Ġs and
Ġsh are
Ġcom ment
Ġgr ow
Ġm ad
Ġimposs ible
iz es
Ġl ink
b i
Ġwar m
Ġd anger
on y
Ġcr ack
Ġintern et
Ġgo ld
Ġconst antly
Ġknow ledge
Ġch o
c le
Ġbe at
Ġd ur
Ġmin or
u ing
Ġc ross
Ġpre p
Ġb arely
Ġfant astic
Ġstart ing
h ead
Ġg un
s c
uct ion
Ġa verage
Ġon to
Ġr and
Ġhe ld
Ġj ud
Ġtw ice
Ġfor get
Ġflo or
Ġro b
Ġcre ate
Ġmag ic
Ġo ption
Ġinvol ved
Ġprov ides
s h
Ġexpect ing
Ġguit ar
Ġp u
og n
Ġs qu
Ġhol es
Ġconsider ing
Ġb ir
Ġdr ink
Ġar g
Ġv oc
Ġenjoy able
e y
Ġi gn
Ġli f
Ġde g
Ġconst ruct
e c
Ġmag n
Ġfem ale
Ġst ur
Ġse x
Ġfr ame
ent al
ll i
Ġad ap
Ġad vice
Ġfeel ings
Ġwe b
Ġdo cum
Ġbl ood
ren ch
Ġreason s
Ġconnect ed
Ġp c
Ġcl ick
Ġm ur
Ġg er
Ġmean ing
Ġi phone
Ġr an
Ġj ump
al ing
Ġco vers
Ġfa ult
Ġas ked
an ced
Ġappro ach
er ing
Ġwire less
Ġes c
Ġref und
Ġsur face
Ġmanufact ur
Ġcol ors
Ġus eless
Ġinclud e
Ġdevelop ed
Ġme ant
Ġconc lus
Ġfail ed
Ġinf l
Ġs ides
r ors
Ġo dd
Ġkeep ing
Ġchang es
ion ally
Ġsa fe
Ġspeak er
Ġf ly
Ġrec ogn
Ġsusp ense
Ġcomple x
Ġgirl s
Ġun f
Ġst ates
Ġed ition
Ġma x
id ence
Ġpot ential
Ġreplac ed
Ġbr ought
Ġstr ange
Ġindivid ual
ag er
Ġhero ine
Ġas k
ub e
Ġd ate
Ġfre qu
Ġd av
f fer
Ġfl ow
Ġto n
h ow
Ġpoor ly
Ġf asc
Ġhelp s
Ġsh el
Ġrec ipes
res h
Ġfir m
Ġfor ce
Ġm ich
Ġdisappoint ing
Ġm at
Ġsho ck
Ġd iv
Ġp ac
ic ulous
Ġchar ger
Ġsho e
Ġdes er
Ġlisten ing
iv ity
Ġdial ogue
Ġimpro ve
Ġmem ory
Ġresult s
Ġal tern
Ġres pect
Ġleav ing
Ġchar ging
Ġso cial
Ġsh ot
Ġadd ress
Ġear lier
Ġcou n
Ġc ases
Ġam ong
Ġgen re
Ġpick ed
Ġill ustr
Ġc ute
Ġd ress
Ġsho ot
Ġliter ally
pp y
Ġn ature
ograph y
ret ch
Ġfamil iar
Ġopen ed
Ġwe aring
Ġst ren
Ġb ass
in ing
Ġte am
Ġpower ful
Ġde l
as k
Ġr ou
Ġb ible
Ġd y
Ġattach ed
Ġth or
ant ic
Ġbe gan
h ood
Ġsett ings
Ġv ia
Ġh om
dd en
Ġho le
Ġsp ot
ib ility
Ġcolle ge
Ġcr azy
Ġset s
Ġfigure d
Ġcreat ed
Ġthought s
Ġperson ally
Ġter ms
Ġtoward s
r ow
ak er
Ġim m
Ġtable t
Ġp ath
Ġdescri bed
g th
Ġlo se
u it
Ġexper ien
Ġphot o
Ġn ut
Ġto y
Ġbatt le
op h
Ġfr ank
Ġwill ing
Ġstren gth
Ġameric a
Ġbegin s
n ers
Ġup gr
Ġl u
Ġmin ute
Ġli br
r it
Ġj es
Ġasse mb
Ġt ar
Ġpri m
Ġadm it
Ġsk in
Ġsu dden
Ġbig gest
Ġspeak ers
Ġpre v
Ġprotect or
Ġfo ld
Ġthan ks
Ġreal ity
Ġbuild ing
Ġs itting
Ġep is
Ġdev ices
et t
Ġsou l
Ġd ied
r id
Ġappreci ate
Ġm ir
i pe
Ġim age
Ġd ie
ver se
Ġro le
or ge
it ter
Ġaw are
Ġsy n
Ġpolit ical
Ġc ry
Ġfall s
Ġsh ip
Ġt iny
er o
Ġwant ing
Ġse at
i ences
b b
Ġe at
Ġle ather
Ġimpress ed
Ġsumm er
ch an
Ġl at
Ġdes k
h od
Ġprofess ional
Ġst retch
Ġb ur
Ġde pend
Ġpurch asing
Ġstr ap
in ating
Ġo il
Ġturn ing
Ġcard s
Ġstur dy
Ġpart y
Ġcons ist
Ġkn ife
Ġblu et
Ġsh ut
Ġip ad
Ġd ata
Ġthr ow
Ġl id
Ġsign ific
Ġdro p
om b
Ġr ound
Ġk it
Ġsoci ety
Ġbluet ooth
u um
Ġoff ice
Ġf resh
Ġemot ional
Ġto m
Ġrequ ired
Ġnew s
Ġv ill
Ġpubl ished
Ġte ach
Ġhold s
Ġinc re
Ġrid iculous
Ġsecond s
Ġmar ri
Ġfor ced
Ġv amp
Ġd u
Ġdeter m
Ġrecord ing
Ġspec ific
Ġpers pective
Ġma le
Ġhold ing
Ġro ll
Ġd en
er c
ll a
Ġda ily
ir ing
Ġbl ock
Ġreal ized
b el
Ġar ch
Ġhelp ed
itt ed
Ġsou th
Ġsu ffer
Ġreturn ing
Ġresp ons
Ġpro gress
Ġdeli ver
Ġwho se
Ġscre ws
Ġgo ver
en ing
Ġvac uum
Ġrele ased
ive ly
Ġb ow
Ġeng ine
w ood
Ġl oo
Ġt ape
Ġdirect ly
Ġknow ing
Ġus er
Ġcon vers
Ġcover ed
Ġw ild
Ġstory line
Ġtri es
e en
Ġf ol
Ġcomp ar
d o
Ġsurpr ise
Ġen v
Ġed uc
Ġrep air
Ġd ust
Ġtyp ical
c om
Ġacc om
f orm
Ġme chan
Ġmo ved
Ġc e
Ġwr it
Ġpress ure
Ġwr ites
Ġbott le
Ġexpl an
al ed
Ġnecess ary
Ġfab ric
Ġmet hod
Ġpack aging
Ġmor ning
Ġrun s
Ġgot ten
Ġexpl ain
Ġset up
Ġbel ow
Ġr ain
Ġdisappoint ment
Ġexp ress
Ġth read
Ġth us
Ġtem per
Ġrand om
Ġrou ter
Ġst ock
us ed
Ġwe ird
Ġatt ack
Ġbeh av
Ġcont r
Ġlo ss
Ġm c
ber t
is her
bo x
Ġrep ort
Ġsh ape
Ġdr ag
Ġu nd
Ġj ew
Ġnice ly
Ġexam ples
Ġex erc
Ġsol ution
Ġun s
Ġown ed
Ġlab el
Ġr is
Ġf ield
Ġdig ital
Ġk itch
Ġbr own
Ġbi ke
Ġmanufactur er
Ġun re
Ġthor ough
Ġconv in
Ġtrad ition
en ed
Ġm ass
Ġfe ar
Ġch em
p ort
Ġlim ited
Ġk ick
Ġcont ain
Ġpri or
Ġcent ury
Ġadvent ure
Ġer rors
Ġp atter
Ġcult ure
Ġt ough
Ġgl o
u ro
Ġaff ect
Ġcare er
Ġoff ers
Ġaccur ate
Ġbig ger
Ġs ite
Ġinvest ig
Ġsc ri
Ġinclud es
Ġgover n
Ġstud y
Ġdou ble
b all
Ġlibr ary
Ġmon itor
Ġass um
Ġmarri age
iet y
Ġind ic
Ġqu iet
Ġreview er
a el
Ġsome how
Ġsus pect
Ġob ject
Ġkitch en
Ġbr it
re w
c er
Ġall ows
Ġnarr ative
Ġo pt
Ġrel ative
Ġbl ade
Ġnat ural
p ri
Ġcall s
Ġsc ient
Ġtrans l
Ġpred ict
Ġa ch
Ġacc ident
Ġbri lli
Ġch oose
Ġmil it
c ome
Ġo ptions
Ġs pl
n am
Ġpain t
Ġme ets
Ġcl oth
Ġmot or
Ġr ough
r um
Ġele ments
Ġr ide
Ġb reat
er ed
Ġfrustr ating
Ġapp lic
Ġadap ter
Ġfor t
v al
Ġc ell
Ġin k
Ġt ab
Ġapp le
Ġp ark
Ġdescri ptions
Ġbri ef
Ġch air
Ġdo ct
Ġc aught
on se
Ġbo ot
Ġp s
Ġsub st
s is
m p
Ġh es
ac es
Ġnot es
Ġscri pt
Ġany more
e e
Ġt ur
o ld
Ġaw ful
Ġpl ays
Ġne ither
Ġhor ror
Ġa lex
Ġdre am
Ġpop ular
Ġp ow
Ġm att
Ġsec ure
i ents
Ġcomp et
Ġjes us
Ġs ams
Ġd om
Ġple ased
Ġcom pe
Ġshow ing
m i
Ġp ill
Ġcontact ed
Ġbr ings
Ġpract ice
Ġj ames
Ġrece ive
Ġthe r
Ġcl im
Ġconclus ion
c ent
Ġben ef
Ġdetail ed
Ġus ual
Ġaddition al
Ġposs ibly
Ġse lect
Ġare as
Ġdog s
Ġread s
Ġfall ing
ad ing
Ġchall eng
Ġcomplain t
Ġmo ves
Ġclean ing
oth ers
Ġrelationship s
olog ical
Ġas ide
e per
Ġintell ig
Ġl in
Ġacc ord
Ġincred ibly
ous ly
Ġrefer ence
Ġexper iences
Ġenc oun
Ġgr ab
Ġact ing
Ġresp onse
Ġson y
Ġform at
Ġdire ction
Ġdram a
im ent
i ke
il ities
Ġmist ake
ing ly
ort un
Ġprot agon
Ġen er
Ġfollow ed
Ġalbum s
Ġnorm ally
f l
Ġgener ally
Ġm art
Ġm ail
Ġfilm s
Ġcons um
Ġprotect ion
Ġdis h
Ġprem ise
Ġcl ip
Ġmilit ary
Ġrom antic
Ġhu nd
Ġkill ed
Ġfore ver
Ġentire ly
Ġinde ed
Ġhund red
Ġdisc ount
Ġopp ortun
Ġwind ow
Ġocc ur
Ġexperien ced
Ġin g
Ġsurpr ising
Ġrequ ire
Ġcheap er
Ġir on
Ġi ce
o ver
i i
Ġplac ed
Ġmed ia
Ġcare ful
Ġint ended
Ġdav id
act ion
Ġdef ective
r al
Ġch ann
Ġn ames
Ġmin im
un t
Ġste el
Ġpol ice
Ġbo ots
Ġm m
Ġj u
Ġly r
ac her
Ġsh op
Ġdra wn
if i
Ġdec ide
Ġremo ved
Ġn av
ot es
Ġst ated
Ġsour ce
Ġhope fully
Ġp ump
Ġstud ents
Ġsams ung
Ġbir th
Ġd on
ie f
Ġultim ately
Ġwalk ing
Ġdro pped
Ġco de
Ġfasc inating
Ġp al
Ġhur t
Ġfact s
Ġr ay
Ġbu d
Ġpl ugged
Ġb ol
Ġaut om
iv al
Ġli ved
Ġb on
Ġcoun ter
r ound
Ġdest ro
Ġtr ick
ir ty
Ġtool s
Ġsepar ate
w or
ur ity
Ġpresent ed
Ġbo ys
Ġch ina
Ġexpect ations
Ġj ap
ill y
Ġthem e
Ġproduct ion
Ġs ar
Ġb unch
Ġwhe el
Ġsh ame
re ts
Ġinfl u
Ġref lect
Ġpre c
Ġjap an
Ġpass ion
Ġdr ug
Ġmed ium
Ġa head
Ġany where
Ġform er
Ġdiscover ed
we ll
Ġgri p
Ġoff ic
Ġrep res
Ġaud ience
Ġto ne
Ġdam age
ir st
ic a
Ġke ys
Ġinch es
Ġst ere
Ġsur round
Ġpull ed
Ġst or
Ġreal istic
Ġp in
os p
ir on
Ġsad ly
Ġne ck
Ġsu it
l ict
g o
Ġintrod uction
Ġto w
Ġger man
Ġport ray
l og
Ġsle e
Ġpatter n
Ġcred it
Ġkill er
Ġr ush
Ġg oo
Ġrec ent
Ġcont ains
Ġer ror
l s
Ġtw ists
Ġsu ff
Ġz ipp
Ġchang ing
Ġd ad
Ġle ak
Ġnet work
Ġbr ush
ent ially
wh ile
Ġfor th
Ġres ist
Ġrece i
Ġj oy
g ar
un e
Ġte a
Ġan aly
Ġthere fore
ho st
Ġe th
b it
Ġmar ried
Ġmem bers
Ġdocum ent
and s
Ġc and
Ġg host
Ġconfus ing
Ġaut o
Ġgovern ment
Ġcl ub
Ġtechn ology
Ġenv iron
ul ation
Ġexc iting
Ġne igh
Ġplay ers
Ġc as
Ġbel t
Ġconf lict
Ġsign al
Ġmiss ed
Ġpubl isher
ate g
Ġclaim s
Ġsex y
Ġneigh b
Ġoffer ed
Ġhead set
ul es
Ġli kes
ut ed
Ġtyp es
Ġdirect ions
Ġcri me
Ġp ure
Ġthink s
Ġf u
Ġmich ael
Ġe uro
Ġgr ind
Ġsitu ations
es h
Ġinstall ation
g le
Ġstr uct
Ġant i
Ġact iv
Ġm al
Ġsm o
Ġgr ad
Ġr h
Ġw ed
om fort
Ġr out
Ġphil os
Ġpl ain
Ġpri v
Ġn amed
Ġcon ven
Ġcl ock
Ġhappen ing
c l
Ġsh own
am m
art ment
Ġadvert ised
Ġte le
Ġslow ly
Ġtr aining
Ġinter view
ic le
Ġimp act
Ġwrit ers
Ġple as
Ġim ages
Ġact ions
Ġc iv
Ġj unk
Ġsome where
ru pt
Ġsub t
con om
g s
Ġorigin ally
Ġsp in
Ġconst ant
Ġfing er
Ġed iting
Ġmin i
Ġstud ent
Ġeffect s
Ġsupp ose
p et
Ġlad y
pl oy
Ġelect ron
st r
f riend
Ġy ork
ag ue
Ġsl ide
Ġuni vers
it ude
Ġsudden ly
y al
Ġvar iety
Ġz ero
Ġcaus ed
Ġrep et
Ġphys ical
Ġrel i
Ġdec ision
Ġhard ware
Ġsp ring
Ġcu ri
ed s
Ġbr ain
ist ry
Ġe conom
Ġb es
Ġmix ed
Ġapp ly
Ġtechn i
Ġnum er
s es
Ġyou n
Ġcra ft
Ġhop es
Ġlead s
Ġu r
Ġyoun ger
Ġemot ions
Ġrepe ated
Ġf ash
Ġwor ry
Ġmove ment
Ġbelie vable
Ġw es
Ġsuccess ful
Ġdem on
Ġpa ul
Ġcart rid
Ġstep s
Ġcl osed
Ġf rench
Ġconsider ed
Ġcir c
Ġun us
Ġcond ition
Ġem p
Ġex ec
Ġcom ments
Ġdoll ars
Ġang le
Ġtechn ical
Ġfil es
Ġrequ ires
in ary
Ġsp ray
Ġlist ed
Ġp ace
ic y
Ġdep ress
Ġenc our
Ġlat est
Ġvide os
se qu
ar m
Ġcontin ues
Ġed ges
Ġtemper ature
Ġwh om
Ġfash ion
Ġconcern ed
Ġbu ck
Ġtr ain
Ġwonder ing
Ġres ol
Ġach ie
Ġaspect s
Ġar c
Ġnor th
Ġlo ving
Ġb an
ol f
Ġt our
Ġch ose
en n
Ġr am
m es
Ġed itor
R L
U RL
Ġsp ort
Ġt ank
ou th
Ġshow ed
Ġkn ock
ll s
Ġrelative ly
Ġtar get
Ġfight ing
Ġin n
Ġgr owing
Ġfix ed
Ġv irt
Ġen em
ke y
Ġener gy
Ġstre et
ra id
Ġtr ail
itt y
Ġphilos oph
f irst
Ġg b
Ġcreat ive
Ġdur able
Ġdis s
et er
or ter
re es
Ġt ension
Ġansw ers
Ġpr oof
Ġdis p
Ġm ent
Ġeuro pe
Ġsn ow
Ġeng aging
Ġbal ance
Ġg al
Ġj ul
Ġcont em
em ents
Ġd ut
Ġcorrect ly
Ġc ats
Ġtop ic
Ġbrilli ant
Ġlack ing
b es
Ġe ars
Ġw est
Ġlast ed
ro s
Ġsec rets
Ġallow ed
Ġ nd
Ġind ust
Ġaf raid
Ġprevious ly
Ġj am
Ġinit ially
Ġconstruct ion
Ġciv il
Ġr ac
Ġnum bers
Ġcomp are
Ġnumer ous
0 0
Ġstor age
ard s
Ġrelig ious
Ġem pt
Ġt or
r ation
or able
Ġme asure
Ġem b
Ġed it
Ġcurrent ly
Ġv an
Ġcompe lling
Ġdist ract
Ġlevel s
Ġv s
Ġse ctions
Ġin ner
Ġart ist
Ġmil es
ant ed
Ġenviron ment
Ġleg s
Ġcab les
id den
Ġde light
Ġrefer ences
Ġfl im
Ġl ord
Ġgreat est
Ġstrugg le
Ġcl ar
Ġph ones
Ġbelie f
i us
Ġdeal ing
k er
Ġgr ace
Ġchar ged
Ġgraph ics
Ġbu ll
Ġtradition al
Ġt ips
Ġthr own
at ives
an a
Ġinf o
Ġhard ly
Ġexpl ained
nd s
ri fic
Ġcut ting
k ward
less ly
Ġvers ions
Ġp ound
um ps
Ġthe ory
Ġt ired
as p
Ġskill s
Ġcho ices
en ge
Ġcam er
Ġopportun ity
ot ed
Ġsc an
Ġopin ions
Ġm outh
Ġhe a
Ġw et
Ġbag s
Ġprotagon ist
Ġbl og
Ġwe ather
Ġvict im
Ġing red
Ġth reat
Ġaw kward
Ġbre aking
Ġang el
Ġwin ter
Ġthorough ly
Ġcommun ity
Ġunit s
n al
ed y
Ġh ose
ri f
Ġr ot
Ġbehav ior
Ġter m
Ġresp ond
t ime
Ġ era
Ġregard ing
Ġev idence
Ġsk ip
Ġin ex
Ġs ized
Ġspend ing
on nect
Ġse lling
Ġis land
Ġlyr ics
Ġcrit ic
c r
Ġb ath
Ġd ed
Ġt all
b al
Ġgar b
Ġdanger ous
Ġsh ad
pri ate
Ġinst rum
Ġj er
Ġfol ks
Ġunc omfort
p ack
Ġw id
Ġip od
Ġboy friend
Ġelse where
Ġprev ent
Ġbeaut y
Ġun able
Ġman ner
Ġw it
Ġtest ed
Ġinit ial
we ight
Ġrel ated
Ġspec if
Ġco re
Ġres our
Ġun ex
Ġincred ible
Ġd in
Ġf le
us hing
Ġf al
e v
Ġch ick
Ġbrit ish
ch ar
Ġflim sy
Ġdri ver
Ġsh irt
Ġcook ing
Ġris k
Ġ q
Ġintrig uing
Ġbecom ing
Ġopp os
z en
Ġfollow s
Ġhook ed
d om
Ġpredict able
Ġintrod uced
Ġwor n
Ġdescri be
li ed
Ġpro p
Ġsec urity
Ġencoun ter
Ġfam ous
Ġs ight
ul a
Ġsequ el
Ġno ve
ers on
Ġbro ad
Ġdestro y
Ġp un
Ġt ip
Ġupgr ade
ore s
Ġth om
Ġmus ical
Ġhead s
Ġeffect ive
Ġw ifi
Ġwar ning
Ġsh ipped
Ġbr others
Ġa st
Ġv o
Ġflaw s
Ġpar ag
Ġcor ner
ap ed
Ġdri ving
Ġl ou
Ġcommun ic
Ġm ary
Ġg ard
o de
v ant
Ġviol ence
Ġe ating
Ġf aster
app ing
Ġexplan ation
Ġfail s
Ġwatch ed
Ġhar m
os es
Ġclos er
log y
Ġinc or
Ġcreat ing
Ġstr aps
Ġaccord ing
Ġsim pl
Ġconfus ed
Ġbreat h
Ġd iet
Ġw ow
Ġf ile
Ġattempt s
Ġar r
Ġpract ical
Ġf lex
l in
Ġmod els
ad ed
Ġadd ing
Ġmur der
Ġfriends hip
Ġput s
Ġtrans fer
Ġdam aged
ward s
Ġfl avor
Ġparag raph
Ġpr ay
Ġhe ight
e gr
Ġhe aring
Ġye ah
Ġarg um
Ġso le
Ġwas hing
Ġwork out
Ġmult i
Ġs ick
Ġbeautif ully
gh ter
Ġtrou b
por ary
Ġdr um
Ġmot iv
Ġgarb age
Ġm ere
er g
Ġdoct or
Ġele ment
Ġdisapp e
Ġpay ing
Ġperson ality
av es
Ġpro se
Ġst age
g a
Ġmain ly
Ġo d
Ġsh all
Ġsatisf ied
Ġz o
Ġfo am
Ġse al
Ġas king
Ġir rit
Ġ vel
Ġres olution
Ġman aged
c il
Ġcontrol s
Ġas h
at ically
Ġassemb ly
Ġuncomfort able
Ġvamp ire
Ġcheck ed
Ġchild hood
Ġspe aking
Ġsav ed
Ġport ion
Ġmyster ious
Ġsa f
Ġelect ric
Ġshel f
Ġmy th
Ġs ac
Ġfrequ ently
Ġsignific ant
a i
Ġz omb
Ġtr ash
Ġal ive
Ġbu cks
Ġp ed
Ġw ise
ar ies
Ġsp r
Ġm p
az z
Ġn y
Ġpe ace
Ġte acher
ines e
and er
tern al
af ter
le ction
Ġte aching
Ġt ed
Ġbe ach
Ġpri me
Ġar ms
Ġvis it
Ġh p
is ions
Ġy a
Ġch inese
ol ic
Ġcle ver
Ġsk y
Ġesc ape
Ġdisc l
Ġmiss ion
Ġse es
Ġh int
Ġdim ens
ic les
Ġbor n
Ġh its
Ġr d
Ġr ated
Ġbl ur
m iss
Ġdri ves
Ġcr ash
Ġem ploy
Ġm ath
Ġthri ller
Ġcompar ison
Ġchar l
Ġr y
Ġpu zz
Ġre in
ro p
Ġho lly
Ġgre w
Ġcir cum
Ġs illy
Ġh i
Ġst ation
Ġreg ret
Ġaccom pl
c ious
Ġd ull
Ġb at
Ġdeg ree
wh en
Ġgoo gle
bel ie
Ġtal ent
Ġtop ics
Ġf ro
id ge
Ġwes tern
Ġdes per
ie ce
Ġfing ers
Ġrel ate
e xt
Ġband s
Ġrelig ion
Ġp ants
ail s
Ġpar an
Ġn ic
Ġtri logy
pect ed
Ġimpress ion
Ġd ance
Ġha m
an cy
um in
Ġs ke
Ġdre ams
all ey
Ġsa le
Ġi i
Ġs que
Ġpac ed
Ġhang ing
Ġstand s
Ġgr ade
o on
Ġadd s
Ġr ace
Ġpack ed
Ġf ool
Ġwill i
Ġanim als
Ġcr is
Ġres c
Ġcontro ller
Ġmain tain
Ġve h
at ors
Ġm ap
Ġlos ing
Ġevery day
Ġlove ly
Ġgr amm
ot ing
Ġcr u
Ġin put
Ġadult s
Ġbe ar
Ġg ent
Ġf ish
in ct
or ing
Ġup s
Ġliter ature
Ġge orge
Ġr uss
re st
Ġwas ted
Ġint ense
Ġhand y
Ġcare fully
h a
Ġres et
Ġdec ides
Ġs an
Ġst ress
Ġsil ver
Ġintern al
Ġdes ire
Ġfact ory
Ġn ick
ag ement
Ġj an
Ġprod uced
Ġbe nd
Ġspirit ual
Ġbes ides
Ġcompl icated
Ġinter p
b re
Ġye llow
Ġmaterial s
stand ing
Ġd irty
Ġinter act
Ġcan on
Ġjour nal
qu es
Ġsound ed
Ġhard er
Ġwe ap
Ġspecif ically
is ters
os ure
ars h
Ġfr an
Ġf und
Ġun belie
Ġsl ip
Ġprint ed
Ġqu al
o pe
Ġsp ark
y le
l ock
Ġdiscuss ion
Ġequ ip
w r
Ġp ink
Ġsend ing
Ġd ar
Ġab use
Ġpl ate
Ġdeterm ined
Ġso ph
Ġf if
Ġout put
Ġcomplain ts
u ous
Ġr at
ci ent
Ġor d
i ven
Ġr ules
Ġfail ure
Ġli ber
Ġmatt ress
Ġh idden
Ġcont ext
Ġsp an
Ġbr a
Ġhigh light
Ġr ack
Ġadv anced
Ġdist ance
Ġchall enge
Ġde ce
Ġh ous
Ġth ous
Ġb ored
Ġass ume
d ed
Ġhum ans
rib ly
Ġgen u
Ġli es
Ġt ag
m ble
ap es
am ent
Ġpock ets
Ġlead ing
Ġt ree
Ġst one
t r
Ġsent ence
Ġloc ation
Ġste am
Ġde eper
Ġdirect or
Ġst ain
Ġr arely
Ġluck y
Ġsol ve
il ing
Ġprep ared
Ġro se
a ff
Ġcont rib
Ġmist akes
Ġun ne
Ġover ly
Ġass ist
Ġepis ode
Ġen s
Ġad e
Ġsupp ly
Ġs ink
l a
Ġapp s
Ġdescri bes
Ġc ath
Ġrecei ver
o v
ib l
Ġplan et
Ġlet ter
Ġgenu ine
Ġst itch
Ġbul b
Ġcustom ers
Ġvis ual
Ġrequ est
p an
Ġext ended
Ġdet ective
Ġregard less
Ġinde pend
Ġbad ly
Ġint egr
mp ath
us es
Ġtr uck
Ġf ed
a ur
u ces
Ġli ft
Ġprom ise
Ġequip ment
Ġv ib
Ġlet ters
i ers
Ġfriend ly
ce ed
Ġunder st
Ġcamer as
Ġdet ect
Ġro bert
Ġsearch ing
ut ions
Ġbreak s
Ġappro priate
Ġrem ark
Ġcaus es
Ġre ar
x ic
Ġempt y
Ġoccas ionally
Ġh at
Ġaltern ative
Ġe ight
Ġstep h
p oint
Ġcour t
Ġorder ing
Ġqu een
Ġjapan ese
Ġmot ion
Ġpres ident
Ġde lic
Ġl bs
Ġinst ance
Ġreview ed
Ġingred ients
Ġsh if
Ġrem ain
Ġh ill
Ġevery where
Ġcrit ical
ess ion
u x
Ġrec ipe
Ġess entially
Ġhar ry
Ġh en
Ġcall ing
Ġreason able
Ġchem istry
Ġnot ed
Ġsaf ety
Ġrepres ent
Ġc ars
Ġgl ue
Ġpow ers
Ġwe alth
Ġr are
in o
s ing
Ġcloth es
Ġfrustr ated
Ġme as
ess ed
Ġexcept ion
c ast
Ġcomp at
Ġgu ard
Ġunex pected
it ation
Ġplan ning
Ġwa ist
Ġsh ower
Ġcomp on
Ġbit s
ic ient
Ġw itch
wh el
Ġlead ers
Ġph r
Ġmajor ity
Ġhop ed
Ġl itter
Ġuni verse
Ġkill ing
ro id
Ġme at
od es
Ġra ised
em s
Ġan ten
Ġbenef it
ific ation
Ġcu ps
Ġp ool
Ġj im
Ġconcept s
Ġcircum st
Ġaff ord
Ġk en
Ġunne cess
o k
Ġac ad
Ġrecord ed
Ġapplic ation
Ġchr on
Ġam b
Ġattract ive
Ġsens itive
or der
Ġtrans form
Ġpass ed
Ġact ors
Ġappear ance
Ġsurv ive
Ġbl ind
Ġfocus ed
Ġto ng
Ġsc ale
Ġworth y
at o
Ġbon us
l ook
Ġble nd
p o
Ġwed ding
o b
Ġfl ip
ic ing
Ġj ane
oo p
Ġdut y
Ġal ph
Ġeng land
Ġcl iff
Ġaf ric
Ġhold er
Ġsn ap
Ġest ab
re h
Ġhealth y
Ġant ic
Ġjust ice
Ġacad em
Ġb ent
Ġt ube
Ġbud get
Ġfal se
Ġcost s
Ġdeg rees
Ġhd mi
c a
Ġcaus ing
Ġk iss
Ġse ven
Ġbul bs
Ġpill ow
Ġmem ber
Ġstand ing
Ġnow here
Ġzipp er
v in
Ġchann el
Ġappe ared
Ġnarr ow
Ġim pl
Ġsy mpath
Ġgraph ic
iz z
Ġle e
Ġback pack
Ġb oss
Ġvoc als
Ġg am
Ġliter ary
Ġl ol
Ġo s
art s
Ġillustr ations
Ġtreat ment
Ġgener ation
Ġst ays
Ġmag az
Ġexpl ains
Ġsch ol
u able
Ġinn oc
Ġr aw
Ġstrugg les
Ġfun ctions
Ġcontin ued
Ġg if
av ing
Ġmeet ing
Ġpet er
as hing
Ġs izes
Ġdi am
Ġdec isions
Ġdist ur
Ġprod uc
Ġsc ott
Ġcompan ies
Ġs d
Ġcuri ous
Ġbrand s
am a
Ġmed ical
Ġins ert
ain t
cept ion
Ġl uc
Ġless on
Ġwor ried
Ġfamil ies
Ġcl ich
ch es
Ġgr own
Ġser ve
Ġmount ing
nd on
Ġdeep ly
Ġsumm ary
Ġg as
Ġu pper
Ġsqu are
Ġrecogn ize
Ġstud io
Ġadv ant
Ġpan el
st on
Ġess ential
Ġfirm ware
so ci
Ġhelp ing
Ġbo nd
Ġstr ing
Ġp il
Ġphot ograph
k in
Ġpre gn
Ġan th
Ġexerc ise
Ġcomb ination
Ġhas s
i os
y er
Ġd irt
Ġsuper ior
Ġv ent
Ġex ternal
Ġli e
Ġexper t
Ġappe al
Ġle ge
Ġmo b
Ġcom ic
Ġw ars
Ġm b
Ġstruct ure
Ġimpress ive
Ġjo e
Ġthom as
Ġent h
Ġdis g
Ġcontem porary
Ġcarry ing
Ġr ap
Ġcre ep
Ġm ood
end er
Ġcent ral
Ġrem ains
Ġt ax
Ġpr ison
Ġbl ank
Ġsol o
Ġh ung
Ġfre ed
Ġb ound
Ġpolit ics
Ġanim al
Ġdeliver ed
Ġtr ade
Ġe gg
Ġfl u
orm al
Ġdeli very
Ġar my
ri e
t op
m ark
Ġbas is
a ult
Ġmo on
Ġp ian
Ġc ateg
im ate
Ġpull ing
Ġanaly sis
Ġan cient
Ġand roid
Ġm aker
Ġintellig ent
c ro
Ġbe ware
Ġprod uce
Ġdepend ing
Ġspoil ers
Ġthem es
Ġgent le
Ġvis ion
Ġown er
Ġsu gar
Ġang ry
Ġman age
Ġlight weight
Ġgir lf
Ġas soci
Ġtal ks
m ber
ot ic
Ġlack s
Ġstrong ly
Ġout do
Ġgirlf riend
w ing
Ġsav ing
Ġt ent
Ġal ien
Ġneighb or
Ġinc om
Ġscient ific
b ud
Ġcab in
oc ol
Ġreplac ing
Ġge ar
Ġepis odes
in ated
Ġlo ndon
Ġl it
Ġut ter
Ġre nt
Ġser v
im p
Ġne at
Ġwe l
Ġsour ces
co ver
k a
u le
Ġpro ve
Ġcontr ast
Ġbr ack
Ġup set
c re
Ġfact or
Ġide al
Ġsystem s
Ġwee ke
ar a
Ġwire s
Ġpl ans
Ġsp read
Ġimag ination
al d
Ġter ror
Ġmo ld
Ġreturn s
Ġdeser ves
Ġm aps
um es
Ġpl ant
Ġexp and
Ġless ons
Ġdisc onnect
Ġho st
Ġg ain
Ġg ps
e in
Ġjo ke
Ġe arn
Ġhea ven
Ġel iz
k n
Ġdy nam
Ġb ank
ac ity
Ġade qu
Ġreve aled
Ġsatisf ying
Ġoppos ite
Ġb read
Ġt ort
Ġprim ary
Ġrepet itive
id ay
Ġbox es
Ġsl im
Ġprint ing
i est
Ġmem ories
Ġwr ap
Ġha ll
Ġfrank ly
Ġview s
a ire
Ġe ase
Ġimprove ment
Ġcoll ar
Ġantic ip
Ġminim al
Ġtreat ed
id s
ul ate
Ġindust ry
ul f
Ġem ph
Ġdri vers
v ision
Ġo t
Ġanten na
g ers
Ġsuggest ed
Ġv ir
Ġse a
Ġl as
Ġg all
Ġdi ag
Ġun bi
Ġsh ots
Ġp unch
Ġinterp ret
Ġhe y
Ġc a
Ġpur s
Ġsc ar
Ġprov iding
Ġemot ion
Ġpres ents
Ġunbi ased
Ġbo b
Ġfor ces
Ġsing ing
Ġnarr ator
Ġgo al
Ġupd ated
and a
Ġtal es
l an
Ġre act
Ġshe et
Ġsens or
air s
Ġfe llow
Ġte ar
ie l
Ġst orm
Ġb oo
Ġinstall ment
Ġachie ve
Ġnav ig
Ġsm ith
Ġpick ing
Ġsp ots
Ġpain ful
Ġr ow
o x
ot y
Ġrh y
Ġm ental
Ġrich ard
Ġcr ow
Ġt ask
Ġw is
Ġyou t
an y
th ese
Ġcomp os
Ġt ub
Ġbut ter
Ġstrong er
Ġparan ormal
ul ated
ab eth
Ġa im
Ġarr ang
Ġspe ct
st al
Ġcar pet
Ġst iff
Ġce le
n s
c ies
Ġshoot ing
Ġfin an
Ġsn ug
Ġh ated
Ġmar ry
Ġinter face
ict ed
Ġtechni ques
Ġlim it
Ġg orge
Ġcircumst ances
n ight
Ġsc ore
Ġconvers ation
Ġtest ing
Ġabs or
Ġli ghter
Ġf itting
Ġbow l
Ġinstall ing
Ġc in
Ġconven ient
Ġwhen ever
Ġreli able
Ġc ow
en a
pr oof
Ġj azz
Ġart ists
Ġholly wood
n at
Ġconf ig
Ġple asure
Ġo z
Ġyout ube
Ġsupposed ly
Ġgreat er
Ġmechan ism
Ġlisten ed
Ġport s
Ġsurprising ly
ve y
Ġlo ver
Ġimpro ved
u ary
Ġprom pt
Ġwr apped
Ġattract ion
Ġpol icy
iven ess
u ation
Ġt ie
Ġsecond ary
Ġhass le
Ġal arm
Ġwhe els
Ġw ore
Ġpo et
Ġear bud
Ġh ide
Ġsent ences
Ġg y
Ġm as
Ġc ass
Ġcap able
Ġcom edy
Ġsal es
Ġsh orter
Ġremind ed
Ġcele br
Ġk ate
Ġjack et
or ation
l im
Ġunc le
b ble
r om
Ġmon ster
Ġtri gg
Ġins er
Ġvel cro
us ing
Ġex cess
o ff
Ġemph as
Ġt ick
Ġglass es
Ġg aming
Ġbel ong
Ġlo yal
Ġte x
Ġref res
Ġcor ners
Ġover whel
Ġcomm er
Ġm ild
Ġmen u
Ġp itch
Ġun pl
Ġunbelie vable
Ġseem ingly
Ġme mo
Ġhor se
Ġappreci ated
Ġe ll
Ġw w
Ġpriv ate
Ġb er
Ġk at
Ġl am
so ft
ak ers
Ġfl ight
Ġc ash
Ġvar i
Ġstop s
Ġfreed om
al og
Ġcomp reh
Ġcomp act
Ġto ss
Ġhand les
Ġqu e
Ġmag ical
Ġal t
ill e
se y
oint ed
Ġwa ited
Ġgorge ous
Ġl amp
Ġunnecess ary
Ġdeb ut
Ġremo ving
Ġr ings
Ġspoil er
Ġh ub
Ġcon sequ
Ġstay ed
Ġdemon str
it a
Ġre char
Ġmis le
Ġallow ing
Ġtw enty
Ġatt itude
Ġsupport ing
Ġmill ion
Ġrush ed
Ġtal ented
Ġsuper b
Ġcas ual
Ġin j
Ġst un
Ġde ck
ro ll
Ġbl ow
er al
Ġd ying
Ġth rew
re g
Ġconnect or
ak ed
Ġenjoy ing
Ġe ast
be ll
Ġad op
p iece
Ġport able
Ġs isters
Ġnew er
Ġam p
Ġn ur
Ġus ers
Ġso cks
Ġd er
Ġsleep ing
Ġnotice able
Ġep ic
Ġf ake
Ġconnect ions
Ġcreat es
Ġto ys
Ġout standing
ar ant
Ġunus ual
Ġwr ist
p ensive
Ġpr iced
Ġhe ck
Ġnecess arily
book s
Ġv ivid
Ġso ap
Ġeduc ation
Ġgri ll
Ġadvent ures
Ġo l
u nder
Ġsport s
Ġbother ed
Ġw ake
Ġconf ir
Ġremind s
un ate
Ġlet ting
Ġop ens
th ere
h es
Ġfrustr ation
Ġcard board
Ġch ain
Ġstick s
es y
Ġn ational
Ġinex pensive
Ġli qu
Ġpe el
Ġglo ves
Ġwe igh
z y
Ġh osp
Ġmatter s
Ġdr agon
Ġser ial
Ġqu ir
Ġameric ans
Ġrece iving
Ġdis k
Ġt ill
Ġse am
ott en
Ġmarket ing
Ġunf old
Ġstore s
Ġsc ary
ad a
Ġtele vision
Ġstain less
Ġg ig
Ġtr ay
Ġconc ert
Ġf ict
Ġrepe at
Ġlight ing
Ġj on
Ġb ars
end ing
Ġdifficult y
Ġfr ag
Ġfigure s
Ġsc i
Ġy og
Ġmor al
Ġentertain ment
Ġauth ent
Ġdri ven
Ġeliz abeth
Ġqu it
ign ed
Ġcomm and
Ġgre y
Ġequ ally
Ġdoll ar
Ġbas k
Ġsil ic
Ġre de
Ġunit ed
Ġmemo ir
Ġwit ness
Ġpost ed
Ġvoc al
ad s
Ġh ilar
Ġkind s
Ġshould er
s hip
Ġbed room
Ġzo om
Ġg ro
Ġd umb
Ġluck ily
te en
en e
Ġf t
Ġr ust
Ġfly ing
Ġview ing
Ġweeke nd
Ġadvant age
Ġb um
Ġpush ed
et ime
Ġval uable
Ġsp are
Ġag es
c d
Ġvict or
ur ally
Ġcut s
Ġmyster ies
Ġm i
Ġpl at
Ġb ump
ac le
r ical
Ġbl ame
Ġcre am
Ġhero es
Ġshall ow
Ġprim arily
d own
Ġtyp ically
Ġgreat ly
Ġveh icle
Ġgard en
ar ian
Ġcapt ure
Ġfour th
e k
Ġgen ius
Ġd ies
Ġpubl ishing
or a
en ced
ol ves
Ġsam ple
Ġpr a
Ġal co
Ġstere o
Ġgr ay
Ġc ush
Ġun in
Ġun w
Ġdef ect
Ġhes it
Ġag ent
f ord
Ġrefres hing
Ġsubt le
ot hing
Ġgar age
Ġdescri bing
Ġlead er
Ġultim ate
ing e
Ġcritic ism
Ġbirth day
Ġinsp ired
Ġpad s
v y
Ġc ause
b an
h ol
Ġtr aged
Ġgu arant
Ġresearch ed
Ġun kn
ill ing
Ġbelie ves
il es
Ġfunction al
Ġexpl aining
Ġstrugg ling
Ġal ot
h ouse
Ġfl ick
Ġde als
Ġmount ed
Ġp ushing
Ġqu ar
Ġtouch ing
Ġm cc
Ġg ab
Ġinsp ir
Ġun e
n ow
Ġte ars
Ġn u
Ġdri ll
Ġannoy ed
Ġor ch
Ġro d
c ur
re l
Ġint ention
Ġmere ly
Ġwash ed
Ġpart ner
Ġshe ets
Ġri p
Ġinstruct ion
Ġcor por
Ġrep ut
al ian
Ġsar ah
Ġcy cle
Ġrev olution
Ġauthent ic
Ġbe ll
Ġp our
Ġw on
Ġha w
Ġunderst ood
Ġve nd
Ġpleas ant
Ġbr ut
Ġsk im
l or
r s
Ġkid n
Ġdec ades
Ġpen cil
Ġconsist ent
Ġlearn s
Ġaccept able
Ġman ages
Ġsh er
Ġsal t
Ġspl it
Ġus a
Ġmart in
Ġsur f
Ġbring ing
Ġmir ror
Ġeffort s
Ġmicro soft
et te
Ġform ula
Ġnight m
Ġch ocol
Ġdep artment
Ġyes ter
g ie
Ġprofess or
Ġhapp ily
Ġstandard s
ne ath
Ġcond itions
Ġhen ry
Ġbo d
Ġcan ce
Ġth umb
Ġgrow th
Ġn ik
un ction
Ġrecord s
Ġsure ly
Ġt ang
Ġprogr ams
Ġapp lied
e es
Ġe ager
Ġted ious
Ġcontain er
Ġtroub les
Ġac qu
Ġact ive
Ġc it
Ġdro ps
Ġdrink ing
ho ld
Ġcl ips
Ġunder neath
Ġloo p
Ġguess ing
Ġk r
Ġpian o
Ġt ack
Ġab and
Ġf urn
Ġfort unately
Ġrecord ings
g l
Ġch os
Ġcrack ed
Ġpubl ish
r ated
Ġc ro
Ġo ven
Ġn a
Ġphilosoph y
Ġwall et
Ġc ott
il ed
Ġru le
st all
Ġh arr
nat ural
Ġcal if
Ġprotect ive
Ġn ative
Ġstre am
Ġgrou ps
Ġcompat ible
u ality
Ġstere oty
Ġan x
Ġext r
Ġact s
Ġswe at
Ġmagaz ine
k able
ra ft
Ġbu bb
Ġautom atically
Ġla id
Ġbo at
Ġhilar ious
Ġg ang
Ġgal ax
Ġlo vers
Ġchos en
Ġenem y
Ġhundred s
m en
ab les
e g
Ġpurp oses
Ġw il
Ġman ip
Ġmark s
igh ter
Ġfair y
ach el
Ġus age
Ġri g
Ġch est
Ġfunction ality
Ġmount ain
Ġunre al
Ġre vel
Ġcomput ers
Ġbus y
Ġcalif orn
Ġout er
Ġb ang
Ġre ly
Ġt act
h ile
Ġsw im
Ġadv ance
ach e
Ġsing er
Ġno body
Ġlif etime
Ġaw hile
Ġed ited
Ġdo zen
Ġser ved
Ġalph a
Ġse lection
ree k
Ġfree z
Ġf au
Ġthr u
Ġcomp ress
Ġtun e
Ġshock ed
Ġcap acity
Ġsl ot
Ġteen age
Ġcartrid ge
Ġback up
Ġre b
Ġrec all
Ġelectron ic
Ġhun ter
Ġp atch
Ġexerc ises
nd a
Ġmisle ading
Ġy ard
c ol
Ġha un
Ġchalleng es
Ġinst ant
Ġf av
Ġgu est
et ch
Ġcont ents
Ġv ast
Ġm ature
Ġint ent
Ġh ood
Ġfood s
Ġmed io
Ġsuffer ing
Ġmel od
Ġt aught
Ġsh r
Ġinst antly
Ġat m
Ġs en
Ġthread s
Ġd ash
Ġso ck
Ġfavor ites
Ġnightm are
Ġt ap
Ġadjust able
Ġsho pping
Ġinc ons
Ġconvin ced
Ġbl ades
ast y
Ġsu bs
Ġr ise
Ġyester day
Ġcol ored
Ġre ven
Ġinflu ence
Ġc aut
Ġdo ck
Ġwall s
Ġcommer cial
Ġgr anted
Ġlege nd
Ġnut s
Ġl atter
Ġdiffer ences
Ġproject s
in ate
Ġhead phone
l ines
Ġmed ic
r ont
Ġscratch es
ac ed
Ġa ck
Ġprin ce
Ġtransl ation
Ġn er
Ġcheck ing
Ġtit les
Ġmil k
Ġappro x
Ġd ual
Ġoccas ional
Ġid i
Ġb a
Ġde le
is y
ur a
Ġlay er
Ġde fe
Ġa ug
Ġcover ing
Ġcomment ary
Ġgalax y
Ġcomp artment
if ying
Ġfinan cial
Ġintrig ued
Ġfict ional
Ġext ensive
Ġintell ect
Ġcaliforn ia
Ġtravel ing
Ġdram atic
Ġequ al
Ġlink s
Ġinsight s
Ġsu cks
Ġj ess
Ġor ange
Ġfar m
Ġcre w
Ġman agement
Ġwater proof
Ġw ound
Ġt orn
Ġs its
Ġcri min
Ġaband on
Ġorgan ized
Ġun h
Ġpower ed
Ġpack aged
Ġch oo
Ġincor rect
Ġf ate
Ġportray ed
Ġfe at
h am
Ġa ust
Ġapart ment
Ġbl ues
Ġpick s
Ġal i
Ġvill ain
Ġstud ies
Ġfil ters
Ġvirt ually
Ġfl esh
w ord
Ġsy m
Ġcomp ass
Ġsound ing
Ġchar ming
Ġobs erv
ugg ing
Ġfocus es
Ġhalf way
Ġes p
Ġconnect ing
Ġbol ts
Ġchrist ians
ro g
Ġspend s
st ic
Ġchocol ate
Ġfall en
Ġdesk top
Ġshad ow
iz er
Ġad apt
Ġheav ily
Ġaccom pan
ad o
Ġa id
Ġbask et
Ġjack son
Ġqu otes
Ġh ip
Ġload ed
ce nd
Ġdimens ional
Ġri ver
Ġr ice
Ġtri al
Ġperform ances
com ing
y n
Ġfac ing
Ġb ind
Ġexp osed
Ġbi ography
us ive
en om
Ġjud ge
Ġdist ort
Ġj ar
ite ch
Ġcath olic
Ġsque e
Ġincre ase
Ġunkn own
Ġsever e
Ġrid ing
Ġret ail
g alley
Ġgramm ar
Ġchalleng ing
Ġstr ings
Ġri pped
el ine
Ġoffer ing
Ġind ian
r am
Ġper man
Ġru ined
Ġvac ation
Ġang st
te lling
Ġto e
f ield
Ġsu ction
Ġtr ag
Ġsouth ern
Ġbath room
Ġvo ices
Ġchick en
k ins
i ently
b l
Ġscen ar
Ġzomb ie
ol es
out s
Ġad am
Ġatm osp
Ġinform ative
l ies
Ġded icated
Ġearbud s
Ġf ulf
Ġb ibl
Ġnet galley
Ġw olf
Ġpo v
Ġhosp ital
Ġun p
Ġdraw ing
c raft
Ġflash light
Ġcapt iv
Ġemot ionally
Ġover come
Ġbul ky
Ġindividual s
Ġcartrid ges
m other
Ġdis e
Ġg ap
Ġrecommend ation
ic ide
u ate
Ġdiv or
Ġh arsh
Ġrede em
Ġclean ed
Ġdisg ust
Ġdial og
Ġp ul
Ġdis ag
Ġsh a
Ġel im
Ġjo bs
Ġyou th
Ġplot s
ill a
Ġreason ably
Ġresc ue
Ġincons ist
Ġhy p
Ġthr owing
Ġcomb at
Ġlog itech
Ġpound s
Ġre action
mm er
Ġte ens
Ġde mo
ch o
Ġro lling
Ġcult ural
Ġrepeated ly
Ġcons cious
Ġdistur bing
Ġorch est
Ġpresent ation
Ġdem and
Ġt ail
Ġforg otten
Ġther m
Ġte eth
ious ly
Ġev olution
Ġchem ical
ps on
Ġthank fully
Ġmem orable
Ġactiv ities
Ġmar ch
s ters
Ġwhat so
Ġg h
Ġindepend ent
Ġintellig ence
ri er
Ġbu ff
ag ers
Ġtend s
m ans
Ġtraged y
Ġoper ation
Ġje ff
Ġm ile
Ġin se
Ġplan e
Ġdin ner
Ġaccident ally
Ġfin ishing
Ġresol ved
Ġattempt ed
Ġo ct
Ġle an
Ġdo ors
Ġpair s
Ġw rench
us i
Ġwhatso ever
Ġen h
Ġnove lla
Ġconc er
Ġwar n
Ġgi ant
hes ive
Ġhon or
Ġident ity
Ġarri ve
Ġign ore
Ġadequ ate
e ch
so le
at is
Ġbatt les
Ġw at
back s
Ġmethod s
Ġtal ked
Ġto ler
Ġwilli am
Ġx box
Ġattach ment
at ory
Ġter ribly
tr ack
Ġb ird
Ġorgan ization
Ġsh ared
Ġsee k
Ġreach ed
Ġack now
Ġve get
Ġstat us
Ġb ree
Ġargum ent
Ġreve al
Ġneed less
en cies
Ġw ine
Ġfore ign
Ġvamp ires
Ġout s
Ġhapp iness
Ġdes ired
Ġopp osed
Ġtem p
Ġch ase
Ġg ut
Ġnat urally
Ġj ones
Ġrom an
Ġh ence
Ġal umin
Ġb are
Ġdownload ed
Ġown ers
Ġenth usi
Ġreg ister
Ġhand led
Ġfeed back
Ġconstruct ed
Ġrespons ible
Ġleg al
Ġcr ush
s pe
Ġimport ance
Ġchann els
Ġdis like
Ġrele vant
Ġag re
Ġo m
Ġcont ained
Ġsc ope
ag o
Ġadjust ment
Ġsubst ant
Ġmedio cre
Ġunivers ity
Ġent ry
Ġchar m
Ġcon ver
Ġliqu id
Ġdr ain
Ġske pt
Ġvis ible
Ġme xic
Ġsol ved
Ġhand ed
Ġwis dom
Ġm ike
Ġcons erv
Ġburn ing
Ġa a
Ġan ne
Ġaccompl ish
Ġm ort
Ġint u
Ġwid th
id ents
Ġcour age
Ġexpl ore
os h
Ġpoint ed
Ġton s
Ġs ag
Ġsy mb
Ġact or
Ġconf idence
Ġflaw ed
l am
Ġlif est
Ġsurv ival
Ġsee king
Ġho ly
Ġc ous
Ġburn ed
Ġdrug s
Ġbelief s
Ġm ut
Ġdest ruct
Ġmess ages
Ġstat ement
Ġlu ke
Ġch ic
Ġresour ces
ang le
Ġv ague
Ġb ush
Ġst ead
Ġprin cess
Ġz e
Ġjew ish
Ġheav ier
Ġin fer
Ġind o
Ġhuman ity
ly n
Ġoffic ial
Ġsl o
Ġcont ract
Ġimport antly
Ġaccount s
d ie
Ġthick er
Ġdevelop ing
Ġbibl ical
Ġre nder
Ġbet ray
Ġslee ve
Ġbre w
Ġt ires
Ġaddition ally
Ġclean er
Ġcap tain
it ure
Ġan ger
in ist
Ġprogram ming
Ġob l
Ġrel ax
Ġco at
Ġval ues
Ġswitch ed
Ġcompl iment
no v
Ġas ks
Ġconf ident
Ġt an
Ġsh aped
Ġs ne
l on
Ġbe ats
Ġd s
Ġreven ge
Ġ vert
Ġtrans port
Ġind ex
it z
Ġinnoc ent
Ġworth less
Ġins ult
Ġdist inct
Ġg ather
Ġd ump
Ġto dd
gg ed
Ġperform ed
ell e
Ġprom ised
Ġlock ed
Ġsatis fact
Ġn ation
Ġinvol ving
Ġf at
Ġb oun
o le
k i
v ent
Ġpattern s
ap ers
Ġcar b
ist ics
Ġinvest ment
Ġst able
id ity
Ġtight en
Ġal ert
Ġeng aged
Ġalumin um
m et
Ġsm ile
Ġmicro phone
Ġb iz
Ġemb arr
Ġord inary
ll ers
Ġtex as
Ġdro pping
Ġdis aster
an o
Ġhun t
Ġa x
Ġexper iment
Ġbu dd
Ġcar ing
Ġconsist ently
Ġruss ian
Ġthous ands
Ġattempt ing
Ġinvestig ation
Ġhous ing
Ġhe el
Ġcar ol
Ġirrit ating
Ġco in
Ġmass ive
Ġupd ates
Ġrest aur
Ġtrans m
Ġcap ital
Ġopt im
Ġc ub
Ġloo s
Ġcomm it
Ġconvers ations
a ign
c ul
Ġviol ent
Ġexc it
Ġmax im
Ġcir cle
Ġbar b
Ġsuper natural
Ġrem aining
Ġspan ish
Ġbuy er
uc ing
Ġgr ain
Ġsw ing
Ġther ap
Ġwonder fully
Ġqu ote
Ġjud g
p ir
Ġis ol
Ġcre ation
r ate
Ġout let
Ġpad ding
Ġsw ord
Ġno se
Ġsh ift
Ġdisc s
Ġweap ons
in n
Ġman ually
Ġin her
Ġt ied
Ġstick ing
d ers
Ġra ise
Ġlarge ly
Ġcris p
Ġt empt
Ġbal anced
Ġw ired
Ġchr is
Ġhigh est
Ġincre asing
Ġprec ise
Ġdark er
Ġem ma
Ġbr ook
Ġbr ows
Ġelectron ics
Ġexist ence
Ġs s
Ġtim er
Ġins pect
Ġthri lled
Ġplan ned
Ġassemb led
Ġpres ence
Ġbr idge
Ġmagn et
Ġass ass
Ġp ouch
Ġresour ce
Ġright s
Ġadvert ising
Ġbor der
Ġcomb ined
Ġl b
Ġcan cer
Ġcompon ents
Ġgold en
Ġpull s
r ick
Ġstereoty p
ath an
Ġsubject s
Ġexc use
Ġcamp aign
ol a
Ġbr ad
Ġgy m
Ġl em
Ġcreep y
Ġsurround ing
Ġstay ing
Ġlist s
os ter
Ġbul k
Ġmar vel
Ġdeser ve
Ġident ify
Ġsuggest s
Ġact ivity
Ġpract ically
Ġph enom
nd ay
ci ples
ason ic
Ġas us
Ġdev il
ak s
Ġfurn iture
Ġinterview s
ic it
oo per
Ġste ve
Ġwar ri
Ġenem ies
Ġover look
Ġsh ake
Ġembarr ass
Ġbol t
Ġsort s
at ical
Ġsteph en
Ġdisco vers
Ġsilic one
um s
Ġb ay
Ġl cd
Ġmob ile
Ġgen eric
Ġcott on
ber g
b oy
Ġsuggest ions
Ġsound track
Ġcapt ured
Ġassum ed
Ġworld s
Ġsubst ance
Ġrec o
Ġchristian ity
Ġco le
Ġlos es
Ġdistract ing
ir ts
Ġc ave
Ġh ann
Ġal ter
Ġsl ipp
Ġtrag ic
Ġasse mble
Ġkn ight
Ġdem ons
Ġn ail
ag ger
Ġinform ed
Ġtext ure
v is
Ġident ical
res p
Ġeven ing
Ġclar ity
Ġhe aling
n es
Ġpass ages
Ġe ld
Ġgo ds
Ġlast s
Ġconcern s
b orn
Ġjo int
Ġfac es
Ġhot el
Ġexcit ement
Ġbegin ner
it ors
ra el
Ġland sc
Ġwal ked
Ġpregn ant
Ġj en
Ġtri ps
Ġkn ives
Ġinter ior
Ġsh aring
Ġn ons
Ġsuc ceed
Ġcond uct
Ġdre w
Ġbott les
Ġcl othing
Ġm esh
Ġrechar ge
Ġli king
Ġsignific antly
Ġconsum er
Ġdur ability
pr int
Ġread able
Ġfr uit
Ġext end
u ri
d a
Ġre bo
Ġaff air
Ġsty les
Ġc os
Ġlens es
Ġfab ulous
Ġintern ational
Ġup side
Ġtast es
id a
ri l
Ġbelie ved
Ġment ions
ang ers
Ġoper a
ill ed
app y
Ġpass ing
ath ers
Ġdark ness
Ġter rific
Ġsp y
Ġlist ing
Ġfac ed
Ġl ag
Ġprefer red
Ġpoet ry
Ġcl ue
Ġwar ned
Ġlog ic
Ġbubb les
as her
om s
Ġconc ent
Ġflex ible
Ġb in
Ġwel come
Ġp ic
Ġgr asp
Ġl one
Ġst om
Ġfl uff
Ġunivers al
Ġattract ed
Ġc ake
Ġcop ies
Ġstick y
Ġcreat ures
Ġd c
Ġlaugh ing
Ġunfort unate
Ġse g
Ġteen ager
Ġch a
Ġpress ed
Ġso f
Ġd un
Ġbrack et
Ġconc lud
fer ence
Ġunreal istic
Ġevery body
Ġpur ple
Ġcharl ie
Ġse mi
Ġresist ance
Ġje ans
Ġpuzz le
Ġyog a
en ess
Ġjew el
ha ust
Ġbit ter
Ġjo in
Ġappe aling
Ġreal izes
Ġj ake
Ġro ller
Ġdis ney
Ġe c
oo oo
Ġli kable
Ġvol t
Ġpar is
Ġj ac
Ġext ension
Ġlast ly
Ġball s
Ġe ve
Ġpersonal ities
atter ed
Ġprov o
Ġtouch ed
Ġa unt
en er
Ġdescri pt
Ġsmooth ly
nd ers
Ġw ider
Ġann a
Ġchar ges
Ġintrig ue
Ġinc ident
Ġry an
Ġl g
Ġphys ically
Ġcover age
v i
Ġr ab
Ġche ese
Ġreput ation
Ġis rael
il ation
Ġcount ries
Ġend e
Ġaccess ible
Ġc ds
Ġend less
Ġthe ater
Ġexplan ations
Ġex haust
Ġutter ly
Ġcenter ed
Ġcor n
Ġmurder ed
Ġgar min
is a
Ġm ate
Ġsyn c
Ġreg ularly
b its
Ġtrigg er
Ġexist ing
Ġaug ust
im ents
Ġhook s
Ġgrand mother
Ġspo ke
ing er
Ġform s
Ġw ick
Ġspeak s
Ġcook book
Ġlifest yle
Ġalco hol
c ase
Ġsupp le
Ġo w
Ġheart s
Ġmach ines
Ġr achel
Ġdev oted
Ġa th
Ġbu gs
Ġadm ir
p ad
Ġsold iers
Ġs ab
Ġdv ds
Ġchar les
Ġcin em
g u
Ġst atic
Ġl unch
op s
im ately
Ġexpress ed
th eless
Ġpar all
Ġab ilities
re y
Ġdifferent ly
Ġd ys
Ġgun s
Ġestab l
c et
d ri
Ġmind s
Ġv ary
Ġc age
augh ters
Ġim per
Ġdestroy ed
Ġw itty
Ġpat ience
Ġl ind
st ein
Ġk ay
Ġt ire
Ġdec l
l ist
Ġsuffer ed
Ġn ine
Ġswitch ing
Ġcool er
Ġcush ion
Ġdesper ate
Ġben e
Ġro yal
Ġcare s
ash ed
Ġpl ants
Ġforg ot
Ġv iny
th y
Ġoutdo or
Ġg au
Ġprof ile
Ġser ves
Ġp i
Ġweak ness
Ġs izing
Ġnever theless
Ġter min
Ġl an
Ġpicture d
Ġch er
Ġt ay
Ġclass es
Ġcateg ory
Ġcar ried
Ġh itting
Ġhor iz
ur d
Ġde ll
m art
Ġw ink
Ġst ack
Ġinstrum ent
Ġp or
Ġch uck
Ġa ri
Ġha ck
Ġch ip
Ġstr ateg
Ġdisco very
Ġl ic
Ġrandom ly
f all
Ġqu ant
Ġrec over
Ġdan iel
t a
Ġit alian
Ġr az
Ġla unch
Ġtechni que
Ġsit es
Ġu k
Ġjump ing
Ġf er
Ġvol umes
Ġt ro
Ġwal ks
Ġser ving
Ġbe ast
Ġtre m
Ġneed ing
Ġred uced
Ġru in
Ġh oney
Ġclos ing
ar re
Ġc ale
Ġsign s
Ġoper ate
v ille
Ġglo bal
Ġany body
Ġval ve
Ġ eric
ic ious
Ġl es
Ġhand ling
Ġrout e
fic ial
Ġdom in
Ġgr ass
Ġour selves
Ġrele ases
Ġsch ed
as m
Ġdocument ary
Ġhumor ous
re p
Ġhands ome
Ġcliff h
Ġprotect ed
Ġpac ing
Ġturn er
Ġhol ster
at able
Ġreview ing
Ġpo ly
Ġfr ance
Ġn asty
Ġworth while
Ġprep are
Ġdise ase
Ġsub sequ
Ġquar ter
Ġl azy
ac les
Ġsch em
Ġcost ume
Ġfl or
Ġcheap ly
Ġeffect ively
are n
Ġh iding
Ġpan asonic
Ġserv ices
ut or
Ġg ross
Ġdec or
Ġsh red
Ġwood s
Ġstr ate
Ġaccess ories
ch e
Ġvend or
Ġgo spe
Ġap olog
Ġcolor ful
Ġremark able
Ġdesign s
Ġob st
art ed
Ġstitch ing
Ġviny l
Ġgl oss
ev it
Ġto oth
Ġcomp ens
Ġtreat s
Ġstrate gy
Ġin evit
Ġsuccess fully
Ġargum ents
iz ations
os ition
Ġdeli vers
Ġmr s
Ġs ake
Ġmanufact uring
Ġal ice
Ġelect rical
ate ur
Ġclose ly
us ion
Ġsil ent
Ġpur se
Ġlad ies
Ġpat ient
Ġz one
Ġju ice
Ġpo le
Ġman ager
Ġg em
Ġbl own
Ġassum ing
Ġamaz ed
Ġbu bble
Ġin ac
Ġeconom ic
Ġstun ning
Ġtrip od
Ġel astic
Ġfl av
Ġper cent
Ġapplic ations
Ġd aughters
ol ved
Ġadm itted
al ous
Ġsh ield
Ġro s
Ġlab or
Ġwh is
os ity
Ġextra ord
Ġtw in
Ġun lock
Ġin h
Ġsc ared
Ġrout ine
Ġfill ing
id ers
Ġn in
b a
Ġsol utions
Ġgu ides
Ġtow el
Ġmusic ians
Ġb atch
Ġcit iz
Ġport ra
Ġw and
Ġconvin cing
Ġto ile
Ġwatch es
Ġsome body
Ġsmo ke
f unction
Ġbl ah
Ġdef ense
Ġcry stal
xt ure
Ġgu id
Ġnot ch
Ġthe at
Ġro les
Ġpain ted
Ġha y
Ġem erg
Ġunlike ly
Ġam ateur
Ġsupport ed
Ġencounter ed
Ġheart bre
Ġconcer ning
Ġj une
Ġtun es
Ġsymb ol
Ġemp ire
Ġacadem ic
Ġsu icide
Ġenjoy ment
Ġencour age
Ġpr oud
Ġloc ations
for ce
Ġins ane
f o
Ġoverwhel ming
Ġind ia
Ġdist rib
Ġdef ault
n ie
Ġaccept ed
Ġinv ent
up d
Ġrest r
Ġtest s
Ġre ject
Ġphotograph s
Ġv iet
Ġinc on
Ġj ason
Ġmo ist
Ġim ple
Ġtr ap
Ġme al
Ġsol ar
Ġbas ics
Ġtwist ed
Ġem er
Ġqual ities
Ġatmosp here
Ġto es
Ġle w
Ġen light
Ġdelight ful
Ġan alog
p ass
Ġrhy th
Ġexec ution
Ġcru el
Ġphot ography
Ġp ix
Ġno pe
Ġk ar
Ġd ating
Ġpartic ip
Ġspe ech
Ġpsych ological
Ġoper ating
Ġk o
Ġl ame
Ġpr ices
Ġla ure
ib ilities
zz y
Ġaccur acy
Ġcamp ing
Ġobs c
f ather
Ġro ot
Ġdec ade
Ġbiz arre
Ġobs er
Ġinvol ve
Ġco ast
Ġch amp
Ġdeterm ine
Ġenc l
Ġpress ing
Ġfan cy
Ġloc ated
Ġeurope an
Ġfound ation
Ġdisag ree
ens ity
ian a
st re
Ġpro l
Ġback ing
Ġtw e
c is
Ġpain ting
Ġbl o
m on
Ġi e
Ġsyn th
Ġlaw s
Ġsurpr ises
Ġintu itive
Ġdirect ed
Ġens ure
Ġj ose
Ġinsp iring
Ġsurv iv
Ġs ed
Ġtra um
Ġoccur red
Ġr ug
Ġlin er
Ġg reek
Ġvictim s
Ġdeal t
Ġcabin et
Ġp ig
Ġdescript ive
Ġhun ting
Ġvill age
Ġt ad
Ġdocum ents
Ġdynam ic
Ġpra ise
b ur
Ġconsequ ences
ec d
o ved
r ap
Ġrap id
Ġin nov
Ġpack s
Ġstrugg led
Ġcontin u
Ġp ens
Ġan ecd
Ġap ril
Ġche w
Ġchr ome
Ġmet aph
Ġstr aw
Ġext ent
Ġtra ff
Ġbir ds
Ġbor row
Ġcon ce
Ġgame play
Ġsub m
Ġur ban
Ġhom es
Ġhol iday
Ġinvest ed
Ġult ra
ess ions
Ġlas er
Ġsp ite
Ġconfus ion
Ġut il
Ġli p
il ty
Ġres erv
Ġpow der
Ġlike able
Ġar th
ac ing
Ġbenef its
Ġst ood
Ġscript ure
Ġrel uct
Ġabs urd
Ġplat form
Ġad hesive
Ġbel oved
Ġrat ings
in i
if er
Ġref used
Ġswitch es
pl ace
a fe
Ġtrans ition
Ġdepress ion
Ġc aps
Ġdiscuss ed
Ġlu cy
al es
Ġwashing ton
Ġsu m
Ġfo x
Ġbo om
Ġre ward
Ġchic ago
Ġself ish
Ġcl oud
Ġcompreh ensive
Ġfl ag
ur b
Ġart icles
Ġgerman y
Ġw ing
Ġwood en
Ġfu el
Ġan k
Ġoffic er
Ġfeat uring
Ġj umps
Ġpray er
Ġt as
Ġfl ap
Ġbl and
Ġcompan ion
Ġf id
ang ed
Ġbright ness
Ġsl ower
Ġb omb
Ġwonder ed
Ġcl amp
Ġo em
Ġtay lor
Ġdel ay
Ġfol k
Ġclim ax
Ġch art
Ġplug s
Ġspe ll
Ġt ies
Ġaltern ate
Ġdelic ious
Ġimple ment
Ġal ign
Ġd read
Ġparagraph s
Ġgr ate
Ġliber al
ain e
Ġover view
ri ved
ud es
Ġnon eth
Ġpro ced
p u
Ġtyp ing
Ġp it
Ġl atch
Ġis lam
Ġnoneth eless
Ġdiam ond
Ġev al
Ġbr ave
Ġrecogn ized
Ġcand y
Ġintellect ual
Ġmac book
Ġam using
un ky
Ġafric an
i ation
ing u
Ġt uck
Ġquir ky
Ġab rupt
Ġo x
Ġfe ars
Ġfill er
Ġwealth y
Ġpro ph
Ġfrequ ent
Ġl au
p ed
Ġany ways
Ġv ul
Ġx l
Ġprof ound
Ġprin ciples
a ud
Ġmark ed
Ġse aled
Ġrep ubl
Ġart work
Ġincor por
il s
Ġbe th
Ġcl ues
p aper
Ġtouch es
Ġem ily
Ġdiscount ed
Ġdisappe ar
Ġaw a
Ġgood ness
Ġcomp aring
Ġsl iding
re te
Ġat l
Ġdish w
miss ion
Ġgr oo
Ġdece mber
Ġresol ve
Ġpoint less
Ġtre es
Ġst aff
Ġmon t
Ġstr ict
Ġs i
Ġs ant
Ġsuit able
Ġanswer ed
Ġr on
if ier
Ġcirc uit
Ġl ake
Ġhy pe
Ġteach ers
Ġguarant ee
Ġclaim ed
ow ed
Ġdraw er
Ġcomm itted
Ġtrem end
Ġbr ick
Ġstick er
Ġsh ine
Ġh itch
Ġdet ract
Ġconclus ions
Ġgr ant
Ġpe ar
Ġtight ly
Ġbase ball
ch er
Ġcommunic ation
Ġprin c
Ġst ro
u ries
Ġa h
Ġmaster piece
Ġcol on
Ġshare s
Ġem br
Ġb ones
Ġadv ise
Ġj enn
Ġtyp os
av ed
Ġtre k
Ġfe e
Ġautom atic
Ġnight s
Ġfoot ball
Ġn ich
Ġap oc
Ġfav our
an ie
Ġhe al
Ġcaut ion
Ġwhere as
Ġvers us
Ġb ust
Ġh arn
Ġadjust ed
Ġser ver
l ers
Ġcomple ted
Ġshort ly
ou red
Ġali ens
Ġsuff ers
Ġprem ium
Ġill ness
Ġp ir
c les
Ġbo ld
Ġl ying
Ġbl ink
atis f
b or
Ġwin ning
Ġtoile t
Ġang els
1 0
g un
Ġh ind
ention al
Ġche esy
g on
Ġpleas antly
Ġz ip
Ġint end
Ġst ab
Ġhe ater
Ġreve als
Ġign or
Ġbod ies
Ġo ce
Ġcraft ed
Ġgu ilty
Ġgri ef
Ġinac cur
Ġgif ts
Ġgu ilt
Ġdefin ition
Ġlay out
Ġemail ed
Ġch at
Ġsl ides
Ġcompass ion
Ġbu zz
Ġspeed s
Ġclass ical
Ġv in
ist an
Ġsh akes
Ġre ception
Ġprovo king
Ġlay ers
Ġenjoy s
Ġaffect ed
Ġemail s
Ġorgan ic
Ġwe ars
Ġd are
Ġmur ders
fl ix
Ġj ay
Ġpo pped
Ġd ub
ur ance
ill s
Ġw ave
Ġexc lus
Ġrel ief
ber ry
s p
in ations
Ġfeature d
Ġsubs cri
Ġprotect ors
Ġrespons ibility
Ġskept ical
Ġco ating
c an
Ġm oo
Ġcons pir
Ġselect ed
Ġnet flix
Ġinter action
Ġconvin ce
Ġd arn
Ġinsight ful
Ġune ven
Ġfault y
Ġking dom
Ġtit led
Ġr ail
Ġphenom en
b ought
Ġcolor ing
Ġzomb ies
Ġweap on
Ġj uly
Ġch am
Ġdraw s
Ġele g
Ġcous in
Ġarri ves
Ġd ated
Ġsecure ly
Ġgrind er
Ġdemo cr
Ġsett le
Ġposs ibility
Ġsuff icient
Ġb one
aw ay
aus ible
Ġcomfort ably
aim er
Ġfau cet
ab or
Ġa ustr
cri pt
Ġconfig ur
Ġaw ard
Ġse pt
Ġincon ven
Ġinvol ves
Ġnons ense
Ġdown side
Ġcontr ad
Ġsuggest ion
Ġinteract ions
Ġfl ush
Ġri ve
Ġpe pper
Ġround ed
Ġlog ical
es th
Ġunus able
Ġinspir ation
Ġscre ens
Ġw iz
Ġw ig
ot ion
Ġsat ur
Ġprom ising
Ġus able
Ġstory telling
Ġal as
Ġh oo
Ġir re
Ġar ts
w ar
Ġe cho
Ġso re
Ġafter no
ather ine
Ġign ored
Ġgl ued
Ġemp ath
ag an
is er
Ġtrack ing
ch ing
Ġsupport s
Ġg ate
Ġbar g
Ġjump ed
Ġscre w
Ġschol ars
Ġleaders hip
Ġocc up
Ġcrimin al
p a
Ġun ac
Ġgr ows
b ling
Ġclos et
Ġb un
Ġstom ach
Ġgau ge
Ġc ooper
Ġcliffh anger
Ġpot ter
d es
Ġover night
Ġcontin uing
Ġob tain
Ġrepubl ic
az e
Ġgri pping
Ġlew is
j o
Ġadd ict
Ġconf ront
Ġmic row
wor ks
Ġrock s
Ġgo d
Ġlo cks
Ġm and
Ġsim on
Ġam y
Ġbat man
Ġmagn etic
Ġint ro
Ġphys ics
Ġmu d
Ġm ask
Ġst ations
Ġis h
l ined
Ġsecond ly
n is
Ġshel ves
Ġprofess ion
Ġpri est
as se
Ġbl ast
Ġred uce
Ġapoc aly
Ġestabl ished
Ġobject s
Ġart icle
Ġharn ess
Ġal be
ab ilities
Ġfocus ing
Ġc ad
ist a
Ġwere w
att le
Ġma h
os ing
ut ter
Ġengine ering
Ġsu ng
Ġwin ner
Ġbu ds
Ġmon sters
Ġminim um
st op
Ġdri ed
Ġtext book
Ġperiod s
b ow
Ġdepress ing
Ġpr on
Ġc ul
Ġr ang
Ġshe er
are t
Ġme g
Ġalbe it
Ġr ere
Ġdishw asher
ic ian
Ġbu g
Ġscan ner
Ġwilli ams
Ġf m
Ġmar gin
og ether
Ġbrut al
Ġdimens ions
Ġcra ppy
Ġunh appy
Ġr uth
Ġst ap
Ġpol ar
us ter
Ġdet ach
pl ic
Ġfail ing
Ġs ail
Ġsh y
Ġsold ier
Ġout come
Ġlandsc ape
Ġdis li
Ġbri an
Ġlab els
Ġsty lus
w in
Ġest ate
Ġapprox imately
Ġback st
h ib
Ġsupp lied
Ġste al
Ġgospe l
Ġreport ed
Ġe b
Ġch ief
Ġf bi
Ġlabel ed
stre am
Ġhe ll
Ġmis er
n el
Ġfran cis
upd ate
Ġha bit
Ġw iring
Ġmind ed
Ġhi king
Ġinst it
th a
og rap
le ts
Ġtre nd
Ġpr ide
Ġpaper back
Ġpack ing
Ġass ign
p arent
Ġtre asure
Ġsequ ence
ival ent
Ġstr anger
Ġbe ep
Ġfrag ile
Ġlock ing
Ġst ell
Ġg el
ann a
Ġval id
Ġpo d
Ġve ter
Ġpen ny
Ġblock s
Ġlaw yer
g ent
Ġalt ogether
Ġj osh
Ġch or
u ps
in is
am ental
Ġthought ful
Ġl ap
Ġcorpor ate
Ġr ick
ri al
ap ing
Ġscratch ed
Ġw ished
Ġli ly
Ġsl ots
Ġch ips
Ġgl or
ly ing
Ġsepar ately
Ġpil ot
Ġflo ors
Ġin e
Ġstre ets
Ġsal v
Ġha mmer
Ġbo se
Ġsu p
Ġthin ner
Ġt in
Ġclass ics
Ġot ter
i que
Ġseason s
Ġf oster
Ġess ays
Ġar ab
Ġafterno on
Ġjust ify
s ion
Ġde ar
Ġav id
Ġstead y
Ġrom ances
Ġpract ices
Ġhapp ier
Ġencoun ters
Ġrough ly
Ġst ink
Ġnarr ation
Ġexp ense
Ġpar ad
Ġcare d
Ġthous and
Ġassoci ated
Ġnav y
Ġhe ating
Ġagre ed
Ġmechan ical
Ġres ort
Ġupgr aded
Ġpop ulation
Ġsc roll
Ġlast ing
Ġto ny
Ġpublish ers
Ġlog o
Ġvert ical
Ġhouse hold
Ġlack ed
Ġha l
b by
Ġneighb ors
Ġemphas is
Ġgo als
Ġtri b
Ġrem inis
Ġp ile
Ġh t
Ġgl imp
Ġshock ing
Ġb om
olog ist
on ic
Ġjan uary
Ġj ord
Ġhead ed
Ġrec on
Ġwas ting
Ġch ances
Ġs ons
Ġcris is
Ġspec ies
Ġtest ament
Ġprint s
Ġextr as
Ġglimp se
for ward
Ġadjust ing
Ġafric a
Ġbr an
Ġatt rib
Ġspe lling
es is
Ġad orable
r is
Ġfurther more
Ġinterpret ation
Ġegg s
Ġre ne
Ġphr ase
Ġins ist
Ġact ress
Ġst ating
Ġdiscl osure
Ġshort s
Ġdish es
Ġteen agers
Ġle aking
Ġha z
Ġst umb
Ġfore st
Ġcord s
Ġtr ained
Ġclos ure
Ġb ark
Ġro ots
Ġgif ted
Ġpro ven
ut s
Ġdeser ved
Ġstre aming
Ġthe ories
Ġj un
Ġphr ases
Ġref orm
Ġw ipe
Ġdis pl
Ġreport s
Ġexcept ional
Ġw ard
st ick
Ġcompliment ary
Ġfed eral
if ies
Ġpassion ate
Ġmean while
Ġcon vey
Ġteach es
Ġgo re
Ġst ove
Ġsubst it
Ġsh ade
Ġbreak er
Ġre h
g ia
Ġth irty
Ġir ish
Ġattack s
Ġod or
aw s
ac ular
Ġre n
Ġresist ant
Ġv en
Ġcomp rom
Ġconnect s
or se
Ġunac cept
Ġstr uck
Ġstri ke
Ġobs essed
Ġst ir
Ġtab s
Ġsubstant ial
Ġarri val
Ġp ale
Ġexpl os
Ġex ists
Ġstat ements
Ġhint s
Ġlim its
Ġpublic ation
Ġse ams
Ġthr ows
Ġpro ves
Ġge or
Ġa qu
in ity
Ġev ident
Ġdivor ce
Ġi con
Ġbuy ers
Ġbe ans
ple te
Ġf ence
ab led
Ġaddress ed
Ġl en
Ġnik on
Ġref urb
Ġbuild s
Ġf right
i ate
Ġtrail er
Ġsmell s
Ġele v
Ġi ra
Ġsens it
Ġcl ay
Ġd iction
Ġshould ers
Ġamount s
Ġsepar ated
Ġhonest y
Ġlem on
Ġstraight forward
Ġmis under
Ġplac ing
Ġfo nd
j ud
Ġhand ful
Ġdiam eter
op her
Ġbull et
Ġconserv ative
Ġbl ess
Ġha llow
Ġbe ings
Ġeng age
Ġslee ves
Ġref uses
Ġjul ia
Ġww ii
Ġcar l
Ġcrow d
Ġl um
Ġtravel s
Ġe g
Ġpro ved
Ġneighbor hood
Ġve t
Ġch arts
Ġcompet ition
Ġkill s
Ġbree ze
Ġimag in
iss ion
Ġjo kes
Ġr oof
Ġher s
Ġpro ceed
Ġprom ises
Ġvoc ab
Ġpu ppy
Ġrestaur ant
Ġpath etic
Ġm all
Ġs ust
Ġcont rived
Ġbr ace
Ġoce an
Ġjose ph
Ġcast le
Ġsn apped
Ġfro zen
Ġexperien cing
um ble
Ġsh iny
Ġph ill
Ġdefin ed
Ġmin us
Ġt a
om eter
Ġag gress
Ġw i
Ġfight s
Ġb b
ograp her
Ġview point
f ast
Ġac ou
Ġlone ly
Ġintrod uces
Ġhighlight s
Ġsk ipping
Ġsubt it
Ġcompl ained
Ġcoin c
Ġdev ast
Ġover s
Ġsc ot
Ġt am
Ġcl aire
Ġaccompl ished
Ġsh irts
ot a
Ġp ins
Ġfoot age
Ġed ward
Ġcompl aining
Ġp ets
Ġmaxim um
Ġmath em
in ent
Ġresult ing
Ġje an
Ġearn ed
Ġproper ty
Ġc el
Ġp ause
Ġcatch y
Ġdiscl aimer
Ġpo ems
Ġr p
Ġcom ics
Ġje alous
Ġforg ive
Ġtraff ic
Ġco ach
Ġle x
Ġamazing ly
Ġmeaning ful
Ġcer t
u its
Ġthick ness
est ing
Ġpot entially
Ġscrew dri
Ġst ub
Ġwas her
Ġtow er
Ġd ave
b ie
Ġjew s
Ġgener ous
Ġmatch es
iss a
Ġsyn op
ul ary
mo nd
Ġsu ited
Ġbill y
d r
Ġlay ing
Ġleak s
Ġvul ner
Ġly n
Ġr ul
Ġmanufactur ers
Ġview er
Ġpal m
Ġl ining
Ġconc rete
Ġatt end
Ġcra w
se ll
Ġrhyth m
c ore
Ġsole ly
Ġsuspense ful
ic ity
Ġdes ert
Ġaccur ately
Ġflor ida
Ġst an
Ġunaccept able
Ġjohn son
ip ed
Ġk im
Ġacknow led
Ġfund amental
Ġbab ies
es ter
Ġi v
Ġextraord inary
Ġtroubles ho
Ġto ast
ific ations
Ġsn aps
Ġpre ach
Ġw re
h op
Ġar rog
Ġmu g
Ġsav es
it ect
c ere
Ġk ore
Ġbelie ving
Ġlaugh ed
Ġe gy
Ġgl itch
Ġmus lim
ott ed
Ġportra it
Ġtri m
Ġarch itect
Ġregard s
Ġspoil ed
Ġimmedi ate
Ġcr ank
Ġcart oon
k u
k ind
Ġfor d
Ġan ch
Ġemerg ency
Ġestab lish
Ġcou ch
Ġsim il
Ġegy pt
Ġpark er
Ġstud ying
Ġinflu enced
Ġinfer ior
Ġfeed er
Ġmicrow ave
Ġc ities
Ġabandon ed
Ġpos itions
Ġbe ef
Ġab usive
Ġst ol
Ġgre g
Ġcon sole
Ġgr at
Ġlow est
um bs
f it
Ġol iv
Ġsc are
Ġcor rupt
Ġcal ib
d on
Ġst ones
r ition
Ġble nder
Ġmu ff
Ġsurv ived
Ġopen er
Ġpl ates
Ġobject ive
Ġup load
Ġexp ans
o ber
in al
Ġobl ig
Ġfif th
Ġr ome
Ġna ive
Ġw rest
om a
Ġmod es
Ġcur ve
Ġhor ribly
Ġsell s
Ġno isy
Ġmove ments
Ġdesper ately
Ġl p
Ġequ ivalent
Ġp y
ant e
Ġs ided
Ġa esth
Ġeld er
Ġb ite
Ġmill er
z a
Ġheart ed
Ġobserv ations
Ġt read
Ġinstrum ents
Ġsh ips
Ġep il
Ġnew ly
rif ying
Ġa ka
ul ations
Ġindic ate
Ġdrag ged
Ġce iling
Ġd ot
Ġtab les
Ġreg ion
Ġdocument ation
Ġrep ly
Ġchoo sing
ak y
Ġdo z
is k
v a
Ġcri mes
t ies
Ġimm ense
Ġke lly
Ġafford able
Ġw att
Ġte nder
Ġt id
Ġrep rod
Ġtort ure
Ġtext s
Ġspec s
Ġmod em
w ater
Ġdis m
Ġpop s
be at
Ġcontro vers
Ġw ii
Ġcreat ivity
Ġoct ober
Ġoccas ions
Ġunpl ug
Ġpun ct
Ġact ed
Ġcons ult
re ne
Ġp d
Ġrest art
Ġmus e
Ġportray al
Ġpart ially
Ġschool s
Ġwork ers
Ġre aching
Ġeduc ational
Ġtri angle
res so
Ġdestruct ion
Ġcal cul
Ġinser ted
Ġcount less
Ġengine er
Ġfirm ly
Ġdry er
Ġbrief ly
Ġconnect ors
Ġvir gin
Ġsac rif
Ġun ion
ri an
Ġsk ipped
Ġro lled
Ġfold ed
Ġall en
Ġal right
ur t
Ġb aking
Ġpa ired
Ġdown s
Ġtr apped
Ġover pr
Ġsacrif ice
Ġgl ove
Ġrefer red
Ġre ver
Ġout r
Ġref lection
Ġcompar able
Ġcar ries
Ġsin cere
Ġunderstand able
Ġcompon ent
Ġwil son
Ġsympath etic
Ġbl ake
Ġcom bo
omm od
Ġble ed
Ġl ately
go ing
Ġexpl o
Ġre un
Ġacc ommod
Ġmag gie
t v
Ġviet nam
ci pl
Ġjord an
Ġillustr ated
Ġv it
Ġsensit ivity
Ġroom s
Ġtw el
Ġsynop sis
Ġp ans
Ġfl our
Ġinterest s
Ġindic ator
Ġhoriz ont
Ġpurch ases
Ġhann ah
Ġsupple ment
Ġvill ains
Ġtom or
Ġprompt ly
Ġand re
Ġmill ions
Ġback wards
Ġben ch
Ġsubsequ ent
Ġind icated
Ġp unk
Ġcomp ilation
Ġcry ing
Ġimag ined
ang el
Ġle ct
ce eds
Ġrec y
Ġremo vable
Ġwarri or
Ġnove mber
Ġblur b
Ġslo ppy
Ġvocab ulary
Ġscenar io
Ġsoul s
Ġluc as
Ġgr av
Ġstri ps
Ġmoo re
Ġn ails
ur s
Ġdan cing
Ġprof it
Ġfort une
Ġpot ato
Ġne ut
Ġt il
Ġbarg ain
Ġra ising
Ġexpl icit
Ġun sc
ors es
Ġmedic ine
Ġm arsh
y l
atter ing
Ġnut rition
Ġwrit ings
Ġprec ious
Ġexec uted
Ġremote ly
Ġri ff
Ġex ter
Ġprotect ing
ind er
Ġd or
st one
Ġdy lan
f ect
Ġill eg
Ġpres um
mans hip
Ġd ates
Ġtomor row
Ġorchest ra
Ġconfir m
gg y
Ġrem ained
Ġcaptiv ating
Ġco ck
Ġe book
a ired
f y
Ġch ord
Ġfl ower
Ġmexic o
il ton
Ġer r
Ġdiag n
Ġsym ph
c ery
Ġpart ies
Ġgrand father
ot te
Ġtop s
Ġstol en
Ġo u
Ġdisplay ed
Ġsoon er
Ġscient ist
Ġrevel ation
Ġf og
Ġsock et
Ġwal mart
r ain
Ġdis miss
Ġparall el
ion e
Ġal ike
Ġconc ise
ier ce
Ġdiscuss es
Ġcl ient
Ġconspir acy
Ġperman ent
Ġown ing
Ġless er
c ons
Ġdiss ap
um my
Ġo un
Ġleg it
Ġsquee ze
Ġtechn ically
Ġbegin ners
Ġcontro lled
Ġb arn
Ġboard s
Ġny lon
Ġnavig ate
Ġdu ke
Ġsl ick
Ġcl og
Ġrespons ive
Ġmeas ured
Ġv ine
ial s
g as
Ġoccas ion
Ġdi ary
Ġlou is
Ġdisp ens
al ia
t able
Ġremember ed
Ġcr uc
Ġconven ience
Ġam pl
Ġpick y
Ġpad ded
Ġken ned
Ġcommunic ate
Ġadjust ments
Ġy r
Ġepil ogue
Ġplac ement
b ar
Ġeduc ated
Ġk ir
Ġcapt ures
Ġang les
r ous
as ion
Ġbr uce
Ġprocess or
Ġghost s
Ġapply ing
Ġgab ri
Ġint ensity
ig er
Ġpre jud
Ġwa x
Ġp ics
Ġtong ue
um n
Ġmess ed
Ġsha ft
Ġdevelop s
re en
Ġstr ain
Ġcharacter ization
Ġboo st
Ġcar rier
Ġwo nders
Ġposs ess
ic ation
Ġdoz ens
Ġfl ood
Ġgrate ful
Ġag ed
Ġcur s
Ġadm inist
Ġc ure
Ġn ap
Ġbu ried
Ġcontin ually
Ġstore d
Ġleg acy
Ġpsych ology
in ished
Ġsurf aces
ir l
Ġslee k
Ġi an
Ġw are
Ġble w
Ġf ought
Ġm others
Ġint ric
Ġredeem ing
h s
Ġprotagon ists
Ġphilosoph ical
Ġacc ent
Ġk ett
Ġre verse
ul ating
Ġspr ink
Ġmain stream
am ps
Ġsc and
Ġpo ison
Ġb ern
as ant
Ġdro ve
Ġlin col
Ġel ite
Ġdav is
Ġcur tain
om y
pt ic
Ġmix ing
pp ers
j a
Ġri f
Ġf ame
Ġgri pe
Ġcy n
Ġfig uring
Ġsk etch
Ġrac ing
Ġimm ers
Ġste ven
Ġincre ased
Ġwick ed
ie ved
Ġrecei pt
c s
t es
Ġpan els
Ġp apers
Ġter rit
t w
Ġhel met
Ġtend ency
Ġsimpl istic
Ġnic er
i ors
Ġsu nday
Ġmat the
Ġspect acular
ou l
Ġcl ark
f r
Ġbas ement
Ġg ad
Ġdelic ate
Ġtransm itter
Ġse vent
Ġhallow een
Ġcon qu
Ġhol mes
Ġeas tern
Ġair port
Ġira q
Ġadd iction
i ated
Ġpret end
Ġn erv
Ġgramm atical
Ġodd ly
Ġbook let
Ġda wn
Ġidi ot
Ġconfigur ation
Ġdisappe ared
zz le
Ġbl owing
ch ant
Ġsett led
Ġlu x
Ġcarb on
Ġeth an
Ġsuper ficial
Ġdrum s
Ġscratch ing
Ġsus an
Ġfeed ing
Ġspo ken
Ġhous es
Ġr ank
Ġle on
Ġped al
Ġdist ant
Ġexcess ive
Ġref ers
Ġen orm
Ġdispl ays
Ġann oun
Ġflow ers
ia h
Ġun st
Ġtwel ve
Ġcharl otte
Ġod ds
Ġrob in
en ger
Ġsell ers
Ġne x
Ġmel ody
Ġbr ide
in ter
Ġsoph istic
Ġrese mb
Ġlincol n
Ġoccur s
Ġdead ly
Ġup right
est ed
Ġdo om
Ġcuri osity
ing ing
Ġmotiv ation
Ġf athers
Ġgener ations
Ġp ipe
Ġmanufact ured
Ġscrewdri ver
Ġab used
Ġsp aces
Ġfree ze
Ġl isa
Ġnews paper
Ġsag a
ers ome
Ġl ace
Ġh orses
Ġeconom y
Ġoliv ia
Ġdepend s
Ġmeasure ments
Ġf ont
em ption
Ġle ague
Ġaddress es
Ġreco very
Ġfi ber
Ġm ason
Ġun ra
Ġbo ston
Ġdisp os
Ġridiculous ly
Ġinconsist ent
Ġscr ub
Ġclick ing
Ġexce ed
v ia
Ġtr av
Ġdiv ided
i ber
Ġresearch ing
Ġdraw ings
Ġo sc
Ġauto bi
w ith
Ġdisc our
Ġart istic
Ġscient ists
Ġjenn ifer
ge ar
Ġharr is
Ġexp osure
Ġgl ory
p ower
Ġor ph
Ġprefer ence
Ġla ura
Ġmet er
Ġanecd otes
Ġblank et
Ġneg atives
Ġg ently
Ġres on
Ġcraft s
Ġint im
Ġdown right
Ġquestion able
a id
Ġit aly
Ġp ity
Ġm akers
Ġde an
Ġsu ck
Ġintrod uce
Ġhy per
Ġu mb
Ġentertain ed
Ġmurder er
Ġsh ades
Ġflaw lessly
Ġmor gan
Ġs ession
Ġadm ire
Ġwish es
Ġgh z
le ep
Ġstretch ed
Ġche f
Ġred emption
Ġsh ark
an ny
Ġkenned y
all ed
pect ives
Ġfrequ ency
Ġref use
Ġas p
Ġeng ross
ud ge
Ġs igh
Ġh ates
Ġled s
Ġcha os
Ġexpl ored
as er
Ġcur se
Ġmess y
Ġess ence
Ġacou stic
Ġwho ever
Ġstar ter
Ġadmitted ly
Ġarg ue
Ġrecommend ations
ac ies
Ġperfect ion
Ġsatisfact ion
Ġpo pping
Ġtrick y
Ġbre ed
im m
Ġneg lect
Ġthe ology
Ġmon itors
Ġexpl oring
Ġse eds
Ġgrab bed
Ġsou p
Ġrefurb ished
Ġsimil arly
Ġkidn apped
Ġimm ig
Ġstick ers
Ġreve aling
Ġme als
Ġprod uces
Ġpass word
Ġshakes pe
Ġotter box
is c
Ġm itch
ane ously
Ġh ired
Ġho llow
Ġlength y
Ġkn ee
Ġcl ients
gg ing
Ġtas ks
Ġsty lish
Ġrob ot
Ġindust rial
un es
Ġspin ning
Ġs id
Ġbi as
Ġke vin
Ġdis cipl
Ġpers pectives
Ġk h
Ġreal m
Ġint imate
Ġran ch
u el
Ġclich e
Ġcar ter
Ġwo ven
Ġfre ak
Ġwh im
Ġl ane
Ġwe ld
Ġsus pend
Ġoff ensive
Ġstand al
Ġexpl oration
Ġdef end
Ġd um
Ġsept ember
Ġguit ars
y ou
f ers
Ġinf ect
Ġpol ish
Ġt utor
Ġnerv ous
Ġsur re
Ġreal izing
Ġcook ed
Ġent it
Ġjohn ny
Ġmiss ions
Ġinst ances
Ġshr ink
Ġp am
Ġb os
Ġsoph ie
Ġsend s
Ġcar p
Ġchair s
ar i
Ġdec iding
Ġwor ship
Ġage nda
Ġver b
Ġbu nd
Ġinc lus
Ġcan s
av a
Ġd p
Ġcu is
Ġsc oop
Ġpast or
Ġr us
Ġass ess
l ass
Ġcou pl
Ġcool ing
Ġban ter
Ġcap ability
h h
v as
Ġfr iday
Ġf ishing
Ġche er
Ġas leep
ip her
Ġinj ury
Ġsa uce
Ġsto pping
oo ps
Ġpass age
Ġoverpr iced
Ġgr itty
Ġswe ep
Ġrebo ot
Ġd ive
Ġf est
Ġdi vers
ger y
Ġt ense
Ġdiscuss ing
Ġtherap y
on a
Ġdeath s
Ġpair ing
Ġfavour ite
Ġhor rific
Ġdiction ary
Ġse ed
Ġk ings
Ġauthor ity
Ġh inge
Ġconsider ation
Ġmo s
Ġvers at
ch ed
Ġpo ign
Ġw ings
Ġl ined
Ġe pson
Ġtrick s
Ġsen ior
Ġeleg ant
Ġk in
Ġumb re
Ġb ib
Ġex agger
Ġm ia
Ġtest im
Ġt ilt
Ġb am
Ġlo gan
Ġkett le
Ġcand id
wor ld
Ġrequest ed
Ġeff icient
Ġhaun ting
Ġcult ures
Ġadop t
Ġbr ass
Ġaust en
Ġnew est
Ġm ice
Ġrein stall
Ġform ed
Ġlou der
Ġth ro
Ġcontrad ict
Ġear phones
Ġover d
Ġpuzz les
Ġun ple
if orm
Ġw ishing
Ġshakespe are
Ġsupp lies
a ver
Ġbill ion
Ġrec onnect
er ie
ce ived
st ore
Ġinvestig ate
ig e
Ġcons ists
Ġforg iveness
Ġadop ted
Ġarth ur
Ġcr own
Ġcow boy
ul s
Ġover l
Ġstub born
Ġvis iting
Ġsof ter
an cing
Ġopt ical
qu is
Ġun for
Ġhope ful
Ġunra vel
Ġflu id
o e
Ġzipp ers
Ġsac rific
w art
ann ed
Ġsol ving
Ġbene ath
Ġjess ica
Ġcol our
Ġhigh s
ack s
Ġpost s
Ġgad get
Ġess ay
Ġle ver
Ġfor b
Ġalex ander
Ġmyth ology
Ġface book
Ġbackst ory
Ġg oth
Ġand rew
Ġpl ugging
Ġmotor cy
Ġcrit ics
Ġth ir
Ġper se
Ġcomplex ity
Ġgenuine ly
Ġwiz ard
bel ief
Ġbr id
Ġhung ry
Ġmoist ure
Ġw ins
Ġstandal one
Ġwh it
Ġshad ows
Ġcap abilities
h and
Ġcan n
Ġd j
Ġord ers
Ġunder lying
Ġmoder ate
Ġindo or
Ġdrink s
Ġfif ty
Ġi ii
Ġto l
Ġfunction ing
Ġanim ation
Ġcom ed
Ġf red
Ġcos m
Ġlic ense
ress ed
Ġg ender
Ġproduc er
Ġincom plete
Ġmy st
Ġsp ider
Ġclos est
Ġank le
ograph ical
Ġproject or
Ġn as
ion ed
gh an
Ġspark s
Ġdy stop
Ġmas ters
Ġfl ows
Ġtremend ous
Ġf ount
Ġcrack s
Ġrespond ed
Ġobs ession
Ġcook er
Ġun iform
wr iting
Ġbar rel
Ġun cover
Ġwr ink
Ġconst it
Ġp m
Ġchor us
o bs
Ġcl in
er ve
Ġcontr ary
Ġdisconnect ed
Ġwh ist
Ġhesit ant
Ġscre aming
Ġinv is
Ġtable ts
ll e
Ġground s
Ġrere ad
Ġart ific
il ight
Ġro ast
Ġdeal er
Ġret ired
Ġreact ions
Ġg aps
Ġhum id
ibl ings
Ġcar r
Ġd ick
Ġcon vert
Ġsequ ences
Ġvolt age
Ġgro cery
Ġcook ie
Ġthri lling
Ġstrateg ies
Ġn uc
Ġgl ance
Ġdis j
z ed
Ġhead ache
Ġdiscover ing
Ġcut ter
Ġs iblings
Ġbreak fast
Ġst alk
Ġview ed
Ġst amp
Ġvib rant
Ġflesh ed
Ġrepresent ative
Ġind ul
Ġbi ased
h y
Ġread ings
Ġre el
Ġgri ps
Ġper pet
ut en
Ġreminis cent
in ite
Ġr um
Ġterrit ory
Ġr ic
Ġexist ed
Ġcompe lled
Ġori ented
Ġam ish
Ġr ugged
Ġdi ab
Ġfaith ful
Ġj et
Ġp ist
b ro
ot ional
ug s
Ġguid ance
Ġfashion ed
Ġsub pl
Ġlight ning
Ġreplac ements
Ġma id
Ġh an
Ġcatch ing
Ġafter wards
resp ond
Ġke en
Ġdrag ons
Ġtw ilight
Ġstri kes
Ġtodd ler
Ġimag ery
Ġdeli ber
Ġtoss ed
am i
Ġdis belief
Ġload ing
Ġgl aring
Ġresult ed
Ġpoint ing
Ġpl un
Ġqu inn
Ġhe els
at ics
Ġlight ly
Ġtri um
i ac
Ġbri ghter
Ġcor respond
Ġt ess
Ġs ir
Ġgl owing
Ġconf ess
Ġcou ples
Ġn est
on ies
Ġla wn
Ġbind ing
Ġperform ing
Ġroll s
Ġproduc ing
Ġhesit ate
Ġst er
Ġsearch ed
Ġpregn ancy
Ġover he
Ġfoot not
it ives
ay ed
Ġgr ave
Ġpass es
Ġimm ature
Ġconscious ness
g i
Ġse an
Ġintrod uct
os is
Ġdraw back
Ġtrust ed
ord ers
Ġro pe
Ġr ude
Ġincreasing ly
Ġreal ism
il a
et ically
em an
Ġgri ff
Ġto aster
Ġoutdo ors
Ġwar ming
Ġver se
Ġmother board
Ġno ah
Ġv ista
Ġm ars
Ġjam ie
Ġhor n
Ġdisgust ing
Ġext ract
Ġeb ay
Ġtri als
Ġdr own
h ill
Ġobsc ure
Ġmount s
ve t
Ġham ilton
Ġpo etic
Ġc ents
est ic
Ġres id
Ġunder ground
Ġmain ten
Ġdisj ointed
ud os
Ġcitiz ens
im ental
Ġdesign er
a e
Ġout d
Ġch ore
Ġpat rick
Ġfr ames
ern et
Ġbe er
Ġco zy
ast e
Ġbetray al
Ġdra ft
Ġmount ains
Ġrev ol
Ġcan ada
Ġle ash
Ġk ath
Ġknock ed
Ġv iv
we ar
Ġment ally
Ġev o
el f
Ġprin ters
o st
Ġv oy
Ġkn ees
Ġexpl ores
Ġr ising
no x
Ġconflict s
Ġg olf
w all
ic ians
Ġfi ance
Ġp ione
ic ations
Ġnuc le
Ġs essions
Ġruss ia
Ġsumm ar
Ġr amp
Ġconsum ing
Ġconsider able
t le
Ġex hib
pl ate
Ġtrium ph
2 0
Ġcal m
Ġnote book
Ġpron oun
f ire
Ġmusic ian
g en
id ently
Ġslight est
Ġflash backs
Ġstrength s
Ġyour s
Ġquick en
Ġexter ior
Ġg ained
om ic
o f
Ġc pu
Ġp izz
Ġcreat ure
Ġunple asant
Ġjournal ist
Ġmainten ance
Ġle af
Ġsl ap
Ġas ian
Ġpear l
Ġtw ins
Ġblood y
Ġdest iny
Ġphot ographer
oc r
Ġcham ber
Ġc ia
Ġpr one
et ics
Ġcon n
Ġpart ners
und ant
Ġann ie
r ams
Ġsw ive
ut ing
Ġsil ence
c ling
Ġkeyboard s
Ġsim ult
om et
Ġtub es
Ġoutr age
Ġeth ernet
Ġsh ines
Ġcontact s
Ġpol ic
Ġent ries
Ġsl a
Ġgall on
y a
Ġneut ral
Ġno ble
Ġprot ein
Ġcl int
Ġu gh
Ġpencil s
Ġmer cy
Ġk itty
op ath
am in
Ġunin ter
Ġre be
Ġbeat les
Ġcal ories
Ġsympath y
Ġro ku
Ġinter m
Ġshel ter
Ġcross ed
Ġworkout s
Ġinh ab
Ġdeb ate
Ġhaun ted
Ġfem in
Ġfor cing
Ġtroub led
Ġsched ule
Ġconv entional
Ġclass room
Ġss d
Ġpun ish
Ġs ate
Ġat ro
Ġstri pped
Ġmiss es
Ġslipp ery
Ġbe lly
Ġcommit ment
Ġlimit ations
Ġand erson
e u
Ġj ail
Ġdist ingu
olog ies
Ġd ense
Ġret ire
Ġcent uries
Ġgrad ually
p se
Ġdes ires
ic iently
Ġinaccur ate
ook ed
un ks
Ġtal ents
Ġhard core
Ġadv oc
Ġneed le
w ind
Ġinevit able
Ġut ility
Ġsmo king
Ġstell ar
Ġbec k
Ġn om
Ġsevere ly
Ġse wn
Ġuns ure
ort ed
Ġrep aired
sc reen
Ġconfir med
Ġche ating
ri x
i h
ar se
Ġheartbre aking
Ġenh ance
Ġrig id
Ġposs ibilities
Ġpen n
u ated
Ġmild ly
nd ry
Ġjim my
Ġindic ation
Ġf ired
Ġl ion
ins on
Ġd ict
Ġbe ating
5 0
Ġhar v
Ġatt or
Ġs oooo
Ġhur ts
Ġri val
z er
Ġbroad cast
Ġperform s
Ġrepet ition
Ġp g
Ġjudg ment
Ġmir acle
Ġpers u
Ġschem e
Ġass igned
is ons
Ġmem or
Ġa i
Ġj ung
ac ious
Ġstud ied
Ġrecharge able
Ġc m
Ġre ct
Ġtim ing
Ġrem ix
Ġal an
Ġarm or
Ġaim ed
Ġpol ished
Ġnich ol
Ġwre ck
Ġel i
Ġbl at
Ġcollect or
l ife
in er
Ġeager ly
Ġloose ly
Ġedit ors
Ġnucle ar
Ġk er
Ġcl unky
Ġro ber
y ard
Ġmet all
Ġlat in
Ġpain ts
Ġbud dy
Ġh r
om an
Ġsc ent
Ġcale nd
Ġdar cy
arr ing
Ġpre view
Ġswim ming
Ġjewel ry
Ġlar gest
Ġst em
Ġdifficult ies
Ġne ph
Ġmagn ific
Ġharm ony
Ġo ly
Ġse w
Ġintegr ity
Ġclim ate
Ġmist aken
r int
ose x
Ġsl ipping
Ġr in
Ġfact ors
Ġgrind ing
el ia
Ġcontact ing
Ġbrows er
Ġest e
Ġad ams
Ġse wing
Ġscre am
Ġlaure n
Ġan ime
Ġart ic
b u
Ġadv ised
Ġcruc ial
Ġloyal ty
Ġbur st
act ic
br uary
Ġsafe ly
Ġar rest
Ġman if
Ġmu nd
i at
u a
Ġqu art
z ing
Ġn it
Ġed itions
Ġfin est
Ġfew er
Ġmid night
p ros
Ġag gr
Ġair pl
Ġkid ding
Ġtruth s
Ġr ag
Ġfle e
Ġreluct ant
ic er
Ġtit an
Ġdoub ts
Ġev ol
Ġwork er
Ġfr idge
w ow
Ġrem aster
Ġill umin
Ġnear by
Ġimagin ative
it udes
Ġentit led
Ġf ighter
Ġprogress es
an ity
Ġt b
Ġfe bruary
Ġsur ge
Ġassist ant
Ġj r
Ġdele te
Ġguest s
Ġwat ts
Ġr ides
Ġload s
Ġmechan ics
Ġmatch ing
Ġl l
Ġanx iety
am il
Ġc s
Ġfit ness
Ġrefer ring
Ġw oo
Ġh ing
Ġcontro lling
Ġinstrum ental
Ġf are
Ġpre par
Ġdoct ors
Ġrequ iring
Ġmagn ets
Ġfulf ill
Ġdim ension
Ġbrack ets
Ġfount ain
Ġmin s
Ġnex us
Ġhead ing
Ġumbre lla
Ġun be
Ġread ily
Ġlisten er
Ġobst acles
Ġdiscuss ions
Ġsp out
Ġgen e
Ġw d
Ġmotiv ations
m ate
Ġdep ict
Ġdisli ked
Ġb io
Ġve gas
st airs
Ġwind s
Ġtr ump
Ġvir us
Ġha bits
Ġdi verse
Ġindic ates
Ġrot ate
Ġvis ited
ac ute
Ġpure ly
Ġcl asp
Ġreach es
Ġende aring
Ġmer c
Ġa ven
Ġpain fully
Ġannoy ance
Ġpe an
Ġz en
Ġappreci ation
Ġbuck le
Ġpat ients
Ġso v
Ġport ions
Ġfor ums
Ġpl ausible
Ġexpans ion
Ġg ask
Ġno vice
Ġmatthe w
Ġh art
Ġexpand ed
Ġdisc ont
r ich
ch ool
Ġath let
Ġn athan
Ġtroublesho oting
Ġhy d
er ts
Ġveh icles
Ġpush es
cc a
Ġmention ing
Ġs ings
Ġsla very
Ġtransl ated
Ġopportun ities
Ġdep icted
Ġoly mp
Ġinvis ible
Ġy o
ac on
Ġtrad ing
ick y
Ġcontain ers
Ġmar g
Ġchron icles
Ġnorth ern
Ġl on
Ġgabri el
Ġme lt
Ġv alley
Ġwebs ites
h aving
Ġcen ters
Ġge e
Ġche ated
Ġprice y
Ġsov iet
st ep
Ġsar c
Ġne il
o ons
Ġanticip ated
Ġsophistic ated
Ġe go
Ġpers ist
Ġabsor bed
Ġsar a
Ġw y
Ġflav ors
Ġd ent
Ġsh am
Ġraz or
Ġin ability
Ġunin stall
Ġcar afe
b les
Ġst up
Ġm ower
Ġcivil ization
Ġn ar
Ġan c
al t
if ul
Ġwalk er
Ġther most
Ġpd f
Ġcrash es
Ġv ice
ish es
Ġenorm ous
Ġhow ard
Ġsometim e
Ġproduc ers
ru ption
Ġcol umb
Ġunf air
Ġh mm
Ġno stal
Ġconsider ably
Ġvirt ual
Ġth under
Ġcred ibility
Ġfill s
Ġp iv
ren ce
Ġv int
Ġund ers
Ġsant a
Ġk udos
atisf ied
Ġany time
Ġfran ch
Ġland s
Ġpriv ile
Ġjul ie
Ġskin ny
Ġmar ine
Ġac id
Ġsqu ir
Ġlangu ages
Ġgen res
Ġpl um
Ġbl ond
Ġbl ows
Ġcount ing
o h
Ġf aint
Ġimm ort
Ġlaptop s
Ġbuck et
Ġa the
Ġwo bb
Ġfro st
ap se
Ġst airs
p es
Ġc atherine
Ġstrict ly
ro ph
Ġchrist opher
Ġclaim ing
Ġpat ri
Ġbelong s
Ġav o
Ġag rees
Ġnet gear
Ġand y
Ġton ight
Ġscenar ios
ad er
Ġmore over
Ġf ried
Ġdep art
Ġpoign ant
Ġdynam ics
ri ger
rif ied
Ġartific ial
Ġgrad uate
Ġadap ters
sh ad
Ġsur gery
Ġswe ar
Ġcho ppy
Ġmatch ed
Ġf el
Ġt ile
ib a
Ġapproach es
Ġreflect s
Ġour s
Ġrel atable
Ġd ough
Ġrep orter
Ġgre ase
Ġh rs
r ating
Ġto xic
Ġre e
Ġprogress ive
Ġfl ashing
Ġor th
Ġre nd
Ġori ent
Ġd uck
Ġmed ie
Ġenter ed
Ġne l
Ġfield s
Ġp and
Ġaware ness
v an
Ġd il
Ġlin ux
Ġunre li
Ġconnect ivity
Ġintent ions
Ġass ured
Ġrequire ments
Ġob nox
Ġcirc les
Ġro ss
Ġto sh
Ġs r
Ġa er
ig an
Ġmeas uring
Ġdem ands
Ġback s
Ġdeb t
Ġco pper
Ġperman ently
Ġgood s
Ġmb ps
Ġsw all
Ġesp resso
Ġunfold s
Ġarrog ant
Ġweight s
Ġabsor b
Ġsu cc
Ġth umbs
Ġr aces
Ġlaugh s
p ing
ony m
Ġmedie val
Ġsate ll
Ġenvironment al
em y
Ġy arn
w ich
Ġcon j
Ġcook ies
Ġprop ag
Ġbook store
Ġaggress ive
Ġr ural
Ġg il
Ġk l
Ġcond ens
ist ically
Ġsuspect s
m ates
Ġfasc inated
Ġsp a
Ġfl ipping
Ġinst inct
Ġover t
vel ope
Ġke eper
Ġdeterm ination
Ġab by
Ġev angel
Ġback ed
Ġd ud
Ġb aker
amil iar
Ġc ried
Ġad ore
Ġj aw
ick s
Ġlau ndry
Ġw ol
Ġavo ided
Ġtight ened
Ġsatisf y
Ġperson s
Ġdepress ed
Ġkr ist
Ġremind er
Ġfact ual
r ison
wor king
Ġanth ony
Ġrober ts
g reat
Ġno zzle
Ġmen us
Ġprocess ing
Ġhorizont al
Ġj ill
Ġpart ly
Ġcontin uous
f ly
Ġspr ings
o ir
Ġconsist ency
Ġd ang
Ġunf amiliar
Ġdig est
Ġattack ed
st ar
d ling
Ġtri ple
Ġref riger
Ġaccommod ate
Ġr ational
Ġanx ious
Ġback d
Ġweek ly
Ġaud ible
Ġthe sis
Ġwat ers
Ġaccept ance
ach es
b one
Ġdo l
Ġfif teen
Ġno ises
Ġspect rum
Ġg le
Ġle ap
Ġpri ze
Ġnur se
Ġro y
Ġvint age
Ġemploy ees
Ġpo em
Ġo li
an ne
Ġu m
Ġdefe at
Ġwe aves
Ġrepe ating
Ġenter ing
Ġsad ness
Ġprot est
Ġt apes
Ġunc on
Ġfreez ing
Ġown s
Ġirre le
Ġal ar
r ays
ver ty
Ġkat ie
Ġste ep
n et
Ġdis asse
Ġexec ut
ile y
Ġbe aring
al though
Ġgl ow
Ġtempt ed
pl ess
Ġorph an
Ġtact ics
Ġdistort ion
Ġmotorcy cle
Ġveget ables
Ġse ats
Ġachie ved
Ġag ents
Ġfl ame
Ġup coming
Ġbre ast
app er
j i
Ġfat al
Ġint r
Ġnot ion
Ġoutd ated
Ġassist ance
Ġp ant
Ġrev is
Ġple asing
Ġthri llers
a ust
Ġi re
Ġpo verty
Ġc umb
Ġrec ount
Ġbum per
Ġev an
z el
Ġmeas ures
Ġt ighter
Ġnel son
Ġr ca
Ġjer ry
Ġphill ips
end o
Ġunc er
Ġg imm
Ġrif le
Ġt att
Ġinser ts
Ġdele ted
Ġelim inate
Ġat e
Ġhang s
Ġmo lly
Ġexpress ion
Ġrapid ly
Ġsimult aneously
Ġattach ments
Ġcher ry
c orn
on ing
Ġa le
am ic
Ġsuper man
Ġreason ing
Ġc ig
Ġrun ner
Ġloos en
Ġinterm itt
Ġchar gers
Ġflo ating
Ġpill ows
Ġis ab
Ġdiv ine
d ge
Ġchalleng ed
Ġd at
r as
Ġtim eline
Ġl int
Ġmi xture
Ġapp end
Ġvulner able
Ġflaw less
Ġd ice
Ġsing ers
Ġh anger
Ġlinks ys
Ġfail ures
os aur
Ġleak ed
Ġmanufact ure
Ġv hs
Ġins urance
Ġel abor
se e
Ġbend ing
Ġtick et
Ġpo nder
Ġabs ent
Ġwild er
Ġur ge
Ġs aint
Ġsk irt
Ġscan ning
Ġamong st
Ġpeop les
Ġhum idity
Ġst ability
Ġunpl ugged
ous y
Ġf itted
Ġout l
Ġfinger print
Ġsatur day
Ġro oting
Ġint act
Ġrepres ented
Ġcont aining
Ġbe am
Ġphenomen al
Ġdep ot
ane ous
Ġt s
Ġinc ome
ag ues
Ġhum ble
Ġl ays
Ġwerew olf
Ġbr ake
Ġaccess ory
Ġaggr av
Ġban ks
Ġall erg
Ġbi kes
Ġdownload ing
Ġmed itation
Ġcumb ersome
Ġunderstand s
l if
il st
Ġneph ew
Ġpul p
Ġintrod ucing
Ġsimpl icity
Ġskim ming
Ġhar per
Ġty ler
Ġsurviv ors
Ġunreli able
Ġpol es
Ġrecogn ition
Ġsurround ed
Ġlegend ary
er pt
Ġl ud
Ġvis ually
wr iter
Ġfl ies
ment ed
Ġvar ied
Ġoverlook ed
Ġfix ing
al ie
Ġloc ate
g ling
Ġf etch
ph y
Ġhun ger
Ġtow els
Ġanticip ation
io let
Ġmot ives
ke l
el ines
Ġinsp ire
Ġsat an
Ġoli ver
Ġsteph anie
Ġexpl or
Ġpresent ing
Ġborrow ed
Ġco des
Ġaccept ing
Ġneck l
Ġfu zzy
Ġdan ny
Ġsy nd
Ġjac ob
Ġtosh iba
Ġbrit ain
Ġbe an
Ġvol unt
il ted
Ġgr id
Ġinter rupt
Ġr it
Ġass ault
Ġattor ney
Ġash amed
Ġarrang ements
Ġk aren
Ġres ur
c am
Ġto ner
Ġar row
Ġg ems
Ġcatch es
Ġhu gh
Ġman eu
Ġcomment ed
Ġanth ology
Ġscen ery
Ġrab bit
Ġcalend ar
Ġaustr alia
lass es
Ġny c
Ġf ade
Ġenthusi ast
Ġinspir ational
Ġam anda
Ġtr ave
Ġprom inent
Ġsl ice
Ġinter f
Ġmer it
Ġavoid ing
os sy
Ġwor ries
Ġisol ated
b ra
Ġte ams
Ġcop s
Ġju ven
Ġres pective
Ġprec ision
Ġbrush es
Ġer gon
Ġf ps
her o
Ġsign als
Ġproblem atic
Ġbe ars
Ġlif ting
Ġch asing
Ġmiser able
Ġsp ill
Ġcred its
Ġorigin s
Ġg ary
Ġplay back
a a
Ġho bby
i vers
Ġb umps
Ġintegr ated
app ro
Ġm ig
Ġunsc rew
Ġf isher
Ġdec re
Ġlink ed
Ġarrang ed
g ue
Ġcharacter istics
Ġde gr
Ġexc erpt
Ġsing les
Ġfree ly
Ġexist ent
in art
Ġri m
Ġdefin itive
Ġchoo ses
Ġgl ossy
Ġjo ined
Ġship ment
Ġast on
Ġdystop ian
Ġhoo ver
r ance
ut her
Ġli z
play er
Ġcomm ission
Ġabs ence
Ġfre aking
Ġacadem y
Ġcorrect ed
Ġr age
aw are
or ous
Ġball ad
Ġth igh
Ġr ud
Ġfold ing
Ġimper fect
Ġuncer tain
Ġbreat hing
Ġindivid ually
Ġpizz a
Ġhur ry
Ġcontinu ously
Ġsh attered
Ġrepres ents
Ġstereotyp es
Ġinput s
Ġcom fy
Ġli l
Ġweigh s
Ġou ght
Ġpl ague
Ġco con
Ġmat te
Ġbreat he
b ot
Ġtun er
Ġra ven
re ll
Ġcl um
Ġfold er
Ġsun light
Ġv est
Ġfl owing
f are
Ġcan ister
iz able
Ġquestion ing
Ġinter ference
Ġag ing
Ġtatt oo
Ġcon ve
Ġa ux
Ġg w
Ġv ital
Ġfranch ise
Ġcomb ine
Ġdo se
Ġag ency
Ġsp ine
Ġhe ated
Ġter ry
Ġjes se
Ġpac ific
Ġsusp ic
umb ling
Ġclum sy
Ġdys function
Ġprep aring
Ġh ire
Ġwh ilst
Ġembr ace
Ġirrele vant
Ġcoll aps
Ġloo ps
Ġelder ly
Ġmus cle
Ġdig ging
Ġd ile
Ġgl im
n ings
Ġtort ured
ah am
Ġbe gun
Ġmar cus
Ġr ates
her ent
Ġimmense ly
Ġdiscont in
ort on
Ġaudio book
Ġdri lled
Ġcand le
force ment
e ed
Ġinv asion
Ġlaugh able
Ġeven ly
Ġsc iss
Ġpos itives
Ġmotor ola
re m
Ġmark ers
Ġhistor ian
Ġchemical s
Ġdry ing
Ġcount y
Ġirrit ated
Ġrad ical
Ġpurs ue
Ġse l
Ġfrancis co
Ġret ract
ci ence
Ġopt ed
Ġwid ow
Ġprev ents
Ġhigh way
Ġge ared
Ġqu ad
Ġe cc
Ġprecise ly
Ġobnox ious
Ġcrack ing
im es
Ġrender ing
n ic
Ġhome work
Ġdi ver
Ġtr ace
Ġfant as
c ut
Ġcompl iments
Ġr ave
Ġbre wing
Ġilleg al
Ġinf ant
l aim
Ġcheap est
Ġmund ane
Ġthermost at
Ġe lli
Ġvari ations
Ġroad s
Ġdisg u
Ġall eg
Ġsmall est
Ġweakness es
Ġstrange ly
Ġpresum ably
Ġtheir s
Ġinclus ion
Ġwide ly
Ġl ousy
Ġmart ial
Ġire land
Ġshif ter
Ġpe ak
Ġaw aken
Ġd ude
Ġscar let
uck y
Ġr ant
Ġit unes
Ġco aster
Ġds l
Ġd amp
Ġcle ans
Ġform al
or ic
r ings
Ġkick s
Ġsoci et
Ġpe e
Ġc ros
Ġjon athan
Ġintric ate
Ġexper ts
Ġsupport ive
Ġtransform ation
all ing
Ġsl ipped
Ġatt aching
Ġend ings
oth y
Ġexpect ation
Ġcan vas
Ġdelight ed
Ġm ack
Ġsher iff
Ġdri p
Ġkill ers
Ġburn er
Ġrin se
Ġconv ol
Ġfault s
Ġremo val
Ġsee ks
Ġsusp icious
Ġc ors
Ġaf ghan
Ġpack ages
Ġstur d
Ġsec ured
Ġcru ise
Ġgroo ve
Ġmod est
Ġconsum ers
Ġk y
Ġrece ives
Ġve gan
Ġdis order
Ġdown hill
Ġheads ets
Ġad oles
Ġfool ish
Ġrecommend ing
Ġhe ft
ick ing
Ġsym pt
Ġp se
r ough
Ġprocess es
Ġtime ly
Ġburn s
Ġgo ss
Ġbackd rop
Ġprinc ip
Ġsu its
Ġpath s
Ġre vers
et ary
Ġmar ie
Ġsmart phone
Ġreli ability
Ġnor a
Ġm ck
Ġvers es
ar on
Ġapp lies
Ġg oof
i able
Ġcuis inart
Ġst ages
Ġh ips
Ġtrib ute
re ction
Ġf y
Ġrub bing
Ġk its
Ġsc ro
Ġbo il
Ġreb u
Ġinspect ion
ul ative
Ġwitch es
Ġrat io
Ġell ie
Ġst al
Ġph ase
Ġbrace let
Ġmuse um
Ġenth r
Ġsh aking
Ġvirgin ia
fl ow
Ġlad der
Ġstory lines
Ġrespect ed
Ġvis its
Ġhat red
Ġrebe cca
Ġhel en
Ġstat istics
Ġden y
Ġtra its
Ġimprove ments
Ġd iana
Ġbeat en
Ġhum our
Ġu h
Ġmagnific ent
w ered
Ġdin osaur
Ġcompet ent
Ġcocon ut
Ġsand wich
Ġb ore
Ġmo ck
lo e
Ġcomp ound
Ġpre qu
Ġfi xture
Ġp ots
Ġhom osex
Ġbudd h
Ġprogress ed
Ġtown s
Ġconvol uted
Ġtherm ometer
Ġsubstit ute
Ġr att
Ġve gg
Ġen velope
Ġupd ating
w est
Ġant agon
Ġab d
Ġpre de
Ġprotect s
Ġt iger
Ġsubscri ption
ic ien
ge e
it ate
ie ces
Ġt el
Ġignor ant
Ġpo ll
Ġre ed
Ġhu h
he art
Ġpu pp
Ġneat ly
Ġrele asing
Ġjuven ile
ment ioned
Ġton es
Ġunf inished
Ġdocum ented
Ġattach es
Ġcast ing
ok ay
Ġcred ible
Ġstuff ed
m it
Ġsk ull
Ġch alk
Ġfin n
Ġrus sell
Ġcollect ing
Ġinnov ative
Ġwarm th
Ġstab il
Ġstrong est
Ġn ancy
Ġon going
Ġro ger
Ġspo on
ook ie
Ġmid st
Ġdad dy
Ġvictor ian
Ġinj ured
Ġinvolve ment
k o
Ġtr aps
Ġprepar ation
Ġpro port
Ġingred ient
Ġl un
Ġsuck er
Ġto mm
ograph ic
Ġbuild ings
Ġdest ination
Ġch ess
ci a
Ġoper ations
Ġun ans
com ings
Ġset h
urch ased
Ġsn ag
Ġtem porary
Ġshif ts
Ġa pt
oc ative
Ġrest ore
Ġa we
sh ield
Ġlyr ical
Ġpost ing
Ġsp ong
Ġin appro
Ġshort comings
Ġhe ir
Ġcoll ins
Ġh ug
Ġcoll apse
Ġelectric ity
Ġrit ual
Ġs f
Ġtri mm
Ġob ama
Ġru ins
ip ing
Ġadvert is
Ġaud i
Ġtom ato
Ġappear ances
oy d
Ġhistor ic
Ġg a
Ġactiv ate
Ġsw ap
Ġf aded
Ġschol arly
Ġcompress ion
Ġsam ples
Ġrive ting
f ting
on ed
Ġteaching s
Ġass ert
Ġstri king
Ġed die
Ġson ic
Ġstretch ing
Ġfin ale
ps es
Ġdo c
um an
Ġy rs
Ġview ers
Ġfool ed
Ġe lla
Ġoffic ers
Ġw ool
Ġover se
Ġm orm
Ġinvest ing
Ġmeant ime
olog ically
Ġrac ism
ro ad
Ġhold ers
Ġdoct r
Ġtur key
Ġtraum a
Ġsymph ony
Ġident ified
Ġcontem pl
Ġsust ain
co pe
Ġri ley
Ġdress ed
Ġse ag
Ġarrang ement
Ġreserv oir
Ġchild ish
Ġpist ol
Ġadm its
s ome
Ġl ing
Ġho bb
Ġstereotyp ical
Ġpl iers
Ġal ask
d les
Ġblur ry
Ġjun ior
Ġb t
Ġmelod ies
ic ting
Ġdv r
Ġref ill
Ġfright ening
Ġbr y
Ġad ored
Ġd l
Ġsc attered
Ġrob ust
Ġformat ting
Ġexcept ionally
Ġswive l
Ġspir al
Ġpast e
Ġwhere ver
Ġm ats
Ġgen esis
Ġe a
Ġassass in
Ġunans wered
Ġinf inite
Ġv ig
c key
Ġper ry
ent h
Ġquick er
Ġcomm ands
Ġres ident
Ġviol in
Ġosc ar
Ġrepair s
Ġvictor ia
Ġacc used
Ġsle pt
Ġst ark
Ġend ure
Ġthe ore
Ġb aff
Ġw ives
l ow
Ġam ber
ade qu
Ġtight ening
Ġinnoc ence
br is
Ġelement ary
Ġgo dd
Ġapocaly ptic
Ġresid ue
Ġwhe at
Ġtun ing
Ġclim b
Ġp ent
Ġsp ice
Ġso il
Ġgr an
Ġprejud ice
Ġrein for
Ġp ier
Ġch loe
Ġc asing
Ġprofession als
Ġgre ed
Ġveter an
Ġin adequ
Ġbrilli antly
Ġpurs uit
d led
Ġencl osure
Ġprede cess
an ks
Ġwar ren
Ġart if
Ġphil ips
Ġhell o
Ġmix es
Ġle v
Ġguess ed
Ġaf ore
Ġrev olves
Ġline ar
Ġsl og
Ġun int
Ġm ute
Ġg ag
Ġinc lined
Ġinstruct or
Ġaffect s
Ġv on
Ġdom estic
Ġacknow ledge
Ġaltern atives
Ġsa x
Ġuninter esting
Ġencour aging
Ġsh apes
Ġaffect ion
Ġha lo
Ġbackground s
Ġh atch
Ġtast ed
Ġout line
Ġdemonstr ates
Ġunder t
Ġmix er
Ġhard cover
Ġkick ed
Ġm es
k ien
Ġinv al
Ġopp on
Ġse als
Ġan ita
Ġn iece
Ġdiag rams
Ġdile mm
no ld
Ġsimilar ities
r ome
Ġn ations
resp ons
Ġexclus ively
Ġnavig ation
Ġli am
Ġlength s
Ġsign ed
Ġsun ny
Ġth ief
Ġsuper hero
Ġsign ature
Ġall e
id ays
Ġpiv ot
Ġst u
Ġf ierce
p urchased
Ġclim bing
Ġhaz ard
Ġscholars hip
Ġvib ration
Ġdistort ed
m el
Ġversat ile
Ġanc est
r up
il i
Ġcr ad
Ġtem po
Ġch ains
Ġpe ll
Ġpop corn
ograph ies
ret t
ed ay
Ġso les
Ġairpl ane
Ġmetaph or
b ast
Ġsex uality
Ġlid s
re nd
Ġbr on
Ġvi be
Ġabrupt ly
Ġhero ines
Ġbill s
Ġdissap ointed
Ġgl uten
Ġend orse
Ġhur ting
Ġthreat ening
Ġk a
Ġgr aham
Ġalong side
Ġhy br
Ġcomple t
Ġmulti player
Ġdes cend
Ġshe p
Ġtol kien
Ġnotice ably
Ġsup reme
er ved
Ġexp ed
Ġb arr
Ġcreat or
un te
Ġimmig rant
Ġcl an
h em
Ġext ender
o qu
Ġwar mer
Ġde bris
Ġv oid
Ġeconom ics
Ġdef ine
Ġempath y
Ġparent ing
Ġex otic
Ġdig it
Ġph ant
Ġdri ft
Ġout look
Ġro omm
Ġloc ally
Ġimpress ions
Ġassum es
Ġillustr ate
Ġc ube
ing ton
Ġmotiv ated
Ġc ind
Ġdoll s
Ġman ga
Ġg ord
Ġwind shield
Ġge ars
ent ric
us er
Ġb art
Ġsom eday
Ġest im
Ġwe ave
be y
Ġclear er
Ġprogress ion
Ġrelig ions
Ġconver ter
Ġfy i
Ġbur nt
Ġv iolet
ah a
Ġunre l
Ġsens ors
Ġrevel ations
ic ate
Ġbe lls
Ġr ma
Ġjud ging
Ġi vy
Ġb icy
Ġthro at
Ġret ain
ou b
Ġp ine
Ġsl am
Ġco ated
Ġmin istry
Ġm ish
Ġam bit
Ġred undant
Ġfold s
n n
Ġcr ooked
Ġcat alog
Ġsurviv or
Ġcollect ed
Ġdev otion
it o
Ġco pe
Ġbarb ara
Ġjoint s
Ġg um
m ith
Ġindo ors
Ġsl ips
Ġcer amic
Ġfilm m
Ġre bell
Ġk ong
Ġfor ty
Ġver d
Ġport rays
Ġthread ed
Ġpse ud
Ġencour aged
Ġbelie ver
Ġvol unte
Ġg or
Ġsh ining
Ġrain bow
Ġre ck
lim ited
Ġdefect s
Ġpour ing
Ġaust in
Ġmaneu ver
Ġh ike
Ġs ass
Ġcontrovers ial
Ġsens es
mark et
Ġn ate
Ġdys on
Ġdr one
Ġout fit
ash es
Ġcr am
Ġwar ped
Ġcass ie
Ġfilm ed
Ġway ne
Ġevery time
Ġskill ed
Ġenter pr
Ġbrows ing
Ġste er
Ġsw oon
Ġsuff ice
Ġbooks h
Ġcompet itive
Ġtomm y
Ġgask et
Ġst im
Ġtrad itions
Ġware house
Ġn az
Ġgrav ity
Ġout lets
Ġwr aps
Ġclos es
Ġindepend ence
Ġgam er
Ġframe work
Ġmal function
Ġsciss ors
Ġse min
Ġcan ad
Ġcl ou
Ġsl aves
Ġsand als
Ġcrit ique
Ġreflect ive
Ġpropag anda
Ġmel ted
Ġhusband s
Ġinvestig ating
Ġl ugg
v c
Ġnat alie
Ġboun ce
Ġexp ose
Ġjul ian
Ġrender ed
Ġrec order
Ġis a
Ġfreez er
Ġhol idays
Ġsh od
Ġdemand ing
Ġprinc iple
Ġhing es
Ġshe ath
ent ious
Ġtan ks
Ġsung lasses
Ġdestro ying
Ġadequ ately
Ġpsych ic
od ox
Ġt rop
Ġpo ke
Ġcollect ions
Ġaff airs
Ġneckl ace
Ġmo nday
Ġbob by
Ġpos ter
Ġinflu ences
Ġanim ated
Ġjudg ement
Ġj ig
Ġscot land
Ġbr az
Ġoff s
en ter
ch ild
Ġun limited
Ġaa a
Ġbes ide
Ġafore mentioned
Ġme h
Ġint el
Ġa very
Ġde x
Ġy ield
Ġab st
Ġthank ful
Ġcompos er
Ġsc am
Ġorigin als
Ġpunct uation
and ra
ev ity
Ġpro cl
Ġlong evity
Ġanswer ing
Ġded uct
Ġforb idden
Ġpre face
Ġincom p
Ġprol ogue
Ġcave at
Ġspir its
Ġwhis per
Ġrock et
Ġmake up
Ġmexic an
m l
Ġd aw
en ix
Ġast ound
Ġnot able
Ġdefin ately
Ġdistract ed
Ġpeel ing
Ġde cept
Ġsm ack
Ġresc ued
Ġrub y
Ġoil s
Ġflex ibility
u k
Ġcor ruption
Ġbreak down
Ġambit ious
ut ch
c al
Ġguarant eed
as ters
Ġad ul
Ġintroduct ory
g age
Ġrel ates
Ġlugg age
Ġold s
Ġtravel ed
Ġcord less
Ġfor um
Ġobs ess
Ġvict ory
Ġpre ced
Ġstr angers
Ġl ac
Ġtrans parent
m ill
Ġsore ly
Ġdou gl
Ġw ides
Ġmarket ed
Ġpart ial
Ġcont est
Ġmelod ic
Ġexam ination
Ġun a
Ġsy l
Ġt iss
Ġc av
Ġthri ll
f ront
Ġapp la
Ġt ant
Ġprom ote
iz on
Ġdis abled
Ġrem em
Ġgl are
Ġexp osition
ash a
Ġin qu
Ġbl essed
Ġdiv ision
Ġl aces
Ġt int
Ġev a
Ġinse c
Ġpolit ically
Ġd uct
Ġrecommend s
Ġa k
att ed
Ġsmell ed
Ġmyth s
Ġfootnot es
Ġappro pri
Ġpin ch
Ġw aking
Ġsurv iving
Ġtr unk
Ġcrash ed
Ġin ject
Ġdel ux
Ġle o
Ġrang ing
Ġadvent ur
Ġmagaz ines
Ġb s
Ġre ign
Ġisol ation
Ġval ent
Ġast ron
Ġrel atives
Ġte aring
Ġiron ically
Ġb aked
Ġp end
Ġtrain er
Ġconvers ion
Ġlege nds
Ġsatisfact ory
Ġwar fare
ell a
Ġappla ud
Ġpo se
Ġshif ting
i as
Ġnot or
Ġw akes
Ġlan tern
Ġd all
Ġsex ually
Ġold est
Ġfix es
Ġsc or
Ġev olved
ky o
Ġboth ers
h ot
Ġk yle
ay ing
w alk
Ġret rie
m ath
Ġnar c
Ġste wart
Ġs oo
Ġman us
Ġtri o
Ġle nd
Ġdisappe ars
Ġexp ired
Ġartif act
Ġamb ient
Ġf ri
Ġcl u
Ġassign ment
Ġrem ake
Ġjust in
t t
ast ically
Ġair craft
h an
Ġeas iest
Ġear l
Ġlind a
Ġsc ores
l ar
Ġatt itudes
Ġlike wise
Ġjul iet
Ġunst able
over all
Ġtires ome
Ġadd icted
Ġcr unch
m ers
Ġp oo
Ġbel kin
Ġsh uff
Ġn orton
Ġor le
Ġfr aud
Ġr ails
Ġautobi ography
Ġcompos ition
Ġgodd ess
Ġnur sing
Ġvolunt arily
Ġri bb
Ġtw ent
Ġa u
Ġem per
Ġre bel
c ar
Ġdis ks
Ġdesp air
Ġdam aging
Ġto re
Ġpione er
Ġdrag ging
Ġsepar ation
Ġmanus cript
Ġlift ed
Ġfr y
Ġpract icing
Ġinappro priate
Ġbe lla
Ġblack s
Ġsh out
Ġen ters
Ġmel issa
Ġpr ong
Ġbe e
Ġrevolution ary
Ġinter v
Ġcontinu ity
Ġshut ter
ys ter
Ġdelux e
Ġma f
Ġshut s
Ġlar ry
Ġver izon
Ġreport ing
Ġra id
Ġdress es
Ġtall er
Ġdist r
ma id
Ġembarrass ing
Ġblo om
Ġcol umn
Ġqu ot
Ġsav vy
Ġtr ite
Ġtemperature s
ch y
Ġdiscipl ine
read s
Ġcra ig
lif ting
ot ica
Ġrock y
Ġmarg aret
Ġign oring
Ġch unks
Ġp ap
Ġch op
it age
Ġey ed
Ġadminist ration
Ġfr iction
Ġterror ist
Ġinhab it
Ġno ir
ch a
Ġrene w
Ġdu o
1 2
Ġanch or
ri a
Ġcelebr ity
Ġel vis
Ġund oub
Ġalign ment
Ġtem ple
Ġvent ure
Ġmac ro
Ġproced ure
Ġsight s
p ro
Ġsalv ation
Ġbar ry
n ett
i ance
Ġhero ic
Ġl or
op ed
Ġrac ial
Ġhol oc
ig m
Ġste pped
Ġr oth
Ġcy l
Ġhard est
Ġwa ff
Ġfort unate
Ġcompar isons
Ġaccept s
Ġinter medi
Ġd ess
Ġcur ved
fo ot
Ġrac ist
Ġclick s
Ġrestr ict
Ġoutrage ous
Ġstumb led
Ġflo at
ke e
Ġri pping
Ġoverwhel med
Ġste aling
Ġenthusi asm
Ġk od
Ġtrav is
Ġpre st
Ġsub w
Ġinconven ient
Ġhistor ically
Ġphotos hop
Ġseg ment
Ġcour ses
Ġclu eless
Ġgood by
Ġgeor gia
Ġclint on
v ably
Ġsimpl er
Ġmonth ly
Ġk ent
ct or
Ġdep iction
Ġrel ies
Ġfriendship s
Ġed en
Ġcost co
Ġvary ing
Ġiss ued
Ġe ternal
Ġan ker
Ġholoc aust
Ġdistract ion
Ġsatell ite
Ġmon o
Ġz ach
Ġgentle man
Ġtri v
Ġnichol as
Ġorle ans
Ġbow ls
Ġcontrib ution
Ġawa iting
Ġtheat re
t ical
Ġgri m
Ġfle w
Ġpitch er
Ġw ik
Ġwr apping
Ġph o
Ġter rifying
Ġrespons es
Ġg m
ism s
ett a
Ġmaintain ing
Ġcr inge
li ance
Ġol ive
Ġd b
Ġcoupl ed
Ġgrand ma
Ġm im
Ġrel ating
Ġse bast
Ġb id
Ġemploy ee
Ġbr av
Ġg inger
Ġday light
Ġupgr ading
Ġrot ating
Ġsu e
Ġun ins
Ġkn it
Ġun aware
Ġenh anced
y ers
Ġfo il
Ġst ains
ll as
Ġv ote
Ġgu ards
Ġbib li
Ġesc aped
Ġriff s
Ġcontro llers
Ġignor ance
Ġpro pe
Ġe h
Ġcount s
Ġill um
Ġw right
Ġal igned
Ġuncle ar
Ġp ud
Ġhel ic
Ġmist ress
Ġstretch es
Ġas ia
Ġflash es
th ink
Ġv ic
Ġgriff in
Ġgrand son
Ġembarrass ed
Ġflu ke
Ġt ens
Ġe ag
Ġinter tw
Ġda isy
Ġh z
ul ator
Ġn ix
Ġgather ing
Ġfluff y
Ġiron ic
Ġencour ages
Ġdisc omfort
Ġpunish ment
en cing
Ġname ly
ain ted
b ird
Ġdisc ern
Ġfun n
Ġfun ky
Ġcomp art
Ġpet e
Ġmarvel ous
Ġstr and
Ġcross ing
Ġk ink
Ġfar ther
Ġa ce
Ġpast a
Ġchurch es
Ġrel ation
r ad
Ġn ud
Ġapp et
man n
Ġmold ed
Ġgrand parent
Ġeste em
Ġround s
Ġbrook s
Ġobserv ation
Ġj arring
Ġbi os
Ġtast y
r in
c op
Ġatt ic
ib ble
Ġtemper ed
Ġvan illa
Ġback light
Ġyoung est
Ġpl ag
Ġgoss ip
Ġangel es
Ġafter math
Ġso da
Ġwound ed
Ġcr ashing
Ġh ul
Ġcamer on
Ġe ats
g iving
Ġer otica
Ġcy cles
Ġprequ el
Ġassum ptions
Ġg p
Ġwarri ors
Ġcompart ments
Ġha v
Ġhor rend
Ġst ilted
Ġan ton
Ġconn or
Ġassess ment
Ġhybr id
Ġa aron
Ġun m
Ġcrush ed
Ġcompat ibility
Ġengine ers
Ġrel ent
Ġdemonstr ate
ian ces
Ġplot ting
Ġexpect s
Ġcol in
Ġorigin ality
Ġdispos able
st ation
Ġsw ed
et e
Ġher itage
Ġw olves
Ġmich elle
re view
Ġstan ley
Ġf oul
Ġcar n
Ġs ought
Ġs ans
Ġrec ru
Ġun pack
Ġgr ish
Ġtim eless
Ġdrag s
Ġsignific ance
Ġmud dy
Ġre telling
Ġout right
Ġn int
bur g
Ġadmir able
on est
Ġcateg ories
Ġhelic op
Ġde ploy
Ġhill s
Ġengross ing
Ġex it
Ġexam ine
Ġdu plic
Ġsubtit les
Ġs ie
c led
Ġincorrect ly
Ġcomp osed
Ġtag s
Ġle vi
Ġint ros
Ġar ray
Ġhe ars
Ġdif f
Ġbum mer
ett es
Ġpsych o
Ġsnug ly
Ġpolic ies
am ous
Ġthom pson
Ġesc apes
b uck
an or
Ġmu dd
Ġde w
Ġl aughter
oph ile
or ig
Ġbeh old
Ġsav ings
Ġwarn ings
Ġdivor ced
Ġinconven ience
ig ma
Ġwrench ing
Ġpean ut
Ġcell s
Ġgoodby e
Ġrent al
Ġba it
Ġrec ieved
Ġam ps
ra w
Ġmanif est
Ġbo iling
Ġw ade
Ġfle et
gg les
iv o
Ġj ava
ul ed
Ġlong est
Ġmad den
Ġeng agement
Ġinex plic
Ġwo ke
Ġtransfer red
i ro
Ġapocaly pse
Ġcr ate
Ġwh iny
Ġcou p
Ġen able
Ġpatter son
Ġdougl as
Ġcr ude
Ġseason ed
h olic
Ġjo an
Ġmal es
Ġi os
Ġfun k
Ġharr ison
Ġundoub ted
oo fer
Ġweak er
Ġhom eless
Ġho ll
Ġre y
Ġn ause
ne ys
Ġpaint ings
Ġglad ly
Ġskim med
Ġste ering
Ġso aked
Ġselect ions
are s
Ġthe ological
Ġfa x
Ġland ing
Ġt aped
Ġash ley
Ġdat ab
r ist
Ġbe et
Ġs q
Ġwal ter
Ġhor rors
Ġman aging
Ġcomp r
Ġfl ipped
Ġsympt oms
Ġcitiz en
Ġpass ive
Ġrepe ats
Ġunins p
ad ays
Ġkn obs
Ġfetch ed
f elt
Ġdisgust ed
Ġcost umes
Ġar med
Ġinevit ably
Ġbeh ave
Ġm int
Ġa z
Ġdraw ers
Ġdevast ating
Ġine ff
Ġprofess ionally
1 00
Ġc reek
Ġpri mer
Ġm ates
Ġhard ship
Ġpres cri
Ġoverse as
Ġschol ar
Ġcr iter
Ġphant om
Ġtri mmer
Ġleon ard
.. .
Ġsc uff
Ġfo ll
Ġsqu ad
Ġshod dy
Ġecc entric
Ġdan ie
Ġdump ed
Ġchar ism
Ġele ph
Ġd ots
Ġdiscontin ued
Ġtr oops
Ġvis ions
Ġk le
Ġgrand d
Ġpolit icians
Ġconclud e
Ġtriv ial
Ġlegit imate
Ġrefund ed
Ġclich es
Ġcinem a
Ġris ks
Ġnow adays
Ġmar io
ne ll
if fer
Ġstory te
Ġsynd rome
Ġparad ise
Ġp p
Ġnint endo
Ġquant um
Ġprom otion
Ġcanad ian
Ġintermedi ate
Ġman h
Ġpor ch
Ġenlight ening
b urn
Ġcomprom ise
Ġmor ality
Ġalph ab
Ġy ards
Ġsn ipp
Ġg ur
Ġmus h
Ġsal ad
Ġdysfunction al
Ġcompens ation
Ġp ays
Ġs enn
Ġmind set
Ġprocess ed
Ġw aves
Ġgr ues
Ġfreez es
Ġg ill
Ġcon gress
al f
Ġm ph
Ġproof read
Ġchron ic
Ġelabor ate
Ġalle ged
b ian
Ġsp ain
Ġassum ption
Ġli ps
Ġman kind
red ict
Ġdesign ers
Ġmess ing
Ġcert ified
ed er
Ġres idents
Ġdec line
Ġgl am
Ġrefriger ator
Ġsusp ension
Ġfun eral
Ġdram atically
Ġflow ed
Ġstar ring
Ġind ie
Ġsac red
Ġtang led
Ġt u
Ġguard ian
Ġse ld
Ġadapt ation
bs on
Ġver ify
Ġpar am
Ġhe ats
Ġwash ers
et ers
Ġafghan istan
are st
Ġhard wood
Ġun im
Ġdevelop ers
Ġguitar ist
Ġcaptiv ated
o ll
an tha
Ġpsych iat
Ġundoubted ly
Ġjung le
Ġsn ake
Ġge ek
Ġaccompan ied
Ġo ak
Ġdown gr
Ġra ises
Ġtun nel
Ġweak est
Ġcr us
Ġaud iences
Ġad s
Ġlo re
Ġlam ps
Ġmarsh all
Ġcrad le
Ġpir ate
Ġcontin uation
el and
i ver
Ġvari ation
Ġgrat uit
Ġwh irl
Ġalco holic
and y
Ġlive ly
Ġorgan izations
Ġrock er
Ġst akes
Ġfr action
Ġmon ot
Ġper ception
Ġsubw oofer
Ġretail er
l ance
Ġme gan
Ġsuc ceeds
Ġunp redict
Ġred uction
al o
Ġv enge
per t
Ġwh ining
Ġfore most
Ġmad ness
Ġminor ity
Ġperson a
w ire
Ġhistor ians
Ġro gue
Ġmar ia
i ator
it ative
Ġshe ep
quis ite
Ġid ol
Ġdispens er
Ġgrish am
z o
Ġcig aret
Ġhope less
Ġrem otes
Ġlin ers
Ġpriv acy
Ġheart felt
Ġcarol ine
Ġcl utter
Ġow en
Ġpos es
st ruct
Ġglo be
Ġaccompan ying
Ġsebast ian
Ġtransl ations
Ġdeter ior
Ġm ak
b oo
Ġign ores
Ġcr az
Ġmod ify
Ġtre as
Ġbelie vers
Ġabst ract
Ġsix th
Ġc ere
Ġr anger
ab y
Ġd ere
ir a
Ġkore an
Ġexper iments
u ity
Ġcam c
Ġgrues ome
Ġh ed
land s
Ġger mans
Ġnic ole
ard ed
Ġsat a
Ġgoth ic
Ġconven iently
c akes
Ġro ds
Ġpan ic
Ġy am
Ġind ians
Ġun se
Ġprogram med
Ġde ception
Ġoun ce
ens ible
Ġbet a
Ġsy d
Ġkick ing
Ġhist ories
Ġsto le
Ġremark ably
Ġen abled
Ġrep rint
Ġjer emy
Ġw iped
Ġbl ower
Ġclear ance
ri ous
Ġcomm ander
Ġtele phone
Ġcapt uring
Ġarchitect ure
Ġdraw backs
Ġch in
Ġbasket ball
Ġme ga
Ġst ale
Ġcir cus
Ġsequ els
Ġhe x
Ġsincere ly
Ġram bling
s en
Ġt rent
Ġglim pses
f its
Ġillustr ation
Ġbusiness es
Ġsp ins
igh ters
Ġcirc ular
Ġbund le
ic ature
Ġbos ch
Ġpopular ity
Ġtax es
Ġalask a
Ġneg ot
Ġeat en
Ġvib r
Ġbo g
Ġtast ing
Ġatl ant
Ġb ake
Ġsav age
Ġmus ically
Ġfac ility
Ġmod ified
he ld
Ġfau x
Ġjen ny
Ġemper or
iv able
Ġdown ward
Ġdown fall
in ction
Ġbound aries
g led
Ġcontrib ute
ress ion
Ġac er
Ġassemb ling
Ġf uss
Ġann ivers
Ġspirit uality
Ġinadequ ate
Ġho ckey
app e
Ġg t
Ġleg o
l ie
Ġinsult ing
Ġdomin ant
Ġham mo
Ġtherap ist
Ġar ist
Ġcance l
Ġpret entious
Ġpl od
Ġg room
Ġsm ar
Ġfollow ers
ov o
Ġsolid ly
Ġamb ig
Ġeval uation
Ġvast ly
Ġir an
j ack
om p
Ġten nis
Ġcal c
Ġb ure
Ġb orders
Ġre agan
Ġbo gged
Ġsam pl
al ine
Ġsho ots
Ġcopy right
Ġcond em
Ġli gh
Ġdefe ats
Ġgord on
Ġretire ment
Ġintention ally
Ġy ep
Ġg est
Ġdel ve
Ġinconsist encies
Ġpreach y
Ġtransl ate
Ġsp ouse
Ġstruct ured
Ġm ant
Ġele ction
Ġha mm
le e
Ġacc ustom
Ġhar bor
Ġtact ical
Ġnarc iss
Ġacc um
Ġbr ains
Ġcounter p
b ury
ce ll
Ġr ider
Ġmaf ia
Ġant ics
Ġdetach ed
Ġd angers
u ge
h en
b rew
Ġsin ister
Ġmark er
Ġlif es
Ġrob inson
Ġinvestig ator
Ġim ho
Ġf use
Ġkidn apping
Ġwe ber
Ġmin ister
Ġne uro
Ġcale b
om er
Ġbu ggy
av in
Ġindic ating
Ġseld om
Ġappropri ately
Ġswe pt
Ġl ur
Ġorient ation
ro l
u rig
Ġpr y
Ġsc ra
Ġcompress or
Ġbuy s
it ious
Ġped als
Ġtre ble
Ġunder water
Ġm age
Ġbur den
Ġnot icing
our s
Ġtem por
s a
ipp er
Ġsam antha
Ġseg ments
Ġbehav iors
Ġun he
Ġjer sey
Ġwal t
Ġent rep
Ġquir ks
Ġbed s
i ant
Ġup lifting
Ġexecut ive
Ġhe m
Ġre wr
Ġcar icature
Ġrestaur ants
Ġcl amps
Ġsin s
Ġbi ographies
Ġpix el
Ġgood reads
u pp
Ġb ish
Ġn ag
Ġback yard
Ġmitch ell
Ġele ven
Ġcop ied
Ġdest ined
Ġal f
Ġremember ing
Ġposition ed
ic able
Ġpass enger
Ġbrilli ance
Ġsuspect ed
w ill
Ġpark ing
Ġmorm on
Ġpro pri
Ġt ink
Ġun read
Ġdrum mer
str ong
Ġke urig
Ġtechn ician
Ġcolor ado
ed e
Ġproper ties
Ġscand al
Ġl ite
Ġintim id
Ġstar ters
Ġquiet er
Ġfit z
onym ous
Ġv es
Ġh ats
Ġg arn
Ġnot ably
el a
Ġj ed
Ġmon key
Ġannivers ary
Ġforget table
Ġcub es
velop ed
Ġpotato es
Ġpet ty
Ġmark ets
Ġcontrib uted
Ġtrust ing
is co
Ġball ads
g ood
Ġw ary
Ġexce l
Ġim pe
Ġver bal
Ġd na
ann ah
ri m
atch ed
Ġdivers ity
Ġseag ate
Ġcarol ina
Ġaltern ating
Ġinterpret ations
Ġst ake
Ġpi per
Ġgri e
Ġd ip
g ate
Ġen forcement
co ck
Ġcons cience
Ġsubject ive
Ġincom pet
Ġcy ber
Ġunexpected ly
Ġmeet ings
Ġmyst ical
Ġnightmare s
Ġbox ed
Ġab und
Ġwilder ness
Ġsucceed ed
Ġch unk
Ġall ey
Ġbe ads
Ġse attle
Ġab ound
Ġall ies
Ġhorrend ous
Ġpol ite
Ġtreat ing
Ġcrimin als
Ġknowledge able
Ġg op
Ġsp le
Ġinv ented
Ġgrandparent s
al a
Ġsat ire
Ġcompet e
Ġhe in
Ġjam med
Ġn ood
Ġhe nd
Ġmaster ful
Ġsenn he
Ġzo e
Ġh ipp
Ġco herent
Ġharm on
Ġwith stand
Ġentrep rene
Ġde lt
Ġcamp bell
Ġwrest ling
Ġbooksh elf
Ġexch anged
atisf ying
Ġwild ly
icien cy
Ġbottom s
Ġch ill
Ġsn ark
Ġconf orm
Ġside ways
Ġrepresent ation
ab s
Ġman s
Ġran ks
Ġreun ion
Ġclick ed
Ġstor ing
Ġenterpr ise
az ing
Ġtv s
Ġm omm
Ġdetail ing
Ġint ake
uls ive
Ġbl iss
Ġimpl ies
Ġapp les
Ġsc ul
Ġcolumb ia
Ġphil ip
Ġdepend ent
Ġmoment um
Ġno v
Ġing en
Ġliber ty
Ġpr ic
Ġmeaning less
Ġinterf ere
Ġappe aring
Ġeditor ial
Ġhun ters
Ġimpro ving
p ieces
Ġe co
Ġstap les
Ġh dd
Ġdistur bed
Ġner ves
Ġfair ness
Ġcon ference
Ġorth odox
Ġenlight en
Ġblock ing
Ġthreat ened
Ġber lin
Ġke ith
et own
Ġaccustom ed
Ġpro ceeds
Ġab ort
Ġbom bs
lus ter
order ed
Ġalter ed
Ġpod cast
Ġsu z
ang es
Ġsuff iciently
Ġk ara
Ġwerew olves
Ġret ro
Ġauthentic ity
f ol
Ġl ith
oint ment
Ġme and
Ġbal d
Ġvine gar
Ġdestruct ive
Ġsy rup
i kes
Ġadm ired
Ġtur mo
Ġd ong
Ġsn ack
Ġfem ales
Ġcook s
Ġsecret ly
Ġhe ather
Ġjeff erson
Ġspray ed
Ġathlet ic
Ġfem inist
Ġgr a
c ake
Ġtr ays
Ġsim s
Ġm g
Ġpho enix
Ġh yster
Ġcinem at
Ġv iz
Ġinf amous
Ġdist ress
Ġtoler ate
Ġblink ing
Ġgreat ness
Ġdick ens
Ġinteresting ly
Ġbicy cle
ol ine
Ġv icious
in ce
el ity
Ġlack luster
Ġappend ix
Ġch illing
Ġcolle agues
Ġsh ri
Ġnet works
Ġlean ing
Ġdepart ure
Ġstruct ures
he im
Ġfr uits
Ġnecess ity
Ġseam lessly
Ġav a
Ġpro st
Ġun l
Ġrelax ing
en cer
Ġpick up
Ġment or
Ġsil k
Ġcommun ist
Ġchar ity
Ġmus cles
Ġencl osed
Ġscul pt
Ġnot ing
Ġcare ers
Ġv ign
Ġn ash
Ġk ane
Ġworry ing
ers ed
Ġactiv ated
Ġprocl aim
Ġam ple
Ġdall as
Ġmod ule
Ġass ure
Ġbe zel
Ġtun ed
Ġcur t
Ġhd tv
Ġpatch es
Ġmechan ic
Ġland ed
Ġcomple ment
Ġvegg ies
Ġunbe ar
Ġbran ch
Ġmoder ately
Ġtur bo
an ed
Ġpain s
Ġassass ination
Ġdis char
Ġam elia
Ġfirst ly
Ġbr ood
Ġb our
Ġmight y
Ġup beat
Ġreg ency
Ġsl id
Ġbure au
Ġenviron ments
Ġsher lock
Ġwar ner
Ġscript ures
Ġacqu ired
Ġscreen play
Ġcy cling
Ġg ree
h ard
Ġsand isk
br ush
Ġoun ces
Ġtem ps
Ġblat ant
Ġir ony
Ġstoryte ller
Ġjack s
Ġruth less
Ġtor que
Ġrot ation
m ons
Ġar k
ple x
Ġsh im
Ġeth ics
Ġbl unt
Ġmemoir s
Ġrec re
Ġfut ur
Ġmeasure ment
ous es
Ġrefer enced
d i
Ġprior ity
Ġdim mer
Ġstretch y
Ġapp liance
Ġsilic on
it arian
Ġmut ual
Ġd al
Ġfor k
Ġheartbre ak
Ġsw ift
Ġaccident al
Ġoff ended
Ġquant ity
Ġver ified
Ġkir k
Ġmetall ic
Ġaccord ance
ul ates
re ls
Ġcar rie
Ġturmo il
Ġmat urity
Ġrebu ild
Ġhom etown
Ġmir rors
Ġengine ered
Ġzipp ered
Ġbu lly
Ġaw ards
Ġjack ie
com es
Ġappro ved
Ġgener ated
Ġbi ological
Ġimmers ed
Ġback ward
Ġbrush ed
ag g
Ġr av
Ġbene ficial
Ġaustr alian
Ġreal ization
Ġgratuit ous
Ġrub bed
Ġcourt esy
m aster
Ġcomb ines
Ġcoll abor
Ġreward ing
Ġw ander
gg ings
Ġimmort al
Ġscott ish
Ġh ud
Ġnaz is
Ġref resh
Ġdeliver ing
Ġa ids
Ġinc idents
Ġgar lic
Ġdere k
Ġb ot
Ġto me
Ġdis reg
Ġste pping
Ġi l
Ġdisappear ance
att an
Ġunbelie vably
Ġpseud o
Ġexper imental
Ġremark s
Ġutil ize
Ġarg u
Ġcons iders
Ġcam ps
Ġthreat s
Ġe acute
gg le
Ġchamp ion
Ġbr at
Ġbattle field
Ġground ed
ann on
Ġvin cent
Ġrad ios
Ġemb ark
Ġaw ake
Ġexpert ise
Ġdeliber ately
Ġgrain y
Ġreal ities
ire ct
Ġapproach ed
Ġp oured
Ġhaw k
t aking
th ood
Ġtrail s
Ġsu ite
Ġdece ased
Ġswe ater
Ġquiet ly
Ġowners hip
Ġappro aching
Ġconsum ption
Ġre iss
amp oo
Ġve in
Ġpray ers
Ġru ining
Ġcompet ing
Ġconcent rate
Ġpartic les
Ġremem bers
Ġcoun sel
Ġbr u
Ġche at
Ġd itch
Ġsh ampoo
Ġlux ury
d ays
Ġlong ing
Ġcan ned
Ġwand ering
Ġbr as
Ġr f
Ġfit bit
Ġreli ably
Ġcommon ly
Ġtwist ing
Ġsol os
Ġles bian
sh ell
Ġampl ifier
im eter
Ġj og
Ġoverd one
Ġunex pl
Ġglitch es
Ġsl aughter
Ġso d
Ġaccord ingly
Ġopen ings
k ill
Ġpir ates
Ġqu oted
Ġinspect or
Ġbless ing
Ġreject ed
il er
f rom
Ġinstruct ed
on ts
ett i
Ġdec ently
r ics
ens on
Ġbraz il
et ed
ont z
Ġdilemm a
Ġinv ited
ig en
Ġend ured
Ġfold ers
Ġm ama
ain ts
Ġtrans cend
Ġmad ison
Ġcon gr
Ġr v
Ġpul se
Ġcar ri
c ers
8 0
g ot
Ġgut s
Ġjust ified
Ġje ep
Ġsynth etic
Ġhead band
Ġup stairs
Ġtack le
Ġgoof y
Ġre acher
Ġmiss pe
Ġemp ower
Ġk urt
g reg
Ġgrab s
Ġlist ens
Ġn ano
Ġear rings
Ġmur phy
Ġres ent
Ġsong writing
Ġcommun ities
Ġextensive ly
Ġt ivo
Ġse per
Ġinse ct
Ġswall ow
Ġscr ap
Ġlo vable
Ġj ude
Ġpro ps
Ġju icer
war ming
Ġpo pe
Ġrev ised
Ġst ool
Ġbetray ed
Ġthe ft
Ġdim in
th ought
Ġj os
Ġagre ement
Ġglor ious
Ġmon olog
Ġnovel ty
Ġad o
Ġoper ated
Ġhammo ck
Ġunder wear
Ġsw iss
Ġspe lls
Ġclub s
ro se
3 0
Ġkick stand
Ġbibli ography
ol i
Ġd ime
Ġble nds
w an
Ġw ag
Ġsuggest ing
f s
Ġbl oss
Ġrepl ay
Ġemploy ed
Ġwig gle
Ġmanip ulate
Ġrem edy
Ġribb on
Ġunw illing
Ġjour n
Ġfund ament
Ġo me
Ġimp at
Ġdut ch
Ġanth rop
l ink
Ġplan es
Ġben nett
Ġaudi ophile
Ġremain der
Ġd ante
Ġso cc
r ina
Ġcoun cil
Ġso ak
Ġex quisite
ak i
Ġlen ovo
Ġatt ending
Ġunpredict able
Ġper ipher
Ġche ek
Ġps i
Ġsur pass
st orm
Ġroomm ate
Ġmer its
Ġvers a
Ġspong e
a ii
Ġsocc er
ar ium
Ġs izz
Ġaff ir
Ġstand point
g ic
Ġu v
Ġkore a
Ġre ass
Ġsturd ier
Ġkind ness
el ing
cept ions
Ġrest s
Ġevangel ical
Ġentire ty
ig ible
Ġsharp en
Ġdust y
th rough
Ġsa ver
Ġsl ack
Ġgrandd aughter
Ġmar tha
Ġperse ver
k ers
ens es
Ġsmo other
Ġtub ing
Ġro ses
Ġwe aving
lud e
Ġb acon
Ġg ates
Ġc c
Ġcomm end
Ġauthor ized
Ġw ack
Ġmet iculous
cre en
Ġmir ac
Ġeval uate
Ġapp l
Ġli bert
Ġuns atisfying
Ġfulf illed
Ġterror ists
Ġsur vey
Ġdiss atisfied
Ġund en
Ġregister ed
Ġislam ic
Ġshoot er
Ġsp it
Ġtri be
Ġstalk er
Ġnud ity
Ġvisual s
Ġright e
Ġwell s
Ġgr it
Ġvoy age
Ġmon op
Ġbe g
Ġli v
Ġimper ial
Ġdr ake
z es
Ġact ively
Ġd ing
Ġsupp lier
Ġmir acles
t om
Ġw ats
Ġde er
Ġcyn ical
Ġcl one
Ġsymbol s
itt ings
Ġmis ery
Ġle ggings
Ġblond e
Ġfund s
Ġhe brew
Ġsl ing
Ġpros pect
Ġhur ric
Ġany how
Ġev ans
Ġmicro s
Ġsc out
Ġcamc order
Ġmicro f
Ġcl ancy
Ġexpress ions
Ġscro lling
Ġliter al
Ġinher it
Ġwe nd
Ġsun sh
Ġwh ites
Ġret reat
Ġdetect ion
Ġlisten ers
Ġrepublic an
Ġsec ular
wor thy
Ġgloss ary
Ġhead light
Ġe q
Ġbillion aire
Ġinher ent
Ġkod ak
ans as
Ġreflect ed
Ġbam boo
Ġfe ist
Ġtur tle
Ġimpl ausible
Ġaddict ive
Ġn ina
Ġis o
Ġexclus ive
Ġdelt a
it an
Ġopt ional
Ġsass y
op ard
Ġsh ack
ol t
Ġba iley
Ġtouch screen
Ġcomple ting
Ġshep her
Ġcriticism s
Ġban ana
Ġd iving
Ġn v
ind a
Ġdis gr
Ġdistingu ish
Ġblock ed
Ġd war
Ġlaw rence
Ġpeace ful
Ġdong le
Ġpre aching
Ġbr ittle
Ġmag ically
Ġfavor able
Ġnovel ist
em ic
Ġsurre nder
Ġspot light
Ġce o
Ġatt ended
Ġjan et
u ating
Ġc ant
at ement
Ġinter fer
Ġpand ora
Ġimpl ications
Ġhaw aii
Ġconfig ure
Ġso y
Ġdemocr acy
we igh
Ġsky pe
Ġspray er
Ġev idently
Ġmer ry
Ġbas es
Ġman sion
Ġexcept ions
Ġe tern
h l
Ġke ll
Ġmir anda
4 0
Ġmar x
Ġgener ate
Ġhands et
e very
Ġj ell
om i
Ġacc ents
Ġble ak
Ġem bed
Ġmanh attan
Ġprev ented
Ġdsl r
Ġphenomen on
reg on
Ġbr ow
Ġdatab ase
Ġrec ur
Ġmay a
Ġhor rid
Ġrev ision
Ġl uther
ar th
Ġpr icing
Ġsuper vis
Ġrain y
Ġaston ishing
Ġen am
Ġremaster ed
qu in
Ġac ce
Ġt i
Ġa y
is p
Ġb ach
Ġfr act
Ġstitch es
Ġhumid ifier
Ġo regon
Ġred ucing
op y
Ġexplor er
Ġbrand on
Ġobl iv
Ġrely ing
on na
Ġseem ing
Ġoffer ings
Ġatro cious
Ġbleed ing
Ġh ank
Ġshow c
Ġincorpor ate
Ġded ication
Ġsk i
Ġan at
Ġheart warming
Ġtrad em
Ġincre ases
Ġbit ing
Ġrem ed
Ġgre edy
Ġsarc astic
Ġk il
Ġfemin ine
Ġfly nn
Ġb apt
Ġco ord
Ġnarr ated
f ull
Ġguid elines
Ġro de
Ġins ulation
Ġunnecess arily
Ġrespond ing
an ing
Ġam id
Ġd ow
Ġer ase
Ġdevelop er
Ġbull ying
Ġtel es
Ġm our
Ġne o
Ġtradem ark
Ġkn itting
Ġsa fer
Ġevol ve
Ġrad ar
Ġco ax
Ġsix teen
Ġadvertis ement
Ġformula ic
Ġcro ck
l ings
Ġbi ology
Ġunders ide
Ġout weigh
Ġfrank lin
Ġmathem atics
j an
Ġke nd
Ġp uff
Ġprincip al
Ġunder cover
Ġinst a
Ġmar c
Ġsu ll
Ġassoci ation
Ġsubpl ots
Ġverd ict
Ġpre y
Ġcaut ious
Ġdirect ors
Ġmood y
Ġparall els
Ġhealth ier
Ġgab e
h i
Ġwitness es
l ove
Ġbreath taking
Ġs ib
Ġcond es
Ġb d
Ġdon ald
Ġheight s
Ġdis able
Ġunder whel
Ġadvert ise
c are
Ġcr ay
Ġd ian
Ġblend ing
Ġconcent ration
Ġze al
Ġdistinct ive
Ġbest se
Ġdev otional
Ġdepth s
Ġf ib
Ġclass y
Ġk itt
Ġfe ver
Ġrepl ied
Ġrequire ment
iped ia
Ġcole man
ay er
Ġjo ins
Ġtid bits
Ġsh ore
Ġk atherine
Ġinser ting
Ġde ft
Ġsm iling
Ġwork manship
umb led
Ġp up
Ġwh ine
Ġcr an
Ġly ric
Ġrighte ous
Ġdeck er
Ġsub ur
Ġd d
Ġm it
Ġha ul
Ġpal est
Ġmind less
Ġste in
Ġwik ipedia
Ġkiss ing
Ġarg ues
Ġcom for
Ġtarget ed
Ġalphab et
Ġneed les
Ġcompan ions
Ġwats on
b ul
Ġdistrib ution
Ġins ists
e cy
Ġdevelop ments
Ġprop os
Ġto mb
Ġc ater
li est
Ġinter ch
itz er
Ġbo ast
Ġgen etic
Ġreal istically
Ġm asc
Ġf ires
Ġprison er
Ġgr am
Ġtext ured
Ġdress ing
Ġdrive way
Ġden ied
Ġn es
Ġbroad way
Ġcontrib utions
Ġtherm al
Ġpercent age
Ġtheat rical
cur ities
Ġveget able
Ġg n
Ġsuit case
Ġsh aw
Ġro x
Ġrp g
Ġrec ip
Ġins ulated
6 0
Ġcul pr
Ġh ans
Ġen se
Ġup br
Ġcase y
Ġdar win
Ġacce ler
Ġb is
Ġfoot print
Ġmat rix
Ġv a
Ġc uff
Ġcoinc idence
c up
Ġcart oons
Ġconsum ed
Ġpoly ester
Ġattrib utes
Ġlay ered
Ġheart ache
Ġund one
Ġsennhe iser
Ġmo p
Ġcompare s
Ġsubpl ot
Ġdoctr ine
Ġad vers
Ġmirac ulous
Ġpredecess or
Ġdr ac
Ġli ed
Ġret ros
Ġdread ful
Ġt p
Ġorgan ize
Ġaddress ing
Ġneglect ed
Ġcor ny
Ġloss es
Ġrelax ed
Ġproph ecy
Ġcl o
Ġtr ains
Ġgr ac
Ġcook books
ot o
Ġun le
Ġcand les
Ġd ining
Ġprevent ing
Ġm l
Ġdex ter
Ġfilm ing
Ġspir ited
ys on
Ġcoll ars
z ie
Ġcompreh end
ab e
Ġmer ch
Ġknock ing
Ġfe ather
Ġwho lly
Ġcard io
Ġrend ition
Ġom n
es cent
n as
Ġpat io
Ġtransport ed
Ġmuslim s
t own
Ġwr ists
Ġmid s
Ġun att
Ġes que
Ġesc al
Ġal oud
Ġchar co
ib al
arch y
Ġd ome
Ġko ontz
Ġmarry ing
Ġsor row
Ġgroo ves
Ġs ally
Ġthem ed
Ġinsec ure
Ġal bert
Ġbr un
Ġbag gage
a ic
Ġchord s
Ġth ie
Ġgam ers
Ġeth ical
Ġf ist
Ġthr one
Ġthr ott
Ġclever ly
s ed
Ġsteam er
Ġh ides
Ġslipp ers
gu ard
Ġse ated
Ġped est
Ġh oses
Ġreput able
Ġsubtit le
Ġj ax
Ġn un
Ġann ual
Ġfast en
Ġsens ual
Ġco ven
un ting
Ġx x
Ġhighlight ed
ar ound
Ġtempor arily
Ġoptim istic
Ġcl er
Ġhel pless
h ave
Ġarrest ed
Ġun av
Ġinse curities
Ġmy ri
Ġdri lling
Ġegypt ian
Ġfire f
l ain
Ġnet working
Ġab ra
Ġel oqu
Ġd ug
Ġl ub
Ġdemonstr ated
Ġer in
Ġunrel ated
Ġy an
Ġhand held
Ġsh ane
ik a
Ġprot r
Ġslow ed
Ġj ams
Ġadv is
Ġrespect s
Ġfl op
ath on
Ġselect ing
Ġcann on
Ġcharco al
in stein
Ġknight s
ur g
ist ical
st ood
Ġgrab bing
Ġargu ably
Ġinter sp
Ġtraum atic
Ġexplos ive
Ġcinemat ography
Ġl ump
Ġbish op
i our
ro e
Ġjo el
Ġl az
Ġunt r
Ġr atch
Ġmart y
Ġn ook
Ġper ceived
Ġp itt
Ġsmar ter
Ġvague ly
Ġnostal gia
om ing
Ġbe gging
Ġinf uri
Ġmort al
Ġdy e
Ġtechn o
Ġsold er
Ġrecover ing
Ġc gi
Ġgimm ick
Ġke l
Ġe ject
Ġrid ge
Ġsp ook
Ġm t
Ġht c
Ġtrans p
Ġsurround ings
iz ers
Ġco co
Ġencour agement
Ġstup idity
Ġmisunder stand
Ġt ier
Ġsp ac
Ġell en
Ġdoom ed
Ġadventur ous
Ġsm e
Ġdef ender
Ġthir teen
v ance
Ġbe friend
Ġover power
Ġrest ing
Ġforg iving
Ġpl as
Ġcat ast
m ary
Ġgr ams
Ġhelicop ter
w ide
Ġcass ette
Ġwitness ed
Ġfantas ies
Ġun li
Ġhom em
Ġh ast
be fore
Ġperiod ically
Ġvivid ly
Ġdem ise
Ġapolog ize
Ġari z
ul ars
Ġcle ared
Ġconsequ ently
Ġgi bson
Ġrock ing
Ġbutter fly
Ġbrook lyn
Ġp aus
don ald
Ġtread mill
Ġl ug
Ġinval uable
Ġs ookie
Ġimpro b
Ġproced ures
Ġut f
Ġconver ted
Ġassoci ate
m ies
Ġstar ing
Ġcatast roph
Ġint uit
d is
Ġen cy
Ġchron ological
Ġtestim on
Ġunread able
Ġrob ots
Ġmathem atical
in ates
Ġcompress ed
Ġmont ana
Ġrel o
Ġj um
Ġk i
Ġchamp ions
Ġa kin
Ġm f
Ġupbr inging
Ġdis cri
Ġstink s
f ar
Ġt apping
Ġl ush
Ġachieve ment
Ġtermin ology
Ġmicrof iber
Ġariz ona
Ġm x
van ia
Ġmass es
Ġshif ters
it ating
uct ive
nam ent
Ġgl itter
Ġquar ters
Ġcar go
Ġsprink led
Ġco il
Ġrec om
Ġproceed ed
Ġsp arse
Ġfar mer
Ġho nda
Ġinc and
ron ics
Ġupgr ades
y on
Ġnap ole
ir able
Ġsurre al
Ġre per
Ġby pass
Ġfingerprint s
arn ation
Ġl ars
Ġrou ters
Ġcateg or
Ġ 2
b ir
Ġunli kable
ab oration
st ock
e le
Ġcous ins
Ġdiagn osed
Ġthere by
Ġpe ers
Ġabund ance
Ġency cl
Ġangel a
Ġar ise
Ġconfus e
Ġrecogn izes
m ination
Ġenthusi astic
Ġposs ession
Ġamateur ish
Ġreflect ions
Ġexpand ing
Ġinterview ed
Ġunfor get
Ġesc ap
Ġvacuum ing
Ġbum med
Ġsyd ney
Ġg ains
Ġfin ance
Ġpray ing
Ġveget arian
Ġaesth etic
ver ted
Ġportray ing
Ġde af
Ġsubm it
Ġad j
Ġdock ing
Ġexceed ed
Ġnin ja
Ġh ott
Ġcollect ors
Ġtransform ed
Ġfe ast
Ġcabin ets
Ġconce ived
Ġsp encer
Ġtutor ial
Ġcom ical
Ġintention al
Ġme llow
Ġorgan izer
Ġfro ze
Ġelim inated
Ġco d
Ġwobb ly
Ġgo ggles
Ġsad dle
Ġtarget s
Ġn i
Ġch ipped
Ġpl ight
Ġalar ms
Ġexpl od
Ġsple nd
Ġj ade
Ġadoles cent
Ġinj uries
Ġacqu aint
Ġmy stic
ort s
Ġp as
Ġrest ored
Ġrent ed
Ġj ag
Ġprov ider
Ġatmosp her
Ġpell ets
on ce
Ġt out
Ġg ide
Ġdig ress
Ġstap le
Ġm h
Ġbegin nings
Ġsnipp ets
Ġox ford
Ġjo ining
Ġsurf ing
Ġv ap
Ġmon k
Ġjealous y
Ġsp ool
Ġisland s
re c
zz ie
Ġwo bble
olog ists
Ġmain e
Ġd orm
Ġcl are
Ġz une
Ġell is
Ġdiscl osing
Ġi cons
Ġyam aha
Ġk enn
Ġty ing
Ġtrans itions
Ġear piece
Ġbe nds
Ġper m
Ġmyri ad
Ġunw anted
Ġcompet itors
Ġd m
as per
Ġcrafts manship
d og
h ire
Ġdetect ives
Ġsl ang
ic ism
Ġner ve
Ġrow ling
us ions
Ġpar a
Ġhar le
Ġgrand child
Ġfat ig
Ġform atted
Ġter rain
Ġgop ro
or ie
Ġro oted
ig o
ud ed
Ġadminist r
c p
im a
Ġde lus
Ġvenge ance
Ġreluct antly
Ġadopt ion
ath a
Ġcomb inations
Ġbe ver
Ġrhy me
Ġlud ic
Ġsk ips
Ġpress es
Ġrecy cled
Ġrubber y
Ġtack y
Ġmes mer
Ġsecret ary
m able
Ġunc omm
Ġnotor ious
Ġb achel
Ġobser ved
Ġner d
Ġthigh s
Ġmail ed
Ġho g
Ġare na
Ġcance lling
Ġpro ving
Ġsubsequ ently
Ġsharp ener
Ġclar ify
Ġclin ical
Ġmaintain ed
Ġdisasse mb
Ġdis res
Ġtrave lling
Ġnarr atives
Ġcompens ate
Ġgall ery
Ġmot ive
Ġcush ions
Ġlect ure
Ġarr ows
Ġapplic able
Ġar d
Ġj ars
el ic
Ġball et
Ġpurs uing
Ġprot ocol
b ag
Ġl av
Ġmor ris
Ġbump ed
Ġdis rupt
Ġexc uses
Ġhes itation
Ġreserv ations
h r
Ġv ga
Ġmetaph ors
Ġp umps
Ġcustom s
Ġsociet ies
Ġa ly
Ġqual ified
Ġplay ful
o ot
Ġoffic ially
Ġwork ings
Ġstitch ed
ess a
Ġbuzz ing
Ġpitch ed
Ġtestim ony
Ġabsor bing
Ġtechn ologies
Ġme nd
Ġpract ition
Ġinfl ated
Ġtoler ance
Ġcr ust
Ġshuff le
Ġpe cul
Ġcriter ia
Ġviz io
wor th
Ġdr ained
Ġtremend ously
Ġoff set
Ġisa ac
Ġjar gon
Ġfutur istic
Ġre illy
Ġbrut ally
Ġemb ro
Ġstrateg ic
Ġbe au
Ġanticip ating
Ġlyn n
Ġplan ets
Ġlif el
Ġmom s
Ġap ost
Ġest imate
Ġsunsh ine
Ġf f
it able
Ġche wing
Ġcal vin
Ġad her
Ġbed time
Ġden nis
Ġen chant
Ġfrequ encies
Ġpo nd
Ġanticip ate
Ġsleep s
Ġd aring
Ġbel ts
Ġexp osing
Ġre na
Ġquestion ed
Ġske w
Ġr al
Ġt ug
Ġdi pl
Ġto pper
Ġbrand ed
Ġpa ige
Ġthir ds
Ġbuff alo
e z
Ġn ugg
Ġdiag ram
Ġfest ival
Ġpump ing
Ġtor ch
Ġconflict ed
Ġwound s
Ġf ian
at ra
Ġsoph om
Ġd ia
Ġill usion
Ġshop s
om in
Ġbun ny
Ġspread s
Ġdun can
un ning
Ġmiser ably
h ar
Ġch and
Ġpar ody
Ġf usion
Ġextend s
Ġp arr
Ġenc om
Ġcompens ated
Ġh ating
Ġgam ble
w atch
Ġconstit ution
ton es
Ġhar p
Ġnav al
Ġcel est
Ġsne ak
Ġlet down
Ġst ained
cend ing
Ġeth nic
Ġconclud ed
Ġank les
Ġcompassion ate
Ġn am
Ġr attle
Ġsearch es
Ġenv ision
Ġimpl ied
Ġprefer ences
Ġnove llas
Ġhor rifying
Ġgw en
Ġroom y
Ġconf eder
Ġhyp oth
Ġtem plate
Ġpsych opath
Ġg aining
Ġwill ow
Ġtuck ed
b ound
Ġv ents
Ġconclud es
Ġha ven
Ġmon um
Ġreg rets
Ġtour ist
Ġcall er
Ġmonitor ing
Ġpres erve
Ġfl ed
ang ular
Ġgide on
Ġspl ash
Ġbo iled
l ists
Ġder iv
Ġbored om
Ġcalib ration
iv an
Ġtrack er
y e
pt on
Ġdu et
Ġj ared
Ġfl oyd
Ġt iles
Ġst all
Ġch an
Ġvend ors
Ġe u
Ġboun cing
Ġtem pl
Ġraz er
Ġtrans mission
b led
Ġs ang
Ġposs essed
Ġp ly
Ġben j
Ġbran ches
b ath
Ġdecept ive
Ġtempt ation
Ġchrist ie
Ġhot ter
no stic
Ġlu ci
Ġpositive ly
Ġd well
Ġcapital ism
Ġpublic ations
Ġlam b
Ġi ke
Ġchrist ine
Ġfl air
Ġsweep ing
Ġb ing
ke eper
Ġlad en
Ġpropri etary
f ish
Ġbr akes
Ġd ign
Ġdis par
Ġjen na
Ġcruel ty
m ic
Ġdr astically
s ight
Ġtr act
r us
Ġunbear able
Ġdan cer
ip h
Ġstr ay
Ġeas ter
Ġmile age
Ġevent ual
Ġrep ack
Ġflash back
Ġnick n
el ed
Ġs age
Ġsword s
Ġtreat ments
Ġwash es
Ġunderst atement
Ġencom pass
Ġsoph ia
Ġreinfor ced
Ġsm ash
un ken
Ġesc aping
Ġvari able
Ġunforget table
Ġdesper ation
Ġpost age
ik o
Ġvocal ist
Ġrubber ized
Ġsc anned
Ġpl ush
Ġalex a
Ġher bs
Ġadv ances
Ġemphas ize
Ġdo s
Ġoper ates
Ġdiv ide
Ġcall ie
te c
Ġdu h
Ġpe ek
Ġdou g
Ġscre ams
Ġprom oting
Ġembed ded
Ġwilling ness
Ġcut outs
Ġenthr alled
Ġspec ulation
Ġcri pp
Ġdetect ed
ich ton
Ġden ial
Ġtransform er
Ġth ier
Ġser vant
Ġcolon ial
Ġco hesive
Ġdetect or
ber y
Ġcyl inder
Ġper cus
Ġcost ly
Ġha ha
rep res
set t
Ġintermitt ent
Ġadvant ages
Ġpat ric
Ġmel an
Ġhard y
Ġl ows
Ġplan ner
Ġnorm an
Ġbr ist
Ġser vers
p ot
Ġcustom ize
Ġover load
Ġattack ing
word s
r r
Ġcon e
Ġdri vel
Ġhurric ane
ter y
Ġdisc ol
Ġfrank en
Ġshad y
Ġcorpor ation
Ġsharp ening
Ġmo z
ock ing
Ġman agers
Ġboard ing
Ġe vie
un ci
Ġform ing
Ġmaid en
Ġhook ing
Ġmarri ages
Ġcomfor ter
Ġwor dy
Ġtermin al
Ġbeth any
Ġgadget s
Ġmic key
Ġre cept
Ġr ins
Ġc fr
Ġmanip ulation
Ġdecor ative
Ġo st
Ġp ts
ien na
Ġgather ed
Ġtext books
Ġlower ed
Ġpo e
Ġrec com
Ġdre aming
Ġform ats
Ġdun ge
Ġg ory
Ġcapt ive
Ġabort ion
Ġident ifying
Ġcho ir
gl ass
Ġcurtain s
Ġconv ention
Ġtravel er
we et
int egr
Ġfl attering
Ġplay station
Ġfl ames
Ġh orm
Ġstud s
Ġbear ings
ad vert
Ġfind ings
Ġs ack
Ġencycl oped
ang ing
et ches
Ġener get
Ġrp m
Ġsc ales
og en
Ġg avin
Ġoh io
Ġshut ting
Ġado be
Ġadap ted
Ġblack berry
Ġtow ers
Ġtr action
Ġgener ator
ag in
Ġborder line
Ġfasc ination
Ġdom inated
Ġle ah
ere lla
Ġred es
Ġtend ed
Ġg in
Ġbo nds
Ġest r
Ġco ats
Ġinnov ation
Ġthrott le
Ġintegr ation
Ġbit es
Ġviewpoint s
Ġcelebr ate
Ġqu il
Ġor de
f iction
ct ic
ress ive
Ġbrook e
Ġy ay
Ġuninsp ired
Ġinf r
Ġg ust
Ġdefin itions
Ġreh ab
Ġafter ward
Ġsc ars
Ġretrie ve
Ġh ou
Ġdes cent
Ġpo ker
Ġinterrupt ed
m ail
Ġsupervis or
Ġprost it
t te
it ated
Ġele anor
Ġtouch pad
Ġp agan
Ġauthor ities
Ġpl umb
Ġarri ving
Ġremind ing
Ġthreat ens
Ġtr acy
Ġexagger ated
b ish
Ġcors air
Ġn aught
Ġrevis it
Ġc ement
ie ve
Ġnu ances
Ġj ab
Ġsl ows
Ġel bow
Ġimp rison
p age
or gan
Ġimpro ves
Ġsens ational
Ġeleph ant
Ġmaster ed
Ġly d
Ġsu pr
Ġp orter
Ġmark ings
Ġc ough
Ġfilter ed
Ġwides creen
Ġfl aps
o ch
Ġjer ky
Ġfulf illing
Ġs ill
Ġinstall ments
Ġblend ed
Ġsu ms
Ġfu rious
Ġcraw l
w o
Ġi on
Ġpy th
Ġrid den
Ġsho vel
Ġam end
Ġabra ham
Ġcollect ive
Ġtestimon ials
Ġfian c
Ġeag le
Ġcl ash
Ġmor als
Ġsoo o
Ġi b
Ġcl own
be an
Ġener g
Ġpark s
Ġheft y
Ġm ash
Ġk itten
Ġi dle
Ġd oo
atis fact
Ġfeist y
Ġwrink les
ap able
imp y
Ġcop ying
Ġsuspic ion
Ġast ro
Ġsail ing
Ġplas ma
Ġclar a
Ġcal iber
Ġen rich
el in
Ġunlock ed
Ġense mble
Ġde e
Ġpound ing
Ġpro be
Ġintim acy
Ġoblig ation
un ct
Ġsh ave
Ġc ape
Ġlos er
Ġprison ers
Ġre wards
Ġdisres pect
Ġfe ared
Ġdirect ing
Ġdev oured
Ġg s
Ġin just
eng u
ul um
Ġun res
Ġdefin ing
u ch
Ġt ac
Ġd ale
Ġatl antic
Ġt ai
Ġri v
Ġsl ider
Ġrang es
Ġpre fers
Ġobtain ed
c at
Ġrein force
Ġkn ot
Ġdrac ula
Ġpronoun ced
Ġf ert
Ġbind er
Ġm um
Ġcer em
Ġpecul iar
Ġun sett
Ġdan i
Ġcheck s
Ġwe ary
Ġvalent ine
Ġterror ism
Ġstamp ed
Ġuncomm on
Ġmel anie
Ġclog ged
Ġcandid ate
Ġsympath ize
Ġpartic le
Ġm d
Ġequ ipped
Ġcind erella
Ġhomem ade
Ġcour ts
Ġforget ting
Ġqu int
Ġprof anity
p ool
Ġcry st
Ġspe lled
Ġvert ically
Ġb out
Ġsk etches
Ġyog urt
Ġtin ny
Ġexplos ion
Ġinflu ential
Ġtr u
Ġintersp ersed
Ġsp at
Ġpe er
h art
Ġpret ending
Ġmel ting
est y
Ġopen ly
Ġcomed ic
Ġc ust
Ġoccup ied
Ġby e
Ġergon omic
Ġjed i
Ġvirt ue
Ġunpl ugging
Ġseam less
Ġde em
Ġber ry
Ġmis repres
Ġcamp us
Ġprivile ge
Ġwhist le
Ġinterch ange
Ġsan ct
Ġaccompan y
Ġcam el
as ers
Ġastound ing
Ġdeal ers
Ġine pt
Ġcigaret te
op le
own ed
Ġdon na
y es
Ġe z
Ġmor rison
Ġrebell ion
Ġincand escent
i ries
Ġculpr it
Ġdew alt
Ġstar buck
Ġl t
Ġshepher d
Ġbut ler
Ġprom otional
Ġatro c
Ġconv ent
Ġbull ets
Ġox y
Ġspe cially
Ġj f
3 00
Ġbrav o
Ġbehav iour
Ġdis integr
Ġnik ki
Ġincorpor ated
Ġdish onest
Ġg oose
Ġolymp us
Ġreset ting
Ġscarlet t
Ġhead aches
Ġnut shell
Ġparan oid
Ġlith ium
ll ect
Ġflav ored
Ġwo e
m al
Ġperform er
Ġmis pl
Ġl is
Ġsaw yer
Ġintegr al
ov ich
id al
Ġfull er
Ġstun ned
Ġcurs or
m ind
Ġan ts
Ġinteract ive
Ġhe ath
Ġr ises
Ġover weight
Ġgr ays
Ġrug s
Ġtuck er
Ġunlike able
Ġcharacter izations
Ġrul ed
ad el
Ġad rian
Ġbenj amin
Ġc rop
Ġgu ided
Ġmean ings
Ġaut ism
Ġludic rous
Ġt l
Ġclich ed
Ġf ighters
Ġfr ances
Ġgr ains
Ġeffect iveness
Ġarch er
Ġuns uc
Ġcr ichton
Ġcomb ining
an es
ag n
Ġp engu
Ġproduct ive
bro ken
Ġadapt or
Ġax e
Ġp ony
Ġdemocr atic
Ġarch ae
Ġcount ed
Ġsmo ker
r ice
Ġplot line
Ġantagon ist
Ġfore shad
Ġco gn
Ġbl izz
Ġhum ming
Ġmad die
Ġht ml
u ates
Ġad ject
Ġresemb les
Ġin advert
Ġmos qu
Ġper il
Ġsam uel
un a
Ġsyn ch
Ġinsist ed
b ars
Ġrh et
Ġbl amed
Ġmad onna
Ġshred der
Ġcor ps
Ġharv ard
Ġd up
el iness
Ġprol ong
Ġper tain
Ġmur ray
Ġmanip ulative
Ġun ch
Ġartifact s
Ġcut out
ra h
Ġtre nds
Ġcu z
Ġax is
Ġcongr at
Ġc uss
Ġfound ing
Ġfinish es
Ġmisunder standing
Ġtr istan
Ġsof a
Ġdel ves
Ġexam ined
Ġlum ens
Ġinhabit ants
mo d
Ġspray ing
Ġdistr ict
Ġdo d
Ġover shad
Ġv ain
Ġsp ices
Ġtoler able
Ġaqu arium
Ġfir ing
Ġbb c
Ġc elt
Ġsubm itted
ad vant
Ġhe ming
Ġres erve
Ġindian a
Ġt um
Ġcommunic ations
Ġidi ots
Ġt ate
Ġsn ugg
Ġred uces
Ġpros per
Ġengross ed
Ġfle a
Ġlo ath
Ġwhist les
Ġenerget ic
Ġconvers ational
Ġstro kes
Ġsevent h
er ies
Ġbal ancing
Ġn ess
Ġang led
Ġsan ity
Ġdipl om
at hing
Ġser ge
Ġacc idents
Ġacc laim
Ġparticip ate
h aw
Ġunsuc cess
in ally
Ġasp iring
Ġr ats
Ġdr unken
Ġbatt ling
Ġlic ens
Ġz oo
Ġfore ns
Ġmargin al
gin s
Ġhand book
Ġco arse
Ġtom tom
Ġawaken ing
Ġcare less
Ġhuge ly
Ġgreg ory
Ġband w
Ġstereoty pe
Ġdisreg ard
Ġlyd ia
Ġfle as
ic ia
id ly
Ġtrigg ers
Ġlaw yers
Ġun used
mark s
Ġcinem atic
Ġim ac
Ġper mission
Ġg asp
Ġbr ag
Ġdis advant
Ġsn ob
Ġd ab
Ġfl ops
Ġmanual s
Ġmod ifications
Ġkind ly
Ġmaintain s
Ġbudd ing
Ġr c
ep ing
Ġstand out
Ġsens ible
lic ting
he arted
Ġment ality
Ġtess a
Ġpts d
b od
gr ad
Ġdev oid
Ġhomosex ual
Ġn an
Ġobsess ive
Ġri vers
Ġdi y
Ġdam ned
Ġtre v
Ġdepict s
Ġflat ten
Ġenlighten ment
Ġc ited
Ġconqu er
Ġtw itter
Ġkey pad
Ġpc s
Ġcow ork
Ġpeel ed
Ġres ume
Ġpix els
Ġb acter
Ġref ined
Ġha unt
Ġs aints
Ġdev our
Ġthanks giving
Ġsav annah
Ġallerg ies
Ġdiagn osis
Ġle igh
Ġcorpor ations
Ġp ak
Ġcontrovers y
Ġinv ites
Ġtor so
Ġdist ances
Ġbroad er
Ġf ret
Ġrand y
Ġemer ge
Ġall y
ho ven
Ġdub ious
Ġwin ters
Ġrel ieved
Ġflee ce
Ġillustr ates
Ġappl iances
in arily
Ġsc al
Ġend lessly
Ġconduct ed
s ky
Ġplun ge
Ġeffort lessly
Ġinvent ive
Ġcap ac
Ġarg uing
c ence
Ġabd uct
m ont
Ġco ins
Ġreprod uction
g or
Ġtro y
Ġat omic
Ġdis ap
Ġprof iles
Ġpsych ologist
Ġunfold ed
Ġe lf
Ġral ph
Ġw agon
Ġpast s
Ġto ll
se ct
Ġdefe ated
Ġb ak
Ġn im
Ġmult itude
Ġon s
Ġvel vet
Ġperform ers
Ġliber als
Ġir res
Ġcryst als
Ġratch et
Ġfe es
Ġpsych e
Ġut ens
Ġr ake
Ġye lling
ro ck
Ġregard ed
Ġsched uled
Ġsummar ize
ad or
Ġmay hem
Ġdri pping
Ġrelent less
Ġome ga
Ġcons ume
Ġdece it
Ġsweat y
iss ance
Ġexcerpt s
m aker
Ġstud ios
bre ak
Ġjess ie
Ġst ing
Ġaccount ing
Ġr asp
Ġarm strong
em pl
Ġavoid s
Ġpal ace
Ġsupple ments
Ġr ation
Ġsun set
Ġsett ling
Ġmich igan
che ck
Ġnix on
Ġs ire
Ġp ierce
Ġpro x
Ġd air
ion a
Ġmo le
Ġtechn ological
Ġwith d
Ġover r
Ġdist inction
Ġconfront ation
Ġbeet hoven
Ġmuff led
Ġspecific ations
Ġtur nt
Ġc f
Ġhigh land
Ġqu ilt
Ġk u
Ġsmooth ies
b on
o ke
Ġk ern
Ġsent iment
Ġdownload s
Ġp aw
Ġsh annon
Ġmar athon
Ġprompt ed
Ġp ork
Ġmar ines
Ġex h
Ġdev ote
ol er
Ġec st
Ġre x
Ġmcc ar
Ġnot ices
Ġlou ise
Ġsepar ating
Ġblog gers
Ġpain ter
Ġb erg
Ġetern ity
Ġsm ud
ily n
Ġpill s
Ġstrand ed
Ġco al
Ġnew com
Ġdec ipher
id ences
Ġadvoc ate
Ġdisplay ing
Ġm ul
Ġstu art
Ġcalcul ator
Ġcl ipped
Ġtruck s
Ġprev al
Ġsp ont
Ġside k
Ġter rified
Ġstr ang
Ġref uge
Ġexhaust ed
Ġbudd ies
al i
Ġandre ws
Ġdef l
Ġdesign ing
Ġdinosaur s
Ġatmospher ic
Ġhud son
Ġn anny
Ġimplement ation
le ton
Ġflight s
fall s
Ġexped ition
Ġsp acing
Ġple th
ent ive
app ers
Ġrom p
Ġj a
Ġatl as
Ġd ix
Ġal erts
Ġq c
Ġcelebr ation
Ġscr am
Ġprose c
Ġvan ity
ect ed
Ġrele vance
Ġcondes cending
Ġhang ers
Ġunder m
Ġfl ore
Ġanx iously
Ġbar rier
Ġposition ing
Ġparent al
Ġacqu ire
Ġcurs ed
Ġpunch es
Ġswing ing
Ġheming way
Ġbet ty
Ġjf k
um ber
Ġbark ing
se a
Ġplag ued
Ġsi ri
Ġsh ir
Ġswe aring
Ġcre ed
Ġout ward
xt ures
Ġbeh alf
br idge
Ġmass ac
Ġout land
Ġric her
Ġfamiliar ity
Ġm ick
Ġback l
Ġlon eliness
Ġtherm os
Ġch i
Ġpleth ora
Ġad here
Ġmill enn
Ġcoll aboration
is ation
Ġunp ro
Ġl est
Ġreward ed
Ġadul thood
Ġreco llect
Ġgall ons
Ġafter market
Ġnich e
alth y
or ph
Ġk ap
Ġf ading
Ġword ing
Ġrack s
Ġfe nder
Ġconf ron
Ġste als
Ġcost ing
Ġarist ocr
Ġpre acher
Ġchrist ina
it i
Ġweigh ed
1 1
Ġcal f
Ġunres olved
Ġstumb les
Ġne arest
ach ed
Ġspecif ics
Ġwhim s
Ġrob b
Ġexam ines
ah l
Ġorde al
Ġannoun ced
Ġd umps
Ġev ocative
or al
Ġhor ns
Ġmush room
Ġj ury
Ġblur ay
Ġgloss ed
Ġvign ettes
qu er
Ġprim itive
Ġtell er
Ġstress ed
Ġr oose
Ġsn acks
Ġarm band
2 00
Ġli zzie
Ġd ivid
be ing
iet h
Ġtar ot
Ġint oler
Ġsc ans
Ġdair y
Ġinher ited
Ġtiss ue
ah n
Ġund o
Ġmoz art
Ġsad ie
Ġflick er
Ġhar vey
Ġmon roe
Ġty r
Ġb ast
aph r
Ġsw apped
Ġfid dle
f inder
Ġg ib
Ġo le
Ġl enn
Ġinsane ly
Ġconsequ ence
Ġpresident ial
gg s
Ġgrie ving
Ġpe gs
Ġall ie
Ġunc ons
Ġdre amed
Ġfa e
j et
Ġbrain er
not e
wr itten
Ġover head
ul as
Ġom itted
orig inal
Ġt ing
Ġt umb
Ġsur ve
Ġrecogn izing
Ġdoor bell
Ġpatric ia
Ġdro id
Ġsnark y
Ġtour s
Ġdevast ated
Ġsi xt
Ġpric eless
Ġwater ing
Ġclou ds
Ġisrael i
Ġhmm m
Ġl any
Ġan onymous
iet ies
ful ness
Ġge ography
ative ly
Ġcan al
Ġins anity
Ġsong writer
ru ci
Ġreccom end
Ġhub by
Ġadmir ation
Ġnostal gic
Ġmar ries
Ġsav ior
wor ked
Ġathe ist
Ġmisunder stood
Ġconj unction
Ġlong time
Ġgard ening
Ġhardship s
Ġto ggle
Ġsmell ing
Ġdelay ed
Ġprem ier
ort ment
Ġpil g
Ġcom cast
Ġqual ify
Ġcompos itions
Ġt ues
Ġmid way
Ġatt est
ath om
Ġrul er
ball s
Ġsen ator
Ġwall ace
Ġpil ots
Ġproph et
Ġimag inary
Ġfairy t
id o
Ġblizz ard
Ġper t
Ġdisasse mble
ro it
ch air
Ġwater ed
Ġch ock
Ġbell e
j u
Ġinstit utions
be c
Ġir is
Ġse as
Ġwed ge
Ġhomes chool
Ġappet ite
Ġimp ul
Ġn t
Ġadm in
Ġaff il
Ġjoy ce
Ġkiss es
te ch
Ġout lines
Ġster ling
step s
n ut
Ġu l
Ġmu gs
Ġco b
Ġinstit ution
Ġsynth es
Ġvit amin
Ġmis gu
Ġun imp
Ġworld wide
Ġnutrition al
Ġmccar thy
Ġcl aud
Ġsl ices
Ġdark est
Ġroose vel
Ġr oo
Ġfac il
Ġgor illa
Ġtar a
Ġso cially
Ġpo ppy
Ġmomm y
Ġconfront ed
Ġdeb ating
Ġoccur ring
Ġst ats
Ġbut ch
Ġcam per
Ġjourn als
Ġunim agin
ou lt
Ġunfold ing
Ġwol fe
c ular
Ġde me
Ġimprob able
Ġtheore tical
Ġbe es
Ġpen al
ar ine
Ġste ak
Ġc isco
Ġrespect able
h ell
Ġr ash
Ġpam ph
Ġprogram mer
Ġinv ention
Ġdiscover ies
Ġjo ey
Ġl ena
Ġya wn
Ġlect ures
Ġprivile ged
ound ed
Ġmembers hip
Ġreh ash
Ġhou ston
Ġmispl aced
Ġcomm ute
Ġdef orm
Ġreg ime
Ġsne akers
Ġpl anted
Ġmer chant
Ġted dy
Ġre he
Ġscratch y
er vice
Ġjud y
Ġreal ise
Ġconcert o
Ġaut umn
Ġcol ony
Ġlifel ong
Ġon kyo
Ġmor ph
Ġcur l
Ġsent imental
Ġsweet ness
Ġle aps
Ġh ue
Ġunder world
Ġconduct or
Ġcommunic ating
Ġsixt ies
Ġa ur
et to
Ġcreat ors
Ġintertw ined
n est
Ġd ill
Ġme yer
Ġdom ain
Ġent r
Ġminimal ist
Ġpad dle
Ġsub miss
Ġdo yle
Ġh id
Ġcars on
Ġbarb ie
Ġpo ds
Ġdash board
Ġstart ling
Ġvi able
r an
Ġstarbuck s
g les
Ġmanip ulated
Ġed gy
Ġprom oted
Ġforg iven
Ġawkward ly
Ġbox ing
Ġcompl ications
Ġfrank ie
Ġdum mies
Ġelect ed
Ġb ount
Ġrec essed
Ġsp illed
Ġaffect ing
Ġapp rent
Ġres erved
Ġed gar
ro y
Ġop s
Ġsoci opath
i pl
Ġdi aries
Ġun natural
Ġmot ors
Ġdi aper
Ġcritic ize
Ġp t
Ġexam ining
Ġry der
Ġass ortment
i ating
Ġth irst
Ġsp ills
Ġtransm it
Ġinstinct s
Ġsull ivan
Ġrid dled
Ġoper ator
Ġhost ile
Ġall ison
Ġdv i
Ġit al
Ġbrood ing
ut ional
Ġcountry side
Ġpet ite
Ġfing ern
Ġincompet ent
Ġpass port
5 00
Ġpercus sion
Ġm aze
Ġl ance
Ġergon om
Ġdomin ic
Ġf ren
Ġinstruct ional
act ive
Ġad ri
ud ing
en ch
Ġhom age
col m
Ġgrandchild ren
Ġmedic ation
on er
Ġcur ves
Ġwind ed
Ġcourage ous
Ġpay ment
Ġque ens
Ġcelt ic
Ġt ame
Ġst ance
Ġp ipes
Ġanat omy
Ġimag ining
Ġrecur ring
qu est
Ġinter st
Ġgre ens
Ġj av
fo am
Ġintermitt ently
t ic
Ġbarn es
Ġch lor
Ġidi otic
Ġcharism atic
Ġche e
Ġoptim al
Ġtutor ials
Ġpen ned
Ġwy att
Ġimpro per
Ġl ingu
Ġimmigrant s
Ġtrev or
Ġover coming
s ince
Ġt t
Ġsp aced
Ġdil ig
Ġma e
Ġf rig
es ar
Ġsw ings
Ġfour teen
Ġconv iction
Ġdread ed
Ġash es
Ġacknowled g
Ġhon orable
ery l
e on
Ġp uck
Ġnot ification
Ġbur r
Ġbureau cr
Ġhe ed
Ġover kill
be aring
Ġinex per
Ġach e
reh ensible
Ġovers ized
s po
Ġc unning
ad der
Ġperson nel
Ġsatur ated
Ġm un
Ġessential s
p rod
Ġendorse ments
Ġcosm etic
in um
Ġex empl
Ġk ansas
Ġbi ker
ipp i
Ġsty l
it ary
Ġlex i
Ġdiamond s
Ġsand y
Ġdian e
ub s
Ġaesth etics
e ly
Ġjournal ism
Ġprofess ors
Ġa uction
b ic
Ġle is
Ġstuff ing
Ġs ier
Ġcrow ded
Ġv cr
Ġte e
Ġshow case
w a
Ġfil ed
Ġmess enger
Ġcondition er
Ġblog s
Ġtooth p
Ġstell a
Ġexplo its
Ġsarc asm
y y
Ġafter thought
Ġappe als
Ġoff end
Ġcollect s
Ġeduc ate
Ġthe o
Ġaim ing
Ġcushion ing
Ġbr oth
Ġsumm ers
Ġpack et
Ġtrans fers
Ġgar rett
Ġrub bish
Ġjosh ua
Ġm uted
so ver
Ġwork book
ll an
Ġtoss ing
Ġf ittings
ib les
Ġancest ors
Ġu i
amp ed
Ġpyth on
Ġbe w
Ġhobb it
Ġdp i
Ġsol ves
Ġroosevel t
m atic
Ġp est
ens ions
Ġt iff
Ġind ent
ps y
el p
Ġdur ation
Ġvit am
Ġo o
mes ter
Ġthie ves
Ġkn ack
Ġblack mail
ke ys
Ġeff iciency
Ġshif ted
Ġl ent
ruci ating
Ġprong s
Ġinterv ention
Ġhint ed
oint ing
Ġarc ade
Ġlo an
Ġbefore hand
Ġquart et
Ġstorm s
Ġlo ft
Ġrespond s
g ian
Ġcor rection
Ġdam on
Ġexc ruciating
r ates
Ġmal colm
Ġalf red
Ġbl ister
Ġcame o
Ġinaccur acies
Ġcas io
Ġpal p
Ġindul gent
Ġrum ors
v ol
Ġnur t
Ġtur t
Ġb ash
Ġun respons
Ġestim ated
Ġmisgu ided
Ġfound ed
Ġsacrific es
Ġspl itting
Ġr ushing
Ġsa ppy
Ġveter ans
Ġle nds
ist ine
Ġbor r
Ġharm ful
Ġno k
Ġcar ib
gg er
Ġestr anged
ber ries
Ġnavig ating
Ġarth rit
Ġt at
Ġper ce
Ġratt ling
Ġpublic ity
Ġamb ition
Ġl aced
Ġreflect ing
Ġout ing
Ġdang ling
Ġves sel
Ġestablish ment
n an
Ġchew ed
Ġan a
Ġrem orse
Ġvar ies
Ġcharacter istic
Ġfound er
arn ed
Ġcommercial s
l ad
Ġel ves
Ġm itt
Ġfo cal
Ġcere al
Ġgrad er
Ġear liest
Ġbackpack ing
Ġod ys
Ġtri via
om on
Ġtransfer ring
Ġho ff
Ġspecial ist
Ġrout ines
Ġb ren
Ġbrad ley
Ġdecre ase
Ġre gg
Ġirrit ation
Ġprof its
ane y
Ġshar per
t ail
Ġv r
Ġappro val
Ġboss es
Ġv augh
Ġvin ce
Ġfu zz
Ġsymbol ism
ot ics
Ġsod ium
Ġend uring
Ġrena issance
Ġgi ants
Ġfl are
Ġjour neys
Ġfi xtures
Ġachie ving
Ġinvent ory
a que
Ġscra pe
Ġexperiment ing
Ġbut cher
Ġgovern ments
ches ter
Ġsab bath
Ġcl ing
Ġoppon ents
Ġc akes
ro be
Ġuncon v
Ġorchest ral
Ġinexplic ably
Ġdol by
Ġsec uring
Ġfur y
ram atic
Ġr apt
Ġno d
Ġoppos ing
Ġf izz
Ġsens ation
Ġdia lect
Ġj ugg
Ġacknowled ged
Ġe instein
Ġconv ict
Ġmysterious ly
Ġunexpl ained
Ġcondens ed
Ġfr amed
Ġdecided ly
Ġskill fully
Ġcho pped
Ġsevent een
Ġannoun ce
Ġsu ede
re ceived
Ġrel ied
Ġbuddh ism
Ġpet ers
Ġhost age
Ġstr ained
Ġmc g
Ġh ust
Ġj ace
Ġincomp at
Ġles lie
hip s
c ott
Ġtro pe
Ġcomplet ion
Ġdut ies
Ġplant ronics
Ġdestro ys
Ġaesth etically
Ġj ol
adel ph
Ġmod ification
Ġpro ver
Ġcomm itt
Ġdeliber ate
m ar
Ġw ipes
Ġste amp
Ġpower ing
Ġobser ve
Ġnic kel
Ġe erie
Ġconfig ured
Ġhoriz on
Ġu b
Ġdefin es
Ġtwe aking
Ġd ane
Ġdeter min
Ġreson ate
Ġtoy ota
Ġof t
an as
Ġch urn
Ġbo ats
Ġsub mer
Ġcompos ite
Ġadd itions
Ġth orn
Ġimplement ed
Ġsubject ed
Ġexerc ising
Ġfro g
Ġsock ets
Ġcl ump
Ġsold ering
Ġstal in
Ġd ak
Ġdown stairs
Ġjell y
Ġmay or
Ġcolon el
Ġrese mble
c ard
Ġoppon ent
lud ed
o ard
Ġtri bes
Ġrey nold
Ġc ain
Ġc ull
uth or
p apers
Ġsp ur
Ġbl air
Ġuseful ness
Ġmaster ing
al on
the arted
Ġsad d
Ġun ic
Ġsp illing
Ġgl enn
Ġmerch and
Ġtomato es
Ġlub ric
Ġfan atic
Ġchurch ill
Ġminim ize
Ġemer ging
Ġcorrupt ed
Ġsou lf
Ġso aking
Ġphys ician
Ġphill ip
Ġunrespons ive
Ġf oss
Ġre ese
Ġj ur
Ġag atha
Ġcub a
Ġphil adelph
Ġph on
Ġcal orie
Ġsty ro
Ġparticip ants
Ġsh ay
Ġgar ment
Ġpro hib
Ġdes irable
Ġplat inum
Ġo cd
Ġin sole
Ġover st
Ġover bearing
Ġar nold
Ġph d
Ġpsych ed
Ġunse en
Ġsib ling
Ġnot ions
ad ers
Ġcon ne
id y
Ġent rance
Ġcarp enter
an other
Ġboot le
Ġfinan cially
Ġmasc ul
Ġnok ia
ast ics
Ġen gin
Ġsho cks
Ġstr at
Ġcar ly
or ters
Ġpe g
em aker
Ġdis ast
Ġelect ro
Ġo we
Ġspe ck
Ġsketch y
or thy
Ġbrid ges
Ġwh ack
Ġcin nam
Ġh ong
Ġintense ly
Ġsteamp unk
Ġuncon vin
Ġsub d
Ġinc apable
Ġadm ission
Ġprem ature
Ġharv est
b our
h d
Ġtrans it
Ġcook ware
Ġha ired
Ġk b
Ġcur ric
Ġpreval ent
Ġleis ure
Ġbrad y
Ġcl aw
Ġlibr aries
Ġresur rection
Ġwend y
Ġhel m
Ġprov ocative
Ġsp or
Ġpouch es
Ġsimpl ified
6 00
Ġcred ential
dri ve
Ġbeep s
Ġmisunderstand ings
ent a
le te
Ġdr aining
Ġrein c
Ġhav oc
Ġappre h
Ġgrip es
Ġdialog ues
Ġdisag re
ar ians
Ġcinnam on
t i
Ġl aps
Ġovers ight
Ġwh ip
Ġins ign
Ġl ull
Ġconf ession
Ġdead line
Ġen velop
Ġbit ters
b ows
en berg
Ġbas hing
Ġfore w
Ġa ub
Ġvol ts
Ġmich a
Ġres il
Ġquest s
Ġsp icy
Ġbuild up
Ġrecom end
Ġthere of
Ġenlight ened
Ġdispos al
Ġd ir
Ġar bit
Ġby r
Ġph arm
Ġf et
Ġqu ibble
Ġhot els
Ġspr int
Ġpract iced
Ġdom inate
Ġtroub ling
Ġreplace able
Ġsquare s
Ġoccup ation
Ġd uff
Ġstr ide
ank ing
Ġpat ron
Ġsubstant ially
Ġuncover ed
Ġconf licting
Ġgam bling
Ġst umble
Ġstyro foam
Ġho ver
Ġcar o
Ġide als
Ġpl otted
Ġsharp ness
Ġmiss iss
Ġdep os
eng ers
Ġfin er
Ġfront ier
Ġannoying ly
Ġins uff
Ġcro ch
Ġwar p
Ġones elf
Ġsier ra
Ġocc ult
Ġrespons ibilities
Ġab bey
Ġjust ification
Ġir respons
Ġn b
Ġri ps
fort unately
Ġphiladelph ia
Ġgrad uated
Ġorgan izing
Ġreject ion
Ġa ver
Ġdri es
Ġult r
Ġp aws
Ġn ol
Ġst ern
Ġunconv entional
Ġport ability
oid s
Ġwireless ly
Ġbuck les
Ġbrut ality
Ġimperfect ions
Ġmeand ering
Ġsp ike
Ġext rem
Ġab road
Ġtr aces
Ġmet ers
Ġserv ants
ail ing
Ġtur bot
Ġspread ing
7 0
Ġfind er
Ġuns atisfied
Ġclim actic
Ġwind y
Ġl ick
Ġref using
Ġinfuri ating
Ġac ry
Ġd azz
if ty
Ġins ider
Ġdise ases
Ġperse c
Ġz ones
Ġex or
iv a
Ġindepend ently
Ġturnt able
Ġkrist en
Ġcr ushing
Ġm ong
Ġw ann
Ġsp ies
Ġy ummy
Ġint ensive
Ġligh thearted
Ġt ide
Ġre nders
and o
Ġmini ature
Ġconserv atives
Ġgr ades
Ġbl aming
Ġdism ay
Ġdign ity
Ġconcer ts
Ġnapole on
Ġnu is
Ġhyp ocr
Ġrecover ed
Ġs ic
as is
Ġsing ular
Ġreck less
Ġf ier
Ġfid dling
Ġinfect ed
Ġvac c
Ġnugg ets
Ġt ib
Ġbur ke
Ġdismiss ed
Ġprotest ant
Ġstart up
Ġmagic ian
Ġparad ox
Ġirres ist
Ġtues day
Ġloc als
Ġsal mon
Ġhomosex uality
Ġmh z
Ġofficial s
Ġrest oration
Ġcar bs
Ġsc oot
Ġbl an
Ġide ology
s ay
in form
Ġgrind s
Ġlim iting
Ġwag ner
Ġreg ions
Ġm oth
Ġback bone
Ġso othing
Ġtooth brush
Ġturbot ax
Ġa pert
Ġre ps
Ġun z
Ġshred ded
Ġw iping
Ġmar ilyn
Ġhair s
ab ling
Ġbin oc
Ġpersist ent
Ġkn uck
Ġsort a
Ġsh in
Ġevol ving
Ġall iance
at ivity
Ġandre a
Ġt ut
l ast
Ġth y
Ġj aws
Ġhis s
Ġale c
Ġa pe
h ad
Ġenv y
Ġstack ed
Ġent ity
Ġcha otic
Ġbust ed
us sy
Ġcompl ains
ol ics
Ġpivot al
Ġgate way
Ġengin es
ut ton
Ġouts ider
Ġrecogn izable
Ġsubur ban
Ġell e
Ġb unk
Ġne ur
Ġaccomplish ments
Ġsh atter
Ġspook y
Ġunder grad
Ġh ier
Ġcross es
Ġupload ed
Ġi phones
Ġbag gy
in ently
Ġre id
Ġnarr ower
Ġharm onies
Ġcontradict ory
ard ly
Ġpropos al
Ġot t
Ġinf inity
Ġoverhe ating
Ġspa wn
Ġd ents
Ġim itation
Ġspl itter
Ġretros pect
ut er
Ġdef ending
Ġexcess ively
Ġrout es
Ġsy nt
Ġfig ur
Ġconfirm ation
j ah
Ġphil ipp
Ġdeser ving
Ġab ig
it ol
Ġfrustr ations
Ġportra its
Ġawa it
Ġmi ami
b n
p in
Ġsweet heart
Ġexplicit ly
Ġunhe althy
Ġc ue
Ġp ars
fe ld
ifi able
Ġcra fting
Ġtwent ieth
Ġbab ys
id ia
Ġas yl
Ġcan opy
unci ation
Ġtrans cri
Ġrecon cil
Ġdor othy
Ġam d
cond ition
Ġal mond
Ġplod ding
Ġn ib
Ġreynold s
Ġrhy mes
Ġimpat ient
Ġdrown ing
Ġrich ly
Ġsand al
Ġattrib ute
m ay
Ġo ily
ll ation
Ġeff iciently
Ġunfor g
Ġem erson
Ġmississ ippi
ll ings
Ġrel oc
Ġnet book
Ġuncertain ty
Ġanaly ze
Ġattrib uted
Ġscare s
Ġfatig ue
Ġt x
it ations
Ġmin ing
Ġfast est
Ġrespective ly
ri ment
Ġsmooth ie
Ġt aper
Ġb f
o ise
f old
Ġunre ason
Ġcontempl ating
Ġha log
Ġcarp ets
Ġisab el
Ġh ots
per ed
Ġpres idents
Ġambig uous
Ġli me
Ġri pper
Ġcr aving
Ġ xt
ast ical
Ġwaff le
Ġatlant a
Ġmetall ica
Ġcor rel
Ġbachel or
Ġclar ke
Ġus ability
Ġroom ba
Ġk ai
Ġsl ugg
Ġtravel ers
Ġcy cl
Ġgur u
l u
Ġsuccess es
oun ge
r ise
igh th
Ġjos ie
Ġbr itt
Ġcance lled
Ġwill ed
de veloped
Ġclock s
Ġne on
Ġbi ographical
Ġaid en
Ġinadvert ently
Ġn ike
Ġsw ay
Ġco hen
Ġcol um
Ġclass ified
on ica
Ġthri lls
Ġman n
Ġinherit ance
Ġke ller
Ġpe ach
Ġloud ly
Ġt iring
Ġdo dge
Ġprod ig
Ġhor rified
Ġcircumst ance
Ġmonot on
Ġd ented
Ġshar on
Ġe is
Ġcoun se
Ġinstit ute
Ġaggrav ating
Ġten or
Ġpian ist
Ġcott age
Ġhind sight
Ġre think
Ġem bell
Ġear phone
Ġwe aken
Ġcorn well
Ġdiss ervice
Ġbre tt
Ġgree ce
al ogue
Ġdig s
Ġbr ink
Ġz ane
Ġwind ing
Ġca fe
d un
Ġse ars
Ġsn or
Ġbuddh ist
Ġn ifty
Ġso ber
Ġout comes
Ġund ead
or ah
Ġobst ruct
Ġbitters weet
Ġtodd lers
Ġlany ard
p id
Ġdan a
ot al
Ġaffir m
Ġspec ified
Ġspor ad
Ġm tv
as i
Ġtor i
Ġsw ipe
Ġsty ling
Ġarrog ance
Ġlove craft
Ġstro ller
Ġre im
Ġsho ve
Ġpale o
Ġmetaph ys
Ġne mes
Ġlyn ch
Ġpamph let
m at
Ġarab ic
ip ers
og ical
Ġsand ra
Ġsh aky
ien ced
Ġe ug
Ġen ch
Ġps p
l est
ave ment
iss ions
Ġstand by
Ġsink ing
Ġmudd led
Ġcom o
iter ate
Ġblat antly
n on
g ence
ry n
Ġtransl ator
Ġrhyth ms
Ġlo af
Ġso pr
Ġexpress ing
Ġemploy er
ar ms
Ġvisual ize
Ġfilmm akers
d ain
Ġfil thy
Ġdisast rous
Ġsuper st
Ġthere after
Ġwild life
l ord
Ġn c
Ġr ach
ens en
Ġhal ves
un fortunately
Ġchrome book
Ġpatri ot
Ġnaught y
en zie
ld a
Ġco y
Ġpros pective
Ġbern ard
Ġdisgu ise
Ġuncons cious
et es
Ġsn apping
un ts
Ġcounter fe
Ġch im
Ġout fits
Ġcl utch
Ġcor k
Ġda unting
bre aking
Ġe cl
Ġab ys
Ġed wards
Ġnumber ed
Ġineff ective
Ġnu ance
Ġproport ions
Ġdy n
Ġexcell ence
Ġoff ense
Ġbu ffer
Ġfine ly
Ġkitchen aid
Ġh ic
Ġmo ss
Ġdiab lo
Ġr otten
fl ies
Ġspecial ized
Ġl inger
ill ion
Ġpet erson
Ġse aling
Ġor g
Ġright ly
Ġworld view
Ġpres erv
Ġpres chool
rid ged
Ġawa ited
Ġob sole
Ġstock s
Ġjon ah
Ġg age
Ġlibr arian
Ġwr ath
Ġnew ton
Ġdisc re
Ġspecial ty
Ġarbit r
Ġunic orn
ur able
Ġgo sh
Ġpr istine
the y
Ġf iona
Ġoverl ap
Ġsm ashed
Ġnon fiction
Ġj aded
Ġpop ulated
b olt
Ġoff line
Ġtid y
Ġtruth ful
Ġb m
Ġf ang
w oman
Ġo ops
Ġab oard
ail ed
Ġsucc inct
Ġbo oth
f ig
Ġden ying
Ġdon ate
Ġweeke nds
Ġende avor
Ġbur ton
Ġdim inished
Ġfeed s
Ġsidek ick
Ġcal ves
Ġbount y
le en
Ġsor cer
Ġunden iable
Ġmont g
Ġwa its
Ġdump ing
Ġbb q
ik i
Ġmargin ally
Ġbron ze
Ġrom ans
Ġdisgu ised
Ġbe ad
Ġon ion
Ġli mb
Ġf os
Ġye a
Ġspoil ing
Ġdistrib uted
Ġimpe cc
Ġoppos ition
Ġhyp not
Ġtrop es
Ġbl isters
Ġdetract s
Ġbacter ia
Ġunder developed
Ġnone x
Ġver ge
Ġanten nas
Ġfall out
Ġelev ator
Ġvacuum s
Ġmot o
Ġstir ring
Ġanti que
Ġmosqu ito
Ġdiscour age
Ġfe b
Ġi q
Ġun em
Ġhappen ings
Ġsn oo
Ġen lar
Ġens ues
Ġdet riment
Ġillumin ate
Ġtitan ic
Ġnonex ist
p c
Ġbl ames
Ġmar ian
Ġinv ite
Ġge omet
Ġanch ors
Ġrect angular
b in
Ġju icy
Ġpak istan
Ġen list
Ġven ice
Ġproduct ions
Ġpar aphr
Ġimpact ed
p ret
op ho
Ġmarket place
Ġc ed
Ġsign ing
Ġcurt is
um er
Ġprol ific
Ġmelod ramatic
Ġlatch es
Ġnuis ance
Ġa pr
Ġfire wall
Ġrewr ite
ll ey
lud es
Ġequ ation
Ġdetach able
Ġnood les
Ġdis ple
Ġembro ider
Ġtim ed
Ġst ems
ion age
Ġbr ides
Ġcon an
Ġy u
Ġworks hop
Ġpengu in
Ġcat aly
Ġelli ot
Ġencycloped ia
Ġsw an
Ġbenef ited
re mes
Ġmark ing
Ġoutput s
Ġcomprom ised
f ree
Ġun condition
Ġsubscri be
Ġphr asing
Ġward robe
Ġgirlfriend s
Ġder ived
Ġrail road
Ġobsole te
Ġre wind
Ġnemes is
Ġr hod
Ġtreas ures
Ġg ull
Ġ 1
Ġstr ands
Ġcom a
Ġscar f
Ġartic ulate
Ġmock ing
Ġcommun ism
Ġcop ing
Ġrust y
Ġpre ston
Ġx s
Ġcompet itor
ir y
Ġman ners
Ġtor ment
Ġrent ing
Ġtransport ation
Ġcorrespond ing
ol is
Ġli ver
Ġevolution ary
Ġesp ionage
Ġpo inter
Ġnarr ators
Ġapp alled
Ġpro g
Ġcas ually
Ġeight een
Ġnit p
Ġasyl um
as ive
Ġun ab
Ġapp alling
Ġbox er
Ġsoulf ul
Ġscript s
miss ions
Ġfunn iest
Ġactiv ation
Ġswed ish
Ġstruct ural
Ġhi kes
Ġfire place
Ġmonoton ous
Ġfin icky
Ġrequest s
Ġfulfill ment
Ġabig ail
Ġstre ak
Ġg f
Ġmodel ing
Ġinjust ice
Ġunsett ling
Ġmo ses
Ġk ale
Ġincident ally
d ies
Ġg ou
Ġsto pper
Ġre asse
Ġe ct
Ġr ar
Ġch el
Ġnews papers
Ġto te
Ġcance ling
Ġm am
Ġze pp
e ven
Ġtough er
Ġrecount s
f ess
Ġro gers
Ġblog ging
Ġad ren
Ġco ve
Ġra fe
Ġforget s
Ġlift s
ill es
Ġal gor
co de
Ġunique ly
Ġrevers ed
om ery
Ġsust ained
so red
Ġhun ted
Ġlaunch ed
Ġtraged ies
Ġlace y
Ġhyp ed
Ġbill ed
Ġtwe ak
Ġd h
us able
Ġsp un
Ġreserv ation
Ġre appe
Ġmon ica
Ġhighlight ing
Ġch ops
bal anced
asm ine
Ġam us
Ġs avor
Ġtrimm ed
Ġgr in
7 00
Ġfil ing
Ġdece iving
Ġvib rate
Ġcance llation
Ġalgor ith
Ġev ap
Ġsad den
Ġnot ifications
Ġsu g
Ġimpro v
Ġw ield
Ġr ory
Ġdiss ip
Ġflashlight s
Ġhorizont ally
Ġhar ley
Ġkar l
op ia
Ġimp rint
Ġcle aring
Ġexp oses
Ġind ucing
Ġrecon struct
Ġne op
im ented
Ġwor m
me al
Ġinvestig ative
Ġimp art
Ġwho dun
Ġimp ly
Ġachieve ments
Ġutil ized
Ġloo sing
h ots
ail able
Ġunder rated
Ġpuzz led
br ook
Ġchar ms
Ġlim itation
Ġprofound ly
Ġb ert
Ġpal mer
t ight
Ġpay off
Ġmot ions
Ġas pir
Ġacc us
ir ical
Ġtim othy
Ġpass able
ew orthy
Ġmass age
Ġconst r
Ġir r
Ġcredential s
Ġbra very
Ġmontg omery
n ce
Ġconv icted
Ġpurpose ly
Ġduplic ate
Ġdie go
Ġboo ster
Ġcontin ent
Ġrome o
Ġinterchange able
Ġmerchand ise
Ġstri pes
Ġearth qu
Ġv ene
Ġca it
Ġunl ucky
Ġruss ians
Ġsubmiss ive
Ġcelebr ities
v ana
Ġacry lic
Ġpres id
Ġcomfort ing
cho ly
Ġcont empt
Ġbed ding
Ġjud ged
Ġalter ing
ay e
Ġli ar
Ġheart beat
Ġmill s
Ġtroublesho ot
Ġn ir
Ġremo ves
Ġnv idia
Ġli b
Ġgard ens
Ġvulner ability
Ġhul k
Ġatroc ities
Ġcontract or
Ġpy ram
Ġconve ys
Ġgr omm
Ġcre ations
Ġwar med
Ġsurv ives
qu ed
Ġtrail ers
Ġike a
Ġin ver
Ġdo ve
Ġbrow se
Ġout lined
mm et
Ġicon ic
Ġdecl ar
Ġbry an
Ġh ires
Ġshot gun
g b
mo on
Ġswe ating
Ġlau rie
Ġtrimm ing
an i
Ġdis ciples
Ġep it
Ġbe gs
Ġass et
Ġtex ting
Ġnu anced
Ġnons ens
Ġempath ize
Ġcros sover
Ġper plex
Ġtr inity
Ġweigh ing
Ġcarl os
Ġse ct
Ġn fl
Ġcar a
Ġhar ass
Ġprop osed
Ġapert ure
Ġslugg ish
l ab
Ġentreprene ur
Ġwork place
Ġarg ent
Ġtext ures
Ġbother ing
Ġelev ated
Ġconqu est
Ġhard ened
Ġsurround s
Ġestabl ishing
Ġcont end
Ġover c
Ġthreat en
Ġble ach
Ġne ll
b uster
Ġmax well
Ġpra ised
Ġr ays
Ġversat ility
Ġhum il
Ġresearch er
Ġbrid get
Ġmerc en
Ġdi ets
Ġintern ally
Ġexhib it
Ġun ed
Ġcri es
Ġpat iently
Ġupset ting
Ġstro be
Ġsynt ax
Ġa ired
Ġemphas izes
Ġa ero
Ġflick ering
Ġpalest in
9 0
p ress
w ick
Ġproject ion
Ġdrum ming
Ġt ipped
Ġresearch ers
Ġdecl ared
Ġto ned
Ġstalk ing
Ġsquir rels
Ġgre asy
Ġleg ion
Ġstress ful
Ġsh ook
Ġcred ited
Ġrecy cling
Ġj ules
Ġweight ed
Ġt m
Ġi cing
Ġsh attering
Ġps al
Ġmaster fully
Ġstri ve
pend ing
Ġdry wall
Ġgil bert
Ġbu gged
Ġfl uct
Ġfil ament
Ġinf id
Ġcondens ation
Ġag on
Ġfl ips
Ġfranken stein
b ies
Ġsl apped
Ġfant astical
Ġillum inating
Ġodys sey
Ġrel ay
Ġfresh man
Ġste vie
Ġbi king
Ġdaw kins
Ġcarib bean
Ġmicha els
Ġunus ually
Ġpig s
Ġcarr ots
Ġade pt
Ġcoinc idences
Ġspark le
Ġdet roit
ult ure
Ġaud rey
Ġbeep ing
Ġmelan choly
Ġo mission
Ġsm ugg
au er
Ġo at
Ġnin et
Ġkind erg
Ġpr ow
Ġth ump
Ġc ites
Ġcomment aries
Ġro land
Ġharle quin
Ġmassac re
Ġunh elp
Ġl ave
Ġinvestig ations
Ġd w
ver e
Ġcomp iled
Ġbl adder
Ġd ensity
Ġautom ated
Ġritual s
ud er
Ġsad istic
Ġallerg ic
ish a
Ġlabel ing
Ġw ic
Ġsle eper
Ġhar ri
Ġmaster y
Ġsquir rel
b us
v ation
z illa
Ġexam s
Ġfid elity
Ġwiz ards
Ġdischar ge
Ġhill ary
Ġn ad
Ġvar ieties
Ġsyl via
Ġho pper
Ġcath olics
com ed
Ġde eds
Ġpolit ician
Ġjoy stick
Ġrust ed
ed ding
Ġwhit ney
Ġur g
Ġmus ings
Ġdisli kes
Ġmar i
Ġroll ers
Ġye ll
Ġpart ition
Ġtend encies
act ions
Ġsp ans
Ġkay ak
Ġc attle
Ġdep icting
r oof
Ġfe athers
Ġbro s
Ġpov s
Ġwhims ical
Ġche ers
Ġdar ling
Ġl ure
Ġfl ir
Ġtr ac
Ġup ward
Ġbad ass
Ġball oon
Ġcon verse
ott o
Ġwonder land
Ġsix ty
Ġrec ons
Ġcompos ers
Ġvisit ors
h or
Ġblog ger
Ġaccomplish ment
Ġc ec
Ġbis sell
Ġcustom ization
Ġbrew ed
ut ors
Ġplay list
Ġd une
Ġschem es
Ġforew arned
Ġvo ila
Ġroutine ly
Ġbreath able
Ġte fl
Ġearn est
Ġdisconnect s
Ġlouis iana
en ne
Ġarg ued
Ġ 4
ens er
Ġbur g
Ġover rated
h uman
Ġgr ating
Ġsl ash
Ġtyp o
Ġgovern or
be e
Ġreg ist
ov an
o ia
Ġret aining
Ġexp ands
Ġtrans action
Ġmillion aire
Ġsk ate
o vers
Ġst air
Ġcoup on
ed ith
Ġconsult ant
Ġpoke mon
Ġinst al
Ġarch ety
e el
le in
Ġsh en
Ġconcent rated
Ġtefl on
w rit
Ġm k
Ġsh aving
Ġri o
Ġext ending
Ġeconom ical
Ġfl ats
Ġbr ushing
Ġsn iff
Ġsuz anne
Ġnonsens ical
Ġs ig
Ġdis l
sy l
Ġunconvin cing
Ġnew born
Ġh ound
Ġequ ations
l ene
Ġresemb lance
Ġautobi ographical
Ġlar a
Ġel usive
Ġgig s
Ġirrespons ible
Ġup wards
Ġsoft en
Ġang u
Ġco bb
ang led
Ġfe ud
Ġhugh es
Ġemploy ment
Ġpass engers
Ġtrack ed
Ġcram med
Ġreal ms
Ġsim mons
Ġh unk
Ġhom icide
Ġweld ed
Ġr ut
ard on
ale m
Ġdress er
Ġath lete
Ġw art
Ġag encies
cl air
r ama
Ġrest ocking
Ġlyr ically
Ġunhelp ful
Ġne al
Ġle verage
Ġcatch er
fl ower
Ġap ology
Ġstation ary
Ġk ens
Ġinsuff icient
Ġw an
Ġc ens
wh y
Ġfairyt ale
Ġj asmine
Ġcomm itting
Ġse mester
Ġte as
ple ase
Ġnum bing
Ġkl ips
ep s
Ġsl iced
at ly
Ġsc ree
Ġrid ers
Ġcompreh ension
Ġacknowled ges
Ġprescri ption
Ġwar ns
Ġw als
Ġhar old
Ġam nes
Ġc ade
Ġout cast
pr ing
Ġcho ke
Ġbuild er
Ġformer ly
Ġquir k
Ġtact ile
Ġch ases
Ġconvey ed
Ġc ud
Ġch ant
Ġhide ous
Ġcan yon
Ġmor ally
Ġthread ing
Ġdub bed
in ci
Ġal ge
Ġa ld
Ġlord s
Ġbaff led
Ġforens ic
Ġlenn on
Ġfa iries
d ings
Ġp omp
Ġcell phone
Ġspe e
Ġsl ant
Ġemer ges
Ġcurric ulum
Ġfr aming
our se
aw a
Ġver onica
Ġs ane
Ġeng ages
Ġbar on
Ġassist ed
Ġr aving
Ġes ot
Ġkath y
Ġclou dy
Ġwill ie
Ġvig il
g ated
Ġbr isk
ro b
Ġdisappe aring
Ġins oles
Ġdri ps
ifi ers
Ġpred ic
Ġy ah
Ġp ub
Ġen for
Ġz agg
av ings
Ġtheat ers
Ġh s
Ġhard back
Ġseper ate
Ġam mo
Ġderiv ative
Ġin ward
Ġtwent ies
Ġh ig
Ġerr atic
Ġste aming
Ġflash y
Ġvin ci
Ġfre ud
ik er
Ġl ung
Ġin gr
Ġbang ing
st s
Ġli lly
Ġsuper fl
Ġwaist band
Ġhaz el
Ġimpul se
us et
Ġdr astic
Ġps u
ul k
Ġdis orders
Ġph oe
Ġunav ailable
Ġm j
Ġswim s
Ġbusiness man
w w
Ġcounter top
Ġport ug
Ġreinstall ed
Ġu ber
Ġscar red
Ġvis or
Ġbuff y
Ġs b
Ġflo ppy
Ġg our
Ġafter life
Ġrecei vers
is an
el ope
Ġpaper work
Ġrecons ider
w as
Ġt art
Ġri b
Ġmerc ury
Ġd ances
Ġaut istic
Ġjud a
Ġsink s
Ġmonolog ue
Ġmagn ifying
Ġwel comed
Ġex e
er ation
Ġinfl ate
Ġpee ve
Ġsumm ed
Ġtour ing
Ġall ev
Ġstr ung
Ġsl ayer
Ġten nes
Ġsail or
Ġillum ination
Ġtour nament
Ġsurge on
Ġunderst ated
Ġcr ane
Ġkinderg art
Ġth urs
Ġan not
Ġsubtle ty
ipp ers
Ġobst acle
Ġbro ck
Ġcou l
Ġinv iting
Ġmin nes
Ġdr ains
Ġknock off
Ġs g
Ġjack ets
Ġwitch craft
Ġmargin s
Ġen ables
Ġdec al
Ġob ed
Ġspirit ually
Ġsacrific ing
he a
h al
Ġpres et
Ġvolunte er
Ġsl icer
Ġwhole hearted
Ġpredict ed
Ġmyth ical
o is
Ġval ves
Ġper me
Ġac ron
Ġros ie
p ers
Ġsc ifi
Ġvan essa
Ġer aser
Ġbom bing
Ġmer edith
Ġknock s
Ġmold s
Ġsab ot
Ġgig antic
writ ers
er ving
Ġfre der
Ġray mond
Ġpuzz ling
Ġabys mal
Ġpurs ued
Ġf ades
Ġuse able
Ġphilos opher
Ġhoney well
Ġirr ational
u er
Ġdisc red
Ġjer us
Ġrecon c
Ġtout ed
Ġpred ator
Ġnew bie
Ġk or
Ġassass ins
Ġdepend able
Ġdiab etes
Ġbrit ney
Ġrub s
Ġincom ing
Ġb ou
Ġnum b
Ġbelong ed
Ġesot eric
Ġfl ute
Ġsha wn
Ġmusicians hip
Ġche ering
Ġis bn
Ġpresid ency
al an
Ġcub an
Ġb ip
Ġday time
h um
Ġco ding
Ġhon ored
Ġcampaign s
Ġmurder ing
Ġjerus alem
Ġwater col
Ġww i
Ġmall ory
Ġling ering
p ath
Ġcollaps ed
Ġoppos ites
Ġpenn syl
Ġper cy
Ġun ity
Ġtra it
Ġramp ant
Ġlo dge
j e
Ġcho pping
Ġme ad
au x
h u
Ġspee ches
Ġrad iator
Ġpsych otic
Ġenchant ing
Ġemb od
Ġneop rene
Ġamid st
Ġback side
Ġmer maid
Ġsalv age
Ġpe ppers
Ġent icing
Ġreun ited
Ġto days
ter ed
Ġco aching
Ġdistrib utor
Ġdr ank
Ġca ffe
Ġrhet oric
Ġtab oo
Ġp vc
Ġform ulas
lect ic
Ġcontradict ions
Ġreconc ile
Ġgu ild
Ġkill ings
Ġcolle ague
Ġinc ess
Ġste alth
Ġjam ming
Ġtur k
Ġharr owing
Ġexhaust ive
Ġrich ness
ac ent
Ġscot ch
Ġover board
Ġmet ric
Ġlif eless
Ġpant ry
Ġas her
Ġmess es
Ġmail ing
Ġcass idy
Ġrepublic ans
b eth
Ġinsect s
Ġnir vana
Ġliqu ids
Ġdak ota
Ġkn ox
Ġmas ks
Ġcul min
Ġdeem ed
Ġfarm ers
Ġintellect ually
Ġanalog y
Ġgard ner
Ġdess ert
Ġrun ners
Ġbe ard
p erson
Ġredeem ed
Ġcord ed
Ġlog ically
Ġdowns ides
Ġsplend id
Ġpack ets
Ġthri ve
et r
Ġtennes see
Ġab b
Ġdeep est
Ġju xt
Ġt ipping
Ġo re
Ġal k
Ġdef ensive
Ġident ification
Ġrespect ful
xt on
board s
Ġrepresent ing
Ġrestr icted
Ġris ky
Ġconduct ing
Ġlist ings
Ġarm ies
Ġmanage able
Ġsqu ish
Ġax le
ch em
Ġgener als
Ġvent ilation
Ġelim inating
Ġll oyd
Ġdo a
Ġdisappoint ments
Ġtrack pad
Ġport fol
Ġreg ain
Ġinterp re
Ġphenom ena
Ġp bs
Ġgrad uation
uri ous
Ġsubt ract
Ġblank ets
Ġjuxt ap
Ġhum ility
Ġreg ulator
Ġadvert ises
Ġbun n
Ġthin ly
Ġquot ations
Ġl ounge
an th
Ġb il
Ġbitter ness
Ġpennsyl vania
Ġto by
Ġfact ions
Ġslow ing
Ġs igma
Ġsport ing
Ġhein lein
Ġdon ovan
m aking
ach i
Ġflick s
Ġtack les
Ġsp igen
Ġair line
Ġhom eland
Ġcivil ian
Ġoxy gen
Ġklips ch
Ġpo king
Ġhand ic
Ġjo h
Ġrank ing
Ġsociet al
Ġf athom
ed ge
Ġinv itation
Ġrepet itious
Ġexplos ions
Ġcaricature s
Ġhead l
Ġcomplex ities
Ġintroduct ions
Ġdoub led
Ġtruth fully
Ġcirc ulation
Ġnonexist ent
Ġjill ian
Ġcounse ling
Ġgri ppy
Ġprompt s
v ability
Ġcalcul us
Ġl s
Ġexpl ode
Ġmage llan
Ġmicros d
Ġg alley
Ġtri bal
Ġlifes pan
Ġgra vel
r aine
Ġam used
Ġv ault
Ġcup cakes
Ġsand ing
organ ized
Ġarthrit is
Ġpow ell
Ġb j
Ġhoney moon
Ġinexper ienced
Ġjuda ism
Ġmis fort
Ġchand ler
Ġplumb ing
Ġep id
Ġn ave
Ġeffort less
Ġsuperb ly
Ġrequest ing
ar o
Ġunt ouch
Ġport al
ho le
Ġdisc on
Ġwack y
Ġtyp ed
Ġoper ational
ar io
Ġal ab
Ġcr ick
Ġver a
ss a
Ġmistaken ly
Ġwe lf
Ġtime x
Ġloos ened
Ġastron aut
ames e
Ġe nder
Ġbrother hood
Ġvirt ues
Ġbrew er
Ġlind say
Ġincomp rehensible
Ġsh eds
Ġsin clair
Ġcult iv
or th
Ġlandsc apes
ow ers
Ġsub l
Ġdisgr ace
Ġiron ing
Ġb anned
Ġhe aled
Ġqu oting
Ġsp ind
Ġphilosoph ers
Ġhitch cock
Ġher bert
Ġpalp able
Ġbri g
Ġexperiment ation
Ġtr ance
Ġalge bra
gr ass
Ġfier y
Ġminnes ota
Ġfilter ing
Ġbree zy
Ġskill et
Ġfed ex
Ġab ras
Ġrout ing
Ġregist ration
Ġab c
Ġphotograph ers
Ġdanie ls
Ġel ena
Ġmus hy
Ġobject ion
Ġhug o
Ġclean up
Ġsubt ly
Ġground breaking
Ġchick ens
Ġfitz ger
Ġge off
Ġref ills
Ġsch iz
Ġtrans actions
Ġres ets
Ġcor a
Ġapprent ice
Ġsl icing
Ġgen oc
Ġclass mates
Ġcri mp
Ġreb els
Ġcompr ised
c uts
im ity
Ġaw fully
e ze
Ġow l
Ġphoe be
es a
Ġconsult ing
Ġingen ious
Ġriv als
Ġher m
Ġwe eds
Ġbec ca
Ġprogram mable
Ġclin ic
Ġutens ils
Ġlower ing
Ġinterv als
Ġpsychiat rist
Ġreg ional
Ġrose mary
Ġexhaust ing
Ġr s
Ġbow ie
Ġdirection al
Ġembarrass ment
Ġhoff man
Ġsquee zed
Ġflag s
Ġholl and
Ġg ina
Ġpron unciation
is ive
Ġchuck le
Ġopt ics
Ġintend s
ri ers
Ġoutl aw
Ġz ipped
Ġintu ition
Ġwelf are
Ġd n
Ġmin er
it als
Ġtight s
Ġap oll
Ġtrump et
Ġintros pective
Ġfo d
Ġbank rupt
Ġcontrib uting
Ġher b
Ġpos ters
Ġcrit ically
Ġdiscon cer
app le
Ġdisc arded
Ġprob ability
Ġnut ri
Ġdoub les
ed ing
Ġimmig ration
Ġret ention
Ġpe as
Ġsw apping
Ġs asha
ic o
read ing
Ġtrad er
Ġench anted
e ur
ous ing
Ġbehav ed
Ġcas ino
Ġeliz a
Ġsu ic
Ġnarciss istic
Ġfunction ed
heim er
Ġlim p
Ġlicens ed
Ġrere ading
Ġfin s
Ġpol and
Ġgrays on
Ġgl en
Ġrob bery
Ġli bro
Ġcons ens
Ġprop ane
Ġexpert ly
v o
Ġd izz
Ġmid west
ang les
let te
Ġtitan ium
igm atic
Ġheart broken
Ġcav al
ump y
Ġmap le
Ġexce ls
Ġwash able
ov a
Ġr ans
Ġop rah
Ġform ation
Ġswe ats
Ġproced ural
Ġcoven ant
Ġw ac
Ġpump kin
Ġdol ph
Ġstat ue
Ġf x
Ġcontrib utes
Ġun co
Ġathlet es
w ife
Ġbig gie
Ġleak age
Ġende av
f ill
Ġt ina
Ġbe verage
Ġlif ep
Ġjaw bone
Ġpreced ing
Ġser mon
Ġsho ved
Ġtick ets
Ġpend ant
man y
Ġwol ver
Ġcounterp arts
Ġl umin
Ġfre ight
Ġpilg rim
t or
Ġto kyo
Ġsc ored
Ġtang le
Ġmort ar
Ġy uck
Ġimm une
Ġtim ber
Ġchildren s
Ġwhis key
Ġwholehearted ly
is l
Ġletter ing
Ġanecd otal
Ġplun ger
Ġde pr
Ġforeshad owing
Ġbe a
Ġcur sing
Ġdeb orah
Ġweb cam
w ave
Ġu fo
Ġbri m
Ġeve lyn
Ġbreak through
Ġimpact s
Ġr t
Ġtw ain
Ġclean ers
Ġyouth ful
Ġmar co
Ġer ik
Ġheaven ly
Ġna omi
Ġdri lls
Ġpar ade
Ġadject ives
r ane
Ġh iring
Ġrecy cle
Ġfib ers
Ġe ater
Ġden ver
Ġscar ce
Ġpert inent
Ġsp art
Ġsyn cing
am er
Ġund es
Ġexceed ingly
Ġsacrific ed
Ġfl irt
Ġa is
Ġcon greg
Ġbatch es
Ġst utter
Ġmis inform
Ġske leton
Ġloos er
Ġshe lls
Ġn aming
Ġch ime
Ġutil izing
Ġguide book
Ġch ores
Ġexpress es
Ġpodcast s
Ġobliv ious
Ġsu v
Ġv ow
Ġat kins
Ġblur red
Ġpedest rian
Ġdesp ise
Ġmethod ology
Ġco ff
Ġco dy
Ġdis ability
st ics
Ġes ther
is cover
Ġconvin ces
Ġexch anges
Ġdisconnect ing
Ġsol omon
Ġreper to
Ġcolum ns
Ġf ug
Ġall ied
Ġmelod rama
Ġfar ming
Ġstri pping
Ġtrop ical
Ġfr ying
Ġmaster pieces
Ġnail ed
Ġcraw ling
ur ai
Ġplum ber
Ġdr ool
Ġproport ion
Ġinex cus
Ġtrigg ered
Ġscr ut
Ġwise ly
Ġcor pse
Ġinteract ing
Ġfright ened
Ġwilling ly
Ġtrib ulations
Ġimagin able
Ġmet ro
rid ge
Ġaggrav ation
Ġhed ge
Ġthurs day
Ġbull ies
Ġsizz ling
Ġs ly
Ġkn ots
Ġbro dy
u per
Ġch en
Ġvis ibility
Ġdoor step
Ġuninstall ed
Ġm ik
Ġh bo
Ġmin ut
Ġz ack
Ġtab lo
Ġcl a
Ġreli ance
Ġprejud ices
Ġrecount ing
Ġexplod ed
Ġmurder ous
Ġcartoon ish
Ġtib et
at ized
Ġg pu
Ġbe ige
arr ow
Ġring ing
Ġfr ay
Ġmechanism s
ced es
Ġclean ly
Ġdelight fully
Ġchampions hip
Ġsubl ime
c ount
Ġin quis
Ġg ist
Ġep ox
Ġbreath less
Ġread just
Ġtrans pl
Ġzepp elin
Ġt arn
Ġservice able
Ġperipher al
ce nds
Ġpresent ations
Ġstre ams
Ġlog s
Ġcerem ony
Ġte ase
Ġrun away
Ġmar red
Ġann ab
Ġpleas ures
ot ive
Ġel igible
Ġfrag ments
ir ation
Ġdec oration
Ġinvest ors
Ġlifep roof
Ġl ament
Ġassoci ates
Ġill ogical
Ġec lectic
Ġp aren
Ġb isc
il ia
Ġins pected
Ġcrit i
i ates
Ġcounterfe it
Ġsh an
Ġpupp ies
Ġu bi
Ġch ili
Ġr uff
Ġback ups
Ġrem od
Ġsw amp
fess ional
Ġstre aks
Ġc em
Ġsound bar
Ġfitzger ald
Ġsat in
Ġsuperfl uous
Ġfing ert
Ġfear less
Ġtw ee
Ġuns us
bu ild
Ġreperto ire
it is
Ġcl ap
Ġdr u
Ġfool s
Ġtil ted
Ġillumin ated
Ġcroch et
Ġinstall er
Ġinfinite ly
Ġprolong ed
Ġchel sea
1 5
Ġinter ven
Ġmin eral
Ġcontem por
c ont
Ġri bs
Ġsharp ened
Ġen igmatic
Ġvi king
ud ging
Ġconf ined
Ġkath leen
Ġfl am
Ġblo ated
Ġpo ets
Ġobser ver
Ġrestrict ions
Ġrec ap
Ġbloss om
Ġsky e
Ġman ic
Ġar oma
Ġir reg
Ġq a
ent ing
at us
Ġj bl
Ġbec ky
vers ion
ract ive
Ġstead ily
Ġretract able
Ġsevent ies
Ġhyster ical
Ġsampl ing
Ġshir ley
Ġno va
Ġred o
Ġboyfriend s
il ated
Ġsp otted
Ġcl aws
Ġsim pson
Ġcogn itive
Ġha ph
Ġst are
Ġnot eworthy
Ġlur king
Ġbon nie
Ġhom er
sc ent
Ġrid ic
Ġc res
Ġpen elope
Ġchron icle
Ġbackl it
Ġsteven s
t im
Ġun balanced
Ġinstall s
Ġsn appy
Ġuns afe
us al
Ġscor p
Ġsub way
Ġmis con
3 2
Ġpos ed
Ġser en
Ġthink ers
Ġintegr ate
ood oo
Ġdis dain
Ġbinoc ulars
Ġex ile
Ġphys ic
Ġhend rix
Ġre usable
Ġdisp ro
Ġrig orous
Ġo val
Ġconne lly
Ġguard ians
Ġli a
Ġgreen e
Ġlaure l
Ġrechar ging
Ġxx l
Ġthere in
Ġcons p
Ġunreason able
Ġre order
i ere
Ġi c
Ġben ed
Ġmcc art
Ġhaph az
Ġa j
Ġevo ke
ab by
Ġass orted
Ġdist aste
Ġmen ace
Ġsam urai
Ġair flow
Ġdivid ers
Ġt ester
Ġal z
Ġkle in
Ġt roll
Ġcr umb
Ġblind ly
Ġbread th
Ġequal izer
Ġpump ed
Ġrebo oting
re ally
Ġcons ol
in ters
Ġdesp icable
Ġstraight en
Ġstrain er
Ġkar ma
Ġhind u
Ġren owned
Ġinsign ific
Ġcra ve
Ġmand atory
Ġpean uts
Ġfl ing
Ġmar a
Ġbare foot
Ġhy m
est on
aus s
Ġoverpower ing
Ġari a
Ġsh un
Ġverb at
Ġv atic
Ġexist ential
Ġparan oia
Ġiv ory
Ġor acle
Ġenthusiast s
Ġri ot
Ġdisc ard
Ġne v
Ġpriest s
Ġtiff any
app ointed
Ġstat istical
Ġtempt ing
Ġarch e
Ġconf essions
Ġcelebr ated
Ġcust ody
Ġscr aping
Ġtre acher
Ġergonom ics
Ġcl ad
Ġbright est
Ġcondition ing
Ġlor i
m r
p al
Ġc ured
Ġacqu ainted
Ġbrick s
Ġalleged ly
Ġextraord inarily
Ġth ugs
Ġboth ersome
Ġdeft ly
Ġha lt
Ġkink s
Ġop aque
Ġpear ls
Ġst agger
ib i
Ġillustr ator
Ġn ab
Ġcol t
Ġcol ton
Ġsed uction
Ġcosm ic
Ġcare y
Ġgrat itude
Ġpaper weight
Ġrev ival
Ġm amm
Ġesc ort
Ġalab ama
Ġbody guard
Ġinqu iry
Ġcom mod
l ore
Ġsocial ist
Ġfav ors
Ġinher ently
Ġr ows
Ġend urance
Ġunsuccess ful
em on
ab out
Ġnat ives
Ġadvoc ates
Ġman iac
g irl
Ġim pending
Ġt rench
Ġb ff
Ġsil ky
Ġfundament als
Ġgen ie
Ġgem ma
Ġparad igm
Ġirresist ible
Ġhalog en
Ġequ als
Ġb ick
Ġv p
Ġfear ful
Ġlind sey
Ġf ow
Ġdre mel
form ed
Ġecho es
Ġequ ality
Ġjudgment al
Ġtan ner
at ri
Ġgl ide
Ġvirt u
Ġdis asters
Ġpain st
Ġp im
Ġintros pect
Ġwas tes
Ġshr oud
Ġdess erts
Ġconc ur
Ġlow es
Ġdisconcer ting
p it
ig ious
Ġman or
Ġmisle ad
Ġcock y
Ġtim ers
Ġbank ing
Ġhall uc
Ġpat rol
Ġdetract ed
Ġgross ly
Ġvatic an
Ġth ou
Ġjoy s
Ġenvelop es
Ġsin atra
Ġhold en
Ġgentle men
ed ed
Ġbo ils
Ġgod zilla
Ġsh aping
Ġas ter
Ġverbat im
Ġp avement
Ġsadden ed
Ġmail s
Ġdocument aries
Ġpainst aking
Ġwh ol
Ġv ita
Ġhoo ps
Ġwann abe
er gy
Ġappe aled
tw o
Ġtens ions
Ġreiss ue
Ġm az
Ġext remes
Ġch ills
Ġun box
Ġhall mark
Ġto pp
st ring
Ġjeff rey
Ġecst atic
Ġv oodoo
Ġbl anks
oth e
Ġresc ues
Ġsubm arine
Ġshelter ed
u pt
Ġgy psy
oph ren
Ġcl umps
Ġko h
Ġjac obs
Ġconvent ions
Ġca esar
m all
Ġho ot
Ġfound ations
Ġmattress es
Ġpan cakes
f c
Ġwed nes
Ġcad dy
g us
Ġcoinc ident
Ġth ai
Ġor b
Ġenc ry
Ġapp ar
Ġshort ened
Ġsquee zing
Ġflore nce
Ġsh edding
Ġlo gged
Ġra f
Ġlie uten
Ġd arts
Ġshe en
Ġinsp ires
Ġintimid ating
Ġj vc
Ġdecl ined
Ġreform ed
Ġbak ery
Ġar sen
Ġneg l
Ġsuspic ions
Ġtr is
Ġaur ora
Ġin ane
Ġch ad
Ġun ob
or ated
Ġmy ers
Ġdev on
Ġc ate
Ġhall way
Ġdemonstr ating
Ġjog ging
Ġdream y
Ġr ains
Ġgener ously
Ġimpecc able
Ġident ifies
Ġgospe ls
Ġschiz ophren
Ġcondem n
Ġens l
Ġalcohol ism
Ġext ensions
Ġexp iration
Ġspot ty
cept ible
Ġe ighth
Ġcont am
Ġwid owed
Ġcry ptic
Ġlate x
Ġlab s
Ġcast s
Ġcowboy s
Ġsepar ates
erson al
Ġsub mission
Ġcut ters
op es
uct ions
Ġsa pp
Ġbre eds
Ġbless ings
Ġfoll ower
Ġmo bs
wh o
Ġunpro fessional
ul sion
qu et
Ġprogress ively
Ġlo om
Ġbre ville
Ġbra ided
Ġper ceptions
Ġc ot
Ġforb id
Ġprox imity
Ġy up
Ġpin n
iffer ent
Ġn ero
Ġqu its
c ity
Ġl ark
f un
Ġbelie vability
Ġass ets
Ġbump y
Ġdiscour aged
Ġapoll o
Ġwork around
og y
Ġcold er
Ġapolog ies
Ġbestse ller
se ction
Ġbus hing
Ġcoco a
Ġli ll
Ġk al
Ġsumm aries
Ġrebo oted
Ġhack ing
Ġcraw ford
Ġroast ed
Ġdeb ated
Ġcritic ized
Ġdetermin ing
Ġbrain w
Ġmac s
Ġrepair ing
Ġmascul ine
Ġthe olog
Ġf onts
le ased
Ġreb ate
Ġspec ulative
Ġjud ges
po ken
pect ing
Ġwes ley
Ġactress es
Ġresur rect
Ġtink er
Ġlibert ies
Ġdunge on
Ġk am
Ġfre eman
Ġprop osition
Ġply wood
Ġstock ing
Ġgrad ual
Ġbutter flies
Ġtreat ise
Ġfoot steps
Ġfundamental ist
ch ain
Ġpre con
Ġcur ren
Ġunc om
Ġcourt ney
Ġpit iful
Ġdiver gent
Ġem an
Ġdre ary
reat ed
Ġcourt room
Ġch ased
ail and
Ġbond ing
Ġinexplic able
Ġan om
Ġgu iding
Ġx mas
Ġcass andra
Ġhott est
Ġd io
pe ak
Ġgrad y
Ġpret t
Ġdu el
Ġus s
Ġw er
Ġven ue
Ġcheer le
Ġth ailand
Ġinf at
Ġinf ilt
Ġperpet r
d an
Ġnote books
Ġline up
Ġrest arted
Ġtrad ed
Ġaub rey
Ġfin ances
m ade
Ġb ax
Ġde us
Ġv ows
Ġincorpor ates
Ġimprison ed
Ġre nov
Ġmon etary
Ġplatform s
Ġunatt ractive
Ġsch m
ul u
Ġwait ress
Ġpunch ed
Ġmour ning
Ġurg ency
o ly
Ġcon ner
Ġking ston
Ġrob bed
Ġemer ged
yl ie
re qu
Ġho pping
Ġmail box
Ġbull ied
Ġmouth s
Ġdistur b
Ġimmers ion
ms on
Ġdoubt ful
Ġprom otes
Ġc af
Ġal ison
Ġsub par
Ġharri et
head s
Ġsw ir
Ġcomed ies
Ġenthr alling
Ġpot ent
Ġm ast
Ġgrand pa
Ġconce al
Ġdep ut
Ġrefer encing
Ġfore front
Ġbond ed
Ġplay able
Ġton i
Ġret ains
Ġhay den
Ġmess iah
Ġfresh ly
des p
Ġamus ement
Ġout set
Ġhope lessly
Ġdism al
Ġannoy ances
ant ically
Ġcat alogue
b et
ad ium
Ġkat y
Ġcomp ost
Ġide ally
Ġmet rop
Ġge ographic
ro ads
Ġde hy
Ġkent ucky
Ġcomp il
Ġje opard
Ġs ip
Ġbo bb
Ġportfol io
Ġremind ers
prod uct
Ġcounsel or
Ġm au
ch i
Ġrep osition
Ġgre et
Ġdiffer ing
Ġconver ting
Ġauth ored
Ġunt o
Ġken ny
Ġheadlight s
pe g
Ġcr umbs
Ġta o
Ġdanie lle
Ġm ating
Ġin co
Ġkey words
Ġgang ster
Ġt ails
Ġh ick
Ġmar ital
Ġhate ful
Ġmas quer
Ġpast ed
om ination
ul ent
Ġpu rif
Ġangst y
Ġgh etto
Ġpossess es
Ġfran co
ic ion
Ġalex is
Ġanti qu
Ġuncomfort ably
Ġbl aze
Ġstress es
Ġunderstand ably
Ġimport ed
Ġsimpl est
Ġkitt ens
w arm
Ġdrown ed
Ġserge ant
n ity
Ġmold ing
Ġfab rics
Ġpit falls
n ice
Ġse m
Ġrock ers
Ġt ether
Ġc us
Ġapp ointment
Ġconvincing ly
Ġcataly st
Ġpl oy
Ġsm iles
Ġjo anna
wo ven
desp ite
w arning
Ġcl am
Ġcommitt ee
Ġs aus
Ġde cks
Ġp all
con nect
Ġfr ayed
Ġcon co
Ġcell o
Ġcirc a
Ġpud dle
Ġs ap
Ġor bit
ood le
Ġjud ith
Ġdeter gent
Ġfal con
Ġp att
ad os
Ġpos ing
Ġstar ving
Ġvers ed
Ġb itten
Ġte asp
Ġnot ified
Ġpres ume
Ġstraw berry
bor ne
Ġhas h
Ġprogram mers
Ġtre y
sh ot
Ġproclaim ed
Ġtar p
Ġunpack ed
am y
Ġstumb ling
Ġkh an
Ġo asis
Ġu mm
Ġgr ape
Ġembr aced
Ġdiff user
Ġwhirl wind
Ġreplac es
Ġrich ards
Ġalar ming
Ġanton io
Ġsham eless
Ġk ung
Ġinform s
Ġkap lan
Ġh ord
Ġsophom ore
Ġd art
Ġd we
Ġcl ive
Ġdistinct ly
Ġstrength en
id th
the ast
Ġfac ets
Ġcad ence
y les
Ġcan e
Ġsand er
i w
as ps
Ġteen y
Ġdeb bie
Ġclog s
Ġcalib rate
bir ds
Ġye ast
Ġjew els
Ġban al
Ġcar ab
Ġconcept ual
Ġble m
Ġag ony
Ġglor ia
Ġdyn asty
Ġv ienna
A I
E M
en h
Ġre att
Ġden on
AI L
EM AIL
Ġsales man
Ġlow e
Ġsam my
Ġdowngr ade
Ġsc oring
Ġseason ing
Ġanaly zing
Ġscrub bing
Ġi ced
oc ation
Ġbandw idth
Ġfor ay
Ġqu asi
Ġinter woven
Ġthe or
th ia
Ġde pt
Ġwednes day
az ed
Ġfel ix
Ġconfeder ate
qu eness
Ġintrospect ion
Ġpass ions
Ġmature d
Ġangu ish
Ġup sc
Ġannoy s
Ġrene e
Ġzeal and
Ġsque ak
Ġfeed ers
Ġcontin ual
Ġincompat ible
et ical
Ġavail ability
Ġheart ily
Ġbat hing
Ġappro ve
Ġassert ions
Ġunem ploy
Ġus ps
Ġnew man
Ġmis ch
Ġprefer ably
Ġpossess ive
Ġt apped
Ġsleep y
Ġcaps ule
Ġgr aves
Ġself less
Ġinterpret ed
Ġspa gh
Ġtap est
Ġk ru
Ġsl asher
Ġmot if
Ġd res
Ġlo d
Ġrele gated
Ġsick ness
Ġproduct ivity
Ġexec ute
Ġwals h
ll o
Ġme ats
stand ard
Ġcor ros
Ġste w
Ġsynch ron
Ġepox y
Ġsp ikes
Ġli bby
Ġval idity
Ġfundament ally
at on
Ġper o
Ġpress ures
Ġgu er
Ġon board
Ġreal ised
Ġlock er
Ġprop oses
Ġnol an
Ġv ile
Ġcheap o
Ġsn akes
Ġcham bers
Ġwrest le
Ġbog us
Ġoat meal
Ġm ism
Ġg ulf
ic ial
Ġem m
Ġgive away
Ġtiss ues
Ġbright ly
Ġpast ors
Ġtra itor
Ġe books
8 00
Ġremix es
rench ed
Ġbump ing
Ġnu vi
Ġyear ning
tr usive
Ġfemin ism
ed ia
Ġredes ign
Ġarr ange
Ġoblig ated
Ġinfect ion
Ġsu nd
Ġdin er
Ġovershad owed
Ġbas il
Ġwolver ine
l iness
ic em
Ġk ab
Ġeg reg
id i
Ġden im
Ġkat rina
Ġit chy
Ġass urance
Ġbern ie
Ġexagger ation
Ġli ken
ach ron
Ġsl r
Ġteles cope
Ġexor c
Ġemb ar
ip se
ult ural
Ġcoun ters
Ġconsist ing
Ġwrink led
Ġi ck
Ġle ar
Ġwand ers
Ġj umbled
Ġpred omin
Ġspl inter
Ġanth em
es on
ien e
Ġdam ien
Ġinv ari
Ġtransform ers
Ġpul itzer
Ġlet hal
Ġmach ina
Ġunsus pecting
Ġinsignific ant
Ġm ing
Ġmar ble
Ġinexcus able
Ġar ises
Ġang ie
Ġmor nings
Ġaccess ing
Ġpublic ly
Ġbew ild
Ġsan it
Ġsmud ges
Ġri pp
Ġwin ners
Ġbour ne
Ġjum bo
Ġspagh etti
Ġv om
Ġdial s
Ġim mer
Ġviol a
Ġcarn ival
Ġdan cers
Ġanaly tical
Ġelectric ian
Ġsuspend ed
Ġin ks
Ġle opard
mo b
Ġinv ict
Ġdeduct ed
Ġdo gg
Ġatt ain
Ġwin ston
Ġtrend y
Ġve il
y m
Ġfashion able
Ġp ing
Ġattract s
Ġpat ton
Ġdemocr ats
Ġmic ah
gg ling
Ġbound s
Ġboun ces
Ġh ush
Ġwor ms
Ġdram as
Ġp ci
le ast
Ġcorrect ions
Ġincorpor ating
Ġun pr
Ġgo at
Ġh oop
Ġsk irts
Ġgoo gled
Ġunderwhel ming
Ġfl int
Ġplain ly
Ġpronoun ce
Ġch al
ens ibly
Ġspo ons
Ġrad iation
Ġtur bul
Ġmotiv ational
Ġskew ed
Ġdisappoint s
Ġdisap ointed
Ġclass ify
Ġchang er
p ent
Ġlo gin
Ġcri mson
Ġassign ments
Ġtr oop
Ġrul ing
Ġrebell ious
Ġmeticulous ly
Ġo c
Ġbuff s
Ġaven ue
Ġshowc ases
Ġbar riers
Ġshel by
Ġdu ch
Ġb ess
Ġexce eds
Ġwis cons
Ġrestart ing
Ġan achron
Ġc ree
Ġsans a
ed it
ot ions
Ġiv an
Ġen gr
ush i
Ġrev ise
Ġroller co
cl oth
Ġa ura
rane an
Ġat least
Ġdemon ic
Ġubi qu
z i
Ġha mb
Ġkick er
Ġfolk lore
Ġhul u
Ġdam sel
Ġexplan atory
Ġpupp et
Ġworld ly
Ġresol utions
Ġr aging
ol ar
Ġleg ally
Ġbe vel
ish ly
Ġcalib rated
Ġro be
Ġch unky
Ġt ud
Ġd ac
Ġsh ure
Ġpl ated
Ġlave nder
Ġwh ale
Ġimp osed
Ġisab ella
Ġsp unky
Ġinfant ry
Ġt es
bo at
Ġsoooo o
Ġscoot er
Ġspec ify
Ġview finder
Ġdecor ating
Ġins ur
Ġcann ibal
Ġapt ly
g el
Ġgr otes
Ġter esa
Ġbreak up
Ġcorrespond ence
Ġwork able
Ġcomm uter
Ġg and
Ġshield s
Ġantic lim
Ġquant ities
Ġkindergart en
Ġli zzy
Ġwiscons in
Ġfr inge
Ġimp ract
Ġobject ives
Ġcounterp art
wh ite
Ġp es
Ġmor b
Ġk ibble
Ġnorth west
Ġretail ers
Ġbrist les
Ġlo vel
Ġviv ian
Ġwill is
Ġenam ored
Ġdel ving
Ġindust ries
Ġaven gers
Ġind ifferent
Ġcurs ory
Ġwom ens
Ġsnoo ze
et ly
Ġsex ist
b ly
ote ch
Ġshame ful
Ġsopr ano
Ġcoul ter
Ġbre nt
Ġacclaim ed
Ġcivil ians
Ġplant ing
Ġdup ed
Ġm apping
Ġvoy ager
r ac
Ġpost ure
Ġmis al
ce l
Ġexp os
Ġinf used
Ġsuper market
Ġfire wire
Ġtrust y
Ġblock buster
Ġliter ate
Ġindic ators
Ġdwar f
a ith
ix ed
er ted
Ġw we
Ġwr t
Ġcent re
Ġoccur rence
Ġvan ished
Ġsal ty
Ġmo l
Ġdown town
Ġtick ing
Ġli la
Ġgarn er
Ġstill s
Ġpolic eman
Ġpres ets
Ġ ere
Ġacadem ics
Ġwild e
Ġacc idently
Ġcool est
Ġdeg ener
d ale
Ġk an
Ġsa ud
Ġinfr ared
Ġven us
i per
Ġnur s
Ġearn s
Ġd us
Ġbr yn
Ġrab bits
Ġroyal ty
Ġpepper ed
Ġc orm
Ġuni queness
Ġmadden ing
Ġall ergy
Ġcr amped
Ġadm itting
jo hn
Ġcamp y
Ġpra ises
Ġtroubles ome
Ġc rib
Ġcond o
Ġphilosoph ies
Ġbapt ist
Ġmed al
Ġir ving
Ġeight ies
Ġbre nda
Ġdemand ed
p ace
pl icated
Ġluke warm
Ġcind y
l ah
Ġcowork ers
Ġreinc arnation
Ġb ury
Ġind irect
Ġspin ner
Ġinstrument ation
Ġfiance e
Ġimmer se
in it
Ġab undant
Ġgreat s
Ġfund ing
ill ating
ag en
Ġrecall ed
Ġluc id
Ġtorn ado
Ġar ctic
Ġparam ount
Ġhypoth esis
ut t
ill o
Ġlong s
Ġtr uman
gin a
Ġvi k
Ġfasten ers
Ġf able
it ous
Ġaim s
Ġze lda
Ġwatt age
Ġrenew ed
Ġev olves
Ġfalse ly
Ġsou ps
Ġsc iences
Ġtrad es
Ġtour ists
ol in
Ġfre aks
Ġsoap y
Ġinver ter
Ġcaffe ine
Ġde ed
Ġcool ed
Ġcry pt
Ġdistract ions
Ġextr aneous
Ġunimp ressed
Ġorgan iz
Ġarch ives
Ġblo at
Ġinf requ
Ġunderwhel med
Ġz ipl
Ġrollerco aster
Ġbl aster
Ġro ar
Ġsle nder
Ġuns atisfact
Ġvaugh n
Ġher bal
Ġreact ed
Ġg aim
ig ans
Ġcock tail
Ġadren aline
x x
se nd
Ġpar as
Ġtransl ates
Ġg ren
Ġconsist ed
Ġrecre ate
Ġab n
Ġif fy
Ġgu ine
Ġmu ll
Ġunc ont
Ġflir ting
Ġlieuten ant
Ġdis ill
Ġma ver
Ġhop kins
Ġind uced
Ġfellow ship
Ġembr acing
Ġprover b
Ġag ric
ss on
Ġpro fic
Ġner dy
Ġmuff in
Ġf ated
oc ity
b t
z ers
Ġtent h
Ġgang s
Ġh ark
Ġside walk
Ġelev ation
Ġpurp orted
Ġris king
Ġju icing
Ġdistr ust
Ġe ure
Ġgenoc ide
Ġb ows
Ġnic o
Ġrec lus
Ġsp iders
Ġn ada
Ġpun ished
Ġkiss ed
Ġobser ving
Ġreim bur
Ġinfid elity
Ġmesmer izing
Ġt c
Ġste ele
Ġproofread ing
Ġtai wan
Ġbec u
Ġmult ip
Ġfr onts
Ġhyd ro
Ġsett les
r ations
Ġover used
Ġadjust s
Ġden ou
Ġemphas ized
c ups
at i
Ġr ita
Ġtriumph s
Ġtant al
Ġfa q
Ġprep oster
Ġrot ated
Ġsie ge
Ġon ions
Ġgraph s
Ġthink er
Ġsty list
Ġpredecess ors
Ġopp ression
Ġte al
Ġz im
Ġkey chain
Ġsle uth
Ġcul inary
Ġsill iness
st age
Ġcl ipping
Ġd ahl
Ġrec laim
Ġrive ted
Ġcyn thia
Ġdiv ider
Ġrasp berry
Ġde arly
ace y
Ġdisp ute
f ound
Ġse ctor
Ġnur ses
Ġun original
Ġlol a
Ġassert ion
br and
Ġmur ky
Ġexplo itation
um ing
Ġsp enser
Ġleg isl
Ġc ite
Ġhaw ai
Ġox o
v il
Ġthe od
Ġjo king
Ġdisill usion
Ġas in
Ġform id
Ġmid i
Ġfer r
Ġhe ap
Ġinter play
Ġshow down
Ġtack ed
Ġcert ific
Ġabras ive
Ġhen ri
Ġeloqu ent
c ap
Ġserious ness
Ġprior ities
Ġrot ates
Ġmalfunction ing
Ġover fl
Ġblind s
Ġamnes ia
Ġimpract ical
Ġqu in
Ġban ner
Ġgour met
it ory
Ġdist illed
Ġo sw
Ġwhere in
Ġstim ulating
Ġp sc
Ġe ph
Ġmiraculous ly
Ġb ian
p read
Ġsw orn
Ġaccess ed
Ġbab e
is se
Ġsc ant
Ġsimilar ity
Ġspeaker phone
Ġunravel ing
Ġmemor ize
Ġquot ation
Ġdres den
Ġtang ible
Ġmccart ney
Ġpen chant
Ġorganiz ational
at ar
Ġnot ches
ol ph
rog en
Ġperce ive
Ġmonum ental
Ġfoss il
Ġsh ap
Ġra e
Ġav iation
Ġdefe ating
Ġcliffh angers
Ġharm less
Ġpartners hip
Ġh il
Ġear ning
Ġipad s
Ġwestern s
Ġspark ling
Ġcrafts man
Ġdo orm
Ġbeast s
Ġgood will
Ġsq l
Ġwides pread
ise x
Ġtempl ates
Ġsort ed
Ġunc anny
Ġpr ud
Ġstr apped
Ġeure ka
Ġk on
Ġcolour s
arth ur
Ġpractition er
Ġbib les
Ġabduct ed
Ġcur b
Ġgoo gling
Ġun not
Ġeye br
Ġow es
i ology
ow a
Ġclim atic
Ġron ald
Ġatlant is
b ard
Ġqu aint
om atic
Ġex pend
Ġdr ones
Ġmar ley
Ġdies el
Ġover use
Ġk ry
Ġdeal ings
Ġempt ying
Ġbund led
Ġt umble
Ġt ummy
Ġg ly
Ġpr ag
Ġsham an
Ġcap itol
Ġo oma
ut z
other ap
Ġn ord
Ġj em
Ġtrag ically
Ġerr one
it as
Ġsa uc
rit ical
Ġen igma
Ġpo lly
Ġinval id
Ġgri zz
Ġwatch able
fr ame
if ically
op ic
Ġbi ases
Ġplant ation
Ġcoach es
Ġfore head
Ġr w
Ġbrand ing
Ġmac donald
Ġpink y
Ġme ld
Ġhd x
Ġo g
Ġautom ob
Ġvitam ins
Ġk ylie
Ġune asy
Ġartic ulation
Ġc oop
Ġdimin ish
Ġbever ly
Ġcon nie
Ġinvest ments
Ġampl ified
Ġfunn ier
ud der
Ġdec lan
Ġjo ker
Ġmach inations
oph one
Ġinsult s
Ġle ans
Ġcar am
Ġelim inates
Ġsummar ized
Ġparam eters
Ġmisfort une
Ġwis er
Ġviet n
Ġsed uctive
Ġoff ices
Ġri po
ention ally
Ġhands ets
Ġbul ge
Ġwoo fer
Ġlam inate
es es
ub a
Ġmet e
Ġdl c
Ġtrack ball
Ġcoffe emaker
s im
gr am
if ully
Ġpin point
Ġdeput y
Ġmission ary
Ġcert ification
Ġcon rad
Ġbl azing
Ġbal ances
Ġrive ts
Ġdistingu ished
Ġbr yson
Ġpinn acle
Ġed ged
Ġreg ulations
Ġexpress ive
Ġmass ach
Ġfuel ed
Ġdiscour se
Ġchlor ine
Ġsty led
Ġtor mented
Ġnight stand
Ġrob otic
Ġsne aking
Ġsurve ill
Ġend anger
Ġwitness ing
Ġi rene
Ġl air
Ġpredict ions
Ġpic nic
Ġdraw string
Ġmer cedes
Ġalex andra
Ġev id
Ġexch anging
Ġcream y
Ġfoll ett
Ġv lad
Ġhar b
Ġacquaint ance
Ġcam bridge
bur gh
Ġspr out
Ġsire n
Ġfil t
Ġheat ers
Ġup front
Ġger ald
Ġrival ry
Ġj ets
Ġsm ug
Ġconst rain
Ġdirect ory
Ġrock ed
in em
Ġleft over
p at
Ġgri lling
Ġbern stein
Ġwrink le
Ġteles cop
Ġvietn amese
Ġwhich ever
oc us
Ġhandle bars
Ġspr ays
Ġflower y
Ġlight ed
Ġfull est
Ġpain less
Ġrehe ars
Ġdanger ously
Ġglor ified
Ġborr owing
Ġl ions
Ġsense less
Ġinvest or
Ġsl it
Ġwarrant ed
Ġinn u
Ġexecut ives
Ġinvari ably
Ġformid able
Ġconve ying
Ġnash ville
Ġfle ming
Ġconclud ing
z an
Ġm ics
Ġch ester
Ġexcell ently
Ġg arr
Ġcran ked
Ġp el
Ġdo ses
Ġpaul a
Ġk w
Ġprest igious
Ġtapest ry
Ġsurveill ance
c omm
Ġp ag
Ġsun k
Ġjag ged
Ġpredict ably
Ġspat ula
Ġcapt ions
Ġmc donald
Ġinter connect
Ġhealth care
Ġconfigur ations
Ġremed ied
Ġres idence
Ġfl atter
Ġcertain ty
Ġste f
Ġcre ase
Ġsp here
Ġval ued
Ġmisspe lled
Ġmar iah
Ġsel ves
k it
Ġk ite
ol ve
am aged
Ġmanufact ures
Ġfu ji
Ġvis cer
Ġlook out
Ġw av
Ġsp and
Ġsystem atic
Ġcore y
Ġgrotes que
Ġer nest
Ġg own
Ġcons oles
Ġnas a
Ġf let
Ġcaro lyn
Ġcontempor aries
Ġd ives
Ġauthor itative
Ġnegative ly
as co
Ġcl aus
Ġpol k
Ġsn oop
Ġund e
Ġgest ures
Ġsubmer ged
Ġnurs ery
Ġm ens
Ġinter rog
Ġmus cular
Ġref usal
Ġwoe fully
Ġw impy
Ġb ail
Ġslipp er
Ġfootnot e
Ġunsatisfact ory
c aster
oo o
Ġel ise
Ġbened ict
Ġto ken
Ġlay la
Ġnickn ame
Ġfor ged
Ġphotograph ic
Ġdesign ated
Ġmechan ically
Ġker ry
Ġced ar
Ġad hd
Ġhum ane
Ġfe y
Ġcharacter ized
ed a
an u
Ġfun nel
Ġjen kins
Ġgt x
ib bles
Ġminut ia
Ġd ts
Ġempt ied
Ġdisadvant age
Ġpenal ty
Ġbr ah
be ck
cons cious
Ġgaim an
Ġlay man
Ġm ummy
Ġun load
Ġtradition ally
Ġrans om
Ġt ig
als a
Ġball ast
Ġoptim ism
Ġarbitr ary
ah an
Ġcarri age
Ġsub standard
Ġmad ly
Ġaid an
Ġart istry
Ġb ins
Ġco x
Ġlim bs
Ġswed en
d in
Ġsp am
Ġprem ises
Ġt aut
Ġde co
Ġsold ered
Ġmystic ism
uset ts
Ġco ke
ink s
Ġshoot ers
Ġcirc uits
Ġinvict a
st ro
Ġok lah
Ġpolar ized
Ġmassach usetts
Ġfl ock
Ġske let
Ġripo ff
Ġinfl ation
Ġhann ibal
Ġvic ar
Ġparr ot
Ġh utch
Ġdi agon
Ġoverwhelming ly
ic ut
Ġv enom
Ġfl aky
Ġsim one
Ġde ment
g ard
i antly
Ġc fl
Ġmil w
Ġund amaged
Ġadvers ity
c ases
Ġoutland ish
or ical
en na
Ġover wr
Ġyour selves
Ġcru z
Ġbudd ha
Ġpreposter ous
n ia
Ġd aph
Ġst unt
Ġrelo ad
Ġpomp ous
nam ents
Ġrep ro
w right
Ġcomm as
Ġres in
cet on
Ġbask ets
Ġcurren cy
s omet
Ġtumb ler
may be
Ġforth coming
with standing
Ġlon er
Ġsuper star
Ġcolle en
Ġkens ington
Ġc t
Ġfl akes
Ġfin es
ne ck
Ġflo ats
Ġcatholic ism
Ġreject s
Ġo min
Ġv ick
Ġost ensibly
u ber
as cript
Ġecl ipse
Ġb p
Ġbre nd
f ight
Ġdi apers
Ġbark er
Ġair play
Ġgal ore
Ġrecept acle
Ġearthqu ake
Ġtr an
Ġsin cer
Ġturk ish
Ġcraz ed
Ġevid enced
ou x
Ġrobb ins
Ġfor ge
Ġboun ced
ick ed
Ġcor p
Ġtoothp aste
Ġst adium
Ġheal er
Ġmo sc
Ġtattoo s
Ġgest ure
Ġpsyched elic
Ġunforg ivable
or i
port ant
Ġf ern
im o
Ġse v
Ġcome back
Ġmemor ial
t ub
hes ion
Ġmilw au
Ġb ung
Ġj asper
Ġcon no
Ġeld est
ou ri
Ġjav ascript
a ven
Ġno on
Ġprin ceton
Ġrab bi
Ġcharism a
Ġl ana
op ened
Ġsm itten
Ġav i
Ġregret ted
Ġign ition
lin er
Ġval erie
Ġdepict ions
Ġsort ing
Ġcrunch y
Ġdifferent iate
Ġmar in
Ġaly ssa
Ġcomput ing
Ġproject ed
Ġchick s
Ġch au
Ġfilmm aker
6 4
ac c
Ġcre ases
Ġmaxim ize
Ġpl uck
Ġred und
Ġinfect ious
Ġhorm ones
Ġwa ver
Ġtraff icking
cell ent
Ġw its
ol o
Ġprom inently
te enth
Ġcho king
Ġsy mmet
Ġemploy s
yn cr
Ġwrench es
Ġt pu
Ġp ike
ous ed
Ġop us
Ġir ons
Ġbud ge
Ġunint entionally
Ġv h
Ġser ena
Ġsim mer
Ġspeed y
Ġoklah oma
b as
Ġnot ation
Ġcomment ing
c as
on gh
Ġcr ud
Ġburn ers
Ġvirgin ity
Ġt et
Ġi zzy
Ġdo lly
Ġj ug
Ġbreak age
Ġmu ck
Ġident ities
Ġjournal ists
Ġrefreshing ly
Ġv ag
ont o
Ġzo ey
Ġmack enzie
Ġall an
Ġlo ren
Ġche ws
Ġdi arr
Ġtermin ator
Ġinc arnation
Ġav ant
Ġcarri ers
Ġch ipping
Ġstri pper
Ġch is
Ġse mit
ell o
Ġdam ages
Ġbaby lon
Ġcompil ations
Ġte aser
Ġsl ats
Ġgen etically
Ġron nie
Ġmilwau kee
er man
Ġbe ater
Ġmotiv ate
Ġfrag rance
Ġf is
Ġg us
Ġrid ges
Ġdeb ates
Ġmc m
Ġc bs
Ġhipp ie
Ġfloor ing
Ġoblig atory
Ġod ors
Ġjo di
Ġring er
Ġcuis ine
iment ary
Ġinfer no
Ġathe ists
Ġid ios
Ġunder est
Ġcover t
Ġent angled
Ġdiv a
Ġwac om
Ġlevel ing
ak in
Ġdec als
Ġkenn eth
u ght
Ġw itt
us c
Ġgr un
Ġuncondition al
Ġp on
Ġch ir
Ġperf ume
Ġsens ibilities
Ġadmir al
m ount
Ġboast s
ild a
par able
Ġfaith fully
Ġcave ats
t aste
Ġq id
Ġfar ms
Ġmod ules
Ġipod s
Ġt br
Ġco bra
Ġpier cing
Ġprostit ution
Ġbecu ase
Ġmoon light
Ġelli ott
Ġco ded
Ġpur ity
Ġidios yncr
Ġtermin als
Ġhandle bar
Ġsqu at
Ġscient ifically
Ġflu ore
Ġtract or
Ġundergrad uate
Ġc au
Ġcr ab
Ġbreed ing
Ġcalc ulated
Ġpredic ament
Ġha ley
Ġunivers ally
Ġexp ort
ind ing
Ġshred ding
Ġdisassemb led
Ġro pes
Ġdele ting
bl ings
Ġmis led
Ġintrig ues
Ġloving ly
Ġresemb ling
Ġes ch
Ġfurn ace
Ġthr ash
Ġrel ieve
Ġst a
Ġrif les
Ġdivers ion
Ġbootle g
Ġstup idly
Ġrow an
Ġpe ck
Ġst ash
Ġyork er
Ġlun a
Ġosw ald
Ġmad eline
Ġpersu asion
Ġre ins
Ġneed lessly
Ġkeep ers
Ġthri ft
Ġnom inated
Ġfore see
Ġwr y
Ġeth n
Ġpractition ers
Ġl ust
Ġas ics
pl ed
Ġtouch y
Ġwe aver
Ġf ussy
Ġd ental
Ġsub conscious
Ġgeomet ry
Ġsab rina
Ġsubd ued
Ġbax ter
Ġm ma
Ġn ig
Ġsh aken
aur us
Ġcin ch
Ġevo kes
Ġme ll
Ġnot withstanding
Ġsm ashing
Ġdece ived
ak a
Ġboot ed
Ġalex and
Ġcandid ates
Ġab bre
Ġrec ie
Ġro am
retch ed
Ġexplo it
Ġabbre vi
r ons
Ġcorrect ing
Ġmoist uri
Ġclaud ia
Ġconstrain ts
Ġaf icion
Ġtrue ly
Ġproud ly
d id
Ġv ale
bi as
est ruct
Ġfr antic
Ġdiarr hea
Ġt ainted
Ġcit ations
ow itz
Ġbi kin
Ġmagn ification
Ġse iko
li ers
Ġmetaphys ical
Ġun sy
Ġhur ried
Ġpen et
Ġj p
Ġcon se
Ġrecip ient
Ġher c
ol itan
Ġinv o
Ġtick s
Ġremaster ing
c in
Ġcripp led
f illed
Ġf ats
Ġwr ang
Ġed m
Ġfried man
Ġgood ies
Ġsuccess ion
Ġgle e
ass is
Ġem my
Ġut ah
Ġdomin ance
Ġree ves
Ġpersever ance
ows ki
Ġcent ric
Ġtrash ed
Ġpr ism
im ov
Ġwe ir
Ġno bel
t em
ex cellent
Ġinterview ing
Ġdeclar ation
Ġfingert ips
Ġf ries
ound s
ay a
Ġex asper
Ġgri pped
Ġfire works
Ġsmo ked
ab ble
Ġem i
Ġpol ishing
Ġland on
Ġlux urious
Ġwobb les
Ġkir by
vel and
Ġind estruct
Ġbri en
Ġf erg
Ġsymb olic
Ġgill ian
Ġresort ed
Ġother world
Ġmother hood
Ġbath tub
Ġcup cake
l ite
Ġre te
Ġdum bed
Ġmult im
Ġshock ingly
Ġrhod es
Ġlo athing
Ġcontrast s
Ġshout ing
Ġchar med
Ġdiscri mination
h ome
Ġsl ate
Ġind isp
Ġk au
Ġem o
Ġgold berg
Ġdel ays
Ġke e
Ġarc s
Ġdisl od
g one
Ġpl astics
Ġsick ening
Ġnathan iel
Ġdif fers
play ed
Ġep iph
Ġsens ibility
Ġsand ers
Ġjab ra
Ġspand ex
Ġb ard
Ġsymph onies
Ġegreg ious
Ġpat ent
Ġresc uing
Ġle ery
Ġinvestig ated
Ġinconsist ency
Ġresent ment
Ġchron ology
Ġalk aline
Ġwas t
Ġte asing
Ġju an
Ġlink ing
Ġneed y
Ġindul ge
Ġcl ones
Ġpunch ing
Ġsanct uary
Ġk ier
Ġcar men
Ġcontract s
Ġste via
Ġsustain able
Ġmathem atic
Ġagon izing
Ġoper ative
Ġdemonstr ation
Ġbehavior al
Ġadj acent
Ġrep ent
Ġoccup y
Ġirreg ular
Ġmosc ow
Ġhay es
Ġeleg ance
Ġlot ion
Ġheaven s
Ġwithd raw
Ġillustr ating
Ġsaf ari
Ġr ally
Ġmach o
Ġa us
Ġcr ing
Ġrem n
Ġu g
Ġbro om
Ġhouse keeper
Ġwaff les
Ġspac ers
Ġcarr ot
Ġspind le
v ac
w er
ell ed
Ġjon as
Ġpa j
ete enth
Ġf dr
Ġver bs
Ġinit i
Ġforward ing
Ġbun gee
Ġolymp ic
Ġratt les
Ġjum per
own ess
Ġdr m
Ġdem ol
ino is
Ġrecru it
Ġmood s
Ġd itt
Ġevil s
Ġmc l
Ġtele v
Ġlum ber
Ġbl ush
Ġdaw son
Ġen r
Ġinf user
Ġconsider ations
Ġkidn ap
Ġshort est
Ġkay la
Ġi cy
ke es
Ġmo ons
Ġshred s
Ġpenn ies
Ġselect ive
Ġcem et
ag ne
Ġun ful
Ġcle veland
Ġspl ur
Ġrein forcement
Ġsp iel
Ġhun ts
Ġunf l
Ġcors et
Ġvis itor
Ġgas oline
Ġstyl istic
Ġch atter
Ġeven ings
Ġdenou ement
Ġcar roll
Ġsk id
Ġto pped
Ġmed s
Ġsmell y
Ġmob ility
Ġintr usive
Ġsk ies
Ġger ber
Ġcelebr ating
r ange
Ġl itt
Ġnet her
Ġfreak in
Ġst iffer
Ġcoff in
al ds
Ġaltern ates
Ġice land
Ġt j
Ġmin es
Ġdisp ense
Ġvo iced
Ġl ans
Ġdri fting
Ġshort age
Ġcath ed
Ġgarden er
Ġrecall s
Ġrepe ll
Ġbip olar
Ġaudio books
Ġr ants
ins ky
Ġnin eteenth
Ġmuff ins
inite ly
Ġv ader
Ġmon te
gr aph
Ġboy d
Ġrich es
Ġgro ve
Ġheadl amp
Ġc ort
Ġorphan ed
Ġmak ita
Ġq ur
Ġmar ion
Ġbehav ing
Ġouts iders
Ġdowngr aded
Ġg im
le ys
Ġcy mb
Ġwed dings
Ġdent ist
Ġm ister
Ġun just
Ġcur vy
Ġcontrast ing
Ġwhodun it
Ġre arr
Ġco c
Ġh ull
Ġfr ail
Ġri fe
Ġexp enses
Ġdie hard
Ġabsurd ity
m ich
Ġfant astically
er un
Ġbefriend s
Ġb pa
Ġbe ams
am as
Ġport land
Ġtor o
Ġhind er
Ġwa aa
Ġpyram id
Ġpl u
Ġman son
Ġfar ce
Ġstri ving
Ġagree ing
Ġvo icem
Ġmon a
Ġobliv ion
Ġread ability
Ġrh ino
Ġeurope ans
Ġent ities
Ġdem ographic
str ings
in c
Ġvari ables
Ġparticip ation
Ġconce aled
Ġo bey
Ġfe aring
Ġshort en
Ġpale tte
Ġdaph ne
Ġem ber
Ġden ise
Ġred iscover
Ġr aining
Ġtact ic
u ki
Ġadd ison
lo ved
Ġdigit ally
Ġer ased
ape l
Ġouts our
Ġspe ars
Ġbad ge
Ġtap ing
Ġkim ber
Ġsocial ism
Ġisab elle
Ġth res
co on
Ġcaram el
Ġgen etics
co at
Ġcorros ion
Ġel ton
Ġmanip ulating
y o
Ġjo ck
Ġz ion
Ġsher man
Ġcemet ery
Ġf ah
Ġm w
Ġst agn
Ġeg ot
Ġscand alous
Ġvibr ations
Ġadvis or
Ġcustom izable
Ġshark s
Ġhead lines
Ġbra un
Ġmisspe llings
Ġst ard
Ġher os
Ġun think
Ġfail ings
Ġg ould
Ġbe le
st en
Ġtarget ing
Ġd t
he it
Ġamb ass
Ġas imov
Ġor well
Ġcoll ide
cl ub
Ġloo ses
Ġs as
mo der
Ġabandon ment
pt ical
Ġsandwich es
s burg
Ġirrit ate
Ġr ite
Ġadd end
Ġoverhe at
am ine
im en
Ġmo les
Ġman ly
Ġpres erved
Ġcontrad iction
w ash
Ġwh ipped
Ġover flow
Ġslo pp
am ents
Ġblue print
Ġradio head
Ġjazz y
Ġk v
Ġbrace lets
Ġreceipt s
Ġrelent lessly
Ġunsy mpath
Ġin gest
Ġcl asps
Ġsp acious
und ers
Ġground ing
Ġfilt ration
ass ing
Ġwell ness
Ġmatter ed
a ways
Ġis p
Ġtick ed
Ġwart ime
ri ll
Ġal icia
Ġve iled
Ġmac y
Ġblood ed
Ġgrad ers
Ġnick s
Ġreact s
bl own
Ġunle ashed
h ist
Ġch ute
Ġrequ is
Ġdism ayed
Ġn iet
Ġbelong ing
n els
Ġcomm its
Ġdev otes
Ġcontr apt
Ġburst s
Ġi owa
Ġg ta
Ġsale m
Ġmim ic
Ġret ained
Ġnag ging
Ġprow ess
ish ment
Ġapp al
Ġph p
Ġtele path
Ġens uring
im ated
Ġreprod uced
Ġsl anted
Ġcath y
Ġc iting
Ġlo bby
abs olute
ot ected
Ġafter taste
Ġcalcul ations
Ġreinstall ing
Ġp its
Ġgr umpy
Ġho key
app ings
Ġwatercol or
Ġb ats
Ġv ouch
Ġlove able
Ġunre leased
Ġreprod uce
Ġvap id
j v
ur als
ol as
Ġju ices
Ġtant rum
Ġj in
Ġsa uces
Ġpay ed
Ġmeg ap
te xt
Ġban anas
Ġvolunte ers
Ġcor in
Ġpar aly
Ġloos ening
Ġun n
Ġcel ia
Ġp int
Ġtrick ed
w es
Ġdo able
Ġbaff ling
h irt
h onest
Ġpaus es
Ġcla ude
Ġdis sect
Ġfacil itate
Ġviscer al
Ġr apper
Ġsupp ress
Ġdu vet
Ġp av
Ġmagn itude
Ġsc oo
Ġpal atable
Ġcushion ed
Ġmatthe ws
Ġconcept ion
Ġsand paper
Ġsatell ites
Ġregg ae
Ġa ided
Ġtri angles
Ġarch aic
Ġc ay
Ġre aper
Ġget ty
Ġgr ail
Ġduch ess
Ġg on
Ġre use
Ġr app
st ant
Ġher rings
ach t
Ġse ating
o pp
ren ces
Ġcher ish
Ġgu ise
Ġind uction
Ġvol at
Ġaccompan iment
Ġnewcom er
Ġslim mer
Ġwa h
Ġconfron ts
d ly
Ġl akes
Ġkir a
Ġk ant
Ġsu lt
Ġpurch asers
Ġgab by
or ient
Ġen co
Ġind ef
Ġmon str
Ġattract ions
Ġrest less
Ġborder ing
Ġpersu ade
a gh
Ġre ds
Ġcow ard
dis cl
Ġunsympath etic
Ġpe ars
ipp y
c ano
se x
arch ing
ah o
Ġmurder ers
s aw
Ġf ad
Ġwill s
Ġbill ions
Ġaward ed
Ġd dr
Ġn ub
Ġy ikes
Ġshort cuts
Ġlot tery
Ġrepl ica
Ġgir ly
Ġresource ful
Ġins ip
Ġmist y
Ġpat ty
Ġinsist ence
Ġunder go
Ġlum en
Ġrins ed
Ġf ift
Ġter r
Ġmed iter
Ġx en
Ġskept icism
Ġrevol ve
Ġstep mother
c ube
Ġqu o
Ġdism ant
th ouse
Ġson os
Ġremo ver
Ġamb itions
Ġcatastroph ic
Ġlars on
Ġphotograph ed
if es
ne g
Ġoper as
h arm
Ġsle w
Ġadmir ably
Ġcl ut
Ġkh z
Ġhypocr isy
Ġher man
Ġcam s
Ġmac arthur
Ġp f
Ġso vere
Ġsc rib
Ġspan ning
Ġgig aby
Ġcray ons
Ġret ina
Ġspl its
Ġlaunch ing
Ġpreview s
Ġreform at
Ġf ates
Ġz ig
qu ar
Ġfl oss
z s
Ġb inge
Ġse mb
Ġref lex
Ġham ster
Ġorphan age
Ġepid emic
Ġthres hold
Ġc ows
Ġin line
Ġapp ointed
Ġhead rest
Ġner f
Ġfr aying
Ġcr ook
Ġmc d
Ġram blings
Ġsuperhero es
Ġv ind
Ġmiss ouri
Ġmen acing
Ġindic ative
Ġhaw kins
Ġas ides
qu ette
Ġreflect or
Ġstabil ization
Ġinco herent
Ġrepresent atives
Ġtack ling
Ġspaces hip
Ġallev iate
Ġp ont
Ġmind ful
Ġunco vers
Ġt ents
Ġliber ation
Ġdus k
Ġsp oof
Ġshut down
Ġt ah
Ġche vy
mo nds
Ġvent ures
Ġscar p
Ġgro cer
Ġhub s
Ġapolog ized
Ġunim portant
Ġresol ving
Ġproverb ial
Ġomin ous
se at
Ġprot oty
Ġtax i
Ġc ues
Ġnor se
Ġdeploy ed
Ġen abling
Ġpe aks
Ġlisten able
Ġmich el
av ier
Ġshow ers
as ia
Ġy ak
ri p
Ġexagger ating
Ġshri mp
Ġaccus ations
Ġabs ol
Ġadv ancing
Ġmedio cr
Ġdecl are
ann ers
Ġpil es
Ġkoh ler
Ġdis organized
Ġnon stop
Ġluc ifer
Ġun appe
Ġunkn owing
Ġk ur
upd ated
p oon
Ġgraph ically
n i
Ġc aine
Ġam en
Ġbri ggs
Ġdom ination
Ġbackpack s
Ġnin th
Ġb umbling
Ġer as
Ġill inois
Ġkend all
Ġacquaint ances
Ġr ookie
Ġbed side
Ġbm w
Ġalz heimer
Ġha cks
il ah
do es
Ġfictional ized
Ġcolon ies
is ers
Ġinc arn
Ġflood ed
Ġappreci ates
Ġarch ie
Ġw ren
ro lled
Ġwrong ly
Ġtight ness
Ġmil o
Ġdispar ate
Ġw age
Ġlot r
Ġsnow y
Ġtransport ing
Ġplay lists
Ġjoy ful
Ġskill ful
d ish
Ġsol ace
Ġmand y
Ġdecre ased
Ġarsen al
Ġunappe aling
Ġdev out
Ġdelic iously
Ġfierce ly
Ġsaud i
il ers
Ġsp ons
Ġfire arms
Ġaspir ations
Ġfut ures
b ased
p ical
Ġreel ing
s ions
Ġc um
Ġp v
Ġserv ings
Ġmah ler
Ġrapt ure
Ġsaus age
Ġdef y
Ġrot or
Ġhel ena
Ġinsult ed
ound ing
Ġben ny
Ġsmart phones
Ġjer em
Ġgut ter
Ġneuro s
Ġno s
Ġcrank ing
Ġcomp li
Ġfound ers
Ġenh ances
it on
Ġfluore scent
Ġwh ome
Ġguard ed
Ġmit ig
Ġchar ley
Ġit ch
Ġverb ose
Ġear pieces
Ġinvestig ators
Ġmonolog ues
Ġimag ing
ef fer
Ġcircum ference
Ġexhib its
Ġto b
unt u
id ian
Ġpay ne
Ġsettle ment
Ġv u
Ġfl ake
Ġdeser ted
Ġinc ub
Ġtri pping
ci um
Ġinv oice
Ġghost ly
Ġpam ela
Ġbrun o
o que
Ġrh ys
Ġsprink ler
Ġbet sy
Ġhol t
Ġtransform ing
Ġdis eng
Ġk ub
Ġem ulate
Ġsuper v
Ġbill board
Ġmi ri
Ġaffil iated
Ġinsip id
Ġj ensen
Ġpl ent
Ġms i
rin th
nd as
Ġfl ora
Ġdal ton
Ġthe s
ere al
Ġcorrect ness
Ġtrust worthy
Ġachie ves
ob ic
Ġoverwhel m
Ġhun ky
Ġsuperior ity
Ġover blown
Ġdu plex
c ter
Ġha il
Ġtim id
Ġnarr ating
Ġpark ed
Ġdeform ed
Ġch assis
Ġamaz ons
er b
Ġde ple
Ġautom otive
Ġr x
Ġcl unk
Ġbehav es
Ġcarpet ed
Ġabd uction
ic ating
Ġpl ains
Ġrad ius
Ġcontradict s
Ġwhol esome
Ġinfl icted
Ġtum ult
moder n
Ġun ve
Ġprec aut
Ġfod der
Ġbur rough
Ġstink y
c ents
Ġm n
Ġsand erson
ens itive
Ġad verse
Ġfred die
Ġdegr ad
tim ore
Ġmegap ix
ock s
Ġadopt ive
be lls
Ġactiv ist
Ġconfir ms
Ġviol ently
Ġoffs pring
Ġglam orous
Ġalt itude
Ġunpr otected
ud a
Ġshort coming
Ġfill ers
Ġhack er
Ġse ep
Ġasp ire
Ġfe as
Ġsp aring
Ġbre v
Ġlab y
Ġwhirl pool
Ġbig ot
Ġcheer ful
Ġsh aker
Ġeric a
Ġimplement ing
Ġott oman
Ġpl ow
Ġaud acity
Ġweb b
Ġvill ian
Ġdock ed
Ġappend ices
Ġinc l
Ġbal timore
Ġcrack ling
Ġembroider y
Ġconsens us
Ġed c
Ġfol io
Ġsams on
Ġit ching
Ġcard inal
Ġhend erson
Ġfact ion
Ġtransl uc
b ler
id en
Ġcro cs
Ġmediter ranean
Ġkath ryn
Ġcons ent
Ġthird ly
Ġbrief case
Ġhood ie
Ġexc lam
Ġgri lls
Ġblue grass
Ġjud as
Ġbass ist
Ġflu ent
Ġpap a
Ġminer als
Ġlaby rinth
Ġmon keys
Ġdavid son
Ġmal t
Ġantagon ists
Ġbr am
Ġemail ing
Ġsecret ive
Ġsouth west
Ġunivers ities
Ġeag les
Ġadd icting
Ġfre aked
Ġo missions
Ġepit ome
i ably
Ġco ils
Ġhier archy
Ġaddend um
Ġh f
Ġf erv
Ġune arth
Ġg az
Ġturt les
Ġwhome ver
Ġqu ent
Ġph ony
Ġmis use
Ġint ending
Ġpo pper
Ġpresum ed
walk er
Ġcolle ges
Ġpretend s
Ġthunder bolt
Ġprofit able
Ġclutter ed
Ġn ba
c ards
r oth
Ġdement ia
Ġcr ass
Ġsk ins
Ġpsych ologically
Ġhast ily
Ġal a
Ġchild s
h ou
Ġgar cia
Ġdim ming
Ġso b
Ġmaster mind
Ġcaution ary
Ġappreh ensive
g able
Ġh unch
Ġm ow
Ġn oun
Ġmck in
i ri
Ġmicro phones
Ġdav ies
Ġvill ages
Ġcuri ously
Ġvi ii
Ġhom opho
Ġprim al
Ġtender ness
ih il
Ġuntr ue
u ations
Ġy um
l en
in stall
Ġtun nels
Ġblur bs
Ġloc ke
Ġright fully
Ġsus ceptible
d re
Ġc app
ab it
Ġendeav ors
qu al
Ġori g
Ġpurp orts
Ġis le
Ġdo pe
Ġself ie
Ġcivil izations
Ġcourts hip
Ġverb ally
Ġathe ism
Ġbrazil ian
Ġpertain ing
ann i
Ġvap or
Ġsincer ity
Ġp als
Ġe f
Ġaddict s
Ġn arn
Ġins om
honest ly
Ġover arching
Ġwater y
oc cup
Ġscor ching
Ġp da
ic ates
ut o
Ġmet als
Ġelli ptical
Ġf w
ph is
Ġbott led
Ġsoft ness
Ġfingern ail
Ġc p
Ġcrit ters
Ġfate ful
Ġa ph
Ġfort ress
ga e
ruct ure
Ġfreder ick
Ġmediocr ity
Ġus d
Ġvene er
Ġsc our
sp ot
Ġdict ate
Ġdelus ional
Ġswims uit
Ġgr anny
Ġaccompan ies
omet ers
Ġcler k
Ġmisrepres ent
Ġst ump
Ġrad ically
Ġobtain ing
Ġgrid dle
Ġper imeter
Ġjohn s
zz les
Ġconstruct ive
Ġlaws uit
Ġdeploy ment
Ġcongrat ulations
Ġre ef
id ad
ising ly
Ġho dge
Ġaqu a
Ġdisrespect ful
uc ated
Ġpreserv ation
Ġtrav esty
Ġtr amp
Ġlo gging
Ġaer os
Ġa ime
Ġins ides
Ġstep father
Ġsens ing
Ġcart on
Ġdiag nostic
Ġposs essions
Ġnon stick
Ġbulk ier
Ġgrac ie
Ġri pe
Ġbar rett
Ġanim ations
Ġhyp oc
Ġbrev ity
Ġmem phis
Ġbill ie
Ġt aps
Ġhead board
Ġink jet
Ġjer ks
Ġdevast ation
Ġnev ada
Ġd ic
Ġl ds
Ġrevol ving
Ġrud imentary
Ġsiri us
Ġgrun ge
Ġri ft
Ġarch es
Ġalleg ory
Ġcatastroph e
Ġover tones
Ġlos ers
Ġcollaps es
Ġm unch
Ġmult ic
hol ster
Ġcomprom ising
Ġrins ing
Ġg ret
Ġr ah
Ġpl ato
Ġdecor ations
Ġanticlim actic
Ġgr ates
Ġcol oss
Ġrepe ater
Ġtang ents
Ġscarp etta
Ġdoorm at
Ġappal ach
Ġhing ed
Ġvig or
Ġpersec ution
Ġse p
Ġson ny
Ġtun a
Ġmedic ations
Ġhe ire
Ġball oons
Ġextr av
Ġins in
Ġver mont
Ġwy oming
Ġprem iere
Ġmad dy
Ġwh oles
ich e
Ġrechar ged
Ġprostit utes
Ġrequis ite
Ġc ages
Ġst am
Ġper ch
pe l
Ġheart less
Ġneg ativity
Ġtar ant
Ġfift ies
Ġfo e
Ġchron ologically
sp ace
Ġd as
Ġfr oth
Ġdon ated
Ġmin a
Ġpop ul
Ġhy de
Ġclich s
Ġp ess
Ġg ul
Ġacknowled ging
r p
Ġdescend ants
4 00
ph oto
Ġprom o
am orph
ie nd
Ġout going
Ġcell ular
t ically
Ġp yle
Ġtail or
Ġrem y
Ġben net
Ġmort gage
Ġanalog ies
Ġkara jan
Ġint imately
Ġmer lin
Ġweb bing
Ġhighland er
Ġindestruct ible
Ġcam ille
Ġguine a
Ġcut esy
Ġeld ers
Ġchains aw
Ġscr aped
Ġdad s
Ġce ased
Ġrust ing
Ġcomed ian
Ġvegg ie
Ġheire ss
Ġref rain
Ġacqu is
Ġsemb lance
s he
Ġp om
Ġsee ker
Ġel it
Ġsnag ged
Ġunimagin ative
Ġlag s
Ġinsec urity
Ġscuff ed
Ġplent iful
Ġmet ab
Ġexpand able
Ġcop ious
Ġinstruct ors
Ġhawai ian
Ġha ze
Ġelev ate
cus sions
Ġuns ur
Ġshe a
Ġth irt
Ġdis heart
po st
Ġselfish ness
Ġo zzy
Ġple x
Ġplus es
Ġbreast fe
Ġphil harm
Ġtun ers
Ġremed ies
o ft
Ġweb page
icien cies
Ġg iz
Ġinc entive
Ġass im
Ġtas ked
Ġairpl anes
Ġthem atic
Ġmu y
Ġinter we
Ġsol itary
Ġclock wise
Ġparticip ating
Ġweld ing
Ġtaper ed
Ġper vas
ma ids
str om
Ġdilemm as
Ġfl es
build ing
Ġmil ton
Ġre kind
Ġv oting
pl us
Ġprob able
Ġdel ilah
Ġpour s
Ġcher ished
Ġind igen
Ġsit com
Ġer ud
Ġou ch
Ġmorb id
Ġtransluc ent
er ning
Ġcrack ers
Ġrecollect ions
Ġsh udder
Ġscript ed
Ġinh ib
Ġflee ing
l um
Ġconscious ly
Ġlifest yles
Ġdecor ated
Ġcraz iness
Ġmillenn ium
Ġsch w
Ġmotiv ating
Ġshadow y
Ġspont aneous
Ġst aged
Ġeli jah
Ġspe ar
Ġpurch aser
Ġgar g
Ġcapt ion
Ġtwe aks
Ġneur otic
Ġn ed
Ġinteract ed
Ġdefault s
spo iler
Ġmisinform ation
Ġclap ton
Ġgood kind
Ġnew found
Ġrepl ies
Ġadv ises
Ġs alsa
Ġm owing
Ġfore cast
in ence
Ġinter sect
Ġfac et
Ġfri lls
Ġprosper ity
Ġstr ick
Ġqual ms
Ġsne aky
Ġrebo ots
Ġtil ting
Ġsurpass ed
op ian
Ġage ndas
s or
Ġped ometer
Ġimmort ality
Ġw u
Ġsp ouses
Ġcor al
st oy
Ġfre el
Ġbang ed
Ġslo an
Ġponder ing
Ġjuliet te
Ġobed ience
Ġis t
Ġr angers
Ġcal cium
Ġorph ans
Ġunre c
Ġaccomplish es
Ġsophistic ation
k t
Ġpl ural
Ġtrans cript
er ves
Ġho gan
Ġcur led
Ġbeat rice
Ġnic est
Ġbook mark
Ġed its
Ġwel sh
Ġmid range
Ġarch ive
Ġadvertis ements
Ġastron omy
Ġv ise
ili ary
Ġexplod ing
Ġsp ades
Ġshr unk
ad y
Ġab y
Ġcontrib utors
Ġbian ca
Ġmach ined
Ġpaper white
Ġmar low
Ġfunction ally
Ġschem ing
Ġfos cam
Ġindigen ous
Ġlight ening
Ġgener ates
oles ter
Ġfert il
Ġdegrad ation
Ġdo cs
Ġcur ling
Ġch olester
Ġqu ibbles
Ġgl uing
Ġteasp oon
nd ale
Ġsa ul
Ġpatri arch
pe ople
Ġhis pan
Ġper mit
Ġfree way
kn own
Ġinter ludes
Ġscreen writer
Ġarm chair
Ġwash y
Ġpi qued
Ġshe lley
Ġvel ocity
Ġroomm ates
Ġsent iments
Ġgimm icky
Ġdisc erning
an igans
Ġocc ass
Ġsyn ced
Ġpers ian
Ġc oo
on ia
Ġinter val
Ġreg urg
Ġred irect
Ġq t
Ġimproper ly
Ġt z
Ġha le
Ġab uses
Ġkru ps
Ġsur g
Ġcriti ques
d am
Ġha h
st een
Ġlo is
Ġph ases
Ġbar oque
Ġslap stick
Ġwhat not
Ġma ud
Ġevap or
Ġcertific ate
Ġcholester ol
ar ried
Ġtech s
Ġdig its
Ġacadem ia
Ġvoicem ail
Ġsp anking
Ġhead ings
Ġur ges
Ġlitter ed
in ery
ie u
Ġall usions
Ġun quest
Ġhann a
Ġsucc umb
id as
Ġaw ry
Ġmcc oy
Ġhaun ts
Ġaux iliary
Ġinfr ast
os cope
Ġfor rest
Ġaccum ulated
ll ie
qu ality
Ġgr acious
Ġcount down
Ġwhis pers
Ġub untu
Ġne far
Ġvol cano
ar ia
Ġact uality
Ġmon ks
Ġmag enta
Ġbrief s
b ia
en o
ie v
Ġfore word
Ġver n
Ġrot ary
Ġmyth os
Ġregister ing
Ġcho pper
Ġrelax ation
Ġmonstr ous
Ġencounter ing
Ġom nis
Ġbever ages
Ġal p
Ġout break
Ġinv aded
ih u
Ġunhe ard
Ġfac ult
Ġinclus ive
ar is
Ġco z
Ġmiss ile
Ġmushroom s
Ġcalc ulate
b ility
n c
Ġal m
Ġtransform s
Ġmut ant
al g
Ġtri pped
Ġprefer able
Ġunden iably
Ġcuff s
ant on
Ġtw itch
Ġevan ovich
Ġfe nd
Ġl uster
Ġr aph
Ġav atar
Ġmad ame
Ġrefres her
ien ne
Ġscro lls
Ġshort ed
Ġast ute
Ġgod father
Ġinterfer es
Ġh eter
Ġf als
Ġg aze
Ġdef ies
Ġber ries
Ġtail ored
Ġgle aned
Ġmicros cope
Ġv oted
Ġc ss
Ġari el
Ġnefar ious
Ġg unk
Ġsp ock
Ġambig uity
Ġnewcom ers
Ġv as
Ġmir a
Ġobject ivity
Ġoccur rences
o bi
Ġm ab
ou p
Ġpe ggy
Ġplot lines
Ġdar th
Ġadvance ment
Ġmonop oly
Ġmus ter
Ġwish y
Ġdel ved
Ġur l
Ġinstit utional
iv ism
Ġper cept
ans on
Ġpan cake
Ġbikin i
Ġso aring
Ġsun rise
Ġrum or
Ġnarn ia
Ġdemocr at
Ġfines se
Ġst amps
Ġpalestin ian
Ġrest oring
Ġuns upp
Ġros en
l ay
Ġb ane
Ġgo ings
Ġtravel ogue
Ġneighborhood s
Ġfles hing
Ġbook er
Ġsc orn
Ġuntouch ed
Ġj ing
Ġvill agers
Ġrestr aint
Ġrect ify
Ġingen uity
Ġsapp hire
Ġcool s
Ġtrust s
Ġslo ane
Ġye arly
Ġtrad ers
Ġdrink er
Ġp oof
Ġadministr ator
Ġspl atter
Ġgr is
Ġstar red
Ġban jo
Ġsnaps hot
Ġuninsp iring
Ġout age
Ġswall owed
Ġbur gers
Ġfresh ness
our t
Ġcont our
Ġdown er
Ġcomm issions
Ġbegin ing
Ġham let
Ġaggress ion
Ġquint ess
h amm
Ġpower fully
Ġbur ger
bre aker
Ġpersist ence
Ġmel ts
Ġkingdom s
Ġrel ive
Ġext inction
Ġcare gi
Ġter rier
Ġinit iated
Ġbill ing
Ġincre ments
Ġpoint y
Ġfac ilities
Ġdevil s
Ġtantal izing
Ġco her
Ġpic oult
Ġconfron ting
Ġp ere
Ġpl aster
Ġferg us
Ġson ata
ge nder
Ġover cl
Ġsk ating
Ġf aye
Ġadul tery
Ġlend ing
Ġinterfer ing
g al
Ġs if
ack ing
ls en
Ġportug ues
Ġp j
Ġsk imp
d ens
Ġh one
Ġsh abby
Ġspo kes
Ġfrost ing
u i
Ġper l
Ġburrough s
Ġach illes
Ġyan kee
Ġsim ulation
Ġflor al
Ġlip stick
Ġquent in
er ting
Ġhe pa
Ġrob bie
Ġempt or
bir th
e enth
Ġbo ggling
Ġdem os
Ġpra ising
Ġshen anigans
b read
os a
Ġtri pe
Ġpredict ability
Ġrick y
Ġsew ed
Ġdazz ling
s er
Ġsque aky
Ġwon ky
Ġa rose
Ġw retched
Ġche ats
Ġunw itting
Ġy ada
Ġv and
Ġpil ates
Ġconcent rates
Ġgran ite
Ġhazard ous
Ġnutri ents
ig ator
Ġmon ty
Ġarchitect ural
Ġreconcil iation
Ġgu i
Ġdec on
Ġreg istry
Ġhmm mm
Ġpoor er
Ġvo ip
Ġrepl icate
mm ing
Ġgig abit
Ġj k
Ġind ist
Ġey ep
Ġinsert ion
Ġpsychiat ric
Ġmc s
Ġblind ed
Ġexhib ited
Ġpersu asive
Ġration ale
li hood
Ġaccom od
Ġscrut iny
Ġto bias
Ġinfl amm
Ġemb oss
op er
Ġcommand ing
Ġmcc ull
Ġmercen ary
Ġsm iled
Ġbatter ed
Ġrock in
Ġsharp ie
Ġrand all
Ġreasse mb
Ġbu chan
Ġsl ime
Ġcr ows
Ġmedium s
Ġparticip ated
Ġpoison ing
Ġpoison ed
b lock
d os
ol ia
Ġdiscl ose
Ġsnor ke
Ġcomp ulsive
az er
Ġsupp orters
Ġdep rec
Ġpor ce
Ġdef iantly
od us
Ġquick books
Ġass erts
Ġameric as
Ġring o
Ġmart ian
Ġcait lin
th or
Ġrhythm ic
Ġsophom oric
Ġpr ai
Ġed ible
Ġreper cussions
Ġastro logy
Ġexp on
Ġmult if
Ġglam our
Ġrac er
Ġed ith
Ġkind les
Ġfut ile
Ġauto f
Ġk os
Ġk az
Ġcar ved
Ġkel sey
Ġwor sh
Ġaby ss
Ġc aves
ver ts
Ġpan or
Ġgap ing
Ġprincess es
cur rent
Ġg ats
Ġcl air
Ġce ase
Ġintric acies
Ġv or
Ġno ct
ens able
Ġreform ation
Ġapproach able
Ġspark ly
Ġgriff ith
Ġovert ly
Ġcommend able
Ġcon ject
Ġfl aming
Ġpost modern
Ġbread s
Ġeu ph
Ġwal es
Ġperpet ual
Ġg ol
Ġu f
Ġsuic idal
em en
Ġins ure
Ġunpack ing
Ġr umble
Ġcur ly
Ġtrain ers
Ġzoom ing
Ġportugues e
Ġsquee gee
Ġblast ing
ut ical
Ġch ero
ry s
ass ic
Ġscre amed
Ġmis fit
Ġtransl ating
Ġski ing
Ġedm und
Ġeduc ator
Ġbear able
Ġco h
Ġnat asha
Ġdeterm ines
Ġmouth ed
Ġsemin al
Ġfract ured
Ġl icks
Ġap ath
Ġopinion ated
Ġditt o
u ously
Ġe e
Ġbl as
iat ric
Ġsabot age
Ġg ush
ab re
Ġac ute
Ġdr ab
wes tern
lud ing
Ġweird ly
Ġsquish y
Ġl m
Ġmon arch
Ġfoot bed
Ġirre ver
t ably
ver n
Ġcontem plate
Ġvib rating
Ġlac ie
Ġfiref ox
Ġcelest e
Ġcarab iner
Ġmaver ick
av ia
Ġser mons
ic ular
Ġall uded
Ġv ance
Ġfo b
Ġnet ting
Ġcyl ind
Ġporce lain
Ġw yn
Ġros a
Ġimpro vis
Ġmarsh mall
Ġdownload able
Ġdiss atisfact
Ġsimpl ify
Ġadapt ations
Ġfrig id
Ġsh re
Ġcare t
Ġcloth s
Ġcas ters
mich ael
Ġc uc
Ġninet een
Ġtud or
1 4
Ġsett lers
Ġsoundtrack s
Ġcal ming
Ġll c
Ġgle an
Ġat om
ci er
Ġrecru ited
Ġpool s
Ġexh ilar
Ġsoci ology
Ġtink ering
Ġenvision ed
Ġbren nan
Ġconvict ions
Ġgetty sburg
Ġv all
ol ent
Ġtri pp
Ġgen es
Ġendorse ment
Ġcompli ant
Ġinvestig ates
Ġresil ient
Ġjournal istic
Ġmant ra
Ġunn amed
Ġr ained
Ġcreat ively
Ġscript ural
Ġpier re
Ġredes igned
Ġcl uster
Ġword ed
Ġteen aged
Ġsid ney
Ġgask ets
Ġlibert arian
Ġdix ie
Ġthirt ies
b ut
Ġdec ad
Ġstool s
Ġp elic
Ġro aring
Ġreg isters
Ġens ures
Ġpo inters
Ġret ri
Ġgame cube
Ġreg ulation
Ġsax on
Ġcuss ler
Ġcost a
Ġoh m
Ġmill ie
Ġshut tle
Ġhamb ur
Ġsh rew
Ġimp ed
Ġdict ator
u ard
Ġs ienna
Ġqu iz
Ġbr ash
Ġgrasp ing
Ġunscrew ed
Ġand ers
ot le
Ġk m
Ġthought fully
Ġach ing
Ġunw ield
Ġattend s
Ġloath e
Ġuned ucated
Ġbet roth
Ġri ms
Ġsol itude
Ġhus ky
Ġdiet ary
Ġfingern ails
Ġmisal igned
i ks
Ġtop ical
Ġcare free
Ġmc n
Ġinfrast ructure
Ġun opened
Ġbom ber
Ġeleph ants
Ġrot ors
Ġtraum atized
Ġl ps
Ġpe bble
Ġut most
Ġlou isa
Ġcaptiv ate
Ġpre lude
he ets
Ġdiss appointed
Ġsweat ers
Ġdarn ed
Ġreson ated
Ġexper imented
Ġma o
Ġbump ers
Ġkar ate
Ġpistol s
Ġgood man
afe e
Ġaston ished
Ġdo oms
Ġbo one
Ġput ty
Ġsy ll
Ġfur ry
Ġunde veloped
Ġdog ma
Ġbur gl
ok o
Ġindisp ensable
Ġgats by
Ġhe ist
Ġex odus
Ġinstrument als
Ġarab s
Ġcalcul ating
Ġgl ac
im eters
Ġran ked
Ġboun cy
Ġup holster
Ġblack out
Ġn pr
Ġthr ones
Ġent ice
Ġlearn er
Ġanaly ses
p re
Ġc asc
Ġwe is
Ġdis orient
Ġobject ively
Ġch ihu
Ġlight en
Ġcur ry
Ġsp ade
Ġsumm it
Ġcolumb us
Ġsp raw
Ġem inem
Ġsuccess or
min ate
Ġdel aney
Ġelement al
ze ch
Ġoverc ame
Ġcr umbling
Ġdep ri
Ġdirect v
Ġaltern ately
Ġgod ly
Ġlap se
Ġnause ating
Ġhosp itals
Ġplay ground
Ġillness es
st art
Ġsho pped
h c
h orse
Ġo ster
st ones
Ġdes ol
Ġturbul ent
Ġfast ened
Ġsof ia
Ġpr atch
Ġvacuum ed
Ġchihu ah
Ġc ache
Ġab ridged
Ġunfort un
Ġgo b
Ġprot e
Ġang lo
Ġsupr ised
Ġve ts
Ġmild ew
Ġreh ashing
Ġadoles cence
Ġambass ador
hamm ad
w orm
on ation
ort ex
Ġpart ying
Ġres ides
Ġ 3
Ġthe ra
ut ic
Ġbestse lling
Ġgull ible
Ġsqu arely
Ġchamber lain
Ġrect angle
Ġbry ce
Ġwr ought
Ġcomb os
Ġcy an
Ġpin ched
Ġstap ler
Ġubiqu itous
m us
Ġpre occup
Ġgig gle
Ġparen th
Ġp iping
Ġresol ves
Ġlem ons
Ġflet cher
Ġhead quar
Ġprep aid
Ġsp ared
Ġunrec ogn
Ġhere in
und y
Ġgrace ful
Ġpurs ues
Ġinsist ing
Ġglitch y
a ires
Ġleft overs
Ġbreak ers
Ġdet ox
Ġaud ition
ik ov
Ġcit rus
Ġcapital ist
th at
Ġchap man
Ġsuper vision
Ġpupp ets
a uthor
ol or
Ġwi per
Ġniet zs
Ġgree ks
Ġper u
Ġv ot
Ġear ring
Ġmas ked
Ġpig eon
Ġoverwr ought
Ġsupp er
Ġquil ting
m int
Ġx avier
z one
Ġpe ac
Ġrush es
Ġrid dle
Ġfis cher
i am
Ġs ard
Ġyet i
Ġconstant ine
Ġhi jack
Ġcoc aine
Ġpervas ive
Ġover th
Ġimp ulsive
Ġeth ereal
Ġstack s
Ġst acy
Ġout gr
Ġfrustr ate
Ġfamil ial
Ġn ast
Ġsm udge
Ġintimid ated
Ġma is
Ġnight ly
Ġhero ism
Ġcrus ade
Ġl ense
Ġst ature
Ġat op
Ġpleas urable
Ġboo gie
Ġsens ory
hh h
Ġuniform ly
Ġm dr
Ġto x
ent imes
Ġint ex
Ġgra ft
Ġun play
act or
Ġfirst hand
Ġbol ster
Ġgee ky
Ġpell et
Ġwalt z
Ġforward s
Ġsporad ically
Ġaime e
m ie
Ġse af
Ġno el
Ġtim elines
orm ally
Ġed ging
Ġser rated
Ġfamily s
Ġlocal es
Ġfav ored
ar c
ar cer
Ġinc arcer
Ġx ander
Ġnarr ates
Ġg io
Ġinv inci
Ġmot el
Ġfict itious
Ġpremature ly
Ġreappe ar
Ġas c
Ġal gae
Ġchat ting
Ġh ik
os o
Ġem blem
Ġamaz e
Ġdegr aded
Ġnot icable
Ġcar bo
Ġdepart ments
Ġdunge ons
Ġknuck le
Ġjerem iah
Ġun eth
Ġro c
ke eping
Ġdisc rete
Ġinfl atable
Ġeval uating
Ġsome place
Ġim min
Ġabandon ing
Ġdun n
Ġinvent or
Ġw m
Ġstr um
Ġunthink able
Ġspr ung
Ġtheore tically
Ġincess ant
in ator
y x
ul ators
Ġpres erving
Ġnight time
Ġabsor ption
Ġsev enty
Ġpl aus
Ġsupp liers
Ġmar vin
Ġprov iders
bb les
Ġmim i
Ġnietzs che
Ġg id
Ġcom r
Ġpill ars
Ġram sey
n om
r ust
Ġep ist
Ġoft entimes
Ġstagger ing
Ġst int
Ġab ol
Ġdissatisfact ion
w arts
ap so
uff s
Ġsat irical
Ġcigaret tes
Ġand i
Ġst if
Ġsw ore
Ġchrist y
Ġgener osity
Ġrag ged
h orn
Ġst ow
Ġas per
Ġsw itzer
Ġall uring
Ġreson ance
Ġdwar ves
Ġpess im
Ġcros by
Ġdecon struct
Ġhe als
Ġpo pp
Ġest a
Ġmal one
Ġinvent ions
Ġdissap ointment
haw k
Ġexclam ation
Ġbench mark
re ci
Ġhack ney
Ġunplay able
Ġdet est
Ġcame os
Ġtal ib
Ġast h
Ġped antic
Ġf umes
Ġfl own
Ġhol istic
Ġlab elled
Ġpal ms
Ġprest o
Ġsh t
Ġstr ut
Ġeug en
Ġcontrapt ion
Ġretri ever
Ġp ip
ar in
ro red
Ġdis abilities
Ġgene alog
Ġpurif ier
Ġe ch
Ġsay ings
Ġide ological
Ġconfus es
Ġsand ed
Ġrh apso
ann ie
br al
Ġdecl ares
Ġinterf aces
c ets
Ġab el
Ġbrend an
ar ious
est one
Ġtw ink
do x
Ġsed uced
Ġwe ep
Ġsw ayed
bal ance
Ġc zech
Ġor nament
Ġblog spot
Ġhig gins
ren heit
Ġsal on
Ġstiff ness
Ġautof ocus
Ġstr auss
Ġtwe aked
Ġall ot
Ġsand s
Ġd agger
Ġme ghan
em a
Ġhost s
Ġacqu iring
Ġarab ia
Ġforest s
Ġplag iar
Ġharmon ica
Ġp act
Ġn udge
Ġpres ently
Ġmust ard
Ġdissap ointing
Ġspiel berg
Ġexpans ive
Ġcr ises
Ġsal ads
Ġpred ators
Ġtranspl ant
Ġbick ering
ish able
Ġbarb ar
y stem
ag ram
Ġdelight s
Ġcrow ds
Ġsupp orter
Ġcontin ental
Ġpull man
ors hip
Ġunw ra
Ġempower ing
Ġre pt
Ġwe aved
Ġskept ic
Ġseg reg
Ġho d
Ġrever b
Ġdill on
Ġb h
ke ep
Ġinform al
bu y
ight ly
Ġhel per
Ġblink s
Ġb az
az on
s ad
orig inally
Ġcrick et
Ġwho a
Ġgl ock
Ġsoft ly
Ġseason al
Ġque ue
Ġfau cets
Ġsme ar
Ġdir k
it ates
Ġset ups
Ġsin ful
Ġcast ro
Ġinit iate
Ġuncont roll
i ations
Ġpe a
Ġlike lihood
Ġstream lined
Ġgromm ets
ich o
Ġfam ed
Ġpet ro
Ġland mark
Ġtrave lled
Ġawaken ed
spo ilers
Ġdr ugged
Ġfa erie
Ġinse am
Ġreson ates
Ġunder dog
Ġcritic izing
Ġpratch ett
Ġopp ressive
spe ople
Ġshar ply
Ġobject ions
Ġmatt ie
Ġdiscol oration
Ġpre f
Ġmag ick
Ġrhy ming
Ġnb c
Ġthe e
Ġre plete
Ġy ale
Ġrefuge es
Ġconse cut
Ġi dy
Ġb enson
Ġmo ph
Ġstri pe
Ġcapital ize
Ġrebuild ing
g il
p resso
Ġel aine
Ġlear nt
Ġmultim edia
Ġre app
Ġle vers
Ġgr app
Ġrant ing
Ġunder tones
Ġgener ating
Ġx ml
Ġcos met
Ġspac er
Ġh m
Ġeloqu ently
Ġs ord
Ġsch u
Ġskin ned
Ġrenew al
Ġgrizz ly
Ġwh ir
ac ci
Ġsn y
Ġcommun icated
Ġhyp n
Ġd ings
Ġhead er
Ġunav oid
Ġfah renheit
Ġsc atter
Ġtablo id
Ġloc ale
Ġmac abre
Ġmc afee
Ġdiscipl ines
Ġunbe known
Ġunwield y
Ġinter ject
Ġwid ower
Ġlev ine
Ġalgorith ms
u cc
Ġli ars
Ġde vious
Ġever last
Ġfa ulk
Ġnorm s
j our
n uts
Ġdark ly
Ġcongreg ation
Ġc x
Ġcart el
Ġideal istic
Ġpersu aded
Ġphilipp ines
t ie
Ġt f
en ters
Ġpath os
Ġreven ue
Ġfleet ing
Ġentreprene urs
Ġjust ifies
Ġstr aining
Ġprope lled
Ġrab id
Ġdix on
Ġdec ay
Ġyoung sters
Ġmill en
Ġtaste ful
Ġdecor ate
Ġhis sing
Ġcl ippers
Ġreaders hip
Ġlu cia
Ġinn ate
Ġy or
Ġbart ender
o ony
Ġmo by
Ġs es
Ġj aim
Ġey el
Ġq i
Ġconver ts
Ġgee ks
Ġenlist ed
Ġannab elle
Ġtumult uous
Ġrid ley
Ġanecd ote
ant z
Ġpl iable
Ġsteep ed
Ġch ast
Ġdesp ised
Ġdor ian
Ġsemin ar
bour ne
Ġpre co
Ġdeme anor
Ġs is
Ġre vert
ac co
Ġtr acing
Ġacc ol
Ġter ra
Ġro aming
Ġstr ains
Ġve g
Ġfi asco
Ġjac qu
Ġtransp aren
Ġrar ity
Ġgrocer ies
Ġre els
Ġcon fer
Ġdiss ert
Ġdeterior ated
Ġcathed ral
ak ens
Ġsil hou
Ġmac le
Ġdetect s
Ġstabil ize
Ġfeas ible
Ġp um
Ġy ank
Ġdef iciencies
Ġwo nd
Ġwrong s
Ġra unch
Ġstun ts
Ġerr ands
Ġpalest ine
Ġunz ip
Ġbrah ms
Ġam m
Ġsub urb
Ġnor we
Ġeduc ators
Ġunre mark
Ġcro ps
Ġsemin ary
Ġsaw s
rib ution
Ġproceed ings
Ġdict ators
Ġfare well
Ġswitzer land
Ġhackney ed
per ing
Ġmon aster
Ġlaz iness
Ġrec al
urn ed
Ġmer ge
Ġslim y
Ġunp rep
Ġcooper ation
Ġundert aking
Ġorg ans
Ġbet ta
Ġinform ing
Ġbeach es
Ġsatan ic
ol it
Ġfer ry
Ġfisher man
Ġepiph any
ord inate
Ġry e
Ġadop ting
Ġw ally
Ġse ga
Ġso ren
Ġzoom ed
Ġon screen
Ġad a
Ġball istic
Ġimposs ibly
Ġgrav y
Ġcr umble
Ġmg m
Ġprecon ceived
Ġmis fits
Ġarc ane
Ġproph etic
Ġembr aces
Ġmak ings
Ġuneth ical
Ġinter lude
Ġspark ed
e ys
Ġhe idi
Ġex ac
ace utical
Ġbus ter
Ġconqu ered
Ġha pless
Ġleft ist
Ġd ame
Ġn iv
ir us
Ġab using
Ġen act
Ġopt ic
Ġrene g
mob ile
e er
Ġwebs ter
Ġintellig ently
Ġprofic ient
g ame
Ġse iz
Ġpower point
Ġstar vation
Ġx m
Ġgri me
in et
ore x
Ġmach inery
Ġflim s
Ġpreced ed
ne eze
Ġstars hip
Ġtown speople
Ġconserv ation
Ġau i
Ġchero kee
Ġon t
Ġj oss
ul ing
Ġunt ime
Ġlog os
Ġsqu ash
Ġfrag mented
Ġstir red
Ġher d
Ġno zzles
Ġafter word
Ġuns olved
Ġclay ton
st a
Ġhand bag
Ġvis ibly
Ġcy bor
Ġprai rie
Ġho b
Ġsen ate
Ġkell ey
Ġerrone ous
in as
Ġc g
Ġfr itz
Ġav alon
Ġproof s
Ġsight ed
Ġpreco cious
re x
Ġb alk
an aly
Ġfr aser
Ġgr out
Ġty ndale
Ġsn ick
Ġval iant
Ġreact ing
Ġscrap book
Ġma ur
Ġr aved
Ġab er
Ġpharm aceutical
id an
Ġread out
Ġbooks neeze
Ġrestr ained
Ġscuff s
Ġreass uring
Ġdh cp
Ġle h
Ġwater brook
Ġpriv y
Ġchamp agne
Ġinnov ations
Ġsail ors
Ġrestrict ive
Ġprotr uding
Ġamend ment
Ġflatten ed
Ġhand ing
Ġthri ving
Ġtrick le
Ġreprint ed
Ġdistaste ful
Ġf da
ly s
Ġprin ces
Ġf res
as a
om eness
Ġcl ums
Ġho ax
Ġes ata
ap ore
Ġref in
Ġram ps
Ġprincip als
Ġcle ment
Ġbro ch
Ġexplo ited
Ġdn f
Ġbet ting
he av
Ġfrustrating ly
Ġmoph ie
Ġbl ot
Ġamb rose
Ġcance led
ay ers
Ġne c
Ġlean ed
Ġp ardon
ar med
Ġdi atri
Ġanth ologies
Ġdiatri be
n ick
Ġc ary
Ġm are
ri um
Ġad ores
Ġte k
od a
Ġsec ures
Ġsn ail
Ġwheel chair
Ġinstal ment
Ġscree ching
Ġap es
Ġliber ally
Ġlav ish
est ro
Ġab e
Ġdef lect
Ġcommer ce
Ġrecollect ion
Ġh ath
Ġle gged
Ġsp ying
Ġconf ines
Ġut opia
Ġur gent
Ġconstit utional
Ġslam med
Ġgin ny
Ġbloat ware
Ġuntime ly
d n
Ġd unk
Ġch eryl
av ian
Ġrul ers
Ġanthrop ology
Ġw s
Ġw ading
Ġins ensitive
Ġcustom ized
Ġsat urn
Ġclar ification
Ġcondem ned
Ġn asc
Ġun ite
Ġjul ius
Ġkrist in
l ake
on ly
Ġapp oint
Ġsing apore
Ġill usions
Ġmis og
Ġneighb our
Ġclamp ing
Ġflush ed
Ġraph ael
Ġboot ing
Ġchef s
Ġshe ila
Ġac re
Ġmir rored
Ġcore l
ham mer
Ġtint ed
Ġredund ancy
Ġglad well
Ġcarbo hy
h in
Ġlo bs
Ġvir uses
Ġilleg it
Ġdiagn ose
Ġde pl
Ġshe ars
ub stant
Ġcup board
Ġster ile
Ġdisple ased
Ġne ato
ass ed
Ġhypoc ritical
Ġidy ll
Ġinf omer
Ġcoll oqu
Ġear p
Ġquil ts
Ġsord id
Ġwho pping
Ġent w
Ġswe ll
Ġrag s
Ġstorm y
Ġestim ation
Ġsnugg ly
Ġl te
Ġr appers
Ġno bility
Ġsorcer er
et a
Ġunfor giving
Ġpelic an
Ġto k
Ġint ens
ert o
Ġtele graph
off s
Ġuk ule
Ġdiscern ible
Ġgr udge
Ġmis inter
Ġbod ice
u an
Ġmisog yn
Ġdegr ade
Ġy uk
Ġam os
Ġdirect s
Ġperplex ed
tem po
Ġc b
Ġn j
Ġprogress ing
Ġbubb ling
Ġtoast ing
Ġenorm ously
Ġmete or
Ġamaz es
Ġrein vent
ou st
Ġfir ms
j er
Ġt ak
ar u
Ġvac ations
Ġcarn age
Ġunprep ared
Ġd ubl
ig ent
hand ed
Ġs not
Ġluc a
Ġveter in
Ġprescri bed
Ġchee ks
w ig
Ġel bows
Ġcivil ized
Ġhabit at
Ġweld s
Ġinfomer cial
Ġt ull
Ġd andy
ra ve
Ġimm oral
Ġisol ate
Ġstunning ly
Ġhyd ration
Ġprope l
Ġhypnot ic
Ġday dre
Ġwear able
Ġwall ets
w itz
Ġl ured
Ġign ite
Ġescap ades
Ġr j
Ġback seat
Ġfil th
Ġgri lled
Ġlat ency
Ġannoun ces
Ġcowork er
a ay
in os
Ġk ers
Ġkid ney
Ġdetect ing
Ġjeopard y
Ġne ill
Ġlin en
Ġfiber glass
Ġcom pend
Ġbre ws
Ġbelong ings
Ġrec ess
Ġfit ment
Ġmar ina
Ġdistrib ute
Ġd ips
Ġweird ness
Ġjim i
Ġcaval ry
Ġd g
Ġex pe
Ġman go
Ġra is
Ġdisappointing ly
Ġgam ut
ju ana
Ġcr ouch
Ġmag s
Ġcre st
Ġreligious ly
Ġutil izes
Ġfr aught
Ġun worthy
Ġww w
Ġcircuit ry
Ġillumin ates
Ġrevis iting
Ġj s
Ġr und
Ġcreep s
Ġsprink le
Ġunint ell
Ġrode o
g ly
Ġa yn
st o
Ġunlock ing
discl aimer
Ġi ps
Ġle ase
Ġunt old
Ġd ashing
Ġpione ers
Ġscoo by
Ġmod ular
Ġdar ren
Ġsl ade
Ġf en
Ġn iss
Ġdial ing
Ġpersist ed
Ġib m
ad vent
ho e
[...]
