#version: 0.2
Ġ t
Ġ a
Ġt h
Ġ i
Ġth e
Ġ s
Ġ w
e r
Ġ .
Ġ o
i n
r e
Ġ b
n d
Ġ h
Ġ c
Ġ f
Ġ m
Ġ ,
o u
a t
Ġ p
in g
o r
Ġt o
e d
e s
Ġ d
e n
o n
Ġa nd
Ġ n
i s
Ġ l
l l
i t
o t
a s
a r
Ġi t
Ġo f
a n
Ġi n
Ġi s
Ġ g
Ġ re
o m
u t
l e
v e
Ġ e
i c
Ġ [
u s
Ġo n
Ġb e
Ġn ot
Ġh a
o o
l y
Ġth is
Ġw h
Ġ y
a c
v er
Ġth at
Ġs t
a l
Ġf or
e t
B E
M BE
N U
MBE R
NU MBER
g h
o w
l d
i on
a d
t er
Ġy ou
it h
Ġw as
i d
a y
Ġw ith
en t
r o
oo k
c t
a ll
Ġb ut
k e
s t
Ġ u
Ġha ve
c h
t h
Ġa n
s e
r i
Ġs h
Ġm y
Ġa s
Ġl i
Ġd o
u r
m e
ou ld
Ġa re
i r
Ġc h
Ġs o
i ll
Ġs e
gh t
Ġ j
Ġb ook
c e
Ġm o
Ġh e
Ġw e
p p
b le
Ġ r
all y
us t
Ġn e
Ġa l
Ġp ro
Ġ us
Ġe x
Ġo r
Ġw or
Ġd e
i l
Ġc om
ver y
Ġa m
Ġa t
a g
Ġthe y
i e
Ġm e
Ġf r
Ġon e
Ġ k
p e
a m
Ġc on
ou t
i m
Ġs u
Ġw ould
a in
Ġs om
Ġa ll
ac k
er e
u l
Ġw ill
es s
es t
q u
er s
an t
Ġa b
Ġi f
Ġo ut
Ġp l
Ġre ad
Ġli ke
Ġu p
e l
Ġfr om
Ġc an
e m
on e
Ġj ust
Ġt r
ar t
a p
Ġc o
ou gh
Ġl o
Ġ v
is t
Ġn o
at e
Ġh er
Ġ !
oo d
Ġg et
at ion
u n
Ġu n
i f
i ve
as t
ar d
h er
a k
ic e
Ġthe re
Ġab out
Ġf e
Ġ very
Ġha d
ou nd
a nd
Ġl e
Ġwh en
Ġsom e
in d
Ġmo re
u re
u m
or t
Ġh as
Ġt i
Ġp o
Ġwor k
Ġ en
Ġthe m
i g
e ct
on g
Ġwh at
Ġ qu
p le
K N
N KN
O W
U NKN
OW N
UNKN OWN
Ġo th
Ġbe c
Ġh ow
a ble
v en
or y
Ġd id
re at
a me
i es
Ġsh e
Ġan y
l o
Ġb y
Ġg o
s o
Ġg ood
g e
Ġp r
c k
Ġp re
it y
a us
ic h
Ġh is
it t
Ġwh o
Ġa d
Ġin t
a ke
in e
a re
Ġti me
Ġth an
it e
. .
i ght
Ġ. ..
Ġch ar
id e
Ġoth er
aus e
Ġm an
u ct
Ġto o
Ġd is
Ġa f
Ġon ly
v ie
Ġthe se
Ġbec ause
Ġyou r
Ġre ally
Ġdo es
p t
ar s
Ġo ver
Ġb u
Ġw r
ou s
Ġwe ll
p l
ac t
Ġk n
Ġwh ich
Ġl ook
s s
Ġw ere
a b
Ġa r
ic k
Ġg reat
Ġs c
Ġm u
Ġh o
as e
Ġst ory
o re
in t
Ġt e
in k
Ġof f
ou ght
Ġf ir
Ġe ven
Ġaf ter
Ġre c
Ġmu ch
h ing
Ġal so
Ġus e
Ġb ack
i v
Ġfir st
Ġt w
l f
i z
A D
B AD
Ġc ould
ag e
Ġw ant
u e
i re
Ġbe t
Ġb o
Ġthe ir
ow n
ur n
ac h
p er
ou r
Ġs p
Ġpro d
vie w
Ġa g
Ġ ke
Ġb r
Ġw ay
ion s
e p
Ġbe en
Ġi m
Ġ ?
Ġy e
m ent
nd er
Ġint o
a v
ac ter
u d
Ġre view
Ġchar acter
Ġth ing
Ġg r
i le
Ġe very
Ġprod uct
ac e
Ġthe n
f er
Ġc l
Ġne ed
Ġth r
is h
Ġp er
Ġd es
ay s
n t
Ġs er
ad e
Ġcon t
Ġb l
Ġkn ow
Ġp h
Ġth ink
i p
itt le
Ġlo ve
Ġe nd
ot her
Ġl ittle
Ġa ct
Ġne w
Ġtw o
Ġp art
Ġcom p
Ġ ro
t ing
f e
Ġin st
Ġs m
Ġf l
Ġin ter
Ġn ow
a il
Ġa pp
en s
Ġse e
Ġse em
at er
Ġp ur
Ġa ut
Ġd if
u ll
y ing
Ġst r
Ġp e
i al
a z
Ġthr ough
Ġs a
v ed
Ġe as
Ġmo st
i ous
Ġm ake
Ġf ind
as s
pe ct
Ġst ill
ot h
ul t
d er
en ce
Ġs et
Ġfe el
o l
Ġ ri
Ġbet ter
re e
at ed
Ġa c
Ġsom et
r y
Ġman y
Ġd own
an ce
Ġs pe
f ul
ve l
ic t
Ġaut h
i gh
Ġg ot
i ly
Ġm ay
Ġl ong
al ity
an s
t e
n ot
or m
o s
Ġs l
Ġauth or
w n
ic al
Ġit s
v ing
Ġp ut
se lf
Ġha pp
Ġwh ile
Ġm ade
f t
w e
c o
at ch
o se
Ġt ri
u ally
Ġf o
Ġag ain
Ġg u
ak es
a pp
as ed
Ġcan not
f f
an g
Ġpur ch
Ġsh ould
Ġa w
e ver
Ġst art
ble m
om e
l es
Ġpro blem
Ġl ot
m o
o y
Ġin c
me nd
Ġne ver
Ġcharacter s
Ġs ay
f ore
Ġu nder
Ġc r
at ter
Ġfe w
Ġh igh
b er
th ing
Ġb ought
Ġpe o
v es
Ġus ed
Ġh ard
im es
Ġpeo ple
Ġrec om
Ġli fe
Ġm on
t y
Ġbu y
Ġrecom mend
Ġo ld
Ġch e
Ġha nd
Ġdif fer
Ġc ase
Ġbe ing
Ġs ame
ar y
Ġwh ere
Ġpl ay
Ġd r
Ġgo ing
Ġan other
ou nt
Ġhow ever
Ġb it
Ġbook s
ation s
Ġh im
Ġc le
Ġam az
u b
Ġhe l
Ġf it
at ing
ver s
Ġbe fore
Ġread ing
ig n
p s
g in
Ġqu ality
Ġf ound
Ġsm all
Ġsomet hing
Ġli ght
iz e
a ir
Ġre s
i ld
Ġke ep
Ġim p
Ġre al
Ġf in
ar k
Ġre t
Ġo p
re ss
x t
is e
Ġs in
Ġri ght
n ing
Ġye ars
Ġper f
Ġen j
Ġo wn
Ġor der
Ġs im
Ġen ough
Ġde c
Ġat t
c i
Ġl ast
o int
g g
Ġth ought
p h
c es
Ġin s
e nd
at her
it ing
Ġs ound
Ġad d
Ġenj oy
th is
Ġn ice
Ġp ers
Ġth ough
Ġsin ce
ow er
or d
Ġsu pp
Ġar ound
Ġt urn
Ġinter est
Ġb ad
ak ing
or s
Ġf un
d e
g et
Ġo ur
Ġdiffer ent
Ġre l
Ġb ig
Ġde f
Ġc ar
it ion
b e
Ġser ies
U R
Ġj o
g r
Ġbe l
Ġm in
Ġhel p
c ess
Ġth ose
Ġg ive
Ġb est
ent s
Ġd ay
Ġdis app
as on
Ġthing s
Ġsu re
Ġt ake
Ġb oth
Ġe m
Ġis s
a ve
i o
f ort
l ess
Ġpr ice
u al
Ġwith out
Ġex pect
Ġret urn
Ġsh o
Ġeas y
Ġph one
Ġre ce
Ġw ar
Ġus ing
Ġ ed
Ġlook ing
Ġe ach
Ġcon s
C UR
Ġs ur
i ble
an ge
re d
Ġdisapp oint
Ġpre t
ate ly
Ġhe ad
a w
ab ly
Ġpers on
k s
Ġpo int
a u
Ġmon th
Ġt imes
Ġpret ty
Ġwh y
Ġg l
v ice
Ġre pl
at h
Ġex t
Ġf ar
ri end
b s
Ġsh ow
Ġamaz on
i x
co nd
Ġk ind
w h
oo l
Ġse cond
Ġco l
Ġcom ple
Ġin f
ot t
Ġh ere
Ġf il
Ġsc re
Ġto p
ing s
Ġst ars
Ġs ize
Ġho ld
re ad
i a
ast ic
Ġseem s
Ġye ar
one y
t ain
Ġe l
Ġm akes
Ġwork s
ar ly
Ġact ually
is s
g er
Ġcom e
Ġc lo
Ġd et
Ġperf ect
Ġsu ch
Ġf act
ure s
n ect
Ġl ess
Ġr un
Ġf am
Ġd ri
Ġm oney
ag es
ut e
Ġe v
l i
b o
Ġm us
w ays
k ed
ce pt
Ġco ver
w ard
i pp
Ġwe e
r a
c ri
Ġop en
Ġno vel
Ġw ater
Ġwor th
Ġl et
Ġreview s
e ad
Ġbo x
Ġwor ld
Ġp ict
Ġf riend
Ġc all
Ġb atter
Ġg en
Ġs ide
Ġw atch
Ġac c
Ġp ack
Ġex p
Ġf ull
Ġc am
Ġc ou
u es
Ġl ar
Ġi nd
l ud
Ġl ist
n e
Ġe ver
Ġex per
Ġre ason
i an
Ġ es
ter s
o p
Ġw o
Ġaw ay
we en
Ġsa id
Ġne xt
Ġp ie
Ġdef in
Ġtr y
Ġcon nect
Ġc ame
Ġal ways
ll ow
Ġbet ween
y s
on s
Ġqu ite
ic s
Ġon ce
mo st
Ġt y
ct ion
Ġha ving
iv ed
Ġg ame
as h
Ġpr ot
it ch
Ġst and
itt en
Ġtri ed
Ġm ight
Ġnot hing
Ġa ble
Ġbel ie
d y
Ġte ll
Ġsh ort
Ġs y
Ġc are
Ġmo vie
st and
i ence
Ġp ower
Ġpurch ased
Ġinc lud
Ġwant ed
Ġget ting
c ed
Ġch ild
ou se
Ġm ain
t s
en se
u ck
th e
Ġ z
get her
ic ally
Ġdes cri
Ġs k
Ġun it
Ġwr itten
re n
Ġcomple te
Ġre m
Ġw a
ar n
Ġwr iting
Ġpro b
at ive
Ġal most
Ġany thing
i b
Ġse ver
Ġs w
Ġun t
Ġto gether
Ġprob ably
l ed
Ġdes ign
Ġpl ace
v ious
Ġche ap
Ġc or
Ġre g
Ġinterest ing
Ġdis c
Ġrece ived
Ġqu ick
Ġf ine
Ġth ree
Ġo ri
p r
Ġb ott
Ġst ar
ent ion
Ġtr ying
d s
Ġit em
Ġle ft
Ġevery thing
ap s
Ġt er
Ġb re
Ġscre en
Ġsu b
us h
Ġmay be
Ġm a
id ed
Ġs ong
Ġi de
Ġmonth s
Ġwe ar
or ies
Ġover all
Ġdefin ite
Ġinst all
Ġh our
Ġtoo k
Ġunt il
al k
Ġsever al
Ġre p
Ġw om
t en
el t
u g
ith er
Ġdisappoint ed
Ġco ll
n er
Ġd ays
Ġpl astic
Ġ vers
Ġmus ic
Ġre f
em ent
r uct
Ġhapp en
Ġb ag
Ġal b
Ġhapp y
Ġdefinite ly
Ġch r
Ġori gin
Ġpl ot
Ġso l
Ġm et
Ġrepl ac
Ġunder stand
Ġpro v
et s
Ġalb um
Ġh ome
Ġh ist
Ġy et
Ġf elt
pl ain
Ġcom es
Ġ ent
h ip
Ġwo nder
f ic
Ġd ur
Ġinst ead
at es
Ġh um
Ġlook s
Ġin v
n ess
Ġb as
Ġm ar
Ġb ro
Ġlo ved
u p
Ġoth ers
al s
id er
Ġfam ily
Ġcol or
Ġst y
Ġle ast
Ġm ust
at ure
Ġe ar
id es
Ġprot ect
lo g
Ġh on
au gh
Ġd one
Ġbe gin
n o
it ed
Ġha lf
Ġho pe
Ġf ree
Ġm iss
Ġf an
Ġc ut
Ġf all
Ġw ent
Ġp le
j ect
pt ion
ul ar
Ġstart ed
Ġsome one
ci ally
Ġfo llow
Ġany one
Ġfil m
Ġcom m
Ġcon f
a ut
Ġo b
Ġpurch ase
Ġg iv
i er
Ġcou ple
Ġp ast
on t
Ġe ff
Ġo k
ow s
Ġpre s
av or
Ġorder ed
Ġcle an
Ġinf orm
er a
d ay
so l
th ough
Ġsupp ort
Ġbatter y
Ġbl ack
Ġes pe
Ġwork ed
Ġwho le
Ġsu per
ar ch
Ġespe cially
Ġjo b
i ed
Ġr ather
Ġa v
it er
Ġwork ing
Ġbut t
Ġe ither
read y
Ġk id
Ġl ine
Ġal ready
Ġiss ue
il ity
a le
Ġapp e
Ġel se
Ġs ch
Ġeas ily
Ġhon est
Ġm ater
Ġen g
Ġb ri
Ġc ard
Ġd ire
w are
Ġfor m
Ġlar ge
Ġspe c
Ġp ick
Ġmo d
ap h
Ġde al
l s
Ġmater ial
pp ed
Ġal though
u ff
Ġli ked
Ġr om
Ġp ain
Ġpict ure
is ed
n g
iz ed
Ġcont ro
Ġs n
Ġdet ail
Ġpo or
Ġread er
Ġp ort
Ġle arn
an y
Ġw ish
Ġm ind
Ġc er
Ġcon c
Ġp ages
Ġe le
Ġc ap
Ġch ap
Ġre st
ent ly
on es
Ġc our
ull y
Ġm aking
Ġso ft
Ġg i
Ġiss ues
Ġchr ist
Ġn um
it s
ve lo
re s
l ing
u gg
Ġstr ong
Ġe t
Ġg ir
Ġn ight
fic ult
Ġf ig
Ġst e
are d
ment s
Ġh or
Ġdif ficult
o g
Ġst ories
Ġget s
Ġst o
Ġmy self
Ġbe aut
Ġenjoy ed
Ġar t
p ing
l ine
Ġcomplete ly
Ġse ll
Ġbelie ve
re t
Ġvers ion
Ġsc en
Ġco st
Ġneed ed
Ġcom fort
ust om
Ġgen er
Ġorigin al
Ġit self
Ġtr ans
Ġwr ong
Ġproblem s
Ġfin ish
Ġbott om
Ġst ick
Ġdo g
ot s
s ter
Ġcam era
Ġke y
Ġph ot
Ġins ide
Ġs ing
Ġs on
Ġm ag
Ġse c
Ġex c
Ġm ark
Ġc ustom
Ġp ri
ut es
Ġt akes
Ġet c
are nt
Ġst ud
Ġw ind
Ġro om
Ġcer tain
in es
un ately
am es
Ġp age
Ġpie ce
Ġm ed
Ġsty le
Ġhe art
Ġa p
Ġcons ider
Ġtr ue
if e
Ġg ave
Ġpl an
Ġde velo
Ġh ouse
Ġcl ass
Ġinform ation
Ġfin ally
at t
Ġbr and
Ġex am
ou ch
l ic
Ġex ce
Ġc ur
Ġhour s
Ġf avor
Ġup d
Ġte ch
ens ive
Ġcon st
Ġp ay
Ġal ong
Ġsur pr
Ġre mo
m ed
n y
ion al
Ġqu est
an k
if ic
Ġpo s
Ġp ull
ar r
ro ss
Ġcont in
ir d
Ġun fort
l ish
Ġh u
Ġp air
Ġre d
m an
Ġad v
ire d
Ġcle ar
Ġv o
Ġp ass
Ġgu ess
el s
os ed
Ġm id
Ġexper ience
Ġgi ven
Ġas s
Ġl ow
ot e
Ġseem ed
Ġgo es
Ġv ide
st em
er ic
Ġli ve
r ic
Ġmin utes
Ġ x
Ġde p
Ġg re
Ġst ore
Ġb and
e w
Ġhe av
Ġsy stem
at s
Ġbre ak
Ġco p
Ġspe ak
Ġbu ying
Ġs it
a pe
Ġdur ing
Ġlong er
Ġp ub
Ġh ot
u me
Ġs ent
Ġfriend s
Ġide a
Ġst ay
Ġpo ss
Ġch ang
re me
Ġd ist
Ġf air
Ġdire ct
Ġinst ruct
Ġlist en
c c
Ġent ire
Ġv ie
Ġag o
Ġbeaut if
Ġcomp any
f ully
ust r
Ġv ol
Ġvie w
Ġc reat
Ġtr ack
Ġme an
Ġre qu
Ġfig ure
Ġyou ng
Ġt est
Ġl ater
Ġto t
Ġon es
Ġy es
Ġpart ic
Ġof ten
Ġclo se
Ġexce ll
Ġf ail
Ġmo ve
am s
Ġm om
m m
ck s
c y
it ive
Ġc d
t ed
Ġfr ont
Ġcomp ut
bo ard
Ġex act
p ed
Ġunfort unately
Ġde vice
Ġneed s
Ġhigh ly
a h
Ġwee k
ic es
ri ble
Ġl ack
Ġch ange
g an
d d
r act
Ġdo ing
Ġa ir
Ġt v
Ġf ast
p ly
Ġsomet imes
Ġd ro
Ġle ad
is m
Ġle vel
Ġv al
Ġset ting
Ġser vice
Ġme m
Ġpart s
Ġexcell ent
Ġhist ory
s ide
Ġext reme
Ġlo c
Ġ er
i et
qu e
Ġrec ord
Ġm ess
Ġam eric
Ġcour se
Ġd ark
Ġsim ply
Ġch o
Ġti ght
ap er
in ess
Ġbe h
Ġrel ations
Ġl oo
Ġimp ort
as ter
ist s
Ġar ri
Ġdec ided
Ġs le
Ġche ck
Ġpre vious
Ġf our
Ġc re
Ġg ri
Ġv ar
w ay
Ġre le
Ġs we
e ll
Ġt ouch
Ġpre ss
Ġd v
en g
Ġm ention
j ust
Ġm ount
Ġs ad
Ġp a
Ġty pe
ant ly
Ġwh ite
Ġst uff
Ġwith in
Ġn orm
wh ere
Ġquick ly
Ġpr int
Ġrelations hip
Ġexpect ed
Ġto ld
en ces
Ġf ill
Ġwee ks
Ġs ign
ag ed
Ġa ud
Ġ %
Ġop in
Ġext ra
Ġsh ipp
sol ute
it ies
Ġher o
Ġreplac ement
Ġke pt
ic ed
Ġse en
i ent
augh ter
Ġhe ar
Ġc ount
Ġsch ool
Ġe y
Ġspe nd
Ġsong s
Ġab solute
Ġchild ren
Ġmy ster
Ġsim ple
Ġd ue
Ġlo st
ut ion
Ġp ar
b and
Ġamaz ing
Ġex cept
Ġv is
Ġsl ow
Ġb ased
Ġf ood
Ġw all
p o
Ġkid s
Ġcomput er
Ġ ve
re ct
Ġbu ild
Ġpro f
Ġf a
Ġt able
Ġperf orm
Ġen ter
Ġcomfort able
Ġtr a
Ġst ep
k ing
Ġc ook
Ġte xt
Ġw ire
Ġs at
Ġwom an
Ġm atter
Ġpl ac
Ġs us
Ġevery one
Ġb us
Ġan g
Ġc ool
u c
m s
Ġs ense
Ġupd ate
il ar
Ġpo l
Ġwr ite
o oth
Ġfor ward
Ġpr in
Ġb or
Ġre se
b r
Ġd ou
Ġm ach
h o
Ġsa w
Ġvide o
Ġcustom er
Ġsl ight
Ġcom plain
Ġbeautif ul
Ġi r
Ġn on
Ġheav y
Ġf ix
c us
am p
Ġrom ance
Ġwe ight
Ġextreme ly
Ġfavor ite
d le
ph one
Ġsw itch
Ġm en
in s
Ġs ays
Ġb ar
Ġchar g
l ight
Ġcoll ect
Ġcall ed
Ġwa it
Ġfeel s
Ġact ion
Ġsu gg
Ġsugg est
Ġse nd
Ġse lf
ll ing
Ġp aper
Ġser ious
ir t
Ġt it
Ġclo s
Ġlook ed
Ġadd ition
Ġpres ent
Ġf ant
Ġend ing
Ġthink ing
Ġsho es
Ġde v
ter n
er n
Ġchar ge
Ġatt ach
b ook
Ġcop y
Ġc able
Ġbutt on
u nd
Ġso on
em pt
Ġm ot
Ġh us
Ġf lo
Ġad just
Ġinstruct ions
Ġd aughter
log y
Ġnum ber
ag ing
Ġth in
ict ion
u ly
Ġcont act
Ġd i
Ġb ed
Ġob vious
Ġap art
Ġhu ge
Ġsupp osed
Ġi ll
Ġres ult
Ġdv d
Ġeff ect
Ġpo p
Ġt alk
Ġhappen ed
Ġr ub
Ġun i
k en
Ġwor ds
Ġpl us
f act
Ġpie ces
Ġn ame
Ġto day
s y
m y
an e
in ed
Ġpro per
Ġhus band
f fe
Ġdri ve
itt ing
ap t
h aps
Ġwas te
Ġty p
Ġwom en
Ġpr om
Ġgir l
il t
r or
Ġimp ress
Ġim ag
Ġm ic
m ber
Ġcom ing
Ġabsolute ly
Ġper haps
as es
Ġhand s
Ġma j
Ġsc r
Ġsp r
ver t
Ġle av
Ġus ually
Ġm other
Ġexact ly
Ġmet al
ist ic
um p
Ġg if
Ġall ow
Ġwonder ful
ain s
Ġn arr
Ġchap ter
Ġst op
Ġmod el
Ġbegin ning
Ġpict ures
Ġcor rect
w or
Ġg e
Ġopin ion
Ġnot e
Ġt al
Ġrese arch
Ġo cc
m b
Ġm ult
Ġf ut
Ġle g
r ant
Ġbec ome
Ġfe et
Ġj ack
Ġcontro l
Ġproduct s
Ġperson al
Ġw alk
Ġsing le
Ġgiv ing
l t
Ġrun ning
Ġt ast
Ġco ffe
Ġmaj or
Ġam ount
Ġb ul
el ess
Ġapp ro
Ġfo ot
Ġimport ant
Ġrepl ace
Ġagain st
Ġhand le
ro d
Ġpr act
Ġin ch
Ġshow s
Ġoff er
Ġm or
as ing
Ġm ine
Ġpro gr
Ġw ife
Ġf re
b ed
Ġgiv es
Ġle ave
Ġpro cess
id ent
Ġr id
Ġsim ilar
Ġt aking
Ġf ace
Ġm ix
Ġex plain
Ġinclud ed
Ġun less
Ġbo y
Ġs ort
Ġfun ction
Ġturn ed
Ġread ers
Ġus b
Ġsa ve
Ġfo cus
Ġpo st
Ġem ot
m ing
i or
ou d
Ġcoffe e
Ġav ail
Ġgl ass
Ġtr uly
Ġdescri ption
wh at
Ġi d
Ġl iter
Ġphot o
Ġs ou
n et
un ch
Ġp ad
re nt
Ġvol ume
e f
Ġperfect ly
Ġatt empt
Ġfit s
Ġpo ck
Ġp an
Ġdr aw
Ġsol id
Ġk ill
Ġare a
Ġre fer
Ġad m
Ġm is
Ġw in
Ġgu y
ak en
at or
Ġmach ine
med i
Ġf ive
Ġm il
Ġdec ent
Ġfut ure
Ġout side
Ġend ed
Ġexp ensive
se l
Ġarri ved
Ġsp ace
Ġcertain ly
t o
Ġsu c
pl ay
Ġd am
Ġkn ew
Ġmid dle
Ġdis co
Ġn or
Ġr ating
us s
iv es
Ġbl ue
Ġl uck
a im
Ġn et
in y
Ġwor d
un k
Ġplay ing
pp ing
Ġt em
Ġro ck
ph ones
Ġwant s
an ces
ne y
Ġde ad
Ġb i
a x
Ġtr ou
Ġshipp ing
M L
X ML
p ar
is ter
Ġth ick
l and
s w
Ġme ans
Ġexam ple
Ġman u
Ġbus iness
ri ed
es e
w ise
Ġde li
Ġg ar
Ġhum an
Ġm r
Ġim medi
i um
Ġth ird
Ġf ore
is ing
Ġb all
Ġaf f
Ġmult i
Ġfe at
Ġc at
Ġmanu fact
Ġli ves
e x
Ġsoft ware
Ġde ep
Ġf ather
Ġev ent
Ġhe ard
Ġp en
Ġtra vel
Ġc ord
Ġh ar
Ġenter tain
Ġbro ke
Ġyour self
an n
Ġs me
Ġre me
Ġavail able
Ġfe ature
Ġho ping
Ġimp ro
Ġfl at
Ġc al
pt ions
Ġscen es
Ġb en
gr aph
Ġan sw
g es
Ġsh ar
Ġfr ustr
Ġstand ard
Ġbo dy
Ġmyster y
ant s
Ġbatter ies
Ġco nd
Ġgl ad
Ġbeh ind
ip s
i en
Ġdevelo p
at ic
are ly
ll er
Ġkey board
Ġthrough out
Ġp arent
Ġdes p
Ġen c
Ġs ens
Ġple ase
Ġbro ken
Ġkind le
Ġl ab
Ġl a
Ġprogr am
un g
ure d
Ġele ct
Ġsmall er
Ġwar rant
Ġpl ug
Ġs il
Ġan no
Ġh ook
Ġloo se
Ġfeel ing
Ġanno ying
Ġa ge
Ġl ay
Ġh ang
Ġhe al
Ġde ath
le ct
it es
Ġex ch
le t
Ġtot ally
Ġr ad
Ġm ist
Ġslight ly
Ġpur p
Ġsu mm
Ġbri ght
Ġt reat
Ġmiss ing
Ġsp o
sel ves
Ġpa id
Ġdo or
eng th
Ġe arly
k es
Ġreme mber
Ġsell er
Ġact ual
Ġsound s
Ġauthor s
Ġac cess
Ġac ross
Ġd ry
Ġl ength
Ġcur rent
ur al
Ġun c
Ġstr a
um b
Ġnot iced
Ġposs ible
Ġd ig
Ġf ab
Ġsp ent
ow ing
Ġf ur
Ġother wise
Ġint rod
Ġsit u
Ġreturn ed
in a
Ġlot s
Ġameric an
Ġinterest ed
Ġse arch
Ġw ood
it or
er t
i ally
Ġgr ou
Ġf ire
Ġl apt
Ġe qu
Ġinclud ing
Ġc aus
lo ad
ib ly
Ġlar ger
l us
Ġo pp
b b
Ġspec ial
Ġs av
Ġaud io
Ġgif t
Ġh it
u ed
Ġbec om
Ġb ab
Ġon line
Ġimmedi ately
ie ld
Ġthan k
Ġsub ject
Ġtit le
oo f
Ġe p
Ġstra ight
i me
Ġplay er
Ġinv est
f ace
Ġj our
li ke
m as
Ġfair ly
Ġp ot
Ġo h
l er
Ġp ush
Ġsme ll
Ġlo ck
in ation
Ġne g
Ġb ase
Ġhist or
Ġturn s
Ġdo ll
pe nd
Ġli m
Ġfl aw
Ġan t
Ġconnect ion
Ġany way
Ġvo ice
Ġg ames
Ġapp re
Ġsuc cess
Ġd re
s et
Ġwas h
Ġput ting
Ġprof ess
Ġne ar
Ġsome what
Ġres p
Ġch ance
Ġv ac
Ġt aken
Ġinv ol
Ġg lo
Ġsay ing
Ġsho e
ent ial
Ġnorm al
Ġd ial
Ġpack age
z z
Ġhead phones
o nd
Ġli ving
th er
Ġcle arly
Ġfeat ures
Ġeff ort
Ġpre fer
Ġwarrant y
Ġan n
Ġappre ci
it al
Ġmost ly
Ġkn own
h n
Ġexch ange
Ġbr ing
Ġwor st
Ġb urn
Ġter rible
Ġtech n
es ome
Ġdesp ite
Ġexc ited
Ġd a
Ġstr ugg
Ġok ay
Ġconf us
Ġc u
Ġm atch
Ġsto pped
Ġf iction
Ġus es
k y
Ġb lo
Ġst ur
Ġswe et
Ġlapt op
Ġcon cept
Ġt re
Ġad vert
Ġold er
Ġab o
Ġsle ep
Ġnot ice
Ġinstall ed
Ġal one
Ġper io
Ġwr iter
Ġuse ful
Ġl ed
ent y
Ġst re
Ġad ult
ul arly
Ġm ouse
Ġhapp ens
Ġaw esome
Ġrecommend ed
Ġr a
Ġc en
Ġrub ber
Ġg one
Ġsat is
Ġlight s
Ġo per
ut h
is on
et her
Ġf ans
Ġremo ve
Ġfun ny
Ġc ute
Ġchrist mas
ab ility
ang er
Ġc up
Ġmo der
Ġhim self
iv id
Ġcollect ion
pl es
Ġquest ions
Ġspe ed
Ġscr atch
Ġbas ically
Ġcl aim
Ġabo ve
Ġf ight
er g
Ġstart s
Ġfl ash
Ġdetail s
Ġwar m
Ġchap ters
Ġgr and
Ġc ir
c ial
Ġup on
Ġtr ain
Ġreg ard
Ġw ide
Ġf ing
Ġp et
Ġs al
c um
Ġl ang
Ġthem selves
Ġsm ooth
Ġmanufact ur
g n
Ġh ate
Ġloc al
Ġbl u
Ġmark et
Ġjo hn
b ack
Ġto ward
Ġlo ves
o id
Ġb le
ri b
Ġdiffer ence
Ġappe ar
Ġas se
Ġatt ention
Ġp at
le x
Ġm ac
Ġbo ard
Ġknow s
Ġhelp ful
Ġmo v
Ġrem ote
Ġbas ic
Ġwor se
Ġreg ular
Ġbu ilt
Ġso ld
Ġcom b
Ġse par
gr ound
Ġto wn
Ġme et
Ġwh e
Ġst uck
p ad
Ġsurpr ised
Ġwh ether
ul ous
Ġkeep s
ou n
Ġquest ion
Ġgre en
Ġrequ ire
or n
ation al
is es
Ġr ange
Ġn one
Ġcol ors
Ġne arly
Ġphot os
Ġcr ack
ver ed
ect ive
Ġd ress
Ġfinish ed
Ġs or
Ġc art
Ġwe ak
Ġmov ies
Ġway s
Ġpoint s
Ġitem s
Ġed ge
Ġher self
Ġco ld
Ġc ent
Ġend s
Ġcont ain
Ġlang u
Ġinc red
d ing
Ġmention ed
Ġl oud
Ġex pl
Ġplay ed
Ġproper ly
app ed
Ġpro ject
Ġc ab
ll y
is ion
Ġr ich
Ġdou b
v able
Ġapp arent
Ġl ens
Ġfe ll
Ġeas ier
Ġpol it
Ġpartic ular
Ġac cept
w s
Ġcen ter
te nd
a f
ll ed
ri g
Ġde m
Ġl augh
Ġwatch ing
Ġpos itive
le y
Ġval ue
Ġtrou ble
Ġwear ing
Ġcap t
pp er
Ġstur dy
Ġwind ows
Ġth ri
Ġbutt ons
Ġsp ir
wor k
Ġgr ound
Ġtast e
Ġfur ther
Ġprov ide
Ġref und
Ġadd ed
Ġvar ious
Ġgrou p
b ers
Ġfull y
Ġc ult
Ġshar p
Ġbor ing
Ġprov ided
Ġacc ur
r on
Ġh ur
Ġ ess
Ġgu ide
Ġpock et
Ġwe bs
Ġho les
Ġbec ame
s on
ip es
u ced
Ġgener al
Ġv i
Ġd im
Ġchang ed
Ġcomp ared
er y
Ġto y
Ġfam il
ad es
Ġmic ro
Ġdis play
f or
Ġmulti ple
Ġsus p
Ġse ason
et y
c ing
Ġperio d
Ġn at
Ġpurp ose
as ure
Ġbe y
Ġu lt
ag on
Ġem ail
Ġre pe
Ġm s
Ġlo g
iz ing
Ġadv ent
Ġha ir
Ġprin ter
Ġno ise
Ġmo ving
Ġbr other
Ġchar ger
Ġf em
Ġi phone
Ġtr ust
d o
Ġev ents
Ġrec ently
Ġscen e
h e
ore d
Ġparent s
Ġne cess
Ġbab y
Ġin it
Ġor gan
ri es
er m
Ġle ather
Ġfil ter
ro om
Ġlike ly
Ġd est
Ġexpect ing
Ġtoo l
if f
ugg ed
Ġsee ing
Ġopen ed
Ġhor rible
Ġj e
Ġconc ern
Ġfab ric
Ġr ing
is hing
Ġl and
Ġcar ry
us e
Ġdisappoint ing
Ġdesign ed
Ġcomm un
Ġte nd
Ġatt ract
Ġs and
Ġbey ond
Ġc ast
Ġopen ing
Ġreview ers
Ġnovel s
Ġch all
Ġtw ice
Ġsu n
Ġappe ars
az y
Ġcount ry
Ġb other
Ġcr it
Ġobvious ly
Ġb al
Ġey es
Ġtri p
Ġlangu age
Ġus eless
Ġb arely
b ing
o ss
Ġflo or
Ġl aw
au ght
z e
Ġdown load
Ġse ction
Ġhe at
Ġan im
Ġdep th
m ore
Ġheal th
Ġcontin ue
u ce
Ġs am
Ġar m
Ġrad io
Ġrele ase
Ġreplac ed
Ġhigh er
bs p
Ġplac es
Ġback ground
ret ch
Ġcho ice
Ġreturn ing
Ġacc ount
Ġlo ad
ver age
Ġstr ap
Ġcon v
Ġk ing
Ġhum or
Ġo ption
Ġh d
Ġhistor ical
Ġtr uth
b y
Ġmoder n
Ġn bsp
Ġ ver
Ġuni que
Ġad ap
Ġansw er
Ġimp oss
Ġsatis f
Ġpos ition
Ġfant astic
Ġre ach
Ġdisc uss
Ġwa iting
Ġconst ruct
Ġl ower
Ġs ides
Ġdial og
Ġm aster
n ed
Ġfr ame
Ġevent ually
Ġhe ld
n a
Ġeng lish
Ġperform ance
Ġas pect
Ġpartic ularly
Ġcharg ing
Ġprotect or
a ly
Ġr u
ar ing
Ġreal ize
Ġho le
Ġs our
ur ch
Ġcont ent
Ġfe ed
Ġdevelop ment
i ans
Ġtr ad
Ġsur v
Ġc ri
Ġc red
Ġsor ry
ens ion
Ġide as
Ġco vers
ent ed
Ġte en
Ġdr ink
ur y
Ġleav es
Ġimposs ible
Ġchrist ian
Ġins ight
Ġr ate
Ġst retch
Ġcom pl
Ġav oid
Ġgu it
ar ning
am a
Ġrec ipes
Ġhonest ly
Ġgu ys
id ing
Ġrem ind
Ġpurch asing
Ġl ate
Ġf i
Ġp u
Ġlearn ed
Ġpl enty
Ġl id
Ġgr aph
Ġon to
Ġcomm on
Ġpre m
Ġpoor ly
Ġb ir
iz es
Ġconst antly
Ġocc as
Ġwebs ite
Ġsm art
c on
i ar
Ġw al
ub e
Ġtw ist
Ġb att
it ions
Ġins p
Ġentertain ing
Ġc atch
ate ver
Ġtot al
as y
Ġread y
Ġf ac
lish ed
Ġimag ine
Ġex ist
Ġfo ld
Ġman ual
Ġey e
Ġwh atever
Ġs ix
Ġsur face
Ġneg ative
Ġst ri
Ġspeak er
Ġb ill
g est
Ġbott le
Ġbecom es
Ġint rig
Ġph ys
m er
Ġc y
Ġfind ing
Ġattach ed
Ġl ines
p or
Ġhold s
Ġt ale
Ġfa ult
Ġfill ed
Ġsk in
Ġi pad
Ġserious ly
Ġpack aging
Ġkeep ing
Ġre sol
Ġag ree
Ġs qu
Ġenjoy able
Ġgo ld
Ġl y
Ġa verage
p es
Ġse at
Ġconsider ing
as c
ct ions
Ġt un
Ġfin al
Ġstart ing
Ġind e
Ġle arning
m a
led ge
p ut
Ġcard s
Ġsh el
Ġo bs
Ġm at
Ġt en
Ġun b
c le
Ġs ister
Ġclass ic
et h
Ġid ent
Ġt ape
if y
Ġd an
Ġro ad
Ġt iny
ac y
am ing
Ġl ad
m in
Ġscre ws
bo dy
Ġhel ps
Ġimpress ed
ud e
Ġc ases
Ġfl ow
Ġfail ed
Ġab ility
Ġspo il
Ġthan ks
Ġbo ots
a ft
Ġun like
ic ated
Ġcoll e
Ġch oo
r ors
Ġpre d
ri ght
Ġdoub t
Ġkn ife
Ġre v
Ġprov ides
Ġ est
Ġtalk ing
Ġtable t
Ġfor g
Ġwr ote
Ġconnect ed
ar ily
Ġl ink
Ġasse mb
Ġh y
er c
Ġde g
Ġwire less
Ġinter net
li er
r ay
Ġg un
Ġad vice
Ġind ivid
en cy
Ġz ipp
r id
Ġbig ger
Ġpro s
Ġk it
Ġli f
Ġst ate
Ġsk ill
Ġple ased
ac hing
Ġc ity
Ġmess age
Ġr an
Ġbe at
Ġto n
Ġd ate
Ġsa fe
Ġl in
Ġh un
Ġjour ney
Ġfollow ing
Ġ ut
h ead
Ġmom ent
Ġfigure d
Ġsh ape
Ġcl ick
Ġimpro ve
Ġp c
Ġlo s
Ġse qu
Ġmo de
Ġtell s
res h
g ress
Ġsc ience
pect ive
Ġdes k
Ġnice ly
Ġp ill
Ġcom ment
am ed
Ġtrack s
Ġapparent ly
Ġc ross
c ent
Ġspir it
Ġhold ing
n ers
Ġed ition
Ġsp ot
Ġdevelo ped
Ġtell ing
er o
Ġint end
er v
Ġrel ig
Ġm ill
Ġs itting
o log
Ġpick ed
Ġmin or
Ġo il
n al
Ġgr ow
d en
r u
Ġfor get
Ġcomplain t
ur ing
if ied
Ġunderstand ing
Ġn ut
it ter
Ġspeak ers
Ġguit ar
Ġresult s
Ġb ow
Ġill ustr
Ġliter ally
Ġfind s
Ġdescri bed
Ġr and
Ġf ly
ren ch
Ġsumm er
at a
ic ulous
i pe
Ġmed ium
Ġsh are
Ġacc om
Ġp sy
Ġr ain
s h
Ġdisappoint ment
ak er
Ġfre qu
Ġth read
Ġlisten ing
Ġbi ke
er ing
Ġe at
Ġsusp ense
Ġknow ledge
Ġda ily
Ġas ked
as k
Ġro ll
Ġme ant
Ġk itch
Ġfa ith
Ġo dd
u ing
Ġcr azy
g ed
Ġph il
Ġch air
an ced
Ġsitu ation
Ġpsy ch
Ġth or
Ġse al
Ġlo se
Ġmor ning
uct ion
Ġfem ale
Ġem p
Ġmem ory
r ow
Ġsec ure
Ġgot ten
Ġvi ol
Ġblu et
Ġre ve
Ġcre ate
i k
Ġmanufactur er
Ġfir m
Ġun s
Ġdro p
Ġcl oth
Ġthr ow
Ġpress ure
Ġbluet ooth
Ġleav ing
Ġsle e
Ġbr ought
Ġcou n
Ġbo ot
Ġup gr
Ġkitch en
Ġpub lic
Ġinclud e
ion ally
Ġal tern
Ġma x
Ġsh ut
u um
Ġdog s
Ġsho ck
Ġult im
Ġset s
Ġb ass
Ġfant asy
Ġcheap er
h ow
Ġr ound
th ese
Ġwant ing
Ġoff ice
Ġexp lo
Ġli br
et ic
Ġown ed
Ġse x
Ġm ad
ch an
Ġpre v
Ġear th
Ġsh ip
Ġadap ter
u it
Ġcl ip
og n
Ġinvol ved
iz ation
Ġd ust
Ġrec ogn
Ġmom ents
Ġbl ade
Ġas k
Ġsho ot
Ġwe b
Ġdo cum
Ġde b
Ġpre p
iv ity
Ġsh irt
Ġso ci
Ġsh ot
Ġchang es
Ġvo c
Ġpub l
Ġappreci ate
Ġvac uum
Ġp ac
Ġbr own
Ġfall s
Ġmean ing
Ġun f
Ġsec ret
Ġf resh
e y
Ġcover ed
Ġsetting s
e c
Ġgir ls
bo x
Ġmin ute
ll i
Ġin k
Ġdev ices
Ġhelp ed
Ġp atter
Ġle ak
Ġd anger
Ġreason s
Ġperson ally
Ġreal ized
on y
Ġm ir
Ġfor ce
Ġbe gan
Ġexper ien
Ġd iv
Ġadvert ised
Ġr ou
Ġrep air
Ġlab el
Ġne ck
Ġpot ential
Ġprotect ion
Ġim age
Ġstr ange
Ġsecond s
Ġaw are
Ġmag ic
Ġinf l
Ġf asc
ll a
Ġturn ing
Ġst ates
Ġd ied
Ġbig gest
t on
Ġint ell
Ġv ia
Ġany more
Ġst at
Ġcontact ed
Ġme chan
Ġhero ine
Ġnorm ally
ir ing
Ġear lier
Ġwe ird
Ġt ar
Ġrece ive
Ġdes er
Ġtem per
Ġprofess ional
Ġcomple x
Ġappro ach
Ġab s
Ġbel t
Ġcons ist
r it
Ġrid iculous
Ġindivid ual
Ġst ren
Ġj ud
ag er
Ġrun s
Ġinch es
Ġrequ ired
Ġdialog ue
o c
Ġgen re
Ġlast ed
ent al
Ġcare ful
en ing
Ġch urch
Ġs pl
Ġsto ck
Ġaccur ate
o logy
is o
Ġi gn
ish ed
Ġdef ective
Ġdur able
Ġmot or
Ġde l
graph y
Ġadm it
Ġv ict
Ġpart y
Ġcolle ge
Ġt im
Ġdis h
Ġstory line
Ġev il
Ġde pend
Ġr ough
Ġb ible
Ġm att
Ġfall ing
Ġdou ble
f fer
Ġdirect ly
Ġpain t
Ġer rors
Ġpower ful
g th
Ġfeel ings
re w
Ġfamil iar
Ġes c
Ġt ab
Ġclean ing
Ġmo ved
Ġte a
Ġaw ful
Ġstren gth
Ġspec ific
Ġadd ress
Ġte ach
ib ility
Ġp s
Ġm ur
Ġm ail
Ġconc lus
Ġd y
Ġdro pped
Ġm ich
Ġus er
Ġmon itor
Ġpl ugged
Ġthor ough
Ġwind ow
po d
Ġapp le
Ġsurpr ise
Ġbl ood
Ġsol ution
Ġar ch
en ed
a wn
Ġfrustr ating
in ating
Ġpri m
Ġr ide
Ġtoward s
Ġex erc
Ġch em
Ġset up
o ck
om fort
Ġtyp ical
Ġj unk
Ġres pect
t le
Ġeng ine
pp y
Ġter ms
Ġep iso
Ġdisc ount
Ġto m
Ġfl im
Ġrem ain
itt ed
Ġsign ific
dd en
id ence
h ood
Ġs ams
Ġwill ing
Ġwalk ing
Ġp ath
Ġhope fully
Ġlibr ary
Ġs ite
Ġcreat ed
Ġt ough
or ge
Ġqu iet
Ġd ie
Ġo ptions
p ort
Ġd av
Ġste el
Ġdig ital
i ences
Ġbuild ing
ate g
Ġh om
Ġl at
Ġcomp ar
Ġrand om
Ġapp lic
ant ic
Ġst or
ac es
Ġi ce
Ġro b
Ġk ick
iet y
Ġall ows
c om
Ġdr ag
c ome
Ġun re
Ġreview er
gh ter
Ġthought s
Ġsu dden
Ġd ata
Ġn ature
Ġfr ank
e en
Ġrecord ing
Ġmist ake
Ġto w
Ġex tend
Ġknow ing
Ġbel ow
Ġinc re
Ġpri or
er ed
Ġpers pective
Ġp in
Ġim m
Ġnecess ary
Ġre ality
Ġma le
Ġte am
Ġdirect ions
Ġind ic
Ġrou ter
Ġf ol
Ġed ges
Ġu nd
ad ing
Ġthe r
Ġtech no
f orm
Ġch ina
Ġremo ved
Ġsu it
Ġst ated
Ġplac ed
Ġpred ict
Ġwor n
w ood
Ġc ell
Ġlim ited
iv ing
Ġaddition al
Ġtoo ls
Ġsub st
m i
Ġgr ab
Ġsh ame
Ġflim sy
Ġameric a
Ġus ual
ver se
g ing
i ents
Ġam ong
Ġbir th
e e
Ġdet erm
us ed
ir st
Ġc aught
Ġso cial
Ġare as
Ġwr ites
Ġar g
b all
Ġbr ush
Ġd u
Ġpatter n
Ġm m
Ġed uc
Ġnew s
Ġsou th
Ġexam ples
Ġrefer ence
Ġlo ss
Ġspr ay
Ġadvent ure
Ġsl ide
Ġb reat
Ġass um
p ri
Ġsams ung
Ġr is
Ġl u
Ġeffect ive
Ġc e
Ġpract ice
Ġrel ative
Ġfor ced
Ġexpl an
Ġpub lished
Ġj um
Ġdescri ptions
Ġen v
Ġbag s
v al
Ġmet ho
ag r
Ġacc ident
Ġcon vers
Ġstud y
Ġoff ers
ipp ed
Ġchoo se
Ġrele ased
Ġcart rid
Ġpull ed
Ġgri p
Ġwhe el
Ġdam age
Ġj ew
Ġke ys
Ġth us
wh ile
Ġrep ort
on se
Ġir on
Ġnat ural
Ġbatt le
Ġform at
Ġresp ons
Ġleg s
Ġm er
Ġread s
Ġin g
Ġfollow ed
Ġc and
Ġdetail ed
Ġincred ibly
Ġemot ional
Ġw ild
Ġtr ick
Ġp ump
Ġtrad ition
is her
Ġpro gress
Ġstr aps
Ġb unch
Ġinstall ation
Ġany where
Ġintend ed
Ġj es
Ġp ants
Ġsu ffer
Ġg oo
om b
Ġcond ition
Ġshow ing
Ġfore ver
Ġmin im
Ġtri es
Ġsome how
Ġm c
Ġf ield
Ġpolit ical
Ġch ann
Ġmo ves
we ll
Ġd en
Ġli kes
Ġp ark
Ġfor t
Ġinclud es
n am
Ġj u
Ġson y
Ġresp onse
Ġchall eng
Ġexpect ations
in ing
f l
i ke
Ġtrans l
Ġcall s
Ġp ow
Ġcam p
Ġsign al
Ġaff ect
Ġsh own
Ġcoun ter
Ġgr ind
Ġb um
Ġsepar ate
g s
Ġro le
Ġne ither
Ġc ats
Ġc ry
Ġreve al
ir ty
Ġspr ing
Ġexperien ced
Ġexp ress
r um
Ġsus pect
Ġb ur
Ġv amp
Ġmin i
Ġfing er
if i
Ġbri lli
Ġtw ists
Ġv ill
Ġse lect
Ġcom pe
g ar
Ġunc omfort
Ġpl ays
Ġmar ri
Ġer ror
Ġfe ar
Ġhur t
Ġclos ed
Ġposs ibly
Ġo pt
Ġrece i
Ġdire ction
Ġapp ly
Ġs ized
Ġnot es
Ġshipp ed
Ġb io
Ġbu ck
Ġaut o
po nd
Ġdoll ars
Ġbegin s
or k
Ġben ef
Ġsc ri
Ġst ain
Ġact ing
u ro
Ġbu d
Ġh es
Ġcl im
Ġsad ly
Ġorder ing
Ġz ero
Ġhead set
Ġfl avor
Ġme ets
Ġbeh av
f irst
Ġconstruct ion
Ġprem ise
o ld
s c
Ġblo ck
Ġm ass
Ġsh if
Ġgener ally
i i
Ġcorrect ly
Ġsoci ety
Ġa ch
Ġcont r
ipp ing
Ġb on
r ing
Ġcon ven
Ġexper iences
Ġbri ef
Ġwa ist
Ġt ur
Ġas ide
Ġsho p
Ġalbum s
Ġn av
Ġsurpr ising
act ion
Ġt all
Ġacc ord
Ġple as
Ġsupp ose
it ary
Ġco de
ber t
p et
c er
Ġbr ings
Ġcult ure
Ġdr ama
Ġaut om
Ġob ject
Ġhard ware
Ġw ed
ac her
Ġt ank
Ġcred it
Ġchang ing
Ġw et
Ġconfus ing
Ġstor age
Ġb ath
Ġe ars
Ġele ments
Ġcab les
c ol
af ter
Ġa head
Ġwho se
Ġ nd
p ack
Ġhor ror
Ġdisco vered
Ġbe nd
Ġho se
Ġoffer ed
Ġconv in
Ġlist ed
Ġsm o
im ent
Ġcare er
Ġcomp et
ill y
we ight
Ġclo ck
Ġstud ents
Ġres ist
Ġcomp an
Ġmiss ed
Ġr ay
Ġwin ter
Ġti ps
e per
Ġnarr ative
Ġcons um
d es
Ġvamp ire
Ġcharg ed
Ġrel i
Ġang le
Ġme asure
Ġsy n
Ġref lect
Ġrelationship s
s es
a el
Ġdo ct
Ġc as
ic le
Ġsour ce
am m
Ġdre am
Ġpl ain
Ġcr aft
Ġdam aged
b age
Ġcent ury
Ġuncomfort able
ous ly
Ġd on
Ġed iting
Ġfasc inating
g o
Ġfix ed
Ġdr awn
Ġscri pt
Ġthere fore
Ġbr it
Ġappe al
Ġfact s
Ġsp in
Ġtyp es
Ġcut ting
Ġgo ver
Ġcont ains
Ġvar iety
Ġdec ide
es h
art ment
Ġho pes
g le
Ġp ound
Ġorigin ally
Ġwe ather
Ġhu nd
Ġentire ly
Ġn ames
Ġhund red
un t
Ġreal istic
Ġun us
m p
ot es
Ġmarri age
Ġbo ys
oth ers
Ġexc iting
Ġp al
Ġr ush
Ġsatisf ied
Ġelect ron
Ġl bs
Ġinvest ig
Ġm art
el ie
wh en
or ter
Ġvide os
Ġsome where
Ġin ex
Ġdest ro
Ġconclus ion
et er
Ġly r
Ġpre c
Ġfo am
Ġd ad
Ġinf o
Ġf u
Ġprot agon
Ġdisco ver
Ġtrain ing
Ġli ved
Ġenc oun
o ver
Ġcaus ed
Ġmil itary
Ġfor th
Ġpop ular
Ġj ames
ar m
ed s
Ġto ne
ort un
Ġproduct ion
Ġwar ning
Ġsc ient
il ities
Ġmed ia
Ġch ose
Ġd om
Ġsou l
Ġpr oof
Ġph ones
Ġst ere
Ġp ink
Ġatt ack
Ġti p
Ġsn ow
Ġj oy
Ġim ages
Ġpresent ed
Ġact iv
Ġgar bage
Ġcl ub
Ġa lex
Ġocc ur
Ġinde ed
Ġ vel
lo s
Ġbu cks
r ound
Ġtr ash
Ġopp ortun
Ġsex y
Ġrep et
ir on
iv al
Ġrom antic
ou th
Ġsitu ations
Ġsp ort
Ġwas hing
Ġkn ock
Ġintell ig
ic a
Ġzipp er
UR L
Ġrequire s
erg y
b it
Ġrec ent
Ġw id
Ġshow ed
Ġg al
Ġf lex
Ġdis p
Ġstep s
Ġelse where
ing ly
Ġp ure
Ġsu ff
Ġgl ue
Ġbr a
r al
Ġbelie vable
Ġmix ed
Ġtr ail
ur ity
Ġd ut
Ġj ap
Ġpock ets
Ġintrod uction
ra id
ro s
Ġjes us
Ġsur round
Ġst itch
Ġgover n
Ġb es
Ġr ot
Ġthe me
Ġconcern ed
Ġslow ly
Ġjap an
Ġcir c
Ġwork out
Ġs izes
un e
Ġcor ner
Ġbre aking
Ġsl ip
Ġhook ed
Ġimp act
Ġme l
Ġing red
Ġnet work
it ers
r ying
Ġprevious ly
Ġaf raid
Ġinit ially
Ġdis s
Ġdav id
Ġfilm s
Ġgr ad
Ġcook ing
Ġultim ately
Ġne igh
Ġconst ant
Ġtechn i
Ġkill ed
Ġstud ent
Ġf ash
Ġneigh b
Ġdocum ent
Ġhe ight
Ġcreat ive
Ġenv iron
Ġmatt ress
Ġti red
Ġstr uct
Ġann oy
Ġhappen ing
k ward
Ġr out
Ġs que
Ġlack ing
ut ed
t ime
Ġpill ow
Ġg b
Ġshel f
Ġpass ion
Ġm outh
Ġmil es
Ġm al
ent ially
Ġyou n
Ġin ner
Ġrep res
re ts
h ere
Ġem pt
Ġso le
Ġcurrent ly
Ġyoun ger
Ġport ray
Ġaw kward
Ġnum er
Ġwonder ing
Ġoff ic
Ġhold er
Ġbul b
Ġthorough ly
itt y
Ġdr ug
Ġpubl isher
Ġrelative ly
Ġmag net
Ġplay ers
ch ar
Ġant i
Ġtechno logy
and s
Ġtest ed
Ġeng aging
Ġbal ance
Ġfash ion
Ġnum bers
Ġcom ments
ul ation
Ġye llow
Ġtar get
re es
Ġrepe ated
Ġsk ip
Ġde light
Ġsh ower
ke y
Ġcomp are
Ġhard ly
Ġevery day
ru pt
ll s
ho st
or able
Ġmove ment
Ġwr iters
Ġenc our
Ġun able
Ġpol ice
Ġr am
Ġprev ent
Ġg host
li ed
Ġkill er
on nect
Ġcheck ed
Ġpredict able
Ġhand y
Ġr h
Ġhang ing
Ġe uro
Ġart ist
Ġaud ience
Ġeffect s
Ġdist ract
f riend
Ġassemb ly
Ġspend ing
Ġt ap
Ġp ace
Ġpay ing
Ġclaim s
Ġso cks
Ġs ar
Ġsell ing
Ġed itor
Ġed it
Ġsend ing
Ġfing ers
Ġt or
Ġsn ug
Ġmag n
Ġw ore
Ġfil es
Ġcontin ues
Ġmem bers
ul es
Ġdep ress
Ġwor ry
Ġcu ps
Ġlad y
Ġar ms
r ation
Ġwas ted
Ġbeautif ully
Ġbul bs
em ents
Ġan aly
l ict
Ġgraph ics
Ġcu ri
Ġinfl u
Ġar c
Ġi pod
Ġnarr ow
Ġdri ver
Ġres pond
Ġte le
ad ed
Ġch ick
Ġho l
app ing
Ġr ack
Ġtechn ical
Ġg er
Ġpri me
Ġgr owing
Ġspec if
ant ed
Ġinter view
Ġo d
Ġe th
Ġbr ain
Ġport ion
Ġf rench
Ġtemper ature
Ġlat est
o so
Ġen ergy
Ġsc an
Ġcri me
Ġunit s
Ġvers ions
Ġsa le
Ġupgr ade
Ġtop ic
Ġsil ver
Ġr d
Ġlo ving
Ġf le
Ġwatch ed
Ġthr own
Ġansw ers
k er
Ġnumer ous
Ġr ated
Ġincred ible
Ġthink s
Ġconsider ed
Ġbe ach
Ġemot ions
Ġreg ret
Ġpri v
m ble
Ġs ight
z en
Ġmaterial s
Ġtradition al
Ġuni vers
Ġform er
Ġf aster
Ġmich ael
Ġmar ried
Ġg ard
Ġdri ving
Ġj am
ri fic
Ġt our
Ġw ifi
pri ate
y al
Ġe ating
Ġprint ed
ag ue
in ary
Ġallow ed
Ġtr uck
Ġsudden ly
Ġin no
Ġb an
Ġt ag
Ġex ec
c il
less ly
Ġdec ision
Ġcl ar
ist ry
Ġg ain
s p
Ġcompe lling
Ġse ctions
ard s
Ġv an
Ġw ow
Ġelect ric
Ġble nd
Ġconf lict
Ġinc or
Ġbrilli ant
Ġres our
ul a
Ġpack ed
Ġj ump
Ġpract ical
Ġhead s
Ġt ension
Ġsn ap
d ed
us hing
Ġtrans fer
c ro
Ġlevel s
Ġcam er
Ġstre et
it ude
Ġlead s
Ġde fe
Ġpl ate
Ġd iet
Ġstrugg le
Ġphys ical
Ġve h
Ġv s
Ġno ve
et t
Ġlove ly
Ġd in
Ġfol ks
Ġaspect s
Ġadd ing
Ġbu ll
Ġp ed
Ġh at
Ġact ions
Ġc iv
Ġn y
Ġu r
Ġsuccess ful
Ġind ust
um in
Ġy ork
Ġback pack
Ġnor th
Ġpu zz
Ġh i
lo y
Ġcontro ller
Ġris k
Ġfact ory
Ġgreat est
m es
Ġb ent
Ġsequ el
Ġp ool
en ge
Ġbe ware
Ġsav ed
Ġcomplain ts
Ġw es
Ġrefer ences
an a
Ġenviron ment
Ġh p
Ġs ink
Ġdeal ing
con om
ie ce
Ġphil oso
Ġd irty
Ġdes ire
Ġmod els
Ġir rit
Ġband s
Ġclos er
or der
Ġsa f
Ġ q
app y
Ġgr amm
Ġlight weight
Ġdim ens
Ġcloth es
Ġskill s
Ġd ull
Ġeuro pe
ail s
Ġr ac
Ġbrand s
Ġbreat h
Ġhear ing
Ġfrequ ently
Ġhas s
Ġmain ly
Ġf ish
Ġst ays
Ġf ro
Ġach ie
ward s
Ġt ree
Ġevery where
c r
Ġn ic
id den
at ives
Ġregard ing
Ġwh om
Ġcho ices
ed y
at o
Ġexplain ed
Ġw est
Ġv irt
Ġhe a
Ġfight ing
Ġho ped
ol ution
Ġv ib
Ġgovern ment
Ġm p
0 0
Ġintrig uing
Ġe conom
Ġman ner
ive ly
Ġinst rum
Ġinit ial
Ġboy friend
Ġre ar
Ġt ube
Ġsim pl
Ġf al
Ġd ed
Ġter m
Ġput s
Ġhard er
st r
Ġvel cro
b es
Ġn amed
Ġres et
Ġgr ade
Ġlyr ics
se qu
as p
Ġli ft
Ġz o
Ġl ou
Ġan ten
Ġde lic
Ġcontro ls
Ġcare fully
Ġs ke
Ġcont em
Ġs ick
Ġdescri be
Ġw ise
Ġdeli very
i us
Ġrel ated
Ġ era
Ġf ile
Ġp un
id ge
Ġst ation
Ġun ex
Ġadult s
Ġdestro y
Ġh its
Ġdem on
Ġprotagon ist
Ġjack et
Ġbeaut y
Ġco re
Ġup s
Ġopportun ity
ines e
Ġbro ad
Ġopin ions
Ġconfus ed
Ġst iff
Ġsh all
Ġm ent
Ġaccord ing
Ġch inese
Ġsec rets
le ction
Ġas king
Ġequ ip
Ġste am
Ġpo lic
Ġman aged
Ġglo ves
e gr
Ġdanger ous
Ġspecif ically
Ġreason able
Ġdri ves
Ġte acher
Ġsh ap
Ġfl ip
Ġem b
Ġl itter
Ġcoll ar
Ġsec urity
Ġphiloso ph
ic les
Ġpac ed
Ġresol ution
Ġme as
e v
Ġbecom ing
Ġcomp at
tern al
Ġsupp ly
s is
Ġs illy
Ġglass es
Ġlo l
Ġar r
Ġthe ory
rib ly
Ġadd s
Ġingred ients
Ġflaw s
at ically
Ġreplac ing
Ġcommun ic
o k
Ġgr ace
Ġrel ate
Ġcreat ing
Ġj ul
Ġt ed
Ġcrack ed
Ġre in
Ġunb elie
Ġmo ld
Ġwash ed
Ġopp os
ie f
Ġhass le
Ġdut y
Ġdr um
Ġdeli vered
Ġsp ark
g a
Ġbreak s
Ġsl im
il ing
Ġbe ar
Ġanim als
Ġaff ord
Ġmount ing
Ġye ah
lo ck
ri f
en n
Ġis land
Ġang el
Ġsearch ing
Ġstand s
Ġrecei ver
Ġout put
Ġsound ed
Ġbl ank
Ġcompar ison
Ġele ment
Ġtrou b
Ġpro p
Ġrelig ious
Ġillustr ations
Ġbes ides
Ġcan on
Ġgoo gle
Ġcr is
Ġin put
w r
Ġfail s
Ġrec ipe
Ġwor ried
Ġins ert
oint ed
ot ed
Ġequip ment
stand ing
Ġbl ur
h es
Ġh ous
Ġf ool
Ġencoun ter
Ġdeg ree
Ġte aching
Ġaltern ative
Ġpe el
Ġciv il
Ġexplan ation
Ġlos ing
Ġad e
p ensive
Ġcle ver
Ġpa ul
Ġfriend ly
Ġb ored
Ġshe et
Ġcommun ity
agr aph
Ġbad ly
Ġst ress
Ġthri ller
Ġattract ive
v ant
Ġf itting
Ġb at
Ġluck y
Ġl ord
Ġpar agraph
Ġmot iv
Ġgre w
Ġdist ance
Ġha m
Ġbehav ior
Ġwire s
Ġinex pensive
st on
Ġbox es
av es
Ġdi am
Ġhar m
Ġm ath
Ġbelie f
Ġwr ap
Ġd irt
Ġout do
Ġbr others
Ġpr ay
Ġrequ est
Ġsignific ant
Ġm ap
Ġvis it
h a
Ġbr ack
Ġte ar
an cy
Ġde ce
Ġcrit ic
Ġg ent
u x
al th
d om
Ġextend ed
pr oof
Ġc ars
Ġtop ics
Ġj an
c a
Ġplan ning
Ġprep ared
Ġshe ets
Ġsens itive
Ġattempt s
Ġwall et
Ġcaus ing
Ġintrod uced
Ġviol ence
pect ed
Ġsp an
Ġto ys
Ġempt y
Ġass ume
Ġbon us
Ġbirth day
Ġstr ing
Ġtri logy
Ġtal ent
Ġapplic ation
Ġc ush
Ġcor ners
Ġcr ash
ib l
Ġbow l
qu es
Ġd ance
az z
Ġen em
Ġmain tain
Ġw it
Ġdoct or
Ġhd mi
Ġst one
Ġinter nal
t r
Ġt ub
Ġfrustr ated
Ġwed ding
a i
Ġwhe els
Ġr arely
g y
Ġcaus es
y le
Ġcustom ers
Ġsaf ety
Ġdeg rees
Ġover ly
por ary
Ġpro se
Ġli ghter
Ġdr ain
Ġcompl icated
Ġsqu are
Ġmus ical
Ġpe ace
w ing
Ġlet ters
Ġm aker
Ġappro priate
c l
Ġg as
Ġh int
Ġch art
s ing
Ġbit s
Ġcab in
Ġvict im
Ġcar rying
ers on
Ġadv anced
Ġpull ing
is ters
Ġth om
Ġchild hood
ot ing
Ġfam ous
Ġfollow s
Ġbrit ish
l in
Ġsk y
Ġloc ation
Ġo t
Ġfun ctions
Ġe gg
Ġdisapp e
Ġhealth y
Ġsh orter
Ġimpress ion
Ġchall enge
Ġm ary
Ġprod uced
Ġapp s
Ġanten na
Ġsp ots
Ġsol ve
av ing
b ble
Ġab use
Ġl amp
Ġsh ad
Ġup set
re st
Ġwr ist
em s
Ġoccas ionally
Ġhes it
Ġst age
Ġdet ect
Ġjour nal
Ġal ive
Ġsu gar
Ġmot ion
Ġch ain
Ġcir cum
Ġregard less
Ġlet ter
Ġcost s
Ġr ust
Ġmetho d
Ġmist akes
ic ient
olog ical
Ġnot ed
Ġhand les
Ġu pper
Ġz omb
Ġaccom pl
th ere
Ġless on
Ġpr iced
b ud
Ġcar pet
Ġme at
Ġcamer as
ag ement
ke nd
Ġde eper
Ġun ne
os es
Ġstick s
Ġsc ale
Ġor d
l a
Ġto ng
Ġint ense
Ġf if
Ġstore s
Ġvis ual
Ġth rew
Ġant ic
Ġse am
Ġgen u
Ġto e
lo red
Ġt ie
Ġfriends hip
Ġwee kend
Ġc ott
Ġspe aking
ic ing
Ġev idence
Ġstr ateg
b ought
all ey
Ġesc ape
Ġperson ality
l ook
a ur
Ġfail ure
Ġpass ed
ars h
Ġcomp on
Ġappe ared
Ġi i
Ġmur der
Ġh idden
Ġgenu ine
Ġinstall ing
Ġcontin u
or ing
Ġpar an
ro id
Ġpan el
ar ies
Ġr y
Ġcomp act
Ġl am
b al
Ġs ac
Ġbut ter
Ġho lly
Ġwes tern
Ġfl u
Ġstand ing
Ġmechan ism
u ces
Ġconcept s
Ġth reat
Ġliter ature
e xt
Ġqu al
Ġres c
Ġcr u
Ġmis le
Ġpad s
Ġo z
Ġexcept ion
Ġstain less
Ġinter act
x ic
in o
Ġpl ant
Ġconven ient
Ġhigh light
at ors
and er
Ġt ent
Ġprint ing
is ions
Ġmy th
Ġs d
Ġcontain er
Ġe ase
Ġm ere
c ious
Ġb read
Ġspirit ual
Ġprom pt
m iss
Ġbo l
k in
Ġge ar
Ġal ot
Ġsent ence
Ġmag az
Ġepiso de
Ġr are
i ven
Ġsil ic
Ġchann el
bb les
Ġconnect or
Ġass ist
Ġreview ed
Ġreli able
Ġbud get
Ġen s
Ġwr apped
Ġne at
Ġro se
Ġr aw
Ġchem istry
Ġsens or
Ġcomb ination
Ġminim al
Ġr ace
in ct
Ġins er
Ġyou t
Ġgri ll
Ġh ill
a ff
as hing
Ġs an
Ġbenef it
Ġdepend ing
Ġk en
Ġimprove ment
Ġappear ance
Ġdisc onnect
Ġri pped
Ġremo ving
Ġcard board
u able
Ġunb i
Ġre nt
Ġg y
Ġport s
b re
Ġunne cess
Ġdr am
Ġpack aged
Ġear bud
Ġsc ore
Ġscratch es
wh el
Ġade qu
Ġv ent
Ġex ternal
re h
Ġunbi ased
Ġh ung
c ast
Ġbo nd
Ġpen cil
Ġri p
Ġcl iff
Ġal arm
ch es
i ers
Ġqu it
Ġnow here
Ġdes per
Ġli qu
Ġsuggest ed
Ġmyster ious
Ġbul ky
Ġbor n
Ġgraph ic
Ġme lo
Ġn ick
Ġyout ube
Ġdeli ver
Ġso ap
Ġdre ams
Ġint egr
Ġas h
iz z
Ġfal se
Ġso ph
Ġexerc ise
Ġre char
Ġunex pected
Ġnotice able
Ġge orge
Ġra ised
Ġcall ing
Ġluck ily
Ġhe el
Ġprom ise
Ġr uss
Ġj er
Ġpair s
Ġlead ing
Ġmiss ion
as er
Ġjo ke
Ġr ings
Ġshould er
Ġm b
Ġun pl
Ġstay ed
Ġso ck
Ġadjust able
Ġfunction al
Ġgu ard
Ġlisten ed
ut ions
Ġy a
Ġunder st
ess ed
id ay
ific ation
ne ath
Ġc ro
Ġswe at
Ġve nd
Ġsk im
Ġal ph
Ġto ss
Ġchar l
Ġunder neath
Ġwill i
Ġgar age
p ret
Ġb ars
Ġcl ips
Ġcontin ued
ol ic
Ġwa ited
Ġf t
o d
Ġqu een
Ġess ential
Ġde ck
Ġwe igh
Ġact ors
Ġmo b
Ġs izing
Ġrelig ion
Ġantic ip
t op
Ġand roid
Ġhelp ing
Ġr ules
Ġrem ark
m ark
Ġfr an
Ġabs or
Ġrecogn ize
Ġupd ated
Ġanim al
Ġpre gn
Ġtr ay
Ġarg um
Ġjapan ese
Ġdri vers
Ġthr u
Ġrece iving
Ġdiscuss ion
Ġser ve
Ġrepet itive
Ġdet ective
Ġphoto graph
Ġr ap
Ġess entially
Ġth ous
Ġdoll ar
Ġy og
Ġdescri bes
Ġcont ext
Ġse es
Ġgent le
c re
Ġdef ect
Ġph r
Ġpicture d
Ġcompan ies
Ġger man
p oint
Ġgre y
Ġe ight
id s
Ġli es
Ġlack s
Ġcartrid ge
Ġexp and
Ġstep h
Ġch est
Ġcre am
Ġl it
Ġyes ter
Ġlim it
Ġsto ps
Ġwe ap
Ġbl ind
Ġcho col
Ġmajor ity
Ġb oo
Ġchr on
Ġd ar
Ġprod uce
Ġh ub
Ġp unch
Ġsleep ing
ci ent
Ġsav ing
Ġf und
Ġtrans form
Ġsw im
Ġf ed
Ġbas k
Ġcrit ical
Ġdis g
Ġide al
Ġmount ed
Ġimag ination
Ġgr own
Ġrecord ed
Ġcont rib
st al
Ġstrong er
Ġport able
Ġstrong ly
Ġinde pend
Ġdist ur
Ġgener ation
Ġf ake
Ġsuper ior
Ġs lo
Ġlight ing
Ġg am
Ġwater proof
Ġstrugg les
Ġexplain s
Ġp il
Ġless ons
Ġcut s
Ġman age
Ġsp read
Ġworth y
Ġcuri ous
Ġimpro ved
ot hing
n ight
Ġsc o
Ġent h
Ġrepres ent
y er
ac ity
Ġbas is
Ġjust ice
Ġdeterm ined
Ġg ps
Ġp itch
Ġplan et
o ying
Ġsurv ive
u le
Ġli ber
Ġbed room
Ġwid th
Ġfocus ed
Ġdri ll
ce ed
Ġam b
Ġmir ror
Ġp our
Ġveh icle
Ġg all
Ġthick er
Ġro bert
Ġvoc als
Ġqu e
Ġnew er
Ġor ange
Ġt ill
Ġimpress ive
al og
Ġle e
Ġdec ides
Ġlead ers
Ġcas ual
i os
gg ed
u ary
Ġbl ades
Ġfact or
Ġstud io
Ġexper t
Ġmed ical
Ġhum ans
Ġco lored
r s
ess ion
Ġpick ing
Ġmisle ading
Ġw itch
Ġwhen ever
Ġsu ction
m os
us es
Ġpain ful
Ġstruct ure
Ġcircum st
Ġg orge
i est
Ġenj oying
Ġyester day
Ġsp are
Ġown er
Ġbo ss
Ġinc om
Ġemp loy
Ġhar ry
Ġad o
h ile
air s
Ġreturn s
in ated
Ġaw hile
um es
Ġmem ber
Ġh ood
Ġgal ax
ak ed
Ġsl ipp
ain t
Ġepiso des
Ġgr ay
Ġtechni ques
Ġt ax
ir ts
Ġje ans
Ġcott on
Ġunbelie vable
Ġsal t
Ġy ard
Ġj im
Ġtreat ment
o on
Ġh ated
ak ers
Ġf urn
Ġkill ing
Ġc ath
Ġm ild
Ġcompat ible
uc ing
Ġex cess
Ġbath room
Ġm aps
Ġf au
Ġadv ant
Ġfamil ies
Ġpolic y
Ġfirm ware
Ġsh r
Ġo ven
mp ath
Ġsatisf ying
Ġinst ance
Ġre b
Ġli e
am ent
Ġg ro
Ġo s
Ġneighb or
Ġse ven
Ġsh ots
Ġfl ight
Ġshoot ing
Ġref res
Ġout standing
Ġm ood
Ġcour t
Ġtri gg
Ġappreci ated
Ġc ash
Ġout er
Ġfree z
Ġgard en
Ġaf ric
Ġinstall ment
Ġcre ep
Ġpow ers
Ġs its
Ġg aming
Ġbl ow
oo p
Ġam p
Ġdeser ves
v in
Ġthread s
p iece
Ġdeep ly
Ġhe y
Ġdec or
Ġa st
Ġsurprising ly
Ġchocol ate
Ġdro ps
Ġro d
Ġpres ident
Ġsu cks
Ġgalax y
Ġcheap ly
Ġj ane
Ġspl it
Ġeng land
Ġgorge ous
Ġcl ich
Ġwe alth
r om
Ġcom ic
Ġsc ott
Ġmark s
Ġjo e
Ġc ateg
Ġsystem s
Ġc a
Ġfrank ly
Ġmeet ing
Ġtyp ically
l an
Ġinter n
Ġsc ar
p an
Ġprotect ive
Ġsl ot
Ġinstruct ion
Ġuni verse
Ġoppos ite
a ire
Ġple asure
Ġnav ig
Ġsport s
Ġn ur
Ġgir lf
Ġw ars
orm al
Ġrush ed
Ġcook book
Ġdirect or
Ġmo on
Ġc ow
Ġgirlf riend
Ġapp lied
so ft
Ġc in
Ġfil ters
Ġb ound
Ġbol ts
Ġvis ion
Ġus a
ri e
hes ive
Ġco at
Ġconf ig
r ical
pr int
Ġsque e
Ġcartrid ges
Ġw ake
Ġb log
Ġlay er
Ġsing ing
Ġh en
Ġt ick
Ġliter ary
Ġcomp reh
Ġac ad
Ġdis k
Ġtest ing
Ġcomp ress
Ġr ow
Ġx l
Ġrem ains
ul ate
ar a
Ġprim ary
Ġag es
Ġfl ick
Ġw is
Ġp ian
Ġresearch ed
Ġb ind
f ill
Ġsal es
ul ated
b i
Ġtr ade
Ġang ry
w as
Ġh ide
Ġk iss
Ġmem ories
Ġhead phone
Ġso lo
Ġindust ry
Ġw w
Ġdec isions
Ġnut s
Ġguess ing
Ġsuper b
Ġtal ks
z y
im ate
so ci
Ġsur f
Ġbott les
ing e
Ġpolit ics
ang ed
Ġconnect ions
Ġte ars
ge nd
Ġb ank
Ġpres ents
k a
Ġpound s
e in
Ġsho pping
Ġasse mble
Ġl b
o v
Ġsam ple
Ġan th
Ġacad em
Ġpush ed
d ate
Ġsent ences
Ġprov iding
Ġs pect
Ġtight en
Ġart ists
Ġallow ing
Ġel astic
Ġus age
Ġremind s
Ġdifficult y
Ġslee ve
ot ic
Ġtal es
m et
Ġrh y
Ġsumm ary
Ġanaly sis
Ġstere o
Ġannoy ed
Ġpad ding
Ġsour ces
Ġal ign
Ġte x
Ġth umb
ro ll
ict ed
Ġemot ion
Ġhor se
v ision
Ġpleas ant
Ġsch ol
Ġchem ical
Ġcomm er
Ġintellig ent
Ġha ll
un ate
ar ant
Ġcontem porary
Ġinter face
Ġinsp ir
Ġle gend
Ġmil k
Ġcomp artment
Ġglo ss
Ġj azz
Ġthem es
Ġpo et
Ġdy nam
Ġremind ed
Ġpet er
Ġflash light
Ġunnecess ary
Ġauth ent
Ġtouch ing
Ġthom as
Ġcost ume
Ġse a
Ġinform ative
Ġsy mpath
Ġcan ce
Ġvar i
Ġpost ed
Ġm as
Ġc ause
Ġtal ented
Ġloo p
Ġsc ary
Ġlo ver
Ġas soci
Ġho ls
Ġclean ed
et ime
se y
Ġhea ven
Ġst orm
Ġstitch ing
nd on
Ġcush ion
Ġhe ck
d r
Ġcom edy
Ġtreat ed
Ġstick y
Ġzo om
Ġloo s
Ġover whel
un ction
c d
Ġr ice
Ġconf ir
Ġcent ral
Ġcontr ast
Ġun e
Ġbu bbles
Ġrid ing
ad s
Ġaccept able
Ġheav ier
Ġt ail
Ġg ig
Ġlet ting
k n
Ġshall ow
Ġh ilar
Ġrepe at
Ġest ab
re l
Ġpur se
Ġbask et
Ġan cient
Ġdrink ing
Ġd ash
Ġut ter
st all
Ġarri ve
h ouse
Ġconvers ation
Ġcover ing
a ult
Ġcr ow
Ġadvent ures
Ġdo ck
Ġt ang
Ġfunction ality
Ġrefres hing
Ġt ask
Ġri g
Ġparan ormal
us ing
Ġproject s
Ġconstruct ed
Ġp atch
Ġtext ure
Ġsc i
Ġv ivid
c ies
d ies
Ġp ushing
Ġview ing
Ġt ort
Ġun h
Ġlast s
Ġkind s
Ġgreat ly
Ġfrustr ation
Ġfre ed
Ġru ined
Ġsp ill
Ġvac ation
Ġliqu id
Ġto dd
Ġcreat es
Ġincor rect
Ġentertain ment
iven ess
Ġre act
Ġd um
ad o
Ġl uc
Ġmarket ing
Ġappro x
Ġa im
Ġcont ents
Ġar my
Ġfly ing
Ġbo at
Ġpl ans
Ġpur ple
e es
Ġconsist ent
ach e
Ġval uable
Ġe arn
Ġte eth
Ġcy cle
Ġim pl
Ġauthent ic
Ġme mo
Ġview s
Ġan k
Ġfort unately
Ġsm ith
Ġgu arant
Ġd umb
Ġexerc ises
Ġus ers
Ġfavor ites
Ġunus ual
Ġscient ific
Ġact ive
Ġbother ed
Ġcomp os
Ġunf old
et ch
Ġachie ve
Ġted ious
Ġearbud s
Ġg ap
Ġpurp oses
Ġcircumst ances
es y
Ġv ir
Ġbuy er
Ġback up
Ġfr ag
Ġreveal ed
Ġt ack
Ġem ph
ugg ing
Ġmon ster
Ġgo al
Ġm ental
Ġgreat er
Ġball s
Ġpro ve
Ġsupposed ly
Ġp ouch
Ġt orn
Ġal ien
iz er
Ġc ass
Ġfood s
Ġsilic one
Ġchick en
Ġexp osed
Ġto es
Ġstr ings
Ġmyster ies
Ġche w
Ġst un
and a
Ġal umin
Ġlo ndon
nd a
it a
Ġfin an
Ġgu est
Ġpr ison
Ġqu ir
Ġan x
Ġce le
Ġho st
Ġholly wood
Ġmen u
n at
Ġattach ment
n s
Ġmagaz ine
v y
Ġworth less
Ġexp os
Ġwe l
Ġret ail
Ġb ibl
ve y
Ġinter pret
Ġprim arily
Ġel iz
Ġstre am
Ġbel ong
Ġnarr ator
Ġadjust ment
Ġtravel ing
o b
Ġshock ed
Ġin j
Ġc aut
g l
Ġsecond ary
it ure
Ġcap acity
Ġspoil ers
is y
Ġcap able
Ġpain ting
Ġqu ar
be ll
Ġpl at
Ġm i
Ġfe llow
en e
in ter
Ġgy m
Ġvis ible
al d
Ġbus y
Ġed ited
Ġj ar
ri er
Ġdur ability
Ġop ens
Ġcheck ing
Ġcond itions
Ġdo zen
Ġfig ures
Ġorgan ized
h ol
Ġd ies
ad a
l on
Ġlif etime
ac le
Ġconnect ing
l im
Ġmicro soft
Ġload ed
Ġtroub les
Ġse lection
im p
ab les
o ff
Ġelectron ic
Ġautom atically
Ġw rench
Ġhilar ious
re g
Ġstick ing
ab eth
ie l
Ġw ine
u nder
ot y
Ġout let
Ġsupport ing
Ġunc le
Ġthr owing
Ġgramm ar
Ġcomput ers
Ġcele br
Ġser ial
Ġnecess arily
Ġser v
Ġform ula
Ġflex ible
Ġwo lf
Ġpower ed
Ġhalf way
Ġlink s
Ġign ore
Ġhols ter
Ġreason ably
Ġhook s
Ġadequ ate
Ġfall en
Ġstandard s
Ġrich ard
Ġn ik
Ġre de
ott en
Ġmatter s
Ġter ror
Ġsu bs
mm er
Ġz ip
Ġstrugg ling
Ġcapt ure
Ġwall s
Ġdr agon
Ġde als
g reat
so le
Ġem erg
Ġmemo ir
Ġemph as
r as
Ġd ying
Ġe ast
Ġpur s
Ġbe ll
Ġexplain ing
Ġal co
Ġchalleng ing
Ġneed less
or a
Ġalumin um
Ġh ip
im ents
Ġha w
Ġfour th
Ġfurn iture
Ġm esh
Ġfor ces
ill e
Ġper man
Ġmount ain
Ġinsp ired
Ġti res
Ġla id
Ġspoil er
in ate
Ġlo yal
Ġb ree
Ġo l
Ġmed io
Ġtim er
Ġe ager
Ġclean er
Ġw ider
Ġdes ired
Ġaccident ally
Ġbl ame
Ġb er
Ġmill ion
Ġjew el
Ġthri lled
Ġdownload ed
Ġn u
Ġdeb ut
Ġseem ingly
Ġtast es
Ġtend s
e k
Ġswitch ed
al ian
l ines
Ġdist ort
Ġadvant age
m art
Ġdo ors
Ġtele vision
Ġbo lt
Ġd ual
Ġhapp ily
Ġunre al
Ġr ug
at is
il es
Ġind o
Ġeduc ation
Ġburn ed
Ġser ved
Ġtem p
Ġchann els
Ġinsight s
ite ch
ho ld
Ġrecommend ation
k able
Ġinst antly
Ġtw enty
Ġs isters
Ġpubl ishing
Ġgen ius
Ġinst ant
Ġmicro phone
Ġst able
Ġb ird
Ġhum id
Ġatt itude
Ġvend or
Ġk at
ast y
Ġattract ion
Ġpriv ate
ur ally
Ġadv ance
Ġlens es
Ġter ribly
Ġcal if
Ġsub tle
Ġ vert
Ġbring ing
Ġoccas ional
Ġapart ment
Ġdep artment
Ġro lling
Ġkn ives
Ġrel ax
Ġtun e
c ur
d own
Ġho sp
Ġep ic
Ġcapt iv
Ġk ate
Ġton s
Ġbegin ner
Ġnight m
Ġes p
Ġassemb led
Ġpick s
Ġthank fully
Ġm ile
Ġmag ical
m on
ill a
Ġc it
f o
en a
Ġbul k
Ġequ ally
Ġdescri bing
Ġprogr ams
Ġx box
Ġint ention
Ġe ll
Ġfreed om
Ġo em
Ġlog itech
Ġtow el
Ġdark er
Ġcommer cial
Ġg erm
Ġrecord s
Ġt an
Ġshap ed
il ed
Ġno se
Ġbre w
Ġb oun
Ġfin ishing
Ġinc ons
Ġcalif orn
Ġad hesive
Ġle an
Ġt act
ra ft
Ġcharg es
Ġcl othing
Ġv iny
Ġt ro
Ġso f
Ġchalleng es
bb y
ac ed
Ġf ict
ul ting
Ġske pt
Ġincre ase
oo oo
Ġpattern s
Ġw on
Ġve get
Ġfeed back
Ġl unch
Ġultim ate
Ġrep ut
Ġb ang
Ġsol ved
Ġpub lish
Ġfair y
Ġtri ps
Ġbrack et
Ġcon sequ
Ġlo vers
Ġsure ly
Ġyog a
Ġp ens
gg ing
Ġa ug
Ġde le
Ġchar m
Ġad apt
Ġinter ior
or ation
Ġh ence
Ġun kn
Ġvict or
Ġhundred s
Ġsing er
f ord
Ġre ly
Ġp ic
Ġunderst ood
Ġs ag
er al
Ġstick er
Ġburn ing
Ġrecord ings
Ġti re
Ġgr anted
Ġhous ing
Ġmed ic
ar ian
if ying
Ġwe ars
Ġvoc al
b an
Ġl em
l or
Ġcar b
Ġattempt ed
Ġb are
en ced
Ġpian o
Ġalph a
Ġdisg ust
Ġdri ven
Ġa a
Ġel im
Ġf av
Ġb a
Ġcritic ism
Ġoutdo or
Ġj on
Ġtransl ation
Ġnightm are
Ġwhat so
Ġn ail
Ġconc er
Ġdraw ing
Ġch os
Ġdin ner
Ġgrow th
Ġg au
Ġreg ister
Ġprotect ed
Ġcris p
Ġviny l
Ġsco pe
Ġo ct
Ġtr aged
out s
Ġrechar ge
Ġeliz abeth
Ġwonder fully
Ġprin ci
Ġsubst ant
Ġwhatso ever
Ġcomm and
r ated
l ies
Ġb atch
co ver
Ġcaliforn ia
s hip
Ġrec all
Ġpr a
Ġdesk top
com ing
Ġresour ce
Ġdro pping
Ġintrig ued
Ġs ne
Ġsever e
Ġgr ain
Ġcool er
Ġameric ans
Ġfac ing
Ġt aught
Ġval ve
Ġass ign
Ġinvest ment
g ie
Ġrec o
Ġn ational
Ġchos en
Ġaddition ally
Ġf ul
Ġtrans m
Ġpull s
Ġsw ing
u ous
Ġsound ing
n ow
Ġplan e
Ġc ake
Ġn er
Ġext ensive
Ġpresent ation
Ġcomp ass
it ation
Ġactiv ities
en er
Ġp or
Ġman agement
Ġno body
Ġpart ner
c ase
Ġbu ff
Ġbu bble
Ġn ative
Ġid i
Ġext ension
Ġassum ed
Ġhero es
Ġprom ised
s m
Ġlist ing
Ġmar ch
Ġsh irts
Ġfr uit
c et
Ġdec ades
Ġconc ert
Ġequ al
book s
Ġeffort s
Ġmo ist
Ġunit ed
Ġfl uff
g ant
Ġfl av
Ġoper ation
Ġvirt ually
Ġag ent
Ġcontain ed
Ġc ub
ce nd
Ġbe ats
Ġincons ist
Ġcam ping
i ently
Ġtri m
Ġst atic
Ġmedio cre
Ġmor al
Ġmart in
te en
Ġsh er
Ġteen age
Ġup side
Ġa id
Ġdelic ious
Ġw ound
Ġj oint
Ġgrou ps
tr ack
Ġoffer ing
w ord
Ġtrans port
ch o
Ġnove lla
los ure
Ġfab ulous
Ġpuzz le
Ġto oth
Ġk r
Ġbl ues
Ġhun ter
nat ural
Ġtri al
Ġelectron ics
Ġcon ver
Ġman ages
Ġto ler
Ġreach ed
Ġplot s
Ġs en
Ġresol ved
Ġha un
Ġat tend
Ġter rific
Ġsh red
Ġins pect
Ġcr ush
Ġsar ah
Ġsmooth ly
Ġr ise
Ġin se
ps on
Ġac qu
ol ves
Ġor ch
Ġh arr
Ġd er
Ġdiffer ences
Ġconsist ently
et te
Ġpl ants
Ġdraw er
Ġrev olution
Ġman ip
Ġshort s
Ġheav ily
Ġw at
Ġwit ness
Ġro ller
ur a
Ġche ese
Ġtit les
Ġprofess or
Ġc age
Ġdemon str
Ġdisc s
Ġen h
Ġemb arr
Ġpow der
Ġsatis fact
Ġdis like
Ġpo ly
ll ers
Ġsuggest ions
Ġw ired
Ġbr ut
Ġadvert ising
Ġgr ass
Ġscratch ed
Ġdistract ing
Ġri ver
Ġdv ds
Ġdown side
Ġun w
Ġact s
Ġre nder
Ġint ent
Ġslee ves
Ġirrit ating
d ri
Ġplug s
Ġident ical
Ġch ip
Ġcover age
Ġcor por
Ġlead er
Ġphilosoph y
Ġb ump
ree k
Ġprogram ming
Ġchar ming
Ġmere ly
u ality
Ġlock ed
Ġsub t
pt ive
Ġwar ned
at ical
Ġdimens ional
Ġman ually
t a
Ġfl esh
Ġcop ies
Ġesc ap
Ġconvin ced
Ġc ds
Ġgi ant
Ġst ead
Ġhand led
Ġcabin et
Ġsty les
Ġown ers
Ġru le
Ġmac book
Ġsouth ern
u ation
Ġdesign s
Ġn a
Ġb in
b l
Ġst om
Ġpoint ed
Ġfar m
Ġg ang
Ġportray ed
Ġl g
Ġl atch
Ġdistur bing
Ġp ul
Ġreg ularly
Ġrede em
us i
Ġg ab
Ġh arsh
Ġprefer red
Ġm ature
Ġkid n
Ġsh ake
Ġsignific antly
l aim
Ġfinan cial
Ġse ams
Ġconf idence
Ġg ut
Ġste al
c raft
Ġtal ked
Ġind ian
Ġco ating
Ġconf ident
ap ers
Ġthin ner
Ġstere oty
Ġgl ued
Ġcre w
Ġscen ar
Ġeven ing
u ate
Ġhand ed
Ġperform ed
Ġgener ic
Ġde mo
Ġte ens
Ġvo ices
Ġv ast
Ġb ust
Ġaccess ories
Ġsecure ly
Ġst ack
Ġcomment ary
ak s
Ġopp osed
Ġsl iding
Ġpack s
Ġimport antly
Ġser ving
Ġwal ked
Ġbio graphy
g alley
Ġdram atic
Ġstay ing
Ġther m
Ġju ice
Ġread able
Ġqu otes
Ġover come
en om
Ġrepeated ly
Ġjud ge
Ġdraw back
fer ence
Ġenth usi
Ġang st
Ġpo le
Ġsl ides
augh ters
Ġoper ate
Ġembarr ass
r ain
Ġturn er
st ic
Ġfill ing
Ġtreat s
Ġstud ies
us ive
Ġpress ed
Ġstory te
Ġunus able
Ġmetho ds
Ġfl ap
Ġti ed
atter ed
Ġpain ted
nd ay
Ġd s
Ġw ig
Ġnet galley
Ġsh ared
Ġwis dom
Ġot ter
Ġperform ances
ol a
Ġent ry
Ġlearn s
Ġyou th
Ġmess ages
Ġback ing
Ġfict ional
Ġli p
Ġneed ing
it ors
Ġrandom ly
m other
Ġunkn own
Ġab and
Ġsuffer ing
Ġcompon ents
Ġjo bs
d a
Ġcomfort ably
ason ic
Ġvol t
Ġclar ity
Ġforg otten
ach el
Ġrele vant
Ġprotect ors
Ġamaz ed
Ġelect rical
Ġli king
Ġfocus es
Ġint u
Ġzomb ie
Ġexc it
Ġg h
Ġcompl iment
Ġspan ish
Ġind ex
Ġw il
Ġseal ed
Ġlin er
Ġresc ue
Ġdis ney
Ġsn apped
Ġout s
Ġcolor ful
Ġre vel
Ġded icated
Ġre ven
Ġsubst ance
Ġswitch ing
Ġh arn
was her
ag ers
Ġmob ile
Ġch ic
Ġal i
Ġm cc
Ġsmell s
Ġlaugh ing
Ġwatch es
Ġcour age
Ġme xic
Ġshif t
Ġcir cle
Ġpo pped
Ġtouch ed
Ġbal anced
Ġhigh est
Ġshar ing
Ġplan ned
Ġrest aur
Ġbu gs
Ġsound track
Ġl cd
Ġhosp ital
ic y
Ġful fill
Ġlif est
Ġin fer
ang le
xt ure
Ġdri ed
an o
min al
Ġo m
ri l
Ġdish washer
Ġhen ry
Ġre action
Ġmanufactur ing
en cies
Ġj ess
Ġsupp le
Ġtex as
Ġs s
Ġmem orable
Ġc aps
Ġdis ag
Ġmax im
p ro
Ġa ust
Ġset t
Ġto ile
Ġwood en
Ġt ad
Ġdevelo ping
Ġdis e
Ġod or
e g
id a
Ġact ivity
Ġpract ically
f y
Ġhon or
Ġh oney
Ġobs erv
Ġremain ing
Ġsub m
Ġbor der
Ġsy m
Ġa x
Ġflaw ed
Ġnat urally
Ġeng aged
Ġsm ile
k ins
Ġch ase
Ġsh ield
Ġther ap
im ately
Ġjack son
Ġprov o
Ġcomb ined
r ont
Ġinflu ence
ag o
Ġtrigg er
Ġhor iz
Ġal ert
Ġoffic ial
Ġtr ag
Ġl ic
Ġcolor ing
Ġattempt ing
f ield
Ġr az
unk y
Ġsyn c
Ġexcit ement
Ġde ll
Ġharn ess
Ġshad ow
Ġhand ling
Ġprec ise
Ġexist ing
Ġdiscount ed
Ġbelie ves
c ul
Ġat mos
Ġprin cess
Ġident ify
Ġl ag
Ġa ck
Ġorgan ization
Ġenem y
Ġpleas antly
Ġv ague
e ch
Ġforg ot
Ġsty lus
Ġindepend ent
Ġle aking
Ġbr idge
Ġaccompl ish
Ġa th
Ġse mi
Ġh itting
il ation
Ġc ale
Ġunivers al
Ġcand y
Ġstr ain
Ġprin ce
Ġsurv ival
Ġemot ionally
Ġgold en
Ġunfort unate
Ġgif ts
Ġdem and
Ġdimens ions
Ġl atter
Ġtight ly
Ġresour ces
Ġsee k
Ġlos es
Ġord inary
Ġstr aw
Ġbr ace
Ġaccess ible
Ġmagnet ic
Ġj ones
Ġinc on
Ġupd ates
Ġref ill
Ġcomb at
Ġbar b
Ġcont ract
Ġaband on
Ġsee king
lo ved
wor ks
Ġinsp iring
Ġtraged y
Ġexper iment
Ġtri pod
Ġlog o
Ġfl or
Ġcry stal
Ġindividual s
Ġlin ing
ash ed
Ġleg al
Ġchr ome
Ġvill ain
Ġg ather
Ġexplan ations
Ġopt im
Ġhapp iness
Ġra ise
Ġaccount s
Ġd aughters
Ġpoet ry
Ġje ff
ha ust
Ġas us
Ġco le
Ġpr ices
ious ly
Ġus able
Ġnot ch
Ġdeser ve
Ġm ike
r ate
n es
Ġsol ar
Ġspend s
Ġlist s
Ġcor n
Ġdiv or
Ġdis aster
Ġf ate
Ġprof ile
Ġfan cy
Ġz e
h am
Ġag re
Ġhun t
Ġtyp os
Ġbir ds
Ġfau cet
Ġresist ance
Ġw ink
Ġhe ater
Ġappeal ing
Ġbr ows
Ġglo ve
Ġbatt les
Ġpo v
Ġex haust
Ġclos et
Ġgar min
Ġfore ign
Ġb ay
Ġunreal istic
Ġpregn ant
Ġcan cer
Ġm ort
Ġg el
Ġd c
Ġtr ap
at ory
Ġco in
Ġad orable
Ġgau ge
Ġintrig ue
Ġb ush
Ġcath olic
a fe
Ġsign s
Ġinform ed
Ġpat ience
Ġcord s
Ġc ave
Ġres id
Ġc ous
Ġdestroy ed
Ġpack ing
u ri
es ter
Ġf at
Ġmic row
Ġland sc
Ġexplo re
Ġbl own
ing er
Ġbas ics
Ġintell ect
Ġadv ise
Ġadjust ed
Ġsubject s
Ġimport ance
Ġw ick
Ġser ves
at able
if ier
Ġre bo
Ġg ross
Ġany body
Ġpu ppy
Ġarr ang
Ġcar ried
Ġemail ed
f unction
il s
Ġclose ly
Ġconvers ations
Ġm ask
Ġover look
Ġsl ots
Ġleak s
Ġheal ing
b its
Ġl aser
Ġact or
Ġsw ord
Ġsh ade
Ġbo b
Ġal ter
Ġcult ural
Ġk ay
Ġfl ag
Ġr ab
Ġwal ks
Ġli kable
Ġaug ust
Ġme al
Ġste ve
Ġmar ry
nd ers
Ġjum ping
Ġval ues
Ġch er
Ġno pe
Ġl au
Ġdifferent ly
Ġho ly
Ġsmo ke
Ġdrug s
Ġad am
Ġworth while
Ġan ne
Ġdist inct
Ġsit es
Ġst ap
Ġred uced
Ġhi king
Ġcenter ed
b oy
um s
Ġcreep y
Ġt empt
Ġclos ing
Ġany ways
Ġbright ness
Ġprep are
Ġy r
Ġfault y
Ġpre par
Ġbit ter
Ġt uck
Ġdelight ful
Ġbr ook
Ġmar vel
Ġskept ical
Ġhol iday
Ġsuit able
Ġfac es
Ġgrind er
Ġchrist ians
le ts
Ġinstrum ent
Ġmass ive
Ġcons cious
Ġbu dd
m en
Ġcapt ured
Ġcl ue
Ġinterview s
Ġg em
Ġu k
Ġmu g
Ġorch est
ur b
Ġassum ing
Ġconsum er
oo per
Ġsurround ing
Ġpan asonic
Ġconc ent
Ġw itty
Ġcar ing
Ġintellig ence
ce ived
Ġquar ter
Ġdre w
for ce
Ġhumor ous
Ġtwist ed
Ġstat us
Ġch uck
Ġphoto graphy
d ie
Ġsort s
Ġrece ption
Ġb iz
Ġprod uc
Ġintern ational
d ers
Ġch ips
Ġevery body
Ġlu ke
Ġqu ant
Ġrespons ible
Ġthe ater
Ġm ate
Ġl an
Ġhot el
it z
Ġr at
Ġvampire s
Ġlo cks
Ġune ven
th eless
ist ics
w o
Ġtoile t
atis f
Ġti es
Ġj en
Ġn asty
Ġalco hol
Ġbibl ical
Ġru in
Ġis ol
Ġph enom
Ġn ons
Ġj une
Ġthick ness
Ġlock ing
Ġp ins
s ters
Ġapplic ations
Ġmark ed
Ġtre nd
Ġfl ush
Ġl azy
v is
f all
l ined
Ġenjoy s
Ġev olution
Ġbor row
Ġsy mb
Ġclass es
Ġunh appy
Ġruss ian
Ġexc use
ath ers
Ġlad ies
Ġben e
Ġident ity
Ġpass ing
Ġp i
Ġshel ves
zz y
Ġstat ement
Ġsp y
Ġcar ol
re te
Ġrest art
Ġlifest yle
Ġp ix
Ġbu ds
Ġob l
Ġb un
Ġcur tain
Ġsh iny
Ġsch ed
ic ide
Ġnever theless
v ent
Ġconcern s
Ġhapp ier
Ġchr is
Ġpress ing
Ġreven ge
l ist
Ġack now
Ġteen ager
Ġap ril
ber ry
Ġi e
Ġfac ed
Ġfrag ile
Ġha y
Ġdest ruct
Ġmach ines
Ġhuman ity
Ġty ping
Ġreview ing
Ġwel come
ell e
ut or
Ġsuper natural
Ġdeli vers
s pe
Ġd ys
Ġto ps
ag ger
Ġflo ors
Ġover night
Ġwilli am
Ġp ig
Ġdist rib
Ġthous ands
Ġscre w
Ġpe pper
Ġgr ate
Ġdiss ap
v i
ate ur
Ġl ame
o le
Ġsteph en
Ġult ra
Ġpass ages
Ġbelief s
Ġcons erv
Ġplat form
ic it
en ess
Ġbr ad
Ġtab s
Ġunivers ity
Ġro cks
Ġrom an
Ġsc ared
Ġdescri ptive
Ġsu ng
Ġdiam eter
Ġm ut
Ġso re
Ġoper a
Ġsurpr ises
Ġst ro
k i
Ġw iring
Ġcliff h
Ġdece mber
Ġlast ly
p a
Ġdry er
Ġin ac
ass es
Ġspo ke
Ġan ger
Ġtun es
Ġgood ness
in ist
Ġblo cks
Ġviol ent
Ġdiam ond
Ġencour age
Ġinvol ving
Ġwal mart
Ġt in
Ġbet ray
ri ved
om s
Ġend less
Ġgun s
Ġrating s
Ġens ure
Ġgu id
re p
f it
Ġl um
Ġgr oo
Ġcomm it
Ġloc ations
Ġwas her
Ġbr ick
Ġbl ink
Ġam ateur
Ġit alian
Ġse g
Ġun lock
Ġincon ven
Ġpaper back
Ġshould ers
Ġas ks
Ġcateg ory
Ġfold ed
Ġsol utions
Ġcompreh ensive
Ġinno cent
Ġd un
Ġw and
Ġim per
Ġcare s
Ġst ink
Ġlab els
Ġstrugg led
Ġgrand mother
l ers
Ġp um
Ġsh ine
Ġjew ish
Ġe ld
Ġtechni que
Ġha llow
Ġcr appy
Ġn ine
as se
ang ers
Ġnight s
Ġvol umes
Ġstom ach
Ġrout ine
os ter
Ġphotograph s
Ġjud g
Ġpersonal ities
Ġsuggest s
Ġcap tain
Ġsome body
Ġsto ve
Ġtrag ic
Ġbl ah
Ġworld s
Ġo w
Ġl ind
Ġp it
Ġaccur acy
Ġresist ant
Ġart work
Ġsu m
ly n
Ġank le
Ġcaut ion
Ġstick ers
ac ing
Ġrele ases
Ġn ation
Ġprem ium
is a
Ġgu ides
Ġan alog
r ick
Ġorgan ic
Ġincre asing
Ġry an
Ġform s
Ġdish es
Ġtw in
Ġk o
Ġto ast
Ġcl amp
Ġwood s
Ġj os
Ġover view
Ġattract ed
Ġlike able
Ġfill er
Ġadjust ing
Ġsubs cri
ch e
Ġdel ay
Ġphys ically
Ġbo om
Ġav id
Ġob st
Ġlem on
Ġlabel ed
l am
b orn
g u
ath an
Ġswitch es
Ġfe e
Ġbu zz
Ġres erv
Ġpat ient
Ġsuffer ed
o ps
Ġsepar ately
Ġend e
n ie
Ġinvestig ation
g ain
Ġloc ated
Ġspeak s
om eter
Ġin her
Ġenjoy ment
Ġsil ent
Ġtw e
Ġaccom pan
ro p
pl ace
y ou
Ġri ve
Ġhe ating
Ġheart s
Ġsl ower
Ġsupport ed
Ġper cent
Ġro yal
Ġst ations
Ġhun ting
Ġprovo king
Ġqu ote
Ġencounter ed
Ġlog ic
Ġbree ze
Ġal to
Ġsyn th
Ġoper ating
p ir
Ġegg s
Ġoverwhel ming
a ign
Ġw ipe
Ġintu itive
Ġcond uct
Ġround ed
ph ere
v ation
Ġweap ons
Ġa ri
Ġeffective ly
Ġkn ight
Ġpar is
Ġj uly
fic ial
Ġafford able
Ġsuggest ion
Ġfu el
Ġwar ri
Ġtest s
Ġstun ning
Ġprint s
th y
Ġexec ution
Ġf id
Ġcap ital
Ġconnect s
Ġpen ny
fl ix
Ġclos ure
Ġpe ar
Ġsuc ceed
Ġem ma
Ġcy c
Ġaw a
Ġmicrow ave
Ġen light
Ġdet ach
Ġjum ps
Ġcount ries
Ġrecogn ized
Ġdark ness
Ġr ail
Ġlay ers
Ġl one
Ġremark able
Ġcamp aign
Ġautom atic
Ġcreat ures
Ġtouch es
b a
ans hip
g un
Ġrout e
Ġnet flix
Ġreput ation
Ġsn aps
Ġbe ep
Ġwh is
Ġim ple
Ġbl and
Ġjo in
ire s
Ġref used
Ġlay out
Ġab rupt
Ġh itch
Ġnav y
Ġtre es
Ġspeed s
Ġutter ly
Ġcre ation
Ġover pr
Ġar th
Ġhy pe
Ġch ill
Ġpr oud
Ġlast ing
Ġfeed er
Ġvert ical
Ġb one
Ġs ab
Ġafter no
Ġcirc uit
Ġdocument ary
Ġla unch
Ġart icles
b ow
y n
Ġwr ink
Ġguarant ee
ac les
Ġwonder ed
Ġs ant
Ġmusic ians
Ġsuccess fully
Ġins ane
Ġargum ent
Ġbelie ved
Ġpar all
Ġemail s
Ġnic er
Ġour selves
Ġp ans
Ġmind s
Ġport ra
Ġado pt
Ġnon eth
Ġche esy
Ġinsight ful
Ġmeasure ments
st ick
Ġhel met
Ġz one
Ġe ve
Ġnoneth eless
av ed
as m
Ġrap id
p u
Ġdem ons
Ġdeterm ine
Ġinc ident
Ġlarge ly
Ġcomple ted
Ġblank et
Ġut il
Ġbuy ers
Ġresol ve
Ġarri val
Ġd arn
Ġa unt
Ġen velo
art s
Ġapprox imately
ec d
ur d
Ġcou ch
Ġha ck
Ġcin em
Ġan ecd
Ġj ake
Ġbe ast
Ġment ions
Ġtrans ition
Ġbenef its
Ġright s
Ġprompt ly
Ġcomp ens
Ġtext book
ann ah
Ġwas ting
ber g
Ġbar gain
Ġcharl ie
Ġtra ff
Ġbreak er
us ion
Ġaff air
Ġhom es
Ġwish ed
Ġdirect ed
Ġch amp
Ġco ast
Ġstrateg y
is co
Ġinvest ed
ou red
Ġopen er
Ġu mb
Ġt ay
Ġconnect ors
Ġst ood
Ġpres ence
Ġo x
Ġfrequ ent
Ġpol ar
Ġdepress ing
Ġcl oud
Ġscre ens
mo nd
Ġseason s
Ġno isy
Ġspe lling
ens ity
Ġro ot
g on
Ġtre mend
Ġlab or
Ġcomp aring
Ġmu ff
Ġass ass
Ġscrew dri
Ġheart bre
Ġun ac
Ġdisco very
Ġcompan ion
Ġqual ities
Ġdesper ate
Ġf m
Ġjum ped
Ġexpress ed
Ġind ia
Ġgri pping
Ġstri ps
Ġdise ase
Ġextra ord
Ġsupp lied
ie ved
Ġsupport s
Ġcraft ed
Ġdev oted
Ġmu d
Ġred uce
Ġinspir ation
Ġ eric
Ġw ing
Ġgo ds
Ġb ark
Ġbe ans
Ġha mmer
Ġse pt
Ġst ones
Ġquir ky
Ġch a
s ion
Ġb ones
Ġsty lish
Ġpl ates
Ġv iet
Ġscan ner
Ġserv ices
Ġdocum ents
Ġupgr aded
are n
Ġsuff icient
Ġve t
es th
Ġanswer ed
j o
Ġshort ly
Ġthe at
Ġst ab
Ġpac ing
Ġble nder
ar re
Ġr ere
Ġbo ld
id ers
Ġam using
Ġbase ball
Ġimple ment
Ġparagraph s
Ġsock et
Ġperio ds
Ġselect ed
aw s
Ġref urb
Ġadm ir
Ġsold iers
ch ing
Ġpo d
atter ing
ore s
os ity
1 0
Ġd ated
Ġab ilities
Ġeurope an
Ġotter box
ag n
Ġchar les
Ġafterno on
Ġal as
Ġk et
Ġinv ent
Ġn ails
Ġinac cur
Ġdisag ree
urch ased
Ġdeal t
Ġe b
Ġn in
Ġmr s
Ġsub sequ
Ġfound ation
Ġumb re
Ġunlike ly
Ġobs c
Ġs i
Ġdef ault
Ġpro ced
v ille
re y
Ġpo ps
Ġsat ur
Ġdet ract
p aper
Ġhands ome
t able
Ġadm itted
Ġann a
Ġspe ll
Ġshr ink
Ġaccom mo
Ġho p
Ġev ol
Ġconc lud
Ġpre tend
st ein
Ġjan uary
Ġd read
Ġs ake
Ġhallow een
Ġtrack ing
al es
Ġpoint less
Ġplac ing
Ġoccur red
Ġbo se
Ġsk ipping
Ġmurder ed
Ġlack ed
Ġstretch ed
c an
Ġfo x
Ġval id
Ġprinci ples
Ġchair s
Ġl es
Ġj ac
Ġmaster piece
Ġha z
Ġenem ies
in i
Ġbu g
Ġvers us
Ġsp ite
Ġl ap
Ġh iding
Ġh oo
Ġal right
Ġis h
Ġgr asp
Ġlay ing
Ġexist ence
Ġclaim ed
Ġincor por
Ġnik on
Ġw i
p arent
Ġfoot ball
Ġce iling
Ġrel ief
Ġwin ner
Ġchristian ity
Ġsepar ated
Ġwar n
Ġdev il
ev it
iz ations
Ġsubstant ial
Ġp ets
Ġsymb ol
Ġdisp ens
Ġrhy th
ess ions
Ġin evit
Ġro lled
Ġchic ago
n is
Ġd ub
Ġtrail er
Ġdisco vers
re am
Ġweak ness
Ġro s
Ġr achel
Ġcom fy
Ġl ake
Ġbl ast
Ġzipp ers
ic ious
Ġdan iel
Ġunpl ug
Ġfro zen
um bs
ib ilities
Ġtodd ler
Ġm oo
p urchased
Ġa qu
Ġsquee ze
Ġp ics
Ġe cho
Ġmatch es
Ġal ice
Ġconfig ur
Ġconcer ning
b ur
ra el
Ġsubst it
Ġcommunic ation
Ġr att
Ġconc rete
Ġalto gether
Ġpurch ases
Ġs ons
Ġw att
Ġre ward
Ġb b
Ġaltern ate
Ġman ager
Ġstead y
an ie
Ġben ch
h ib
ind er
Ġsecond ly
Ġspe ech
Ġslee k
Ġlaugh ed
Ġimag in
Ġch am
Ġser ver
Ġcit iz
Ġrel uct
Ġpad ded
Ġkn ee
Ġfr ance
Ġprof ound
Ġny lon
Ġshare s
Ġw ave
Ġpra ise
Ġconfus ion
al though
um my
ur ance
Ġb aking
Ġgame play
a id
Ġev al
ple te
Ġd ating
Ġcompl iments
Ġpsych ological
Ġh t
Ġpick y
Ġteach ers
Ġan ch
Ġse eds
Ġsc roll
Ġbiz arre
Ġremo vable
Ġdec ade
miss ion
Ġshe er
Ġcomplain ed
Ġoverpr iced
Ġg ate
Ġcl um
Ġsh aft
Ġv in
Ġmin us
g ers
Ġunac cept
Ġr oof
Ġdraw s
res so
Ġdef ense
Ġpal m
Ġf ence
Ġmechan ical
Ġbr ave
Ġacadem ic
Ġp ile
Ġa ustr
Ġminim um
Ġbegin ners
Ġdisp os
Ġcom bo
Ġkn o
Ġsurv iv
Ġtra um
f ect
al ous
Ġped al
Ġdynam ic
Ġover s
up date
il i
a ud
is er
Ġse wn
Ġj ason
ow ed
Ġla ure
Ġh ers
Ġo ce
we ar
Ġmanufactur ers
Ġl ace
Ġconvin cing
Ġgerm any
c ery
Ġp ale
Ġabs urd
Ġcliffh anger
Ġcontin uing
Ġs ided
Ġs ed
Ġinter action
Ġpot ter
Ġcan s
Ġt read
u ps
Ġk ar
ian a
Ġat l
p ros
ut ter
f ast
ut s
Ġwa x
Ġwe ld
ot a
in n
Ġma h
Ġpray er
Ġdiscuss ed
Ġis rael
Ġatmos phere
Ġreal izes
Ġmeas ured
Ġscr ap
Ġhoriz ont
Ġengine ering
Ġemerg ency
Ġt as
Ġglo bal
est ing
Ġun p
Ġstre aming
Ġf er
Ġamazing ly
Ġcr ank
aus ible
Ġaccept ed
Ġc ad
p her
Ġexp ense
Ġur ban
Ġb omb
Ġrough ly
az e
Ġtay lor
Ġcomplain ing
ann a
b or
Ġch at
Ġexcept ional
Ġstr ict
Ġwhere as
Ġg reek
Ġscr ub
Ġpartic ip
Ġobject s
n el
gg y
Ġinvol ve
Ġfol k
Ġthought ful
ilt on
Ġaffect ed
Ġill ness
Ġl ying
Ġmar gin
Ġind icated
Ġcompass ion
Ġfail ing
Ġpr on
Ġsoon er
ud es
Ġapply ing
Ġble w
Ġobs er
Ġpil ot
Ġsurf aces
Ġe c
aw ay
Ġs ail
Ġafric an
Ġsens it
il ty
Ġble ed
Ġscript ure
zz le
Ġdelic ate
Ġhouse hold
Ġreport ed
Ġtre asure
Ġsh akes
Ġgo spe
Ġphenom en
us ter
Ġst ating
Ġdepress ion
Ġle w
Ġext ent
Ġteach es
Ġbe ef
Ġlaw s
Ġbe loved
Ġb ite
if er
Ġflor ida
Ġunaccept able
Ġfav our
f ather
Ġwashing ton
Ġd iction
Ġsk ipped
Ġprom ising
Ġclass ical
Ġcl ues
Ġst aff
Ġbab ies
Ġsu ited
Ġeduc ational
Ġtab les
Ġre ject
Ġdom in
Ġp ir
Ġcru el
Ġa h
ab ilities
Ġinser ted
Ġcl am
Ġcar rier
Ġstore d
Ġemp ire
Ġtre k
Ġlandsc ape
Ġw are
Ġprofess ion
Ġcl asp
Ġbr an
Ġfran c
Ġjewel ry
Ġl ined
Ġbuck le
Ġle ash
Ġro les
Ġcur ve
w ar
Ġarri ves
Ġout come
Ġpun ct
Ġup right
Ġgramm atical
Ġap oc
Ġgri ef
Ġclim ax
Ġar ts
ival ent
Ġnons ense
Ġsl ick
Ġlow est
Ġself ish
Ġm and
Ġext ras
Ġflow ers
Ġadd ict
Ġw ii
gr ap
Ġt il
Ġr ang
Ġv ul
are t
Ġob tain
Ġha bit
Ġd are
Ġback st
Ġargum ents
Ġvoc ab
Ġexc lus
Ġj ose
Ġsof ter
Ġbl ess
Ġgif ted
Ġhe els
Ġslipp ery
Ġcl ay
Ġign ored
Ġdefin ition
Ġleaders hip
ention al
o ber
Ġrec y
Ġprotect ing
Ġpa ired
Ġfeature d
Ġindic ator
Ġsell s
Ġwin ning
Ġdisappe ar
m ate
ing u
Ġtroubles ho
Ġpot ato
pl ic
Ġgri pe
Ġspec s
Ġmon t
Ġrep ly
Ġres ort
Ġcer t
Ġmod em
Ġvill age
Ġsk irt
Ġjust ify
Ġinfer ior
a ired
Ġfeat uring
Ġm all
Ġint ro
Ġset tle
Ġtit led
Ġali ens
Ġsell ers
Ġoct ober
Ġsuff ers
ot ion
igh ter
Ġo un
Ġstoryte lling
Ġback wards
g ot
Ġcompar able
Ġliber al
Ġoffic er
Ġdis ci
Ġe book
ul ary
Ġst ir
Ġmet aph
Ġret ain
Ġww ii
Ġne x
Ġconsequ ences
Ġadjust ments
Ġun in
am b
Ġfl ower
Ġscratch ing
Ġneck l
ist a
Ġvictim s
Ġsc ent
Ġang els
Ġn ich
Ġart icle
ch er
Ġd ot
Ġeconom ic
Ġcrack s
Ġneighb ors
Ġj ay
Ġmagn ets
Ġsuspense ful
k u
Ġgr ows
w ow
Ġfe ars
Ġmoist ure
Ġmis er
Ġa esth
Ġhand ful
Ġdet er
Ġbull et
Ġscrewdri ver
Ġfo nd
Ġch ances
ll o
Ġpart ially
Ġposs ibility
Ġdis li
Ġinteract ions
Ġgl itch
Ġumbre lla
Ġclass ics
Ġto aster
Ġcon sole
ott ed
w ater
Ġket tle
Ġstar ter
Ġconc ise
Ġsupple ment
Ġal be
Ġbri ghter
Ġboard s
Ġmaxim um
Ġtow els
Ġlog ical
Ġgener ous
u its
Ġsu icide
Ġemp ath
Ġreve als
ak y
p ass
Ġhonest y
Ġr on
om a
lo ve
Ġown ing
Ġdrag ged
Ġfor d
Ġdown s
Ġocc up
Ġve ter
ic ian
Ġbo dies
Ġhor ribly
Ġpan els
Ġgo lf
Ġro pe
Ġgri ps
Ġmess ed
Ġprice y
ers ome
Ġmur ders
Ġh inge
ac ular
Ġnove mber
Ġalbe it
Ġtom or
Ġc ooper
Ġl en
Ġconclus ions
a ver
Ġphr ases
Ġfi ber
Ġslo ppy
Ġaccur ately
Ġse w
Ġrep ub
Ġcous in
Ġrespons ive
Ġoccas ions
Ġcal ib
Ġj un
Ġex ter
Ġgl imp
Ġlu cy
Ġphys ics
for ward
v as
Ġp ipe
Ġchart s
Ġess ays
v a
Ġam y
Ġglimp se
t ies
Ġzomb ies
Ġl ately
Ġapoc aly
Ġpo ems
og ue
Ġpo pping
Ġfocus ing
Ġde cept
Ġtrick y
Ġrecei pt
Ġw iz
Ġtri b
Ġpath etic
Ġvers at
Ġdisc laim
Ġup load
Ġamount s
Ġrom ances
Ġperman ent
Ġsn ack
Ġplac ement
Ġweap on
Ġr p
is k
Ġsav es
Ġconven ience
Ġpencil s
Ġgu ilty
Ġindic ate
Ġfirm ly
u ries
Ġtomor row
r ition
ab or
Ġdis pl
Ġir re
Ġbe th
Ġcook er
ab led
Ġro ots
Ġsou p
Ġcomm itted
Ġdi agr
Ġrest r
Ġc el
Ġexperien cing
Ġillustr ated
Ġem ily
Ġvib rant
ist an
Ġr ick
Ġsensit ivity
Ġcont rived
ri al
Ġcare d
Ġmanufact ured
Ġsa uce
Ġpract ices
Ġph ill
Ġled s
ach es
Ġpr ide
Ġgro cery
Ġcaptiv ating
w ith
Ġreplac ements
Ġgr ant
Ġbe lly
Ġsc ot
Ġcook ed
re ne
Ġaw ard
Ġstud ying
Ġbat man
Ġsand als
Ġroom s
Ġtow er
at ures
Ġcr aw
Ġse wing
Ġpro ven
Ġdisplay ed
Ġfl our
Ġpublic ation
Ġtransm itter
pp ers
g ia
Ġrec over
Ġleak ed
Ġrestaur ant
Ġgo d
Ġmon sters
Ġcomp rom
Ġteen agers
Ġreport s
Ġpro ph
re en
Ġagre ed
Ġmess y
Ġgo re
Ġwilli ams
Ġsl ipping
Ġst umb
Ġres ulting
Ġconvin ce
Ġfree ze
ip ed
Ġest ate
Ġtong ue
Ġpro ved
Ġtraff ic
h op
Ġsh ades
Ġem br
Ġbri an
Ġflaw lessly
Ġc ul
Ġter min
Ġassoci ated
Ġw ard
Ġskin ny
Ġstraight forward
cri pt
Ġhesit ant
Ġgl or
Ġinvol ves
Ġcomp ilation
Ġsurv ived
Ġcri minal
Ġneighbor hood
Ġre h
log ical
Ġrespons ibility
Ġjo kes
Ġde ar
grap her
Ġdeser ved
id ents
st ream
Ġsh y
Ġbas ement
Ġthr ows
Ġcol on
Ġfeed ing
Ġre ne
Ġrefurb ished
in is
Ġindo or
Ġvocab ulary
Ġam pl
Ġlaw yer
Ġcal cul
Ġbuild s
Ġir ish
en ger
Ġpill ows
Ġtravel s
Ġnut rition
Ġcool ing
Ġhead ache
Ġreg ion
Ġha l
Ġsearch ed
Ġf ount
Ġme g
Ġf itted
Ġwealth y
Ġroll s
Ġun st
Ġin h
Ġlim its
Ġhead ed
Ġcontain ers
Ġign or
Ġg ad
Ġspoil ed
Ġspr ink
Ġeng age
Ġmix ing
art ed
in ished
Ġpos itions
Ġintellect ual
Ġto ny
Ġf ont
Ġcarb on
Ġcompliment ary
g ood
st op
Ġsubt it
Ġsequ ence
Ġequ ivalent
Ġemphas is
Ġoce an
Ġth igh
Ġs oooo
Ġv en
Ġac ou
ook ed
Ġpublish ers
Ġgo als
Ġmind ed
Ġstre ets
Ġdrink s
Ġobs essed
Ġcons pir
Ġp d
Ġsy no
Ġf oster
ific ations
Ġuns c
Ġang les
be at
Ġnarr ation
Ġentertain ed
Ġcorpor ate
Ġri f
Ġre verse
Ġdisclaim er
Ġgrate ful
Ġin e
Ġev ident
Ġshock ing
Ġrem inis
Ġbrut al
Ġearn ed
Ġag gress
Ġv ine
Ġbr ass
Ġkn ees
Ġmount s
Ġall en
Ġcale nd
Ġear phones
Ġp ause
Ġd ave
Ġcompon ent
Ġhint s
Ġlou der
ather ine
Ġele gant
th a
Ġfr ames
Ġfr idge
Ġse ed
Ġst ub
Ġexp ans
Ġme als
Ġboo st
Ġdraw ings
c ore
Ġsc are
Ġp apers
c s
Ġmon itors
Ġn erv
Ġg ently
Ġsu p
iss a
Ġgall on
Ġthous and
Ġsk etch
Ġridiculous ly
Ġregard s
in ations
Ġf ishing
Ġflash back
Ġrig id
r ings
Ġsim on
Ġaccompl ished
Ġtrain ed
ur t
Ġfore st
Ġcontr ad
if ies
Ġle x
Ġch ord
Ġpuzz les
Ġoutdo ors
Ġdocument ation
Ġne ut
Ġafric a
Ġoccas ion
Ġheart ed
Ġcrow d
Ġcar ries
Ġcon vey
Ġro ast
le ep
Ġcatch y
Ġhighlight s
Ġfoot age
Ġsw ive
Ġphr ase
Ġi con
Ġcr am
Ġgu ilt
Ġsold ier
Ġis lam
Ġle ver
ve t
Ġal ike
Ġbook let
ag an
Ġcapt ures
Ġportra it
Ġflav ors
Ġconfir m
Ġlew is
Ġair port
Ġbind ing
Ġrequest ed
Ġprocess or
Ġap olog
ly ing
Ġj enn
d ated
Ġi v
Ġmod es
Ġh ips
Ġrepub lic
ic ity
Ġins ult
Ġr ugged
Ġcut ter
Ġact ress
Ġje an
Ġrep rod
Ġproject or
Ġcreat ivity
Ġflu id
Ġcu is
Ġwh ist
c ere
Ġp y
Ġsole ly
Ġc ents
t v
Ġpo lish
Ġr uth
Ġatt rib
Ġfurther more
Ġf bi
Ġsu nday
in ity
Ġp unk
Ġge or
Ġre aching
Ġimmedi ate
Ġth irty
ors es
b ling
Ġt id
Ġexce ed
r is
Ġbu nd
Ġmo s
Ġbar rel
Ġcart oon
Ġsp aces
Ġbl owing
Ġdan cing
b ar
Ġjos h
Ġpl ugging
Ġthe ories
Ġn ap
Ġt ilt
Ġpro ves
Ġm ice
Ġl as
Ġencoun ters
Ġprom ises
Ġk ore
se ll
am ental
Ġstri ke
Ġnavig ate
Ġaddress ed
Ġs ust
Ġfig uring
Ġbrack ets
Ġtoss ed
Ġl p
Ġunderstand able
Ġmet er
Ġpot entially
Ġco ck
Ġschol ars
Ġtub es
in al
Ġapp li
Ġla wn
Ġte nder
em ber
Ġclick ing
Ġinstrum ents
Ġas leep
Ġacc ent
Ġremote ly
ger y
Ġst ol
Ġinterpret ation
Ġengine er
Ġcr ying
Ġdefe nd
p ower
Ġnerv ous
Ġfunction ing
Ġextraord inary
Ġb om
Ġmedic ine
Ġref lection
Ġdec l
Ġmis under
Ġmotor cy
Ġgrab bed
Ġstr uck
i ber
on ic
Ġref uses
Ġcl ark
h s
Ġdo z
Ġer r
io graphy
Ġcompet ition
Ġep il
Ġf right
Ġrec on
Ġstr anger
Ġche f
Ġimm ense
Ġgr at
Ġneed le
Ġgad get
Ġspec ies
Ġmeaning ful
Ġch ief
Ġexcess ive
Ġcom ics
Ġg aps
Ġact ed
Ġchoo sing
or se
Ġcook ie
Ġdefin ed
Ġwho ever
Ġspin ning
Ġk im
Ġestab lished
i que
Ġsh ips
Ġeld er
Ġkill s
Ġpe an
Ġdisc losure
j ud
Ġw rest
Ġpark er
Ġh ind
Ġnew ly
Ġprec ious
Ġworkout s
h aving
Ġdro ve
um ble
c ons
Ġd ates
Ġmoder ate
Ġpro ceed
Ġpri est
Ġtechn ically
Ġpassion ate
Ġmove ments
Ġp ant
Ġfif th
Ġmexic o
Ġcontin ually
ord an
Ġpost s
Ġking dom
Ġwo ven
Ġmatch ing
ra vel
Ġdi agn
p ical
Ġdis m
Ġsin cere
Ġview point
Ġsh ark
Ġimag ined
Ġv it
Ġgospe l
Ġv est
Ġbrace let
Ġrhyth m
Ġw re
Ġli ly
Ġins ist
as ant
Ġeff icient
Ġar ab
Ġout r
ast e
ay ed
nd ry
Ġdes ert
Ġprefer ence
Ġdivor ce
Ġtest ament
ul ations
Ġcol our
Ġincre ased
Ġresearch ing
Ġsimpl istic
Ġsp out
Ġmin s
Ġrac ing
Ġdi ary
Ġlu x
ge ar
it ect
Ġhesit ate
Ġti le
Ġbum per
Ġcris is
Ġarch itect
order ed
Ġinconsist ent
Ġship ment
Ġtr apped
Ġdiction ary
Ġmath em
Ġeng ross
Ġti ghter
Ġconf ront
Ġexpl icit
Ġcount less
Ġgr av
Ġcoin c
Ġfight s
Ġover he
Ġrecommend ations
Ġprod uces
Ġg ask
un ks
atisf ied
Ġlic ense
Ġsupp lies
Ġstur d
es is
l asses
Ġm akers
Ġag ed
Ġproper ty
Ġswim ming
Ġle ct
ig e
ut en
Ġredeem ing
Ġdeal er
ion e
Ġviet nam
Ġlight ly
Ġmus e
st one
Ġm arsh
Ġre el
pl ed
Ġd p
Ġsu ck
Ġcook ies
Ġknock ed
Ġcor rupt
Ġstat ements
n n
Ġrespond ed
Ġy o
Ġneckl ace
Ġrein stall
Ġbreak fast
i ation
Ġst an
Ġintrod uces
Ġb arn
Ġex ists
Ġfr iday
Ġstol en
Ġp ist
Ġnex us
Ġspect acular
Ġinter m
Ġforg ive
Ġun ravel
Ġp ier
Ġw ings
Ġremember ed
Ġlone ly
Ġvul ner
ug s
Ġdepend s
Ġfl ood
Ġr ul
Ġview er
Ġke lly
Ġfount ain
Ġhope ful
Ġconserv ative
v ia
go ing
Ġo u
Ġsag a
Ġh orses
Ġra ising
Ġcl ients
g as
Ġr ides
Ġref orm
Ġremain ed
Ġconfigur ation
Ġsatisfact ion
Ġsqu ir
Ġvolt age
Ġour s
Ġco zy
Ġdis j
ic er
Ġjohn son
Ġjul ia
Ġexec uted
Ġwh im
k ind
Ġho llow
Ġgl ow
ont in
Ġcast le
Ġtext s
Ġcontact ing
Ġh rs
Ġje alous
Ġinst it
Ġdissap ointed
Ġh ing
Ġpart ies
ul ating
Ġeb ay
Ġbelie ving
Ġe pson
Ġsept ember
w in
Ġadap ters
Ġrep aired
al ia
ch ed
Ġanecd otes
Ġprof it
Ġstri pped
Ġclass room
Ġt am
Ġle af
Ġsim il
Ġprotect s
Ġtend ency
Ġsyno ps
Ġne ph
i ate
Ġdev ast
Ġepil ogue
Ġse ats
c orn
Ġso les
Ġint ric
Ġtable ts
Ġidi ot
Ġab usive
Ġv ary
Ġcap ability
is c
Ġdemo cr
Ġnote book
Ġexter ior
Ġfrequ ency
Ġd or
Ġwriting s
over all
Ġinser ts
Ġaccommo date
Ġint ensity
Ġodd ly
f r
Ġlight ning
Ġportray al
d on
Ġfort une
Ġslight est
Ġinflu enced
Ġcar p
ur s
gy pt
Ġrere ad
g en
Ġtort ure
Ġbill y
Ġar ro
Ġtight ened
z a
Ġabsor b
Ġmark ers
ud ge
Ġcand le
Ġsust ain
Ġun ple
i ors
Ġcl aire
Ġgre ase
Ġe gypt
Ġloos en
Ġrot ate
Ġd ive
Ġweight s
Ġno zzle
Ġrec onnect
Ġsto pping
Ġleg it
Ġcommunic ate
Ġdoz ens
Ġd ent
Ġbre ed
Ġab used
Ġincom plete
Ġwork ers
f ers
Ġand re
Ġto ner
Ġdispl ays
Ġpre ach
Ġa ka
Ġdisj ointed
Ġbe er
Ġcharg ers
Ġk itty
Ġmill er
if orm
Ġm erc
Ġst em
Ġit aly
Ġt utor
Ġre n
Ġtri angle
ud os
av a
Ġs ession
Ġl int
Ġdisc our
Ġlau ndry
Ġrefer red
Ġna ive
Ġgre g
Ġdisgust ing
Ġc ere
ant e
Ġground s
Ġobserv ations
Ġjose ph
Ġauto b
Ġtrick s
Ġpair ing
Ġp izz
Ġsett led
Ġy arn
rif ying
ial s
Ġneg atives
Ġhous es
Ġfl ows
Ġm ats
Ġscenar io
Ġhang er
Ġload ing
Ġf aded
Ġc ities
pt ic
Ġobject ive
on a
Ġund ers
Ġtw el
Ġref use
Ġre ct
Ġmeas uring
ir l
Ġwil son
Ġcatch ing
Ġu gh
in ent
Ġless er
Ġco pper
Ġbeing s
Ġimm ers
Ġdevelo ps
Ġschool s
Ġre un
Ġsus an
Ġreal izing
Ġri m
Ġcl ient
Ġadd iction
Ġreco very
Ġsubsequ ent
Ġun iform
Ġafter wards
Ġord ers
all ed
st ore
Ġres on
Ġvol unt
Ġc ure
Ġover l
Ġdep ot
Ġsus pend
Ġbo ston
Ġpsych ology
ri ger
Ġdr ying
Ġpop ulation
b elie
Ġmean while
Ġfashion ed
h y
iss ion
Ġath let
ri an
am ic
Ġdisconnect ed
Ġexpos ure
um n
Ġst am
Ġdrum s
Ġparall el
Ġopt ical
Ġi ra
Ġmain ten
Ġrecharge able
Ġsc iss
Ġcontro lled
Ġfed eral
Ġcalend ar
Ġobl ig
Ġbr ake
Ġw ishing
v o
ren ce
Ġlid s
Ġgr itty
Ġperfect ion
Ġreading s
Ġcri mes
ch ool
Ġprot ein
Ġd j
Ġbrief ly
Ġdesper ately
Ġgrind ing
Ġvir gin
Ġsynops is
Ġhigh s
Ġwo nders
Ġbl ake
t es
Ġperform s
Ġconsum ing
Ġpregn ancy
ain e
Ġart ific
Ġal t
Ġcon vert
Ġmother board
Ġdisappe ared
Ġro ku
Ġcur s
Ġpr one
Ġanticip ated
Ġgh z
Ġn est
Ġch or
Ġme lt
Ġquestion able
Ġth umbs
Ġpeel ing
Ġhang s
Ġmainten ance
Ġcal ories
Ġadm ire
sc reen
Ġgrand son
Ġrese mb
Ġcr uc
Ġi p
Ġol iv
Ġsac rif
Ġbuck et
j a
Ġcon ce
y ard
Ġcollect or
Ġill eg
ou l
Ġnew est
Ġl isa
Ġd ump
Ġhold ers
Ġsacrif ice
Ġda wn
ch ant
Ġall erg
Ġsoph istic
Ġref riger
b u
im m
Ġge o
Ġraz or
Ġr ome
Ġrebo ot
Ġas p
Ġbr ide
Ġed ward
Ġtast ed
Ġlou is
Ġcr own
Ġmatch ed
Ġacknow led
Ġstrateg ies
Ġclich e
Ġpass word
om y
Ġabandon ed
Ġtr ave
ot ional
Ġfund amental
Ġdec iding
Ġst airs
Ġm ower
Ġret ired
Ġbend ing
Ġvill ains
Ġcl unky
Ġmoo re
Ġprin ters
Ġp ity
Ġsp ider
Ġinno v
Ġmanufact ure
Ġcar r
Ġwick ed
Ġguit ars
Ġyour s
Ġbe ating
Ġco s
Ġele v
art ments
Ġcan vas
Ġgener ations
Ġface book
Ġcuri osity
Ġst er
Ġwarri or
Ġc m
Ġvis iting
Ġfold ing
Ġp m
Ġeduc ated
Ġmet all
Ġfre ak
ang el
Ġinj ury
Ġfle e
Ġr in
Ġtime ly
Ġbr uce
Ġblur b
l if
Ġj ordan
r ous
Ġloose ly
Ġcap abilities
Ġm ason
Ġattack s
Ġsou ls
Ġneph ew
Ġgl ance
Ġgr an
Ġf est
un es
Ġbre ast
Ġmat te
Ġcow boy
Ġl aces
Ġd ud
Ġloo ps
Ġlar gest
z ed
Ġh r
Ġcharacter ization
Ġs igh
Ġhol mes
Ġtherap y
h ill
Ġno vice
w all
Ġb ern
Ġhur ts
Ġtas ks
Ġen orm
Ġspr ings
g ent
Ġintrod uce
Ġco con
Ġindust rial
Ġm others
Ġany time
Ġdy lan
Ġd ough
Ġeven ly
Ġnews paper
ip her
Ġprotagon ists
Ġhaun ting
Ġrob in
es cent
Ġestab lish
Ġguest s
Ġrob ot
Ġod ds
Ġsc oop
sh ield
Ġke en
pl ate
Ġpack ages
Ġch alk
s ome
Ġde an
Ġveh icles
Ġgrand father
Ġsuper ficial
Ġdri lled
Ġfold s
Ġacou stic
Ġaddress es
Ġste ven
Ġunsc rew
Ġsmell ed
h h
om et
Ġle nd
Ġrub bing
Ġexpl oring
Ġguid ance
ls on
Ġenvelo pe
b ro
Ġss d
Ġaccess ory
Ġco ach
Ġri ff
Ġtremend ous
Ġdesign er
Ġsympath etic
Ġh ates
Ġreveal ing
Ġpre jud
Ġuns ure
Ġout fit
Ġback s
Ġfl ashing
Ġspo ken
ll e
Ġo sc
Ġcontact s
Ġtwel ve
Ġsur gery
Ġj et
Ġd uck
o ph
if ul
Ġsen ior
Ġleg acy
Ġth ro
Ġspark s
Ġinterest s
Ġgl owing
Ġvib r
Ġpre view
Ġfi xture
Ġk ir
Ġdestruct ion
Ġfreez ing
Ġesp resso
Ġel ite
ern et
Ġoff ensive
ress ed
pect ives
Ġattach es
Ġlength y
Ġunple asant
Ġdig est
id ently
Ġbi kes
gg ings
Ġform ed
Ġcontro vers
Ġinterm itt
Ġint im
Ġr ank
Ġret ract
Ġle ague
Ġneut ral
Ġmain stream
Ġwat ts
c ence
Ġpo lished
Ġbrush es
Ġadmitted ly
Ġdown right
br uary
Ġag gr
Ġmag gie
Ġch ore
Ġdiscuss es
e u
Ġhy per
Ġsn ag
Ġsung lasses
Ġinaccur ate
Ġh an
om ic
d ge
Ġadv ised
Ġt a
Ġpo ison
Ġbr id
Ġmotiv ation
Ġd ense
Ġmill ions
Ġrec ieved
Ġhy p
Ġsl ipped
ar se
Ġc umb
z er
Ġquick en
Ġconsider ation
Ġill umin
Ġex agger
Ġv int
Ġext ract
Ġfe bruary
Ġsol ving
Ġresid ue
Ġtr av
Ġess ence
Ġpers pectives
Ġhorizont al
Ġche er
ane ously
h and
Ġk in
Ġbum mer
Ġint act
Ġsched ule
Ġy rs
ic ation
Ġghost s
Ġas ian
Ġc ried
ot te
Ġap o
Ġbu ried
Ġtrust ed
in ite
Ġf ought
Ġconspir acy
Ġat e
Ġeth ernet
Ġh annah
ab et
ce eds
Ġpres um
Ġeas tern
Ġload s
y l
Ġcond ens
Ġsant a
ick y
ing ing
Ġpo ign
Ġla ura
Ġconsist ency
Ġf aint
Ġno ises
Ġswe ep
Ġoff end
Ġcocon ut
Ġbi ased
Ġcheap est
Ġken ned
Ġorchest ra
Ġsafe ly
Ġdi vers
Ġcar afe
Ġfit ness
Ġstuff ed
Ġk udos
Ġhumid ity
el f
Ġpo les
st airs
Ġdisc ontin
Ġi an
Ġmus lim
er ve
Ġmotorcy cle
Ġcrack ing
Ġcross ed
Ġoccur s
Ġtri als
Ġclos est
Ġr us
Ġun ion
Ġresult ed
Ġphoto grapher
Ġfavour ite
Ġcompe lled
Ġart istic
Ġban ter
Ġfill s
Ġear rings
Ġmurder er
inter esting
Ġgrand d
Ġin n
Ġair pl
Ġut ility
Ġtherm ometer
Ġlif ting
Ġl ane
Ġanim ation
Ġver b
Ġjew s
Ġdav is
Ġattach ments
Ġgab ri
Ġcumb ersome
Ġeager ly
Ġrev ol
Ġcan n
Ġmor gan
Ġbi as
Ġw ool
Ġthri lling
Ġflesh ed
app er
Ġt ense
Ġphilosoph ical
Ġwar ming
Ġsur ge
Ġluc as
Ġpl um
Ġharr is
Ġsend s
Ġhung ry
Ġto re
Ġp ione
oo ps
il ight
wr iting
ic iently
am i
Ġscient ist
Ġimm ature
Ġwind shield
Ġcho ppy
Ġdu ke
Ġcal m
Ġadm inist
Ġpear l
em ption
Ġs essions
Ġun be
Ġsmall est
Ġrevel ation
Ġjenn ifer
Ġpop corn
Ġf el
an cing
Ġforg iveness
Ġtroublesho oting
Ġdiv ided
Ġhor rific
Ġsomet ime
al t
graph ical
Ġdis belie
Ġchemical s
Ġf ame
Ġper cept
Ġfu zzy
Ġunpl ugged
Ġbe am
Ġmelo dy
Ġcl in
Ġdist ant
Ġfinger print
Ġconfir med
Ġsh attered
Ġkeyboard s
Ġsym ph
Ġmel ted
Ġann oun
Ġsevere ly
Ġsc and
5 0
Ġloc ally
Ġneg lect
Ġcan ada
Ġinc lus
Ġinv is
Ġrequ iring
Ġv ista
Ġmat the
ll ar
Ġdis asse
Ġbene ath
Ġvint age
Ġre ver
no x
o f
z ing
Ġcar ter
Ġwar ped
Ġmir acle
Ġcom ed
und ant
Ġstub born
Ġstand al
Ġs ate
Ġpain ts
Ġprod ucing
Ġcou ples
Ġint imate
Ġcon qu
Ġlin col
Ġsec ured
Ġcult ures
Ġpl iers
Ġlapt ops
Ġgl ory
Ġtw ilight
Ġass ess
n ic
Ġs id
Ġmild ly
Ġbl ows
Ġref ers
w ich
Ġjohn ny
Ġsmo king
Ġinf ect
s ive
Ġsl ips
Ġimag ery
Ġk h
Ġd ang
f ire
Ġspir al
Ġle on
Ġeconom y
Ġred emption
Ġc pu
Ġadopt ed
Ġfi ance
Ġtight ening
ac ies
Ġatt aching
Ġweek ly
Ġposs ess
i h
Ġc asing
Ġle ggings
Ġexpl oration
Ġran ch
Ġindic ates
Ġcomplex ity
Ġweigh s
Ġse vent
Ġinst ances
Ġwish es
Ġtw ins
Ġton ight
Ġmist aken
Ġbottom s
Ġeth an
Ġo ly
u el
Ġa ux
il a
Ġther most
Ġunre li
ac ious
Ġdo om
Ġac id
Ġbum ps
Ġsh ines
Ġam ish
Ġpo etic
Ġgain ed
ok ay
Ġoutr age
Ġcham ber
Ġst ains
Ġwh it
Ġpass es
Ġenh ance
Ġw d
Ġm itch
Ġke vin
Ġdisci pl
Ġori ented
Ġperform ing
Ġdefin ately
Ġqu art
Ġsciss ors
Ġsun light
Ġconsider ably
Ġmiss ions
Ġover d
Ġpush es
Ġtall er
Ġspo on
Ġcharl otte
Ġrun ner
m ates
Ġp ots
Ġto xic
Ġhor n
Ġsoph ie
Ġdr aft
Ġcle ans
Ġimagin ative
Ġlincol n
Ġperman ently
Ġper se
Ġrem ix
Ġke eper
oo fer
Ġveget ables
Ġview ed
Ġkid ding
Ġarm or
Ġunder lying
Ġmas ters
Ġkidn apped
Ġoliv ia
Ġfro st
Ġindic ation
Ġor ph
Ġwebs ites
Ġpoint ing
Ġl ugg
Ġwarm er
a e
Ġmusic ian
it ives
Ġstretch y
Ġgr id
Ġout dated
Ġfif ty
ad er
Ġtim ing
Ġf ade
as ion
Ġcr ooked
Ġartific ial
in art
Ġfl ies
Ġbackst ory
Ġsl ap
Ġart ic
Ġbow ls
Ġbud dy
Ġter rit
Ġdress es
ar i
Ġret ire
Ġcontinu ous
Ġan ime
Ġconnect ivity
Ġobsc ure
Ġcha os
Ġfl ipping
Ġcer amic
Ġf athers
Ġt b
Ġport ions
Ġf y
Ġfl ame
Ġhard core
Ġche ated
Ġle ap
Ġdri p
Ġmount ains
Ġtit an
Ġimm ig
Ġve gg
Ġcat alog
Ġun for
Ġinspir ational
Ġd ice
Ġover t
Ġbill ion
Ġstandal one
ac on
in er
res pond
Ġste llar
Ġev o
Ġcompress ion
u a
Ġscre aming
Ġpron oun
Ġcor respond
Ġconsider able
Ġrepresent ative
Ġswive l
Ġsimil arly
Ġbur st
Ġdr own
Ġgri ff
Ġrif le
Ġs r
Ġple asing
Ġv iv
Ġexplo red
Ġaud ible
Ġf etch
Ġoly mp
ord ers
Ġjess ica
Ġi ii
Ġmus c
Ġpast or
Ġannoy ance
Ġr ude
Ġkenned y
Ġh ired
Ġrepet ition
Ġintrod uct
Ġrem aster
Ġge nder
Ġlugg age
an ity
Ġwiz ard
Ġopt ed
Ġshakes pe
Ġsl ice
Ġcoll aps
Ġr ca
qu is
Ġcand id
Ġdead ly
Ġanx iety
Ġr ic
Ġgl aring
ann ed
Ġclim ate
Ġcur se
Ġevery time
Ġfor cing
gh an
Ġanx ious
Ġsac rific
Ġexpans ion
Ġbroad cast
Ġdele te
Ġr ag
Ġste ep
Ġdrag ons
Ġmar ine
Ġskim ming
Ġtri um
Ġrecy c
w art
Ġexpand ed
Ġbe an
Ġburn t
Ġbo s
Ġwo bb
Ġversat ile
Ġw ins
Ġv hs
ig an
Ġhur ry
Ġcomment ed
Ġham ilton
Ġrin se
ous y
Ġrender ing
Ġdisbelie f
Ġmotor ola
Ġind ul
Ġvis ited
Ġf red
Ġrel atable
Ġsch e
i ac
Ġer gon
Ġst ability
Ġfem in
Ġmyth ology
Ġreminis cent
2 0
Ġcons ists
Ġblur ry
Ġadvert is
Ġtrad ing
Ġdiscover ing
ent ation
ict ions
Ġaggr av
Ġwind s
Ġdiscuss ing
Ġcount ing
Ġrefund ed
Ġposs ibilities
Ġbe aring
Ġinspect ion
Ġdoll s
Ġremind er
z el
Ġmb ps
Ġindivid ually
Ġshe ath
Ġess ay
Ġhy d
Ġmy st
Ġfix ing
Ġha bits
Ġdim ension
Ġreal m
Ġmem or
Ġfoot not
Ġgl uten
o ons
the y
Ġno stal
Ġn iece
Ġflo ating
Ġexp ired
Ġdis miss
Ġcontr ary
Ġhe ated
Ġth under
Ġmiss es
f ly
Ġn as
ut ing
Ġup coming
Ġl ion
Ġdownload ing
Ġc ig
Ġth ir
Ġpo ster
Ġri bb
Ġshel ter
Ġlin ux
Ġprev ents
Ġread ily
Ġdistort ion
Ġpizz a
Ġgenuine ly
Ġborrow ed
Ġdelight ed
Ġm ia
Ġve gas
Ġelim inate
Ġmagn ific
Ġsupport ive
Ġed itions
Ġf ried
ick s
Ġage nda
Ġexplo res
Ġg oth
Ġdep icted
Ġfaith ful
Ġfew er
Ġma id
Ġvolunt arily
Ġnet gear
w ind
Ġtri ple
Ġad ore
i vers
Ġcrash es
Ġv oy
Ġtap es
te nder
Ġp am
est ic
im ental
ap se
Ġtrium ph
me l
Ġheartbre aking
o h
Ġro ber
l ife
Ġest e
Ġd amp
Ġsw all
Ġm ars
Ġarth ur
Ġlaugh s
Ġunreli able
Ġmeas ures
ibl ings
Ġout lets
Ġk ath
Ġr amp
Ġintegr ity
Ġcuis inart
Ġira q
Ġr ave
Ġsp ong
Ġswe ater
Ġat ro
Ġl ays
Ġpd f
Ġscre am
Ġswe ar
Ġfreez er
Ġsequ ences
Ġs iblings
Ġgood s
Ġbeat les
Ġshap es
Ġstri kes
Ġexist ed
Ġcher ry
a a
c am
Ġf ired
Ġwork er
Ġremo val
Ġash amed
ke l
Ġsc uff
Ġtest im
Ġreluct ant
Ġp oo
Ġalex ander
Ġst alk
Ġshakespe are
Ġcan ister
Ġstretch ing
ort ed
Ġfin est
o ir
Ġshad ows
Ġappreci ation
Ġsatur day
Ġphill ips
Ġsp ice
Ġpe nd
Ġent it
Ġreact ions
ib a
Ġc ube
Ġburn er
Ġtransl ated
m anship
Ġsur re
Ġdoub ts
Ġbe ads
Ġgrad ually
Ġedit ors
Ġthe ology
Ġproduc er
Ġwarm th
Ġdifficult ies
p ons
Ġcatch es
Ġrequire ments
Ġstud ied
Ġp iv
Ġbook store
att le
Ġdisli ked
Ġse an
Ġent ries
Ġvis ually
Ġreach es
Ġinvestig ate
Ġimper fect
Ġlo gan
Ġconv entional
Ġn it
Ġsubstit ute
Ġunin stall
Ġdec re
Ġpen n
Ġc ors
Ġwre ck
wor king
Ġe g
Ġver se
Ġgloss y
Ġabsor bed
Ġto sh
Ġdraw ers
Ġaust en
Ġf ier
ish es
o e
Ġe co
Ġtr aps
Ġinter ference
Ġand rew
Ġmechan ics
Ġfool ed
Ġaim ed
Ġd il
Ġcorrect ed
Ġthread ed
Ġk its
Ġsnug ly
at ics
Ġreal ism
Ġor th
Ġscenar ios
Ġgask et
Ġve gan
ia h
Ġsand wich
Ġwor ship
Ġpass age
Ġp and
Ġz en
Ġbreat he
Ġcontinu ously
wor ld
Ġco des
Ġflaw less
Ġfy i
Ġqu inn
Ġob nox
Ġfor b
Ġsil ence
Ġnear by
b ie
Ġco ated
Ġho bby
Ġblood y
Ġlat in
Ġhe ft
Ġarg ue
Ġgl are
Ġphenomen al
los ed
Ġhaz ard
Ġobst acles
Ġhead ing
Ġlad der
Ġsatisf y
Ġfo g
Ġrab bit
Ġg ems
Ġsim ult
Ġwalk er
Ġpr ong
Ġscient ists
Ġl ousy
Ġpat rick
Ġg um
Ġcirc les
Ġcomp artments
Ġreflect s
Ġdele ted
Ġsche me
Ġtom ato
Ġdeath s
Ġinter f
Ġman eu
Ġexist ent
Ġbre wing
Ġvib ration
Ġbetray al
Ġk ings
Ġjam ie
Ġco aster
Ġcruc ial
Ġfor ums
Ġpl ausible
Ġe go
Ġunder ground
Ġstrict ly
Ġex hib
Ġobs ession
am il
Ġlimit ations
Ġover se
Ġnur sing
d ling
Ġheads ets
Ġharm on
Ġmi xture
ri x
Ġhing es
Ġwe aves
ar ms
Ġmix er
Ġper pet
Ġhome work
ce ll
Ġloc ate
Ġge ared
Ġr um
Ġconflict s
Ġsate ll
Ġv ice
Ġt ess
Ġdynam ics
Ġmal function
arr ing
ic ians
Ġmu nd
Ġj aw
Ġsophistic ated
Ġcon j
Ġex tender
Ġsumm ar
Ġt int
Ġann ie
Ġrob ust
Ġsw ap
Ġcrit ics
Ġment ally
os is
Ġcol umb
Ġpin ch
st ar
Ġtun er
il ted
Ġfact ual
al ing
Ġdig ging
Ġri val
Ġtal ents
Ġj r
Ġquick er
Ġte aring
Ġspect rum
Ġtag s
et ically
Ġassist ance
Ġso il
Ġflu ke
t w
Ġnorth ern
Ġh mm
Ġexpect ation
Ġr ising
ion ed
Ġsub pl
er ts
Ġinsp ire
Ġj ung
Ġext r
Ġtempt ed
Ġcru ise
Ġaggress ive
id ays
int end
Ġboun ce
Ġd ick
am in
Ġs oo
Ġsubscri ption
Ġde gr
Ġtruth s
Ġf are
Ġcr ate
Ġinvis ible
br is
Ġrefer ring
Ġd uct
if t
Ġdispens er
Ġauthor ity
Ġrecommend ing
Ġjoint s
Ġtheir s
Ġre nd
u ated
Ġclum sy
Ġri pping
em an
Ġpar ad
Ġpain fully
Ġbrows er
Ġnur se
Ġware house
Ġc s
Ġharm ony
Ġfasc inated
Ġst up
i at
Ġno ah
b one
Ġar row
Ġirrit ated
Ġgr ave
p se
Ġny c
Ġdist ingu
Ġlinks ys
Ġsu its
Ġchron icles
Ġbr as
Ġburn s
Ġhe m
Ġre be
Ġcons ult
Ġmid night
Ġingred ient
Ġn uc
Ġback ed
Ġpour ing
Ġback d
Ġruss ia
Ġconf ess
Ġdest iny
Ġcommit ment
Ġdepress ed
Ġjim my
Ġt s
Ġthri llers
Ġsimpl icity
Ġde bris
Ġpure ly
Ġpoign ant
Ġem er
Ġdy stop
Ġche ating
Ġende aring
Ġgrandd aughter
g ling
Ġtr unk
Ġprocess ing
Ġhar v
Ġpist ol
Ġdi verse
Ġperson s
Ġthermost at
Ġtr ump
Ġfl owing
Ġse als
os aur
Ġrepe ating
Ġshut s
Ġdoct ors
Ġal an
Ġstab il
Ġslipp ers
b ra
Ġpro l
Ġcontro lling
Ġbec k
Ġflashback s
Ġs ings
act ic
Ġbl at
Ġarrang ements
Ġh ike
Ġsign als
Ġc ia
olog ist
Ġsh aking
Ġgen e
Ġwr apping
Ġassign ed
Ġunfold s
Ġlaure n
om an
Ġstrength s
re ll
mark et
Ġvir us
Ġpat ients
Ġpu pp
Ġterrit ory
Ġrober ts
Ġelement ary
Ġscan ning
Ġunf inished
Ġconver ter
Ġprec ision
Ġreserv oir
Ġenorm ous
ge e
Ġwor ries
Ġrev is
Ġgrad uate
Ġpast e
Ġro oting
Ġwr aps
Ġflo at
Ġds l
co pe
Ġbelong s
Ġa i
os ition
Ġcollect ing
ic ations
Ġad ams
Ġindo ors
Ġtast y
r ich
Ġju ven
Ġre e
Ġoil s
Ġmus cle
Ġav o
ie ces
Ġdo se
Ġpers ist
Ġcr unch
st ep
Ġmed itation
Ġrapid ly
ev ity
Ġcom for
Ġbo il
Ġlong evity
Ġpl un
ins on
Ġcitiz ens
Ġinput s
so les
Ġtosh iba
Ġdiscuss ions
Ġdeli ber
Ġinevit able
Ġreli ability
Ġcur ved
Ġconst it
Ġmer cy
Ġlisten er
Ġatt or
Ġsar c
Ġcl int
Ġsing ers
Ġtroub led
Ġsympath y
Ġsmart phone
Ġf isher
Ġsle pt
Ġpean ut
Ġj ail
Ġb icy
Ġhaun ted
Ġhol idays
Ġincreasing ly
ip ing
Ġdown hill
Ġge e
Ġcen ters
Ġactiv ate
Ġfree ly
Ġtap ed
Ġno ble
op ath
Ġm int
Ġs ir
Ġshif ter
cc a
amil iar
Ġb aker
Ġdefect s
Ġpe ll
Ġinstruct or
ch y
Ġj ig
Ġold s
Ġcon n
Ġf ighter
uck y
ign ed
Ġproduc ers
Ġv alley
Ġcost co
Ġanticip ation
Ġass ured
Ġnotice ably
Ġn om
op her
Ġhow ard
fl ow
Ġan c
Ġdesire s
Ġa ven
Ġcred ibility
gg les
Ġan ker
Ġre vers
Ġdar cy
Ġsp ine
Ġformat ting
Ġr ural
Ġmention ing
Ġj ill
Ġscen ery
Ġtast ing
Ġpart ners
Ġcr ad
Ġsl a
Ġunf amiliar
Ġinstrum ental
Ġaustr alia
Ġsad ness
Ġchalleng ed
Ġnich ol
Ġavo ided
Ġdistort ed
v an
Ġtun ing
ar c
Ġrepair s
Ġne il
e ed
d les
Ġcreat ure
Ġw y
Ġloyal ty
Ġi re
Ġfact ors
is ons
Ġreflect ive
rif ied
Ġroad s
Ġt iss
ch ild
Ġpast a
Ġg imm
Ġlam ps
le ar
qu el
Ġprepar ing
Ġupd ating
Ġdispos able
Ġwhe at
w est
Ġt el
Ġconscious ness
y a
Ġend ings
Ġbreat hing
Ġjournal ist
Ġgroo ve
Ġgen res
Ġch ains
Ġenc losure
Ġenter ing
Ġoverlook ed
Ġsc am
Ġh art
wo lf
Ġcord less
Ġpitch er
Ġenter ed
Ġch unks
Ġcomb ine
Ġded uct
Ġjul ie
Ġbr on
Ġinvest ing
h ave
ict s
force ment
est ed
Ġdeterm ination
Ġunder t
Ġand y
Ġunf air
Ġins urance
Ġwat ers
Ġqu ad
Ġup lif
Ġbo d
Ġin ability
Ġneat ly
Ġfold er
it udes
Ġvan illa
Ġhe ats
Ġfr y
Ġand erson
Ġtick et
Ġtur key
Ġrein for
Ġmon o
Ġsk ull
Ġvar ied
Ġemploy ees
Ġlangu ages
Ġimmense ly
Ġpost ing
Ġlan tern
Ġbe gun
Ġprogress es
Ġout l
Ġk l
Ġhoo ver
Ġopportun ities
Ġelder ly
g i
Ġmotiv ations
Ġmake up
ru ption
Ġaware ness
Ġpriv ile
Ġcontain ing
Ġrepres ented
Ġbum med
Ġexcept ionally
Ġk er
Ġwa ff
Ġto l
Ġhigh way
Ġman if
Ġn athan
Ġtem porary
d ic
Ġge ars
Ġso aked
Ġthank ful
Ġorigin als
Ġfran ch
Ġli l
ph y
Ġbe ars
Ġpe e
Ġd ict
Ġte as
Ġjer ry
Ġclim bing
Ġpul p
m ill
Ġcand les
Ġcr a
ac ute
Ġcent uries
Ġdeb ate
k o
Ġmen us
Ġpo nder
Ġpers u
Ġprogress ive
Ġkr ist
Ġvari ations
Ġtemper atures
us er
Ġpat ri
j i
er ie
Ġdiagr ams
Ġch ipped
Ġaa a
Ġmold ed
Ġapproach es
Ġdr one
v c
Ġrub bed
Ġhum ble
Ġfre aking
Ġmix es
Ġinconven ient
Ġg le
Ġcontro llers
Ġclaim ing
Ġbill s
Ġf ps
Ġjuven ile
Ġpart ly
Ġrive ting
Ġflex ibility
Ġru ins
Ġblo nd
Ġpro port
Ġtime line
w ered
Ġt att
Ġmark er
iz on
Ġd at
Ġpac ific
Ġur ge
Ġown s
c ip
Ġtrans parent
Ġsu cc
Ġchrist opher
Ġp ine
Ġhur ting
Ġimprove ments
Ġdiscontin ued
Ġairpl ane
Ġprepar ation
Ġb t
Ġk ong
ist ically
i ance
Ġcl ou
Ġadv oc
Ġu m
Ġinh ab
Ġmed ie
Ġsens ors
Ġobnox ious
Ġdin osaur
Ġb ore
Ġclear er
Ġassist ant
Ġnuc lear
Ġaltern atives
Ġproblem atic
Ġg oof
Ġdam aging
Ġsturd ier
Ġg il
ile y
Ġsuck er
b les
Ġal ask
co p
Ġm ute
Ġm ig
Ġfail ures
Ġsam ples
Ġton es
Ġpun ish
Ġmod est
.. .
Ġpri ze
Ġvirt ual
Ġham mo
b ot
Ġag ing
Ġpo em
r ays
Ġclim b
ro ph
Ġreb u
sh ad
Ġit unes
Ġclos es
ed e
graph ic
Ġev an
Ġmiser able
an ks
Ġcon ve
Ġwe ave
Ġunder wear
Ġfat al
Ġtrain er
Ġcoll apse
Ġest im
Ġembarrass ed
iz able
il st
Ġentit led
Ġsar a
Ġenth r
Ġhard wood
Ġun ans
Ġpo ke
log ue
Ġstup id
Ġch asing
Ġcrush ed
an ny
Ġland s
Ġgabri el
Ġter ry
Ġso da
Ġout line
Ġsimult aneously
Ġmore over
app ro
Ġmedie val
Ġel i
Ġsm ack
Ġunst able
Ġsteph anie
Ġplay back
Ġrecogn ition
Ġver izon
Ġro ss
Ġli z
Ġha lo
Ġste ering
Ġintric ate
Ġpeo ples
wr iter
Ġcub es
Ġchor us
Ġol ive
umb ling
Ġfif teen
l ar
i able
Ġintent ions
Ġwhere ver
Ġinter rupt
Ġspray ed
Ġanth ony
Ġkno bs
Ġirre le
Ġprop ag
Ġdi ver
Ġstretch es
c key
Ġdefe ats
Ġd l
an ne
Ġsun ny
Ġsc ro
Ġmatthe w
Ġr aces
Ġwild er
Ġjudg ment
Ġh ug
Ġexpl or
Ġform al
Ġh atch
lim ited
Ġalign ed
Ġdefin itive
Ġelectric ity
et ics
Ġlink ed
Ġbel kin
se e
ment ed
Ġintrod ucing
Ġhum our
Ġpunct uation
Ġintegr ated
Ġev angel
Ġfr iction
Ġinf ant
Ġg ary
Ġrain bow
Ġh ire
ah am
Ġcy l
Ġdv r
Ġp g
ah a
Ġanth ology
Ġk aren
ort on
Ġconv ol
Ġunans wered
Ġfluff y
Ġsla very
Ġx x
fo ot
Ġire land
Ġexpress ion
on ing
ane ous
Ġar rest
ick ing
Ġpe ak
Ġsuspect s
Ġint r
Ġinv al
Ġvulner able
Ġphil ips
Ġtact ics
Ġeas iest
on est
Ġbe lls
Ġdisc omfort
Ġfield s
Ġinst inct
Ġarro gant
Ġdys function
Ġa le
pl ess
Ġcy n
Ġre te
Ġrefriger ator
Ġdis ks
Ġkn it
Ġro y
Ġsuper man
f its
Ġab by
Ġbackd rop
Ġdif f
Ġr ails
Ġme h
Ġpor ch
ut ch
Ġaccept ance
Ġtan ks
Ġdeb t
it o
Ġr ates
Ġbo iling
Ġun interesting
Ġlength s
Ġd ots
Ġclam ps
Ġrep orter
amp oo
Ġmagnific ent
Ġcave at
Ġsh ampoo
Ġne lson
uff le
Ġpresent ing
Ġdad dy
Ġabrupt ly
Ġdig it
Ġun limited
Ġpoly ester
Ġste er
Ġtrib ute
Ġcomfor ter
Ġalign ment
Ġexec ut
er pt
Ġcast ing
Ġsatisfact ory
Ġtemper ed
Ġad ol
Ġlaugh able
Ġachie ved
Ġconvol uted
Ġg inger
Ġrat io
Ġunc on
Ġkat ie
all ing
Ġapp end
x y
Ġaudio book
Ġavoid ing
Ġro bb
Ġc atherine
Ġty ler
Ġkick s
Ġtr ace
Ġtatt oo
Ġcomple t
ose x
Ġel abor
Ġten nis
u rig
ay ing
ash es
Ġbooks h
Ġrot ating
Ġencour aging
Ġst ool
Ġd ude
Ġch op
Ġsy nd
play er
ed ay
h or
Ġund one
c ut
e very
Ġti ger
ade qu
Ġp ud
Ġwith stand
Ġrec ount
aw are
Ġmaneu ver
Ġproof read
Ġreason ing
Ġa er
Ġprocess es
Ġsupp lier
Ġhun ger
Ġb aked
n ice
Ġun pack
Ġincorrect ly
Ġjun ior
Ġprogress ed
Ġh ats
Ġou ght
o dy
her o
Ġwash ers
Ġfo il
Ġje ep
Ġe ats
Ġwh ilst
Ġmod ify
Ġmund ane
Ġtri mmer
Ġmo lly
Ġte ams
Ġdo l
Ġrele asing
p rod
Ġdiv ine
Ġarr anged
Ġg or
Ġsc attered
c akes
Ġsing les
Ġbed s
Ġho lo
Ġent r
Ġl on
Ġanch or
Ġfreez es
Ġinnov ative
Ġke urig
Ġdel ux
Ġleg o
Ġc ros
or ous
Ġcount y
Ġg p
Ġin adequ
Ġexc erpt
Ġenvironment al
Ġstrange ly
Ġro ds
Ġpos itives
Ġfl attering
Ġwere wolf
Ġsight s
Ġisol ated
Ġconsum ers
Ġthe sis
Ġy ards
Ġam anda
Ġpart ial
Ġank les
g iving
Ġsore ly
Ġfit bit
Ġbi os
Ġaffect s
Ġsom eday
Ġjam med
Ġkick stand
Ġorph an
Ġse ag
Ġhar per
Ġam ber
Ġinc ome
att ed
Ġf ri
Ġfix es
io let
it ate
Ġapp lies
Ġsym pt
Ġch ess
Ġmart ial
Ġs aint
ro ad
r ough
Ġhard cover
Ġassemb ling
Ġshif ts
Ġexclus ively
Ġlift ed
Ġathlet ic
Ġb aff
Ġph ase
Ġcivil ization
Ġfranc isco
Ġunderstand s
Ġprofession als
Ġn ancy
Ġunc om
Ġstor ing
Ġprecise ly
Ġaccept ing
Ġa we
Ġamong st
Ġstory lines
Ġchild ish
Ġnavig ation
Ġb ake
Ġf use
Ġg ag
Ġban ks
Ġdo c
Ġred undant
Ġboth ers
Ġrent al
Ġroom y
Ġinter medi
Ġinconven ience
ag ues
Ġinc lined
Ġdress ed
Ġdest ination
Ġend ure
Ġbund le
Ġin appro
ul ator
Ġmuse um
d dy
Ġhe llo
Ġjes se
Ġgrand ma
Ġl ing
Ġfle w
Ġb s
Ġthigh s
Ġmo nday
Ġcharacter istics
Ġcred ible
Ġlin ers
g ue
Ġclick s
Ġsurround ed
Ġtr ays
Ġmus h
Ġviol in
or ic
Ġguess ed
Ġquestion ing
r up
Ġround s
re ceived
Ġba it
et ary
Ġtang led
Ġco ps
Ġexp ed
Ġdr astic
Ġrec order
Ġaf ghan
Ġnor a
Ġl ud
Ġe lli
oth y
Ġe a
Ġdem ands
Ġmelo dies
Ġirrele vant
Ġg a
Ġbrows ing
Ġso v
Ġabs ent
ci a
Ġson ic
Ġd ess
Ġattor ney
Ġfun ky
her ent
Ġadequ ately
Ġprin cip
Ġdelux e
Ġbr av
Ġsal ad
Ġfau x
Ġvers es
Ġday light
Ġwig gle
Ġexch anged
Ġawa iting
as ters
Ġcraft s
Ġdocum ented
Ġn ood
Ġa ston
Ġwo ke
re nd
al ed
res pons
Ġhistor ic
Ġs q
Ġcontem pl
i ant
ar on
Ġstereoty pes
en ter
Ġs f
Ġag ents
Ġcollect ed
ab el
Ġdim mer
Ġdrag ging
Ġret rie
Ġped als
Ġdys on
Ġbr ittle
Ġmer it
ic ien
Ġmicro s
w ill
i ated
Ġse l
Ġsl am
Ġhy br
Ġimm ort
Ġsov iet
Ġincom p
Ġstat istics
Ġpatter son
Ġd iana
Ġwash es
Ġbes ide
Ġst ages
Ġra ven
ut her
Ġcal f
Ġcrash ed
Ġclear ance
Ġenthusi ast
l ated
Ġk ink
Ġexper ts
Ġrus sell
Ġr oo
Ġjo ined
Ġrock et
g ate
Ġmarket ed
he art
Ġst u
Ġfranch ise
Ġcomp ound
Ġsl id
Ġanswer ing
ony m
Ġguarant eed
Ġd ile
al ie
Ġrest ore
Ġr it
Ġk y
Ġpiv ot
Ġoverse as
Ġrem otes
Ġvi be
Ġmotiv ated
Ġbackground s
Ġde w
Ġsl ack
Ġpass enger
Ġglad ly
Ġpr y
Ġon going
f rom
Ġmar ie
Ġmel issa
gg er
Ġcomm ands
Ġdan ny
ke e
Ġm ish
Ġpat io
Ġm es
Ġhu gh
Ġtravel ed
Ġaw aken
Ġcar l
Ġbeat en
Ġsub w
Ġstap les
r ison
Ġp ent
Ġilleg al
Ġthro at
Ġc uff
Ġfool ish
Ġl ac
Ġcompet itive
Ġhammo ck
d led
Ġpri mer
Ġbl ower
Ġb amb
Ġrepres ents
Ġdistract ed
Ġsa ver
Ġv ital
Ġopen ings
Ġmagaz ines
Ġcompet ent
Ġu h
Ġinclus ion
Ġwid ow
Ġretail er
Ġo li
Ġdefe at
Ġr ational
Ġsho ddy
Ġfl ipped
Ġgr ish
Ġob ama
y es
Ġa the
ver ty
Ġpath s
Ġdes cend
Ġkill ers
Ġfetch ed
ap es
Ġmonth ly
pr ise
Ġsurviv ors
Ġr age
Ġoff s
Ġgam er
Ġtraum a
Ġvirgin ia
Ġc ind
er tain
Ġe lo
Ġm ph
Ġkick ed
Ġst im
Ġskim med
Ġpione er
Ġbe e
Ġwork manship
Ġpract icing
ook ie
Ġcred its
Ġmeant ime
Ġdri ft
ib ble
Ġr ud
Ġattack ed
Ġunc ertain
Ġfr action
Ġbr az
Ġm ack
Ġmeasure ment
Ġcollect ions
Ġmot ives
Ġpo verty
Ġho nda
Ġback yard
Ġdisg u
Ġsusp icious
Ġstrong est
Ġbl essed
Ġembarrass ing
Ġstumb led
Ġre ed
Ġmar g
Ġfant as
Ġorigin s
Ġamb ient
Ġhead band
Ġprom inent
Ġwitch es
Ġsat an
Ġexp ose
Ġo ak
Ġvictor ia
Ġa pt
Ġco sm
Ġval ent
Ġencour aged
Ġgre ed
Ġtr ite
Ġres ident
Ġa u
Ġdis abled
Ġhusband s
Ġtem ps
Ġveter an
f are
Ġpurs ue
Ġbrilli antly
Ġch in
w ire
Ġtown s
Ġsubtit les
Ġcrad le
ome nd
l ow
on ed
Ġl ite
Ġlegend ary
ic ting
h ad
Ġpl ague
Ġupgr ading
Ġst ale
r am
Ġrebe cca
re ls
Ġag rees
Ġfort unate
Ġcyc les
Ġoper ations
Ġmo ck
Ġdiss atisfied
Ġhu h
Ġste pped
br ush
Ġident ified
Ġapocaly ptic
Ġvegg ies
Ġteaching s
Ġfar ther
Ġbamb oo
Ġmess ing
Ġsav ings
Ġwide ly
Ġmetall ic
Ġdu plic
ll as
Ġint el
Ġdis order
h ot
Ġr ma
Ġill um
Ġarrang ement
Ġgl im
Ġjud ging
Ġrec omend
Ġbudd h
v ably
Ġprofess ionally
Ġribb on
Ġschol arly
Ġfright ening
1 2
Ġs ass
Ġw aking
Ġgl itter
Ġsharp en
Ġintermedi ate
Ġdetach ed
Ġabs ence
Ġrece ives
oc ative
Ġrender ed
Ġlyr ical
Ġmud dy
Ġembr ace
Ġsurviv or
Ġout look
re ction
Ġback light
Ġbelie ver
Ġsher iff
graph ies
Ġsign ed
Ġseason ed
Ġstr and
Ġiss ued
Ġinj ured
Ġr ant
Ġdy e
Ġcurtain s
Ġl l
Ġun read
Ġsimpl er
ci ence
Ġph ant
Ġclass y
Ġdystop ian
Ġdist r
Ġacadem y
Ġhistor ian
Ġv ig
Ġres pective
Ġvine gar
Ġfault s
Ġoli ver
ing ton
Ġparent ing
Ġto mm
Ġcoll ins
Ġpres cri
Ġposition ed
m l
Ġvis its
Ġdeter ior
Ġmar cus
Ġsa x
Ġdrag s
Ġenc losed
Ġgo ss
Ġag ency
Ġscar let
Ġnot ion
Ġly n
Ġp se
Ġshif ting
Ġbuild ings
Ġhel en
Ġoun ce
Ġprejud ice
Ġsh ining
Ġsuff ice
Ġchoo ses
Ġy ield
Ġtra its
Ġbrit ain
Ġr v
Ġvictor ian
Ġaust in
Ġadd icted
lo e
if fer
al o
Ġprot est
Ġgrish am
Ġrelax ing
Ġwar ren
Ġin qu
Ġpre de
Ġsynth etic
Ġhard est
Ġzipp ered
Ġj ere
Ġe cc
un te
Ġpresum ably
Ġsolid ly
Ġcompress or
Ġenlight ening
Ġpro pe
g led
Ġsusp ic
Ġempath y
Ġhe x
Ġant agon
Ġside ways
Ġpo se
Ġsy rup
Ġk od
Ġgrav ity
Ġselect ions
Ġdistract ion
Ġfin n
Ġgar lic
Ġphotos hop
Ġsp ins
Ġtransform ation
sol ved
Ġappro pri
Ġwobb ly
Ġcompat ibility
Ġoutrage ous
Ġjac ob
Ġengross ing
Ġanc est
Ġro ger
r ome
Ġin ject
Ġcost umes
Ġuncle ar
Ġco pe
Ġdom estic
Ġhead light
Ġpl ush
Ġinter tw
Ġbr y
Ġres ur
Ġjudg ement
Ġdestro ying
Ġbarb ara
Ġam ps
u k
Ġdown fall
Ġflash es
Ġtor que
Ġshort com
Ġthri ll
Ġquant ity
Ġjon athan
Ġd ip
Ġlif es
Ġha ul
Ġconvers ion
Ġprogress ion
Ġg room
Ġsuper hero
Ġmulti player
in ce
Ġman ga
Ġcook s
Ġpo ll
c ar
Ġcaptiv ated
Ġdisgust ed
ot ica
Ġn intend
Ġshortcom ings
Ġeat en
Ġpotato es
Ġle vi
Ġd b
itt ings
Ġmid st
Ġcraft sm
Ġb arr
Ġanim ated
Ġjer sey
Ġinv asion
Ġshut ter
Ġstereoty pical
Ġtem po
Ġrespect ed
Ġex otic
Ġcirc ular
Ġtub ing
o x
re ally
Ġtort ured
Ġgr aham
Ġtires ome
Ġho bb
Ġrecommend s
Ġsatell ite
Ġf uss
Ġwr ists
Ġcyc ling
Ġfast en
Ġbos ch
Ġell ie
Ġso ak
Ġline ar
Ġvol unte
Ġm ck
Ġele ph
Ġcan ad
Ġst al
Ġst ilted
come nd
Ġf oul
Ġdec ently
he ld
Ġrac ism
Ġg m
Ġrec comend
Ġde x
Ġprocess ed
Ġal mond
Ġintroduct ory
Ġbicy cle
Ġed die
Ġcert ified
Ġold est
Ġsav vy
Ġmexic an
Ġp up
ent ious
Ġtime less
Ġgo ggles
Ġfun n
Ġweakness es
Ġignor ant
Ġrel atives
Ġgen esis
Ġcr ashing
Ġad s
r ating
fort unately
no ld
Ġk le
g age
Ġsil k
b ird
Ġlind a
c al
Ġball ad
Ġnintend o
Ġsepar ation
Ġdemonstr ates
en ix
Ġsc or
Ġadvertis ement
Ġport rays
Ġrem ake
Ġcour ses
f elt
Ġview ers
Ġspray er
Ġautob iography
Ġn orton
Ġillustr ate
Ġps i
Ġsubw oofer
Ġquiet er
ch a
Ġrang ing
Ġinappro priate
Ġprede cess
c ake
st ation
Ġuplif ting
cl aim
Ġinvolve ment
Ġche wing
Ġmarvel ous
Ġfor k
Ġcance l
ret t
Ġmir rors
Ġstain ed
get ic
m ers
Ġcomm ission
Ġun a
Ġsat a
Ġoun ces
w alk
Ġinf inite
Ġdecor ative
Ġfilm ed
Ġad ored
Ġw iped
Ġsuit case
Ġtor so
Ġcig aret
Ġa very
Ġhel ic
Ġsimilar ities
Ġfin ale
Ġfootnot es
Ġn ud
Ġflo ps
Ġadvent ur
Ġsilic on
Ġins ulation
el ine
Ġrene w
Ġs ig
ul ative
Ġoverwhel med
Ġl aughter
Ġsens es
Ġdile mm
Ġu v
Ġbeh old
Ġint ake
Ġblink ing
Ġbox ed
Ġden y
Ġrel ates
Ġthe ore
Ġstri king
Ġproced ure
ic ate
Ġframe work
Ġflow ed
Ġcr ay
Ġab d
Ġair craft
Ġblock ing
i ator
Ġgrain y
Ġvar ying
Ġmicro f
th ink
Ġbrush ed
Ġunder water
Ġmaintain ing
Ġwe ber
Ġdev otion
Ġast ound
Ġlong est
ol ine
Ġch loe
Ġpr ic
Ġenh anced
Ġel vis
ys ter
Ġgrand parent
Ġcom mend
Ġth ief
az ing
Ġrit ual
Ġgriff in
ph ile
Ġhero ines
Ġpre quel
Ġrev olves
Ġj ars
Ġapp la
Ġsk i
Ġmac ro
Ġalong side
b uck
Ġd ing
Ġhat red
el ines
f ront
Ġhybr id
Ġri ley
Ġw ives
Ġimpress ions
Ġdis ap
Ġcount s
Ġbrook s
Ġd d
Ġsoci et
Ġun ins
Ġwrench ing
oint ment
Ġer otica
Ġrock y
Ġpatch es
um an
Ġk yle
Ġsharp ener
Ġpriv acy
Ġc av
s ed
Ġse per
Ġart if
Ġper ry
Ġmyth s
Ġrepe ats
Ġass ault
Ġcl utter
Ġma f
Ġtrail s
Ġprom ote
Ġcr ude
Ġst ark
Ġj ava
Ġhumid ifier
Ġspong e
Ġwrink les
Ġan ita
Ġscot land
Ġapp les
Ġhor rend
Ġrot ation
Ġexam ination
Ġappear ances
Ġmelo dic
Ġpost age
Ġmin istry
Ġsal v
Ġosc ar
Ġadvert ise
Ġoffic ers
Ġsteam er
Ġappla ud
Ġret ro
Ġpurs uit
Ġcl u
Ġcam c
Ġmiss pe
Ġty po
Ġcontinu ation
Ġw ides
Ġwarning s
Ġi os
Ġi vy
Ġmechan ic
Ġapp et
ps es
Ġins ulated
Ġeconom ics
Ġindic ating
Ġs no
Ġweak er
Ġsup reme
on ce
Ġse b
Ġpix el
Ġinterf ere
Ġred uction
Ġstitch es
Ġpick up
Ġbasket ball
Ġtheat re
re m
Ġset h
Ġprogram med
Ġver ify
Ġtur bo
er ved
Ġstitch ed
Ġatt ic
Ġrad ical
Ġg w
Ġe lla
Ġfor um
ra pe
Ġsch em
un fortunately
Ġpos es
Ġdep art
Ġacknow ledge
d i
Ġcoll ars
ky o
m it
Ġstr angers
Ġgu ards
Ġmu dd
Ġdep iction
Ġy am
Ġspir its
Ġs ans
Ġtomm y
Ġbo gged
Ġimmig rant
Ġmod ified
Ġalask a
Ġskill ed
Ġfa x
Ġp om
Ġdown gr
Ġsh im
Ġse ld
Ġsee ks
Ġdum ped
Ġgo dd
Ġdown ward
Ġdef ine
Ġh z
Ġenthusi asm
Ġhelic op
Ġcrit ique
Ġpropag anda
Ġer ase
Ġas ia
Ġencour ages
Ġorgan izer
Ġe ag
Ġwhis per
Ġcush ions
Ġcompos ition
Ġpainting s
Ġa ce
Ġl un
Ġsy l
Ġway ne
Ġbreak down
Ġbooksh elf
Ġtact ical
Ġac er
Ġch unk
Ġglo be
Ġt ant
Ġw akes
do x
et ers
Ġor le
Ġbel ts
Ġv on
Ġk itt
be y
ar ium
Ġinno cence
Ġbo bby
Ġm orm
Ġheart felt
Ġben net
Ġfr aud
Ġim ho
Ġresc ued
Ġle v
Ġnot icing
d is
ett es
i kes
Ġhill s
d el
Ġtransfer red
Ġmar io
Ġrevel ations
Ġevol ved
Ġblo om
Ġcraftsm anship
Ġalph abet
Ġh ul
Ġt u
Ġj ell
Ġaccompan ying
Ġban ana
Ġn ate
Ġpsych ic
Ġgeor gia
h em
Ġste wart
Ġappli ance
Ġrub y
Ġgather ing
Ġclu eless
Ġrel ating
Ġpark ing
b ag
Ġv iolet
Ġlar ry
Ġrelig ions
prod uct
Ġcl an
Ġsex uality
Ġd ong
Ġassum es
Ġm im
Ġsh out
Ġcreat or
Ġbind er
Ġblend s
Ġreport ing
Ġvari ation
Ġli am
Ġsp ig
Ġw aves
Ġhe ir
Ġgood by
Ġexce l
Ġg t
Ġk a
ad ays
Ġcont est
ment ioned
Ġend orse
Ġcr inge
Ġhom osex
Ġa k
Ġscore s
Ġassass in
Ġab st
Ġrain y
Ġn ano
Ġdesign ers
Ġju icer
Ġbe zel
Ġacc used
Ġdisappe ars
ic able
Ġpartic les
Ġhistor ically
Ġsurv iving
Ġscratch y
Ġtun nel
and y
Ġsincere ly
Ġun se
Ġjust in
Ġillustr ation
Ġcra ig
en cing
Ġpre st
Ġn arc
log ies
Ġtrans cend
Ġcontinu ity
Ġs enn
Ġre acher
Ġdu o
Ġlegend s
Ġscholars hip
Ġre print
Ġcan ned
Ġhard ship
Ġde er
Ġunbe ar
Ġkick ing
Ġn ause
Ġmon key
Ġsusp ension
Ġdrawback s
Ġyoung est
Ġflee ce
Ġunins p
Ġine ff
v als
Ġrubber y
Ġinflu ences
Ġsn ake
Ġstan ley
Ġh dd
Ġseg ment
ens ions
Ġdemand ing
or ig
Ġcolor ado
Ġnovel ty
it age
Ġchar co
Ġann ivers
Ġinadequ ate
Ġfor ty
Ġcri min
Ġorle ans
Ġsand isk
Ġprom otion
Ġrestaur ants
Ġtrad itions
red ict
Ġampl ifier
a ii
Ġcou pled
Ġpreach y
Ġp oured
Ġnow adays
Ġw ary
Ġsho ots
Ġad ul
Ġsw iss
im eter
Ġunders ide
Ġdisc ern
Ġrespons es
Ġto pper
Ġha v
Ġco ats
Ġun co
Ġgrand child
Ġtack y
Ġso cc
Ġcro ck
Ġb art
Ġcol umn
Ġassign ment
Ġinse c
Ġra id
Ġtherap ist
ou b
Ġpet ite
Ġseld om
Ġbuy s
Ġpse ud
Ġsign ature
Ġmicrof iber
Ġst akes
Ġorigin ality
Ġdou gl
Ġpr icing
f ull
Ġk ent
wor ked
Ġd ining
Ġsmo other
Ġthreat ening
Ġam ple
Ġsp ouse
Ġisol ation
Ġnat alie
Ġsocc er
Ġen able
Ġmad den
Ġgroo ves
Ġp ap
Ġcomprom ise
Ġsand al
Ġsymph ony
Ġdiscipl ine
Ġfr uits
Ġlive ly
Ġstink s
Ġman us
Ġcabin ets
Ġvent ure
Ġbar ry
Ġsp ool
ent h
Ġpolit ically
Ġtur tle
Ġe h
Ġhealth ier
Ġb id
Ġsu e
Ġbag gy
Ġtwist ing
Ġneed les
Ġinvestig ating
Ġcharco al
Ġmon ot
et e
Ġall e
Ġrock er
y ers
Ġpod cast
Ġshe pher
Ġtext ured
Ġdeck er
read s
Ġp uff
s a
Ġchron ic
Ġht c
Ġw oo
Ġtrav is
Ġclick ed
ct or
th ought
Ġclich es
Ġpl o
gg le
Ġlean ing
k ill
Ġg ord
Ġdep loy
Ġw ik
Ġaffect ion
ash a
r ad
Ġcor ruption
Ġrevolution ary
Ġunp redict
Ġmich elle
Ġm ates
Ġde lt
Ġmanus cript
Ġcell s
Ġr anger
Ġreli ably
Ġaf ore
Ġcross ing
Ġso d
Ġwh ining
Ġb acon
ain ted
Ġl or
Ġrest s
Ġre ck
t t
Ġphant om
Ġli ps
Ġacc um
Ġcop ied
Ġbe lla
Ġev a
Ġannivers ary
bs on
Ġdi ab
Ġkore an
Ġed en
Ġsl ing
mm ing
Ġram bling
Ġf ib
Ġstruct ured
Ġast ron
Ġreb el
Ġsympt oms
Ġsequ els
Ġno ir
Ġdrive way
Ġwo bble
Ġinstruct ed
Ġis a
Ġnot able
Ġwar fare
Ġcitiz en
Ġho ckey
Ġbend s
Ġjul ian
Ġshe ep
Ġtri v
Ġtre ble
Ġtherm al
Ġdisc ard
Ġpre face
Ġhaw aii
Ġdram atically
war ming
Ġmetaph or
Ġpet e
h i
Ġriff s
Ġoper ated
lo c
Ġseag ate
Ġcard io
Ġex it
Ġprinci ple
Ġrad ios
Ġorgan ize
p ieces
Ġemploy ee
Ġgoodby e
Ġun aware
Ġland ing
Ġgo pro
Ġru ining
Ġsne akers
Ġint ros
Ġacc ustom
Ġda isy
Ġmusc les
Ġtr action
Ġwh irl
Ġcontrovers ial
Ġimpro ving
Ġar ray
Ġho ses
Ġdoct r
Ġph o
Ġengine ers
Ġgrab s
Ġforb idden
Ġdat ab
Ġw ade
Ġtoler ate
Ġher itage
Ġfriendship s
Ġfier ce
Ġso y
Ġactiv ated
Ġsw oon
Ġcass ie
Ġr f
Ġdiv ision
Ġdysfunction al
Ġw right
ab y
m ath
Ġr atch
Ġcamer on
et ing
Ġflo p
Ġsl aves
ov o
Ġobs ess
Ġcelebr ity
Ġsteal ing
Ġtread mill
ast ian
Ġbu ggy
Ġopp on
Ġsold er
Ġcar go
Ġnot or
ang es
and ra
1 00
Ġmoder ately
Ġmind set
Ġd all
an other
Ġre wr
Ġv ote
Ġinfl ated
Ġref resh
Ġind ie
Ġco il
r ics
Ġgentle man
Ġrel ies
Ġjack s
Ġtri o
Ġbo g
Ġfo ll
Ġexpos ition
Ġsn ipp
Ġwor rying
Ġtv s
Ġash ley
Ġmarg aret
Ġatt itudes
Ġall eg
Ġweak est
Ġwh iny
Ġstud s
Ġexam ine
Ġthom pson
t ical
Ġun im
Ġmal es
Ġfun k
Ġsenn he
Ġl ith
Ġc reek
Ġsp a
Ġinc and
Ġmarsh all
Ġqu ot
Ġcal ves
app e
Ġknowledge able
ie ve
Ġtele phone
Ġappropri ately
ib les
Ġunread able
Ġmail ed
Ġre ign
Ġgl am
Ġtechn ician
Ġdust y
Ġdri lling
Ġun l
Ġrel ation
Ġenthusi astic
Ġprot r
Ġbillion aire
Ġhang ers
Ġcanad ian
Ġartif act
are st
Ġver ified
Ġj ams
Ġinser ting
Ġdetail ing
Ġm ant
Ġcr iter
Ġpeel ed
Ġtransl ate
Ġtre as
s en
ca ust
Ġa aron
Ġn az
Ġa z
Ġle o
Ġbal d
Ġpir ate
atch ed
Ġhom em
Ġori entation
Ġfle as
Ġaff airs
Ġass ert
ens es
Ġpro logue
Ġjung le
pl ing
Ġhar bor
Ġholo caust
Ġpum ps
Ġme ga
Ġcompar isons
Ġgrat uit
Ġadm its
Ġcolumb ia
Ġiron ically
Ġsh ri
quis ite
Ġhorrend ous
Ġfilm m
Ġutil ize
Ġinter fer
Ġpre ced
Ġfold ers
Ġsex ually
Ġbeh ave
Ġapocaly pse
Ġli gh
Ġdis char
Ġiron ic
Ġassess ment
Ġsa fer
Ġunbelie vably
Ġup stairs
Ġplot ting
Ġgr ues
Ġent rep
Ġcontrib ution
Ġhero ic
Ġconf orm
atisf ying
Ġlo re
Ġproper ties
al ine
Ġr oth
Ġge ek
ne ll
Ġgoss ip
ig ible
Ġexceed ed
Ġam bit
Ġbe et
Ġindepend ence
Ġcateg ories
Ġen abled
Ġpo nd
Ġcapt uring
Ġsynd rome
Ġv ic
Ġexpect s
Ġrec ip
Ġappro ved
Ġp ays
Ġinevit ably
Ġsp ac
Ġblock ed
Ġtun ed
Ġaw ake
Ġrem edy
Ġdesp air
Ġspirit uality
Ġman aging
Ġinse ct
Ġsad dle
Ġland ed
Ġco co
Ġeng agement
i ro
Ġfl aps
Ġleon ard
Ġimp ul
Ġretire ment
b ian
ri a
Ġey ed
Ġengine ered
Ġg ill
Ġguitar ist
h olic
Ġrete lling
Ġfair ness
Ġund oub
Ġtel es
Ġim pe
Ġhor rors
Ġant ics
Ġrep ack
Ġy ep
Ġup beat
Ġgr it
Ġtreat ing
d ays
Ġj arring
ag g
Ġthem ed
Ġdong le
Ġobserv ation
Ġw olves
Ġlen ovo
Ġre bell
Ġmo p
Ġmod ule
Ġt ink
l ie
Ġn ations
Ġbr ist
Ġplan ner
Ġcompos er
Ġfe ather
Ġhd tv
ed ge
Ġcol in
Ġaccustom ed
Ġcon gr
Ġst amp
Ġrelax ed
Ġseg ments
Ġcass ette
Ġtax es
h an
Ġcar n
Ġter rifying
it ious
Ġgrandparent s
Ġgri m
Ġafghan istan
Ġmaf ia
Ġtem ple
k ien
Ġany how
Ġgr am
Ġname ly
Ġcu z
Ġescap ed
Ġra ises
Ġg ur
Ġterror ist
Ġstuff ing
Ġen ters
Ġvict ory
Ġbraz il
Ġse attle
Ġpl ag
Ġsm ar
Ġdan ie
Ġgrues ome
Ġmaster ful
Ġgodd ess
Ġhe ather
ens ible
Ġins ulting
Ġpass ive
Ġign oring
ne ys
Ġdsl r
Ġvo id
Ġafore mentioned
Ġbu bb
Ġtriv ial
Ġn ook
Ġqu il
Ġeval uation
st ruct
b urn
Ġentrep rene
Ġvast ly
Ġs ack
Ġpret entious
Ġbusiness es
Ġeste em
b et
Ġstam ped
Ġfingerprint s
Ġbleed ing
Ġbet a
ro l
Ġpro pri
Ġpsych o
Ġnichol as
igh ters
Ġremember ing
ett i
Ġchew ed
Ġheart warming
Ġmer ch
Ġarchitect ure
Ġv iz
Ġintim id
Ġcomple ment
Ġcookbook s
Ġharr ison
Ġtuck ed
Ġbene ficial
m ies
Ġremark ably
Ġt iles
Ġd aw
Ġr ider
Ġho ll
Ġrac ial
c ity
Ġassum ption
Ġflat ten
Ġsuff iciently
Ġcinem a
Ġsoo o
Ġs ple
Ġrepresent ation
Ġno v
Ġtw ent
Ġassum ptions
Ġaccord ingly
Ġbuzz ing
Ġadminist ration
Ġambit ious
re view
Ġut ens
Ġun cover
Ġv ents
Ġm f
are s
Ġdougl as
Ġinter p
Ġhist ories
Ġsh ack
Ġkn itting
Ġro de
h ard
Ġafter math
Ġtol kien
Ġtouch screen
Ġdi me
Ġcushion ing
Ġear l
ont z
Ġaccept s
Ġha ha
Ġpunish ment
Ġv es
Ġseam lessly
Ġen forcement
umb led
Ġrug s
Ġtransl ations
j ack
Ġmeet ings
Ġrent ed
Ġecc ent
Ġall ey
Ġcon ference
ump y
Ġauthentic ity
ill ing
Ġwrest ling
Ġtem por
Ġflav ored
Ġstar ters
Ġut f
Ġconven iently
Ġhand held
Ġrubber ized
Ġbear ings
i as
r ist
an tha
Ġinconsist encies
Ġmelo dr
Ġadmir able
Ġjo an
Ġt ug
Ġveget able
Ġpro ps
Ġminor ity
Ġpell ets
Ġconn or
Ġsto le
Ġdel ve
Ġrac ist
Ġsp it
Ġcomb ines
Ġbed time
c are
Ġsn ugg
Ġinhab it
an ed
Ġha mm
Ġclint on
Ġsc ul
Ġbum ped
Ġste pping
Ġhe ars
Ġdivor ced
3 0
Ġfac ility
Ġjul iet
Ġl ub
Ġsp ain
Ġemb ro
Ġman h
ell a
o st
Ġhope less
Ġdiv ing
Ġs ought
y e
Ġbio graphies
Ġbehav iors
Ġglitch es
f ol
Ġadapt ation
ak i
Ġdemonstr ate
u ity
Ġcopy right
Ġcamc order
Ġb orders
Ġpan ic
Ġsix th
Ġlegit imate
Ġco ord
Ġescap es
Ġbran ch
Ġv ign
on ts
Ġcomp r
Ġcaut ious
Ġball ads
Ġcole man
Ġdock ing
Ġhands et
Ġalco holic
Ġcompens ation
Ġd ented
Ġun he
z o
ple x
Ġcr az
Ġaccident al
Ġrel ent
Ġn ix
Ġear piece
Ġdress ing
Ġk itten
Ġfemin ine
Ġspray ing
i ver
Ġout right
Ġperson a
Ġstoryte ller
Ġcal c
Ġquir ks
Ġalter ed
m atic
Ġpand ora
Ġsof a
Ġignor ance
Ġcon e
cell ent
Ġelabor ate
Ġsp at
Ġover power
Ġaudio phile
Ġcy ber
Ġdelt a
Ġsharp ening
Ġaccompan ied
Ġsu ede
Ġmist ress
ism s
Ġpolit icians
Ġem per
Ġpar am
Ġquant um
Ġal oud
Ġd ere
Ġbr u
icien cy
Ġsm ud
Ġfro ze
Ġschol ar
Ġbl isters
be fore
Ġwarri ors
Ġclo gged
Ġangel es
Ġregister ed
Ġabst ract
Ġdefe nder
Ġintention ally
Ġrem ed
Ġswall ow
Ġtrust ing
Ġblend ing
al a
Ġpar a
Ġclub s
Ġaustr alian
ri ous
ol t
Ġi ke
Ġris ks
l ance
Ġner ves
Ġcarol ina
Ġlux ury
Ġrebu ild
land s
Ġunexpected ly
Ġcompreh end
Ġc f
Ġconclud e
Ġh ipp
Ġv ga
Ġcr an
Ġr ins
Ġsim s
Ġhom eless
Ġchurch es
Ġd itch
Ġnecess ity
Ġmar ia
Ġparad ise
Ġw ack
Ġe ject
Ġprevent ing
Ġmus ically
lus ter
Ġin sole
Ġsk ips
Ġscul pt
Ġwe aving
Ġconcent rate
l ink
Ġcut outs
Ġpain s
Ġpolic ies
Ġt rent
Ġmu gs
Ġa ero
Ġe ternal
ous es
our s
st als
ron ics
Ġadapt or
Ġrefer enced
Ġwor dy
Ġun m
Ġel bow
Ġsun sh
Ġreput able
Ġp ly
Ġlack luster
ex cellent
Ġsky pe
Ġcontrib ute
Ġrec re
Ġro ses
Ġacc ents
Ġbas es
Ġatl ant
Ġver bal
Ġrev ised
Ġstap le
Ġsignific ance
ang ular
Ġdev otional
Ġforget table
Ġme and
Ġcr us
Ġj ab
Ġexper iments
Ġdevast ating
Ġg arn
il er
Ġinter ch
Ġc c
Ġimp at
Ġinval uable
Ġqu ilt
Ġback ward
Ġdivers ity
Ġoverd one
Ġgoof y
Ġdecept ion
Ġass ure
Ġz ach
Ġd ome
Ġmight y
Ġimpl ies
Ġmar ath
it ative
Ġhomem ade
Ġcomp osed
Ġwound ed
Ġbless ing
Ġappear ing
Ġhe ll
Ġbu lly
Ġti vo
Ġpe gs
Ġ 2
Ġmon op
int egr
Ġsnack s
Ġid ol
u ge
Ġse ated
Ġemp ower
in ally
Ġsuspect ed
c ases
Ġn ag
Ġnarc iss
Ġundoub ted
Ġstar ring
Ġmad ness
b rew
Ġauthor ized
Ġver d
b ury
Ġlike wise
Ġwilder ness
Ġseb astian
Ġhur ric
Ġsqu ad
am ous
Ġhum ming
Ġprev ented
Ġunder whel
Ġeccent ric
Ġto me
Ġover c
Ġcost ly
Ġdeliver ing
Ġcompress ed
bur g
Ġpum ping
Ġwhist le
Ġn es
el ity
Ġar med
Ġlo vable
Ġran ks
Ġcry stals
Ġnic ole
Ġextensive ly
Ġwh ine
per t
g ic
Ġnot ing
Ġad j
Ġgratuit ous
Ġfoot print
Ġuns atisfying
Ġbran ches
Ġchar ity
Ġpercept ion
Ġev idently
Ġbelie vers
Ġsam antha
Ġa ids
Ġm h
Ġm l
al f
Ġk ara
Ġm ama
Ġp p
Ġd ow
Ġcir cus
Ġwal ter
Ġend ured
Ġsal vation
Ġfem ales
Ġrespond ing
ann on
Ġcompet e
Ġow en
ame l
Ġcar ri
Ġresid ents
Ġbr akes
w atch
Ġinex plic
Ġtack le
Ġte e
Ġcl ipp
Ġro gue
Ġsav age
Ġpray ers
Ġun int
Ġunpredict able
Ġenviron ments
Ġremaster ed
Ġfun eral
Ġswe pt
Ġing en
Ġcontrib uted
Ġl ug
Ġsched ul
Ġcyl inder
Ġche at
Ġremain der
Ġarth rit
Ġdecept ive
Ġincand escent
Ġn v
Ġallerg ies
Ġmark ings
Ġratt le
Ġgoth ic
com es
Ġmos qu
Ġoffend ed
oint ing
ot er
Ġsw ift
Ġsn ark
Ġdrum mer
Ġsw ed
Ġfore most
Ġorgan izations
Ġvend ors
Ġnud ity
Ġsmooth ies
Ġdistur bed
Ġman kind
Ġguid elines
Ġst ake
Ġco ax
Ġcr ust
Ġcor ny
Ġrec ru
Ġknock ing
Ġred ucing
Ġvacuum ing
Ġconfig ure
Ġyam aha
Ġacqu ired
Ġsat ire
Ġscro lling
Ġeditor ial
Ġimmers ed
Ġche ek
Ġther mos
Ġaud iences
d id
Ġrecyc led
Ġm g
Ġhy po
m able
Ġpsych iat
ire ct
Ġsy d
ers ed
Ġnet works
Ġsubject ive
Ġmanip ulate
Ġmoment um
Ġfavor able
Ġjer ky
Ġaddict ive
Ġbrand ed
Ġbun ny
Ġsu z
Ġtr ains
reg on
Ġgr ams
man n
Ġfle a
Ġad here
Ġo me
Ġbutter fly
Ġkod ak
Ġprior ity
Ġo regon
Ġscar f
Ġmemoir s
ot o
Ġoffer ings
Ġpet ty
Ġstruct ures
Ġhaw k
Ġs izz
y d
Ġenlight en
Ġexecut ive
et own
el and
Ġcance lling
Ġr av
Ġne uro
Ġsac red
Ġyog urt
Ġkn ot
Ġshred der
Ġdi aper
Ġab ound
Ġlist ens
Ġh yster
Ġdomin ant
Ġke ith
Ġvis ions
sh ell
Ġundoubted ly
Ġcur t
Ġkir k
Ġb ot
Ġsuc ceeds
be ing
Ġt p
Ġthr ott
Ġrest ing
Ġorth o
Ġsh ave
Ġwild ly
Ġbound aries
Ġpi per
Ġplan es
Ġcamp bell
ul ates
Ġdevelop ers
Ġdis integr
Ġimpl ausible
Ġvert ically
Ġtin ny
Ġbit ing
Ġreinfor ced
d og
Ġab und
Ġpo ds
Ġpol ite
Ġvisual s
Ġsweat y
Ġreun ion
Ġbrilli ance
Ġdec line
Ġchill ing
t om
Ġguard ian
Ġhor rid
Ġsher lock
m ons
Ġcut out
Ġrid ge
Ġbe ver
iv able
Ġneg ot
Ġperiod ically
gg ers
Ġred es
Ġjack ie
Ġowners hip
Ġveget arian
Ġgreat ness
Ġcl ancy
z es
an or
nam ent
Ġreward ing
Ġper ipher
m ay
Ġchamp ion
Ġcinem ato
Ġaqu arium
Ġvers a
Ġbur den
Ġcam per
Ġblack s
Ġmark ets
Ġfulfill ed
Ġmanif est
Ġcart oons
Ġintermitt ent
m aster
Ġcommon ly
Ġsymbol s
Ġground ed
on ies
Ġpul se
Ġsc out
he im
Ġaltern ating
Ġinspect or
Ġan at
Ġpress es
Ġre load
Ġtoy ota
Ġunnecess arily
Ġbl iss
Ġwal t
n as
Ġt ying
Ġi l
Ġex quisite
Ġa mel
Ġd ug
Ġli me
Ġdetect or
reg ard
Ġd angers
velo ped
Ġhub by
Ġsennhe iser
Ġamateur ish
Ġshoot er
Ġinterpret ations
Ġheartbre ak
Ġt apping
Ġrequire ment
Ġher bs
Ġman s
Ġgut s
Ġsme lling
Ġre order
Ġrock ing
Ġtransform er
Ġatro cious
g ance
Ġrob inson
Ġarm band
Ġsass y
cre en
Ġfly nn
Ġshepher d
Ġkidn apping
Ġcou p
h en
u ch
Ġprov ider
Ġdepart ure
l ain
Ġind ians
Ġd orm
st orm
Ġgood reads
Ġlay ered
Ġgrab bing
k ers
Ġtr act
Ġscript ures
Ġstand point
Ġdist ress
Ġincorpor ate
Ġcarol ine
Ġjere my
c ers
Ġan ts
Ġdest ined
Ġcle ared
Ġglim pses
Ġd al
Ġgord on
Ġslow ed
Ġafter market
Ġbl unt
Ġflick er
Ġdri es
Ġmyst ical
Ġhom etown
Ġcare ers
Ġgar ment
Ġquiet ly
Ġinv o
Ġsucceed ed
Ġchar ism
av in
Ġco herent
Ġbom bs
Ġprong s
Ġar k
Ġconsum ption
Ġarr ows
Ġdetect ion
Ġpho enix
en cer
Ġaw ards
Ġblat ant
Ġc ement
Ġdi y
Ġinvestig ator
Ġari z
Ġb am
ang ing
u pp
Ġthe ft
Ġele ven
Ġspl ash
Ġpad dle
Ġball et
Ġko ontz
Ġdec al
Ġcar rie
Ġreg ency
Ġtur mo
ul ars
op ard
Ġmid s
Ġv enge
Ġsp ices
Ġexpert ise
Ġxx l
Ġunbear able
at ement
Ġscreen play
Ġanticip ating
Ġk ane
s ince
Ġfut ur
Ġdisasse mb
Ġchord s
Ġhesit ation
Ġm asc
Ġjen ny
Ġgener ated
Ġgam ble
Ġformula ic
Ġtid bits
Ġmom s
Ġmor ality
Ġdim in
re c
Ġbrav o
Ġentire ty
Ġovers ized
Ġcar ic
Ġinv ented
Ġmeaning less
str ong
Ġcomb inations
Ġcam ps
Ġb is
ir a
Ġappro aching
Ġform atted
Ġpitch ed
Ġamb ig
Ġfirst ly
qu in
w olves
ul f
ig o
Ġles bian
Ġme gan
Ġdestruct ive
t aking
Ġhun ters
Ġtruck s
Ġalle ged
Ġariz ona
Ġgri e
e ven
co ck
Ġg est
Ġgr om
Ġbr ains
Ġhistor ians
rep res
ri m
Ġforg iving
th rough
Ġmitch ell
Ġf ittings
Ġsho ps
Ġdo s
Ġg ree
Ġwed ge
Ġtooth p
w an
Ġn ash
Ġjan et
Ġtremend ously
Ġal arms
Ġpro be
Ġcomple ting
Ġm age
Ġinteresting ly
wor th
Ġcrimin als
Ġeval uate
Ġsong writing
Ġrack s
Ġtight s
Ġexpos ing
Ġboun cing
Ġpopular ity
ens on
Ġexpress ions
ed er
Ġsm iling
Ġreal ities
Ġanticip ate
Ġdrain ed
po on
Ġbe g
Ġthe ological
Ġbr at
Ġrepl ied
Ġcur l
th ood
Ġhighlight ed
Ġmin ister
Ġe q
Ġdou g
Ġheight s
Ġgrandchild ren
Ġw ander
Ġsurf ing
Ġm itt
Ġad her
iz ers
we igh
Ġliber ty
Ġsl ider
Ġp aw
Ġoff set
Ġdut ch
Ġshif ters
Ġr asp
Ġspill s
Ġinc idents
Ġd ivid
Ġelim inated
Ġd ents
Ġn i
Ġhot ter
Ġbattle field
Ġth ier
Ġexplor er
Ġdis cri
xt ures
Ġkind ness
Ġmile age
Ġkore a
Ġun av
Ġg ates
Ġmet iculous
Ġang led
Ġcon gress
Ġem bo
Ġmat urity
or ie
Ġfr act
Ġturmo il
Ġmain e
Ġblack berry
Ġsh uffle
Ġdistrib ution
Ġcoll abor
Ġsu ite
Ġre iss
pt on
Ġn ike
Ġeas ter
Ġem bed
Ġspill ed
Ġsepar ating
Ġextend s
Ġcann on
Ġbr ow
Ġshut ting
Ġwere wolves
Ġrepl ay
Ġmur phy
Ġdiagn osed
Ġber lin
Ġb ure
Ġter rain
Ġbust ed
Ġwand ering
Ġcolle agues
Ġspe cially
Ġreflect ed
Ġdall as
Ġwar ner
Ġal f
Ġfranc is
Ġtiss ue
c lo
Ġfit z
Ġencour agement
Ġele ction
4 0
Ġd m
Ġoption al
Ġfat ig
wor thy
Ġsho vel
Ġroom mate
Ġnightmare s
Ġout weigh
app ointed
Ġgener ate
Ġhe nd
Ġdew alt
Ġav a
st ood
Ġf ading
Ġl any
Ġbit es
Ġf ist
Ġcl one
r r
Ġsh am
Ġco ins
Ġcons cience
Ġc ant
Ġtr oops
Ġlam b
mb ers
Ġcan op
Ġtrack er
Ġdevelo per
Ġfilter ed
Ġb ish
Ġn ugg
Ġco arse
Ġm t
Ġbark ing
Ġdepend ent
Ġhook ing
Ġpir ates
Ġcomm ander
Ġcompare s
Ġscott ish
Ġb our
Ġqu oted
Ġtrave lling
Ġj ag
Ġun used
Ġcollect ors
Ġeth ics
Ġtem plate
Ġgloss ary
st ock
Ġalex a
Ġp att
Ġme llow
Ġappend ix
Ġh ud
Ġignore s
Ġincre ases
Ġso los
Ġpl as
Ġmorm on
Ġcall er
Ġfund ament
Ġbo iled
Ġdistingu ish
Ġre ass
Ġlong ing
Ġtrans mission
Ġrust ed
Ġglor ious
in ates
Ġwell s
Ġir an
Ġtutor ial
Ġrp m
Ġnostal gia
Ġs ie
Ġergon omic
att an
Ġcondition er
Ġac ry
Ġc ater
Ġsh aw
Ġl ur
et ed
Ġdex ter
Ġp ony
Ġenter prise
Ġhelicop ter
Ġnot ably
Ġunpl ugging
Ġheart ache
Ġmis repres
Ġblo ss
Ġapplic able
ll ey
Ġmel ting
Ġnin ja
Ġcigaret te
Ġfe ist
Ġbl ister
Ġac ce
Ġw ipes
Ġadm ired
Ġnet working
Ġtodd lers
Ġs log
Ġsc oo
Ġsarc astic
gu ard
Ġg n
Ġcor k
Ġincom pet
in ction
Ġpack et
ic o
Ġsh ore
r us
Ġcame l
Ġspe lls
Ġaesth etic
Ġant on
Ġbuck les
Ġc ape
Ġmind less
b ir
Ġexper imental
Ġd na
Ġpl umb
Ġgerm ans
p y
Ġre y
ain ed
Ġsc anned
Ġdis gr
Ġpartic le
Ġstar buck
Ġfire s
m ets
Ġre agan
Ġtransport ed
p age
Ġin soles
Ġj ed
Ġdiagr am
om i
Ġpseud o
Ġdr ake
Ġremark s
Ġoptim istic
Ġreg rets
Ġdatab ase
Ġs ill
ro se
Ġcompet ing
Ġcow ork
ans as
Ġemper or
Ġrend ition
l ings
Ġgre edy
Ġsuggest ing
Ġwaist band
Ġabsor bing
Ġwh ites
h art
Ġthanks giving
Ġtempor arily
b ul
Ġspot light
Ġvoy age
r in
Ġcl ipped
Ġpeace ful
Ġr ho
Ġsl ices
Ġim ac
Ġsin ister
Ġtor ch
r ina
Ġaff ir
Ġinf amous
Ġwin ters
Ġpe ek
Ġest imate
Ġsprink led
ap or
Ġrely ing
Ġdilemm a
Ġclever ly
Ġt umb
Ġnarr ower
Ġselect ing
fo am
Ġcalib ration
Ġp aus
Ġfollow ers
Ġadventur ous
Ġpercent age
Ġp aws
Ġv icious
Ġquar ters
Ġscand al
Ġsp ook
Ġrad ar
Ġve in
Ġvan ity
Ġreal ization
Ġsin s
Ġmir acles
Ġunlock ed
Ġcompens ate
ress ion
Ġin ver
Ġproced ures
on na
y y
Ġsp acing
Ġcur ves
Ġtext books
Ġwhist les
Ġkey pad
Ġy an
Ġphil ip
Ġbroad way
Ġdistinct ive
Ġconver ted
b ars
Ġhead aches
Ġpouch es
Ġh ides
Ġjeff erson
Ġter minal
Ġheft y
Ġb d
Ġrec ur
Ġprop os
om er
pl aced
Ġded ication
Ġcounter p
Ġvel vet
Ġintermitt ently
Ġgard ening
u ating
Ġment or
Ġswim s
onym ous
Ġfl ats
Ġreject ed
Ġfem inist
Ġrou ters
Ġattend ed
Ġlum ens
Ġdro id
Ġcalcul ator
m ith
Ġbackpack ing
c p
Ġse min
Ġrein force
Ġcale b
Ġreset ting
Ġretrie ve
Ġflight s
Ġdread ful
Ġgimm ick
do es
Ġske let
Ġso aking
Ġrest ock
Ġsm ashed
Ġclar ify
Ġviz io
Ġmuff led
Ġrp g
Ġsmo ker
Ġh ank
Ġfe nder
Ġmar tha
Ġattend ing
Ġevol ve
Ġbag gage
ik o
Ġbennet t
Ġsmar ter
Ġv a
Ġsc rape
Ġret ros
Ġhe in
em ic
Ġcourt esy
Ġvin cent
Ġacce ler
Ġpre y
Ġegypt ian
Ġthrott le
f ish
Ġmer its
Ġcere al
Ġto te
Ġpre aching
ab solute
Ġcoun sel
Ġm x
Ġzo e
Ġfilm ing
Ġped est
Ġbuff alo
Ġp as
Ġfrequ encies
Ġint uit
Ġrev ision
Ġconcent ration
bb ing
Ġseam less
Ġl ows
Ġapproach ed
b el
Ġt ac
Ġpro st
Ġcom ical
Ġwater ing
Ġgr ac
Ġi on
Ġdef orm
Ġdist ances
Ġcin nam
Ġrhy me
Ġemb ark
Ġproceed ed
Ġass ort
Ġpill s
6 0
Ġk ern
Ġj a
Ġsub ur
Ġske w
ys on
Ġtarget ed
Ġdis able
Ġreal istically
Ġdepth s
Ġdash board
Ġupgr ades
Ġtermin ology
Ġr c
Ġby pass
Ġdeal ers
dd ing
Ġvari able
Ġgall ons
Ġgadget s
Ġcinnam on
Ġexpand ing
Ġanx iously
Ġneglect ed
Ġmis ery
Ġshred ded
Ġconsequ ently
Ġsur vey
ir able
Ġad vers
Ġsp arse
itz er
Ġun li
Ġswe ats
Ġsleep s
Ġclin ical
Ġpo pe
Ġby e
Ġdetect ed
Ġli bert
Ġeleph ant
Ġseem ing
Ġd ian
Ġelo qu
Ġblend ed
d ia
Ġg ust
Ġbreath able
Ġcustom ize
Ġword ing
Ġact ively
Ġa mend
Ġlet down
Ġgrad er
Ġpro ceeds
Ġjust ified
Ġlower ed
Ġratt ling
y on
Ġne o
Ġfin ance
Ġvivid ly
Ġcomm ute
Ġlith ium
Ġli ed
li est
Ġappli ances
Ġfi xtures
Ġsock ets
Ġblond e
Ġwork book
Ġmir ac
Ġmod ifications
Ġfu zz
Ġgr ains
Ġmag ically
e el
Ġreme mbers
ar ound
Ġprof anity
Ġprincip al
8 0
a que
Ġar ist
Ġble ach
Ġloss es
Ġf usion
Ġover load
Ġner ve
Ġli v
Ġund o
Ġfund s
Ġcul pr
Ġdisasse mble
Ġke nd
Ġraz er
Ġdu h
iped ia
Ġs age
Ġb ach
Ġm it
Ġy ay
Ġpro claim
Ġgener ator
Ġsubm it
Ġsm ash
Ġrecover ing
Ġdece ased
Ġze al
Ġde ft
Ġen cy
Ġbio logy
Ġcraw l
Ġtour ist
word s
Ġenthr alled
Ġh ast
Ġwork ings
Ġcontrad ict
Ġstalk er
Ġwik ipedia
an ing
Ġcompet itors
Ġinterch ange
Ġcost ing
Ġbure au
Ġri ps
Ġpray ing
Ġdere k
Ġw ats
Ġinteract ive
Ġba iley
Ġch and
Ġk urt
olog ically
Ġbrand on
Ġcanop y
Ġbe ige
Ġce o
Ġsurround ings
Ġagre ement
Ġmush room
Ġun z
Ġjar gon
Ġtooth brush
Ġunw anted
Ġconsum ed
Ġplay station
Ġunli kable
Ġpres chool
Ġmon olog
Ġimpro ves
Ġassort ment
Ġolymp us
Ġmont ana
Ġhurric ane
Ġdri vel
Ġpend ant
Ġjell y
Ġde af
Ġsubpl ots
Ġdri pping
Ġliter al
Ġspread s
Ġbron ze
Ġsty ro
Ġmat rix
Ġd war
Ġmic key
Ġexclus ive
Ġmanh attan
Ġarg u
Ġruth less
Ġsunsh ine
Ġlisten ers
Ġbull ying
Ġbreath taking
Ġq c
Ġmood y
p ot
Ġconfus e
Ġw ag
le e
Ġwe nd
Ġo ily
Ġbarb ie
Ġthreat ened
Ġall ies
Ġlaw rence
Ġdeb ating
Ġbio logical
Ġcommun ities
Ġreflect ions
Ġwind y
Ġsold ering
el ic
Ġsc ales
Ġinv ited
Ġbe gging
Ġen erg
Ġs ib
Ġbe ad
be an
s ions
Ġunre lated
Ġmarath on
Ġn ina
Ġab ort
Ġsp icy
Ġz oo
Ġp itt
Ġbeginning s
Ġsearch es
g reg
Ġj ude
ind a
Ġb out
ab e
Ġcinemato graphy
Ġp arr
h l
Ġmes mer
Ġcosm etic
Ġmiser ably
Ġth ie
e z
Ġir ony
Ġnic kel
Ġsw apped
atis fact
be c
Ġdefin itions
Ġstyro foam
Ġnaz is
Ġh ue
Ġgi bson
Ġtreat ments
Ġrec essed
Ġimpro b
Ġestim ated
Ġcommun ist
ul um
Ġev ans
e le
Ġster ling
Ġunder cover
Ġun att
n ut
Ġhe brew
Ġspecific ations
Ġom n
Ġh ott
Ġtarget s
Ġpredecess or
Ġinsec ure
Ġamel ia
ro e
Ġdis regard
Ġber ry
Ġmonitor ing
Ġcors air
Ġmad ison
Ġhar le
Ġres ent
Ġnarr ated
Ġdirect ors
Ġtrad em
Ġmy ri
Ġbr ood
Ġstupid ity
Ġbrain er
Ġer in
Ġmut ual
Ġl ush
Ġassass ination
it arian
Ġret reat
Ġpat ric
Ġrevis it
Ġk il
te c
ath a
Ġpract ition
Ġpass port
Ġdon ald
Ġbe es
Ġsecret ly
Ġcous ins
it an
te ch
Ġsquir rels
Ġoper ates
Ġmaster ed
Ġspe ck
Ġste in
Ġcond em
cur ities
Ġengross ed
Ġdece iving
Ġbrook lyn
Ġcl ing
Ġj ade
Ġlo om
Ġtouch pad
Ġtradem ark
Ġpropri etary
Ġl uther
Ġon s
Ġdeliber ately
Ġnove llas
x ist
or gan
Ġrest ored
b ish
Ġe tern
it ating
Ġmar c
Ġred uces
Ġsens ual
Ġcro ch
Ġble ak
Ġgam ers
Ġbibl iography
Ġunderst atement
Ġstar ing
Ġtrans itions
Ġaston ishing
ab oration
Ġexcept ions
Ġd up
Ġtransm it
Ġl az
Ġemploy ed
Ġacry lic
Ġt aper
Ġti er
Ġcons iders
af ting
Ġgor illa
Ġpl anted
Ġinter sp
Ġinher ent
Ġdick ens
Ġency clo
Ġposition ing
Ġsnipp ets
Ġto mb
Ġm erm
ra h
Ġunw illing
Ġfest ival
Ġar d
Ġcoinc idence
oc r
Ġmaintain ed
Ġaddress ing
Ġinj uries
Ġtoss ing
Ġthir ds
Ġen se
gl ass
Ġtoler able
Ġdrastic ally
Ġt out
Ġsubm itted
Ġangel a
ul as
Ġhand book
Ġha log
Ġmanual s
Ġpre fers
un ting
Ġtrans p
Ġdisappear ance
Ġcal iber
Ġsl ows
Ġx s
Ġbetray ed
van ia
Ġtoler ance
Ġen ig
Ġmathem atics
Ġsoph om
Ġsc al
z ie
Ġc akes
Ġstr ay
Ġunfold ed
Ġi dle
ad der
Ġgoo se
Ġform ing
Ġsor row
Ġmer ry
Ġmisunder stand
Ġsu ll
ere lla
Ġly ric
Ġstro ller
Ġwats on
Ġinf uri
Ġfing ern
Ġpam ph
Ġembro ider
Ġcustom s
Ġthreat s
Ġn un
Ġnovel ist
Ġportray ing
Ġb ing
Ġsl aughter
Ġisland s
Ġparall els
Ġnood les
Ġlect ure
don ald
Ġinst a
Ġdevelop ments
Ġinse curities
Ġvalent ine
Ġund en
Ġcyn ical
Ġabund ance
ps y
Ġeffect iveness
Ġsail ing
Ġsl ang
Ġmay a
Ġinstruct ional
Ġspill ing
Ġst all
Ġenv ision
Ġchron ological
Ġintention al
Ġattrib utes
ist ical
Ġpix els
c at
Ġk atherine
po ds
Ġcongr at
Ġs ally
ad vert
Ġjo ins
Ġtrans it
ain ts
Ġdis res
Ġfl air
lud e
e ous
m ary
Ġpc s
Ġsto pper
Ġtravel er
Ġste ak
Ġprom otional
Ġspl itter
Ġcateg or
Ġa kin
Ġd oo
Ġne on
Ġafter ward
Ġaut ism
Ġspe lled
Ġann ual
Ġc ough
Ġrub s
Ġh ans
Ġmathem atical
f ar
Ġwater ed
Ġweigh ed
Ġc uss
Ġm d
Ġre no
Ġtem pl
Ġd ab
Ġbr un
Ġconj unction
Ġa pr
Ġcop ying
Ġdiamond s
Ġinher it
Ġawkward ly
Ġassoci ate
Ġstarbuck s
Ġarri ving
Ġsple nd
gg s
Ġaff ili
Ġcond es
Ġho g
Ġoffic ially
ay er
Ġmom my
Ġmich igan
Ġbox er
Ġprol ong
Ġimmort al
Ġm ash
t own
Ġcon ceived
Ġchrist ie
i ries
Ġobser ved
Ġmyri ad
h ar
Ġadol escent
Ġpy th
Ġrespect s
Ġplas ma
mes ter
Ġimperfect ions
Ġaesth etically
Ġmirac ulous
Ġwrink led
Ġp uck
we et
Ġen chant
Ġbb q
Ġen er
Ġdoor bell
Ġbored om
Ġcl own
Ġmerch and
Ġpark s
Ġner d
Ġco hesive
Ġman sion
Ġi b
gr ad
Ġper m
Ġtow ers
iet ies
Ġdownload s
Ġd air
Ġcook ware
Ġdem ise
Ġrang es
j an
Ġm ak
Ġpo e
Ġqual ified
Ġform ats
Ġlub ric
Ġcriticism s
Ġflick ering
Ġs ang
un ci
Ġident ifying
Ġtrigg ers
Ġes que
Ġunfor get
Ġs ip
et ches
uc cess
Ġlany ard
Ġe acute
Ġjo ining
Ġstri pes
Ġcind erella
Ġverd ict
Ġcriter ia
Ġcollect s
h aw
Ġtri be
Ġtell er
Ġcom cast
Ġplant ronics
Ġover weight
Ġdetect ives
Ġterror ists
Ġc gi
Ġre illy
Ġman agers
Ġgab e
Ġjo el
Ġembed ded
Ġsquare s
Ġfinish es
Ġfe ver
Ġaccord ance
Ġblur ay
Ġpres erve
Ġtransform ed
Ġreserv ations
Ġnutrition al
Ġbo ast
Ġd ante
Ġl ars
Ġg ory
h ire
Ġmon k
Ġcap ac
Ġtend ed
Ġvague ly
Ġt ai
Ġi cons
Ġr ats
Ġplay ful
Ġinterview ed
Ġdes cent
Ġrepublic an
in stein
Ġm uted
Ġy ummy
Ġtheat rical
Ġobl iv
Ġox ford
Ġal bert
Ġeffort lessly
Ġs ookie
Ġpl ight
Ġdev oured
Ġsweet ness
p any
Ġpe g
Ġche cks
Ġado be
Ġtraum atic
Ġkiss ing
Ġdecor ation
ro be
Ġrecogn izes
Ġcontrib utions
Ġflo yd
Ġbed ding
s ight
Ġcompassion ate
Ġike a
Ġdan cer
Ġdisap ointed
Ġfrank lin
Ġborder line
Ġare na
Ġdis rupt
Ġr ash
Ġdv i
Ġcat ast
Ġencyclo ped
Ġsn or
Ġprefer ences
Ġdemonstr ated
Ġam id
Ġwho les
Ġlif el
Ġast ro
Ġover head
Ġr ake
Ġell en
at ra
Ġrob ots
Ġhomes chool
Ġthere by
Ġwides creen
Ġacc idents
Ġreprod uction
Ġfantas ies
Ġsh ane
Ġfar mer
Ġcal vin
Ġfutur istic
Ġto ggle
Ġcas io
ur g
Ġvocal ist
Ġun le
Ġatt est
Ġw agon
Ġm oth
Ġbest se
p ool
Ġn b
Ġg ains
Ġm our
Ġme nd
Ġassoci ation
Ġuns uccess
Ġd ia
Ġpros pect
Ġup br
Ġtechno logies
Ġanch ors
Ġsurre nder
Ġout fits
Ġmy stic
Ġsty ling
v ance
Ġfe ast
ect ed
Ġsp aced
Ġh ating
g les
Ġb achel
ar th
Ġco d
Ġsp encer
Ġcho ck
b led
e cy
Ġn aught
Ġgain ing
Ġlic ens
Ġar ise
iv an
Ġdist ill
Ġrece pt
Ġdum mies
Ġp orter
Ġell is
Ġergon om
ma id
ik a
ent a
Ġcase y
Ġuns atisfied
Ġado ption
Ġden ied
Ġch lor
Ġright eous
Ġflo ppy
Ġenc om
Ġcompan ions
Ġuninsp ired
Ġf ret
Ġz une
Ġe z
ct ic
Ġoccup ied
Ġcatast roph
Ġatl as
Ġt l
ber ries
Ġsne ak
Ġl av
Ġlos er
Ġaccount ing
Ġiron ing
i our
Ġt t
Ġj ax
un ct
Ġche e
Ġhyd ro
ll an
Ġwitness ed
Ġn ess
Ġwho lly
wh y
Ġapolog ize
Ġmod ification
Ġsn oo
Ġmot ors
Ġwaff le
Ġdair y
Ġspir ited
Ġpronoun ced
Ġsk etches
Ġdesign ing
Ġgre asy
Ġresemb les
Ġp ork
Ġke l
Ġcare less
Ġnav al
j et
Ġoh io
Ġeag le
ro ck
ou lt
Ġe po
Ġstro kes
Ġpric eless
Ġaccom pany
Ġspl itting
Ġknight s
ple ase
Ġhor rifying
Ġdon ate
hy dr
Ġarthrit is
Ġse ep
Ġhi kes
Ġfulfill ing
Ġdr ac
Ġconvers ational
Ġimpl ications
Ġder iv
Ġhel pless
Ġpositive ly
Ġha ven
Ġseal ing
us able
Ġjack ets
Ġch an
Ġadv is
Ġproph ecy
Ġc elt
Ġturn table
Ġminimal ist
Ġf ian
Ġp ts
Ġpublic ations
Ġpo ker
Ġro oted
Ġly nn
Ġinfl ate
Ġrom p
Ġsec uring
Ġadap ted
Ġexc uses
l ists
Ġunlike able
Ġeth ical
Ġp est
Ġdelay ed
Ġbish op
Ġnu ances
Ġcomb ining
Ġmart y
Ġbe au
Ġpro ving
Ġessential s
oc ol
Ġf f
ud ed
Ġtrim med
Ġrefill s
Ġsubsequ ently
Ġn im
Ġfe es
ag in
Ġwash able
Ġconclud ed
Ġexplo sive
Ġjen na
ib al
Ġprom oting
Ġtestim ony
u per
ett a
Ġtr acy
Ġimpro per
t te
Ġill usion
Ġmis placed
Ġfl are
Ġfl ames
Ġchrist ine
Ġimper ial
Ġcurs or
Ġb apt
Ġknock off
Ġlatch es
Ġax e
Ġrel ieved
Ġsuper vis
Ġincorpor ated
Ġe u
Ġsurre al
Ġm ul
Ġro be
Ġgen etic
Ġg s
im a
Ġres erve
b ath
Ġv cr
Ġfr ayed
Ġquestion ed
Ġdead line
3 00
h ell
us ions
Ġdep icts
h r
m al
Ġmir anda
Ġadminist r
ed ed
Ġfull er
Ġpant ry
Ġgather ed
Ġevangel ical
zz ie
Ġmargin al
Ġnap ole
Ġsix teen
Ġlo af
Ġsyd ney
ter y
Ġdirect ing
Ġremind ing
Ġen rich
Ġinf r
Ġshad y
cend ing
Ġdisplay ing
Ġtar ot
Ġden nis
Ġg ide
Ġsyn ch
Ġmetaph ors
Ġreplace able
Ġsal mon
Ġdon na
Ġmaid en
Ġo le
Ġbar rier
Ġcompens ated
Ġb acter
Ġins ists
Ġmort al
Ġadvant ages
Ġi phones
Ġout lines
Ġper ceived
gin s
Ġmot o
Ġdun can
Ġinterrupt ed
Ġl ave
Ġswe ating
Ġsubtit le
Ġpound ing
Ġh id
Ġfid dle
Ġht ml
ort s
Ġcoun cil
Ġsol ves
Ġspig en
Ġhair s
Ġtransfer ring
Ġphenomen on
Ġprot ocol
Ġtutor ials
Ġfir ing
Ġspec ified
che ck
Ġuncom mon
Ġupbr inging
Ġor de
Ġtr u
Ġdu et
Ġperse ver
Ġnarr atives
Ġmosqu ito
r oof
Ġcl utch
in it
Ġbr ag
Ġloos er
Ġox y
Ġexerc ising
Ġrow ling
Ġescap ing
ad vant
Ġequ ipped
los ing
Ġstrateg ic
as per
Ġinstall ments
Ġdisres pect
Ġne op
Ġgr a
Ġun imp
Ġvis or
Ġcolon ial
Ġvit am
Ġarrest ed
Ġn ib
Ġunex plain
Ġnostal gic
Ġhard y
Ġreluct antly
Ġsho cks
Ġmor als
ed ding
Ġwe ary
Ġrid den
Ġvib rate
Ġclou dy
Ġallerg ic
Ġdinosaur s
Ġsmooth ie
Ġexagger ated
Ġmor ris
Ġscre ams
Ġprison er
Ġat omic
Ġsec ular
Ġrul er
f inder
Ġpower ing
Ġbeep s
Ġbb c
Ġunforget table
Ġachieve ment
Ġweight ed
Ġtomato es
Ġatmos pher
Ġmass es
Ġcomed ic
Ġf ert
Ġpar ody
Ġbal ancing
Ġswing ing
Ġinsane ly
Ġlud ic
om in
Ġtri mming
Ġfin icky
Ġser vers
Ġindian a
Ġcel est
ball s
eng u
Ġproduct ive
arn ation
Ġplan ets
Ġdrain ing
Ġargu ably
Ġpatric ia
Ġst ing
Ġkitchen aid
Ġfu rious
Ġbin oc
Ġwar p
Ġesc al
Ġre per
Ġdis advant
Ġd ale
Ġg f
Ġfe athers
Ġener getic
Ġso othing
Ġgu ided
Ġbox ing
u ates
Ġdig ress
Ġcharacter izations
Ġres ume
Ġdiv ide
Ġfrank en
Ġwill ow
Ġpe ers
Ġnotor ious
b on
gr am
Ġgall ery
Ġprivile ge
Ġsc ans
Ġdel ves
Ġsupple ments
Ġjealous y
Ġsu pr
Ġfeist y
Ġfe b
Ġcro p
ol i
Ġdec ipher
Ġstock ing
Ġfil ed
Ġmel anie
Ġemphas ize
Ġislam ic
Ġper tain
no stic
Ġwhim s
Ġdang ling
Ġp ipes
w arn
ip ers
Ġpe cul
Ġperform er
land er
set t
Ġdecre ase
Ġpunch es
Ġloo sing
Ġirrit ation
Ġoverhe ating
Ġstun ned
Ġspark le
Ġidi ots
Ġsubpl ot
Ġsil ky
Ġsweep ing
l ast
Ġforget ting
Ġsw ings
Ġshar per
Ġl t
Ġl ent
Ġover kill
an es
app ers
Ġsn apping
ut er
Ġwitness es
Ġstack ed
Ġs ier
Ġm um
Ġculpr it
Ġcho pped
Ġkn uck
Ġcount ed
respons ive
nd o
Ġdown stairs
Ġsoft en
Ġband w
Ġutens ils
arch y
Ġzipp ed
Ġcamp us
i w
Ġsoph ia
Ġstro be
t ail
w ide
em aker
wr itten
Ġsh in
Ġrub bish
Ġbefore hand
me al
Ġo at
ro po
Ġg avin
Ġcl aw
Ġsl icer
Ġexp ir
Ġbi king
Ġthread ing
Ġinno vation
Ġcal orie
mark s
r ice
Ġr al
Ġcelebr ate
Ġc isco
Ġd well
oun ge
Ġhorizont ally
Ġrect angular
Ġprompt ed
Ġincomp at
Ġpack ets
Ġboard ing
Ġd ill
Ġwind ed
Ġbull ets
Ġdiagn osis
en ch
Ġre he
Ġconflict ed
ot ics
it able
Ġdoom ed
Ġsod ium
Ġschedul ed
f iction
est y
Ġdish onest
Ġblank ets
Ġh ou
Ġobtain ed
Ġthir teen
Ġj ury
Ġletter ing
Ġen lar
Ġit chy
Ġmaintain s
Ġimpl ied
Ġgre ens
Ġp engu
Ġe lf
Ġintegr ation
Ġhardship s
Ġsp or
Ġgide on
an as
Ġsens ational
Ġinsist ed
Ġal erts
Ġer aser
Ġpamph let
er ies
Ġin advert
Ġaesth etics
Ġintersp ersed
Ġsu ms
Ġcons ume
Ġsk ate
Ġslee per
Ġmer chant
Ġasp iring
Ġear phone
at ly
Ġflashlight s
Ġsqu ish
Ġreh ash
Ġdri ps
Ġcondens ed
ber y
Ġre na
Ġpa ige
Ġwound s
Ġmar rying
Ġsan ity
log ist
Ġdisconnect s
Ġdesper ation
Ġj ared
Ġvar ies
Ġbroad er
f s
Ġfro g
Ġclich ed
ro g
cl oth
Ġnu is
Ġis ab
Ġorgan izing
Ġf rig
Ġinter st
Ġb m
Ġpurs uing
Ġdoctr ine
Ġcapt ive
Ġout ward
Ġanti que
in arily
Ġuse able
Ġdress er
Ġdiss ip
Ġch i
Ġroll ers
Ġbrut ally
Ġbe friend
Ġdre aming
Ġpts d
Ġconv ention
Ġwilling ness
Ġx mas
Ġdisc ol
Ġexam ined
Ġdemocr acy
Ġo cd
Ġkind erg
Ġvenge ance
Ġcon ne
Ġmean ings
Ġgw en
Ġanat omy
Ġneop rene
Ġcruel ty
Ġa y
Ġbudd ies
Ġtrans fers
Ġdev our
Ġmold s
Ġtestim on
Ġmerchand ise
Ġt ues
Ġthr one
Ġmagn ifying
Ġcommunic ations
Ġastound ing
Ġun responsive
Ġsquir rel
ke ep
Ġvol ts
Ġstress ed
Ġsi ri
Ġwo e
Ġeth nic
Ġhor ns
Ġcondens ation
ress ive
Ġax is
Ġco b
Ġmid way
Ġstrand ed
Ġw imp
Ġd ign
Ġli bro
Ġpale o
Ġy awn
Ġfle et
Ġgeo graphy
Ġintertw ined
Ġevent ual
Ġgrind s
Ġpal est
Ġf izz
Ġnorm an
ien na
Ġpsych opath
Ġmembers hip
Ġtro y
Ġric her
Ġab ra
Ġense mble
ke eper
Ġco ven
Ġsp ike
Ġstr ide
Ġbat hing
e nder
Ġad ject
ch air
qu er
Ġcho ir
Ġhuge ly
as ers
Ġcar ib
Ġach e
Ġloos ened
Ġviewpoint s
Ġri vers
Ġre wards
Ġst ems
Ġbrook e
Ġc ust
Ġmark ing
Ġdry wall
Ġult r
l it
Ġ 4
Ġcompos ite
Ġisa ac
Ġsh a
Ġbet ty
un ning
un ken
Ġcl are
Ġsword s
Ġne arest
Ġcan al
Ġun pro
Ġrecogn izing
Ġrestock ing
ad el
Ġtom tom
Ġsatur ated
Ġg ou
Ġinvent ive
Ġsun set
Ġexcerpt s
Ġpyth on
Ġbe ard
Ġnot ification
Ġspec ulation
Ġward robe
Ġsh atter
Ġposs ession
Ġdun ge
el p
Ġswe aring
Ġprem ier
Ġmel an
Ġec st
ud ing
Ġnut shell
Ġdil ig
it ated
Ġfire place
Ġsav annah
Ġsc ars
Ġmur ray
Ġcom o
Ġw iping
Ġillustr ates
Ġs ire
Ġdivid ers
Ġye lling
Ġread just
Ġintegr al
Ġp t
Ġk u
Ġom itted
Ġchamp ions
Ġsa ppy
Ġparan oid
Ġweld ed
Ġlift s
Ġacqu aint
Ġse ars
Ġmess enger
Ġfian c
Ġ xt
Ġfr agr
Ġun sett
Ġcl as
Ġmarri ages
Ġperform ers
Ġstand out
Ġreh ab
Ġfind er
may be
t wo
Ġim itation
Ġr ises
Ġbr oth
Ġmind ful
Ġport ability
Ġanten nas
ic ia
Ġover shad
Ġplun ge
k ia
Ġfasc ination
b ows
Ġskill et
Ġde e
Ġclo cks
Ġexhaust ed
Ġfig ur
Ġv ain
Ġstr ands
Ġprogram mer
Ġuseful ness
Ġvign ettes
Ġcarp ets
Ġover coming
Ġrout ines
Ġintim acy
Ġclo g
Ġfr amed
Ġawaken ing
Ġbi ker
Ġarch er
Ġslipp er
un a
Ġmon um
m ail
Ġmo z
Ġle ah
Ġfind ings
Ġboo ster
Ġmay hem
Ġfid dling
Ġcell phone
ach ed
Ġoblig ation
Ġo o
Ġimplement ation
Ġbond s
Ġscot ch
Ġrust y
Ġconstit ution
Ġlad en
Ġn t
Ġdr ains
Ġt ummy
Ġbr ushing
Ġdece it
m aker
Ġn c
Ġball oon
Ġinvent ory
Ġis o
Ġliqu ids
Ġcar bs
Ġdi pl
Ġunfold ing
Ġandre ws
Ġcelt ic
Ġcommercial s
Ġsand ing
Ġgloss ed
Ġratch et
Ġdis par
Ġspecif ics
Ġe ct
Ġcl ash
Ġbl amed
fl ies
Ġre x
Ġde lus
Ġmot ive
dri ve
Ġti pped
Ġsat in
1 1
Ġn ub
Ġper cus
Ġhe ming
Ġfil ament
ov ich
Ġdig s
Ġantagon ist
Ġben j
Ġas ics
Ġj aws
if ty
ke ys
ist ine
h irt
Ġd aring
Ġlif ep
Ġwh ack
Ġcor ps
Ġden im
Ġkay ak
Ġexped ition
Ġh orm
uct ive
Ġcance lled
Ġome ga
Ġout ing
Ġawa it
Ġref ined
Ġposs essed
Ġbur r
Ġautob io
Ġexpir ation
Ġg in
Ġcommunic ating
fall s
Ġt ate
Ġs aints
id ences
Ġsort a
Ġlu ci
Ġstrain er
Ġab ras
Ġmanip ulation
st ring
ang led
ave ment
ent ive
Ġnugg ets
Ġf ighters
Ġgri ppy
Ġexperiment ing
Ġin just
Ġkn ack
not e
ll ect
Ġadv ances
Ġenvelo pes
Ġmult itude
Ġhal ves
Ġl aps
Ġsque ak
Ġbut ler
Ġbl adder
ess a
um ber
Ġsand y
Ġcelebr ation
Ġnuis ance
Ġden ial
Ġboot le
Ġmad onna
Ġsympath ize
Ġk ap
Ġbri m
Ġcounter fe
Ġkinderg art
Ġa ver
Ġye a
Ġwind ing
Ġmass age
Ġtwe aking
Ġre nders
us sy
Ġtur t
alth y
Ġl ick
Ġharm ful
Ġb ak
Ġpretend ing
Ġre usable
Ġvit amin
Ġfe ared
pl er
Ġunre solved
Ġpecul iar
Ġp vc
Ġscarlet t
c ard
Ġmo le
Ġpe er
Ġkind ly
Ġsecret ary
Ġsier ra
Ġdum ps
Ġatl antic
Ġobst ruct
Ġdetach able
Ġdread ed
own ed
Ġfin er
Ġeff iciently
Ġbeep ing
Ġmisunder standing
Ġre im
Ġanth ropo
Ġam d
Ġpe ach
Ġsens ible
Ġl aced
Ġjour n
orig inal
Ġcur ric
Ġnet book
Ġapo st
Ġl is
Ġshif ted
Ġhyp oth
Ġte fl
Ġtrend s
Ġsketch y
Ġimprob able
Ġspor ad
Ġlifep roof
Ġp agan
Ġdo dge
Ġsp ont
Ġback side
Ġins uff
Ġfil ing
Ġmuslim s
Ġper t
b ound
Ġqual ify
Ġclou ds
Ġwater col
Ġcoll aboration
Ġsent imental
Ġwireless ly
Ġillumin ate
Ġconqu er
Ġrese mble
Ġtur bot
Ġunim agin
at hing
Ġmedic ation
Ġtefl on
Ġparent al
Ġst ats
Ġcor rection
Ġaggrav ating
Ġappet ite
Ġv r
Ġsong writer
Ġtempt ation
Ġre asse
Ġpain ter
Ġterror ism
in um
Ġsumm ers
Ġsubscri be
Ġtw itter
2 00
Ġt iff
Ġfan atic
Ġtruth ful
Ġend lessly
Ġcri pp
Ġorde al
Ġwh ip
Ġdar win
ch ain
Ġdan i
Ġt um
Ġmh z
Ġd ix
Ġstorm s
Ġle aps
Ġcirc ulation
Ġbrew ed
Ġhud son
Ġplot line
he arted
Ġsubstant ially
Ġdo a
Ġnich e
Ġhmm m
ll ation
Ġsur pass
Ġps p
Ġco gn
Ġturbot ax
Ġdis ple
Ġcall ie
Ġsaw yer
Ġcre ed
Ġfac il
Ġrand y
Ġreward ed
Ġpaper work
Ġbatt ling
Ġeconom ical
Ġbudd ing
Ġcarp enter
Ġsociet ies
Ġbo ats
m ont
Ġcorn well
Ġrent ing
Ġcourage ous
Ġheming way
s po
Ġtuck er
al on
Ġtar p
Ġhe ath
Ġz agg
Ġstraight en
Ġar oma
Ġbe verage
Ġper mission
Ġple th
Ġadul thood
Ġco al
Ġca ffe
Ġno kia
Ġdur ation
Ġde co
Ġdom inated
Ġfib ers
absolute ly
Ġoper ator
n est
Ġover st
Ġmail box
Ġu b
Ġmon roe
Ġins anity
Ġmillion aire
Ġversat ility
Ġon kyo
Ġupset ting
m ination
Ġclar a
Ġlou ise
Ġludic rous
Ġmail ing
Ġle igh
Ġev ocative
warn ed
m ind
Ġinto ler
Ġchrist ina
Ġstation ary
Ġsh annon
Ġsw ipe
el in
Ġdam ned
Ġrid dled
Ġjud y
Ġdism ay
Ġdrac ula
Ġed gy
Ġfairy t
Ġsl iced
Ġnick n
it ations
Ġdisc losing
Ġweekend s
Ġsuspic ion
ic c
Ġse as
Ġgra vel
Ġgr ays
Ġpsych e
Ġarch ae
ar ine
Ġj f
Ġover r
Ġpier ce
Ġhot els
Ġtour s
Ġparticip ate
Ġroom ba
Ġto ll
Ġovers ight
Ġpleth ora
Ġt ing
m r
Ġon ion
id o
Ġappe als
se ct
Ġvar ieties
Ġles lie
Ġcandid ate
Ġbur g
Ġdispos al
Ġres il
Ġt ame
ic orn
Ġlaw yers
Ġbrist les
ich ton
Ġsou lf
Ġeduc ate
5 00
Ġtri via
Ġb f
Ġp ak
ound ed
Ġstud ios
Ġcance ling
Ġcorpor ation
Ġine pt
Ġrel ied
Ġmcc ar
Ġsevent h
Ġoptim al
Ġd reme
ot al
Ġlo ft
og en
Ġment ality
Ġn an
Ġpo inter
Ġsharp ness
Ġval ves
Ġhar ley
ll ings
Ġnew born
ci ating
Ġsam uel
Ġas hes
Ġde em
Ġter rified
Ġacqu ire
Ġjed i
ro it
Ġfatig ue
Ġjourn als
Ġmo ss
Ġcrow ded
Ġth irst
Ġqu int
Ġdi abet
Ġspo ons
a ic
se a
Ġsett ling
Ġnew com
ily n
Ġdp i
Ġreson ate
Ġted dy
Ġsnark y
and o
Ġseper ate
m ic
Ġdo d
Ġconfig ured
Ġchrome book
Ġc ited
Ġdis sol
Ġhar p
Ġcorrupt ed
Ġannoying ly
Ġaim ing
Ġbeth any
Ġre gg
Ġfl ed
Ġrestr ict
Ġartifact s
Ġint ensive
Ġleak age
Ġminim ize
Ġclo gs
Ġdev ote
Ġsand ra
ap able
lic ting
Ġdev oid
Ġlabel ing
t ight
al i
Ġa ly
Ġen gin
Ġblog s
Ġspr int
Ġnik ki
Ġpupp ies
Ġbu ffer
the arted
Ġbehav iour
Ġplat inum
Ġn ifty
Ġimpro v
Ġcup cakes
Ġpast s
Ġprof iles
Ġdefe ated
Ġgr as
Ġexcess ively
Ġsh ir
Ġsho ve
ative ly
Ġlong time
Ġins ider
Ġloud ly
Ġcars on
ery l
act ive
Ġmad die
Ġabra ham
Ġinv ites
b olt
Ġvent ilation
Ġstre aks
Ġattack ing
Ġlect ures
Ġgreg ory
Ġsp ur
Ġrele vance
Ġir res
Ġbarn es
Ġortho dox
ch em
Ġtime x
Ġremo del
Ġtough er
Ġnavig ating
Ġfore ns
Ġineff ective
Ġconf eder
Ġkiss es
j u
Ġfin s
Ġa ired
Ġch ipping
Ġhou ston
Ġcomp ul
Ġsi xt
Ġl inger
Ġo st
ion a
Ġnumber ed
Ġest r
Ġcapital ism
Ġindul gent
Ġcondes cending
Ġral ph
Ġoverl ap
Ġancest ors
Ġfound ing
Ġmet ers
Ġtre v
Ġbloss om
erg ed
Ġag atha
Ġprison ers
Ġobsess ive
Ġcoup on
re et
Ġle is
Ġlo ath
Ġprem ature
Ġreco llect
ood le
Ġaut umn
reh ensible
Ġax le
Ġab road
Ġspecial ty
Ġb ren
Ġfl ips
Ġmet ric
Ġdestro ys
Ġeff iciency
Ġk b
ak able
Ġpsych ologist
Ġstu art
Ġsh edding
Ġsens ation
Ġweigh ing
Ġmisunder stood
Ġenlighten ment
Ġha ired
Ġte al
Ġmor rison
h d
v ention
Ġy uck
Ġqu ibble
av ings
Ġunder grad
Ġproject ion
Ġvisual ize
Ġabd uct
Ġd ane
Ġpil ots
Ġlend s
Ġretract able
Ġnot ices
Ġhard back
Ġele anor
in stall
Ġexplo sion
Ġoutput s
Ġupload ed
Ġpl otted
Ġsharp ened
iss ance
Ġmar ines
mm et
Ġb unk
Ġexam s
Ġdep os
le te
g or
Ġdefin ing
Ġi cing
Ġun natural
Ġcontract or
Ġduplic ate
p ite
Ġreal ise
Ġrad iator
Ġjess ie
Ġre think
Ġrel ay
Ġsink s
Ġsimpl ified
Ġbell e
o ple
Ġn anny
Ġl est
Ġpr istine
Ġstart up
aph r
Ġcinem atic
er vice
Ġdepend able
Ġmanip ulative
Ġabort ion
Ġetern ity
Ġbenj amin
Ġbuild up
Ġrh et
Ġsquee zed
Ġsur ve
Ġem bell
Ġinv ention
Ġrelent less
Ġo val
Ġmanip ulated
Ġcompos itions
Ġd ak
Ġad rian
Ġt ut
Ġper il
Ġrespond s
Ġadvoc ate
Ġrul ed
Ġcomplet ion
Ġc ud
Ġsh eds
Ġtr istan
Ġfr ances
Ġdes irable
Ġcho pping
Ġavoid s
Ġhe ap
Ġsupervis or
Ġh ong
ld a
Ġadd itions
Ġfore shad
Ġjoy stick
Ġcarr ots
Ġsixt ies
Ġsent iment
he a
Ġrhy mes
Ġr ushing
Ġwe eds
Ġser vant
Ġshow case
Ġcour ts
Ġfamiliar ity
Ġemer ge
Ġdreme l
Ġe vie
Ġdub ious
Ġrecyc ling
Ġbut ch
Ġprost it
Ġdr unken
Ġpump kin
Ġelect ro
Ġinflu ential
Ġcl a
Ġcollect ive
Ġt arn
Ġbrid ges
Ġtess a
Ġhalog en
Ġb erg
Ġse mester
Ġus ability
Ġbl izz
Ġworks hop
Ġpos ters
Ġcre ases
Ġbr ides
Ġbor r
Ġdi aries
Ġimag ining
Ġprev al
Ġaffect ing
Ġopt ics
Ġcro cs
Ġspread ing
Ġdian e
Ġspook y
Ġsu g
Ġen gr
Ġbrad ley
Ġu l
des pite
Ġvin ce
Ġligh thearted
Ġfil thy
Ġexam ining
m ar
Ġsh aving
Ġal ar
Ġunt r
Ġidi otic
Ġlo an
Ġunse en
m ade
ll en
Ġre wind
Ġconcer ts
Ġafter thought
Ġme yer
Ġveter ans
Ġtestimon ials
Ġtues day
h onest
Ġvis ibility
Ġvi able
Ġwild life
Ġir is
Ġtex ting
e on
Ġsan ct
Ġad ri
Ġdark est
Ġreflect ing
Ġinher ited
Ġdoub led
Ġjoy ce
Ġindepend ently
Ġl ance
Ġdiscour age
et to
Ġsw ay
Ġfine ly
Ġadm in
Ġcance llation
Ġinex per
Ġt iring
im ented
ath om
Ġrevers ed
be aring
Ġtid y
Ġengin es
d un
iv a
Ġpay ment
Ġwolf e
Ġsl icing
Ġsp un
Ġopen ly
id ia
Ġdre amed
um er
Ġclean up
Ġgrie ving
Ġtar a
Ġinaccur acies
Ġlifel ong
Ġo ps
Ġlim iting
asm ine
Ġtw ee
Ġcho ke
Ġbatch es
Ġw ol
Ġl ounge
Ġadvert ises
Ġcold er
Ġcompl ications
Ġconfirm ation
Ġatmospher ic
Ġfr ay
Ġsu v
Ġcomplain s
Ġhar vey
Ġsav ior
Ġph arm
Ġmonot on
Ġunl ucky
Ġacc laim
ru ciating
Ġdevast ated
Ġstand by
Ġbeh alf
Ġfa e
Ġmor ph
Ġexplo its
Ġcontempl ating
so ver
Ġkn ots
Ġclear ing
Ġprim itive
i ating
Ġdec als
Ġside k
Ġmanage able
Ġconduct or
Ġun ch
Ġsynth es
Ġreg ulator
Ġheart beat
Ġoccur ring
Ġplo dding
per ed
Ġot t
Ġj ugg
Ġun icorn
Ġimp r
Ġob sole
Ġdum ping
Ġchar ms
Ġcr aving
Ġimp rison
ho ven
Ġop aque
Ġsummar ize
Ġvo ila
Ġexc ruciating
Ġdistrib utor
Ġinterchange able
Ġfunction ed
g ian
Ġfo ss
Ġappre h
Ġmattress es
Ġste als
Ġste aming
Ġju icy
Ġprescri ption
Ġmill enn
Ġsull ivan
p in
Ġsco oter
o ise
Ġwar med
olog ies
Ġt ide
Ġph d
read ing
Ġdu vet
Ġhood ie
Ġmccar thy
Ġo we
Ġv ene
ail able
Ġvirt ue
Ġm ick
Ġharv ard
Ġkitt ens
Ġlow es
Ġfore warned
Ġarab ic
Ġre loc
Ġcompet itor
Ġarc ade
Ġsh ook
Ġm aze
Ġgri pes
Ġdraw string
Ġgl ide
Ġca fe
Ġplun ger
Ġcoco a
Ġj av
Ġsmud ges
Ġpron unci
Ġplag ued
Ġg ib
Ġche ers
Ġcollaps ed
ah l
Ġremo ves
Ġc fr
om atic
Ġfo cal
Ġpa j
Ġstrain ed
Ġinhabit ants
ad or
Ġcr ichton
Ġsy nt
Ġdim inished
Ġbother ing
Ġdiscover ies
Ġpo king
Ġcoun se
Ġmich a
Ġbeet hoven
rain ed
Ġwrink le
Ġl enn
Ġle verage
Ġtrans cri
Ġlifes pan
Ġarm strong
Ġleis ure
Ġd arts
ph ia
Ġsad ie
Ġconclud es
Ġlave nder
Ġt art
Ġser ge
Ġsad den
Ġph on
Ġsub miss
Ġexplo ded
Ġli zzie
o vers
Ġshe lls
Ġrespect able
Ġunco vered
Ġrebell ion
Ġkey chain
Ġannoun ced
Ġimpat ient
Ġex h
f ess
Ġdisconnect ing
Ġmetho do
Ġth orn
Ġhis s
Ġdet erg
Ġmasc ul
om on
Ġsh aky
Ġobsole te
Ġh ik
Ġfast est
be e
Ġque ens
Ġpo ppy
ah n
o pe
Ġcad dy
Ġclean ly
Ġod ys
Ġthreat ens
Ġtil ted
Ġti pping
Ġsp ind
Ġtang le
Ġpig s
Ġillum ination
Ġt x
Ġa uction
Ġtrans action
Ġcord ed
Ġdistrib uted
Ġrecur ring
Ġk ansas
rid ged
Ġscare s
Ġref uge
Ġpract iced
Ġsarc asm
Ġauthor ities
Ġall ison
Ġjf k
Ġw ann
Ġret ention
Ġjour neys
Ġpil g
Ġhomosex ual
Ġbut cher
Ġdetract s
Ġtheore tical
it is
Ġcl aud
Ġgrad uated
Ġsib ling
Ġred o
Ġmold ing
Ġliber als
Ġmess es
Ġall y
Ġimag inary
Ġmis gu
Ġnone xist
Ġlibr aries
Ġcontrovers y
Ġarg ues
Ġpal ace
Ġsle nder
Ġskill fully
Ġit al
Ġu i
Ġpsych ed
Ġretain ing
Ġproport ions
Ġcountry side
board s
Ġprom oted
Ġvacuum s
Ġprose c
Ġmoz art
Ġpro hib
Ġun wr
Ġgr ades
Ġreinstall ed
Ġo ops
Ġr otten
Ġpre acher
Ġmap le
Ġr ation
Ġbare foot
Ġiv ory
Ġthie ves
ipp i
Ġca ul
Ġgate way
Ġrewr ite
Ġinf inity
Ġspat ula
j oy
id al
Ġclean ers
Ġachie ving
Ġmort ar
Ġnix on
Ġimplement ed
on er
Ġz ones
Ġbur ke
am as
Ġentr ance
Ġch urn
Ġt ester
br idge
e ly
Ġr ays
Ġsl ugg
pret ty
Ġplum ber
fl ower
Ġskept ic
Ġdess ert
n an
Ġawa ited
ed ing
is ive
Ġfr aming
Ġconv ent
Ġpresident ial
Ġcr ushing
Ġcreat ors
Ġconduct ed
Ġback bone
Ġsk irts
Ġcritic ize
Ġstereoty pe
Ġd io
as her
Ġmonoton ous
Ġcr ab
Ġhum ili
Ġsubject ed
Ġcre ase
Ġspecial ist
Ġa pe
Ġf os
Ġri bs
Ġunexplain ed
Ġth y
Ġb ount
Ġex em
Ġtitan ium
Ġheadlight s
ank ing
Ġcurs ed
Ġfr ying
Ġmaster ing
Ġjo ey
or ph
Ġdo yle
Ġnum b
v ol
wh o
Ġup ward
Ġdowns ides
Ġins ign
Ġcol um
Ġimpr int
Ġelect ed
bre aking
Ġaccommo d
Ġwall ace
ob ic
Ġc ed
Ġshot gun
Ġrecy cle
Ġdomin ic
Ġharv est
p ress
Ġfab rics
Ġcorpor ations
Ġcol ony
ane y
Ġbab ys
Ġt at
Ġoff line
Ġphil adel
Ġbang ing
er k
Ġche ws
Ġly dia
Ġsacrific es
Ġpl ated
Ġtechno logical
Ġmargin ally
w arning
Ġch ili
Ġout lined
Ġfre ight
Ġbacter ia
Ġover bearing
Ġhead l
Ġlate x
Ġpean uts
ent ing
Ġrec ons
Ġunav ailable
Ġtrev or
m ine
Ġre att
Ġpan cakes
am atic
Ġste amp
Ġsl ant
Ġrep osition
Ġretros pect
Ġsink ing
Ġintern ally
Ġlon el
Ġfunn iest
Ġsplend id
Ġf ades
Ġg our
Ġre ps
Ġbo bb
ud er
Ġsquee zing
in form
Ġsty l
Ġseason ing
Ġsoci opath
Ġrechar ging
Ġmeand ering
Ġbis sell
Ġnaught y
s im
Ġcomfort ing
Ġclum ps
Ġb ash
or ah
Ġmus hy
Ġfur y
Ġdom ain
r ates
Ġcr afting
Ġjam ming
Ġcurric ulum
Ġcomp ost
Ġchick ens
Ġkrist en
Ġnew bie
Ġhind sight
Ġextend ing
Ġmi ami
Ġmar ries
Ġforg iven
Ġe ater
Ġup wards
Ġspr ays
Ġjosh ua
honest ly
Ġh ots
Ġwho dun
Ġfeed s
Ġannoun ce
Ġre ese
Ġarg uing
Ġoat meal
l est
Ġcomprom ised
Ġdeduct ed
Ġto ned
ract ive
Ġdialog ues
Ġimpact ed
Ġrasp berry
Ġplumb ing
Ġenv y
Ġry der
s ay
Ġind is
Ġwhims ical
Ġcar ly
Ġsoulf ul
Ġfl uct
Ġphil ipp
Ġoverpower ing
Ġm un
Ġres erved
Ġpurpose ly
Ġp bs
Ġsc ifi
Ġrun ners
Ġnv idia
Ġbuild er
Ġspecial ized
Ġwy att
Ġsteamp unk
Ġbrace lets
f ig
Ġcr umbs
Ġadm ission
Ġj asmine
Ġfeed ers
Ġhy ped
Ġstir ring
Ġsp and
Ġexp ands
f un
Ġprop ane
Ġair line
Ġrout es
Ġow l
Ġsal ty
Ġs avor
qu ed
app le
Ġcarib bean
Ġo re
Ġuns afe
Ġactiv ation
Ġsl apped
Ġhighlight ing
ill ion
Ġde me
Ġgl enn
Ġexam ines
Ġphiladel phia
Ġbas hing
Ġd ir
Ġe instein
col m
Ġlex i
Ġdol by
Ġsign ing
Ġgo sh
Ġinstinct s
Ġhoney well
Ġm tv
or al
Ġst air
Ġperson nel
Ġpen ned
Ġreg ime
Ġma e
Ġbe w
Ġprivile ged
o ke
Ġbill ed
Ġmini ature
uri ous
Ġrey nold
Ġencycloped ia
Ġl ung
Ġr apt
Ġper o
Ġel igible
Ġblo ggers
Ġinsuff icient
b ies
Ġcomm uter
step s
Ġgar rett
Ġrich ly
Ġcram med
Ġply wood
Ġconfront ed
Ġb isc
Ġpe ppers
de veloped
Ġhaz el
Ġall ev
Ġworld wide
Ġtim ber
Ġexem pl
Ġv augh
Ġpros per
Ġps u
Ġflash y
Ġphys ician
Ġdischar ge
Ġartic ulate
Ġwe aken
Ġunre ason
Ġcub a
ot ive
Ġdam on
p asses
ur able
Ġj ol
Ġstart ling
Ġgi ants
Ġd ensity
Ġrem orse
Ġacknowled g
Ġh ust
Ġhappen ings
Ġsub d
Ġconcent rated
Ġbun n
Ġbuddh ism
Ġpercus sion
Ġcr umb
Ġday time
Ġpoke mon
Ġf ren
Ġch unky
qu est
Ġshar on
Ġharmon ies
Ġbig gie
Ġadmir ation
m any
Ġelev ated
Ġdecor ating
Ġunhe althy
Ġrequest s
Ġro x
Ġri b
Ġenlight ened
Ġke ller
Ġgig s
Ġmisunderstand ings
Ġtroublesho ot
Ġinsect s
Ġen ch
Ġso cially
Ġtransport ation
Ġty ped
Ġstress ful
Ġair flow
Ġsubur ban
Ġexp oses
Ġpear ls
Ġrecons ider
Ġmar ble
Ġunus ually
Ġrequest ing
Ġst ance
Ġab ys
Ġcut ters
Ġportra its
Ġinadvert ently
Ġthri lls
Ġprof its
Ġjournal ism
Ġsalv age
Ġdo ve
Ġho ff
Ġpass able
o ch
Ġ 1
Ġb ast
Ġh unk
Ġel ves
Ġdist inction
Ġpat iently
Ġcross es
Ġvac c
Ġweb cam
Ġsport ing
Ġlonel iness
Ġover rated
Ġmar ilyn
Ġswims uit
Ġwor m
Ġpros pective
Ġtwe ak
Ġtreas ures
c ott
v entional
Ġin ward
Ġcorrespond ing
Ġintense ly
Ġmudd led
Ġfilter ing
Ġspin ner
Ġgur u
Ġfragr ance
p id
it i
Ġblack mail
ches ter
Ġsoooo o
Ġli mb
Ġar nold
Ġreg ions
Ġdeser ving
Ġdia lect
Ġkle in
Ġinfuri ating
Ġblizz ard
Ġch ime
Ġhost age
Ġmisgu ided
p it
p erson
Ġc ue
it ol
Ġha unt
Ġtr ac
Ġhom age
Ġandre a
Ġl ull
Ġscrap ing
Ġshr unk
Ġbra ided
Ġthe o
7 00
b n
Ġpro x
Ġfr aying
es ar
Ġexcell ence
Ġa pert
Ġm k
Ġcas ually
Ġmysterious ly
Ġscrub bing
t aste
Ġn ig
Ġathe ist
Ġh oop
Ġunder world
Ġfound er
Ġisrael i
Ġho pper
Ġtim ed
Ġbenef ited
Ġfasten ers
Ġsno b
Ġend uring
Ġsw apping
Ġregard ed
Ġsubt ract
Ġpres erv
Ġdecided ly
Ġgard ens
Ġty r
Ġclar ke
Ġc ull
Ġstraw berry
Ġa ur
is ation
Ġl ingu
Ġher b
os h
Ġst umble
Ġsh ay
Ġam mo
Ġgood will
igh th
Ġmarket place
Ġjac o
Ġp avement
Ġco aching
Ġed gar
Ġform ulas
Ġelev ator
s ky
Ġappro val
in ters
Ġimmigrant s
Ġsp ikes
Ġbus hing
Ġsynt ax
Ġh ann
Ġz ane
Ġproph et
Ġentreprene ur
at ivity
Ġsou ps
Ġmal colm
Ġdise ases
Ġi q
le ast
Ġelectric ian
Ġsucc inct
Ġreserv ation
Ġincompet ent
7 0
Ġmiss iss
Ġge omet
Ġconsequ ence
Ġto pp
Ġdr ank
Ġins pected
Ġrecogn izable
Ġcame o
Ġaid en
Ġsen ator
Ġout comes
Ġloc als
Ġpet ers
Ġacknowled ged
Ġnot ifications
Ġhard ened
Ġimpe cc
Ġg age
Ġr ains
Ġstri pping
Ġcream y
Ġnur t
Ġmuff in
elp ful
Ġpro g
Ġem erson
Ġevol ving
Ġthere of
Ġstumb les
Ġrena issance
Ġr t
Ġpro ver
Ġunder developed
Ġparticip ants
o cc
Ġsto cks
Ġunc ons
Ġalf red
id y
lo re
Ġinter vention
Ġhobb it
Ġat least
Ġco y
Ġpen al
Ġtravel ers
Ġrest oration
Ġfront ier
eng ers
Ġstruct ural
Ġgam bling
Ġattrib ute
Ġne ur
Ġrid ers
Ġell e
Ġreco vered
Ġhoriz on
p apers
Ġp ars
Ġdie go
Ġlo dge
Ġtact ile
Ġbinoc ulars
Ġslugg ish
Ġprofess ors
on ly
Ġlimit ation
Ġven ice
Ġinstit ution
Ġmistaken ly
Ġbl air
Ġbl aming
Ġreb ate
Ġpreval ent
in ently
Ġli ver
ifi ers
Ġmass ac
Ġsab bath
Ġcha otic
Ġdor othy
Ġab bey
Ġno d
Ġsn iff
Ġcounterfe it
Ġch el
Ġus ps
Ġtrack ed
Ġsuccess es
Ġfrank ie
ning s
Ġdirection al
6 00
Ġones elf
Ġbrew er
Ġpatri ot
Ġspand ex
Ġcharacter istic
Ġres ets
Ġbrow se
Ġcan yon
Ġda unting
Ġdan a
Ġab c
Ġpaper weight
Ġmis al
Ġfrustr ations
Ġrecei vers
Ġrere ading
Ġepo xy
Ġe erie
ad ers
Ġapp rent
Ġuncon ventional
Ġcl aws
Ġapp alled
Ġwo bbles
Ġaggrav ation
Ġwork place
Ġsc ree
Ġconv iction
Ġdiv ider
Ġmas ks
Ġflag s
Ġpersist ent
Ġd azz
ien ced
Ġuncomfort ably
Ġcors et
Ġlibr arian
organ ized
Ġprov ocative
Ġsub par
Ġstre ak
Ġgr ating
Ġf et
Ġex or
Ġcar o
ott o
Ġear liest
Ġstr ang
um ps
Ġbu gged
Ġboth ersome
Ġnote books
Ġaccomplish ments
Ġaffir m
w a
Ġho ver
our se
Ġfound ed
Ġdri lls
Ġt m
Ġh ound
ab ling
Ġbask ets
Ġr aving
ens en
Ġbit ters
Ġtour ing
Ġroo se
Ġdiabet es
Ġfa iries
Ġillum inating
f old
Ġop rah
Ġmorning s
Ġtim ers
Ġunh elpful
Ġdemocr atic
oid s
Ġobser ve
Ġkl ips
Ġatlant a
Ġinexplic ably
Ġbo oth
Ġmaster fully
Ġsh attering
Ġco ding
Ġmin ing
Ġdeterg ent
Ġconf ron
Ġcho ps
mo d
Ġwend y
Ġdrown ing
f ting
Ġh ig
Ġext rem
Ġharle quin
Ġconfront ation
Ġan onymous
Ġth urs
po ff
r an
Ġaut istic
Ġsa uc
iet h
Ġirres ist
Ġmississ ippi
Ġass orted
Ġclas ps
mo on
Ġmid west
Ġtoothp aste
ail ed
Ġmicha els
Ġste lla
Ġsymbol ism
Ġdiff user
Ġhav oc
Ġof t
Ġal k
Ġgirlfriend s
b ut
Ġi ced
Ġall ie
Ġtrack pad
Ġfire wall
Ġtransl ator
Ġrepet itious
Ġreynold s
Ġroast ed
ll ie
as is
Ġdefin es
Ġequ ations
Ġcre ations
Ġgig antic
Ġbuddh ist
Ġlam inate
9 0
Ġlot ion
lud ed
Ġconf licting
Ġinstit utions
Ġdign ity
Ġcaffe ine
Ġshe en
Ġcur vy
Ġhoo ps
Ġmodel ing
Ġsweet heart
Ġcushion ed
s or
Ġdeliber ate
Ġpengu in
ut ional
Ġhon orable
Ġmargin s
Ġch im
Ġdoub les
Ġthere after
Ġmin nes
Ġhor rified
Ġr ach
Ġclass ified
Ġcounter top
Ġcircumst ance
Ġbrut ality
Ġr ar
Ġath lete
Ġto days
Ġrein c
Ġphill ip
Ġmerm aid
b as
Ġall ergy
Ġlist ings
h ots
Ġvisit ors
Ġlicens ed
Ġmisle ad
Ġcred ential
Ġrum ors
Ġcott age
Ġincom ing
Ġox o
Ġs ic
Ġk ale
Ġdi ets
Ġuncon vin
ill es
Ġri pper
Ġoppos ing
Ġcompreh ension
Ġhost ile
Ġhide ous
Ġal ge
Ġcred ited
h um
l ad
Ġper ce
Ġind ent
Ġir respons
Ġpres idents
Ġanaly ze
Ġhyp not
Ġc unning
Ġfour teen
Ġteen y
Ġroose vel
Ġoff ense
Ġass et
Ġlim p
Ġbur ton
p c
Ġpodcast s
Ġs aus
Ġbl an
Ġport ug
Ġmetall ica
am aged
p al
Ġs b
es c
Ġor g
Ġtr ance
Ġcraw ling
Ġdistr ict
Ġapp alling
Ġsurround s
Ġfinan cially
Ġbump y
Ġrail road
Ġwatt age
ifi able
Ġcrunch y
Ġarist ocr
qu et
Ġdis lo
Ġcar ab
ho le
Ġh bo
Ġunder rated
Ġbutter flies
Ġpum ped
g b
iter ate
Ġnight stand
Ġscript s
Ġnu ance
Ġclim actic
Ġboss es
Ġattrib uted
Ġj ace
so red
Ġchang er
Ġbio graphical
Ġst ern
Ġwa its
Ġcatch er
Ġexplicit ly
inite ly
Ġc ain
ri ment
Ġsl ats
Ġgree ce
Ġr ows
Ġlove craft
Ġsing ular
Ġspot ty
z illa
Ġam us
Ġhint ed
Ġphr asing
Ġfid elity
Ġco bb
Ġinstall s
Ġfing ert
Ġunique ly
Ġpublic ity
Ġdom inate
Ġfashion able
Ġpud dle
Ġj ur
Ġdiss ervice
Ġtrad er
Ġconne lly
ens er
Ġnur s
Ġlouis iana
Ġnot ified
Ġautom ated
Ġpuzz led
Ġprol ific
Ġble m
Ġmill s
Ġtor i
Ġkno cks
Ġprogram mable
en berg
Ġcor ros
Ġrhyth ms
Ġbrood ing
Ġemerg ing
f ree
Ġoccup ation
Ġso ber
Ġstr ung
Ġkath y
Ġdut ies
Ġnon fiction
Ġunatt ractive
Ġbachel or
Ġsp ies
Ġcomp iled
Ġan a
Ġby r
Ġmay or
Ġpal mer
Ġillumin ated
Ġafter taste
Ġeffort less
Ġredes ign
ion age
Ġjo gging
Ġpink y
Ġdess erts
Ġko h
Ġpunch ed
ro b
Ġbro s
Ġesp ionage
Ġrive ts
Ġco ping
ast ical
Ġcheap o
Ġmoist uri
Ġtr aces
Ġinv iting
Ġdi ag
Ġmerc ury
Ġk ens
Ġbr itt
Ġocc ult
Ġsustain ed
Ġtro pe
Ġimpul se
Ġl ena
Ġreg ain
Ġsad d
Ġmicros d
Ġbureau cr
Ġb ip
le en
Ġfresh man
Ġchurch ill
Ġklips ch
Ġst iffer
Ġcor rel
Ġund amaged
Ġbrick s
ard ly
Ġmin eral
Ġgrad uation
Ġestr anged
op ened
Ġtroub ling
Ġutil ized
Ġpal p
Ġende avor
Ġquart et
Ġlyn ch
Ġdiscard ed
Ġv ita
Ġpret t
Ġbrief s
z ers
Ġb ou
c ities
Ġtext ures
Ġr s
Ġaw fully
Ġassist ed
Ġde cks
Ġkindergart en
b uster
Ġambig uous
Ġro gers
aut hor
Ġdar ling
Ġnonexist ent
w ash
l u
Ġsew ed
Ġminnes ota
Ġch ores
Ġste vie
Ġquir k
or ters
Ġdis ast
cond ition
Ġexhib it
Ġcrafts man
Ġpresent ations
Ġn fl
Ġjum bo
Ġunpack ed
Ġm ens
Ġlog s
cl ip
Ġsig ma
Ġre id
Ġrepair ing
Ġbrad y
Ġj bl
Ġbr isk
Ġplay list
Ġdef l
be aut
ac ent
Ġun ob
Ġroutine ly
Ġnot ions
Ġrestr icted
Ġf iona
ish a
Ġsw an
Ġunb al
Ġbra very
Ġorchest ral
Ġbun gee
Ġm az
b us
Ġfl akes
Ġche ering
in ci
Ġscr amb
Ġfire f
Ġwack y
Ġwag ner
Ġdisgu ised
n ity
Ġbec u
Ġhon ored
Ġtraged ies
Ġbright est
Ġerr atic
Ġtri bes
Ġinv ite
Ġun ab
Ġoppon ents
m un
Ġbre tt
Ġinstall er
bro ken
con cept
3 2
Ġb ins
Ġm ow
Ġk enn
Ġman n
Ġblur red
Ġcelebr ities
Ġdisgu ise
Ġhand ic
Ġres in
Ġlower ing
Ġalter ing
Ġdet riment
Ġind ig
Ġmot ions
Ġouts ider
Ġcurt is
Ġwill ed
Ġj aded
Ġsyn cing
Ġunsett ling
Ġco hen
Ġbul ge
Ġamb ition
Ġodys sey
Ġear ring
Ġservice able
look s
Ġgr ape
Ġproduct ions
Ġport fol
Ġblind s
Ġpian ist
Ġlow e
Ġexch anging
w w
Ġpet erson
Ġcoinc idences
Ġbi kin
Ġequ ation
on ica
Ġme ats
Ġun ed
Ġsail or
Ġmock ing
Ġcharism atic
Ġbree zy
Ġstat ue
Ġfulfill ment
h u
Ġper plex
Ġinc apable
Ġmon ica
Ġir reg
Ġcustom ization
Ġale c
Ġsho ved
Ġide als
miss ions
Ġb ows
Ġbry an
Ġroosevel t
ach i
Ġdy n
Ġspoil ing
Ġhall way
Ġnit p
Ġm ong
Ġpre ston
act ions
Ġimp art
Ġlace y
Ġeng ages
Ġver ge
Ġmagic ian
Ġtermin als
Ġli b
or thy
Ġsp ans
Ġconcer to
im ity
Ġmet ro
Ġvolunte er
Ġcros sover
ar ians
Ġsl it
Ġtruth fully
Ġspl inter
Ġpy ram
Ġen ables
Ġquest s
t i
Ġa ub
Ġmusicians hip
Ġconce al
Ġestablish ment
Ġbaff led
Ġpronunci ation
re qu
wh ite
Ġspr out
Ġelim inating
Ġconsult ant
Ġg alley
Ġshort ened
Ġrespons ibilities
Ġche vy
Ġreg ist
Ġsold ered
Ġbount y
Ġbitters weet
Ġprod ig
Ġref using
Ġhandle bars
Ġn am
ter rible
Ġpee ve
Ġtrail ers
Ġempath ize
ush i
Ġuncertain ty
Ġtumb ler
Ġcr ane
Ġtitan ic
Ġye ll
Ġinv ict
Ġconve ys
Ġexpress ing
Ġinfect ed
Ġapert ure
Ġalge bra
Ġy u
em p
Ġmax well
Ġdefend ing
Ġbern ard
Ġan not
Ġdet roit
Ġfoot bed
Ġnut ri
Ġicon ic
Ġnapole on
ard on
Ġforget s
Ġtro pical
Ġreim bur
Ġunfor g
Ġabys mal
et ly
Ġdo gg
Ġho ot
Ġearth qu
Ġcom a
Ġwhis key
Ġmelodr amatic
Ġk ibble
Ġguide book
Ġprompt s
Ġergonom ics
Ġthurs day
Ġmus ings
Ġcur sing
Ġarch es
Ġcroch et
ar io
Ġgovern ments
Ġnons ens
Ġinherit ance
d ings
Ġident ification
Ġdisag re
Ġhul k
Ġis abel
Ġback lit
Ġsp awn
Ġgen ie
Ġcircum ference
Ġtheat ers
Ġcomm itt
Ġboun ces
el a
net h
Ġg own
Ġcin ch
Ġconvey ed
Ġfairyt ale
ter ed
ail ing
Ġcho king
Ġtrib ulations
Ġfed ex
Ġpop ulated
Ġent icing
Ġpay ed
Ġten or
Ġad ren
Ġun box
fe ld
Ġed wards
og ical
w oman
Ġam used
Ġpres et
Ġmil it
Ġfloor ing
Ġtim othy
Ġrot ates
un ts
A I
E M
Ġl ure
Ġwr ang
Ġgil bert
AI L
EM AIL
Ġf x
st ics
l ene
hip s
Ġinjust ice
Ġli ar
as ive
Ġabo ard
Ġmetaph ys
Ġmalfunction ing
Ġs g
Ġemploy er
Ġlock er
Ġcomment aries
ik i
Ġcoun ters
Ġwi per
Ġprofound ly
Ġlau rie
Ġhun ted
Ġrecon cil
Ġscuff ed
Ġcontradict ory
Ġind ucing
Ġcond o
Ġperse c
Ġdak ota
Ġluc id
Ġsand er
Ġunderst ated
Ġd uff
Ġmu y
tr usive
Ġdisli kes
Ġnurs ery
g us
Ġfall out
Ġstri ve
g ence
Ġking ston
Ġjill ian
Ġkink s
Ġext ensions
Ġblo gging
Ġaccomplish ment
Ġblat antly
Ġth ai
Ġfl ute
Ġconf ession
Ġslow ing
Ġchlor ine
fess ional
ru ps
Ġc ot
en zie
Ġon ions
Ġpred ator
Ġmont g
Ġnarr ators
Ġoppon ent
Ġunt ouch
Ġdrum ming
Ġpivot al
Ġde pt
Ġri poff
ew orthy
Ġpay off
Ġdu el
Ġbl anks
Ġod ors
Ġh icc
Ġun condition
Ġlight ed
Ġhill ary
l ord
ipp er
Ġunravel ing
Ġover board
i antly
Ġchildren s
Ġenchant ing
Ġab sol
Ġco ve
cho ly
Ġsidek ick
Ġgr in
Ġinse am
Ġd ances
nam ents
Ġmisspe lled
Ġtract or
Ġslim mer
Ġste via
Ġrich ness
Ġimpact s
Ġproport ion
t ub
Ġso pr
Ġk ai
Ġter rier
Ġbre eds
Ġswed ish
Ġy ah
Ġze pp
l ishing
Ġre appe
Ġreplac es
Ġwed nes
Ġcram ped
Ġprolong ed
gor ith
Ġnum bing
Ġstal in
Ġexplo de
Ġofficial s
Ġtout ed
Ġsl ash
Ġcar los
Ġring ing
w ave
Ġh s
Ġd w
Ġal gorith
ry n
Ġinf id
Ġmar x
Ġpropos al
Ġar bit
Ġspec ify
Ġgri lling
Ġpu rif
Ġsadden ed
Ġdisc on
Ġendorse ments
Ġfranken stein
Ġper me
Ġdol ph
Ġback ups
iss ions
Ġens ues
Ġinter vals
Ġm j
Ġwr ath
Ġcont end
Ġsevent een
j ah
Ġd h
us et
Ġun pr
Ġparad ig
Ġmaster y
Ġrot ated
Ġjon ah
Ġpat ron
Ġsurv ives
Ġen list
stand ard
ir ical
Ġoper ational
Ġmin er
Ġdisappoint s
Ġchuck le
Ġwaff les
Ġsoap y
lud es
lect ic
Ġnews papers
Ġcan e
Ġcool ed
Ġnonsens ical
Ġe books
Ġhead rest
Ġjust ification
Ġfant astical
Ġtour nament
Ġnail ed
Ġt ina
Ġbe vel
Ġman ners
Ġipad s
Ġdisgr ace
Ġfun nel
Ġtick ets
Ġcounse ling
d ly
Ġm ism
ol ics
Ġap ology
s omet
Ġwonder land
Ġp im
Ġlab s
Ġbum ping
Ġhoney moon
Ġin co
Ġnew ton
bb ie
Ġphotograph ers
ut ors
Ġbad ass
Ġthin ly
Ġfore head
Ġground breaking
Ġemp lo
rain e
Ġjo h
Ġcowork ers
Ġww i
Ġvin ci
Ġdismiss ed
Ġcat aly
Ġwhole hearted
om ery
Ġme ad
Ġbrit ney
Ġincompat ible
Ġdisast rous
Ġtick ing
Ġexhaust ive
Ġarro gance
Ġreck less
Ġd izz
Ġbr ink
Ġri o
Ġresearch er
Ġpolar ized
Ġcalib rate
is an
gr ass
Ġling ering
Ġe is
Ġdetract ed
bir ds
Ġoxy gen
Ġwill ie
Ġresemb lance
Ġdr ool
Ġatro cities
Ġsyl via
Ġdis orders
Ġillustr ator
Ġconserv atives
Ġincomp rehensible
Ġcr ick
Ġbrid get
Ġfundament als
d ain
Ġsound bar
Ġrid ges
Ġwrench es
Ġhypo cr
oo o
Ġsc ored
Ġu ber
Ġmar ian
Ġcoffe emaker
Ġt apped
Ġcl ipping
Ġperf ume
Ġnu anced
Ġproofread ing
Ġl umin
Ġbe gs
Ġcalcul us
Ġball oons
Ġrespective ly
Ġmelan choly
t or
Ġi c
ot eric
Ġmar i
Ġcontin ent
Ġhall mark
Ġfav ors
Ġredeem ed
in c
Ġin ks
Ġmid w
n on
ip h
o graph
Ġadjust s
Ġunden iable
Ġhe ed
au er
Ġbreak age
ol is
Ġsubmiss ive
Ġdiscon cer
Ġplay able
Ġside walk
Ġdi arr
Ġsepar ates
Ġlaunch ed
Ġsh awn
Ġtur k
s aw
pr ing
Ġpass engers
Ġpak istan
Ġstre ams
ih u
Ġtrue ly
Ġcray ons
Ġps c
Ġcondition ing
Ġuninstall ed
Ġderiv ative
Ġsim mons
Ġsn appy
Ġtrigg ered
Ġsuz anne
Ġmontg omery
Ġw an
Ġw ac
Ġcloth s
Ġdistur b
Ġjos ie
Ġremo ver
Ġoppos ites
Ġutil izing
Ġn ir
Ġdeb ated
ado x
Ġwiz ards
Ġvulner ability
Ġteles cope
c uts
Ġwa aa
Ġste alth
Ġembarrass ment
al an
Ġide ology
Ġcolon el
Ġspa gh
en ne
Ġcolum ns
Ġbecu ase
Ġep it
Ġra fe
Ġbath tub
g ated
Ġre use
Ġnot ches
Ġbitter ness
Ġdisappoint ments
Ġgoo gled
Ġresur rection
Ġunsuccess ful
b ased
Ġden ver
Ġencom pass
Ġsk id
Ġgrand pa
Ġade pt
Ġunbal anced
Ġh ier
Ġpar adox
Ġlif eless
Ġvan essa
Ġathlet es
sor ry
Ġth ou
Ġpart ition
Ġrev ise
Ġloos ening
Ġinvestig ative
Ġcuff s
ir y
Ġskelet on
Ġunimp ressed
Ġag on
ab out
Ġdeep est
lin er
Ġinstit ute
Ġqu its
Ġpredict ed
v ana
Ġg ull
mo b
Ġf ow
Ġr ut
Ġdi apers
Ġdub bed
Ġo mission
Ġrec ie
Ġinsp ires
Ġhomosex uality
Ġes oteric
Ġreject ion
Ġdiarr hea
Ġend urance
Ġremind ers
Ġwor ms
Ġconv icted
Ġrebo oting
il ated
Ġinc ess
Ġsoft ness
com ed
Ġschem es
Ġmin ut
pend ing
Ġtab oo
ri ers
Ġab ig
ult ure
Ġsurge on
ix ed
Ġent ity
Ġsuperb ly
Ġexhaust ing
Ġstalk ing
p ic
w arm
Ġev apor
Ġjaw bone
Ġcredential s
Ġas yl
Ġne mes
Ġfl atter
Ġps al
Ġros ie
w rit
Ġblo gger
rid ge
Ġtiss ues
Ġregist ration
Ġd ental
Ġflo ats
Ġdiss appointed
er ving
Ġsuper st
Ġsuper fl
Ġpred ic
Ġpost ure
Ġtrend y
Ġimp ly
Ġsuper market
Ġrust ing
j e
Ġacc idently
Ġsacrific ing
Ġwom ens
Ġfresh ly
Ġrab bits
Ġplatform s
m at
ab by
Ġwear able
Ġsix ty
Ġden ying
Ġbehav ed
Ġpar aphr
Ġq a
Ġsum med
re mes
Ġten nes
Ġmotiv ational
h uman
Ġle opard
Ġrome o
Ġmusc ular
Ġhyster ical
Ġh edge
Ġe ug
Ġmo ses
Ġattract s
Ġspagh etti
Ġc ries
Ġch ant
Ġkey words
Ġbright ly
Ġpert inent
Ġh ed
Ġmar red
Ġcalib rated
z heim
Ġc ree
Ġrout ing
Ġrecount s
ro y
Ġtrans actions
Ġwednes day
br ook
Ġm ast
Ġl s
Ġsh aker
Ġcon an
Ġsub way
Ġexpert ly
Ġprox imity
Ġor acle
Ġv om
Ġdiscour aged
Ġsp otted
Ġur g
Ġtiff any
Ġshap ing
Ġdisappe aring
Ġsnoo ze
Ġne al
Ġosc ill
Ġo c
Ġleft over
Ġdep icting
Ġleg ion
Ġheaven ly
et r
Ġspirit ually
Ġflick s
Ġrecon struct
Ġwhit ney
Ġm au
Ġri pp
Ġris ky
Ġa is
Ġheal ed
Ġven ue
ib i
Ġlyr ically
Ġretail ers
Ġshred ding
Ġench anted
at us
Ġc attle
Ġori ent
Ġsmell y
Ġec lectic
Ġtrump et
Ġhul u
Ġunpro fessional
p ers
Ġj vc
Ġproced ural
Ġh ires
Ġball ast
Ġritual s
Ġch ihu
Ġlar a
Ġelli ot
Ġenthusiast s
Ġg ina
Ġmall ory
Ġt ether
Ġha ph
Ġal zheim
Ġpr ow
Ġye ast
Ġincident ally
Ġw av
Ġcar amel
als a
Ġdeb orah
Ġal ab
Ġcl ad
Ġspac ers
Ġtwent ieth
Ġsizz ling
Ġinexper ienced
Ġirrespons ible
se ction
Ġif fy
Ġtr inity
Ġbelong ed
Ġperipher al
ay e
el ope
Ġdial s
Ġthri ve
Ġcolour s
o ia
Ġm ics
Ġv p
Ġmail s
Ġwe ep
Ġburn ers
Ġrecip ient
Ġw art
Ġimp ract
Ġdoor step
Ġarg ent
Ġw ic
Ġinf requ
Ġautobio graphical
Ġde eds
Ġperf or
Ġgener ously
Ġstool s
Ġchihu ah
Ġprogress ively
Ġpuzz ling
Ġtro pes
Ġrestart ed
Ġlenn on
Ġhaph az
Ġpres id
Ġt pu
us k
uct ions
ang les
Ġdelight fully
Ġobst acle
Ġn ad
el ia
Ġju icing
Ġray mond
f inally
Ġbe ams
Ġv ault
Ġgrat itude
writ ers
Ġcon verse
Ġtrash ed
Ġlind sey
Ġwholehearted ly
Ġinf user
Ġr ory
ames e
Ġingen ious
Ġjag ged
Ġruss ians
Ġk or
Ġreal ms
Ġwitch craft
Ġli lly
Ġlog ically
Ġfool s
Ġdies el
Ġtan ner
Ġsubm erged
Ġecst atic
Ġac ron
Ġprotest ant
Ġtrans pl
Ġcomplex ities
Ġchel sea
Ġhum ility
Ġremix es
Ġvig il
Ġmac s
Ġtack les
Ġstead ily
Ġfo d
Ġobject ion
Ġprop osed
Ġverb at
Ġall iance
Ġmechanism s
Ġaqu a
Ġarbit r
l ite
Ġearn est
Ġmand atory
ced es
Ġdisp ense
Ġder ived
Ġunderwhel med
b eth
Ġexch anges
Ġuncons cious
Ġsmo ked
Ġshred s
Ġse iko
Ġshort en
Ġwann abe
Ġadject ives
Ġnin et
Ġunconvin cing
er ation
Ġharr owing
m aking
Ġlandsc apes
Ġlo gged
Ġper cy
Ġinter wo
Ġsw amp
Ġpolit ician
Ġbond ed
Ġbud ge
Ġjoy s
Ġserv ants
Ġtennes see
Ġw oofer
Ġspl ur
Ġannoy s
Ġrecept acle
Ġf onts
be ware
Ġcons ulting
o is
Ġpast ed
Ġsad istic
Ġlind say
Ġinvict a
b our
Ġch is
Ġwork able
let te
Ġjew els
Ġtap est
Ġgard ner
Ġpo ets
Ġpom p
Ġnemes is
Ġsl ayer
Ġhar old
ov an
Ġoverhe at
Ġbuff y
ood oo
Ġmouth s
Ġcri m
Ġbow ie
Ġbulk ier
Ġf ussy
Ġbrand ing
Ġuns atisfact
Ġestab lishing
Ġapo lo
Ġis bn
Ġimport ed
Ġstrength en
Ġconver ting
Ġse ct
Ġbo ils
Ġhd x
Ġchand ler
Ġsm ugg
Ġide ally
Ġheart ily
olog ists
Ġgrom mets
ul u
Ġj ug
Ġbro ck
Ġformer ly
Ġanecd otal
Ġmuff ins
Ġpedest rian
l ab
Ġtap ing
Ġtor ment
Ġwol ver
Ġex e
Ġro land
e ze
Ġcar a
Ġcup cake
Ġclin ic
Ġas pir
est ruct
Ġclass mates
Ġsam pling
Ġchill s
er un
Ġachieve ments
Ġrestart ing
v ability
Ġwas tes
id as
Ġste w
Ġempt ied
Ġheadl amp
Ġto by
Ġg pu
Ġbreath less
Ġequal izer
Ġrive ted
Ġreun ited
Ġbl ames
Ġfl ake
Ġspe e
Ġplant ing
Ġpic nic
Ġpra ised
Ġat kins
Ġw ield
Ġdec lined
Ġver a
Ġquant ities
Ġsp acious
Ġsl r
Ġshort ed
Ġs ane
Ġpat rol
Ġnu vi
Ġweld ing
Ġwatercol or
Ġl itt
Ġro pes
Ġel usive
Ġtight ness
Ġmis inform
Ġgod zilla
Ġverbat im
Ġt roll
Ġheat ers
Ġrespect ful
Ġemphas izes
Ġg ist
Ġintros pective
Ġgu ine
Ġind estruct
Ġjud ged
ch i
Ġag encies
jo hn
Ġmascul ine
Ġd une
ail and
Ġequ als
Ġdisconcer ting
Ġb j
Ġch ases
Ġen am
Ġte ase
Ġtend encies
Ġcub an
Ġth ailand
co de
Ġreg ional
Ġmis fort
Ġdowngr ade
Ġtwent ies
f c
ut ton
Ġport al
Ġinvestig ations
Ġspeaker phone
Ġinex cus
Ġcont am
Ġcult iv
Ġvi king
Ġfrag ments
1 5
l iness
Ġse ating
Ġhead board
Ġgross ly
Ġpe ep
Ġcr ave
Ġbreak through
Ġhar ass
Ġbl aze
Ġgive away
Ġgir ly
Ġhandle bar
Ġle ans
Ġdisco lored
Ġboun ced
Ġmerc en
s er
Ġc rib
Ġl loy
Ġatt ain
Ġsor cer
Ġexperiment ation
Ġmage llan
Ġk ite
Ġclass ify
Ġcy cl
cl air
Ġcaps ule
Ġportfol io
the ast
Ġb anned
Ġfr inge
Ġacc us
Ġhy m
Ġasyl um
Ġf ang
Ġp ing
Ġexceed ingly
Ġdecl ar
az ed
Ġright ly
Ġut op
Ġsubtle ty
Ġele vation
sy l
Ġmanufact ures
Ġver onica
Ġfilmm akers
Ġno va
Ġwel comed
Ġratt les
Ġst are
pl icated
Ġir r
Ġwise ly
Ġmyth ical
Ġaud rey
Ġdesp icable
Ġbless ings
m ony
io logy
Ġgl uing
Ġthri ft
Ġcomm itting
Ġsky e
Ġgro cer
Ġj umbled
Ġbo ls
Ġri vals
Ġfil t
Ġende av
Ġimagin able
Ġv oodoo
xt ap
Ġbar on
Ġbread th
Ġintimid ating
Ġdup ed
Ġt umble
Ġf athom
Ġpit iful
Ġd art
Ġju xtap
Ġintroduct ions
Ġdistill ed
ub a
Ġcad ence
Ġmonolog ue
Ġu fo
Ġpoint y
Ġcorrect ions
Ġtrad ed
Ġep id
Ġroller co
Ġsh en
Ġbre ville
form ed
Ġmild ew
Ġstap ler
Ġembroider y
Ġde hydr
Ġwis cons
Ġcock tail
Ġimmers ion
n orm
Ġw als
Ġser mon
Ġlux urious
b est
Ġass urance
h al
Ġs ap
es a
Ġn ord
Ġnet ting
Ġlord s
Ġcass idy
Ġe nder
Ġsin atra
Ġabig ail
az on
Ġeight een
Ġzeal and
Ġst ash
Ġcapt ions
Ġcorros ion
Ġnir vana
Ġbuff s
Ġbog us
Ġmethodo logy
u er
Ġc res
Ġemploy ment
Ġl ense
ur ai
Ġsim pson
Ġtempl ates
Ġbad ge
Ġdoubt ful
Ġabras ive
Ġa ld
Ġp ci
Ġdisp ro
Ġwiscons in
Ġsa uces
Ġspeed y
Ġspark ly
com mend
Ġnorth west
Ġdecor ations
Ġconqu est
Ġlloy d
Ġappeal ed
Ġdiab lo
Ġunreason able
Ġrom ans
Ġund ead
Ġconduct ing
ores cent
Ġsq l
Ġsa pp
Ġdisci ples
Ġrhet oric
Ġbe ater
Ġj ules
Ġstr apped
Ġter r
Ġtw ain
Ġcool est
Ġsevent ies
Ġinterwo ven
Ġintegr ate
Ġsnag ged
Ġspee ches
w ick
lo ss
Ġbro om
Ġob ed
Ġhaw ai
Ġrestr ictions
Ġh iring
Ġmaster pieces
Ġl ump
Ġsp iders
Ġmisspe llings
Ġnarciss istic
u ish
Ġgl en
Ġtrack ball
Ġuns us
Ġpier cing
Ġst utter
Ġk ier
Ġpar ade
Ġhar ri
Ġemb ar
Ġfalse ly
Ġshield s
Ġcaric atures
Ġsharp ie
e ur
Ġn aming
Ġpe as
au x
Ġha mb
Ġflor al
Ġimpecc able
lo cks
Ġempt ying
Ġstink y
Ġworld view
Ġcolle ague
Ġgour met
Ġrob bery
Ġham ster
Ġthreat en
Ġinfr ared
Ġh ick
Ġnon stick
h ome
Ġfe ud
Ġscar red
Ġforens ic
i per
Ġc ade
Ġmagn ification
rain ts
Ġrank ing
reat ed
Ġtempt ing
Ġcere mony
Ġdanie lle
Ġvitam ins
Ġavail ability
Ġenthr alling
Ġsuperfl uous
an i
Ġafter life
Ġpot ent
Ġdesp ise
Ġchron icle
Ġassign ments
Ġcontrad ictions
Ġplastic s
Ġcath olics
Ġremed ied
Ġheart broken
Ġfre ud
Ġblo ated
Ġmid i
Ġde bbie
Ġret ri
Ġbon nie
Ġcompos ers
Ġfarm ers
Ġcounterp arts
Ġc ens
Ġcast s
Ġtick s
Ġbikin i
bs ter
ger ald
Ġneg l
Ġassass ins
Ġcowboy s
Ġwar ns
Ġsub standard
Ġexce eds
Ġbak ery
Ġimpract ical
Ġc ured
Ġalab ama
ol es
Ġdi agon
Ġkick er
Ġp all
Ġtouch y
Ġelim inates
Ġhitch cock
Ġresearch ers
Ġdoll y
Ġampl ified
Ġrollerco aster
Ġp es
Ġsan it
as i
Ġor b
Ġco dy
Ġti bet
Ġcou l
Ġprob ability
Ġcas ino
Ġsubt ly
Ġkno x
Ġkar ma
Ġkent ucky
Ġtaper ed
Ġm ered
Ġd n
Ġmo les
if es
Ġfin ances
Ġer ik
Ġexplo sions
Ġb pa
zz les
Ġgem ma
Ġrecount ing
Ġshir ley
Ġsw ir
Ġher bal
Ġman ic
Ġq id
Ġto kyo
st s
Ġhas h
Ġser en
Ġbed side
Ġrain ing
Ġden on
Ġquot ations
Ġimm une
Ġar sen
Ġfl aky
Ġsand paper
Ġ velo
co at
Ġc ec
Ġund es
Ġscor p
Ġunsatisfact ory
Ġwater y
Ġloo ses
Ġsandwich es
Ġrep ul
Ġresc ues
Ġc t
Ġexcell ently
Ġmis led
Ġarr ange
Ġflu orescent
Ġactress es
Ġb anged
Ġm ating
Ġsy mmet
Ġcert ification
Ġpo pper
Ġrec ap
Ġconf ined
und y
Ġpsych otic
Ġextraord inarily
Ġlor i
ar o
Ġaccess ing
Ġdeform ed
Ġdisc red
Ġsam urai
Ġreiss ue
Ġv ap
Ġcontrib uting
Ġun load
Ġign ition
Ġregret ted
Ġrose mary
Ġunderwhel ming
Ġspind le
Ġins ides
Ġkap lan
Ġb ert
Ġin ane
Ġrepe ll
Ġirrit ate
Ġluke warm
Ġevolution ary
c ount
Ġpov s
bu ild
Ġhott est
Ġmassac re
Ġle ar
Ġsumm aries
Ġrh in
Ġwimp y
Ġfire wire
Ġdis ability
Ġrepl ica
Ġtur qu
Ġintu ition
Ġsans a
Ġsh ure
Ġcor a
Ġdep ict
Ġcontrib utes
Ġholl and
Ġdisassemb led
Ġirreg ular
Ġn ada
Ġphys ic
Ġho pping
Ġk i
Ġcrack ers
Ġresort ed
Ġkar l
vers ion
Ġhands ets
Ġton i
Ġwashing s
Ġsprink ler
Ġastron aut
Ġbm w
xt on
li me
Ġretri ever
Ġd ans
id th
Ġring er
Ġen for
Ġbec ca
Ġdist aste
Ġbrief case
Ġramp ant
Ġdo able
Ġir ons
Ġhack ing
Ġinfinite ly
Ġinver ter
Ġflo ss
Ġken ny
Ġassoci ates
Ġbom bing
Ġturqu oise
Ġret ains
Ġconc ur
Ġbackpack s
Ġinteract ing
Ġpenn syl
Ġtink er
Ġsweats hirt
Ġrefer encing
Ġtransform ers
Ġkath leen
Ġsociet al
Ġamid st
Ġm am
ous ing
Ġview finder
Ġsacrific ed
se nd
Ġde pr
Ġcont empt
Ġsol omon
Ġbusiness man
Ġblind ly
Ġgrid dle
st ro
Ġpres ume
arr ow
p ace
p ath
Ġtra it
Ġsimpl est
f ound
Ġi ck
le in
li ers
Ġgoo gling
Ġabsorb ent
Ġmechan ically
Ġrig orous
Ġsquish y
Ġamus ement
Ġced ar
Ġmurder ing
Ġr uff
Ġcartoon ish
Ġdam ages
Ġdocument aries
Ġrecall ed
Ġas her
Ġed c
Ġexce ls
Ġcommun ism
Ġner f
Ġbandw idth
Ġstr at
Ġsab ot
Ġgovern or
fr ame
Ġdr u
Ġrob bed
Ġam nes
ol in
bo at
Ġindic ators
Ġboyfriend s
Ġrecon c
Ġsub lime
Ġmered ith
head s
Ġgeo graphic
Ġpresid ency
Ġf ries
en o
Ġbec ky
Ġgu ild
Ġhand bag
Ġcourt room
Ġbank rupt
Ġgu iding
Ġdecl ared
Ġreper to
Ġform ation
Ġinfect ion
Ġintros pect
Ġsh an
Ġsu nd
Ġjum per
Ġyouth ful
Ġze lda
Ġfoll ower
d an
it als
Ġwe bbing
Ġsch iz
qu eness
Ġantic lim
Ġwrest le
Ġc oop
Ġtrust y
Ġban anas
Ġrebo oted
il ia
Ġsm iles
Ġr ans
Ġz ack
Ġoppos ition
Ġpilg rim
Ġhoff man
Ġv ow
Ġav iation
Ġbrother hood
Ġspark ling
Ġbootle g
Ġup sc
Ġrel ieve
Ġfear ful
Ġvoy ager
Ġshow ers
Ġpain less
Ġdism al
ic ion
Ġpol ishing
Ġori g
Ġkill ings
Ġna omi
Ġpain st
Ġself ie
Ġlook out
Ġcur b
Ġmor ally
Ġcivil ian
Ġit ch
Ġe mo
pe g
Ġun ity
per fect
Ġcur ling
Ġinterp re
Ġgy psy
Ġincorpor ates
Ġdiver gent
Ġpennsyl vania
Ġcon sol
Ġel ena
Ġreconc ile
Ġrock ed
Ġintellect ually
Ġtr amp
Ġgreat s
Ġbank ing
Ġserving s
Ġconfigur ations
Ġn ero
Ġout cast
Ġlo d
Ġari a
Ġimmig ration
Ġsteven s
t im
Ġfear less
Ġdon ovan
Ġsweat ers
Ġrins ed
Ġnot eworthy
Ġcome back
Ġhus ky
Ġaccess ed
Ġrev ival
Ġcarr ot
Ġstim ulating
p ens
Ġp aren
Ġsubm arine
pect ing
Ġpainst aking
ad ium
ud ging
Ġrun away
Ġoutl aw
Ġtai wan
ed it
an th
Ġon board
Ġgh etto
Ġves sel
Ġp j
Ġfar ming
Ġdeft ly
b ott
o ly
Ġy up
Ġcol ton
Ġcampaign s
Ġclipp ers
Ġpol k
Ġzepp elin
Ġpow ell
Ġvirt ues
Ġsick ness
aur us
Ġapolog ies
Ġreperto ire
Ġan om
Ġfr onts
Ġcur ren
Ġclark s
Ġfitz gerald
k ids
ver ted
Ġdon ated
Ġacqu ainted
Ġt j
Ġover fl
Ġenc ry
Ġnick s
Ġeven ings
Ġfl ir
Ġinv itation
Ġrain ed
Ġcran ked
Ġbe a
Ġexplan atory
Ġrechar ged
Ġt ens
Ġt rench
Ġi pods
Ġsp art
Ġpos ed
Ġwin ners
Ġstress es
Ġpit falls
Ġhend rix
Ġfran co
Ġemer ges
Ġpreced ing
Ġcompr ised
Ġapp ar
Ġdef iantly
Ġger ber
Ġapp ointment
ph em
Ġinf used
Ġshri mp
Ġcontin ual
Ġsort ed
Ġcon ner
Ġsc oring
mer se
Ġtriumph s
Ġdanie ls
Ġrein forcement
Ġmature d
Ġdl c
Ġqu oting
Ġman iac
gg ling
Ġbas il
Ġgrad ers
Ġprefer ably
Ġinst al
Ġexagger ation
Ġpalest in
Ġcomp il
Ġcare y
Ġvo ic
Ġesc ort
Ġscrap ed
b id
Ġp f
Ġmac y
Ġpil ates
Ġcor al
Ġpen elope
Ġspl its
Ġrepublic ans
Ġph oe
Ġdi at
Ġanalog y
ed ia
Ġper ch
Ġreal ised
Ġfac ets
Ġflower y
Ġcounsel or
Ġdeem ed
beaut iful
i ques
o graphy
Ġa j
ver e
est on
Ġpat ent
Ġun opened
Ġmak ita
Ġtapest ry
Ġout land
Ġbre nda
Ġfast ened
Ġill ogical
hes ion
Ġcert ific
w au
Ġc us
Ġgener als
Ġben ed
Ġdan cers
Ġevo ke
Ġprom otes
Ġsnugg ly
Ġpl oy
Ġgraph s
Ġtroubles ome
Ġr ite
ick ed
Ġtab lo
Ġmel ts
Ġapprent ice
Ġch ad
Ġtri pping
Ġexpress es
Ġst agger
Ġbro dy
Ġgreen e
Ġtransl uc
d os
Ġwork around
Ġsleep y
ov a
Ġrene e
o lo
Ġb ff
Ġarch e
Ġphiloso pher
Ġcul inary
Ġcav al
Ġbever ages
Ġskew ed
Ġre ordered
Ġbond ing
Ġcliffh angers
r ane
Ġj ama
Ġgood ies
Ġfo b
Ġvers ed
Ġbund led
hor rible
Ġt c
Ġt ails
Ġtri bal
Ġsin clair
Ġcrit ically
Ġne v
Ġarch ety
Ġcul min
Ġwolver ine
Ġli ken
Ġch ir
Ġbott led
Ġgri lls
Ġcrack ling
wau kee
Ġglo ck
Ġcarpet ed
Ġforb id
c ards
Ġhom icide
install ed
ot ected
Ġgo at
Ġpsychiat rist
Ġal ison
lo se
Ġes ther
Ġstat istical
Ġmal t
Ġbull ies
Ġsaus age
Ġl ark
Ġintend s
Ġhugh es
Ġe ighth
Ġu bi
Ġrock ers
Ġtun a
Ġch en
Ġr x
os cope
Ġjud ith
Ġhug o
Ġdef ensive
po or
Ġfre der
Ġfu ji
Ġca it
Ġamazon s
Ġthere in
os ing
Ġdre ary
Ġb itten
Ġun not
Ġpurs ued
ms on
Ġpenn ies
Ġcool s
Ġincorpor ating
Ġfright ened
Ġbern ie
Ġmeticulous ly
Ġgrays on
Ġpalp able
Ġre ef
Ġbelie vability
Ġpol and
Ġjeff rey
Ġobser ver
Ġforeshad owing
Ġpl ato
Ġlight ening
ale m
Ġweld s
Ġstumb ling
Ġpractition er
Ġcl ive
Ġdefin etly
Ġsun k
Ġsuspend ed
c les
Ġgen oc
Ġmelodr ama
Ġfingert ips
Ġwh ale
Ġher bert
Ġfl ing
Ġcur led
mm m
Ġcamp y
Ġpleas ures
Ġs asha
Ġsl anted
Ġannoy ances
i ere
Ġsh un
Ġn ab
Ġpercept ions
s ad
Ġlay man
Ġco ils
Ġrep ro
Ġline up
ell ed
Ġmil waukee
i ates
Ġartic ulation
Ġscuff s
Ġcomed ies
Ġmesmer izing
Ġri ms
Ġpunch ing
Ġjab ra
Ġpl iable
Ġbl aster
Ġcomm as
Ġsqu at
Ġdeterm ining
Ġvibr ations
g irl
Ġmed al
Ġoccur rence
le ased
Ġdream y
Ġshr oud
Ġe ure
Ġem blem
Ġsand ed
Ġresol utions
Ġsnow y
Ġeve lyn
Ġgt x
k it
Ġdiffer ing
Ġfore see
Ġre ins
Ġfor ay
Ġpr ism
Ġplain ly
Ġmas quer
Ġcarri ers
Ġt ud
Ġsu ic
pt ical
Ġunf l
Ġwestern s
Ġdecre ased
Ġlibert ies
Ġle ery
Ġinqu iry
Ġrins ing
Ġalcohol ism
ise x
Ġwatch able
Ġgri pped
init ially
Ġit ching
se ls
Ġjud a
Ġdent ist
Ġin gr
ch ers
Ġcol t
Ġsn akes
Ġmer cedes
dr aw
Ġdemonstr ating
Ġhein lein
Ġadvers ity
Ġdiscol oration
Ġdim ming
Ġrot ors
Ġaven ue
iffer ent
Ġinexcus able
Ġtreat ise
Ġund e
Ġdwar f
Ġsynch ron
Ġextr aneous
Ġuni queness
Ġpronoun ce
6 4
Ġha lt
con nect
Ġcirc a
Ġover flow
ace y
Ġinc ense
Ġind uction
Ġco ff
Ġsty led
Ġve il
Ġris king
Ġdecor ate
Ġgask ets
Ġquil ting
Ġinsign ific
Ġhub s
Ġta o
Ġd ac
po ons
Ġear pieces
Ġrepresent ing
Ġfiance e
Ġchihuah ua
Ġc ate
Ġd we
it em
Ġim merse
Ġfunction ally
fill ed
Ġtransport ing
Ġth ong
Ġshame ful
Ġphenom ena
Ġm owing
Ġch ased
Ġinvest ments
Ġm amm
Ġse m
Ġdown town
Ġautom otive
Ġmcc art
Ġapr on
Ġsupr ised
Ġcind y
norm ally
Ġp ep
ag ne
Ġcr ink
ad os
Ġmy ers
Ġsm udge
Ġsuper gl
Ġinfl atable
Ġfunn ier
Ġm ik
Ġcont our
Ġmed s
Ġpaper white
Ġcart on
Ġped ometer
ga e
Ġglor ified
Ġanton io
Ġpupp et
Ġret ina
Ġcry ptic
Ġeure ka
Ġclim atic
Ġintrospect ion
Ġirresist ible
Ġalk aline
Ġre app
Ġparr ot
Ġdisadvant age
Ġalar ming
Ġdis asters
Ġwr t
Ġdrown ed
Ġirr ational
e asy
us alem
Ġflo rence
Ġreceipt s
Ġtransluc ent
Ġcor pse
Ġovershad owed
Ġcon greg
Ġanti qu
Ġber ries
Ġpersever ance
Ġrep urch
Ġrele gated
Ġinvest ors
Ġreli ance
Ġsaf ari
Ġmisal igned
Ġunsus pecting
Ġd usk
Ġk ung
Ġco bra
Ġcell o
Ġju ices
Ġtre y
Ġfurn ace
Ġbever ly
Ġc ites
Ġin line
Ġj ets
x x
Ġhay den
Ġapo llo
Ġad hd
Ġfier y
Ġfit ment
Ġstri pe
Ġarg ued
bor ne
Ġsel ves
ss a
Ġident ifies
Ġmer rell
Ġc af
Ġshipp er
aim an
Ġfoss il
Ġphoe be
Ġri ot
Ġmult ip
Ġchick s
Ġjer usalem
Ġshelter ed
Ġb ung
Ġal p
Ġacknowled ges
w ould
an u
qu ality
Ġv h
Ġman or
de f
Ġpress ures
Ġwilling ly
Ġdram as
Ġcourt ney
Ġfill ers
Ġlim bs
y les
Ġd ives
if ully
Ġmar co
Ġfore front
Ġfingern ail
Ġp on
Ġsle uth
Ġprejud ices
Ġp int
Ġbump ers
Ġgentle men
Ġpul itzer
Ġunpr otected
Ġcr ud
Ġviol a
Ġflim s
Ġlaure l
oph ren
Ġjudgment al
Ġinvo ice
s uper
Ġsire n
Ġli zzy
Ġsho pped
Ġang ie
Ġmedium s
Ġguard ians
r ations
Ġdam ien
Ġhom eland
erson al
Ġadj acent
Ġtail ored
Ġcaric ature
Ġindestruct ible
Ġar ctic
Ġstar ving
br and
Ġpin ched
Ġmob ility
Ġeliz a
Ġminut ia
Ġlo gin
Ġsub mission
Ġbar riers
rench ed
Ġscar ce
Ġcelebr ated
Ġperpet r
Ġwhich ever
Ġma ver
Ġmach ined
Ġobliv ious
Ġth ugs
Ġhealth care
Ġdrink er
hol ster
Ġfilt ration
Ġshow cases
Ġstam ps
Ġcatalog ue
Ġembo ss
ag en
ul ent
Ġbl ing
Ġpos ing
Ġnur ses
Ġmemor ize
Ġg ly
Ġor bit
Ġk ab
am er
Ġcl apt
Ġgarden er
Ġpor ce
Ġdissap ointing
Ġt ensions
Ġsw o
Ġra f
Ġsales man
Ġshow c
Ġunc ont
Ġanaly zing
Ġtent h
Ġcrank ing
Ġs ly
Ġp oof
Ġdock ed
Ġlur king
Ġt es
Ġlin en
m ount
Ġed ging
im o
Ġfa q
ac c
Ġbody guard
Ġphilosoph ers
Ġschiz ophren
Ġre arr
Ġch ol
Ġall ied
Ġgut ter
Ġcock y
Ġbestse ller
Ġjuda ism
ph ie
Ġecho es
Ġcom mod
Ġte aser
ass is
Ġbreak up
Ġprogram mers
Ġtorn ado
at ized
Ġco ke
Ġche ep
Ġdece ived
Ġcarn ival
Ġsill iness
Ġdunge on
Ġt ah
Ġor nament
iz ational
Ġir ving
Ġanaly tical
Ġcuis ine
Ġw er
Ġpres ets
Ġtattoo s
ot ions
Ġv ise
Ġrec commend
Ġhum ane
Ġass ets
Ġreflect or
Ġgas oline
Ġfrost ing
Ġed ged
Ġinstrument ation
Ġren owned
Ġcust ody
m all
er ted
id ad
Ġpro fic
Ġrenew ed
is se
st o
Ġfound ations
Ġmis ch
Ġrich ards
Ġmur ky
Ġborr owing
Ġal chem
Ġab undant
Ġbegin ing
Ġappro ve
c aster
Ġsp enser
Ġinter play
Ġsort ing
Ġparan oia
Ġoblig ated
Ġgran ite
Ġinterfer es
Ġm apping
Ġd ings
Ġsh uff
Ġbal ances
Ġcheer le
yl ie
Ġf ug
Ġbri g
Ġcoinc ident
Ġsophom ore
Ġch al
Ġv ouch
Ġno on
Ġfre eman
Ġas in
ap ing
Ġfantastic ally
Ġexpand able
Ġpour s
Ġreb els
Ġteles co
g able
Ġb p
Ġed ible
Ġrid ic
Ġaur ora
Ġthink ers
ob ia
Ġinher ently
Ġwe lf
Ġshort est
Ġdirect ory
Ġsne aker
Ġangst y
Ġn iss
az er
Ġbew ild
Ġin gest
Ġcon co
Ġdr ones
Ġwarrant ed
Ġinvest or
Ġb ax
Ġcon soles
Ġyour selves
Ġfre aks
Ġblo at
Ġfri lls
Ġporce lain
m our
Ġbl ush
oth e
Ġrecre ate
Ġm ing
Ġwill is
Ġover used
Ġunfort un
m ich
Ġsty list
Ġparadig m
om ination
Ġcham bers
Ġviv ian
Ġput ty
Ġproject ed
Ġrefreshing ly
Ġim pending
Ġcrit ters
Ġblock buster
Ġunscrew ed
Ġthunder bolt
Ġmadden ing
Ġf as
Ġcirc uits
Ġski ing
ic ut
be lls
Ġland fill
Ġexist ential
Ġsque aky
Ġh utch
th at
Ġdo ses
Ġag ony
Ġunt o
Ġhate ful
Ġmotiv ate
Ġb ury
it as
Ġbe le
Ġdele ting
Ġwelf are
Ġs alsa
Ġp its
Ġcon no
Ġtr oop
Ġcri mson
l ah
Ġli bby
Ġde ment
Ġup front
Ġover use
Ġhold en
Ġorgan izational
Ġcas ters
Ġdistract ions
Ġrefres her
Ġarm ies
Ġpaj amas
Ġdyn asty
se at
Ġtr ades
Ġsp am
Ġple x
Ġste ele
Ġban al
Ġglor ia
m or
ac ial
Ġco ded
ind ing
Ġwell ness
ol ar
Ġmet rop
Ġindust ries
Ġcontem por
Ġkat y
Ġsed uction
Ġdimin ish
Ġgr ates
Ġcons ens
Ġcho pper
Ġwid owed
Ġchew y
Ġrif les
Ġwhirl wind
Ġdeg ener
str ings
Ġtack ed
Ġcass andra
Ġdisple ased
Ġt ents
Ġeye br
Ġkoh ler
r ise
Ġpin n
Ġmurder ous
Ġcurs ory
b ard
Ġo asis
Ġco aches
ut z
Ġmor bid
Ġparam ount
Ġcogn itive
Ġbr yson
Ġje opard
Ġphotograph ic
Ġundergrad uate
Ġy um
Ġge off
Ġshoot ers
Ġgal ore
Ġpepper ed
Ġsnor ke
Ġfr oth
Ġsp aring
Ġproduct ivity
Ġrot or
Ġcosm ic
Ġscr ut
Ġguine a
Ġin o
Ġext remes
Ġyear ning
Ġrad ius
Ġoutland ish
g ard
Ġf ah
Ġin quis
Ġdis dain
Ġmag enta
Ġflo ck
Ġwand ers
d ish
Ġmar in
Ġconf essions
Ġvegg ie
Ġto pped
ig ans
ph oto
Ġchild s
Ġmar ital
Ġgrad ual
Ġgang ster
Ġlip stick
Ġb ick
Ġkeep ers
Ġbour ne
Ġb ibles
Ġk w
Ġreact ed
Ġwon ky
Ġburg undy
Ġturk ish
Ġnew man
Ġjo di
Ġtre acher
Ġpale tte
h ou
Ġb il
Ġdel ving
Ġwild e
Ġdissap ointment
Ġ ere
Ġlau nder
Ġd res
Ġun original
Ġban ner
Ġfal con
Ġcam s
Ġsch m
Ġresource ful
am y
Ġreinstall ing
b in
p ent
Ġinde c
Ġbull ied
Ġhan es
Ġflatten ed
Ġurg ency
Ġh il
Ġun appe
Ġtransl ates
Ġnot ation
Ġsp unky
Ġbre nt
Ġliter ate
Ġvirt u
per haps
Ġsk ins
Ġus s
Ġar ises
Ġfull est
Ġt et
Ġkind les
Ġdowngr aded
Ġp iping
Ġapp al
Ġwall ets
Ġneck line
Ġturt les
Ġg asp
cept ible
Ġmet als
Ġexec ute
Ġou ch
Ġpossess ive
Ġv ile
Ġstill s
Ġcontr apt
sm ith
cop ic
Ġdo orm
Ġun id
Ġdefin it
Ġtramp oline
Ġval ued
Ġstupid ly
um ing
Ġrec ieve
Ġsl ate
Ġev olves
Ġfoot steps
Ġalex is
bre vi
Ġab brevi
v ac
Ġgr aves
Ġwait ress
Ġspl atter
Ġsque aking
Ġcit rus
Ġher m
Ġfl irt
Ġlum ber
omet ers
Ġg unk
Ġg aiman
ri p
Ġstri pper
Ġeight ies
bu yer
Ġcollaps es
Ġh ull
Ġconsist ed
Ġallev iate
c ap
Ġp el
Ġno lan
Ġcorrect ing
Ġprop osition
Ġlevel ing
Ġsam my
Ġsett les
Ġhind u
at i
Ġad idas
ote ch
Ġfer r
Ġdipl om
Ġcarab iner
Ġth um
Ġte ap
Ġdesign ated
Ġmod ules
Ġalleged ly
Ġinfid elity
est ones
Ġmen ace
Ġrad iation
Ġsams on
Ġjewel er
Ġinconsist ency
Ġunz ip
Ġre jo
Ġsex ist
Ġdefe ating
Ġnic est
Ġenig matic
b ly
st en
Ġinf at
Ġhouse w
Ġaven gers
th ank
Ġjo king
ic ial
Ġmu ck
Ġspec ulative
Ġaccom od
Ġken neth
Ġher os
Ġpatt on
inter ested
Ġdistinct ly
Ġcos mo
el ing
Ġpred omin
Ġt aut
Ġc fl
Ġu g
ound s
Ġself less
he it
Ġartist ry
Ġsuspic ions
Ġde us
Ġdev on
Ġden ou
Ġrot ary
Ġscrap book
Ġdivers ion
Ġproclaim ed
Ġharri et
Ġwas t
Ġbound s
Ġeloqu ent
es es
Ġc bs
Ġus d
Ġco z
Ġno zzles
Ġlay la
Ġsummar ized
Ġc em
Ġfl int
Ġpurch asers
Ġfact ions
Ġleg ally
Ġunappe aling
v il
Ġf let
Ġthink er
Ġauth ored
Ġinf ilt
Ġresur rect
u pt
Ġ 3
Ġdifferent iate
Ġex ile
im en
Ġyet i
Ġhope lessly
Ġinno c
Ġtang ible
Ġmemor ial
Ġgarn er
Ġc app
Ġv atic
Ġpa ula
Ġpan cake
Ġphilosoph ies
Ġg im
Ġy ikes
ont o
Ġequ ality
Ġf ern
Ġfire works
v ised
Ġo oma
at on
Ġinfl ation
Ġslo pp
Ġkat rina
Ġg ulf
Ġcomment ing
Ġas ter
Ġmot if
Ġintend ing
sh ot
Ġprep oster
Ġvacuum ed
Ġwes ley
Ġfolk lore
Ġgr otes
Ġro ar
Ġz ig
Ġelli ptical
Ġkern els
ro ads
Ġchampions hip
Ġregg ae
Ġang uish
Ġspac er
Ġrehe ars
Ġcoven ant
b t
Ġn ave
co on
Ġmach ina
Ġfur ry
Ġanth em
Ġpreview s
Ġappreh ensive
Ġkens ington
Ġautom ob
Ġner dy
Ġgospe ls
Ġaub rey
Ġenam ored
us al
Ġlet hal
Ġmar ley
Ġwis er
ili ary
Ġaux iliary
Ġinsignific ant
Ġind irect
Ġstiff ness
Ġiv an
th ia
Ġde arly
Ġconvin ces
Ġcraw ford
Ġteas poon
Ġfoll ett
Ġd dr
Ġout set
Ġno s
sp ace
Ġconce aled
p resso
Ġfl am
Ġmis og
Ġbra un
Ġmaxim ize
Ġmicro phones
Ġvalid ity
Ġav i
Ġcur ls
Ġhur ried
Ġcru z
Ġdism ayed
Ġgrocer ies
Ġho key
Ġinter ven
he y
unt u
Ġroyal ty
Ġreform at
Ġf able
Ġnot icable
ant ically
Ġfin es
Ġcongrat ulations
Ġgeomet ry
a ay
Ġthr ash
Ġsm ashing
Ġele gance
Ġtoast ing
rane an
Ġuk ule
Ġbreast fe
Ġwals h
Ġcompil ations
a ven
Ġper imeter
Ġinterpret ed
Ġrobb ins
am ps
Ġmon etary
Ġred und
Ġcl aus
Ġwe aver
Ġsp here
Ġcal ming
Ġboot ed
Ġok lah
Ġl akes
Ġter esa
Ġott oman
Ġubi qu
Ġvatic an
on gh
it on
Ġtr is
Ġlum en
Ġinval id
Ġtwee zers
Ġreinc arnation
Ġram bl
Ġl ans
Ġli a
Ġcarri age
in em
Ġmotiv ating
Ġi cy
ig ious
Ġch ute
Ġdis organized
Ġunderstand ably
Ġtur bul
cl ub
Ġdeploy ed
m int
other ap
Ġsl asher
Ġaudio books
Ġatlant is
ab ble
Ġr w
am azon
Ġv ows
Ġsc ant
Ġke e
Ġsec ures
Ġcataly st
Ġbl azing
Ġmic ah
Ġbab e
Ġcy mb
Ġfol io
Ġphotograph ed
Ġolymp ic
Ġwoe fully
b read
Ġdanger ously
Ġmc donald
Ġearn s
Ġr aging
Ġal gae
Ġqu aint
Ġind ifferent
Ġimproper ly
Ġmust ard
Ġsuper star
Ġcry pt
bre ak
ort ex
ight ly
Ġsimilar ity
Ġobject ives
Ġmarsh mall
Ġvibr ating
Ġsim mer
Ġevan ovich
Ġadren aline
t ic
Ġf ats
ce l
Ġrec laim
8 00
Ġm ma
is l
Ġvan ished
Ġscrub s
Ġoklah oma
t oo
Ġtrick ed
Ġconvincing ly
Ġdeploy ment
Ġpo lly
Ġemail ing
Ġwholes ome
Ġshe ars
Ġro am
Ġdef lated
z i
Ġjo anna
Ġprec aut
Ġbudd ha
Ġrect angle
Ġcann ibal
Ġmisfort une
Ġse ctor
Ġcup board
Ġfel ix
Ġw we
Ġk al
Ġeg reg
Ġniss an
im eters
Ġout age
Ġarch ives
Ġk an
Ġdep ut
Ġens l
Ġembell ish
n els
Ġk on
Ġup holster
Ġpolic eman
Ġtail gate
Ġtint ed
Ġaf icion
Ġcl unk
Ġbre ws
Ġgri zz
ann el
Ġsquee gee
Ġwhodun it
as cript
Ġair play
Ġvi k
Ġsne aking
Ġapolog ized
p at
Ġh inder
Ġoff ices
Ġprior ities
Ġbread s
every thing
Ġaero b
Ġcur ly
Ġlag s
Ġinn ue
Ġdec lan
Ġbur gers
Ġinexplic able
Ġemphas ized
Ġdres den
Ġd ahl
Ġch assis
Ġbook mark
ach ron
at ar
Ġfl aking
vel and
Ġfre aked
Ġfle ming
Ġfreak in
Ġinfant ry
Ġabduct ed
ri ll
Ġv ale
Ġest a
Ġq t
Ġsick ening
Ġtail or
Ġjav ascript
n ia
po ken
Ġpra ises
Ġkh an
Ġmour ning
Ġadd icting
Ġsurve ill
Ġlove able
Ġrepe ater
Ġch atter
Ġthe s
ud der
Ġnegative ly
Ġweird ly
Ġden ise
Ġscar pet
Ġemerg ed
Ġparam eters
Ġf umes
Ġr app
Ġall ot
Ġle vers
Ġpurch aser
Ġcost a
Ġtoast ed
Ġsab rina
Ġprin cet
he ets
Ġquot ation
Ġd ts
Ġshe ar
ann ers
Ġuneven ly
Ġtraff icking
Ġerr one
d ale
ro lled
Ġk ry
Ġint ex
Ġey ep
Ġserge ant
Ġbet ta
Ġbark er
Ġr ita
it ory
Ġsh abby
Ġleft overs
Ġwin ston
iment ary
Ġswed en
Ġme ld
Ġout gr
Ġtong s
Ġcalcul ations
Ġunpack ing
Ġsurveill ance
Ġm n
Ġy ak
Ġind uced
Ġsense less
Ġnat ives
Ġdie hard
Ġune asy
Ġpsyched elic
Ġcurren cy
Ġshe p
Ġpar as
bur gh
Ġsh aken
Ġpark ed
Ġbern stein
Ġconvent ions
Ġcoul ter
Ġport land
Ġconcept ual
Ġempt or
Ġbrazil ian
Ġcounterp art
Ġscarpet ta
Ġe f
Ġembr acing
i qu
Ġembr aced
z u
Ġc orm
Ġl ana
ar rived
Ġdo cs
Ġex pend
ult ural
Ġcomput ing
Ġcheer ful
Ġpinn acle
ame la
Ġpull ey
Ġdigit ally
Ġkenn el
Ġh ush
Ġv enom
Ġcor rod
Ġpast ors
Ġbri en
Ġcustom izable
Ġappreci ates
Ġhawai ian
Ġo ster
Ġf ated
Ġan achron
Ġwr y
Ġins ur
Ġcam o
Ġtour ists
Ġtil ting
Ġprincet on
Ġp yle
Ġtr uman
Ġgrand kids
Ġpriest s
Ġhing ed
Ġwith draw
Ġqu asi
Ġtor o
Ġmo l
Ġpl uck
aus s
ne ck
Ġtick ed
Ġsin cer
Ġwed dings
Ġrh ino
Ġrhy ming
Ġobser ving
Ġshark s
c ube
Ġpen et
Ġcritic ized
Ġquil ts
Ġwr apper
Ġexpress ive
Ġcore y
ar u
Ġmis use
Ġjud ges
Ġapt ly
Ġt aps
Ġpl u
Ġwa h
Ġer ased
Ġoverwhelming ly
Ġker ry
Ġwhirl pool
n ip
Ġconst r
Ġdisp ute
Ġfemin ism
Ġpl ow
Ġmar a
Ġpin point
Ġsyn ced
Ġpeel er
Ġdemand ed
Ġall ig
Ġgr out
Ġsens ing
Ġfaith fully
Ġflavor ful
Ġchew er
Ġcher ish
Ġrive t
Ġexagger ating
Ġst adium
Ġredes igned
Ġl ions
Ġser rated
Ġfresh ness
ci er
Ġfar ms
Ġice land
Ġwrang ler
Ġm unch
Ġv ienna
Ġpe bble
aw esome
Ġsocial ist
Ġstain ing
Ġnash ville
Ġalzheim er
port ant
Ġi ow
Ġthe or
Ġo g
Ġc uc
Ġver bs
Ġdel ays
Ġcave ats
bu y
Ġremaster ing
Ġdis eng
Ġshock ingly
Ġther mo
Ġjoy ful
Ġdaw son
Ġk v
Ġverb ose
Ġcommitt ee
be ck
Ġworld ly
Ġste f
Ġrelax ation
Ġco x
Ġmac donald
Ġshel by
Ġut ah
as co
ib bles
Ġent angled
Ġinstruct ors
Ġviet n
Ġvene er
aw ays
Ġdism ant
clip se
Ġrambl ings
a ith
Ġpur ses
Ġpunct ure
Ġvaugh n
Ġa ura
Ġe clipse
Ġdep ictions
par able
Ġvoic em
Ġsweet ener
Ġlink ing
Ġgang s
Ġpreposter ous
Ġm ummy
Ġwe ir
Ġk rups
Ġread ability
Ġred irect
Ġprover b
Ġb ail
Ġl uster
Ġreg ulations
up dated
Ġron nie
Ġcle veland
Ġmad ly
Ġenh ances
Ġsubd ued
st age
Ġven us
Ġsnag s
ill o
Ġmin es
Ġmis concept
Ġink jet
Ġconsist ing
oc ation
Ġpossess es
Ġpell et
Ġmushroom s
Ġde ed
Ġpr ag
Ġnon stop
Ġserious ness
Ġmother hood
Ġkim ber
Ġreasse mb
Ġthe olog
Ġcr ing
Ġvietn amese
Ġpurp orted
Ġpat ty
Ġdum bed
Ġdaw kins
Ġsopr ano
in ator
Ġman ly
Ġfir mer
Ġgrad y
Ġmicros cope
Ġpass ions
Ġblink s
Ġerr ands
Ġadvoc ates
Ġexor c
u cc
Ġli la
Ġsl ouch
Ġsw orn
Ġmist y
pe ople
Ġcam bridge
Ġinv ari
Ġav ant
Ġsmart phones
Ġseal er
Ġuns ightly
Ġdemon ic
Ġtant al
c in
Ġfire arms
Ġg ta
Ġyork er
Ġfund ing
Ġlie uten
Ġconve ying
r p
Ġh ark
Ġp ont
end ing
Ġem an
Ġvic ar
Ġde ple
Ġground ing
Ġearthqu ake
Ġc ages
Ġneed y
Ġdin er
Ġf erg
Ġblack out
Ġgrotes que
ink s
Ġpr ud
Ġhigh l
Ġmccart ney
Ġjo ker
net te
un like
Ġun emp
Ġprom o
Ġdad s
Ġcorrespond ence
Ġdistr ust
Ġinst ill
Ġpe ars
Ġprom inently
Ġproud ly
ow ers
Ġcon se
Ġprob es
Ġtun ers
Ġsturd iness
Ġfundamental ist
Ġreatt ach
m ie
Ġher c
Ġover wr
Ġforward ing
Ġloving ly
Ġreform ed
Ġsurpass ed
Ġbip olar
ur als
Ġr aved
Ġcolle en
Ġtradition ally
Ġwitness ing
Ġmiraculous ly
c ets
Ġbr yn
Ġgu er
gin a
Ġjen kins
Ġst a
Ġcor p
play ed
Ġsqu ished
Ġunre l
Ġsouth west
Ġm w
Ġfr ail
Ġconst raints
Ġsme ar
Ġnic o
bre aker
Ġca esar
Ġmim ic
Ġappal ach
Ġmis ter
Ġrob otic
Ġintr usive
Ġun ful
Ġgr umpy
Ġsupp liers
Ġswe ll
Ġoccup y
Ġimprison ed
Ġg iz
Ġcor ks
Ġbri ggs
Ġunc anny
Ġske chers
Ġdeterior ated
Ġmf g
Ġremed ies
Ġpractition ers
Ġsl ime
Ġcar ving
Ġinform s
ising ly
Ġtrain ers
Ġforg ed
Ġshut down
Ġbunch ed
Ġwac om
Ġdirect v
back s
Ġinter connect
Ġtri pped
Ġmission ary
Ġlem ons
Ġser ena
Ġmess iah
Ġdiv a
Ġfacil itate
Ġharm less
Ġmedic ations
Ġey el
Ġinvestig ated
if ically
Ġdecor ated
Ġfiber glass
Ġassert ions
Ġpyram id
es cence
us c
Ġmo phie
Ġchar med
Ġdif fers
Ġce ased
Ġpil es
Ġfingern ails
Ġha h
Ġun sy
Ġear ning
Ġregister ing
Ġub untu
Ġev id
Ġmag s
Ġpool s
Ġq i
Ġpowder ed
Ġacclaim ed
Ġbened ict
Ġj p
ol itan
Ġsal ads
Ġlam inated
Ġchains aw
Ġconfeder ate
Ġfor ge
am ents
ous ed
Ġsc iences
Ġins ure
Ġra e
Ġrac er
Ġstabil ize
aby te
Ġlisten able
Ġcat nip
Ġdig its
Ġpal atable
Ġcivil ians
Ġaim s
Ġgrav y
Ġcaro lyn
Ġunemp loy
Ġl umpy
Ġre ds
Ġleg os
Ġfau cets
Ġmoon light
Ġhall uc
Ġattract ions
Ġsch w
Ġmass ach
Ġdiab etic
Ġmystic ism
t em
re x
Ġdown er
Ġref lex
Ġmid r
Ġsystem atic
Ġcyn thia
z an
Ġc p
Ġl m
Ġk am
Ġauthor itative
Ġcar hart
any one
Ġgenoc ide
Ġshort cuts
up on
Ġfert il
Ġfrig id
Ġsc ents
Ġrab bi
Ġrival ry
st ration
Ġdr m
Ġhop kins
Ġis p
Ġwh ipped
Ġneed lessly
Ġmon keys
Ġcent re
h ist
l en
Ġman son
Ġclam ping
Ġh ord
ag le
Ġll c
Ġpaus es
Ġhorm ones
Ġd itt
am ine
Ġpun ished
Ġr ookie
Ġk ylie
Ġv ader
Ġtun nels
Ġlol a
Ġhazard ous
Ġt ugging
Ġsur g
Ġspr ung
Ġweb page
Ġplant ation
Ġdegr ad
et ical
Ġoptim ism
Ġisab ella
Ġdeal ings
Ġnight ly
Ġtra itor
c ont
Ġch ero
Ġcoffe es
Ġmathem atic
Ġclutter ed
Ġsporad ically
Ġb ess
ass ing
Ġacadem ics
Ġretain ed
Ġresemb ling
Ġpersu asion
Ġs if
Ġmult im
Ġforth coming
Ġperce ive
Ġthe ses
Ġse p
retch ed
Ġsag ging
Ġadvertis ements
ay a
ention ally
to ps
Ġshel ving
Ġdu plex
ino is
Ġpomp ous
u ki
Ġw itt
Ġb inge
Ġp amela
Ġshort coming
Ġbar ley
Ġocc ass
Ġresol ving
Ġpredecess ors
Ġhypoth esis
Ġmiss ou
Ġpredict ably
Ġer as
Ġarm our
Ġcell ular
Ġtrag ically
Ġimplement ing
Ġkir by
Ġpurif ier
Ġcapt ion
Ġrefill ing
d in
Ġw its
Ġcon nie
Ġlo bby
Ġsm ug
Ġdri fting
Ġamnes ia
Ġp elic
Ġtr an
Ġexp enses
Ġadm itting
Ġciv ic
Ġpl aster
ap ed
Ġbi ases
Ġcri mp
ut t
Ġfr yer
Ġdiscour se
Ġj asper
ab it
Ġsp ade
Ġcap itol
Ġsweet en
Ġflood ed
Ġcondem n
Ġrans om
n ever
Ġhead lines
Ġpredict ions
Ġc ite
Ġcon rad
Ġpal ms
Ġprop oses
Ġag ric
Ġbl ot
Ġlab elled
Ġwhat not
Ġcr ook
Ġpublic ly
Ġprotr uding
Ġqu in
Ġchron ology
Ġscrap es
Ġrect ify
Ġexecut ives
ell o
Ġball istic
rit ical
Ġfundament ally
Ġd as
ish ly
Ġinfer no
Ġmall et
Ġrebell ious
Ġshrink ing
Ġval erie
cop y
Ġcyl ind
Ġg us
Ġburst s
iat ric
Ġg ummy
id i
Ġmad eline
Ġglitch y
Ġevo kes
Ġgrom met
ac ci
Ġstri ving
Ġinsert ion
Ġunint entionally
r ons
en h
Ġha ze
aw a
Ġland on
Ġsed uctive
Ġsatell ites
Ġagon izing
es on
Ġopt ic
Ġbreed ing
Ġchalk board
Ġevid enced
Ġfor ks
Ġshow down
hum id
Ġblue print
Ġspo kes
n c
Ġp da
Ġwhom ever
Ġminer als
Ġres idence
Ġseason al
Ġcontrast ing
Ġsprink le
Ġcharism a
s i
Ġach illes
Ġd t
Ġdisc reet
Ġdim mable
Ġreact s
Ġborder ing
Ġp k
Ġhast ily
ic ular
Ġv apor
Ġsp oof
Ġreprod uced
Ġarsen al
Ġmc g
Ġvill ian
Ġv ick
pl us
Ġrec lus
Ġkay la
Ġg ren
Ġel ise
Ġcur ry
Ġaid an
Ġelli ott
Ġscor ching
Ġbubb ling
Ġmoth s
Ġt br
Ġth res
Ġs as
Ġvis itor
Ġmc m
Ġheaven s
Ġswall owed
l ass
Ġp ag
Ġcr um
Ġrel ive
Ġsil hou
Ġow es
Ġsustain able
Ġread out
Ġsim one
Ġem ber
Ġindic ative
fo cus
Ġknuck le
Ġel mo
with standing
Ġtypo graphical
Ġuntouch ed
Ġexp ort
Ġdemon stration
Ġmanip ulating
Ġenig ma
uset ts
Ġi rene
Ġn ba
Ġde humid
Ġco asters
Ġsome place
Ġprem ises
Ġcit ations
Ġdenou ement
Ġmassach usetts
Ġf w
Ġn pr
ud a
Ġvis ibly
Ġexplo itation
Ġalt itude
Ġmack enzie
Ġdement ia
it ous
Ġscient ifically
Ġasp ire
Ġhead er
Ġfar ce
Ġrem n
ape l
Ġer nest
Ġjazz y
Ġrf id
spo iler
Ġloc ke
Ġra is
Ġbehavior al
Ġau i
Ġgest ures
o qu
Ġdemo graphic
Ġpine apple
Ġanticlim actic
Ġsus ceptible
Ġmach inations
Ġquart z
Ġnas a
Ġukule le
l um
Ġunder est
Ġpic oult
Ġgest ure
Ġteap ot
Ġpe ck
Ġens uring
Ġe e
Ġha cks
Ġdis ill
Ġdr ab
Ġmar iah
agr am
Ġgro ve
Ġvap id
Ġsc ented
Ġim aging
Ġgr un
Ġsk ating
Ġs es
Ġor naments
own ess
ol or
Ġsand ers
Ġkiss ed
Ġstabil ization
Ġmonum ental
Ġall an
Ġreject s
Ġindul ge
Ġoverc lock
Ġcrack er
arth ur
somet imes
Ġun gl
Ġmu ll
Ġpen chant
Ġcent ric
Ġsher man
Ġdegr aded
Ġsophom oric
Ġho lt
ub by
Ġmust ang
Ġson os
Ġtrust worthy
Ġfuel ed
Ġtermin ator
Ġshout ing
Ġp ike
Ġe got
Ġen amel
Ġph p
Ġlong s
Ġclock wise
Ġlantern s
Ġgroom ing
Ġad verse
Ġinfect ious
Ġstabil izer
Ġg ums
Ġscrewdri vers
cons cious
Ġuncondition al
Ġc ues
Ġdistingu ished
Ġkitt ies
Ġcraz ed
Ġgri me
Ġdemocr ats
Ġcertific ate
ou x
Ġvis cer
Ġdem ol
Ġinterview ing
Ġunravel ed
Ġpartners hip
Ġcowork er
Ġperfor ated
Ġw u
Ġfr antic
co gn
Ġdist ressed
Ġcompl iant
al g
Ġsaw s
Ġms i
Ġcru iser
Ġcath y
Ġalmond s
Ġhamb ur
Ġto ken
Ġv as
Ġgr acious
Ġinvari ably
Ġdisill usion
Ġv ag
Ġpe aks
Ġimp osed
Ġbax ter
l eness
Ġl icks
Ġte k
Ġfl ask
Ġbre v
Ġbre nd
Ġjaco bs
Ġdeput y
m c
Ġch illy
em a
Ġman go
Ġend anger
Ġbeast s
Ġclaud ia
Ġi zzy
Ġpe els
Ġfast ener
Ġsens ibility
ro red
Ġfe aring
Ġjer ks
Ġemerg encies
Ġhipp ie
Ġsham an
Ġr ants
Ġnight light
Ġtim id
Ġtwe aks
Ġbod ice
Ġwav y
Ġunw ield
Ġinco herent
Ġsnorke ling
Ġz uc
Ġsk ies
Ġep iph
ot ers
ss on
Ġmach o
Ġhun ts
Ġgrind ers
Ġbrain w
Ġoverhe ated
Ġdal ton
Ġl air
Ġwo k
Ġmatthe ws
Ġkend all
Ġd ic
Ġincre ments
Ġmeg ap
Ġbur ger
Ġzo ey
Ġconfir ms
Ġhigh lander
Ġmouse pad
Ġtaste ful
Ġcontempor aries
Ġun at
Ġmet e
Ġban jo
Ġbol ted
Ġprincess es
Ġfrost ed
Ġsh avings
Ġjo ck
Ġgen etics
Ġz im
Ġdress y
Ġboun cy
Ġairpl anes
Ġsapp hire
Ġj k
Ġk au
Ġwar ping
Ġrepack aged
Ġiow a
Ġunsy mpath
Ġfe y
ip id
ens ibly
Ġhel mets
Ġgri lled
Ġbaby lon
Ġgig gle
Ġgran ny
Ġpredic ament
en na
Ġstr uts
Ġamaz e
Ġsuper vision
g el
Ġg arr
im ated
Ġher rings
Ġram ps
Ġis le
Ġem my
Ġskim py
u ber
Ġse v
Ġpo inters
Ġhigh land
Ġyear ly
Ġform id
Ġcy nic
mich ael
Ġcut esy
Ġrich es
Ġdu ch
Ġuninsp iring
st ant
Ġhe pa
Ġlo gging
Ġapproach able
Ġshort age
Ġcertain ty
Ġfootnot e
Ġaffili ated
o cus
Ġbehav ing
Ġbear able
Ġcomple ments
Ġinsult s
Ġgene alog
Ġbrit a
Ġrebo ots
Ġhyd ration
Ġeleph ants
Ġsie ge
Ġboast s
Ġlars on
Ġchero kee
f ight
p read
Ġj em
Ġte asing
wor st
Ġju an
bl own
Ġaccompan iment
Ġyan kee
Ġbapt ist
Ġthres hold
ud i
Ġarch aic
Ġdis heart
Ġtri angles
Ġop us
Ġins ipid
Ġmood s
Ġneckl aces
Ġoblig atory
Ġwides pread
Ġtt l
Ġdegrad ation
Ġst ow
Ġcalc ulated
Ġcontrapt ion
ic ality
Ġmatter ed
Ġoh m
Ġintrig ues
Ġtact ic
Ġchamp agne
Ġr apper
Ġfr is
Ġsm itten
Ġz ips
Ġhols ters
hh h
Ġa us
Ġm ashed
Ġselect ive
Ġcrisp y
pens able
g one
or i
Ġinst ep
Ġmon te
Ġtast eless
Ġheal er
Ġsymph onies
Ġb ats
om ing
Ġnot withstanding
Ġlo ren
Ġfoot wear
Ġrul ing
Ġair ing
Ġdispens ing
Ġc ay
Ġri fe
rum s
Ġger ald
Ġouts our
Ġadher ed
Ġclapt on
Ġha ley
Ġnickn ame
Ġli ll
Ġmo sc
Ġreg istry
Ġmet ab
Ġfe as
Ġspe ars
Ġchee ks
Ġbrev ity
Ġunsympath etic
Ġb ian
Ġpr un
Ġben ny
Ġp av
Ġflo pping
Ġunre leased
Ġmc d
Ġcontract s
Ġadd ison
Ġclo gging
Ġpres erved
Ġsal on
Ġelev ate
Ġnutri ents
Ġsqu ash
Ġhen ri
Ġrud imentary
Ġad ores
Ġswe eper
Ġprefer able
Ġj ensen
Ġpur ity
Ġdetail page
Ġlaunch ing
Ġcos met
bec ause
ink y
Ġreturn able
Ġhom er
bi as
Ġmand y
Ġkara oke
Ġcuss ler
Ġacquaint ance
Ġsanct uary
c ter
Ġst oo
Ġinc ub
Ġsk ates
Ġnight time
p re
Ġre els
th ree
Ġcl ones
Ġpe a
Ġsne aky
Ġoak ley
Ġmo ons
Ġlot tery
Ġgap ing
Ġron ald
Ġspig ot
Ġst en
st art
ab elle
Ġlog os
Ġtor mented
Ġinsult ed
Ġreprod uce
Ġflir ting
Ġcar roll
Ġreg urg
ah an
Ġillustr ating
Ġsnor kel
m und
Ġplay lists
Ġgig abit
Ġunkn owing
Ġjon as
n uts
Ġpoor er
Ġhann ibal
Ġhe als
Ġinter val
und ers
Ġpu er
Ġegreg ious
Ġas ides
Ġch au
Ġco c
ren ces
Ġgener ates
Ġmegap ix
Ġc um
Ġfr other
Ġshe a
Ġwhere in
Ġwash y
od or
Ġhay es
Ġadmir al
Ġobtain ing
Ġpenal ty
or th
Ġin hib
Ġsale m
Ġfl annel
Ġid ios
Ġident ities
Ġdavid son
Ġstraw s
Ġmit ig
Ġidios yn
Ġsub conscious
Ġsupergl ue
al ds
Ġinfl amm
Ġeag les
Ġcharacter ized
Ġfree bie
Ġsit com
Ġdo pe
Ġgr ail
Ġwrong ly
ah o
Ġsens ibilities
Ġst ard
Ġrock in
Ġsuccess ion
Ġtool box
Ġ 5
Ġun play
Ġadd end
Ġlearn er
Ġplus es
Ġinterfer ing
Ġindis pensable
Ġvoicem ail
Ġtech s
Ġnev ada
Ġins om
Ġwar ms
Ġcush y
p art
Ġj ing
Ġfree way
Ġskill ful
Ġjournal ists
Ġvent ures
Ġtransform ing
Ġunimagin ative
Ġfos cam
j v
Ġt ainted
Ġy uk
urn ed
Ġri pe
Ġtrick le
fo x
Ġstack ing
Ġcaps ules
Ġvirgin ity
Ġmosquito es
Ġl ust
st ones
Ġgar ments
Ġunivers ally
im ov
Ġpo lo
Ġinter we
Ġleg isl
Ġmouth piece
Ġhesit ated
Ġfilmm aker
Ġrho des
Ġal a
Ġsu lt
Ġqu iz
Ġsupp er
Ġel bows
Ġcover t
Ġgar cia
Ġpet ro
Ġgold berg
Ġuntr ue
Ġidiosyn cr
s ons
Ġd ips
Ġroom mates
Ġdisrespect ful
Ġstyl istic
Ġunfl attering
Ġne ll
Ġv u
ar is
Ġhis sing
Ġr ally
Ġk ant
ren heit
Ġwish y
Ġexc lam
Ġbal tim
Ġdigit izer
Ġl acing
Ġal icia
Ġzuc ch
Ġunplay able
Ġel ton
cr ack
Ġunforg ivable
Ġlear nt
Ġlieuten ant
Ġformid able
u ations
Ġd aph
Ġpl ent
Ġeduc ator
Ġdelicious ly
Ġnom inated
orig inally
Ġb ard
Ġst unt
se ems
Ġradio head
Ġalex andra
Ġvari ables
Ġgle e
Ġlot r
Ġwaste ful
Ġbehav es
Ġh unch
Ġf res
Ġve ts
Ġill inois
Ġen co
Ġauto focus
Ġabandon ment
c rew
Ġp b
Ġsay ings
Ġlight en
Ġlight est
Ġexper imented
Ġmir rored
Ġchron ologically
Ġmetaphys ical
Ġabsol ut
Ġm dr
Ġgraph ically
Ġabsor ption
Ġprest igious
Ġf ave
Ġab ridged
Ġsoundtrack s
Ġvig or
Ġmidr ange
ke es
ound ing
Ġsens ory
Ġcy an
Ġarc s
Ġpertain ing
g ies
em en
Ġnes presso
Ġarbitr ary
Ġbaltim ore
Ġh f
Ġen r
Ġarch ie
str om
Ġpistol s
Ġbaff ling
Ġnag ging
Ġnewcom er
b ac
h c
Ġf ad
Ġy ada
Ġblue grass
Ġportug ues
Ġmissou ri
Ġunwield y
Ġs is
ph is
Ġlet t
Ġfront line
Ġdexter ity
Ġhig gins
Ġdissol ve
Ġg ul
Ġdigest ive
Ġresil ient
Ġconsider ations
Ġdefault s
Ġkh z
Ġunob trusive
Ġem ulate
Ġdescri pt
uff s
Ġwind er
ann i
Ġsque aker
Ġprest o
Ġunim portant
Ġpelic an
Ġn ieces
me lon
Ġlo athing
Ġact uality
Ġcarpet ing
Ġendeav ors
Ġmosc ow
Ġc ows
Ġbl ouse
Ġph ases
Ġspe ar
Ġfellow ship
Ġnephew s
Ġpremature ly
Ġmisinform ation
Ġh unky
Ġse af
Ġk ub
Ġsc op
Ġsp ades
Ġgame cube
Ġrest less
Ġspan ning
Ġresc uing
Ġneuro s
Ġsiri us
Ġwe bb
el ed
Ġtw ig
Ġun think
Ġsand erson
Ġspare s
Ġcelebr ating
or ical
Ġn ite
Ġen abling
Ġac ne
s burg
Ġsh aved
Ġachie ves
Ġdiag nostic
ak in
po st
Ġmuff ler
Ġy ank
Ġmem phis
Ġnet her
Ġaltern ates
Ġwe ls
Ġover blown
Ġach ing
Ġcomed ian
Ġnood le
Ġaccum ulated
Ġfah renheit
ed a
Ġher man
Ġcar men
Ġcoll ide
Ġnarr ating
Ġagree ing
Ġslim y
er b
ie v
Ġrec ess
ci um
Ġabsor bs
Ġobliv ion
Ġinc ase
Ġcar ved
Ġx m
Ġdam sel
Ġlat te
Ġcraz iness
Ġunder m
Ġdef lect
log ically
Ġinit i
Ġglam orous
1 4
Ġph ony
Ġinc entive
Ġword ed
Ġflash ed
Ġdeb ates
Ġlend ing
Ġdoorm at
Ġbl ed
Ġpet t
Ġfly er
Ġcand ies
Ġoverwhel m
Ġskull c
dis appointed
il ess
Ġset ups
Ġwater melon
Ġcance led
Ġcel ia
Ġchol ester
g ly
er man
st een
Ġrubber maid
Ġintimid ated
Ġdiscri mination
Ġsc our
Ġmed iter
Ġrequ is
Ġcount down
Ġskim mer
Ġdar th
stick s
Ġaddict s
Ġcomprom ising
abel ed
n it
Ġgl aze
Ġref in
Ġdownload able
Ġyellow ish
Ġunde veloped
il ers
Ġk ers
Ġjo g
Ġem i
Ġgen etically
Ġarm chair
Ġpin ching
Ġtang ents
Ġsnaps hot
Ġwhis k
Ġrag ged
Ġscr aps
Ġseal ant
Ġgle an
Ġtw ink
Ġfl ora
Ġcr ass
Ġboy d
Ġdistrib ute
Ġinclus ive
Ġlun a
Ġgl ides
Ġprep aid
Ġsupplement al
Ġrepurch ase
Ġprot oty
Ġstream lined
Ġhaw kins
Ġbreastfe eding
Ġportugues e
Ġbr aces
Ġair y
Ġdev ise
Ġfictional ized
Ġhol istic
Ġmurder ers
Ġemplo ys
av ier
Ġmon a
ub s
ne g
Ġtarget ing
Ġgimm icky
Ġl ps
Ġsh t
Ġho dge
Ġreg isters
Ġarch ive
Ġgab by
Ġrefill ed
Ġtrave logue
Ġcholester ol
Ġas imov
Ġbr ah
Ġmedio cr
Ġadmir ably
Ġpay ne
Ġevil s
Ġpres ently
Ġblast ing
Ġtender ness
Ġponder ing
Ġbunn ies
Ġepid emic
Ġc oo
Ġn j
Ġat op
Ġdis sect
Ġinc l
ho e
Ġcath ed
Ġmi ri
Ġinstrument als
Ġcatastroph ic
w right
Ġqu o
Ġast h
Ġdisintegr ated
Ġknuck les
Ġg on
Ġv lad
Ġlon er
keep ing
Ġst agn
Ġac re
Ġsun screen
Ġlos ers
Ġgill ian
Ġoverc ame
Ġfines se
h orse
Ġt ull
Ġreson ated
c ano
Ġj in
Ġent ice
Ġpleas urable
Ġvelo city
Ġrest oring
Ġthird ly
Ġplant ar
Ġwy oming
Ġp als
Ġget ty
app ings
Ġsupp ress
Ġinteract ed
Ġrow an
Ġaccompan ies
Ġovert ones
Ġsuperhero es
Ġastro logy
Ġwart ime
Ġex asper
Ġthing y
Ġjump y
Ġflush ed
Ġthe od
Ġp are
est one
Ġopen ers
Ġaud acity
Ġpupp ets
Ġfod der
Ġstack s
Ġempower ing
Ġprostit ution
def initely
Ġc iting
Ġin let
Ġem it
Ġnor se
Ġmar ion
Ġcatholic ism
Ġtink ering
or ient
Ġex pe
Ġcan ning
Ġfl own
Ġsee ker
Ġstr ut
Ġanalog ies
Ġpixel ated
Ġet ched
Ġcreative ly
Ġrecall s
Ġabsurd ity
Ġunle ashed
Ġche ats
Ġmc co
Ġdetect s
Ġmalfunction ed
Ġscoo ping
Ġrapt ure
Ġha il
Ġst out
Ġinc arnation
Ġarchitect ural
Ġch ester
Ġapp oint
Ġhel per
Ġed its
Ġmagn itude
Ġparticip ation
Ġst ig
Ġhead ings
wh eel
Ġver mont
Ġvibr ates
Ġadvis or
Ġbren nan
i ks
Ġo sw
reme ly
Ġmis fit
Ġbur rough
Ġtax i
Ġlean ed
Ġkar ate
Ġenlar ge
mob ile
Ġprob able
Ġang lo
Ġmold y
ete enth
Ġfl es
Ġwid est
Ġdisp ose
Ġcandid ates
Ġrag s
Ġrecollect ions
Ġm ilton
Ġwh ir
Ġmil o
Ġgau ges
haw k
Ġprett ier
Ġc au
Ġbreak ers
Ġens ures
Ġirre ver
Ġth a
Ġc ort
ow itz
not hing
Ġexplo ding
Ġv or
Ġfif ties
Ġacqu is
Ġstrain ing
Ġnin eteenth
Ġreel ing
Ġsincer ity
il ah
Ġother world
Ġthought fully
Ġfire arm
Ġring o
Ġsimpl ify
Ġzucch ini
mo der
Ġcr umble
Ġste aks
Ġleather man
Ġplent iful
Ġacron y
Ġconclud ing
Ġsp ouses
Ġear pl
Ġneg ativity
Ġcontrast s
Ġillumin ates
Ġcalc ulate
Ġbox ers
Ġmod ifying
Ġpar ac
Ġlay ering
Ġpi qued
Ġnause ating
Ġunwr apped
Ġun o
Ġthr ones
Ġg aze
Ġtack ling
Ġmort gage
Ġmonop oly
Ġprow ess
Ġl te
Ġr umble
Ġopp ression
Ġcaptiv ate
Ġrevol ving
Ġmediter ranean
Ġp oodle
Ġever last
Ġblue berry
Ġflu ent
Ġunbe atable
Ġw ier
ut ic
Ġr angers
Ġor gin
Ġper mit
Ġpar aly
Ġoper ative
Ġbrun o
Ġam en
Ġcl ut
Ġdet ox
ipp y
Ġvo iced
Ġfa ul
Ġfried man
Ġcoff in
g al
Ġp ere
Ġor well
Ġper l
Ġzoom ing
Ġlex mark
Ġdaph ne
Ġre aper
Ġsm iled
Ġve iled
Ġra unch
Ġconstruct ive
Ġpud ding
z one
Ġcustom ized
m ans
w ish
Ġdo h
Ġpl ural
ak a
Ġbat ting
Ġpap a
Ġmitt s
Ġlac ie
Ġwels h
e at
u i
y x
te xt
Ġwaterproof ing
Ġdarn ed
Ġdeclar ation
is ers
Ġquick books
Ġdem os
Ġrelent lessly
Ġfract ured
Ġor anges
Ġpers ian
Ġind ef
Ġdisc rete
Ġzoom ed
Ġtrav esty
Ġunid en
st ress
te k
Ġunre cogn
Ġlou ng
Ġqual ms
Ġado ptive
Ġpo ked
ien ne
Ġrestrict ive
Ġaddend um
Ġw ich
Ġinc line
Ġtrans cript
Ġhouse keeper
Ġsun rise
dis claim
Ġneur otic
Ġamaz es
Ġer ud
Ġbow ling
Ġkr is
can not
Ġjig gle
Ġaston ished
re al
Ġse mb
Ġlo is
Ġmar vin
Ġcre st
Ġoper as
sp ot
Ġreno v
Ġphilipp ines
Ġtud or
Ġproverb ial
m us
Ġtr acing
Ġsweet er
Ġcomb os
Ġbill ing
Ġeric a
Ġg ret
Ġtop ical
Ġz ion
Ġprofit able
Ġmisrepres ented
Ġd ipping
Ġref usal
m uch
Ġw ading
Ġsh re
Ġno bel
Ġtri pp
Ġjo st
Ġout going
Ġbal con
Ġhy de
ab re
Ġfl aming
Ġtri pe
Ġfre el
Ġmis l
Ġswive ls
Ġgrun ge
Ġf uses
Ġno ct
Ġun ve
Ġrec al
Ġmon ty
Ġplay ground
Ġhar b
Ġmir a
Ġdiss atisfact
Ġantagon ists
as ia
Ġunder wire
Ġcour te
Ġson ny
Ġunlock ing
Ġeld est
Ġaward ed
Ġfles hing
Ġb umbling
Ġdegr ade
Ġcripp led
Ġso ren
Ġx ml
uc ated
Ġaccomplish es
h ang
Ġsh ards
am azing
ian ces
Ġfrustr ate
Ġmc l
Ġrust ic
Ġintric acies
Ġvolunte ers
Ġle gged
Ġa uss
Ġtw itch
Ġro aring
Ġes ata
Ġbush es
Ġlaws uit
nd ale
Ġbar rett
Ġstraw berries
Ġditt o
Ġun just
thing s
Ġmp g
Ġunhe ard
t ically
Ġt ung
Ġc asc
Ġcl ump
Ġwal nut
Ġhyp n
Ġmediocr ity
Ġo missions
Ġem inem
Ġundert ones
am orph
Ġmus ter
Ġsymb olic
Ġastron omy
Ġferg us
Ġpl ung
ol as
Ġcorrect ness
Ġopinion ated
Ġcontrad icts
Ġfred die
Ġadministr ator
Ġdix ie
disclaim er
Ġp v
Ġdef y
Ġcal cium
Ġo min
Ġn udge
Ġgr ater
Ġfo ggy
Ġhand ing
Ġair soft
Ġmult if
Ġdizz y
Ġcl erk
Ġinter sect
Ġref rain
Ġuns upp
Ġblur bs
Ġham per
Ġsparing ly
Ġthe e
Ġwe aved
Ġint imately
Ġpe ac
ass ic
ls en
Ġcivil izations
Ġdomin ance
Ġnathan iel
Ġunco vers
Ġs ienna
Ġre pt
th ouse
Ġtable cloth
Ġcommun icated
Ġintellig ently
Ġreh ashing
Ġrevers ible
Ġisab elle
Ġreimbur se
Ġsh ank
Ġprim al
Ġdetect ing
Ġpig eon
Ġorphan ed
Ġv ind
Ġsp anking
arch ing
Ġvo ip
Ġdep rec
Ġouts iders
Ġmck in
Ġingen uity
Ġf dr
Ġpr ai
Ġslap stick
Ġgrac ie
Ġenvision ed
Ġviscer al
Ġo zzy
Ġscr aper
Ġdin ners
Ġmaver ick
Ġs ard
cur rent
Ġspider man
Ġgle aned
Ġmonolog ues
Ġsp iel
Ġviol ently
Ġos x
Ġrevol ve
Ġree ves
Ġhistor ia
Ġle ary
Ġri ft
Ġdri bble
Ġadv ancing
Ġpurp orts
Ġstock ings
Ġextr av
Ġbid et
Ġc ss
Ġrec ourse
ens itive
Ġpast el
Ġmod ular
Ġbeach es
Ġumbre llas
t ably
Ġr j
Ġbro ch
Ġsmooth ed
Ġwal es
Ġcatastroph e
Ġcompul sive
Ġskeptic ism
Ġscree ching
Ġrepl icate
Ġve g
Ġmach in
Ġtwe aked
Ġdevast ation
Ġfry e
Ġscro lls
Ġdescend ants
Ġupholster y
Ġl ava
Ġmen acing
Ġspy der
Ġeloqu ently
Ġw th
Ġrec liner
Ġvac ations
Ġdiet ary
Ġq ur
Ġdealers hip
Ġnb c
Ġth irt
er ning
Ġpe ice
Ġdisc erning
Ġdel ved
Ġcow ard
Ġorphan age
Ġj d
Ġspin ach
id ian
ore x
Ġper u
Ġslo an
is cher
Ġgu ise
Ġprov iders
Ġbull dog
b ug
Ġmich el
Ġbuck ets
Ġrep ent
Ġmed itations
Ġbrown ing
ino x
Ġbind ers
Ġcaution ary
Ġost ensibly
ic ating
Ġcop ious
Ġwall paper
Ġuns pe
Ġiron ed
Ġneighborhood s
Ġdisc lose
Ġlat ency
Ġrack et
Ġbelong ing
f ant
Ġa ph
Ġp ies
Ġk ur
Ġbus ter
Ġallig ator
Ġt ul
Ġh ugs
Ġk ool
Ġalex and
Ġspark ed
Ġbefriend s
c as
l ay
Ġfut ures
Ġlifest yles
Ġexhib its
Ġmo en
Ġco by
Ġpr atch
Ġwarrant ee
Ġpu ps
Ġmc gr
Ġhaun ts
afe e
Ġpl ains
Ġco loss
Ġbet sy
Ġbig ot
Ġcomm uting
Ġstep mother
Ġib m
k t
in et
Ġk c
Ġtime lines
ry s
Ġcr apped
Ġdev ils
Ġpersist ence
Ġgoing s
Ġdev out
Ġmah ler
Ġaly ssa
Ġsub aru
Ġconcept ion
Ġb ib
Ġf ates
Ġv ance
be am
Ġyoung sters
Ġhabit at
Ġard u
Ġepit ome
Ġre kind
Ġhand gun
Ġsh udder
am ble
Ġback seat
av age
Ġkid ney
ef fer
Ġcan oe
em on
Ġhit achi
Ġharmon ica
Ġassert ion
Ġskullc andy
Ġparac ord
Ġbatter ed
Ġent ities
Ġsqu irt
Ġdel ilah
Ġped antic
Ġlam ent
Ġsophistic ation
Ġtrave lled
Ġtransmit ters
Ġscre amed
Ġvol at
Ġfail ings
Ġghost ly
Ġdissatisfact ion
Ġri gged
ho ly
Ġsoci ology
Ġrespons iveness
Ġboo gie
Ġreco il
Ġspaces hip
Ġd ipped
Ġpill ing
Ġrh ys
Ġzip lock
Ġparticip ating
Ġalleg ory
Ġthes aurus
Ġo bey
Ġro c
Ġlitter ed
Ġblem ishes
Ġuncont roll
Ġv ortex
Ġcolon ies
Ġts a
Ġprope lled
e ys
er ves
Ġg az
Ġsho pper
Ġhome own
Ġuniform ly
Ġverb ally
Ġscand alous
Ġentreprene urs
Ġw ally
Ġwill s
Ġcolle ges
Ġdilemm as
er ting
Ġsle w
Ġfac et
Ġa ided
Ġi o
Ġf umbling
ut o
um ped
Ġman gled
av ia
Ġprem iere
Ġcontrib utors
Ġconcent rates
Ġoffs pring
Ġdispar ate
Ġx en
Ġocc ured
Ġboot y
Ġsecret ive
Ġglam our
f il
Ġn oun
Ġat v
Ġcle ars
Ġchat ting
Ġdeterior ate
Ġn aut
Ġshe lley
te enth
Ġcons ent
Ġmatch a
Ġmb a
Ġcarhart t
it os
Ġlo aned
Ġbreath es
Ġvom iting
on ation
Ġmem br
Ġinit iated
ext remely
ere al
Ġgu i
Ġapplic ator
Ġscript ed
Ġbench mark
Ġr gb
Ġcr ouch
Ġdisc rep
Ġsun flower
Ġran ked
Ġhandy man
Ġari el
Ġcontrad iction
Ġgras ping
en ters
Ġg ould
ess ential
Ġsent iments
Ġgrace ful
Ġclum ping
Ġsporad ic
d am
f u
Ġsoft ly
Ġrever b
Ġdil uted
Ġburrough s
o que
Ġcon es
Ġaw some
Ġslo ane
Ġupload ing
Ġkath ryn
Ġfisher man
Ġhomeschool ing
le ys
Ġpower point
board ing
Ġcontem plate
Ġacadem ia
Ġsplur ge
bb led
Ġdom ination
Ġprescri bed
Ġrequis ite
Ġhe ire
ich e
Ġsn ail
Ġoil ed
Ġt n
Ġa rose
Ġl d
ar in
Ġcl uster
Ġem its
Ġmaster mind
Ġtar gus
Ġoccur rences
Ġur l
Ġpersu ade
icien cies
Ġresent ment
Ġbisc uits
Ġeas el
Ġcou pons
Ġgod ly
Ġsid ney
Ġbod um
h arm
Ġcr umbling
Ġmad dy
Ġmeat y
Ġungl ued
Ġc b
th est
Ġlo ps
Ġser mons
Ġtar ant
Ġd ora
Ġdis abilities
Ġgr aft
Ġvol cano
Ġbathroom s
Ġtables poon
Ġb ic
Ġd ach
Ġfound ers
Ġver n
Ġpredict ability
Ġcor in
Ġram sey
Ġslam med
Ġabd uction
Ġcla ude
Ġgr is
Ġnew found
Ġcou pling
Ġuns ur
Ġhack er
Ġchamber lain
Ġpes ky
Ġswo llen
Ġsemb lance
Ġu ke
Ġrepl ies
Ġmole c
Ġa ve
Ġno is
Ġdim med
Ġbill ie
walk er
Ġdelus ional
Ġch eryl
Ġreg ulation
Ġcard inal
Ġled ge
Ġpuff y
Ġrar ity
es tern
ac a
Ġrefund s
Ġboot ing
Ġpretend s
Ġrick y
Ġpist on
Ġpud dles
u ard
Ġstr um
Ġsw ore
Ġplan ter
Ġadv ises
Ġrad ically
Ġmc n
Ġencounter ing
Ġrepresent atives
Ġharness es
Ġunscrew ing
w ired
Ġj unction
Ġpo pp
Ġsw ayed
Ġav atar
Ġfast ing
Ġanim ations
Ġtrad ers
Ġshrink age
Ġheire ss
w orm
Ġcom pend
Ġforward s
Ġcrit iques
Ġpra ising
Ġinspect ing
Ġpresum ed
Ġg ild
Ġal ittle
Ġgood kind
Ġmater nity
Ġfix able
Ġhook up
Ġlocal es
Ġflavor ing
Ġeld ers
Ġcollaps ing
Ġcorrod ed
b ler
en ous
Ġmac arthur
Ġmagn ifier
Ġillness es
Ġreprod uctions
Ġshim mer
Ġduch ess
Ġst aged
ul ators
Ġpr ying
Ġunder go
Ġhel m
Ġpres erving
Ġpan or
Ġrhythm ic
ap ore
Ġun wear
Ġpost al
Ġpill ars
Ġreconnect ing
Ġcourts hip
ill as
ach t
Ġsim ulation
Ġjud as
Ġdon ating
Ġproofread er
Ġshep ard
Ġhis pan
Ġauthor ization
Ġdef ies
Ġhom oph
Ġcru ising
Ġze bra
Ġreson ates
Ġexhib ited
Ġino per
Ġsten cil
moder n
qu al
Ġbo ggling
Ġhel ena
Ġind ist
Ġpar ach
Ġsumm it
Ġexplo it
Ġce ase
Ġamb itions
Ġconve ction
Ġathe ists
p en
Ġv and
Ġweight y
ru ptions
Ġinfl icted
Ġdel aney
Ġmc afee
Ġmart ian
Ġtransform s
Ġdecl are
Ġsilhou ette
Ġappend ices
Ġosw ald
a ids
Ġas per
Ġbet ting
Ġsing apore
ze ch
Ġoverl apping
Ġorph ans
Ġrepell ent
i ably
Ġj s
Ġsa ul
Ġgreen house
Ġsocial ism
Ġclar ification
Ġguard ed
od us
Ġsett lers
sad ly
Ġfo e
Ġma ud
Ġair lines
Ġloc ale
Ġcher ished
Ġspont aneous
Ġsat irical
Ġluc ifer
Ġrevis iting
bir th
rin th
Ġcem et
Ġd ain
Ġleak y
Ġpratch ett
Ġt au
Ġg ush
Ġre vert
Ġse mit
Ġsp ons
Ġinform al
Ġvill ages
Ġsettle ment
Ġimp ed
Ġposs essions
Ġlou isa
Ġbelong ings
Ġc x
Ġc aves
Ġha le
st a
Ġscreen writer
Ġmas king
Ġhatch et
Ġis t
st oy
th or
Ġapp ointed
Ġfore cast
Ġconfus es
Ġtransl ating
Ġprofic ient
Ġp ug
Ġloc ating
Ġran c
Ġlum ps
Ġveter in
Ġw ipers
Ġstar red
Ġair tight
Ġshar ply
Ġeat ers
Ġfirm ness
Ġtin iest
Ġlap se
Ġduplic ates
Ġrebuild ing
Ġlinger ie
Ġaccus ations
Ġfeas ible
Ġunwear able
l ining
Ġa ime
Ġh anna
Ġd and
ic ates
Ġinc arn
Ġsupp orter
Ġut most
Ġlops ided
Ġbass ist
Ġses ame
Ġc ache
Ġp aved
Ġtw een
Ġra ft
Ġendorse ment
Ġtransp aren
Ġw age
Ġsa udi
Ġsn ick
ann ie
Ġblind ed
Ġc aine
Ġg mo
ant on
Ġbom ber
Ġrode o
Ġbook er
Ġcl air
Ġcle avage
Ġsitu ated
Ġce il
Ġinvestig ators
Ġamb ass
Ġnin th
Ġkh aki
Ġaccum ulate
Ġobed ience
Ġab y
Ġhand writing
Ġinf omer
Ġinv aded
Ġbrown ies
Ġtarn ished
y rinth
Ġcall ers
Ġlab yrinth
Ġmagn um
Ġparticip ated
Ġconse cut
Ġmultim edia
Ġo ats
Ġd agger
Ġn ar
um i
Ġprot e
Ġz app
Ġdial ing
Ġcondition ed
Ġded uction
Ġdir k
Ġsc uba
Ġsl iders
Ġblood ed
Ġdetect ors
Ġstorm y
h orn
Ġqu ibbles
ge nder
Ġleg ible
Ġast ute
Ġartic ulated
Ġthirt ies
Ġqu ent
Ġind igo
Ġcomm its
Ġsil va
Ġsam pler
Ġgig abyte
Ġbang s
Ġselfish ness
Ġtranspl ant
Ġcompend ium
Ġcemet ery
Ġh m
Ġgi ver
ins ky
Ġsme ared
asc ar
Ġbur gl
Ġsen iors
Ġardu ino
r ance
Ġeurope ans
nd as
Ġsn oop
lt on
Ġwheel er
esc ents
Ġalp ine
Ġho gan
Ġmon ks
Ġbro ker
Ġscr unch
Ġvi ii
Ġpoison ing
Ġe w
Ġaw ry
Ġax el
Ġbush nell
Ġcommend able
Ġscramb led
Ġcourte ous
p osed
Ġw retched
Ġpl ating
Ġno ses
Ġmill ie
Ġinterf aces
Ġhend erson
Ġreass uring
Ġsl its
Ġcam i
Ġnat asha
Ġgran ola
Ġfel ine
ien e
Ġrestr aint
Ġunfor giving
Ġinfomer cial
d av
Ġmu zzle
Ġresol ves
Ġhy dr
Ġp ip
Ġmon str
Ġeduc ators
Ġpatch ed
Ġtread s
Ġlibert arian
c ale
Ġd unk
ant z
Ġreligious ly
Ġconfron ts
ou p
Ġv oting
ig r
Ġdec af
Ġwaist ed
m ax
Ġto s
Ġn ast
Ġfor rest
Ġout ta
Ġes ch
ug al
Ġsol ace
Ġsand s
Ġbedroom s
rec ently
ut ical
Ġbar oque
Ġcrack le
Ġperpet ual
Ġraunch y
Ġmin a
Ġma is
Ġinform ing
Ġcircuit ry
Ġdazz ling
Ġbalcon y
Ġm ie
Ġmis used
Ġdiscern ible
Ġtum ult
Ġceil ings
Ġl ds
Ġall oy
Ġacquaint ances
Ġheart less
Ġcre v
Ġros en
Ġsug ars
Ġu f
Ġdr ape
Ġdelight s
Ġmyth os
Ġoutl ast
Ġrobb ie
Ġcigaret tes
Ġsemin ar
Ġrepro gram
Ġtelesco ping
Ġd andy
Ġno el
Ġter ra
Ġmach ete
Ġmc s
Ġproof ing
Ġescap ades
Ġmant ra
Ġexclam ation
Ġto k
Ġto pping
Ġstri ped
Ġrand all
Ġjournal istic
Ġuned ucated
Ġt f
ar ious
Ġch ow
Ġun n
Ġreprint ed
Ġthirst y
Ġloath e
Ġmillenn ium
build ing
1 50
Ġper vas
Ġwater fall
Ġclim bed
Ġblind ing
Ġdiagn ose
Ġcoy ote
n om
Ġth s
Ġp ess
Ġst acy
Ġwho pping
ip io
Ġtas ked
Ġrecru it
Ġscoo by
e er
Ġdev otes
Ġmouth ed
Ġreasse mble
Ġc zech
ass ed
li hood
Ġstep father
Ġshower head
Ġsight ed
Ġdin o
Ġbark s
Ġpersist ed
Ġboil er
Ġdict ate
Ġprosper ity
Ġpreserv ation
Ġpersec ution
Ġw ines
ir us
ruct ure
Ġwheel chair
Ġkin sey
Ġmanif old
Ġalgorith ms
Ġshen an
i ri
Ġc ary
Ġpl atter
Ġwear er
Ġvir uses
Ġadvance ment
Ġlung s
Ġkers haw
ows ki
Ġtech ie
Ġdep artments
Ġbill ions
Ġbrown s
Ġcraft y
Ġboom er
Ġpric ier
Ġpro pped
Ġwarrant ies
Ġtele path
Ġcollaps ible
Ġestim ation
Ġthe rape
Ġmo bo
Ġco iled
Ġpower fully
Ġsqu arely
Ġmad ame
Ġdeser ted
Ġslack s
Ġnewcom ers
c ould
Ġj ot
Ġac ute
Ġsw itzer
Ġwin ch
Ġmac abre
Ġdiss ert
every one
Ġindig enous
Ġorig ami
Ġaby ss
d ar
Ġwh am
Ġex odus
Ġle ase
Ġbo one
ol ph
Ġign ite
Ġbath s
Ġvolunt ary
Ġlubric ant
Ġperplex ed
b elt
Ġover arching
Ġte h
Ġinter ject
Ġmaking s
Ġactiv ist
Ġlunch es
Ġdistaste ful
o ve
lud ing
Ġune arth
joy ed
as a
[...]
