#version: 0.2
Ġ t
Ġ i
Ġ a
Ġt h
Ġ .
Ġ w
Ġ s
Ġth e
e r
Ġ b
r e
Ġ o
i n
Ġ f
n d
Ġ c
Ġ m
o r
Ġ p
Ġ h
Ġ n
e d
Ġi t
o u
o t
Ġ l
Ġt o
Ġ d
a t
a s
in g
l l
i t
Ġa nd
e s
i s
Ġ ,
Ġ g
e n
o n
u t
a r
Ġi s
Ġn ot
Ġ re
o o
a n
Ġ [
l e
Ġi n
Ġo f
v e
i c
Ġo n
u s
t h
v er
Ġ e
Ġh a
Ġf or
o m
g h
c t
Ġw as
Ġb e
Ġth is
l y
Ġs t
Ġb ut
l d
B E
M BE
N U
MBE R
NU MBER
a d
Ġ y
k e
a l
Ġm y
a ll
o w
oo k
Ġw h
i d
t er
c h
a y
e t
r o
it h
ver y
Ġy ou
Ġw ith
Ġd o
gh t
Ġl i
m e
Ġha ve
u r
ou ld
Ġth at
Ġw e
Ġs h
Ġ !
r i
s e
a c
Ġs o
Ġa re
i on
en t
p p
Ġa s
Ġ u
Ġw or
s t
i ll
Ġc h
Ġa n
Ġ very
Ġ us
b le
Ġ j
oo d
Ġthe y
Ġs e
Ġb ook
i r
Ġm o
re at
us t
c e
e ct
ic e
Ġn e
Ġp ro
all y
Ġw ould
Ġli ke
Ġwor k
r a
Ġl o
Ġe x
Ġg ood
Ġon e
q u
Ġo r
g e
e l
Ġa m
om e
Ġg reat
on e
Ġc o
Ġt i
Ġw ill
K N
N KN
O W
U NKN
OW N
UNKN OWN
ac k
Ġ r
Ġa t
Ġa ll
Ġa l
Ġj ust
. .
Ġc om
Ġthe m
Ġre ad
Ġ. ..
u l
er e
e m
as t
i f
Ġ qu
Ġto o
Ġl ook
Ġg et
Ġo ut
Ġs u
Ġha d
Ġs i
Ġp l
Ġ k
Ġd id
Ġc an
Ġu p
er s
e a
t ed
u ct
a in
Ġm e
a ble
ou gh
th e
Ġp r
Ġth an
i e
th is
Ġf r
u n
Ġf it
Ġd e
ou ght
Ġb u
ar d
it t
or t
Ġi f
Ġwe ll
ou t
Ġmo re
Ġthe se
i l
es s
Ġf e
Ġn o
Ġh e
Ġdo es
Ġs ome
d uct
Ġ en
it y
es t
Ġs m
on g
Ġus e
th er
Ġwh at
Ġc on
u re
v ed
Ġa b
Ġpro duct
Ġwh en
Ġm a
Ġfr om
as e
Ġd is
Ġc a
Ġre ally
ar t
i g
i ve
an t
Ġsi z
Ġon ly
ur n
Ġh o
Ġti me
l o
ou nd
Ġw ere
Ġex p
in d
Ġsm all
Ġlo ve
Ġu n
c a
in e
itt le
p e
Ġre c
Ġs a
a ct
Ġl ittle
ic k
Ġh ow
Ġh as
Ġm u
f ter
it e
al ity
d er
Ġof f
Ġp re
Ġan y
at e
v en
ot h
Ġbu y
c k
or y
Ġp o
Ġt r
Ġab out
e ar
Ġo ther
Ġmu ch
Ġsiz e
Ġqu ality
is t
n ot
Ġa fter
Ġ v
Ġg o
p t
id e
us e
a g
s o
Ġe as
l i
Ġbe ca
Ġ ke
Ġa r
Ġch ar
Ġa d
er i
p le
a m
Ġbeca use
pp o
er f
ad e
Ġor der
u m
Ġn ice
Ġp ur
Ġne ed
o re
Ġbe t
Ġc ould
Ġthe re
Ġyou r
p s
Ġb ack
at ion
is h
Ġst ory
Ġo ver
Ġb o
Ġb ought
a nd
Ġre t
Ġpr ice
in k
Ġe ven
Ġs p
Ġg ot
me nd
Ġw r
Ġt w
Ġrec om
ay s
Ġrecom mend
Ġa g
t ing
Ġret urn
Ġs c
u e
Ġp h
ow n
Ġexp ect
a b
s s
p er
Ġm ade
ppo in
a ppoin
th ing
Ġbet ter
Ġf ir
if f
p l
Ġdis appoin
l or
Ġpur ch
Ġl e
Ġl ong
i ght
Ġk n
a ge
Ġw ay
Ġfir st
o y
v es
ic t
Ġp ut
t e
Ġd es
Ġp erf
e p
Ġb l
Ġst ar
Ġco lor
f ort
Ġh i
v ie
Ġst ill
Ġc ase
Ġsh e
Ġm at
Ġy ear
Ġe very
Ġm on
Ġd iff
Ġ ri
Ġcan not
Ġwe ar
ic h
t y
Ġeas y
ac e
Ġt a
k s
Ġm an
Ġw at
Ġal so
Ġb ig
A D
B AD
Ġwork s
Ġb y
Ġsh o
Ġse em
Ġe nd
Ġn ow
Ġus ed
Ġin st
Ġperf ect
Ġit s
ut e
l f
Ġli ght
Ġag ain
Ġha pp
Ġh ard
Ġh er
one y
i es
Ġmon th
j oy
Ġin t
Ġb it
Ġch ea
Ġtw o
Ġbe en
Ġm oney
m ent
Ġwh ich
as ed
i re
Ġen joy
Ġp a
e ver
Ġo ld
Ġwh o
ou s
Ġl ot
Ġb ro
k es
f f
en s
Ġdisappoin ted
oth er
u ll
Ġd own
Ġa w
ict ure
Ġph one
Ġl ar
Ġf l
g er
Ġlook s
Ġth r
i le
Ġp icture
Ġth ing
r y
Ġp art
o nd
Ġin ter
Ġcom p
a re
Ġth ink
Ġl ast
Ġorder ed
ou r
Ġchea p
Ġne w
v ing
Ġthe n
t s
Ġa ct
Ġi m
t ty
Ġho ld
w e
Ġsh ould
l es
pp ed
Ġfe el
Ġchar act
Ġhow ever
as s
i ly
Ġse e
Ġf a
Ġma ke
Ġc l
ion s
es e
Ġexpect ed
Ġre ce
Ġth ough
Ġlook ing
Ġth ought
Ġo k
Ġt e
Ġint o
Ġca me
Ġpre tty
a z
Ġw ant
Ġit em
Ġkn ow
m s
at h
Ġf o
Ġt ri
Ġde f
a ch
Ġwor th
Ġhi gh
Ġke ep
Ġf un
Ġfe w
f t
k ing
Ġdiff er
Ġri ght
Ġen ough
Ġs et
k ed
Ġcon t
or m
Ġha nd
ast ic
at ter
m es
Ġc le
Ġa pp
th ese
fort able
Ġb ad
Ġbook s
Ġh is
re e
Ġwe e
m o
Ġhapp y
Ġ ?
Ġg a
Ġf ind
Ġg l
f ul
Ġg u
f ore
Ġread ing
ul t
p en
Ġthr ough
at ed
ra nd
x t
Ġco ver
Ġb r
is e
Ġm ay
Ġp ack
Ġsa me
Ġf ine
i ved
Ġne ver
Ġam az
u ally
re ss
nd er
a u
w h
p h
Ġs eri
Ġd ay
u d
Ġan other
Ġdiffer ent
Ġsu re
gh ter
Ġman y
u g
Ġbe fore
Ġtr y
b e
Ġmonth s
re ad
vie w
Ġw a
eri al
Ġh el
Ġp e
Ġgo ing
Ġc ar
m y
Ġo ur
Ġcharact ers
ou n
Ġpro ble
Ġmat erial
Ġin s
Ġlo ved
ot t
Ġar ound
Ġc ute
Ġrece ived
Ġw ish
Ġlar ge
Ġre pl
Ġbo x
g reat
Ġre view
Ġa c
Ġmo st
h ing
Ġa ut
Ġc or
Ġb est
Ġk ind
Ġcom fortable
Ġbro ke
Ġus ing
Ġg r
Ġpl ay
Ġsh ort
Ġp ie
Ġs l
Ġj o
re en
c ri
Ġse c
Ġseri es
Ġsome thing
Ġdef in
ve l
Ġ ro
Ġto p
Ġwh ile
Ġpurch ase
Ġu nder
i p
Ġre al
Ġpurch ased
oo l
Ġfit s
Ġpl astic
p o
Ġinter est
Ġwork ed
b er
Ġf ar
an s
c i
Ġst r
Ġwat ch
Ġo pen
Ġb atter
Ġst o
h or
Ġt urn
Ġb ag
an g
ite ly
Ġqu ick
g in
Ġf in
Ġex t
U R
Ġf ound
Ġdes cri
Ġsh ow
u b
au ghter
an ce
Ġm in
Ġs ound
Ġti mes
Ġar ri
m er
Ġpr ot
Ġc r
Ġc lo
f e
Ġthe ir
Ġseem s
se lf
an ted
d y
Ġg ive
i m
Ġs ay
Ġdefin itely
Ġr un
i ld
ath er
ig n
Ġmo vie
C UR
Ġc ome
Ġhel p
Ġwat er
Ġsho es
Ġex ce
Ġstar s
Ġwas te
Ġb ott
Ġprot ect
Ġaut hor
Ġne xt
Ġma kes
pp ing
it ion
a il
i z
Ġg if
Ġwork ing
Ġs pe
ic al
Ġwith out
a p
n ing
in ce
it ing
in t
Ġenjoy ed
Ġw anted
Ġw ar
Ġhe ad
Ġl ess
at ing
Ġat t
Ġyear s
Ġtri ed
Ġdo g
ate ly
re d
en ce
Ġti ght
Ġs li
ir t
Ġin f
w n
as on
Ġe ar
Ġad d
ri e
Ġs ince
Ġth in
Ġli ked
i ous
pt ion
Ġst ick
w or
Ġs ide
Ġpo or
Ġin c
Ġde c
Ġta ke
o l
Ġm is
Ġs on
w ays
Ġbe l
Ġwh ere
Ġinst all
i ble
ab ly
Ġl ea
Ġd aughter
Ġd ays
Ġf all
ke t
Ġs n
Ġneed ed
a k
Ġdes ign
Ġgif t
Ġsi m
v or
ut if
an ge
Ġeas ily
Ġarri ved
Ġnot hing
Ġlo ves
Ġre f
d o
itt en
Ġproble m
Ġinterest ing
l ess
Ġc ut
c es
Ġg i
is ed
read y
Ġe l
ri ble
Ġamaz on
Ġsc reen
Ġal ready
ver s
Ġcom ple
Ġbe ing
t ain
as h
Ġst ra
rie nd
r ic
Ġsec ond
k en
u al
Ġsmall er
u ck
Ġb oth
Ġaw ay
Ġe ver
Ġ ed
Ġwr itten
Ġal ways
Ġs ur
Ġrepl ac
Ġim p
Ġjo b
oo m
ow er
at ch
ge ther
Ġget ting
Ġk id
Ġpa ir
Ġst ay
ll ent
Ġsu per
Ġli fe
ll ow
n ect
mo st
Ġi d
Ġac c
Ġto gether
ar k
Ġd ur
Ġis s
Ġst y
Ġa ble
it ch
Ġqu ite
r uct
Ġon ce
b o
Ġc ou
Ġso ft
Ġre s
ing s
Ġb re
Ġf ast
Ġ x
re n
it s
Ġp le
Ġstar ted
utif ul
Ġbe a
Ġp ers
ar y
Ġreturn ed
Ġpe o
Ġact ually
lo ve
ed i
Ġtoo k
s h
Ġd el
Ġh ea
Ġcle an
w ard
Ġsh i
Ġst and
Ġpeo ple
Ġa p
Ġha lf
us h
Ġbl ack
ct ion
Ġf ull
Ġ z
Ġb rand
Ġs k
b s
d ay
Ġbatter y
Ġst art
e ad
Ġsho e
v ice
g n
j ust
oun t
Ġcon nect
g ood
Ġal most
v y
Ġd ra
Ġany thing
Ġcomple te
Ġex act
Ġsa id
u ff
Ġp ay
ot s
s ed
or s
Ġy et
Ġd ri
Ġfin ish
Ġch e
Ġf riend
i x
Ġt y
Ġmay be
Ġc ard
Ġco st
Ġo wn
g g
Ġwee ks
Ġch r
Ġl oo
ck s
Ġga ve
Ġperfect ly
Ġlong er
Ġpie ce
Ġdiff ic
Ġwee k
Ġd i
Ġ ra
d s
Ġap art
Ġpro b
p r
Ġse ver
Ġh our
Ġgu ess
Ġcou ple
Ġsu pp
Ġevery thing
Ġho p
Ġsh irt
u p
ver t
Ġover all
Ġt ra
Ġbro ken
Ġwas h
Ġpers on
Ġbuy ing
Ġprob ably
Ġwh y
Ġre ason
em ent
t on
o se
Ġo ri
ul ar
Ġre g
Ġt er
ou se
Ġthing s
Ġs ad
Ġdiffic ult
ens ive
Ġpl ace
Ġins ide
so l
i er
Ġsever al
Ġw ond
Ġt ast
the y
Ġbott om
Ġon es
n er
Ġcle ar
Ġany one
Ġf an
ation s
Ġca re
Ġho pe
Ġl ine
Ġ es
Ġke pt
Ġbea utiful
Ġwa it
Ġe ach
Ġth ree
Ġori gin
Ġch ild
Ġf li
Ġst ore
Ġf il
Ġs w
ll er
Ġst ur
Ġun t
Ġl a
Ġw ent
Ġm ust
Ġchr ist
ri ght
ter s
Ġquick ly
Ġreview s
Ġkid s
ag es
Ġp ain
on t
Ġcolor s
ent s
Ġd et
Ġinf orm
Ġchar ge
Ġad vert
th ers
Ġst or
Ġha ving
Ġlook ed
Ġhea vy
Ġo thers
Ġexact ly
id es
Ġga me
b and
Ġunt il
Ġinst ead
Ġexce llent
Ġlar ger
Ġstr ong
pp er
Ġco ll
Ġf ab
Ġs er
Ġel se
Ġl et
s ing
es ome
y s
Ġhigh ly
e x
e e
e ps
el t
Ġhi m
Ġwr ong
Ġfe et
Ġstur dy
w ise
Ġwith in
Ġwh ite
Ġsty le
t en
Ġs me
Ġother wise
st and
Ġfa vor
c om
erf ul
Ġd ress
Ġtry ing
Ġbut ton
re t
Ġpl ot
Ġm us
m as
Ġorigin al
n y
ot o
Ġcom es
h a
Ġd one
i o
Ġ vers
Ġwr iting
Ġm ight
Ġth ose
Ġget s
if e
Ġcom pl
Ġm ar
Ġsme ll
Ġcon s
ment s
Ġso l
ra ct
Ġh ere
Ġle ft
re me
Ġneed s
Ġth ick
Ġdescri ption
Ġsu ch
Ġs ent
Ġf act
fort un
Ġb ul
Ġfab ric
Ġfl a
Ġl ow
Ġc ool
re w
Ġb as
b ought
th ough
Ġg rand
Ġf am
Ġsh a
Ġwe ight
ith er
Ġf ree
Ġph oto
Ġse nd
Ġr oom
l ine
Ġbig ger
Ġw al
l s
Ġwho le
Ġh us
sol ute
at s
at ive
n e
u es
Ġf elt
Ġgl ass
Ġte ll
Ġclo se
Ġok ay
Ġt ot
Ġw ind
Ġn orm
Ġs ays
Ġloo se
Ġshi pping
Ġcon st
Ġre d
Ġst uff
Ġh ot
Ġs le
Ġm et
b ed
Ġhus band
Ġre l
Ġext ra
Ġchar g
Ġe m
Ġpl ug
Ġh or
n ice
fortun ately
Ġbel ie
Ġinst ruct
Ġreplac ement
el s
Ġw all
Ġamaz ing
Ġr ub
et s
Ġde al
Ġp ower
Ġchrist mas
Ġsc r
Ġsto pped
Ġsupp ort
Ġmo d
ci ally
on es
Ġt able
Ġs ong
Ġsu ppo
Ġcomplete ly
Ġmus ic
Ġtr ue
Ġl ear
Ġfr ont
Ġfe ll
i v
Ġdel i
c ess
Ġpack age
v ious
reme ly
u nd
Ġm edi
Ġinc l
u me
Ġdis c
en g
at er
Ġfo llow
Ġp ull
Ġs we
Ġt ea
in ter
ph one
ir d
ull y
un k
Ġsl ow
Ġd ro
Ġadvert ised
Ġre mo
Ġke eps
Ġaw esome
in y
ou ch
Ġre m
Ġpie ces
Ġh ome
i ed
l ed
id er
it ed
Ġes pe
ea k
i b
Ġcr ack
Ġincl ud
Ġespe cially
Ġcompl ain
Ġl ist
Ġi nd
Ġcl ass
ut es
ag ed
Ġc li
Ġdet ail
Ġsome one
at ure
Ġinform ation
Ġg en
re ct
Ġhour s
Ġle ast
ant s
wh at
Ġn ight
or d
Ġb right
wor ks
an y
al s
solute ly
Ġexp ensive
Ġfo ot
Ġcharact er
Ġend ed
Ġmin utes
Ġbre ak
ar r
Ġwear ing
Ġfavor ite
Ġpa per
Ġreturn ing
Ġc ur
ent ion
Ġb and
Ġend ing
Ġv al
Ġfeel s
Ġre p
Ġbl ue
Ġpro v
Ġa ir
Ġex c
Ġe ither
ms y
Ġh ist
Ġthan k
Ġext remely
Ġsur pr
ic ally
ow s
ic s
Ġno vel
Ġp er
Ġstor ies
Ġpo c
Ġit self
Ġwar m
Ġseem ed
Ġca mer
Ġin ch
e w
w are
Ġc d
s ide
Ġp ick
Ġdisappoin ting
Ġfor ward
Ġpo int
Ġma king
ect ive
Ġf ig
Ġg ra
ve lo
Ġscr atch
Ġpicture s
Ġb ed
o p
Ġhapp en
Ġre st
Ġunder stand
Ġd ark
Ġm ain
et i
Ġs y
Ġvers ion
Ġfam ily
we en
wh ere
Ġun fortunately
Ġbe gin
Ġiss ue
Ġfli msy
Ġp ort
Ġhop ing
Ġke y
Ġs at
Ġbet ween
Ġso on
Ġsu b
Ġf ra
Ġpro per
Ġtast e
Ġid ea
a ir
u ge
Ġpart s
Ġp ast
Ġm ine
Ġp ages
Ġa v
d id
Ġwond erful
Ġinstruct ions
Ġd ry
Ġad just
Ġp ad
Ġle g
Ġexpect ing
v ent
f er
Ġd am
Ġmedi um
Ġpa id
Ġh ouse
Ġf lo
Ġr ather
el ess
at es
Ġc ra
Ġcor rect
Ġb all
Ġb or
Ġg ir
Ġse ller
Ġco nd
Ġw ide
Ġlot s
j ect
Ġhand le
s ter
Ġw om
Ġb ar
Ġproble ms
Ġfig ure
Ġc able
o oth
es ted
Ġgl ad
Ġdur able
Ġw ire
is f
Ġd ire
Ġcamer a
id ed
Ġg ri
Ġatt ach
n ess
Ġs om
Ġpl an
Ġd r
Ġc all
Ġag o
Ġlast ed
Ġun it
Ġsp r
Ġch o
Ġmet al
bo ard
Ġco ff
Ġmis sing
Ġal though
Ġrepl ace
eng th
Ġlo st
Ġl ength
Ġen g
Ġty pe
Ġsli ght
Ġt ouch
Ġm ess
Ġdescri bed
Ġab solutely
Ġcom ing
Ġcont ro
Ġmy self
velo p
ag ing
Ġus ually
Ġthan ks
Ġs ch
Ġh ang
Ġ ent
w ay
Ġan n
Ġc ook
Ġpl us
Ġpre s
Ġcoff ee
Ġiss ues
um p
Ġter rible
Ġsom eti
l ish
on s
Ġgo es
Ġple ased
Ġdec ent
Ġh um
Ġto y
Ġbatter ies
l ic
Ġta kes
it er
en se
Ġsim ple
do es
Ġen ter
Ġreg ular
Ġf ix
Ġre qu
Ġt v
c ed
Ġref und
Ġmat ch
Ġn arr
iz e
Ġl in
Ġcomp any
n g
g es
Ġlear n
Ġf ill
Ġne ar
Ġg ar
Ġf ood
Ġapp ear
Ġh uge
Ġcont in
Ġlight s
Ġ er
Ġfa ir
Ġsuppo sed
i a
i an
Ġde velop
ret ch
ce pt
Ġsometi mes
Ġe le
Ġm id
b ook
Ġd ue
Ġrecommend ed
Ġare a
Ġsh ar
ant ly
Ġst retch
Ġ ve
Ġhold s
n o
b b
m mer
Ġb are
Ġc up
Ġch ange
Ġkind le
g ra
ac es
Ġmo ve
Ġd v
Ġp ants
Ġle ather
pp y
Ġp age
Ġbelie ve
d d
ss ible
ro ss
p ro
Ġtr ans
Ġv ol
f or
Ġsp eak
Ġchar ger
Ġimp ress
are d
Ġn um
Ġr om
ire d
Ġ %
Ġproper ly
Ġc at
Ġsiz es
ou ble
Ġser vice
Ġdire ct
Ġdur ing
c o
Ġb ra
Ġrub ber
Ġcomp ut
l ing
Ġw ife
Ġenter tain
Ġexp eri
a me
in s
Ġbo ots
Ġcon f
Ġdo ll
g y
k y
Ġcor d
Ġp en
Ġtw ist
g r
Ġst ud
Ġz i
ic ed
i ent
Ġh ook
d e
Ġse en
Ġsat isf
Ġfl at
Ġwor ld
Ġc er
Ġhe ar
Ġbor ing
Ġfun ction
Ġr ing
Ġproduct s
Ġar t
Ġpre ss
Ġann oy
us ed
Ġopen ed
il ity
ust om
Ġho les
Ġcond ition
Ġlo c
Ġus eless
Ġhand s
Ġcoll ect
Ġi phone
f ully
ust r
m m
Ġshow s
an k
Ġfun ny
g ed
ide o
Ġde p
g an
Ġf re
Ġpur po
Ġstra p
Ġbare ly
Ġcar ry
Ġne ck
Ġspe nd
e as
Ġs it
Ġv ideo
ar ch
Ġf our
m b
ou d
Ġpr int
Ġc ustom
w as
Ġent ire
Ġgi ven
i al
Ġsol id
b um
Ġp ill
un ch
Ġs qu
s et
ke ts
Ġt al
Ġho le
Ġval ue
Ġpre vious
Ġwor n
Ġb ir
Ġhor rible
Ġwa ist
Ġche ck
Ġact ion
Ġtot ally
Ġout side
Ġst e
iz ed
Ġal bum
am p
Ġch ang
Ġcomput er
Ġsto p
Ġfla vor
Ġevery one
Ġal ong
Ġfa il
Ġg reen
Ġsch ool
Ġde vice
ot e
Ġfriend s
Ġm ind
d le
Ġp ri
Ġim m
t c
Ġun less
Ġsw itch
Ġm ic
Ġlist en
Ġfor m
Ġexce pt
p ad
Ġo b
Ġwh e
ll ing
Ġgen er
com fortable
Ġw ood
Ġcl oth
Ġli ve
Ġs ing
Ġpr om
Ġcheap ly
Ġcons ider
Ġnice ly
d ing
Ġw ore
ap ter
Ġpr in
Ġm om
Ġto day
ent ly
Ġl ater
Ġslight ly
Ġe y
te nd
Ġitem s
Ġnorm al
m p
Ġcont ain
Ġp ass
as ing
Ġdv d
Ġsha pe
Ġst uck
il ar
c y
Ġhist ory
Ġj unk
Ġdra w
Ġte xt
Ġcard s
am es
ic es
Ġsi gn
l ook
or der
Ġsa ve
Ġe ff
Ġt iny
Ġsp ace
Ġj e
s on
g et
Ġpoor ly
Ġsu gg
Ġdo or
Ġo p
Ġr id
ci al
Ġm em
Ġsm ooth
Ġso cks
Ġsn ug
Ġb ab
Ġorder ing
Ġc reat
it ive
Ġmy ster
Ġd a
o d
Ġf ant
c er
Ġuse ful
Ġpre fer
li ght
Ġsa w
Ġus es
le t
Ġe tc
Ġfall ing
Ġch in
Ġbel t
Ġrun s
Ġma gn
Ġchild ren
if ic
p ect
Ġdog s
Ġi r
Ġcer tain
Ġco p
Ġha ir
Ġsa nd
Ġwor ds
z y
Ġtw ice
Ġl ab
as es
Ġf ace
Ġpo s
Ġpurpo se
Ġnarr ow
Ġm ix
Ġl id
Ġb urn
Ġadd ition
Ġl ack
oo f
Ġpack aging
Ġinclud ed
Ġfe ature
Ġb i
Ġturn ed
Ġlo ck
Ġdis t
Ġmod el
Ġset ting
Ġs us
as ure
Ġcrack ed
il t
Ġdo ing
Ġli kes
Ġpres ent
as ter
Ġgi ves
Ġhelp ful
Ġi pad
Ġsle e
ad ing
Ġco ld
Ġam ount
Ġchea per
Ġput ting
Ġconst ruct
Ġof ten
Ġact ual
t o
Ġthink ing
Ġpoc ket
re ally
ar s
Ġpicture d
Ġsong s
Ġx l
Ġas se
ver ed
Ġv is
Ġremo ve
Ġgi ving
Ġin v
Ġp ink
un g
st em
Ġun comfortable
Ġca p
i et
Ġbott le
Ġh on
Ġsk in
Ġrec ip
Ġhe art
a fter
Ġsome what
Ġma ch
Ġsy stem
Ġm ult
Ġbu ild
Ġus b
Ġta pe
Ġprotect or
Ġinstall ed
Ġtra vel
re s
Ġple ase
Ġty p
Ġcli p
or ry
m ore
Ġl oud
Ġeas ier
Ġcharg ing
Ġh at
Ġv ie
us ing
Ġzi pper
Ġimpress ed
Ġvie w
m a
Ġv ar
Ġn on
Ġpre d
p ar
Ġexc ited
Ġf ing
Ġwr ite
Ġl uck
Ġp ract
Ġmid dle
m an
Ġp an
Ġav ail
Ġimm edi
Ġm ot
m ber
ac ket
Ġrun ning
Ġstand ard
Ġon line
ac ed
Ġla pt
Ġsatisf ied
we ll
Ġfin ally
Ġsi l
Ġtoo l
Ġl au
Ġentertain ing
Ġc art
Ġyou ng
re am
Ġhe ld
Ġwe ak
Ġreplac ed
g ot
Ġinter ested
Ġri pped
Ġc al
Ġbir th
Ġenjoy able
Ġatt ention
c ome
Ġs ides
Ġf ive
Ġvol ume
Ġprotect ion
li ke
Ġp u
Ġt em
Ġsc rew
p ly
ph ones
Ġse am
Ġsim ilar
Ġmat ter
Ġbegin ning
Ġbutton s
ion al
ex ce
Ġc u
Ġmult i
ad ed
Ġe v
Ġbab y
Ġdeli very
Ġl ay
Ġdisappoin t
Ġpo st
Ġrom ance
Ġstra ight
Ġle vel
Ġdam aged
Ġb ase
Ġthr ow
i gh
Ġannoy ing
Ġb le
Ġse at
Ġturn s
Ġc our
Ġsh own
Ġca b
Ġwor st
Ġplay ing
r ant
Ġsugg est
Ġup d
Ġimmedi ately
Ġshar p
Ġsec ure
Ġh ur
Ġswe et
Ġcont act
Ġro ll
ict able
r or
Ġi ll
th ere
Ġlapt op
pro duct
ur ch
u ly
Ġg lo
f it
Ġf ut
Ġpain t
pl ay
Ġed ge
Ġcustom er
Ġacc ur
Ġfil m
Ġfra me
Ġtable t
Ġhon est
Ġfinish ed
Ġse ason
Ġbo ard
Ġf le
Ġsc en
b r
Ġcomp ared
a ke
Ġl ens
exce llent
Ġw ra
Ġfo ld
Ġas s
Ġte ch
Ġv o
in ed
Ġbo ot
t oo
Ġavail able
Ġpo p
Ġcontro l
Ġb ased
Ġgo ld
wh en
Ġcomplain t
Ġsurpr ised
Ġbirth day
um b
Ġnorm ally
Ġperf orm
Ġb us
Ġcover s
Ġstra ps
Ġbu ilt
Ġsu mmer
Ġshi pped
Ġread er
x y
Ġsu n
Ġold er
Ġfil ter
Ġgir l
Ġbre a
Ġrecip es
Ġmyster y
Ġmo v
Ġst ain
Ġy es
Ġin k
Ġt ear
Ġbo y
Ġcom m
g le
Ġwash ed
o s
Ġbag s
Ġspe c
Ġbo dy
c c
Ġtr ack
Ġto ld
l er
Ġwom en
Ġmach ine
Ġf ire
ed s
a w
o g
Ġpred ictable
Ġleg s
Ġwe ird
Ġrece ive
Ġmov ies
Ġv ac
Ġfut ure
Ġlea ve
Ġed ges
Ġsle ep
qu e
itt ing
Ġs orry
Ġh it
Ġpart ic
Ġexperi ence
r oom
Ġfair ly
Ġta king
Ġpurch asing
Ġf ore
Ġse par
Ġb ow
z z
ter n
wor ked
Ġqu est
f y
Ġp ar
Ġflo or
Ġscrew s
u f
Ġdiffer ence
Ġst iff
Ġhold ing
Ġch air
ul ts
Ġkn ew
Ġdri ve
Ġcollect ion
Ġgl ue
Ġa ud
Ġimp ro
Ġr ating
Ġhappen ed
Ġsur f
Ġkey board
in ess
Ġh ar
Ġdr ink
Ġacc ess
b age
is ted
Ġfant astic
s es
v able
Ġm oun
Ġno ise
Ġop in
Ġany more
Ġcare ful
uf act
Ġh ate
Ġall ow
Ġpro ject
u ed
m ing
Ġp atter
Ġinch es
look s
Ġcour se
Ġexp l
Ġsiz ed
Ġtr ouble
Ġd im
Ġg re
Ġim ag
Ġdec ided
Ġme asure
Ġse al
Ġbr own
Ġdro pped
Ġme an
Ġfl ow
Ġbas ic
ul ous
er ic
s u
ut ion
Ġhe at
Ġcop y
Ġp ush
Ġn ame
Ġpro f
Ġpill ow
Ġspe cial
Ġt all
Ġman ufact
y ou
er ing
n ed
ri ed
t i
Ġlau gh
Ġy e
Ġde ad
Ġl bs
Ġopen ing
Ġtri p
n ers
Ġkeep ing
r id
Ġaw ful
Ġcon cept
Ġb ath
Ġcom fort
Ġgot ten
Ġsu it
Ġth ird
Ġwatch ing
Ġsiz ing
or n
is ter
Ġm il
Ġwal k
ist ic
is ing
Ġt est
Ġth read
Ġca nd
Ġb ent
lo ved
Ġkn ife
we ight
Ġwas hing
Ġs al
Ġar m
Ġnum ber
ver age
Ġs ens
Ġopin ion
Ġpart y
Ġnot ice
Ġwa iting
Ġam eric
Ġre se
Ġm ist
Ġim po
pt ions
Ġcomp li
h ad
Ġm ouse
Ġtot al
Ġc ount
Ġres p
Ġhold er
Ġsim ply
Ġt it
Ġhead phones
Ġl iter
order ed
n t
Ġsound s
Ġn one
Ġun i
Ġnot e
Ġconnect ion
Ġdeli vered
Ġconst antly
Ġmulti ple
Ġsp ent
Ġb lo
Ġappear s
Ġsing le
Ġg one
Ġcost ume
Ġch ain
Ġwear s
z e
Ġchin a
Ġr ad
Ġglass es
u c
Ġfl ash
Ġch i
Ġreal ize
Ġc e
Ġimpo ssible
Ġde ep
Ġst itch
p erf
Ġpl aces
Ġpe el
Ġtea ch
Ġhop ed
Ġe at
Ġtr uly
Ġhe al
Ġpr inter
Ġto w
Ġpartic ular
Ġgar bage
tend ed
Ġm en
ict ion
Ġye llow
ren t
Ġse lf
Ġseri ous
Ġs ense
Ġp eri
Ġdef ective
at or
Ġth ri
Ġp ow
c le
Ġhigh er
f its
Ġfall s
Ġaccur ate
pen se
Ġb other
Ġrem ote
Ġt reat
Ġfr ustr
Ġhel ps
ent y
Ġc ats
l it
Ġimp ort
Ġk it
Ġgr ow
Ġm ount
c ute
Ġbe at
Ġn or
Ġk itch
en ter
Ġlea ves
Ġre me
it es
Ġref er
Ġbul ky
Ġwind ow
Ġpoc kets
Ġele ct
Ġm or
Ġbe nd
er o
Ġp ump
Ġo il
Ġst ated
Ġbl u
Ġob vious
Ġkitch en
Ġdis play
Ġbi ke
ad es
Ġcom fy
Ġgu y
Ġapp ro
wh ile
Ġche w
Ġo cc
Ġde v
Ġor gan
Ġg ames
Ġfit ting
Ġwom an
Ġpro gra
Ġhe ard
Ġreme mber
Ġdetail s
er ed
Ġr an
Ġpatter n
Ġst ep
Ġphoto s
Ġtwist s
Ġj acket
Ġd ig
Ġfa ult
Ġma g
Ġa verage
Ġloc al
Ġdisappoint ment
ir ts
Ġr ough
Ġda ily
Ġattach ed
Ġtr ash
Ġsli p
Ġje ans
Ġs ort
Ġstory line
g o
in ted
Ġd ate
p re
Ġsus pense
Ġend s
Ġte nd
Ġspr ay
Ġso ld
Ġpro cess
Ġmo ving
h e
Ġwal king
Ġm ention
Ġdown lo
Ġcorrect ly
Ġgrand son
Ġp in
y ing
Ġupd ate
Ġrec ord
Ġm ac
Ġl ate
Ġshow er
Ġre le
a le
c ent
d aughter
Ġdis h
Ġinter n
Ġgri p
or able
Ġe vent
Ġdirect ions
g s
ut y
Ġspeak er
Ġwor d
Ġcertain ly
an e
Ġsto ck
l t
Ġconstruct ion
Ġmagn et
ha ve
Ġto e
Ġstart ing
Ġlight weight
pp ers
lo gy
Ġadd ed
Ġcart rid
Ġclear ly
Ġa ff
Ġr ange
Ġcontin ue
Ġsa fe
Ġfeel ing
s a
Ġma il
re ci
Ġbr ush
i ence
Ġins ight
Ġy r
ie ld
Ġle ad
Ġnear ly
Ġinf o
Ġc enter
Ġany way
Ġex am
Ġhist or
Ġcra zy
Ġre ach
p ack
Ġcompli ments
Ġac ross
ir ty
perf ect
Ġsn a
Ġc ases
ll ed
Ġs ou
Ġad ult
Ġsurf ace
Ġm ark
ib ly
Ġshe ets
Ġapp reci
Ġth rew
in ing
Ġp et
Ġl ed
Ġear ly
b ea
Ġus ual
Ġmic ro
in ts
Ġw inter
er t
Ġexpect ations
Ġsl ide
Ġyour self
Ġsh ip
Ġagain st
Ġmis s
Ġcu ps
Ġwar rant
Ġsend ing
Ġfail ed
u be
Ġex ch
bo x
Ġrad io
Ġo per
i ves
Ġrequ ire
Ġm other
at ic
Ġsh el
Ġdi ed
Ġr ust
Ġo ption
Ġc ott
Ġgr ound
Ġl ower
Ġpo ssible
Ġevery day
Ġmost ly
Ġf i
Ġrese arch
Ġsil ver
b ack
Ġpr iced
Ġse ll
Ġchang ed
Ġhope fully
Ġplay er
Ġdesign ed
Ġhelp ed
o ver
Ġbe h
ch ea
Ġch ance
Ġpl enty
Ġear s
Ġglo ves
o k
Ġ vel
Ġwr iter
ou b
Ġwr ist
d u
Ġgrand daughter
Ġnot iced
p urch
Ġad v
Ġaud io
Ġa ge
Ġdevelop ment
e en
Ġw et
Ġp ub
Ġfull y
ha ps
eas y
it ies
m ble
ab ility
Ġj ack
Ġclass ic
Ġwant ing
Ġhe el
Ġb ri
Ġdes k
Ġdro p
Ġcott on
Ġrece i
Ġsa ms
Ġfre sh
Ġsh r
Ġmin i
Ġwall et
en ces
Ġlo se
o ck
Ġher o
m in
Ġperson al
Ġo h
Ġmanufact ur
ore d
Ġsp ot
n a
Ġspe ed
Ġs ca
Ġad apter
Ġbul bs
Ġid eas
ure s
Ġlab el
Ġcont ent
Ġbas ically
Ġst ri
Ġbeca me
Ġkn own
t le
Ġplay ed
Ġ nd
Ġsh or
Ġbl ade
Ġg un
s w
p ensive
Ġh d
Ġcon cer
Ġd irty
ap ters
Ġwarrant y
Ġwas ted
Ġr ate
pre tty
Ġlo l
Ġatt ract
Ġse arch
Ġbe come
purch ased
Ġc atch
is m
Ġbus iness
Ġtit le
is s
ut s
Ġhum or
Ġi ce
Ġhand y
Ġbeh ind
h o
Ġbul b
Ġsams ung
Ġcho ice
Ġclo sed
Ġsh irts
Ġgu ide
Ġinc red
Ġf ur
Ġch apter
Ġdevelop ed
Ġlin es
Ġperi od
ie ce
Ġwe ather
Ġw ed
Ġr u
Ġwind ows
Ġri p
id ent
Ġcharg ed
gra ph
Ġplug ged
Ġf ish
Ġoff ice
Ġd ust
Ġa f
Ġp ot
Ġc oun
on ly
l and
est ing
Ġpress ure
bea utiful
Ġw id
Ġro ck
Ġgra ph
is es
Ġim age
Ġl ang
Ġs itting
Ġimport ant
ne y
Ġli m
Ġread y
Ġr ound
Ġstor age
Ġper haps
Ġcur rent
Ġfing er
Ġey e
Ġt ab
Ġmat t
Ġins p
ri ved
Ġti ps
Ġc ush
it ter
em s
it or
Ġthick er
Ġho se
c ro
Ġscratch es
Ġe qu
Ġdec or
Ġon to
Ġp at
Ġad vent
Ġmot or
Ġsuppo se
ct ions
Ġd an
Ġpack aged
Ġin ex
Ġar ms
i or
ic ulous
Ġan sw
Ġwant s
Ġg al
Ġhang ing
s ome
Ġt ough
Ġlang u
Ġste el
Ġbe ware
Ġan k
Ġr ug
Ġprov ide
Ġexpl ain
ri b
Ġfore ver
Ġtr uck
Ġra in
Ġwor se
Ġn et
Ġeff ect
Ġdep th
j or
Ġheal th
o ve
in es
Ġst ays
Ġey es
Ġthrough out
Ġp s
ll y
Ġasse mb
Ġun able
Ġfe ed
ri g
Ġclo s
bb les
Ġm ir
Ġstart s
Ġevery where
Ġfo am
Ġe f
Ġar ch
Ġstick s
Ġclean ing
Ġsub ject
g ar
Ġvel cro
pl es
ven ient
Ġfla w
Ġvo ice
Ġto n
Ġtr ick
Ġfill ed
Ġcab les
Ġir on
Ġl isted
Ġd ouble
Ġact ing
Ġpair s
b ers
Ġqu it
or ies
Ġpur se
Ġscen es
Ġprof ess
Ġp ound
Ġsi x
in ation
Ġal ot
Ġun us
Ġef fort
wor k
Ġlangu age
Ġc red
v al
Ġhur t
l us
Ġshor ter
Ġsn ap
Ġliter ally
i ally
c on
Ġinex pensive
Ġfle x
are nt
Ġp ool
r ors
ic ated
Ġcover ed
u ght
Ġan im
Ġlove ly
ug g
o id
Ġup on
as p
Ġlearn ed
Ġcloth es
Ġte en
Ġapp le
Ġrel ation
Ġn a
Ġd uty
Ġlear ning
Ġto es
ur al
Ġmis le
Ġma jor
Ġca pt
m i
Ġcl a
Ġe p
Ġc ir
Ġw o
Ġapp ly
Ġpur ple
b ro
Ġt ank
Ġb al
Ġcall ed
Ġab ove
Ġre pe
Ġshort s
Ġm el
Ġwid th
Ġswe at
Ġown ed
Ġgu ys
Ġt en
Ġke ys
Ġm ed
gr ound
Ġear r
Ġatt em
Ġli f
ce ived
Ġti p
Ġo dd
Ġrem ind
Ġan t
su per
po d
Ġta ken
Ġad h
Ġd ull
Ġse qu
Ġth or
Ġso le
Ġlea k
Ġb en
Ġt un
Ġdam age
Ġspr ing
Ġhapp ens
Ġimpro ve
Ġf ly
Ġdi al
et ooth
Ġad orable
li er
u it
Ġsu cks
Ġel astic
Ġstore s
ir ing
Ġj ew
Ġcom b
Ġspeak ers
Ġrid iculous
Ġconsider ing
Ġrequ ired
Ġfo c
pe nd
c ol
Ġtoo ls
Ġstitch ing
s le
iv id
Ġclo ck
Ġbr ing
Ġasse mble
Ġrelation sh
p ed
Ġmatt ress
Ġf iction
Ġc ast
Ġca mp
Ġt ag
Ġpos ition
Ġz ero
ent ed
ill s
b y
Ġexch ange
Ġdoll ars
le ct
ir st
Ġconf using
Ġblu etooth
Ġce ll
i pe
Ġme ans
c an
al though
Ġgir ls
Ġameric an
Ġmisle ading
ward s
Ġset s
Ġocc as
Ġdel ic
Ġany where
Ġbe ach
Ġcomplain ts
Ġch apters
e al
Ġne g
Ġtight en
Ġscratch ed
Ġb unch
ad s
Ġint rig
Ġt re
cess ary
Ġexc iting
Ġla w
Ġbr ace
Ġor ange
Ġmor ning
Ġhea v
se l
Ġsp o
Ġhistor ical
il s
Ġs ister
Ġt ar
Ġr ide
Ġprov ided
Ġnovel s
Ġslee ves
Ġli ghter
Ġin tended
Ġinform ative
Ġbrea king
Ġfeature s
Ġcor ners
iet y
Ġbu cks
Ġuni que
Ġv ib
Ġsh ut
Ġd oub
ure d
an n
Ġquest ions
Ġinstall ation
inter esting
Ġeng lish
Ġbu ck
ation al
k er
u um
Ġl ad
po or
Ġcor ner
it al
Ġapp lic
Ġcut ting
Ġti e
Ġme et
Ġthor ough
k ward
Ġmist ake
Ġback ground
Ġch art
Ġpull ed
Ġprov ides
f irst
Ġu nd
Ġbrand s
Ġmo der
Ġli ves
Ġwhe el
Ġch all
Ġup set
Ġneck l
ch ar
as k
r ow
Ġfunction al
p ite
Ġbr ought
a h
ar rived
re ceived
Ġmaterial s
Ġem ot
Ġen c
Ġint ro
Ġball s
Ġconnect ed
Ġhas sle
Ġvac uum
Ġli ving
Ġsmell s
Ġfind ing
Ġshow ed
Ġprogra m
Ġthr u
bo dy
Ġhard ly
Ġrec o
Ġch em
Ġsee ing
chea p
Ġill ustr
Ġstick er
Ġfrustr ating
Ġc ross
Ġbu bbles
lo red
Ġgal a
Ġback pack
Ġwe bs
Ġgre y
Ġauthor s
r on
Ġprin ted
Ġwed ding
it em
Ġsm art
Ġprom pt
Ġres ults
Ġsay ing
Ġkn ock
Ġav oid
Ġgala xy
Ġw in
h ow
Ġsoft ware
Ġsli m
Ġsit u
Ġperform ance
d is
id ing
Ġseam s
Ġshe et
Ġd est
Ġmem ory
Ġph ones
Ġas k
Ġaw kward
Ġtech n
Ġf em
Ġrep air
Ġed ition
Ġf ans
Ġattract ive
Ġgr ou
Ġto ys
Ġturn ing
m ed
Ġsub st
Ġstick y
w ould
utif ully
Ġcush ion
Ġal one
Ġcon c
f un
Ġtem per
Ġj our
if y
b all
ll a
e ven
Ġdetail ed
Ġcon venient
us es
en cy
p ut
Ġfa ke
Ġb at
ens ion
Ġobvious ly
Ġsn ow
Ġstr ange
Ġm r
Ġsurpr ise
f in
Ġmin ute
Ġk ick
Ġcoll ar
ti me
Ġpr oof
Ġcons ist
Ġj ump
Ġwond er
Ġcount ry
ch an
Ġp c
Ġmo ld
ish ed
Ġse w
Ġthin ner
Ġeff ective
Ġb a
Ġgener al
Ġfigure d
Ġvar iety
ter rible
Ġpl aced
Ġneg ative
or ge
g ing
Ġc ry
Ġme chan
Ġlast s
Ġer rors
aw esome
Ġqu iet
Ġp ens
Ġlea ks
g a
ic le
an ces
Ġevent ually
Ġfing ers
h n
Ġl amp
Ġb ible
Ġpl ain
Ġtyp ical
Ġmess age
Ġk ill
Ġcli ps
c um
Ġreason able
er c
Ġgr ind
Ġbr other
Ġcur tain
Ġcred it
Ġwatch ed
Ġsign al
Ġk ing
Ġl b
Ġt ree
Ġhard ware
Ġf aded
Ġdownlo ad
Ġbelie vable
Ġbe y
Ġmanufactur er
Ġsk i
Ġun b
Ġreg ard
Ġaw are
Ġm m
c ing
Ġsp ots
Ġhe ight
Ġco at
Ġl ink
Ġremo ved
Ġhook ed
Ġo ptions
Ġcontain er
Ġde g
Ġb ill
our ce
Ġsu c
Ġto dd
oo se
Ġr ack
Ġbott les
Ġsha me
Ġme ant
Ġbox es
Ġare as
Ġhand les
sel ves
po inted
ren ch
Ġearr ings
Ġdoll ar
Ġpick ed
Ġman ual
Ġsecond s
us s
Ġtr ust
Ġattem pt
Ġfix ed
Ġstr ing
Ġneckl ace
Ġcomp at
Ġn at
Ġmo ved
Ġc as
Ġwebs ite
Ġsho p
e very
Ġpro du
Ġo t
Ġfollow ed
Ġch est
a x
Ġd on
h ead
Ġpen c
ri es
b ing
Ġarri ve
Ġrec ently
Ġcl ick
Ġover p
r it
Ġc re
d ed
p ort
Ġpack ed
Ġbe com
Ġbey ond
Ġbrea ks
Ġadjust able
Ġo em
ent ial
Ġdev ices
h ip
Ġte e
Ġn ic
Ġ ver
Ġpl ate
Ġple as
Ġb reat
Ġg as
Ġpad s
gg ed
le y
Ġintern et
Ġgu it
if ied
Ġca ught
Ġdes pite
Ġcho col
Ġwr ink
ea red
Ġf aster
Ġr ings
Ġac cept
Ġhum an
Ġw ays
Ġshel f
Ġbea utifully
Ġre li
pr oof
Ġpo ints
Ġblo ck
Ġlike ly
Ġp ic
Ġmin im
Ġbl an
u ing
Ġsu ction
Ġcomp act
Ġappreci ate
Ġr ich
Ġear lier
Ġmis sed
Ġwire less
Ġrefer ence
Ġthere fore
Ġgr ay
Ġout do
Ġtast es
Ġfir m
Ġheav ier
Ġab s
ac ing
Ġst ates
ra id
Ġco l
Ġinv ol
Ġdisc o
Ġv i
Ġbath room
Ġh y
Ġact iv
Ġhonest ly
Ġc y
Ġjo hn
Ġtext ure
Ġwork out
Ġpad ding
p et
Ġr d
Ġsp ir
Ġt ur
Ġsp lit
Ġform at
Ġwire s
h ile
Ġaw hile
hor rible
Ġt ube
Ġapp arent
Ġaf raid
Ġt ub
Ġbe gan
as c
Ġpu zz
Ġoff er
Ġsna pped
Ġrep et
po s
Ġmo ves
c ase
Ġro ad
n am
Ġg er
Ġwra p
Ġfli p
Ġo d
l ass
Ġun s
Ġh ood
Ġ rand
Ġve h
Ġt ill
Ġpract ical
Ġsho ot
oo oo
Ġsli pper
Ġal tern
Ġcoun ter
Ġex erc
Ġsty lish
Ġgrou p
Ġsepar ate
Ġstud y
Ġpract ice
Ġsur v
Ġwhe els
es ive
g est
Ġpow erful
it ions
Ġbow l
il i
Ġb ust
Ġf u
Ġas ked
Ġem ail
Ġli br
Ġreco gn
Ġlea ving
Ġadvent ure
Ġread s
m et
ric ed
p ri
ke y
Ġlisten ing
ou th
Ġin it
Ġw ider
dis appoin
Ġread ers
Ġelse where
ha ppy
c ould
Ġthorough ly
Ġn ail
Ġs ink
Ġdim ens
Ġs ite
Ġchocol ate
Ġha llow
Ġj u
Ġprofess ional
Ġreal ized
Ġb ur
ill y
Ġpre p
Ġto m
Ġtal k
Ġaddition al
Ġant ic
Ġfre qu
v is
Ġpu ppy
Ġpos itive
Ġbrace let
o c
Ġpl ays
Ġmon itor
Ġ est
Ġserious ly
Ġres ist
Ġjew el
Ġcl asp
Ġsuc cess
Ġsad ly
Ġconstruct ed
Ġstick ers
Ġg ard
Ġm outh
Ġta le
Ġbo ys
Ġad vice
ar m
Ġbut ter
Ġy ard
ll s
Ġlim ited
Ġj am
Ġguit ar
b ble
Ġhallow een
Ġdial og
Ġmar ket
i ms
Ġshr ink
Ġmention ed
Ġin g
Ġcl ub
Ġcompat ible
u x
et y
Ġsk irt
Ġdark er
rib ly
Ġf ash
Ġsu ff
Ġre sol
Ġdoub t
ut h
Ġcom ment
Ġd ad
Ġpub lish
mm ed
Ġlibr ary
Ġma x
Ġsho ck
Ġpri me
Ġh un
Ġcartrid ge
Ġind ivid
Ġco lored
Ġfl ag
Ġ ut
Ġus er
Ġinv est
Ġenjoy ing
Ġcook ing
Ġ ess
ca me
Ġfash ion
Ġimag ine
p ective
Ġthem selves
Ġst one
Ġup gr
Ġwhat ever
ush ed
Ġi pod
Ġr ot
Ġpo ss
Ġsp ort
Ġto re
Ġse ction
Ġch ose
Ġprotect s
Ġfor get
Ġca m
Ġb ass
Ġev ents
Ġreg ret
Ġsm o
Ġlo go
Ġport ion
Ġmir ror
Ġble nd
Ġadh esive
f o
Ġcharg es
Ġer ror
Ġworth less
ul ty
Ġbl ow
or ted
Ġrand om
Ġrec ie
Ġad ults
Ġch oose
Ġwater proof
Ġinclud e
Ġdest ro
Ġnum bers
f riend
Ġep is
Ġprotect ive
Ġsa ved
Ġcomp ar
Ġall ows
Ġch ann
Ġfem ale
Ġc ream
Ġf t
Ġhead set
Ġantic ip
Ġfact ory
id s
Ġset up
as y
Ġgif ts
i i
Ġd irt
Ġincred ibly
s en
Ġwr ites
Ġr ated
Ġtemper ature
Ġaff ord
Ġprom ised
Ġan gle
Ġc ro
Ġsh ot
Ġsa le
Ġem pt
Ġspec ific
Ġf ro
if i
ri f
Ġid ent
Ġvar ious
Ġse xy
Ġpay ing
Ġan ten
Ġli qu
Ġgri ll
el ie
Ġknow s
e ge
Ġoverp riced
Ġdis sa
Ġreplac ing
li ed
Ġst re
Ġank le
Ġm er
Ġsand als
Ġt orn
Ġwr ote
Ġho l
Ġst ea
Ġpl ant
Ġb es
is on
a pp
Ġp aced
Ġti red
Ġf ight
an ced
orge ous
Ġcab in
Ġfra g
Ġcut s
Ġsw im
Ġbel ow
Ġslee ve
Ġf ather
Ġsp in
Ġmoder n
Ġsu gar
Ġtime ly
Ġe gg
Ġde ce
Ġreal istic
Ġins ert
pect ed
Ġcard board
Ġhook s
Ġinclud ing
w ash
Ġst ate
Ġun like
Ġdra g
Ġexce ption
Ġflex ible
Ġrele ase
ne ath
Ġsequ el
Ġunder neath
Ġstay ed
Ġdri ed
Ġacc om
Ġtow el
Ġsh ap
Ġlo ad
Ġne cessary
m it
Ġlet ters
Ġho ls
f l
m art
Ġg love
Ġcra f
Ġchar m
Ġgl ued
Ġsa m
Ġparticular ly
Ġcoll ege
Ġd y
Ġunus able
Ġrelationsh ip
Ġg e
Ġgard en
Ġcar pet
Ġfur ther
Ġpers pective
Ġb ind
Ġbad ly
Ġlea ked
Ġw ise
ab solutely
Ġrem ain
un fortunately
Ġinf l
Ġboy friend
Ġo z
Ġm aster
Ġgra b
Ġaut o
an other
ur ing
Ġre ar
Ġshould er
Ġthe r
Ġpre m
can not
Ġdig ital
es h
Ġdaughter s
Ġtr ad
Ġmoun ting
Ġbu d
Ġwash es
Ġb ored
ac y
Ġshow ing
Ġfor ce
Ġquest ion
Ġde pend
Ġhard er
Ġbe ar
Ġart ist
Ġun happy
t r
Ġal right
Ġstain less
Ġve nd
en joy
Ġso ap
c ket
er y
se ems
Ġne at
Ġind ic
Ġco de
Ġz ip
Ġcomm on
ic ient
Ġpre vent
Ġgar age
at a
Ġassemb ly
Ġwor ry
Ġbl ades
Ġg y
s p
Ġu lt
itt y
Ġl and
Ġsurpr ising
in ating
Ġeng aging
Ġst a
Ġband s
Ġt or
Ġstrong er
Ġne ither
Ġt ad
Ġd em
Ġun re
Ġperson ally
Ġapparent ly
g th
Ġtodd ler
Ġturn er
Ġgra mm
Ġstud ents
atter ing
s m
led ge
Ġfoc us
Ġtal king
Ġlea king
Ġprice y
on se
at isf
Ġthread s
oth ing
i ps
u ce
Ġmar ks
Ġd u
Ġsc ience
in st
Ġdis s
Ġn ut
Ġpa ren
Ġblan ket
Ġchang ing
Ġhols ter
Ġcontro ller
Ġnat ural
Ġarri val
Ġrequire s
Ġacc ount
Ġconnect or
Ġf al
Ġunderstand ing
et ic
Ġgr ade
Ġing red
Ġsal t
Ġanten na
Ġtem p
Ġe ating
Ġm s
Ġsh iny
i ents
Ġst ren
Ġfrag ile
Ġan g
Ġannoy ed
Ġresp onse
Ġch ick
Ġsqu are
p es
Ġacc ord
Ġpri or
Ġbar s
Ġsol ution
Ġdel ight
Ġlack ing
r u
Ġcartrid ges
Ġsl ides
Ġstr ings
Ġshar pen
Ġfil ters
Ġchem ical
Ġtell ing
Ġeng ine
Ġsetting s
Ġbal ance
Ġbl ur
Ġpull ing
Ġfit ted
Ġguess ing
Ġqu e
Ġag ree
Ġillustr ations
Ġpeel ing
Ġc ri
Ġl unch
Ġcomp art
Ġchrist ian
Ġdra ma
Ġse eds
Ġres ult
Ġtra il
Ġr ay
Ġpound s
Ġg oo
Ġapplic ation
i ke
Ġreview ers
Ġb on
ar ily
ar n
Ġprevious ly
Ġacc ident
Ġx x
Ġca used
Ġex ist
Ġsi lic
an ger
Ġcas ual
Ġinvol ved
um in
Ġdescri ptions
Ġsc ra
Ġsy n
e per
Ġra re
Ġn iece
Ġd ie
Ġdestro y
Ġot ter
Ġab ility
Ġg ear
ant ic
Ġstren gth
Ġchall eng
Ġmom ent
f orm
Ġc ent
stand ing
Ġm ad
Ġprin ting
Ġwe b
act ion
Ġprotect ed
Ġveh icle
Ġyou n
Ġth us
Ġy og
Ġyoun ger
Ġswe ater
on nect
Ġto wn
f ast
Ġgy m
Ġcarry ing
Ġchin ese
Ġtra ining
le ction
Ġn y
Ġas pect
Ġmil es
Ġknow ledge
Ġempt y
Ġta il
Ġru ined
Ġd in
w ear
Ġout fit
Ġf asc
Ġgraph ics
Ġpo l
Ġsp ark
Ġchang es
Ġappro pri
Ġsome where
Ġwra pped
Ġelect ric
lo g
Ġdirect ly
Ġfriend ly
Ġr oo
Ġed iting
b est
Ġin ner
Ġcand y
Ġinc or
Ġwe igh
Ġrel ax
Ġprompt ly
Ġcontact ed
am az
Ġg orgeous
Ġslipper y
iz ing
Ġjo ke
Ġto ps
Ġbut t
Ġdimens ions
i ving
Ġs its
Ġus a
Ġde ter
Ġsk ip
w ill
Ġsqu ee
Ġdri ving
Ġdo cum
Ġw ig
Ġsens itive
ll i
z en
th ought
Ġpo lit
Ġtyp es
Ġrecei ving
Ġwhe ther
Ġtr uth
Ġtell s
at t
Ġlin ing
ion ally
Ġc ult
Ġbreat h
Ġcar s
Ġsc ar
Ġunb elie
Ġvi ol
w ood
Ġcir c
a ly
Ġfollow ing
Ġvideo s
Ġabs or
Ġfact s
Ġparen ts
Ġlo ss
Ġfun ctions
Ġcheck ed
ud e
Ġthri lled
Ġmin or
Ġsp l
ph ew
disappoin ted
qu ality
Ġle gg
Ġreli able
Ġod or
Ġcor ds
all ow
Ġne phew
Ġvib rant
Ġbes ides
Ġto ss
Ġwal mart
Ġins er
Ġspir it
Ġno se
Ġfree z
Ġhol id
Ġman ner
b or
Ġre char
Ġluck ily
Ġp ouch
Ġphoto graph
Ġwor ried
Ġjewel ry
Ġh p
Ġthe me
Ġbas ket
t a
Ġburn ed
Ġindivid ual
Ġjour ney
Ġca using
Ġliqu id
Ġdry er
Ġnic er
il ing
Ġdef ect
Ġw ow
Ġs illy
Ġinstall ing
Ġdri ll
Ġhealth y
Ġsi ght
Ġus able
Ġhop es
Ġst ones
Ġclos er
Ġben e
Ġlens es
wash er
Ġvac ation
Ġcompl icated
Ġm ask
Ġcla im
Ġprem ise
Ġbuy er
d es
Ġfant asy
rie f
Ġrel ative
Ġtow els
Ġmu g
sm all
Ġstr ugg
ke nd
Ġmod e
a ve
Ġpo pped
Ġmeasure ments
u ch
Ġsh if
Ġdish washer
Ġrecie ved
Ġth igh
Ġdelic ious
Ġad e
Ġsh ade
Ġcomp are
Ġass um
Ġrepet itive
Ġsc ent
Ġma le
Ġp or
Ġansw er
ex pected
Ġfl ick
at o
Ġus age
is ters
Ġh ung
Ġfal se
p iece
Ġtra in
Ġvend or
Ġcamp ing
Ġsupp ly
s c
Ġsto ps
Ġcl ar
Ġd ata
Ġbu mmer
en ced
Ġcomm un
om b
Ġb read
ver se
Ġde ath
Ġro b
Ġbecom es
over all
Ġminim al
Ġlo g
Ġtrans fer
Ġcolor ing
Ġdur ability
Ġhead s
Ġim ages
Ġl am
Ġexpl an
Ġref lect
Ġsign ific
oo p
lo ck
Ġlet ter
Ġl itter
Ġdra wn
Ġoutdo or
Ġe ase
w ow
Ġw ifi
rif ic
Ġcon v
Ġstretch ed
Ġskin ny
Ġact ors
Ġma ker
Ġv an
Ġsty lus
ex act
Ġin te
Ġcloth ing
Ġapp eared
Ġgreat est
Ġlight ing
Ġsome how
id ge
d en
Ġmix ed
Ġmean ing
Ġre ality
um ps
Ġsh are
i k
r ing
Ġoff ers
Ġdissa pointed
Ġbr ings
l ts
Ġoff ered
Ġaccord ing
Ġdialog ue
Ġcomfort ably
ay ed
m ans
Ġp ins
ili ar
Ġsa f
Ġlegg ings
UR L
Ġn uts
Ġv iny
Ġplug s
Ġslow ly
Ġro d
Ġtr ay
Ġkn ives
Ġir rit
Ġdra in
Ġdire ction
Ġh ated
m ade
Ġwee kend
co lor
Ġdraw er
Ġca ke
Ġequ ip
Ġcare fully
Ġsl ot
Ġresp ond
qu ate
Ġnotice able
Ġmag ic
Ġenjoy s
atter ed
Ġhd mi
Ġd ream
is y
Ġgr ad
Ġcreat e
Ġgen re
Ġthr own
Ġh ing
Ġaltern ative
Ġtrad ition
ur y
Ġp ace
ed ed
n othing
is k
Ġwish ed
Ġwond ering
Ġbegin ner
Ġbottom s
Ġtee th
Ġviny l
Ġsp ill
Ġp ure
Ġbu m
Ġj un
Ġser ves
Ġh ub
Ġinc re
Ġt ested
Ġdown side
Ġingred ients
Ġg am
Ġa head
Ġtrans l
Ġson y
Ġb an
Ġpack s
Ġfl uff
Ġdri ver
Ġsp are
Ġbuild ing
Ġl y
Ġdes er
Ġw ine
Ġto oth
Ġl atch
Ġpl ants
Ġdep ress
lass es
Ġout er
Ġb oo
Ġst eps
ous ly
Ġbed room
Ġst able
Ġr h
eri or
Ġde ck
Ġknow ing
w r
Ġbig gest
Ġbuck le
Ġto wards
Ġshould ers
Ġcom ments
ast e
Ġequip ment
Ġse wn
Ġp atch
exact ly
Ġsc ri
Ġflash light
Ġmom ents
Ġanticip ated
Ġst ream
Ġch urch
ag er
Ġport able
Ġadd s
Ġdro ps
ra ge
Ġcomple x
i um
Ġorigin ally
Ġbo at
Ġchi ps
atisf ied
Ġelect ron
Ġbri ghter
Ġgrow ing
Ġsh red
Ġwait ed
Ġimprove ment
Ġli ft
Ġlo ving
Ġl it
Ġm ill
Ġdist ance
Ġappropri ate
Ġgl ow
Ġmagnet ic
Ġintrig uing
Ġpot ential
Ġcreat ive
Ġaut om
Ġu pper
Ġph ys
Ġplan ning
ib ility
Ġproject s
mans hip
bro ke
Ġsu ng
e es
Ġcon vers
Ġdi et
u ro
Ġag es
Ġt an
b it
Ġo bs
Ġn ur
Ġpain ted
Ġafford able
Ġstick ing
Ġm al
Ġed uc
Ġmo ist
er v
Ġmechan ism
Ġcall s
Ġrecord ing
Ġgraph ic
Ġh es
Ġcolor ful
Ġpow der
Ġr ou
Ġpub lic
Ġsp an
Ġexam ples
Ġs ource
ome nd
Ġrec omend
Ġbu mp
Ġbu bble
Ġsl iding
Ġexam ple
Ġfin al
Ġchi pped
Ġca le
duct ion
Ġunbelie vable
Ġs ke
Ġcom pe
Ġtend s
Ġca uses
Ġcontin ues
Ġch ip
Ġsens or
Ġcomp ress
Ġup s
ac kets
Ġrid ing
Ġen er
de cent
Ġsca le
Ġtar get
Ġfavor ites
Ġdisc onnect
Ġmac book
Ġst atic
Ġfa ith
Ġf urn
Ġcontain s
Ġse lling
Ġbit s
Ġg ro
Ġtear s
ch o
Ġal arm
g ress
b u
Ġm ich
Ġsn eak
Ġcontin u
Ġrom antic
Ġsecure ly
Ġbu ll
Ġbo lts
h ere
Ġtri logy
Ġbe ads
Ġyog a
Ġnot es
Ġti ghter
ul a
h ard
Ġxx l
Ġspec if
Ġmagn ets
Ġmel ted
Ġback ing
Ġvis ible
Ġsilic one
Ġt ed
Ġo ven
Ġto ne
Ġport s
Ġless on
Ġh its
Ġincred ible
Ġst ation
Ġfl attering
w ond
ash ed
Ġanim als
e c
Ġp unch
Ġto ng
h ood
Ġstretch y
Ġfor th
as er
Ġfo l
Ġhel met
Ġthrow ing
Ġsleep ing
Ġres et
Ġfall en
Ġyes ter
Ġfasc inating
Ġpuzz le
le ts
sh irt
Ġcost s
Ġm esh
Ġan ti
Ġappear ance
Ġlay er
en ing
Ġcry st
Ġco ating
Ġfr uit
Ġsc o
Ġp our
v id
Ġfrequ ently
de fin
Ġs ick
Ġh r
Ġput s
m uch
Ġadd ing
Ġtreat s
Ġj er
Ġrece ption
Ġg b
a a
Ġincor rect
Ġscri pt
Ġb rief
Ġtravel ing
Ġpo lish
Ġp ed
ch es
Ġremo ving
Ġsl ots
Ġloo p
Ġclo set
Ġti re
c l
Ġsaf ety
erf ully
Ġli ved
Ġspend ing
Ġc ity
Ġst at
Ġkn ee
Ġlid s
ast ed
Ġorgan ized
Ġb ird
k ind
en ed
Ġv ent
Ġbul k
Ġdesign s
Ġme at
Ġhi ps
Ġsli ppers
Ġout standing
m on
t op
Ġf ield
Ġconst ant
Ġsitu ation
Ġmove ment
Ġyester day
Ġmoun ted
Ġsim pl
Ġcr u
re es
Ġtrack s
Ġcurrent ly
Ġaut h
Ġca ps
ed y
Ġj ar
Ġupgr ade
enjoy ed
Ġgener ally
Ġl ace
ch ed
Ġexp and
Ġconcer ned
Ġscr ub
ut ed
Ġeffect s
le x
Ġfam iliar
Ġclean er
Ġj oy
Ġse lection
Ġposs ibly
Ġyou t
amaz ing
Ġg el
Ġp al
Ġso ck
Ġtast ed
Ġf rench
Ġex tended
Ġmag az
Ġtri m
Ġcr it
Ġno isy
Ġthri ller
Ġstand s
b ud
Ġrel ate
Ġli king
Ġser ve
Ġseal ed
iz er
Ġind o
inst all
Ġbag gy
Ġun expected
ch y
Ġlo sing
Ġpass ed
Ġzi ppers
Ġj an
ook ed
Ġcale nd
Ġman age
iv ity
Ġpill ows
Ġbri lli
f li
m ine
Ġm ild
Ġchair s
Ġcool er
Ġpo ly
Ġyout ube
Ġflow ers
Ġexp o
w ith
dd en
Ġson s
Ġrec ipe
Ġst ink
Ġtea m
Ġameric a
Ġlad y
Ġear th
Ġg rew
pl ug
Ġadvert ising
lf riend
Ġro se
Ġl ou
Ġpack ing
Ġinstruct ion
t w
Ġwar ning
Ġclean ed
defin itely
Ġbir ds
Ġscen e
Ġd en
Ġsu dden
cri ption
Ġm art
Ġt ang
ic ing
Ġhear ing
th eless
j o
Ġdan ger
Ġcompe lling
Ġind e
ul ation
Ġrou ter
m ay
Ġd ash
Ġsc ary
b ut
Ġapp eal
Ġentire ly
ic a
so le
Ġover ly
every thing
Ġna vy
Ġcook book
t ook
Ġout let
ic y
Ġg ent
Ġcand le
Ġsho pping
Ġfold ed
e y
it ure
Ġgir lfriend
Ġship ment
Ġh ous
Ġinit ially
ple te
Ġlin er
Ġfor t
Ġbu mmed
Ġteach er
Ġsn ack
Ġso fter
mb re
r um
Ġter ribly
Ġre order
Ġmil k
nd a
Ġcabin et
Ġf ool
Ġhar ness
Ġbre w
Ġinsp ir
Ġpenc il
iv al
ur b
Ġne igh
Ġbon us
Ġti res
Ġtradition al
Ġfl u
ri er
Ġrel ig
Ġadjust ment
Ġprotect ors
Ġv ia
Ġpull s
Ġprefer red
Ġrelative ly
Ġter ms
Ġpleas ant
Ġcan s
Ġgu est
Ġrepe ated
Ġcover age
Ġl g
im ately
Ġp ant
Ġstud ent
Ġgo lf
Ġu mbre
Ġsitu ations
Ġn ames
an a
Ġfurn iture
a king
Ġear bud
Ġfab ulous
ru pt
Ġaff ect
Ġes ca
Ġcr is
wond erful
Ġstra w
Ġal umin
Ġspecif ically
u ary
ent ic
Ġdeg rees
Ġmod els
ret urn
Ġme th
b l
Ġt in
Ġre ve
Ġsa ving
Ġaccess ories
Ġs lo
Ġbl ood
Ġreason ably
Ġe uro
Ġvers ions
Ġpattern s
Ġade quate
Ġo ppo
Ġsuit able
Ġsung lasses
Ġcan on
Ġpo ster
Ġdef e
k in
Ġpo lic
Ġhim self
Ġso les
Ġw ild
Ġcover ing
it ary
Ġpo le
Ġi gn
un t
Ġri g
Ġval ve
Ġdelic ate
Ġstand ing
Ġgu ard
Ġl at
Ġanim al
Ġadd ress
Ġexperi enced
Ġo pt
us hing
Ġthick ness
Ġun its
Ġapp lied
Ġs oooo
ill a
Ġdestroy ed
Ġno ve
Ġpo ps
Ġs d
Ġb oun
Ġstain s
Ġc ash
Ġhe els
Ġwond erfully
Ġmatch es
Ġcomb ination
Ġ q
Ġnum er
Ġdist ract
Ġv s
Ġoper ate
g ant
er g
Ġshap ed
ic les
Ġsc an
Ġattach ment
Ġauth entic
w ish
Ġem b
ug gle
Ġhead phone
Ġst ere
ot es
Ġstea m
Ġloo sen
Ġluck y
Ġse lect
Ġga uge
Ġappro ach
Ġener gy
Ġd ance
Ġp ath
Ġal ign
Ġchr ome
es y
Ġhero ine
Ġor d
Ġfan cy
li ked
Ġsmell ed
Ġj ames
es ter
Ġcol our
Ġun even
Ġimp act
Ġdo ors
Ġhes it
Ġopen er
Ġsk im
Ġcontain ers
Ġsmooth ly
p a
Ġm ass
oth ers
Ġga p
Ġsli ps
Ġe li
Ġw w
Ġab solute
Ġexp lo
Ġtight ly
Ġpan el
Ġconcer n
Ġalumin um
Ġtop ic
Ġmicro phone
Ġgent le
Ġrecei ver
ick s
Ġlisten ed
m at
Ġwash er
Ġcar b
sh o
Ġtri ps
Ġsport s
Ġen v
gg ing
ct or
Ġsh allow
Ġsugg ested
Ġto ile
y y
Ġhum id
e xt
Ġdri ves
Ġp ark
Ġp ics
Ġti mer
Ġton s
Ġrechar ge
Ġb io
Ġx box
Ġexerc ise
Ġlast ing
Ġcreat ed
o on
p ens
l on
Ġam p
Ġb ang
Ġsli pping
Ġhapp ier
Ġstr uct
Ġme ets
Ġpenc ils
Ġro pe
Ġstur d
Ġble w
Ġcalend ar
o ds
h as
so ft
Ġter rific
Ġpresent ed
i ans
Ġrep res
Ġlack s
Ġo w
Ġstr uggle
Ġapp s
Ġfor g
d el
Ġp itch
Ġti es
Ġpolic y
Ġj ud
Ġrecogn ize
Ġtab s
Ġnew er
Ġcont ents
Ġtouch ing
Ġc ub
f r
um my
Ġt ent
ag on
Ġmain ly
g l
Ġr ice
Ġid eal
Ġdi ame
Ġcontro ls
Ġhappen ing
Ġclos ure
Ġroll s
Ġb atch
Ġar r
Ġport r
al k
Ġche ese
Ġsna ps
Ġumbre lla
Ġinsp iring
Ġfor ced
re l
Ġsh attered
Ġchick en
Ġm p
Ġt ack
Ġad mit
Ġth umb
Ġle ash
i est
Ġimag ination
Ġe mer
Ġflavor s
Ġbus y
Ġta p
Ġdes ired
Ġdocum ent
Ġdis k
Ġmil itary
Ġcrack s
Ġaccept able
Ġr ushed
Ġsound ed
Ġout put
Ġcl amp
Ġresist ant
Ġnumer ous
Ġfort un
Ġenc ou
Ġpain ting
Ġpain ful
ag ra
Ġted ious
Ġfa uc
Ġbr acket
l a
or k
Ġgr ass
od es
Ġcand les
Ġl aces
Ġtechn ical
r ation
unk y
Ġwood en
Ġdiame ter
p ted
Ġser ved
Ġg all
Ġchann els
u ine
Ġun ne
Ġsearch ing
Ġprep ared
Ġcom for
Ġmark ers
h er
Ġpri m
Ġre v
Ġconc lus
Ġcle ver
Ġcr ooked
Ġsew ing
Ġmic row
Ġsqu eak
Ġcomp et
Ġplay ers
Ġcho ices
Ġcraf ts
Ġeuro pe
Ġprin ts
Ġtoile t
Ġbo lt
Ġpen ny
n ever
Ġconf used
Ġallow ed
Ġhold ers
in a
Ġcal f
ent al
r ical
Ġher self
Ġb ree
ur ity
ap an
Ġter m
Ġy o
Ġex tend
Ġansw ers
Ġblur ry
Ġf ile
Ġsc i
Ġcapt iv
Ġg ps
Ġtri es
Ġj apan
um bs
Ġpick s
Ġremind s
Ġgen uine
Ġrec ent
Ġproduct ion
Ġfl ap
Ġha m
ro id
Ġcons um
Ġcap ac
Ġsepar ated
Ġmess ed
Ġsoon er
Ġte x
Ġf lor
Ġenv ir
Ġspo il
Ġund one
a ur
Ġwhen ever
Ġdet ect
Ġcan ce
Ġele gant
Ġthought s
ad o
Ġreturn s
Ġdisco vered
ast y
Ġinclud es
Ġcla ims
Ġtech no
Ġprov o
Ġtechn i
Ġegg s
Ġbrilli ant
Ġcomp an
Ġmyster ies
Ġb un
Ġappreci ated
Ġact ive
Ġche esy
ch ild
Ġimpro ved
Ġh em
Ġty pos
Ġnow here
Ġlist ing
ber ry
Ġhor ror
Ġscar f
Ġbegin ners
Ġc ow
x ic
Ġp un
Ġcompart ment
Ġn ature
Ġst om
Ġpurpo ses
id a
Ġwar ped
Ġps y
Ġfol ks
Ġfil es
Ġther m
Ġemb arr
Ġresp ons
s im
Ġmem ories
ilar ious
ar ted
Ġpet ite
Ġoccas ionally
Ġwatch es
Ġroo my
Ġloc ation
Ġsuspense ful
Ġsh ield
in ary
Ġblo cks
ea h
Ġv est
o de
Ġas king
Ġrep ort
Ġun ra
Ġfrustr ated
in c
Ġem p
ext remely
Ġsand al
Ġlabel ed
Ġexpo sed
Ġl em
Ġdeg ree
Ġl ic
Ġw es
Ġmagaz ine
Ġback up
Ġtyp ically
Ġuni vers
a kes
Ġenvir on
less ly
Ġotter box
Ġinter ior
Ġp it
Ġdiffic ulty
Ġmo b
Ġqu een
Ġfill ing
Ġchalleng ing
Ġgoo gle
Ġand roid
Ġli p
Ġpl ates
Ġmain tain
se y
Ġsp read
Ġp ans
Ġprodu ce
Ġholid ay
Ġpe pper
Ġdescri be
Ġscratch y
p ers
an cy
Ġy a
Ġcra ppy
Ġst ress
Ġhelp ing
Ġd umb
Ġsh ades
Ġfli ght
Ġepis odes
Ġde eper
Ġconnect ions
Ġdis g
Ġdrink ing
Ġcomfor ter
Ġconnect ing
Ġele ment
Ġmot ion
Ġembarr ass
Ġdis ney
Ġpro p
Ġer a
Ġprovo king
Ġres ource
Ġgramm ar
Ġpr ay
Ġg ross
Ġrelationsh ips
Ġsh ine
Ġfl ower
v i
Ġhi king
Ġro cks
Ġdet ach
Ġresol ution
u le
Ġext ension
Ġstar ter
Ġbud get
am s
Ġdownlo aded
Ġmu ff
Ġint ense
Ġh ide
tern al
Ġmat s
may be
Ġcook ies
Ġfe ar
Ġca ge
v a
Ġpublish ed
Ġentertain ment
Ġj es
return ed
Ġwhat so
p or
Ġmar ked
Ġst ack
Ġmess y
Ġrare ly
Ġas ide
Ġma p
Ġbe lly
Ġcom edy
Ġgl itter
v as
Ġsurpr ises
Ġdri vers
Ġpe nd
Ġunus ual
l ots
Ġd ies
Ġdeli ver
ve t
Ġfra mes
Ġintro duction
ic ial
Ġcou ch
Ġa lex
Ġpost ed
ho ld
Ġwhatso ever
Ġneed ing
Ġcris p
Ġfauc et
Ġwr it
Ġresearch ed
Ġdra gged
Ġmicrow ave
Ġchall en
l ers
Ġpre c
re st
Ġsto ve
er n
am ond
Ġassemb led
Ġk en
Ġdraw back
Ġcl iff
sh e
Ġt ension
Ġsurprising ly
Ġro ber
Ġconsist ent
Ġslee k
um s
Ġpro gress
Ġsou th
ist ry
Ġsu p
Ġpri v
Ġburn ing
Ġdepress ing
Ġw rench
Ġh id
Ġsubst ance
Ġwe ld
ho st
Ġtast y
Ġepis ode
Ġadjust ed
Ġflo ors
Ġnail s
Ġg host
Ġger man
Ġex cess
s ound
Ġunre al
Ġdo ck
Ġqu ar
oc re
is ion
m ar
Ġlo cks
Ġdi amond
graph y
Ġunra vel
Ġkn ees
Ġconnect ors
Ġstom ach
Ġalbum s
art s
Ġpleas antly
Ġcult ure
st r
Ġcurtain s
Ġun plug
Ġsec urity
Ġteach ing
Ġswitch ed
Ġse ctions
Ġdis pens
Ġgener ic
Ġlab els
Ġinc om
ul es
Ġwa x
Ġret ail
Ġro ller
ic ted
Ġsubst ant
Ġju ice
Ġla me
Ġgrand child
Ġind icated
Ġreve al
Ġp ear
mm ing
Ġwall s
Ġgri ps
Ġthigh s
Ġh ilarious
Ġthink s
Ġemot ional
Ġmoun tain
Ġfinish ing
c s
Ġdro pping
Ġref ill
t ot
Ġvis ual
Ġw iring
Ġinst rum
Ġa ch
p res
Ġwill ing
Ġbu gs
c ur
on y
Ġbr it
s ure
Ġmin s
Ġchallen ge
Ġad a
Ġstre et
Ġsn ag
c d
Ġabsor b
n ight
Ġw est
Ġup side
x ious
ess ed
Ġemot ions
Ġr out
Ġunder wear
o logy
r ound
ther n
Ġimpress ion
und red
Ġst amp
Ġdis a
Ġh om
b atter
Ġc in
Ġprotect ing
Ġw ip
Ġdec ide
Ġres id
Ġlevel s
b ow
Ġra w
Ġsou l
Ġh undred
Ġchew ed
Ġdiss atisfied
Ġbu ds
Ġstri ps
Ġdec al
Ġwes tern
Ġcapac ity
Ġsco pe
if ier
Ġfa ulty
Ġra m
Ġregard ing
Ġtall er
Ġsquee ze
Ġex ternal
Ġtast ing
Ġg ain
Ġroll ed
vis ion
Ġz omb
Ġso cket
Ġmich a
Ġreview er
Ġbu ff
Ġaccident ally
Ġan ge
li es
res hing
sh ip
Ġun st
Ġgr own
in er
iz ation
Ġenviron ment
l ow
Ġman aged
Ġinstall ment
Ġhor se
Ġexperi ences
Ġbe ll
am ps
Ġhur ts
Ġele ments
Ġhe y
Ġbr as
ain t
Ġlink s
Ġtext book
ific ation
Ġrefer ences
Ġw ink
Ġun a
Ġpr ices
w ar
Ġless ons
Ġhalf way
Ġti ed
Ġsol ar
Ġcamer as
r al
Ġhang s
Ġupd ated
s ize
Ġte le
ach e
ter ed
wor st
Ġs oo
Ġchann el
Ġburn t
Ġmeasure d
y es
on ce
Ġdish es
Ġv amp
Ġr isk
Ġb in
Ġbow ls
Ġhous ing
Ġreason s
Ġbe e
um es
Ġflo ps
Ġco re
Ġview ing
Ġsmo ke
cer y
Ġm i
xt ure
Ġro lling
Ġjour n
am a
Ġf if
Ġadv anced
Ġbree ze
Ġlock ing
i en
c orn
Ġwrit ers
Ġsur round
Ġper man
Ġex ec
Ġdisc uss
Ġlo ver
Ġdepend ing
b re
Ġrandom ly
Ġref reshing
Ġstay ing
Ġcra ft
b ul
g ain
Ġada pt
o ff
Ġo pp
Ġshe er
s orry
Ġas h
Ġadv ise
Ġrepe at
Ġsp ea
Ġv ict
Ġev il
Ġs our
Ġh anger
d a
d ri
Ġcomp on
Ġconclus ion
Ġmatch ing
Ġab use
Ġwo bb
Ġinte ll
st o
Ġdrink s
Ġcompar ison
Ġcond itions
Ġtrail er
Ġsuper b
Ġshr unk
Ġsty les
Ġmedi ocre
Ġintern al
Ġfold s
Ġrub bed
Ġdanger ous
Ġmem bers
Ġab rupt
Ġdisg ust
Ġpe ace
Ġearbud s
Ġintro du
Ġbind ing
ar a
Ġfr idge
Ġpe an
tw o
Ġs ided
Ġvers at
r as
Ġlad ies
Ġpolit ical
Ġgro cery
Ġshel ves
Ġregard less
Ġhe ater
Ġse a
Ġle e
Ġass ume
wh el
Ġdv ds
ire s
Ġhr s
Ġl int
Ġple asure
look ed
or ms
Ġdress es
ga ve
Ġpad ded
Ġd ented
Ġy arn
Ġr at
Ġcan vas
Ġcharg ers
Ġw are
Ġm as
Ġre nt
Ġgreat ly
Ġsec ret
Ġsturd ier
Ġsk ills
Ġhar ry
Ġdece iving
Ġbar gain
Ġemer g
z zy
Ġcomp re
Ġlin ed
im ate
Ġcryst al
Ġfor d
zz le
Ġh oney
Ġcontin ued
Ġmot iv
Ġunne cessary
Ġdo zen
il ities
y al
Ġfunction ality
Ġly ric
Ġop ens
u able
b ag
Ġal ive
en er
Ġnew s
sh ield
fun ction
ak er
Ġpo pping
Ġappro x
Ġinvest ment
Ġr ow
ie f
Ġmist akes
Ġkind s
Ġsol ve
Ġco zy
Ġeven ing
Ġsu mm
Ġvis it
Ġgrind er
Ġbe ats
Ġshoot ing
Ġda vid
r ated
Ġpack ages
Ġtechno logy
v o
Ġ vert
Ġfly ing
Ġsam ple
Ġank les
Ġst ale
Ġnarr ative
Ġsc iss
id ence
Ġch alk
Ġdry ing
f ant
Ġsepar ately
Ġfr ank
Ġpick y
a i
Ġfood s
Ġyr s
ot a
Ġtrick y
Ġje ep
Ġlaugh ed
Ġexplain ed
Ġli l
Ġrefund ed
Ġconcept s
Ġinter m
Ġf ade
Ġrele ased
Ġinser ts
Ġnet work
ea ble
Ġpoly ester
Ġfail s
ome ter
Ġmoist ure
Ġc iv
Ġexplan ation
Ġbl ah
Ġsc uff
Ġbro ad
Ġob ject
Ġjes us
Ġi i
Ġto ast
t ried
Ġmedi a
Ġseason s
Ġy ork
Ġexp ress
Ġpush ed
a ps
Ġbat tle
Ġm ur
Ġcor n
Ġlo aded
Ġadvert is
wh y
Ġglo ss
Ġmotor cy
Ġswim ming
Ġlem on
v ant
Ġdr ug
Ġstep h
Ġo ct
pt ive
Ġtw isted
Ġt uck
Ġin se
ra p
Ġimpress ive
fant astic
Ġviol ence
Ġregular ly
Ġconsider ed
eti me
r un
Ġbas is
ard s
Ġstrong ly
Ġkill er
Ġde le
Ġen th
y er
on ge
Ġwind shield
j unk
Ġsk ill
z ed
Ġread able
Ġtrans p
Ġj uly
Ġinsight s
Ġadvent ures
Ġto ward
Ġcontain ed
Ġinsight ful
Ġstere o
Ġtri pod
Ġpl ots
Ġvol t
Ġed itor
Ġho nda
Ġvis ion
at able
Ġlack ed
Ġdelight ful
at ical
Ġsp ect
Ġorgan ic
Ġd s
Ġgi ant
ok ay
Ġjust ice
Ġdisc ount
Ġloc ally
Ġc ds
Ġli e
Ġba king
Ġso c
Ġmat h
Ġwrink les
ist s
Ġassum ed
Ġri bb
light s
Ġny lon
Ġm ile
Ġd ar
ath ers
Ġconnect s
Ġp ig
Ġdin ner
i ers
Ġcop ies
Ġrel ated
Ġri pping
Ġse ven
Ġsus pect
Ġit chy
Ġd ated
h ouse
s er
Ġpre gn
Ġpop ular
k ids
n is
air s
ll ers
Ġclass y
Ġy eah
Ġso ci
Ġh ats
Ġbit ter
Ġa ug
Ġpl ush
Ġe ight
Ġr ides
Ġpick ing
Ġve get
Ġt our
Ġjourn al
b es
Ġg ig
Ġhi p
Ġfeel ings
Ġeff icient
Ġintrig ue
Ġv ivid
Ġnot ed
in o
Ġbe an
Ġtor so
Ġsatisf ying
nd ay
Ġfil ms
Ġlock ed
Ġti le
Ġgam ing
Ġse ats
Ġph il
Ġfeed er
Ġdis app
Ġsw ing
Ġbrush es
Ġqu ant
er ry
Ġpop corn
Ġinde ed
wor d
sh i
Ġsneak ers
re ts
Ġstri pped
Ġform ula
Ġski pped
Ġfigure s
Ġbl ind
small er
Ġinter f
Ġwa ke
su ch
Ġdecor ation
Ġr y
Ġpin ch
o ons
Ġle an
Ġf et
Ġind ust
qu es
Ġcut ter
Ġres pect
Ġtag s
e in
c ra
g ger
ore s
Ġra p
Ġfor got
ort un
Ġkill ed
Ġbum per
Ġinst antly
Ġmar ch
Ġsa uce
Ġinc on
Ġconsist ently
ate g
Ġafter no
m any
Ġadjust ing
Ġdo ctor
Ġbecom ing
Ġcrack ing
Ġsu bs
ons ist
Ġesca pe
Ġremind ed
Ġadvertis ement
Ġcri me
ers ome
Ġrust ed
Ġdistract ing
Ġext reme
Ġentertain ed
Ġat e
ong s
Ġsl ick
Ġn ik
Ġlau nd
come nd
io s
Ġbea uty
Ġdefin ately
Ġbra ke
Ġl az
Ġbl ank
Ġd ent
Ġlo vers
Ġany body
Ġsubstant ial
Ġindo or
Ġstandard s
Ġun lock
Ġwar mer
chea ply
iz z
Ġsuggest ions
Ġwar ned
Ġso cial
Ġro le
Ġspe lling
ci ous
b ad
Ġmatch ed
Ġrec comend
pro s
Ġgener ation
Ġlyric s
Ġprodu ced
Ġexerc ises
Ġna v
Ġhand ling
Ġexc it
Ġwrink led
am ed
Ġser ving
Ġl aser
Ġpurch ases
Ġcle ans
Ġcommun ic
Ġspan ish
d ate
Ġrequ ested
Ġcustom ers
ven ience
Ġcheck ing
Ġsudden ly
Ġtal ent
Ġpresent ation
Ġcom ic
Ġfr ay
Ġmicha el
Ġclo sing
Ġdisc s
Ġold s
con om
Ġp ix
Ġdis like
Ġchild hood
Ġstuff ed
Ġinst ant
Ġfl ush
Ġti l
Ġopp ortun
Ġha mmer
Ġsha ke
Ġexch ang
h ol
Ġslo ppy
Ġbe ha
as hing
Ġde ll
Ġnote book
Ġsw ive
Ġfish ing
Ġsk y
Ġelect rical
Ġor nam
ul ated
Ġpower ed
Ġtouch ed
fo ld
install ed
Ġb b
st ick
Ġbright ness
Ġre nder
Ġth umbs
Ġlo ses
Ġsciss ors
Ġbr others
Ġed ited
velo pe
Ġafterno on
Ġsol ved
Ġstruct ure
Ġtun e
Ġbust ed
Ġexp ired
Ġrequ est
Ġsp out
Ġmob ile
ab les
Ġh ence
Ġmed ical
Ġsm ile
Ġneigh bor
l asted
Ġlif etime
Ġunreal istic
Ġcom bo
Ġra z
Ġlat est
i ge
Ġcont r
Ġwobb ly
it ation
Ġca use
Ġme al
Ġident ical
Ġhing e
Ġs en
mo s
Ġw ipe
po int
r up
Ġpuzz les
Ġshort ly
Ġsup erior
Ġinit ial
Ġlead s
Ġs an
Ġcr ushed
Ġe conom
Ġgold en
c ast
Ġdescri ptive
Ġyou th
Ġra ised
Ġstain ed
Ġwork manship
Ġlaund ry
Ġri m
Ġin put
Ġam ong
Ġbas ics
Ġgri pping
Ġse ed
Ġclass room
st arted
Ġresid ue
o h
Ġdeal ing
Ġsuff icient
Ġshock ed
Ġcre ep
ac cur
Ġu gh
Ġtop ics
Ġbu zz
k able
Ġthank fully
Ġtear ing
Ġsing ing
Ġri ve
Ġpass ion
Ġa qu
Ġh an
Ġnav ig
Ġwal ked
Ġa th
Ġhe ating
Ġexcit ement
Ġtrans m
Ġha w
Ġplan e
Ġflor ida
Ġhid den
Ġgramm atical
Ġsign s
Ġthe ory
Ġeven ly
Ġp il
Ġcomput ers
Ġquar ter
l ar
Ġreplacement s
y le
Ġbr ass
Ġch uck
Ġsurf aces
Ġbab ies
ri l
Ġevery time
Ġnone theless
Ġaspect s
Ġtoss ed
Ġgrandchild ren
re ens
Ġbo nd
w atch
Ġjun e
Ġnight s
Ġl u
at ives
Ġdece mber
Ġsyn c
Ġincre ase
d ated
Ġto ner
Ġchem istry
Ġste al
Ġn asty
l en
Ġw i
Ġsmall est
Ġfit bit
il ies
Ġpeel ed
Ġgl are
Ġgall on
Ġx mas
Ġen velope
Ġbra in
Ġble ed
Ġm c
e nd
Ġvo c
x us
Ġoutdo ors
Ġref urb
ent ially
Ġc uff
Ġclar ity
a ks
Ġcy cle
Ġun fortun
Ġwar s
aw ful
Ġrug ged
Ġsurv ive
Ġpot ato
Ġp ushing
Ġk not
Ġhe ck
Ġfro zen
Ġpol ar
mat erial
Ġmotorcy cle
Ġconvers ation
Ġco pper
i me
Ġdraw ers
0 0
ic er
Ġsou p
batter y
Ġunivers al
Ġg um
Ġbl isters
Ġbl own
Ġclose ly
Ġlaugh ing
Ġsp ar
Ġsignific ant
at ically
ll o
co ver
Ġto aster
Ġk itty
Ġlou der
en c
Ġsch ed
Ġsh ots
Ġbre ast
Ġreg ister
Ġess ential
Ġst ations
Ġbor der
Ġall erg
Ġinc onsist
Ġw and
Ġsignific antly
Ġaccom mo
Ġpend ant
Ġb one
st ood
Ġbene fit
Ġtal ented
Ġbe ans
st ory
Ġqu al
Ġmeth od
Ġs ket
Ġma ps
Ġsa ves
sc reen
Ġactiv ities
Ġst un
Ġmem ber
Ġdisa pointed
Ġsca red
Ġl ugg
Ġfeed back
Ġgre ase
i ven
Ġno pe
Ġneed le
Ġwas ting
Ġst ead
Ġap ril
Ġrig id
Ġcent ury
Ġversat ile
Ġm ood
Ġemerg ency
n el
ad a
if ying
oun ts
pr int
re te
Ġwal ks
Ġtrans form
f all
Ġgood ness
f ill
Ġmar ke
i us
Ġcreat ing
Ġso re
Ġover s
Ġfight ing
Ġv ill
Ġapart ment
Ġtrans port
ing ly
Ġany ways
Ġsqu ir
sto pped
Ġco con
Ġbl ink
Ġfu zzy
Ġphys ical
Ġsm ud
gg y
Ġfam ilies
Ġve t
Ġfortun ately
st ill
Ġbr ittle
Ġelectron ic
Ġcook ie
r ate
Ġup right
re g
Ġmu y
Ġloo ps
Ġred u
Ġnot ch
Ġperform ed
Ġbend s
Ġcaptiv ating
v in
Ġtechni ques
Ġtr oub
Ġpress ed
Ġrelax ing
Ġten nis
b et
Ġworth y
al ian
or a
Ġro be
Ġart work
Ġdist ur
Ġke t
Ġle ading
Ġar c
Ġfact or
Ġexplain s
Ġpro s
.. .
Ġrub bing
d om
k a
Ġco s
Ġpl at
Ġme as
Ġteen age
Ġfu el
Ġpar a
Ġqu ir
Ġbo ld
Ġlaz y
Ġfi ber
n ow
Ġcal ves
Ġaccess ory
Ġbl and
Ġmark er
an o
om a
Ġdifferent ly
Ġlo s
Ġcar rier
Ġint act
Ġdr um
Ġeli min
Ġfle e
Ġdy e
Ġcocon ut
Ġaug ust
Ġte ens
Ġflo at
Ġdraw ing
Ġboard s
poor ly
Ġd om
a ked
Ġover view
or ds
pt ical
Ġhang ers
Ġlic ense
Ġm b
Ġne cess
Ġfe e
Ġoccas ional
Ġu k
Ġbar b
Ġdisc over
Ġirrit ating
Ġha z
f a
Ġcompart ments
Ġscratch ing
am ic
Ġneed less
Ġp ets
Ġwh ist
Ġal ph
Ġcom mer
Ġprot agon
Ġsli pped
Ġz oom
v ity
Ġsupp le
Ġtra p
Ġbrit ish
it ors
Ġre in
Ġsc oop
Ġfair y
Ġocc ur
Ġexist ing
ri ger
Ġprof ile
Ġan ch
Ġplan ned
Ġeng aged
Ġce iling
Ġamaz ed
Ġw on
Ġdep art
Ġw ool
b oth
Ġro ot
com ing
Ġjo e
Ġno zzle
ish am
Ġb ib
Ġdispens er
Ġtransl ation
Ġx s
Ġback s
Ġback wards
s is
az z
Ġinter act
th y
Ġref riger
h igh
Ġis land
Ġsl ower
run s
Ġass ist
Ġval uable
Ġre n
Ġtri gger
Ġnor th
Ġcir cle
Ġover night
d ro
Ġwat t
sh ould
Ġpaper back
Ġcompress ion
Ġcon ver
et te
Ġmo s
Ġkn o
Ġcreat es
Ġben ch
us ion
Ġhigh est
Ġsu ited
Ġsha ft
Ġjapan ese
g un
Ġtub es
Ġnik on
ll e
Ġd ed
Ġfluff y
Ġcur ious
Ġstock ing
Ġrecip ient
Ġlugg age
c r
Ġliter ature
Ġski pping
Ġd ual
Ġtight s
b orn
Ġd uck
g ue
Ġh ill
Ġvar i
umb ersome
Ġfo g
Ġkick stand
Ġperi ods
Ġoppo s
Ġfind s
Ġdep ot
Ġult ra
s ent
Ġsm ashed
Ġw ii
Ġin accur
Ġhy pe
m atic
Ġjan uary
Ġund ers
Ġhood ie
Ġour s
Ġown er
Ġintell ig
Ġnur sing
a per
h and
Ġr ac
Ġm ary
st on
Ġapplic ations
Ġrecommend ation
oun tain
Ġch amp
Ġhor ribly
Ġgo gg
Ġa po
Ġb ound
Ġc ents
Ġpl ac
Ġla wn
Ġcompre h
Ġo s
Ġcr ash
Ġv irt
ro ll
ant a
Ġsc reens
bb y
p ing
ing er
ul ate
Ġstore d
Ġfill er
Ġreview ed
Ġfour th
Ġscrew dri
Ġl eds
Ġrelig ious
Ġt read
Ġdrag on
Ġhe ats
Ġst em
Ġweight s
Ġhun ting
Ġgu ar
Ġpract ically
Ġb ite
Ġc ass
Ġbr ackets
Ġun fold
Ġsa ver
Ġn in
Ġround ed
Ġgr isham
p icture
Ġc umbersome
Ġremo vable
Ġopportun ity
Ġdisplay ed
Ġflaw s
Ġsever e
in ting
Ġenc lo
Ġeduc ational
Ġf ountain
Ġmus ical
Ġspirit ual
Ġflee ce
Ġimag ined
Ġl ord
k ins
Ġmanufactur ing
Ġmat te
be ll
Ġmin t
Ġlet ting
Ġcup ca
c ool
Ġw it
Ġgr oo
Ġrub s
Ġsc ient
Ġw ound
Ġw ick
b ig
Ġoper ation
Ġguar ant
ol a
Ġcub es
Ġribb on
Ġsupport ive
h h
w ater
Ġj ars
Ġble nder
jo inted
Ġw itch
Ġautom atically
Ġdisgust ing
o b
Ġd arn
Ġfa v
in ated
Ġla id
Ġdet ective
Ġult imately
Ġpol ice
h el
Ġo un
pl ic
tr ack
Ġcook er
ha ving
Ġl ap
se em
Ġtw in
Ġmon ster
Ġdecor ative
Ġelectron ics
Ġse pt
Ġmeas uring
g ets
Ġp up
Ġadjust ments
ang le
Ġsnug ly
Ġmu d
Ġlay ing
Ġd d
fer ence
Ġjump ing
Ġattempt s
Ġmoun ts
Ġrein for
ag ue
sho es
Ġrefurb ished
Ġhead band
d iff
Ġk ay
qu ick
li m
Ġover whel
Ġar th
Ġstuff ing
Ġsoci ety
v ia
Ġr v
Ġjob s
as se
ri age
Ġret ract
ott en
Ġt act
Ġh itting
e em
act ory
Ġg ad
Ġdis pos
Ġperf orms
Ġpa pers
Ġshif t
Ġexception al
Ġd ot
Ġdi v
com plete
Ġstretch es
Ġinter view
Ġridiculous ly
Ġtre es
Ġse mi
Ġn ine
Ġconc rete
Ġkill ing
Ġinf erior
so ph
Ġaccom pl
et t
Ġri f
Ġcl ut
Ġrh y
Ġc asing
Ġapply ing
Ġcu z
Ġp ipe
Ġli bro
Ġne xus
Ġcir cum
am ent
Ġr ace
Ġclass es
Ġf ond
Ġl an
Ġta ped
Ġpat io
Ġactiv ity
u ation
Ġcare er
Ġzomb ie
Ġp ian
Ġhub by
Ġteen ager
Ġallow ing
Ġtex as
Ġp ots
Ġpa w
ne eded
Ġdeal er
a ld
th etic
Ġlim it
Ġbu en
Ġtong ue
Ġra bb
Ġsell ers
agra ph
Ġstud io
Ġbe er
Ġcheap est
o ld
Ġfail ure
Ġlay ers
Ġpar agraph
Ġout dated
Ġret ain
a ired
Ġenc oun
Ġdis jointed
Ġswitch ing
u nder
Ġst ool
Ġan xious
t it
Ġsw ims
Ġmed ic
Ġhead ache
Ġj umps
Ġbal anced
Ġcoll aps
Ġcl unky
Ġtransp arent
Ġhor n
Ġbend ing
Ġshar ing
ed e
Ġwire d
Ġpa le
Ġhand led
Ġper cent
ont in
Ġhor iz
Ġvan illa
Ġp ist
Ġach ie
Ġw is
Ġfoc used
un ks
Ġspo on
Ġl ite
Ġbu g
Ġli kable
Ġth om
Ġpot ter
ch ool
Ġun cle
Ġd ud
Ġunfortun ate
Ġde b
Ġta x
Ġm elt
Ġdoll s
Ġtyp ing
so les
Ġad m
out s
ick y
Ġoppos ite
c rew
s ca
Ġinspir ational
Ġath let
Ġfoot ball
Ġb ank
Ġst ro
Ġthem ed
Ġrest aur
Ġske ptical
Ġfr an
Ġman ually
Ġgr ate
Ġpan els
Ġfr ayed
Ġcenter ed
Ġbase ball
Ġsp ice
Ġcompar able
Ġpal m
Ġrepres ent
Ġst age
Ġsun light
Ġtab les
lo y
Ġprec ise
amp oo
Ġprom ise
Ġjump ed
Ġreach er
sol id
Ġconc ise
Ġd ump
Ġbe ige
Ġwor dy
Ġl ag
Ġsh ampoo
b oy
Ġr ere
Ġpre t
Ġcl ich
Ġdesk top
Ġs ar
Ġcer amic
Ġswive l
Ġquick er
Ġresist ance
Ġr ise
Ġcar ried
Ġhumor ous
Ġchemical s
Ġdeli vers
Ġpatter son
ear s
Ġh ers
Ġquant ity
Ġun w
Ġfet ched
Ġan aly
Ġlike able
Ġsubst it
Ġh itch
Ġrecei pt
Ġket tle
Ġch ic
Ġbother ed
Ġav id
Ġsal es
Ġsweat shirt
ut ions
Ġfree ze
Ġpsy cho
w aste
Ġcomm and
Ġpoint less
Ġpo d
m ond
Ġpa ul
Ġstead y
Ġb am
Ġjud ge
o ber
Ġpean ut
Ġbar rel
Ġartist s
le ep
Ġsh ad
Ġphotograph y
Ġcal if
Ġas leep
Ġover he
Ġoct ober
Ġstrugg les
c les
Ġbor row
Ġevery body
Ġwin ner
v ior
Ġfla v
b al
Ġholid ays
int age
Ġhing es
m is
Ġsupport s
Ġhur ry
Ġlam ps
Ġeng land
Ġww ii
Ġen h
Ġun if
Ġpres ents
Ġ ven
Ġp ea
Ġrec y
l if
o ir
Ġso ph
Ġspe eds
Ġlar gest
Ġamazing ly
pl ace
Ġcraf ted
il ation
Ġgr ace
Ġinterm itt
Ġbl ess
Ġgas ket
Ġout come
ur ig
Ġgun s
p ical
Ġin no
Ġsound track
Ġfold ing
c u
o soph
ate ur
Ġmat ters
Ġpre v
Ġappeal ing
Ġconcer t
Ġhea ven
del i
Ġdistur bing
Ġf ont
on est
ple ase
co hol
Ġconf ig
Ġphil osoph
Ġpost s
Ġme xic
Ġcall ing
Ġha ll
Ġwho se
Ġga ps
Ġprep are
Ġb ones
Ġc m
Ġcomple ted
ch ers
Ġl um
Ġter min
Ġtoy ota
Ġcru ise
Ġgogg les
ous y
Ġcu be
Ġconf ir
Ġmo on
Ġpost age
Ġoccas ion
Ġad apters
Ġcomp ass
Ġexplan ations
Ġflaw lessly
Ġm ush
Ġtighten ed
pres so
fr om
Ġearr ing
Ġpl a
Ġw ings
Ġe book
ac le
Ġsent ence
Ġv intage
log ical
Ġcalif orn
it a
ch ain
Ġc ous
Ġfli es
Ġtherm ometer
Ġcr unch
Ġcur ve
ul ator
Ġbu nd
Ġbuy ers
Ġred uce
Ġtang led
Ġadv ance
Ġaf ric
Ġattem pted
Ġal cohol
Ġcont em
Ġa id
Ġworth while
com fort
Ġfle as
Ġattach es
Ġtreat ment
il ed
Ġblow ing
Ġg em
Ġdeser ves
Ġcompreh ensive
Ġcan cer
Ġdev ot
Ġconv in
Ġro ast
Ġincom plete
it ude
Ġdec ision
Ġlaugh s
Ġrele vant
Ġc ried
Ġd c
Ġmanufact ured
s ad
Ġleg o
Ġwashing s
Ġang ry
Ġd ots
Ġtal es
d own
ac ular
Ġnove mber
Ġv ary
Ġj im
Ġev ol
Ġto ler
Ġmet all
Ġke urig
Ġlea f
Ġvert ical
Ġpre mi
Ġfi xture
Ġrecogn ized
Ġcam per
Ġcompan ies
Ġst orm
l ines
Ġgar min
Ġperman ent
Ġfreez er
Ġre el
Ġam ateur
t les
Ġbind er
Ġbor n
Ġworkout s
Ġprotagon ist
Ġslight est
Ġaud ience
Ġs isters
ch ing
Ġche ep
Ġve gg
Ġclaim ed
Ġaccommo date
Ġwra pping
Ġsoo o
Ġcaliforn ia
th ank
Ġins pect
Ġmar king
Ġencou ra
ive ly
Ġexpect ation
Ġquir ky
Ġcompon ents
Ġs s
Ġf acing
Ġtest ing
Ġspec s
sim ple
Ġtack y
Ġbu cket
Ġsub tle
Ġsm ith
Ġwaist band
Ġpu pp
Ġdepart ment
Ġsometi me
Ġra iny
Ġpa j
Ġpian o
Ġsuccess ful
Ġmar riage
Ġcarb on
Ġpun ct
Ġs in
Ġout lets
Ġbel ts
Ġchew ing
Ġw il
Ġmicro soft
s ince
Ġcreep y
ch e
Ġcro cs
Ġgo ver
Ġfast en
Ġball oons
Ġsc ott
Ġear phones
ma kes
Ġvamp ire
Ġa x
Ġd ying
Ġe ast
ac cept
Ġmin us
Ġme h
Ġbr on
Ġin tend
Ġho lly
Ġph r
Ġcool ing
Ġord inary
Ġha ha
Ġsu nday
Ġcompli ment
Ġinaccur ate
Ġhand ed
Ġsp aces
Ġkn it
Ġunst able
Ġpl acing
pl aced
Ġletter ing
m ate
Ġsh uts
Ġtable ts
Ġmoder ate
Ġno body
Ġsupp lier
al og
Ġsent ences
al ways
g u
n at
Ġis h
qu it
Ġciv il
Ġres ul
Ġed it
Ġp izz
Ġsound ing
Ġhar sh
f ound
Ġmess ages
Ġn ap
Ġpo et
f ers
Ġre e
se qu
bet ter
Ġdefin ite
Ġacc ent
Ġany time
ab e
Ġdefe ats
g ie
Ġgl itch
Ġl en
Ġsell s
Ġprot ein
Ġhoriz ont
Ġd uct
orm al
Ġrun ner
Ġmod ify
Ġtouch es
Ġent ry
Ġchi pping
Ġmajor ity
or row
at ors
Ġr ules
f ull
Ġpro se
Ġfunction ing
Ġqu il
Ġloc ations
o ps
Ġwe ap
Ġri ps
Ġind ex
Ġinser ted
Ġn ike
Ġlay out
Ġl cd
Ġcollect or
Ġcl amps
Ġsure ly
Ġbo b
Ġwarm th
Ġinsp ired
Ġti m
Ġgu id
ood le
ers hip
Ġcapt ure
Ġpa rent
ger y
Ġb ay
Ġdeser ve
Ġtroub les
Ġcook ed
Ġbath ing
Ġstink s
Ġbr ick
Ġgr an
Ġaccur ately
Ġembarrass ed
Ġrefriger ator
Ġcrafts manship
in est
Ġident ify
Ġstun ning
Ġpo les
Ġrub b
Ġwrist s
Ġprin cess
Ġcon venience
im p
Ġer ase
Ġtar n
Ġpolit ics
t able
Ġr att
Ġt ro
Ġexp ert
Ġsil k
Ġemot ion
Ġovers ized
Ġus ers
Ġpa ired
be ware
Ġcr ow
Ġdri es
Ġt int
Ġj ul
Ġgrow th
Ġtele vision
accept able
Ġchar ming
Ġdiscuss ion
Ġgover n
u a
Ġcli mb
Ġf ading
Ġra il
Ġcal c
Ġpremi um
Ġgrand kids
Ġsharpen er
Ġoriginal s
Ġpar an
Ġlif ting
f air
Ġsca m
f i
Ġd ang
Ġbo se
Ġsh ep
Ġt ort
Ġi v
Ġc it
Ġst rand
Ġwe l
ear ing
Ġs anta
o f
Ġmix ing
k n
uc ing
ld er
Ġj ane
Ġout s
Ġburn s
Ġsl id
ou l
fin ished
Ġext ras
Ġres c
Ġspr ings
Ġpor ch
Ġscrewdri ver
m ark
Ġt ick
Ġdocument ary
Ġc ere
Ġwood s
Ġsystem s
Ġord ers
Ġse als
Ġsc ore
Ġperson ality
s ame
Ġp ile
Ġneed les
Ġswitch es
Ġremain s
Ġp oo
Ġequ al
Ġcommer cial
ind er
Ġbelie f
b oo
Ġr in
Ġref used
Ġm all
Ġcost co
Ġdraw ings
Ġfool ed
Ġpl um
Ġtr unk
Ġru in
Ġencou rage
cra ft
Ġa ux
ie ces
Ġloose ly
Ġstretch ing
ot ic
Ġsp ac
Ġpat ience
Ġbeha vior
Ġinte gr
Ġrender ing
Ġathlet ic
Ġthe rap
Ġjer sey
Ġje an
Ġintrig ued
h ea
Ġen light
Ġstor ing
Ġinterf ace
l ive
Ġl as
Ġin sole
Ġpl iers
Ġbl ast
Ġcr ate
Ġmetall ic
Ġfreez ing
Ġped al
Ġw itty
Ġstory te
Ġm ice
Ġexp lor
Ġm ower
Ġspray ed
re ls
Ġr uss
Ġcr ay
pro b
Ġart ific
Ġcatch ing
Ġraz or
Ġspr ink
Ġprefer ence
Ġdy nam
Ġguest s
Ġdirect ed
Ġsing er
Ġoccas ions
Ġbas ement
Ġplac ement
om en
Ġsh ared
Ġattach ments
Ġj azz
Ġstat ement
fli x
Ġow ning
Ġh int
Ġar my
Ġaccur acy
Ġemail ed
in ct
Ġhigh light
Ġspect acular
m are
Ġexce eded
Ġcushion ing
Ġcon sole
Ġsur gery
Ġdisc ontin
Ġmar ried
Ġresol ved
Ġrespons ive
Ġnet flix
Ġunif orm
Ġrif le
ir ation
Ġdef l
Ġbr idge
Ġf ac
Ġpr oud
Ġact or
Ġv ague
Ġbi kes
and a
Ġbl ows
Ġste ering
Ġc ig
Ġun acceptable
Ġpo inted
Ġhumid ity
iven ess
Ġli ber
Ġj en
Ġr oof
Ġmeasure ment
Ġrh inest
Ġcer t
Ġinconsist ent
Ġdep icted
Ġconsist ency
Ġsimpl istic
Ġc ad
Ġt ut
Ġqu ilt
Ġact ions
Ġtighten ing
Ġbreath able
d ge
Ġsupp lies
Ġrecord ed
Ġrober t
Ġspea king
Ġrep aired
Ġinstrum ent
l ict
Ġjo int
Ġinspir ation
Ġapprox imately
prob ably
f ab
Ġsurv ival
Ġweigh s
Ġwe a
Ġdes ire
Ġstitch ed
Ġbrace lets
Ġh oo
Ġsome body
Ġeng age
p an
Ġbr ist
b as
Ġs ess
Ġbo ss
Ġconf lict
Ġproject or
Ġm ent
Ġsecure d
Ġrev ol
ur dy
umb led
Ġd ice
Ġbo d
Ġhapp ily
Ġmax im
Ġarr ange
Ġit alian
ut en
Ġpart ially
Ġtr ade
Ġtw enty
Ġnight mare
Ġbreak fast
Ġf m
Ġintrodu ced
Ġc rew
ra ction
Ġshap es
us i
te en
Ġreg ion
Ġtun es
Ġdo se
Ġsearch ed
k ers
Ġp am
Ġho sp
Ġsurv ived
Ġjam med
Ġcar ries
Ġbur g
Ġmarke ting
Ġaw a
Ġdan cing
Ġenth usi
Ġswims uit
Ġd ents
Ġta ught
Ġchr on
Ġtodd lers
Ġautom atic
Ġboun ce
h u
tot ally
Ġoil s
g ent
Ġdist ort
Ġte al
Ġf er
Ġt iss
Ġch a
Ġsil ent
com p
Ġartific ial
ic ult
Ġshe ath
Ġgar ment
br uary
ur a
Ġrel ief
Ġdeal s
cl oth
Ġco le
Ġfe bruary
Ġno ises
Ġact ed
Ġbreak er
Ġtal ks
Ġrap id
Ġincon venient
Ġf ence
Ġp ier
se c
Ġas ian
Ġess entially
p u
Ġam using
Ġcommun ity
Ġra mb
Ġportr ay
Ġdri lled
Ġcal ib
Ġhesit ate
Ġfl our
Ġro yal
Ġveh icles
Ġem bro
Ġsat ur
g ic
Ġp i
us ible
Ġn u
Ġthom as
Ġflu id
Ġge orge
Ġstrugg led
Ġkno bs
be ca
Ġflo p
Ġex ha
h onest
ing y
Ġsha kes
Ġle ver
Ġmake up
Ġfreez es
b a
ke eps
Ġadh ere
Ġco ated
wor th
Ġimag in
Ġtre asure
Ġuns crew
ple as
Ġcont rived
gar bage
Ġthe ater
be en
Ġdist orted
Ġpregn ant
ar ies
Ġal mond
Ġreach ed
Ġsupp lied
Ġcomb ined
Ġredu ced
Ġd ough
Ġn ons
Ġme als
Ġf aces
Ġin e
Ġk ong
disappoin ting
Ġfashion ed
w ich
Ġpe ll
love ly
Ġrot ate
Ġal ter
Ġmu gs
Ġwrink le
Ġmon o
Ġri ver
Ġchain s
Ġinfl ated
Ġjo kes
Ġbum ps
Ġa a
Ġmer ch
Ġso lo
Ġco ck
Ġf aint
Ġf ul
Ġbook let
Ġdetach ed
Ġindust ry
Ġembro ider
Ġh ates
Ġro ds
st urdy
Ġexha ust
Ġpl ans
ps on
Ġsupp orted
l ist
Ġunder stood
Ġboo st
Ġfra gr
Ġadv ant
Ġinvest ig
Ġdiss appoin
ag ers
Ġcur ved
ump y
beca use
Ġe b
Ġli es
Ġr ush
Ġbr an
Ġspe ll
ug s
do g
Ġflav ored
me h
Ġnever theless
Ġmix er
Ġbee f
Ġs ac
l ong
Ġlow est
Ġa ustr
ack s
fin ally
Ġe cho
lo ad
Ġfam ous
Ġnove lla
Ġha y
Ġmy th
Ġsupport ing
Ġsou thern
Ġwh om
Ġscen ar
Ġe ats
Ġrem ark
Ġvirt ually
oo per
Ġsand wich
y i
Ġorgan izer
Ġso fa
Ġgen ius
Ġexplain ing
Ġland sca
Ġal to
ou red
ason ic
cept ive
Ġke eper
are n
Ġprov iding
Ġn er
Ġchalleng es
sh ort
Ġwo ven
Ġbring ing
Ġmill ion
Ġornam ent
Ġroo ms
Ġgovern ment
Ġme ter
Ġstrugg ling
Ġst ab
mb ol
Ġindo ors
Ġsu its
Ġprim ary
Ġun finished
Ġfar m
pr ice
iss ion
fe els
Ġche f
Ġsy mbol
Ġcatch es
Ġn erv
honest ly
Ġnerv ous
Ġv ine
Ġremind er
Ġtre mend
Ġup lif
Ġopen ings
Ġkey chain
Ġdu plic
Ġtemp or
Ġparan ormal
re c
Ġtr ays
Ġo live
Ġc ateg
iz es
c ons
Ġgl uten
Ġfill s
Ġne on
Ġpast a
r ist
Ġpress ing
Ġcliff h
Ġd ick
Ġpizz a
Ġgreat er
Ġhard wood
Ġcl ou
Ġcond ens
Ġsec rets
Ġexchang ed
Ġl oun
t aste
Ġsp y
Ġsk ull
Ġf ed
Ġh ors
Ġtom ato
diff icult
Ġarth rit
Ġqu otes
Ġcl ue
Ġra ise
Ġsyn thetic
i el
Ġdimens ional
te xt
Ġtri al
Ġrere ad
Ġg ag
Ġprogra mming
w ire
Ġre act
Ġas us
Ġex ter
Ġwear able
Ġwarm ing
Ġv ir
Ġle vi
Ġadvert ise
br ush
Ġminim um
Ġdri p
Ġdevelop ing
Ġiron ing
nat ural
Ġgra in
Ġoper ating
ot ing
Ġapp li
1 0
Ġsit es
Ġpat ient
Ġtom orrow
Ġreflect ive
Ġdown fall
Ġco ats
Ġte as
Ġsumm ary
Ġhaz ard
Ġhand ful
Ġcomplain ed
Ġsy rup
Ġfra ction
Ġep ic
s low
Ġart icle
Ġobs essed
Ġsteph en
ke l
Ġcl ums
Ġexec ution
Ġholly wood
s om
Ġpist ol
Ġso aked
Ġsu ede
ite ch
Ġstream ing
Ġoppo sed
oo ms
Ġview s
qu ite
Ġbl ues
Ġsour ces
g on
Ġreading s
Ġla ke
Ġdelight ed
Ġrelig ion
Ġexp os
Ġd iction
Ġconf idence
Ġsupple ment
l ent
th in
Ġsil ky
Ġeurope an
f ord
Ġti lt
Ġuni verse
Ġupgr aded
Ġassum ing
Ġrec all
ne w
Ġange l
Ġst ir
Ġwith stand
Ġred eem
e k
h s
Ġt ask
Ġconf ident
Ġtreat ed
Ġvolt age
Ġg ather
ve y
Ġsuggest ion
Ġin j
Ġeng ross
Ġmanufact ure
Ġselect ed
Ġb er
Ġcon cent
Ġmal function
Ġind ian
k u
Ġdescri bes
Ġforg otten
Ġplat form
Ġpo ds
Ġfl ows
ke e
Ġho llow
Ġsa ga
Ġaccess ible
Ġpr ongs
Ġl ousy
Ġpre par
Ġcl oud
Ġhusband s
Ġbreat he
Ġnovel ty
Ġknock ed
Ġfe athers
Ġsc ot
Ġcho ppy
bu y
Ġneigh b
Ġj et
Ġillustr ated
c ling
Ġwill i
Ġf id
Ġthought ful
Ġst ood
Ġoff icial
Ġdist rib
Ġorgan ize
Ġso il
Ġbe am
Ġham mo
pl ed
Ġcush ions
Ġcapt ured
mar ket
i als
are t
Ġhun ter
Ġbam boo
co pe
Ġch ill
pr ints
Ġmar vel
Ġvers us
Ġstud s
Ġsoc cer
ous and
Ġlog itech
Ġcho sen
Ġcontr ast
Ġp ra
Ġpro d
Ġwis dom
Ġsatisf actory
Ġinfl u
Ġin soles
Ġlight ning
Ġth ousand
Ġhope ful
Ġhon or
Ġthri lling
Ġleg al
Ġplan et
Ġprogra ms
Ġspark le
Ġhors es
en ger
Ġcr own
Ġnarr ower
Ġvo ices
Ġass ort
Ġdim mer
Ġdispos able
Ġid i
Ġut ens
Ġcryst als
Ġscrub s
Ġflat ten
Ġski ps
Ġen velop
Ġwra ps
m other
n es
Ġw ing
Ġs word
Ġco ach
Ġsubstit ute
Ġf yi
ill e
Ġnecess arily
o pen
s me
Ġp ul
Ġso da
Ġlight ly
Ġrecharge able
ge nd
Ġprim arily
g iving
Ġrating s
Ġmen u
Ġne ut
Ġpoet ry
Ġn ick
em ber
Ġgrand ma
Ġspill ed
Ġbron ze
Ġpre view
Ġfo il
Ġindic ate
Ġvoc als
Ġpublish er
Ġre verse
Ġca ution
Ġportr ayed
Ġe ager
iz on
ak en
l in
Ġg ate
Ġhe ated
Ġmeet ing
Ġsta ples
Ġeas ter
Ġper o
Ġspray er
Ġsnack s
Ġsept ember
u ate
Ġteach es
Ġre ordered
Ġac ad
Ġcou rage
Ġart icles
Ġprodu ces
Ġhun t
Ġut il
act ually
Ġdem on
Ġlan tern
w anted
seem ed
us ter
Ġexp iration
Ġgrind ing
Ġindivid ually
Ġang les
Ġrepeated ly
Ġassort ment
Ġe lder
Ġus eable
Ġhot el
Ġa im
Ġrober ts
Ġman e
Ġenjoy ment
Ġtra ction
Ġout fits
Ġma h
Ġen sure
Ġdraw s
Ġmem orable
per ate
Ġle gend
Ġfun ky
Ġwig gle
Ġcircum st
Ġsto len
Ġpriv acy
Ġoverwhel ming
b i
Ġbrist les
Ġhosp ital
f elt
l ittle
Ġmach ines
Ġdiscontin ued
Ġb oom
Ġre action
Ġfem in
Ġdin os
Ġg ems
th at
th an
Ġsens it
Ġheav ily
Ġf und
Ġgif ted
Ġthread ed
Ġclums y
Ġfor mer
Ġpl anted
ig an
Ġflaw ed
Ġeffective ly
oun ted
Ġbull et
Ġexter ior
Ġcl ay
Ġsched ule
Ġa ri
Ġre ct
Ġexp lic
Ġclo ses
Ġbegin s
Ġhouse hold
Ġplan ner
Ġlo ads
Ġbl ame
Ġgr asp
Ġred und
tot al
Ġp uff
Ġal ittle
Ġsc ream
Ġcous in
Ġcontin uing
Ġgad get
Ġpo ke
Ġto pper
Ġfro st
Ġd rew
z er
Ġd ys
Ġk itt
Ġburn er
Ġindic ator
in te
am as
Ġvict or
Ġgri pe
Ġorgan ization
Ġtend ency
Ġsqu ea
n ie
ac on
Ġrec ords
Ġjo ints
Ġrep ly
Ġlif est
Ġsl ice
Ġstitch es
Ġver izon
Ġabrupt ly
Ġover se
Ġplug ging
Ġcor k
Ġpow ers
wh o
Ġwo lf
Ġf use
Ġchar l
Ġdele ted
eti mes
Ġw ard
Ġam pl
Ġtra ps
Ġattach ing
Ġrug s
Ġalph a
Ġneighb ors
o ise
Ġseri al
Ġco ins
Ġstud ying
Ġintern ational
Ġremember ed
Ġrabb it
Ġa ust
Ġco in
Ġbu bb
Ġoff ering
Ġbl ower
Ġbed s
Ġdeep ly
some what
Ġmir rors
en omen
Ġint u
Ġinter action
Ġbre ed
Ġsp ills
Ġarri ves
Ġheal ing
Ġvegg ies
Ġflo ppy
Ġknock off
b ar
Ġsa v
Ġpre ach
tain ing
Ġprev ents
Ġc ath
Ġfl esh
Ġtrack ing
Ġveget ables
Ġpr icing
Ġair pl
Ġcabin ets
Ġal ike
ag o
uck s
Ġdra gs
Ġno vice
Ġes presso
ak y
Ġrust ing
Ġspo ons
Ġst er
ur t
Ġsmell ing
com mend
Ġgloss y
Ġvill ain
Ġgr om
Ġincorrect ly
Ġmart in
Ġspoil ed
pleas ant
Ġh tc
Ġad o
Ġpart ies
Ġsub tit
Ġalto gether
ke pt
Ġansw ered
Ġattempt ing
Ġemail s
Ġfrank ly
5 0
shi pping
Ġodd ly
Ġden im
Ġins ane
ci ent
Ġfrustr ation
Ġelement ary
y ard
Ġwa ff
Ġsto pping
Ġrubber y
res p
Ġspec ified
Ġimport antly
Ġfu zz
Ġshred ded
Ġcrit ical
fli msy
b ra
Ġsal ty
Ġhammo ck
in ate
Ġret ro
Ġjack son
l ical
Ġval ues
Ġdisconnect ed
en e
Ġcook s
ma x
Ġfeed ing
Ġspin ning
Ġl onge
Ġinfl ate
Ġadvant age
Ġair port
Ġcre ases
Ġrive ting
h am
Ġli me
Ġpres ident
Ġinse am
Ġachie ve
som etimes
pl astic
Ġcollect ing
Ġst airs
Ġsh ark
Ġbl ouse
Ġhur ting
Ġuplif ting
Ġins ulated
Ġdel ay
Ġdra matic
Ġhesit ant
Ġcart oon
Ġnavig ate
Ġrest art
Ġcra w
Ġfirm ly
Ġsquir rels
Ġacad em
ere ly
Ġde ceptive
id ay
Ġdis aster
Ġstri pes
Ġdiction ary
Ġo ce
Ġbund le
hu ah
Ġgar lic
Ġfrequ ent
Ġlonge vity
Ġun read
Ġcomp os
Ġrestaur ant
Ġit aly
Ġy ummy
Ġtot e
Ġsal ad
Ġanaly sis
Ġas ics
Ġk ink
be at
Ġser v
Ġtemper ed
Ġopt im
Ġexplic it
Ġn ative
Ġmeth ods
Ġl any
Ġchi huah
an ie
Ġele ph
if t
Ġdinos aur
ers on
Ġvol unt
Ġpan asonic
Ġger min
bor ing
Ġeas iest
ress ed
Ġpil ot
re sh
Ġdec als
Ġl ux
if er
Ġtransm itter
ing e
Ġsafe ly
Ġremain ing
Ġin vent
Ġgo al
Ġsew ed
Ġcirc uit
Ġspark ly
Ġoverse as
Ġcontact ing
Ġclick ing
Ġsensit ivity
Ġp ir
Ġvib ration
Ġperform ances
Ġdu vet
u k
Ġm ental
Ġwind y
Ġrep ro
Ġut ter
Ġcrit ic
Ġeb ay
Ġb ush
Ġj aw
Ġman ip
Ġbl ing
Ġtal ked
Ġsh er
Ġste ve
Ġhom es
p red
Ġcon text
sa ve
Ġuns ure
Ġpear l
Ġrhinest ones
Ġgr ows
Ġt umb
Ġsu ck
Ġimm ense
fl ow
Ġmexic o
Ġful fill
Ġe c
Ġde er
Ġcomplain ing
Ġlist s
Ġabsorb ent
Ġal ien
Ġgo pro
Ġown ers
Ġdream s
Ġcompan ion
Ġintellig ent
Ġo ak
Ġthem es
Ġfix ing
us er
Ġconsum ing
ival ent
Ġb ills
Ġu v
Ġtre k
Ġviol ent
Ġrob ust
Ġmos quit
Ġcon vert
Ġsepar ating
ad orable
Ġmass ive
enc ies
Ġsu perf
Ġteen agers
ep ing
Ġmod em
kn own
Ġy uck
Ġcontinu ation
Ġdescri bing
Ġsupposed ly
Ġa es
Ġdeter mine
des cription
Ġscan ner
Ġexp ans
Ġk itten
Ġcontro llers
Ġmanage ment
Ġpray er
Ġf uss
ble m
Ġspir al
z i
Ġfe llow
ca nd
Ġgr anted
Ġcare s
Ġtub ing
Ġexcess ive
Ġre bo
se ll
Ġdisco lored
s ons
Ġlin ers
Ġest im
Ġcomment ary
Ġnew born
Ġdisc us
Ġhome made
Ġoper a
Ġsp onge
Ġrecord ings
Ġbur st
Ġsen ior
f ly
n n
Ġre ly
Ġbl ister
ens ity
Ġfla me
Ġmag ical
Ġrent al
us ive
Ġrel atable
Ġmold ed
Ġsoft en
Ġshep her
Ġlo ading
Ġfriend ship
Ġloo ser
Ġdi agra
Ġcapt ures
Ġwhist le
Ġneut ral
i kes
ree k
Ġba ld
Ġstud ies
Ġscient ific
Ġresol ve
Ġg inger
Ġfa ux
Ġdi ab
Ġpatch es
v ation
Ġre h
Ġtrans action
Ġupd ates
Ġmon itors
Ġcour t
Ġcontem por
is er
Ġbe ad
pack age
Ġbio graphy
Ġcow boy
Ġfollow s
Ġch am
Ġhear ted
Ġtit les
Ġjer ky
Ġo x
uff le
Ġvis or
Ġhorizont al
Ġm ike
Ġp umps
Ġgood will
Ġgener ous
Ġafter wards
Ġflick er
Ġpolish ed
Ġdown s
Ġrout ine
in al
Ġfl ats
Ġsmo king
Ġch ase
Ġult imate
Ġe ve
Ġgrand mother
Ġfl ashing
Ġuns atisfied
Ġenvelop es
Ġd un
Ġsh all
Ġeduc ation
with in
Ġhundred s
ig ible
Ġch erry
Ġv hs
eri zed
Ġche vy
Ġpast e
co al
Ġval ent
Ġprin ci
Ġfore ign
Ġsneak er
Ġe t
Ġwas t
Ġch unks
ven ile
li able
te nder
Ġext ensive
Ġmiss ion
Ġt at
Ġb icy
Ġsh eds
Ġclass ics
Ġchar ms
Ġtra ff
Ġcur l
Ġpr one
Ġhum ans
Ġequ ivalent
Ġun known
Ġbuck les
st op
Ġfr iday
Ġto xic
Ġchar coal
Ġm ens
Ġph enomen
Ġcl ark
Ġl ately
Ġgood s
Ġsol utions
Ġpos itions
Ġcal ories
Ġdiamond s
Ġsc roll
Ġcoll ars
Ġvo ca
read ing
Ġbene fits
Ġass ign
Ġcliffh anger
Ġk o
Ġlad der
pl er
Ġdi aper
Ġla ve
Ġsuit case
Ġtow er
Ġequ ally
ur ally
Ġsp icy
ves ted
Ġtooth p
Ġcontinu ously
j a
Ġag gress
Ġce le
Ġmanufactur ers
Ġresc ue
al es
Ġadd ict
Ġfla ps
Ġtrick s
Ġf ades
st one
Ġj ig
Ġk ore
Ġwriting s
Ġgrab bed
Ġbr ad
Ġins ulation
Ġmeasure s
Ġhero es
so ci
Ġcomp ilation
Ġheart s
Ġoce an
Ġsp ices
Ġactiv ate
Ġanch or
Ġp and
Ġexperi ment
Ġbat man
Ġfray ing
al t
Ġground s
wr ong
Ġsmooth ies
Ġvolunt arily
b ur
Ġb acon
Ġback yard
Ġcontin ually
Ġca ve
Ġwar n
Ġflo ating
Ġjun ior
Ġinde pend
Ġmane u
Ġunread able
Ġun pleasant
Ġscra p
Ġta pes
Ġdecent ly
Ġtre nd
p art
Ġexp ense
Ġint ention
Ġbox er
Ġac ce
Ġpan ca
Ġdem and
Ġbib lical
Ġcontempor ary
Ġf ict
Ġas soci
st ic
Ġir ish
Ġdocum ents
Ġpriv ate
Ġaccompl ish
p ret
Ġp ac
Ġteach ers
in it
al most
Ġcr ank
Ġeng ra
Ġfre ed
Ġtur qu
Ġdefect s
sad ly
Ġcircumst ances
Ġlifest yle
Ġg ust
um ble
Ġt ummy
Ġd ense
Ġz e
Ġju venile
Ġpo nd
ath y
h i
ur ance
ac ute
Ġan ne
pred ictable
r ition
Ġas t
Ġpitch er
Ġintu itive
po inting
pl ate
Ġpix el
Ġre nd
erf ect
Ġimp erfect
Ġwip es
Ġconver ter
r om
Ġsnug g
ta kes
Ġimagin ative
Ġf est
Ġtruck s
st al
ph er
fe ll
Ġpe ter
Ġfle w
m ets
Ġp ip
Ġpres chool
Ġho ly
Ġgu ides
Ġcl as
Ġnut rition
Ġelder ly
c op
Ġch oo
nam on
le ctions
Ġan th
Ġrep ut
Ġscen ery
Ġflex ibility
Ġdissappoin ted
Ġad ore
Ġfo x
Ġmaxim um
ook s
Ġturqu oise
uct ion
Ġcap able
Ġvib r
u its
on a
Ġst ability
Ġcor ro
Ġobject s
Ġt ic
Ġb ake
Ġf oul
Ġclear er
Ġnor a
Ġindic ates
d r
Ġf ri
Ġd ates
Ġg ut
Ġcupca kes
re ll
Ġref ills
Ġz one
Ġcomm it
ood les
and ex
Ġwash able
Ġmar gin
Ġger many
Ġcele br
Ġco des
Ġbu dd
Ġgra iny
Ġbb q
Ġfragr ance
en cing
Ġch op
Ġnons ense
Ġhi ke
Ġtur tle
Ġfr y
Ġma nd
br is
Ġpush es
Ġg ently
Ġv iet
Ġend ings
Ġcin namon
Ġg h
Ġal as
Ġk ate
un it
Ġreveal ed
Ġde bris
Ġke en
Ġm ort
us able
Ġpaj amas
Ġup coming
Ġsp ins
Ġredund ant
Ġbasket ball
Ġpour ing
Ġl ays
Ġcost umes
Ġrepres ented
Ġin vested
Ġrain bow
Ġemp loy
Ġguarant ee
Ġweek ly
Ġspea ks
Ġcr an
Ġem ph
Ġsp ider
Ġm itt
Ġex tender
Ġen em
Ġsp ool
Ġgrou ps
Ġmechan ical
ar ium
Ġan cient
Ġsqu ish
Ġje ff
Ġscuff ed
Ġhan es
Ġchihuah ua
g ers
ar ms
bb ing
Ġhar mon
sec ond
Ġlave nder
Ġar g
ab solute
pl ays
c ut
Ġsee king
Ġwash ers
Ġbed time
Ġrough ly
Ġl es
Ġel bow
Ġse es
Ġvol umes
enjoy able
Ġimmense ly
Ġcon ce
Ġsp andex
Ġware house
Ġp j
Ġind ia
Ġsp ine
Ġrelax ed
Ġemph as
Ġmor al
Ġphotograph s
Ġban ana
Ġalign ed
Ġpro port
Ġac ry
color s
Ġp om
Ġdef i
Ġro ku
Ġba it
Ġsp at
ail s
Ġdig est
Ġdust y
Ġdecor ations
bul ary
a v
Ġtem ps
Ġenlight ening
ch et
Ġloc ated
Ġliter ary
Ġtur key
ot y
Ġca mo
Ġtest s
des pite
Ġvoca bulary
b its
Ġpo ems
nd on
Ġl is
th et
Ġdis ks
ash es
Ġvine gar
s ur
Ġround s
Ġcere al
Ġclas ps
s ters
Ġgrand sons
Ġac qu
ne ed
Ġfitting s
Ġcommunic ation
Ġclou dy
Ġt am
Ġdisco lor
Ġtrans ition
Ġpill s
att ract
m en
w all
Ġt ay
in i
Ġhapp iness
Ġref lection
Ġpain ts
Ġrust y
Ġover come
Ġcar ol
Ġmem oir
Ġocc up
pa per
Ġpath etic
Ġm ate
Ġsh in
Ġref resh
Ġball oon
ma id
Ġregard s
Ġdon ated
Ġgrad er
Ġspar ks
Ġam ounts
Ġac id
Ġcur ves
is ions
Ġres our
Ġres erv
Ġtra ged
Ġmiss pe
Ġjam s
Ġwh is
Ġv ents
Ġmat ure
Ġclo gged
Ġkid ding
Ġti les
Ġhum ming
Ġfi ance
z el
Ġan alog
Ġaud ible
Ġchew er
Ġpam ph
Ġqu art
eri z
Ġsp a
Ġremo val
Ġgre asy
Ġal ert
ma ke
gl ued
Ġb is
Ġrep urch
Ġster ling
u ps
Ġj ones
Ġun interesting
Ġinform ed
Ġconvers ations
Ġshepher d
Ġchew s
d ers
Ġt as
Ġact s
att ach
fi ber
Ġthr ows
p uts
Ġl ind
Ġbe lls
Ġmain ten
Ġleg it
Ġairpl ane
ca ly
Ġes p
Ġremote ly
Ġsubject s
inte gr
l ab
Ġresour ces
w ent
Ġl l
Ġse g
Ġremark able
Ġb omb
Ġso ak
po ff
Ġatt ack
Ġloc ate
Ġg li
an ity
Ġk its
Ġcre ase
Ġyour s
Ġrecommend ing
Ġdepend s
war ming
Ġmaneu ver
Ġdiffer ences
Ġsus pend
Ġcy l
Ġang st
Ġembarrass ing
Ġmarking s
Ġi e
Ġgr id
Ġside ways
Ġsta ple
Ġ ur
ar ian
Ġpred ict
Ġhar m
g as
nd o
Ġr us
il es
Ġbear ing
Ġa aa
Ġbel ong
Ġmedic ine
h al
Ġaddition ally
Ġbear ings
g lass
s ch
ic ious
ap se
Ġther mos
Ġadapt or
abe th
Ġmainten ance
Ġti ming
Ġyard s
Ġt id
Ġsl a
Ġfail ing
Ġtan ks
Ġn amed
Ġho bby
o le
ame l
Ġcent ral
Ġnur se
lar ge
Ġwel come
Ġlany ard
Ġor th
Ġgrate ful
Ġchart s
Ġunre liable
Ġsco ot
Ġtraff ic
Ġsuper natural
Ġneat ly
p ants
Ġdis integr
Ġblend s
Ġpotato es
Ġco aster
Ġt ac
Ġim ple
Ġple asing
Ġcar r
Ġshi ps
Ġbarb ie
t ies
be ing
Ġmicro fiber
Ġclar ks
Ġfav our
Ġlandsca pe
Ġp acket
Ġpass ing
Ġheart bre
Ġcirc les
Ġpant ry
Ġallerg ic
Ġfun n
Ġdefin ed
Ġdress y
ed ding
Ġbe ast
ow ing
Ġpro ved
Ġgo re
Ġcig aret
ag ger
a ii
Ġrepet ition
Ġsharpen ing
Ġscript ure
Ġsevere ly
k o
ren e
Ġd ining
Ġpar is
Ġdownlo ading
Ġflu ke
Ġtempor ary
Ġtay lor
et ly
Ġpro ced
Ġr acing
Ġr asp
Ġsm ok
Ġri poff
Ġpamph let
n on
Ġlo ndon
Ġdon ate
Ġdefi antly
c key
Ġank er
Ġtiss ue
attract ive
p ass
Ġl ect
Ġrespond ed
sho e
Ġchic ago
fab ric
g ia
Ġcr ush
Ġsw allow
ugg ing
Ġphilosoph y
Ġdo a
Ġwe ave
Ġinter pret
Ġarthrit is
Ġp ud
Ġdec ades
Ġsubs cription
Ġpell ets
re m
w a
amaz on
Ġsubtit les
i vers
Ġwr ang
Ġfict ional
i ment
Ġport ra
Ġsurround ing
Ġbuzz ing
Ġt ug
al ia
ic o
se e
Ġp ackets
Ġpo in
Ġpay ed
Ġbri m
Ġho ses
Ġcomple ments
Ġmar sh
Ġshor ted
Ġaggress ive
ot ed
Ġsw ap
as ters
Ġdec isions
Ġcost ly
Ġcord less
Ġo ily
Ġpart ner
Ġwa ve
open ed
Ġfreed om
Ġpro ve
wor king
Ġeli z
re al
Ġf ib
Ġco ast
Ġcon verse
Ġnarr ator
Ġrich ard
Ġcass ette
ge e
Ġpr on
Ġrep orted
Ġpass enger
Ġadv ised
Ġre vers
atch et
shi pped
e ch
st ring
Ġan ts
ag le
Ġspe cially
Ġwom ens
Ġsweat y
Ġacry lic
Ġthe at
Ġb iz
ol ic
Ġh en
Ġter rier
wr itten
Ġtechni que
Ġhaw aii
Ġpupp ies
Ġfemin ine
Ġj um
Ġfl are
Ġquestion able
b ott
Ġm oth
Ġar ts
Ġsto pper
Ġche ated
Ġconsider ably
u gh
Ġcl aw
Ġsat in
Ġsoc kets
Ġgear s
Ġcomb at
n s
Ġd um
Ġimple ment
Ġca kes
Ġcar go
Ġref uses
Ġdet ract
Ġfif ty
Ġr ang
ant e
Ġwish ing
Ġmyster ious
urb an
Ġelimin ate
r ict
id ently
Ġse x
Ġwind s
Ġtravel s
Ġre b
ific ations
Ġfinger prints
Ġcompar ing
Ġtri ple
Ġrem otes
Ġble ach
Ġss d
Ġfor ms
Ġob st
Ġbrush ed
Ġgranddaughter s
Ġmini ature
Ġsilic on
Ġno stal
Ġcont ract
Ġcont rib
Ġflow ing
Ġpersonal ities
Ġcontinu ous
Ġway yy
ans w
Ġspill ing
asse mb
Ġshad ow
e ll
Ġor ch
Ġdef orm
Ġstra in
Ġsus p
Ġconfig ur
we et
Ġchr is
Ġdr one
Ġa unt
Ġlo a
Ġem blem
Ġsch ol
Ġpri mer
Ġbicy cle
Ġag ed
Ġsecond ary
Ġsle pt
Ġunderstand able
Ġstoryte lling
Ġi ke
Ġtrain er
Ġf at
Ġsuggest s
Ġincor por
Ġg m
Ġlo yal
Ġnotice ably
Ġmotor ola
Ġcoll apse
Ġbra kes
Ġtit an
Ġp y
und y
Ġfif th
Ġuncle ar
id as
Ġdo dge
ir l
Ġseem ingly
Ġgr itty
Ġve gan
Ġbe ating
Ġk at
Ġtor que
Ġintermitt ently
Ġho st
per ed
Ġfin an
Ġry an
ac les
Ġr p
Ġdis comfort
Ġsta ff
Ġal ask
Ġbo ston
Ġwond ered
Ġcollect s
Ġha ck
Ġdro id
Ġbed ding
Ġb ark
Ġh ug
Ġg oof
Ġform ed
Ġthread ing
Ġpear ls
u ality
se ver
h art
Ġbun ny
Ġallerg ies
Ġg eared
ad vert
Ġill umin
Ġspray ing
Ġwed ge
fo ot
Ġign ore
Ġn ational
Ġdis plays
Ġwho ever
Ġfashion able
Ġdeter ior
Ġutens ils
Ġd ou
Ġje lly
Ġenclo sed
Ġfig uring
Ġflow ed
Ġmur der
Ġall en
Ġpick up
Ġsold er
Ġtur bo
Ġrat tle
Ġha l
ch er
Ġwor ries
Ġmail ed
Ġfro ze
Ġstea mer
Ġoun ce
Ġcan ister
Ġbo il
Ġviet nam
Ġmold s
Ġstamp ed
Ġtut or
Ġestim ated
Ġthe ses
Ġwh it
Ġout rage
Ġint ric
Ġfl ood
Ġmild ly
Ġhumid ifier
Ġcance l
Ġburg undy
n et
Ġcontact s
Ġameric ans
Ġwo bble
Ġmechan ic
e er
Ġbr id
Ġinf ant
ol uted
nice ly
Ġbuild s
Ġruss ian
Ġpand ora
Ġpr ide
Ġwa aa
Ġfold ers
Ġtin ny
Ġr ul
Ġar oma
Ġcro chet
is sa
Ġexc use
Ġste ep
Ġsort s
every one
Ġcatch y
Ġpsy ch
Ġperman ently
Ġparagraph s
Ġiv ory
answ ered
Ġout line
Ġresul ting
Ġextra ord
Ġat l
Ġtw ins
Ġdist inct
Ġobs c
Ġact ress
Ġcount ries
Ġprofess or
Ġapo caly
Ġclut ch
Ġcateg ory
Ġf ried
Ġc one
Ġskim med
e g
p y
Ġwe ber
fun ny
Ġag gra
Ġcar ing
Ġlapt ops
Ġske chers
Ġped als
Ġc ooper
ab ilities
Ġtri mmer
Ġbr ut
Ġatt itude
Ġfold er
Ġprocess or
Ġflaw less
Ġbrief s
e ase
ar se
Ġfe ather
ple ased
Ġblock ing
ab out
Ġsteph anie
Ġch unky
Ġj ackets
Ġr is
Ġmaster piece
Ġflick ering
Ġdeter m
Ġb m
Ġg or
Ġwat ts
Ġpe gs
Ġirrit ated
Ġwork er
Ġstr ateg
fo llow
Ġstab il
Ġphenomen al
r all
Ġg ee
Ġreview ing
enter taining
bro ken
Ġbud dy
Ġdash board
Ġfli pping
Ġthank ful
Ġarm or
Ġstere oty
Ġcompon ent
Ġst il
Ġoun ces
Ġr ca
Ġpre cious
Ġmagn ifying
Ġmist aken
Ġru ins
Ġbat tles
Ġincre ased
g rand
p ot
re pres
al ed
Ġco il
Ġclo gs
Ġco arse
Ġun ited
Ġe pson
Ġha un
Ġun answered
Ġkind erg
Ġfact ual
Ġsatur day
Ġjust ify
Ġloo sing
Ġmr s
Ġpregn ancy
Ġg own
um a
Ġrecommend ations
com es
Ġrel ie
Ġcli mate
Ġsuff er
Ġsmo other
Ġcompress or
Ġash amed
Ġc ud
Ġh arr
Ġbra ve
Ġst ub
Ġtarn ished
Ġfr ance
Ġfre aking
Ġcro ck
Ġl ying
Ġend less
Ġdisc ounted
Ġcli ents
Ġneckl aces
deli vered
Ġwor ding
Ġnat urally
mp se
Ġps i
Ġmel od
Ġpublic ation
Ġhigh s
Ġdi ary
Ġcur vy
Ġexec uted
Ġaqu arium
Ġawa iting
Ġgli mpse
Ġk h
Ġde w
Ġv it
Ġdisappoin ts
Ġinter ference
Ġcomple t
Ġwo bbles
Ġtun er
str ong
Ġrin se
Ġb out
Ġsh im
Ġun glued
Ġstre aks
Ġtherap y
id ers
and er
Ġcal m
Ġreinfor ce
Ġcar a
Ġcor al
Ġdi ag
Ġest ab
Ġexpand ed
Ġconvin ced
l an
Ġal i
Ġqu ad
Ġbo sch
Ġsw ear
Ġdam p
Ġsun ny
Ġmother board
Ġtemperature s
mis sing
Ġk le
Ġmar ine
a ay
Ġtext ured
Ġtun ing
Ġshred der
Ġweap on
Ġrec onnect
Ġext ract
Ġsk irts
Ġdress ing
Ġhome work
e h
Ġl oom
Ġblan kets
Ġphr ases
oo ps
Ġrubb erized
ro be
Ġsh edding
eri es
Ġdec re
Ġcli max
Ġconv oluted
lim ited
Ġexpans ion
Ġprinci ples
Ġcon sequ
ag ain
v c
am aged
Ġint ent
ne eds
Ġstiff er
Ġtooth brush
Ġj on
Ġdis liked
Ġte nder
Ġbar king
Ġcap ability
b elie
Ġd ive
Ġcorrect ed
wear able
Ġb s
Ġde ar
eri a
Ġher bs
Ġtraged y
Ġph ill
Ġlength s
Ġcreat ivity
Ġarm band
Ġsoooo o
Ġaffect ed
Ġkinderg art
c ar
Ġfound ation
Ġlif es
Ġlu ke
r ooms
Ġd read
ow ed
Ġwork book
Ġel igible
function al
Ġeliz abeth
Ġru le
Ġbes ide
Ġgarden ing
z u
Ġcry ing
Ġneighbor hood
Ġn ook
Ġsl ing
Ġdri ven
he ld
Ġge o
Ġkid do
Ġsqueak er
id ents
Ġpro ven
Ġpr y
Ġsur ge
Ġport ions
Ġmi xture
sme lls
l ined
Ġb ows
Ġwater ing
Ġcrunch y
Ġg lor
col n
at ory
Ġpre tend
Ġgra bs
ca re
Ġdes ert
Ġheart warming
Ġsuccess fully
Ġren ted
ivers ary
er ts
Ġtr ite
Ġsp ite
ty pical
w ore
Ġm ason
Ġre ject
ic ity
Ġca pe
Ġbl az
Ġcondition er
Ġmind s
Ġrout e
Ġinst ep
ud os
Ġear piece
Ġingred ient
g en
i ors
Ġsho vel
Ġdress er
Ġblo g
Ġba ked
Ġra ve
Ġaltern ate
Ġc ong
Ġd ip
Ġpad dle
Ġmix es
Ġeat en
Ġeffort s
Ġut ility
Ġunplug ged
Ġn est
Ġcor ny
Ġrepe ats
Ġmuff led
Ġcin em
r ad
Ġw d
Ġsm h
Ġwa isted
Ġdra ins
Ġshr ank
Ġbrew ing
Ġsmud ges
Ġch ore
Ġma kers
Ġbo iling
Ġret ired
Ġday light
Ġlab or
a id
Ġde velo
Ġinc ense
Ġfle a
Ġn oodles
Ġafter market
Ġad idas
Ġgr at
gy pt
Ġdraw string
Ġsaving s
Ġyork ie
Ġn iss
ur d
Ġsty ling
Ġmerch and
er ve
im m
Ġla unch
Ġstuff er
Ġvis iting
sur pr
Ġun wearable
Ġsp ig
Ġperfect ion
Ġgame play
Ġser ver
Ġdress ed
Ġsha king
Ġcol umb
r r
er al
Ġr ash
Ġann iversary
Ġprom ising
d les
st ock
Ġconnect ivity
Ġsy mp
Ġindividual s
Ġmild ew
hold s
inc red
Ġpaw s
b ie
Ġbox y
Ġrequ iring
Ġconfir m
ou ted
Ġdig it
Ġengine ering
Ġsi gh
Ġag re
Ġlin coln
Ġunravel ed
ate gy
ib ilities
Ġrequire ments
t v
Ġe gypt
Ġtra gic
Ġdig ging
Ġtherm al
ur s
Ġpr ison
Ġdi vid
Ġsmart phone
Ġnic kel
Ġniss an
Ġdivid ers
Ġar row
Ġhard cover
Ġjew els
sim ply
Ġunravel ing
Ġb ore
Ġst ating
Ġstr ategy
Ġsha ve
p ieces
Ġso y
Ġset t
Ġour selves
Ġsubs cri
or ig
Ġtable cloth
Ġdro ve
Ġassemb ling
d dy
Ġl ense
Ġg ang
om ic
ri al
ist ics
Ġmis repres
Ġconcern s
Ġzomb ies
e ed
u ous
d ie
Ġ 3
Ġexplo re
s izing
Ġh oop
Ġunlock ed
Ġhar ley
Ġev idence
Ġborrow ed
Ġdis ease
Ġcell phone
Ġtar p
Ġdisconnect s
Ġreveal ing
Ġsee k
ak i
Ġunlike ly
ar re
Ġca red
Ġmess ing
Ġuns atisf
Ġinterview s
Ġha lo
Ġbe gun
atch ed
Ġneck line
Ġsuff ering
Ġsight s
Ġdele te
Ġenth rall
Ġscoot er
Ġd orm
Ġsh ines
Ġcom o
Ġafter taste
Ġref use
go ing
Ġhuman ity
Ġu gg
Ġform al
ff e
Ġstraight en
Ġrack s
complete ly
Ġre vel
Ġj ess
Ġhe llo
Ġdam aging
Ġer gon
Ġcal i
Ġrepair s
Ġmeaning ful
Ġbean ie
Ġestab lish
Ġacc ounts
Ġrevol ution
Ġsa fer
Ġreach ing
Ġfor k
Ġsho ots
Ġwond ers
Ġhands ome
Ġdecor ating
Ġmed itation
Ġsuperf icial
Ġbe ars
Ġbutter fly
Ġencoun tered
than ks
Ġserv ices
Ġmerchand ise
Ġm ph
ll en
ul ating
Ġlim its
Ġign ored
dro p
Ġcalc ulator
ud es
for ward
Ġdecor ate
hea vy
re ck
pr ot
Ġwrang ler
Ġwe al
Ġsho ddy
Ġra ils
Ġpass ages
Ġbas kets
Ġbelie ved
Ġzi pped
Ġredeem ing
Ġcath olic
Ġoff s
Ġexception ally
Ġafric a
b les
w ife
an na
th ree
Ġhun ger
Ġcri mp
Ġt el
ab led
Ġtra ve
Ġvamp ires
Ġenthusi ast
Ġm cc
Ġn it
Ġrot ating
Ġmonth ly
Ġpublish ing
Ġike a
f ect
Ġtr ump
Ġeleph ant
ach es
Ġhand bag
Ġmem or
Ġglo be
l ast
Ġm others
Ġat mos
Ġmus cle
Ġve ter
Ġrepe ating
f ire
Ġo sc
Ġp ity
Ġun c
Ġtheir s
wr iting
Ġo at
Ġmir acle
t om
Ġk ills
Ġfirm ware
Ġsnag s
Ġaustr alia
Ġl ug
fair ly
Ġm oo
ar ing
Ġrec over
Ġpre fers
Ġlog ic
Ġdisapp eared
Ġkn itting
Ġear ned
Ġwhe at
Ġhealth ier
fli es
Ġa ero
Ġadd icted
Ġdirect or
Ġcom ics
a way
Ġdefin ition
Ġdisc ard
Ġsub mit
Ġsign als
Ġoper ated
Ġpla usible
Ġfit ness
Ġcr umb
Ġspo ke
Ġarg um
Ġprof ound
Ġwashing ton
Ġembroider y
Ġdick ies
un less
il ight
Ġstr ict
Ġter ry
Ġliqu ids
Ġcray ons
Ġd arts
ent ation
Ġro ots
Ġer aser
Ġbackpack ing
Ġcirc ulation
Ġconsum er
el ve
Ġtri mming
Ġsn or
Ġcloth s
Ġhonest y
Ġlen o
Ġrasp berry
Ġd er
Ġre usable
Ġpo lo
Ġreturn able
Ġbr ow
fo am
Ġrecie ve
Ġtuck ed
Ġcast ing
k i
Ġpret t
c ases
Ġm oto
Ġtime less
Ġpe els
Ġcar p
wor ds
Ġcut ters
Ġdra gging
Ġfavor s
Ġmic key
Ġphys ically
Ġc el
Ġoff ensive
Ġdri ps
Ġsolid ly
Ġton es
Ġclich e
m ies
Ġsatisf y
Ġrele ases
Ġsar ah
Ġencoura ging
s aw
Ġr atchet
Ġcharact eriz
Ġcoun ting
Ġbiz arre
Ġbr ide
Ġcu is
Ġe th
Ġqual ities
Ġblink ing
Ġpr ince
Ġalign ment
Ġcuff s
Ġh ue
Ġcr ad
Ġmosquit o
Ġsmok er
Ġfinan cial
Ġl uc
Ġto ms
Ġco co
Ġun pack
Ġinter fer
Ġdrug s
Ġaqu a
Ġportray al
Ġcigaret te
Ġsad dle
no xious
Ġat tend
ruct ions
Ġweight ed
Ġther most
r oof
Ġfor ces
Ġun f
Ġap ron
Ġperson s
Ġanim ation
Ġupset ting
Ġcy cling
Ġpean uts
Ġtroubles ho
Ġcert ified
Ġbm w
Ġprofess ionally
Ġguid ance
hal f
j ective
Ġo li
Ġd j
ist a
am i
Ġelectric ity
Ġsa u
Ġfig ur
Ġdesign er
Ġsatisf action
Ġpouch es
Ġreflect s
ie ter
li p
Ġtw ilight
Ġvis ually
land er
Ġspl itting
Ġexplo ded
Ġtat too
Ġfavour ite
Ġrus sell
o e
Ġg ab
Ġpair ing
Ġabs urd
at ly
en ess
Ġsu pr
Ġspeed y
Ġenh ance
Ġint ensity
Ġchild ish
Ġob noxious
Ġsca re
Ġest e
Ġshif ter
Ġgroo ves
Ġdiag no
d f
h ill
Ġw rest
me al
Ġthri llers
Ġdistort ion
a ult
Ġde ca
ade quate
Ġby e
Ġstraight forward
Ġlead er
Ġdisapp ear
Ġengross ing
Ġpart ial
Ġaes thet
Ġalask a
s eri
qu ately
Ġcushion ed
Ġopt ical
Ġcrash es
r ick
Ġoverp ower
l ap
gl ad
n ut
Ġan ec
Ġval id
Ġfire place
Ġlou is
Ġanec d
Ġqu ieter
Ġindust rial
Ġst amps
Ġch unk
Ġspe ech
f ty
l r
Ġal tered
Ġun fl
Ġbox ed
Ġcli pped
Ġmel issa
Ġeconom ical
il og
Ġguard s
Ġre ward
id o
Ġcan ada
z ing
Ġdo s
Ġj r
Ġgo sp
Ġmod es
Ġded icated
Ġmon key
Ġexce lent
Ġsens ors
Ġreport s
Ġprec ision
Ġunders h
Ġcupca ke
Ġwar ri
st airs
Ġnew sp
Ġcar hart
Ġjew ish
bu yer
r ay
re qu
Ġan ime
Ġwork ers
Ġset tle
sh ips
Ġopin ions
Ġdim ension
Ġacce pted
Ġatmos ph
re placed
Ġha ul
bea utifully
Ġprofess ion
Ġsimpl icity
Ġcolour s
Ġange ls
Ġdeterm ined
Ġcr ashed
Ġfli pped
Ġran ger
Ġar mp
ab or
Ġdi y
Ġinspect ion
Ġornam ents
i able
ic able
if ul
Ġcut est
Ġdi me
Ġcompet ition
Ġpump ing
Ġtrash ed
Ġfew er
Ġep ilog
Ġshock ing
Ġarr ows
Ġpea ch
Ġdynam ic
Ġpar all
v ably
Ġam ish
Ġac ou
Ġob tain
Ġev al
Ġafric an
Ġs ed
Ġrest ock
Ġnarr ation
Ġless er
Ġmusic ians
Ġt shirt
Ġg f
Ġnew est
Ġte ller
Ġro s
Ġbulk ier
Ġn i
om s
Ġam b
Ġdefin etly
Ġsk ate
Ġclass ical
Ġformat ting
Ġexist ent
Ġvit am
g les
Ġt b
ll ar
ail ed
Ġremain ed
Ġcult ural
Ġpump kin
high ly
Ġp ly
Ġear phone
Ġtwist ing
ero kee
Ġse lections
Ġret ire
Ġfree ly
Ġinstruct or
rup ted
ic ting
Ġch ances
Ġtw ee
Ġtw elve
Ġsl ices
Ġcrack ers
c led
Ġf aced
Ġd ome
Ġfin icky
Ġpass port
Ġhair s
Ġconv ention
bu ild
Ġprett ier
Ġs inc
orm ous
Ġhous es
Ġsnugg ly
n orm
Ġi phones
Ġgl ance
Ġfre ak
Ġh ints
Ġn ich
Ġconcer ning
Ġexpos ure
Ġmis under
Ġzipper ed
Ġso othing
ign ed
Ġhead ed
Ġtrust ed
Ġst ems
Ġsoft ness
Ġpartic les
Ġlif ted
c ord
x l
Ġis ol
Ġst ew
ir ds
Ġbad ge
Ġcit iz
Ġgo ds
xt ures
Ġreal izing
Ġspr ays
Ġrad i
Ġrequire ment
Ġsharpen ed
Ġcritic ism
Ġrepurch ase
pp le
Ġch er
Ġdan iel
Ġm uted
Ġd ess
us ually
ri ever
Ġch ord
Ġnew ly
Ġwhere ver
Ġmail box
Ġportra it
g orgeous
Ġret riever
Ġprin ters
Ġinstrum ents
Ġschol ar
prot ect
g i
w o
Ġpl un
Ġflag s
Ġindic ation
war ning
m ill
Ġun limited
tend o
Ġcomment ed
Ġwi per
o dy
Ġ 4
oo o
Ġcr umbs
Ġve gas
Ġface book
Ġade quately
Ġheads ets
Ġp acing
oo fer
Ġk udos
Ġsle nder
Ġent re
Ġawkward ly
Ġcara fe
Ġk im
Ġrom ances
Ġart ic
Ġimport ance
init ially
ra in
pt ic
Ġinter tw
Ġchrist ians
Ġs ack
Ġm ute
Ġh ind
Ġworld s
Ġdrag ons
Ġvoc al
o dd
Ġo m
Ġlot ion
Ġbar ley
Ġcap abilities
Ġview ed
Ġdrive way
Ġbran ches
Ġgrom mets
Ġlis a
Ġoutrage ous
a ut
c lass
Ġl ick
Ġk ar
Ġman ages
Ġsn ake
thern et
Ġsac rif
Ġfib ers
d ress
Ġwater ed
Ġsal mon
Ġyog urt
Ġhung ry
seri ously
Ġg reek
Ġdi vers
Ġpract ices
Ġlatch es
Ġintric ate
Ġcame l
Ġweld ed
n ip
Ġp m
Ġlow es
Ġund amaged
Ġsquare s
Ġskim ming
Ġclimb ing
Ġth ro
Ġd ub
Ġch erokee
Ġcapt ain
Ġnin tendo
Ġv ul
ag ree
Ġcl ump
Ġfin s
Ġcaptiv ated
Ġgor illa
out standing
Ġhigh way
Ġmis ses
Ġclick s
Ġmagaz ines
Ġretract able
Ġe thernet
Ġk in
Ġpr icy
Ġab used
Ġim itation
ang ed
Ġi re
ep roof
Ġman s
Ġtra pped
Ġton ight
Ġextraord inary
Ġv ga
Ġboth ers
Ġfoot age
Ġfra med
Ġfrequ ency
Ġpoin ty
Ġepilog ue
Ġso aking
Ġlength y
Ġpink y
i que
z es
or ing
ast es
Ġrep ack
Ġinsp ire
Ġbelief s
Ġramb ling
Ġas ks
Ġmon t
Ġreco very
Ġalex a
Ġc ure
Ġcan op
Ġcl in
Ġgr oom
Ġdev il
Ġsplit ter
Ġrese mb
Ġsess ion
norm ally
is co
Ġha ms
Ġan x
Ġseason ing
Ġsweat ers
Ġpolar ized
Ġli ps
Ġbit es
Ġcr ink
Ġchew y
b ird
Ġla ure
Ġimmedi ate
Ġperform ing
Ġfr uits
Ġlif eproof
Ġthermost at
n ic
Ġcyl inder
Ġo ly
Ġkn ight
Ġcut er
Ġenclo sure
Ġdiagra ms
Ġire land
d ra
Ġn es
Ġn ano
Ġl itt
Ġl ub
Ġbe es
Ġpl ated
Ġtra ctor
Ġsha ving
Ġvel vet
Ġny c
Ġjen n
Ġdemon str
Ġutter ly
Ġspat ula
v ative
Ġchar les
Ġsl icer
Ġdeal t
Ġsus an
Ġtun nel
Ġrhy th
Ġpunct uation
um n
Ġop a
Ġvis ited
Ġdo c
Ġmo nday
ub by
Ġpers pect
Ġblock ed
Ġow l
Ġknot s
Ġsched ul
Ġth irty
Ġdig s
Ġcrow d
w est
Ġha bit
Ġsu v
Ġfl ann
Ġtri angle
app ro
Ġcri min
Ġch at
Ġvan ity
Ġoat meal
Ġd p
Ġon s
Ġcou ples
Ġfla kes
end ed
Ġstrand s
Ġidi ot
Ġward robe
Ġconfigur ation
s ays
Ġal ice
Ġstra iner
Ġbi ased
Ġposs ibilities
Ġstat us
sound s
f ish
f ield
in form
it ious
Ġaw some
Ġcou p
Ġra ch
Ġop ted
Ġinv is
Ġhistor ia
Ġsequ ence
Ġtumb ler
in ations
Ġapp les
Ġwalk er
Ġoccur red
Ġfran c
Ġl p
Ġarch es
Ġsequ els
Ġsuff ered
Ġreinfor ced
Ġpra ise
Ġtoothp aste
p ower
st icks
Ġj ason
Ġhus ky
Ġlog ical
Ġdefe nder
Ġsoph istic
Ġguid el
Ġv ast
Ġro ses
ber ries
Ġty ing
Ġhol mes
Ġunfl attering
th ink
Ġconf usion
Ġgener ations
Ġcirc ular
Ġrob in
Ġfol k
Ġperspect ives
h ot
Ġcon fortable
Ġcat nip
Ġcand ies
Ġopa que
Ġimm ature
Ġcolumb ia
v an
Ġaw e
Ġtri als
Ġinstruct ed
Ġrest rict
Ġwilli ams
Ġm erely
Ġtransform er
re y
ce ed
un es
Ġsw a
Ġfi xtures
Ġforg iveness
deli very
Ġso d
Ġbl oom
Ġmis er
Ġpark er
Ġdefl ated
Ġscenar ios
Ġdri lling
Ġbene f
Ġdeser ved
Ġintrodu ce
Ġanx iety
if es
Ġblack berry
Ġthanks giving
Ġweak er
Ġru ining
Ġsess ions
i vor
Ġcast le
Ġsuck er
b one
u ish
Ġcompass ion
g ate
m ust
Ġwe eds
lo aded
Ġnur s
Ġcrad le
Ġd ing
Ġfin est
Ġcr ude
Ġdark ness
Ġm t
Ġter ror
Ġwind ed
Ġlaw s
Ġgain ed
Ġintermitt ent
Ġdeform ed
Ġflann el
Ġam ber
Ġswe ating
Ġfoot bed
Ġemot ionally
Ġdepend able
Ġcanop y
Ġad s
Ġstar b
Ġreach es
Ġgosp el
Ġinvis ible
ie ndo
Ġill ness
Ġloun ge
ct ors
Ġdes perate
Ġpaper work
Ġspac ious
Ġbe ver
Ġst ich
Ġr f
be it
Ġclo g
he y
Ġ urban
ac ci
Ġsa il
Ġpo ign
Ġtri mmed
Ġclear ance
Ġsom ed
Ġclub s
Ġspark les
f ar
Ġc pu
Ġfe nder
Ġimag ery
Ġwin ters
Ġshrink s
Ġscra pe
Ġcos met
appro pri
d ly
Ġs ate
Ġco asters
Ġread ily
il ty
Ġshe lls
Ġcomp o
Ġcomp rom
Ġdep ict
Ġi con
Ġp k
Ġg s
Ġfabric s
Ġleg os
m r
Ġbag g
Ġres on
Ġfli ms
Ġflavor ful
Ġposition ed
Ġnurs ery
b io
Ġth ong
Ġs ust
Ġh iding
Ġam y
Ġrec order
Ġbuy s
Ġhigh lights
Ġrebo ot
st ore
if ies
Ġactiv ated
Ġdissa pointing
Ġviol in
Ġtremend ous
Ġc c
Ġag ent
Ġdocument ation
Ġinse ct
Ġbi kin
Ġshif ts
Ġassist ance
Ġchoo sing
Ġoly mp
b elt
t astes
w ind
Ġth under
nd ing
le g
Ġfo ll
Ġbar n
ins p
Ġspend s
Ġcoun ts
Ġtel es
Ġp ony
Ġto sh
Ġsa ke
Ġhead lights
Ġattract ed
Ġmold y
a ign
Ġal beit
Ġra mp
Ġflash es
Ġreput ation
v it
Ġgrand aughter
Ġmod ified
Ġprof anity
h uge
r is
Ġa h
su it
Ġstock ings
Ġtechn ically
Ġrob ot
Ġsimpl er
Ġarrange ments
n ies
s light
Ġmo p
Ġbo gged
per haps
Ġmon sters
Ġlea gue
Ġaccompl ished
f ra
Ġmod est
Ġspr out
Ġvalent ine
Ġn ation
Ġco ord
Ġreg rets
Ġmove ments
Ġkindergart en
ut ch
Ġpr ong
Ġsli mmer
Ġlin ux
Ġsurv ivor
Ġanti que
e me
Ġp ion
Ġcan ned
Ġdown hill
Ġsch eme
Ġfortun e
Ġinteract ions
Ġpir ate
Ġtas ks
Ġsomed ay
g led
Ġy ay
ber t
Ġste pped
Ġev o
Ġproof read
Ġappropri ately
Ġloosen ed
p any
le ast
al ing
Ġqu ote
Ġro ads
Ġaccom pany
Ġsqueak y
reg ular
Ġth reat
Ġto ny
Ġbra vo
Ġpill ing
Ġdest ruct
Ġcham ber
j un
Ġha log
Ġle w
Ġm l
Ġfit ment
Ġcl ingy
Ġhistor ic
Ġdis pleased
Ġbutter flies
m ag
ve ment
Ġsh aker
Ġun used
ib a
Ġguarant eed
Ġd ude
Ġguess ed
Ġlead ership
Ġnet ting
Ġaltern atives
Ġrot ation
Ġincon venience
Ġdeca f
Ġrec commend
Ġhead ing
Ġexchang ing
Ġl ing
Ġl one
Ġint ake
Ġt t
ph y
Ġvers es
Ġju icer
Ġleno vo
Ġsust ain
Ġback side
Ġbi king
Ġpract icing
Ġphill ips
in ity
Ġe h
ff ective
look ing
Ġcold er
Ġsam ples
Ġalph ab
ly n
Ġbi en
Ġshut ting
Ġdad dy
Ġspoil er
Ġmuff in
Ġflesh ed
Ġd are
Ġcamp aign
oc ular
Ġb om
Ġmel ting
Ġkitt ens
Ġdevelo ps
h ib
j e
Ġc ement
Ġp oodle
et ti
Ġback ed
ath an
ren ce
Ġseal ing
Ġfasten ers
Ġpanca kes
Ġm f
Ġp iv
Ġv ista
Ġunder water
Ġrom an
Ġinterm edi
Ġgoof y
ea ch
Ġvib rate
Ġcross ed
Ġgrad uation
Ġmoist ur
cand es
Ġs ings
Ġd il
Ġwor ship
Ġtosh iba
Ġpa use
Ġpe ice
Ġinf ect
ha w
Ġsle eps
Ġpri ze
Ġcharl ie
Ġheartbre aking
Ġin candes
Ġread just
Ġdew alt
Ġali ens
ent a
Ġunder wire
d ays
Ġp ine
pl a
book s
cle ar
Ġmel ts
Ġstrateg ies
Ġstil ted
Ġf el
Ġl umpy
Ġsol ving
Ġunb ear
Ġcommunic ate
Ġfr iction
Ġiss ued
Ġcos play
Ġin appropri
li o
ber g
Ġcollect ors
Ġspec ify
Ġfore st
inst ructions
Ġrapid ly
Ġemphas is
l ife
st ation
Ġam ps
Ġen ormous
ven ge
Ġv iv
Ġret rie
Ġcl ancy
Ġcons cious
Ġsold ering
Ġobs erv
Ġbe ep
Ġpre qu
Ġjo in
Ġfli ps
Ġphys ics
ens ions
Ġcl ing
Ġstri ke
Ġpc s
Ġcompet itive
in art
Ġd ug
ur able
Ġill um
Ġsta kes
Ġmud dy
Ġto do
Ġchild s
Ġtoss ing
Ġdeck er
Ġconvin cing
Ġk ern
ted ly
Ġho lo
Ġcop ied
Ġsand isk
Ġweap ons
pl ess
Ġadd iction
Ġexc lus
Ġshred s
Ġtact ical
Ġpsycho logical
b ased
el ed
Ġro les
Ġmom s
Ġir re
Ġsnag ged
Ġprepar ing
Ġindepend ent
Ġstarb ucks
all ey
Ġde an
Ġsa g
om y
Ġst an
Ġtr ading
Ġfo b
Ġproper ty
Ġele v
Ġprogra mmed
t urn
Ġrecom iendo
Ġsp ikes
Ġprom ot
Ġscot ch
zi pper
Ġre aly
un e
Ġback drop
ff in
mm m
Ġroll ers
Ġpitch ed
Ġwaff le
j ud
p at
in n
Ġph ili
Ġdef ense
Ġbald acci
b are
Ġad am
Ġsc attered
wh ite
Ġfish er
Ġimperfect ions
Ġnewsp aper
c ont
v ille
Ġho ckey
Ġid e
Ġbump ed
Ġanch ors
follow ed
in ent
Ġn ud
ic ian
Ġoff ic
Ġsl it
Ġsmell y
Ġinterf ere
Ġenem y
Ġintermedi ate
Ġti pped
Ġke lly
Ġshi pper
Ġlin en
Ġpost ing
Ġguit ars
Ġunivers ity
h us
in is
Ġand rew
Ġst all
Ġbl essed
Ġorgan izing
Ġdetect or
Ġscenar io
Ġpoign ant
Ġsl acks
Ġcut outs
Ġhot ter
Ġheart felt
Ġsort a
sa fe
Ġwo ke
Ġauto bio
Ġwip ed
Ġacadem ic
id ad
Ġloo ses
Ġposs ibility
ama ha
Ġrubb ish
Ġcarhart t
Ġschedul ed
Ġsi g
Ġperf ume
Ġsty ro
Ġcur ios
Ġreli ably
Ġshrink age
Ġbleed ing
Ġresul ted
Ġaggra v
Ġst eak
Ġtrans it
Ġhistor ically
Ġkick s
Ġkay ak
Ġlum ens
Ġaust en
an as
Ġde gr
ising ly
Ġest a
Ġjum bo
m ish
Ġm asc
Ġj a
Ġwho les
Ġbr u
Ġdel ux
Ġglo ck
b urn
ra el
Ġtra ils
Ġcru el
Ġy amaha
Ġj ake
Ġdis sol
hus band
d one
il ton
light weight
Ġcy cles
advert ised
Ġam d
Ġrem ake
Ġcli m
Ġcond uct
Ġspecific ations
Ġl aughter
Ġdri pping
Ġded uct
Ġstool s
Ġam ple
Ġchar ity
Ġcor set
Ġfar ther
Ġra g
Ġseason ed
Ġsold iers
Ġvert ically
Ġunders ide
Ġtomato es
Ġo val
Ġis rael
al a
Ġgl ide
Ġsl ouch
Ġflo ats
Ġdead line
Ġmail ing
Ġds lr
Ġrecy cled
ang ular
Ġgir ly
Ġratt les
i w
Ġb t
Ġn b
Ġit unes
ge ar
Ġcolor ado
Ġaw ard
Ġbooks hel
Ġphotograph er
Ġbe ard
Ġcreat ures
class ic
c at
Ġr ick
Ġcr ust
Ġdi ver
Ġcra mp
Ġtransm ission
Ġevol ution
Ġhen ry
Ġstyro foam
Ġg imm
on ed
Ġli gh
qu et
Ġcomp ens
Ġty po
Ġlau nder
Ġill eg
s weet
act ic
ap ers
Ġexperi encing
Ġskill et
bas ically
Ġsophistic ated
Ġat least
Ġall ot
Ġun imp
Ġgo als
Ġra ising
Ġslee per
Ġalphab et
h um
Ġst enc
Ġres ort
Ġmar io
Ġsharp ie
Ġaddict ive
Ġatmosph ere
Ġbikin i
g ame
Ġapp et
Ġcar amel
Ġrel uct
Ġtv s
Ġem ma
Ġball et
Ġpos ters
Ġciv ic
Ġtarn ish
ab y
Ġcons erv
Ġbas es
Ġassoci ated
Ġreserv oir
Ġjenn ifer
Ġre use
Ġti ger
Ġrem inis
Ġer r
Ġratt ling
Ġtremend ously
Ġre vis
Ġha bits
Ġgu ilty
ak ers
Ġtransl ated
Ġstrict ly
Ġfo ster
wh e
Ġfeature d
Ġstink y
Ġb f
th or
Ġdec iding
Ġlif ts
Ġcream y
Ġcollaps ed
l iner
z ona
Ġc ul
Ġpro ps
Ġsho cks
Ġche e
Ġdoub led
Ġari zona
Ġjo se
Ġcur ls
pos ition
Ġpron oun
Ġre mas
Ġfe b
Ġatt raction
Ġwebs ites
Ġmountain s
Ġnap kins
Ġinj ury
Ġampl ifier
Ġdis cription
Ġcl ues
ath etic
Ġgr ac
Ġhead light
Ġsad ness
Ġjohn ny
Ġmotiv ation
Ġformula ic
Ġcuis inart
Ġlew is
Ġdelux e
Ġbr ooks
oun ting
fe it
Ġann a
Ġg n
Ġr c
Ġlead ers
Ġiron ed
Ġtread mill
n one
Ġr on
Ġste er
Ġch lor
Ġco inc
Ġappro ved
Ġintell ect
Ġveget able
h y
h op
Ġp oured
Ġhe x
cri bed
Ġfra ud
Ġste via
cer tain
Ġree f
Ġcondens ation
us eless
Ġj ay
Ġex agger
Ġag ing
Ġins urance
Ġyet i
Ġmod ification
Ġcho king
t ail
Ġf right
Ġg p
Ġre venge
Ġv ice
Ġfly nn
Ġexerc ising
Ġdevot ional
Ġduplic ate
Ġth ou
Ġin adequate
Ġfla king
Ġgri ppy
Ġspr outed
Ġyellow ish
Ġclos est
Ġabsor bed
Ġk rist
Ġbr ides
Ġra ins
Ġsw iss
Ġnin ja
Ġg rief
Ġro de
Ġunder whel
ont z
Ġpat ri
Ġtun ic
char act
Ġess ays
r ather
Ġloo s
Ġadvert ized
Ġste llar
Ġvar ied
Ġinappropri ate
Ġfe at
Ġlong est
Ġbox ers
ol as
ord ers
Ġpass es
Ġthri ll
Ġfoc uses
Ġshare s
asse mble
Ġpixel ated
Ġtrave lling
Ġincandes cent
ord an
Ġprom ises
Ġass orted
Ġinvol ving
Ġrepresent ation
Ġamateur ish
Ġtic ket
am ing
Ġext ent
Ġacc ents
Ġinv al
Ġliber al
Ġmust ard
Ġpartic ip
Ġbreat hing
Ġformat ted
Ġstraw berry
Ġcurios ity
Ġn erf
Ġhard est
ather ine
ol ves
Ġred em
Ġda ve
Ġinv esting
m ight
Ġat ro
be y
Ġtort ure
resp ond
c able
Ġb ach
Ġim ac
Ġcor por
Ġsuper man
edi a
Ġsub sequ
Ġdist raction
Ġgrind s
Ġod ors
Ġrestock ing
Ġun predictable
Ġcl own
Ġmus cles
Ġper ry
Ġtrans mit
Ġmind ed
Ġmechan ics
g us
g ling
Ġre new
ch a
Ġaw ake
Ġbrand ed
Ġcush y
Ġoverpower ing
Ġrach el
Ġsp it
Ġro cket
Ġbel ongs
Ġcut out
Ġrat io
Ġpsycho logy
Ġglitch es
Ġlub ric
Ġm itch
th a
ist an
Ġback light
Ġwater y
Ġlam inate
Ġw ins
Ġin puts
Ġstory lines
Ġcr ic
Ġdisco very
Ġflight s
Ġagre ed
Ġe co
ld om
Ġcor respond
Ġmis placed
Ġcomple ment
Ġjack s
Ġwin ning
Ġengine er
Ġvari ation
Ġd l
Ġresearch ing
Ġinser ting
Ġgall ons
Ġclut ter
Ġ 2
Ġre attach
Ġha v
Ġup beat
ess ion
Ġtouch screen
Ġass ass
Ġsket chers
Ġsmud ge
Ġconfir med
f ine
p ill
Ġn ieces
Ġbe verage
Ġun comfort
Ġsing ers
Ġbunch ed
Ġbrut al
Ġacou stic
au ght
ol ine
Ġmusic ian
Ġhur ric
Ġprocess ed
Ġnephew s
Ġt u
al o
Ġsh ri
Ġri b
Ġbin ocular
Ġbod ies
slight ly
1 50
c as
o logical
ul ations
Ġprov ider
Ġsilver ado
min ation
Ġinflu ence
Ġbl ad
Ġgu in
Ġtem plate
Ġappli ance
fr ont
Ġmb ps
Ġmush y
d i
or ic
Ġhum our
Ġpat ients
Ġlaw yer
Ġd ea
Ġend earing
Ġpain fully
reme l
Ġaccording ly
Ġflor al
Ġretail er
Ġquil ting
Ġstub born
Ġthro at
y eah
Ġw reck
Ġh atch
it is
Ġab and
Ġdisc ou
Ġfasc inated
Ġthe ories
Ġp est
Ġmo ss
Ġslow ed
Ġdv r
Ġcomb ine
Ġillustr ation
Ġc uss
Ġright s
Ġgre g
Ġspl ash
Ġprod ucing
Ġh dd
Ġl ane
Ġglad ly
Ġhem med
Ġdynam ics
Ġguidel ines
Ġtun ed
Ġjohn son
gl ue
Ġpray ers
Ġwhist les
Ġdinosaur s
r us
Ġd or
Ġsh y
se ller
Ġblood y
Ġsquish y
Ġw iz
Ġd remel
Ġbe loved
Ġpur ses
Ġtra ins
Ġsqu ished
Ġunbelie vably
ut ious
ough ly
Ġca utious
ca m
Ġpo v
Ġdes p
ix ed
Ġintellig ence
Ġcad dy
Ġkore an
Ġrhyth m
Ġcomplain s
Ġpass word
Ġir regular
Ġreorder ing
Ġuncomfort ably
1 2
Ġtough er
Ġsink s
Ġbull dog
Ġcookbook s
Ġin qu
Ġli on
Ġas p
Ġang led
Ġdiscus sed
Ġun attractive
mo vie
Ġpe g
Ġgr it
Ġspe ck
for ce
Ġvis ibility
Ġwea ves
Ġf athers
Ġg ory
Ġfor cing
ly ing
Ġer as
Ġsquee zed
Ġlean ing
Ġre duction
ac o
Ġse ldom
Ġpro ves
Ġle x
Ġdim m
Ġcounter feit
Ġbookshel f
re nd
ain ty
Ġcur ling
Ġinterpret ation
sever al
Ġdepress ion
Ġvict im
ent ials
Ġde but
Ġbr uce
Ġed itions
Ġev ident
Ġwick ed
Ġf ps
Ġf are
Ġm ant
ro ad
Ġsl ap
Ġbunch es
Ġstrange ly
Ġori ented
Ġbri an
Ġfinger print
Ġduplic ates
Ġpro be
Ġr ats
mes ter
Ġmet ric
Ġtravel ed
con nect
Ġdou g
ing ton
Ġke vin
Ġste ven
Ġteen y
Ġkle in
Ġb ern
an cing
Ġcli ent
Ġcontro lled
Ġmagn ific
Ġtang le
Ġmass age
Ġpreach y
gh an
Ġcar ter
Ġpu ps
Ġglow ing
Ġdock ing
Ġwil son
Ġprequ el
Ġj ag
Ġpo ison
Ġv ase
Ġsto le
Ġpar king
Ġjan et
Ġi ced
Ġf ist
Ġh ides
Ġto gg
Ġk aren
Ġwhere as
Ġcard igan
Ġmod ifications
Ġremo del
Ġcomm ut
Ġspin ner
Ġchalleng ed
Ġgroo ve
Ġwilli am
Ġrul er
Ġsa ppy
Ġbl ed
Ġsk id
Ġcreat ion
Ġsand ing
Ġgam er
Ġadm ire
Ġsh atter
Ġr uff
Ġgr u
Ġprepar ation
Ġi os
Ġs q
er ent
Ġd ainty
Ġst im
st ar
Ġal t
Ġup load
Ġinst ance
Ġter ri
Ġhy br
Ġsta pler
Ġdefect ed
Ġthousand s
Ġn ib
Ġl atter
Ġco h
bare ly
Ġredem ption
Ġa ck
Ġsp ouse
Ġgra pe
Ġdr ums
Ġinteract ive
Ġinno cent
aut hor
pla usible
ll as
Ġme ga
Ġmur ders
Ġstro be
Ġproport ion
f ts
z ens
Ġg t
an ne
um ph
any one
Ġdr own
Ġdep iction
graph ical
Ġcrafts man
Ġanecd otes
Ġf ired
Ġc ind
Ġse per
ca mer
Ġkn uck
Ġradio s
Ġbuen o
Ġpac ific
c ore
Ġu m
Ġun se
Ġsp acing
Ġsc ents
Ġdec ade
up date
op rene
Ġchalk board
Ġti mber
Ġdra ined
Ġwra pper
Ġmoder ately
Ġbless ing
Ġdetail ing
Ġcup board
Ġbra ided
Ġproduct o
Ġv a
Ġcr umbled
velop ed
Ġlock er
Ġdoub ts
l ain
er gy
ro s
Ġdo zens
Ġtri umph
Ġcle ared
Ġdim in
he llo
Ġy ea
un like
Ġsl ider
tr ue
Ġdem ons
Ġlam inated
pers on
Ġeager ly
resp ons
w arm
Ġhi kes
Ġsl iced
sh a
stand ard
Ġcli ppers
Ġpast or
Ġcho ke
Ġshar per
Ġtex ts
Ġencoun ter
comp ared
Ġdiscolor ation
Ġweal th
Ġsate ll
Ġunbear able
z a
Ġw reat
Ġsc out
Ġmat ern
Ġmess es
Ġcart oons
Ġdistract ed
Ġutil ize
t ub
Ġm ish
Ġk a
Ġcan non
Ġad j
Ġclean ly
Ġgra ms
Ġweld ing
Ġrive ts
e ve
Ġch ested
Ġv iz
com fy
Ġmar ble
Ġsub w
Ġlate x
Ġstri pe
Ġclick ed
c lo
Ġm ut
Ġin n
ke ys
Ġne oprene
ise x
ball s
Ġge or
Ġtemp ted
Ġcance lled
Ġbe zel
Ġy an
ri an
Ġdis char
Ġhor rific
Ġda wn
Ġprocess ing
Ġchick ens
Ġdiv ider
ot ive
Ġd ans
ul k
Ġexp ed
Ġskim py
Ġpier cing
ca p
li ghter
Ġhead board
Ġspl inter
Ġmile age
Ġhalog en
r ance
y our
Ġp t
Ġbra z
t ight
pl ing
Ġgr ant
bo ots
Ġshel ter
Ġfro g
point ment
Ġundersh irt
an ed
st ra
ack ed
read s
Ġsl am
Ġel vis
bb ie
Ġchew ers
Ġban ter
Ġsquir rel
Ġtroublesho oting
a ver
Ġpl umb
Ġinc ident
Ġsend s
ir able
Ġremo ver
Ġsy m
Ġsat a
Ġreli ability
batter ies
Ġstro ller
Ġkh aki
Ġhams ter
p riced
Ġb ot
Ġcan e
Ġperf or
our s
Ġbr ushing
Ġwish es
Ġstre ets
Ġpl iable
Ġgl uing
Ġje al
Ġpos es
Ġunb i
Ġabsor bing
Ġexpo sing
Ġwrench ing
Ġfull er
Ġtest ament
Ġko ontz
Ġmisspe lled
Ġconvention al
Ġpion eer
Ġi ii
ad er
ur ious
Ġdis m
Ġrep ub
Ġapplic able
Ġhoo ver
Ġsquea king
Ġac er
Ġmedium s
Ġmer rell
Ġflashlight s
Ġrespons ible
Ġtoler ate
Ġt p
Ġe ject
ang ers
Ġmar ath
Ġcons p
Ġincre asing
Ġroot ing
Ġcondens ed
Ġbraz il
b ot
ar i
Ġan at
Ġfunction ed
Ġsold ier
Ġleak age
Ġprop ag
c kets
Ġp vc
al ready
Ġab ilities
Ġdef ault
Ġwar p
up id
Ġdom in
Ġorch est
f asc
Ġk oh
ci a
Ġz en
Ġtit led
Ġconvers ion
Ġboun cing
Ġrestaur ants
f il
Ġp unk
Ġtri b
Ġfil thy
Ġhook ing
Ġmicro s
Ġcompat ibility
Ġtong s
Ġken ned
Ġbuen a
Ġt ester
Ġp uck
Ġma ple
ting uish
Ġim plausible
Ġche er
de f
Ġa ppoin
Ġm ea
Ġre lo
Ġe a
Ġch ili
Ġme llow
Ġbl ake
Ġplay station
Ġshort en
Ġver se
g ri
Ġdo l
un a
Ġpress es
Ġess ence
Ġblend ing
Ġtires ome
fasc inating
h ate
r ich
Ġsh ack
Ġbit ing
Ġsmooth ie
Ġplant ar
Ġmyth ology
Ġdys on
j i
t ry
Ġa ra
Ġprot r
Ġess ay
Ġcult ures
Ġaffect s
Ġle er
Ġrepl ica
Ġel ite
Ġmagn ification
Ġsna pping
Ġsou ps
Ġmoth s
Ġhurric ane
d ling
Ġp df
Ġcl umps
sh irts
Ġdist ances
Ġbene ath
Ġdisconnect ing
Ġspig en
Ġcharacteriz ation
Ġunbi ased
b ows
i pped
Ġsh uffle
Ġun safe
Ġer ic
Ġschool s
Ġflash back
Ġaccom pan
Ġstation ary
Ġguin ea
ch air
Ġrepet itious
Ġstraw s
Ġd ingy
Ġoff icer
Ġchristian ity
Ġtail ored
Ġmal t
Ġpainting s
Ġdies el
Ġcoco a
Ġle vis
au d
be c
Ġimp r
Ġgrand p
Ġbelie ving
Ġval ves
Ġaud i
Ġarm our
Ġlind a
Ġhaun ting
Ġmatern ity
Ġg ummy
Ġdra ft
Ġpillow case
Ġfoc using
Ġrecomend ed
Ġmotiv ated
Ġoccup ied
Ġtime x
Ġsa us
Ġta pered
Ġconsider ation
Ġimprove ments
Ġwit ness
Ġflatten ed
Ġmanip ulate
Ġd ong
Ġse perate
Ġdifficult ies
Ġadvert ises
Ġsun sh
Ġflow y
Ġprevent ing
Ġunfold ed
k ill
s ion
Ġsc ro
Ġbel kin
Ġdel ayed
Ġsand ra
Ġchi me
Ġaddress ed
Ġmarvel ous
i mer
Ġcon ne
Ġte es
Ġfight s
Ġlu cy
Ġbenef icial
ion a
ir k
ul as
uck y
Ġdr astic
Ġconf orm
Ġest ate
Ġblur ay
Ġcontinu ity
Ġcollaps es
b ars
f ather
Ġb ou
Ġo le
Ġm es
ut ter
ro l
Ġgra bbing
Ġpast el
Ġimm ers
Ġglo bal
Ġcre ased
Ġanticip ate
Ġgrad ers
Ġaustr alian
Ġchlor ine
c ard
Ġd ach
on ts
Ġsh am
Ġas ia
Ġbu lly
ck ing
Ġv w
Ġinter ch
Ġmot ors
Ġbus hing
Ġren ting
Ġchamp ion
Ġdiab etic
ic op
az e
Ġsal v
Ġbun gee
Ġefficient ly
Ġarrange ment
Ġsher lock
Ġblad der
ph oto
Ġrest s
Ġcat alog
Ġnor thern
Ġanticip ation
Ġpip es
c ular
h ero
Ġan ger
Ġdes cent
Ġboot ies
Ġhar bor
tr uly
Ġtor ch
Ġtruth s
b right
ton s
Ġpor k
ed ge
it ect
Ġsu e
Ġdi ving
Ġflash y
Ġinno vative
a ph
Ġt s
Ġma z
Ġun isex
ab by
Ġri ms
ud y
Ġhor rend
Ġfix es
Ġcollect ed
Ġkick ed
Ġver ify
Ġmich igan
Ġscuff s
h at
Ġg oose
Ġre do
Ġe po
Ġk ings
Ġreplac es
Ġrid ge
Ġble mish
Ġfilm ed
Ġarch itect
Ġsequ ins
Ġsky pe
Ġmarke ted
Ġintegr ity
Ġegypt ian
Ġlight ed
Ġra ined
Ġsub ar
Ġcall er
Ġquar ters
Ġplun ger
Ġb ins
Ġk iss
Ġhel icop
gg ers
Ġav i
Ġpot entially
Ġvend ors
Ġvari ations
or ker
ie ved
Ġshe en
Ġim ho
Ġes c
Ġfre ight
Ġmold ing
Ġsett led
Ġa very
Ġpo etic
Ġleg acy
Ġboo ster
Ġbang ed
Ġstruct ured
b en
i as
Ġe ater
Ġmuch o
Ġres in
Ġtra ined
Ġod ds
Ġredu ces
n est
r ough
ps ided
Ġunder st
Ġpaj ama
Ġalmond s
l amp
Ġs f
Ġno v
Ġtime line
Ġbi as
Ġelastic ity
Ġspect rum
surpr isingly
i ac
t es
ot on
th es
Ġph ase
Ġexce ed
Ġcho pping
Ġass ess
ho les
Ġblend ed
Ġpro fit
Ġbo bb
Ġswe ats
Ġipad s
Ġkick ing
Ġcance lling
Ġergon omic
Ġkenned y
p arts
Ġp as
Ġsp or
Ġdefin it
iz able
Ġage nda
Ġspot ty
Ġgad gets
Ġpoke mon
Ġlux urious
Ġhybr id
Ġd dd
le ft
Ġst upid
Ġun su
Ġri bs
Ġclean ers
Ġdeal ership
fy ing
Ġghost s
Ġpig s
Ġmoo re
Ġ xt
Ġd ow
Ġsh ining
Ġlo psided
est ruct
Ġho bb
Ġend ure
Ġwaff les
Ġsubscri be
Ġsubar u
Ġw imp
Ġr ider
pe o
sh und
Ġhy dro
Ġstat ue
Ġenthrall ed
camer a
Ġdiff user
Ġview er
Ġfeed ers
Ġbarb ara
Ġcircum ference
Ġdach shund
Ġt ense
re commend
ar ge
Ġon ion
Ġwh im
Ġr ome
Ġoff set
Ġfir mer
Ġhand held
Ġpin ched
Ġdetach able
Ġdar ling
Ġhan na
Ġgh z
Ġb ry
Ġpre fect
te ch
po se
Ġhor rid
Ġdisc lo
Ġenter ing
Ġsign ature
Ġphr ase
Ġstoryte ller
Ġpiv ot
M L
X ML
f al
l ay
Ġb erry
Ġsa ge
Ġreplac eable
Ġdra mat
Ġcap ital
Ġsufficient ly
Ġine ffective
Ġparall el
Ġo reg
it ations
con st
Ġham ilton
hel p
Ġcole man
Ġoreg on
Ġfr ying
Ġun be
do gs
some thing
bas ic
Ġsu cc
Ġk od
Ġma id
Ġrec on
Ġfl atter
Ġexce ll
op ard
Ġanticip ating
Ġdepress ed
Ġemp ire
Ġre install
let te
Ġflick ers
Ġunw ra
Ġengra ving
Ġp on
Ġdis agree
Ġv in
Ġgo d
Ġmar oon
Ġplan es
Ġbath tub
Ġconclus ions
Ġspoil ers
Ġrender ed
Ġwea ving
l iter
Ġl ent
Ġch asing
ine x
am ental
Ġson ic
Ġed ible
Ġfla ir
Ġbreak age
Ġgri lling
Ġsweet ness
Ġimpro per
Ġorgan iz
Ġrechar ging
Ġa ven
Ġdis ci
Ġrec liner
Ġpre jud
po on
Ġboun ces
Ġrecy cle
Ġjess ica
Ġbever ages
Ġbinocular s
not e
Ġart istic
Ġdep loy
Ġste pping
Ġyoung est
Ġwip ing
o ke
u h
Ġt icks
Ġf as
be fore
Ġsha w
Ġslow s
Ġpres ence
Ġdeb ating
Ġj ordan
Ġlea p
ys ter
Ġpin ea
Ġlabel ing
graph ic
Ġmorning s
Ġmill er
Ġanxious ly
Ġlaure n
c ards
Ġrock y
Ġpunch es
Ġopt ics
Ġnavig ation
ano v
Ġmurder er
Ġcrimin al
Ġconne lly
p se
Ġf ian
Ġn ancy
Ġall ergy
Ġcon vey
Ġdown ward
Ġind estruct
Ġpartic le
Ġadvent ur
Ġchrome book
Ġgather ing
Ġb arr
or ie
Ġit ch
Ġe ll
Ġal arms
Ġclean up
Ġansw ering
che ck
Ġd ating
be e
iet ies
Ġpeel er
Ġgrad uate
Ġcompress ed
Ġprogress ed
Ġdisintegr ated
inex pensive
Ġp ug
Ġin ject
Ġr ural
Ġapp lies
Ġsme ared
Ġbul ge
Ġsy no
Ġnear by
Ġfi ghter
Ġess entials
Ġscript ures
Ġengross ed
A I
E M
Ġca ffe
Ġsp aced
Ġjo gging
Ġnight stand
Ġkitt ies
Ġreminis cent
AI L
EM AIL
h is
Ġb aker
st ream
ous es
Ġperiod ically
Ġplant ing
Ġweigh ed
Ġsuspend ers
Ġobsc ure
Ġsubw oofer
d on
Ġc ities
Ġg ou
Ġre ed
Ġpro pe
Ġad min
Ġph ant
Ġle on
Ġbare foot
oc r
Ġworry ing
Ġdum mies
thor oughly
Ġviz io
Ġch ords
oth y
Ġjo sh
Ġremo ves
Ġspec ies
Ġcro p
Ġvir us
en n
Ġsho ps
Ġsign ed
des ign
Ġpunch ed
Ġsusp ension
Ġdong le
c order
Ġm use
Ġch al
Ġbook store
Ġcr um
Ġche ek
Ġcontain ing
Ġtar gets
Ġdar ken
Ġblind s
Ġloun ging
Ġmagnific ent
Ġrepub lic
Ġi cing
er ra
or ant
Ġre app
ra m
Ġun for
au gh
ap or
ract ical
Ġoper ates
Ġgas kets
Ġrect angular
Ġtrib ute
Ġold est
Ġpeo ples
Ġred es
os cope
u pe
y a
Ġdo sent
Ġinf user
ex pensive
Ġbelie ver
Ġappreci ation
uit ous
Ġcomplex ity
Ġprop ane
Ġpuff y
Ġcorro ded
Ġintertw ined
m ic
Ġb ough
ll ey
le ading
Ġr ude
Ġpo em
Ġbr oom
Ġplay back
Ġrefer red
Ġjewel er
Ġjul ia
Ġspor ad
Ġt art
est ry
Ġdis pense
Ġad ams
Ġdes per
Ġfun nel
Ġcar bs
Ġble eds
Ġcri mes
Ġnotebook s
Ġeconom y
Ġhaz el
Ġa ce
Ġj ug
Ġpro ph
ub s
Ġem bo
Ġlat in
Ġoverhe ating
Ġsandwich es
incred ibly
Ġhorrend ous
Ġb our
Ġcom ed
il a
gg ie
Ġcur led
Ġdam ages
Ġupd ating
br ought
Ġimpro ving
ane ously
Ġcatch er
Ġbump y
Ġextend s
Ġfran ch
Ġscrap book
Ġj ung
Ġmu nd
Ġcle ats
Ġro asted
Ġfin er
Ġkey pad
Ġrust ic
Ġsuff ers
Ġcam corder
Ġreve als
Ġforg iving
Ġmaz da
w in
me ter
Ġcon es
po sed
Ġhead rest
Ġref orm
Ġvi be
Ġsmo ked
Ġscar ves
Ġshred ding
Ġmart ial
Ġhoo ps
Ġcraw l
Ġgermin ated
orig inal
Ġvul ner
Ġcosmet ic
n as
Ġa z
Ġdo ctors
Ġfil ing
Ġcoff ees
Ġrequ esting
Ġstack ed
Ġdys functional
Ġcaffe ine
Ġsu m
most ly
Ġseam less
Ġge nder
Ġdem o
Ġpure ly
Ġpale o
Ġnostal gia
Ġtt l
Ġpropag anda
h ose
w eak
Ġrecommend s
cess arily
Ġcal orie
Ġintro duct
Ġlink ed
Ġdestro ying
Ġxx xl
log ies
Ġirrit ate
Ġtherap ist
Ġexplor ing
Ġment ions
Ġch ess
Ġco ax
Ġk ara
Ġcon jun
Ġsa uc
Ġperson a
Ġtil ted
Ġkore a
peo ple
Ġr ite
ain ted
Ġover done
Ġcho pped
Ġshif ting
Ġscan ning
Ġoak ley
Ġaesthet ically
ot ics
Ġre un
Ġsh ears
Ġbu ggy
Ġfl ask
arr hea
Ġbeat les
Ġq c
Ġken nel
Ġpod cast
g ives
v est
Ġm ig
Ġg uts
Ġre position
Ġr otten
Ġde cks
Ġbo iled
ci als
Ġcr ashing
Ġcost ing
Ġdisc re
Ġpres cription
Ġattract s
Ġtextbook s
Ġvill age
Ġine vit
Ġapocaly ptic
Ġsacrif ice
fra me
Ġunimp ressed
Ġh art
Ġdid n
Ġpo inting
Ġtr ace
Ġturn table
Ġdi arrhea
Ġcal ming
pack aging
Ġtick ing
Ġfri lls
Ġs or
Ġsc ifi
Ġfo ggy
Ġblack out
Ġdra ining
vious ly
Ġlive ly
Ġkeyboard s
Ġbill y
wash ed
Ġmas ks
Ġbroad cast
Ġrend ition
i pp
Ġnot icing
the w
Ġinstruct ional
Ġind ul
Ġball ast
Ġvol ts
for ms
co at
Ġsatell ite
Ġa ka
Ġo re
Ġc s
st arts
ib ble
Ġcur ly
Ġvar ieties
Ġski ing
Ġaddress es
Ġhomes chool
l ie
Ġman ga
Ġarri ving
Ġsequ ences
Ġweigh ing
her ent
lab eled
Ġjose ph
Ġgru esome
Ġa er
Ġf ate
Ġk y
ort on
Ġdi apers
Ġanim ated
Ġdon ating
Ġtur tles
Ġconjun ction
m int
s ive
z ers
ar on
Ġan s
Ġhe fty
Ġun opened
no ld
Ġsou ls
Ġbat t
Ġreh ash
Ġkiddo s
Ġp arr
qu in
Ġall e
Ġta upe
Ġring er
Ġmind less
Ġconsider able
Ġboot y
Ġblur red
aren ts
t iny
Ġc us
Ġse mester
Ġpo inter
Ġsec uring
Ġdi vor
Ġrel ay
Ġdry wall
Ġgener ator
Ġrid ges
Ġvent ilation
Ġfranch ise
v s
Ġbe agle
Ġfil ament
ex c
Ġadjust s
Ġcollect ions
Ġnet gear
Ġhy per
ta king
Ġmexic an
Ġswa pped
Ġphant om
Ġs ir
Ġf red
qu is
Ġins ul
Ġvisual s
Ġengra ved
Ġcali ber
Ġb age
Ġbra iner
Ġtele phone
Ġack now
r an
Ġsh abby
Ġpo king
play er
bl ack
Ġdisgust ed
Ġengage ment
Ġsod ium
qu er
Ġmus cular
Ġrom p
Ġsweet ener
Ġupgr ading
fl on
Ġengine ered
Ġscrub bing
Ġmas ters
Ġsprink ler
ke ep
Ġun insp
Ġsc ul
Ġrece pt
Ġatt ic
Ġres ident
ti ps
Ġtreat ing
Ġinstrum ental
Ġconserv ative
charact ers
Ġp eak
Ġfor ks
Ġdefin itive
Ġfore head
arent ly
Ġinsane ly
Ġmisrepres ented
g lasses
or ice
ch rist
Ġga ug
Ġsl icing
Ġspe lled
Ġdi verse
Ġprin c
Ġmac ro
Ġmel ody
Ġvacuum ing
Ġdiss ip
Ġdocum ented
Ġpul p
h ome
Ġsh ams
Ġman ager
Ġfa x
Ġcontro lling
Ġcred ible
Ġmanage able
Ġaim ed
Ġze bra
Ġth a
Ġp uma
Ġh ast
Ġd re
Ġkid na
Ġsent iment
Ġwon ky
Ġnich olas
Ġflims ier
Ġreluct ant
k ia
or ous
Ġj as
Ġal oud
Ġpart ly
we ird
Ġshort ened
Ġlay ering
Ġstri ped
Ġjun iors
Ġuneven ly
Ġportr ays
Ġarth ur
Ġf ought
Ġc ed
ish ing
Ġle ans
be an
im ag
Ġacc ustom
pr is
Ġtra m
Ġrem edy
Ġmom my
over priced
Ġsquea ks
Ġwarri or
Ġtogg le
respons ive
Ġfian c
b irds
p ea
Ġt inted
or gan
Ġin ks
Ġhe ft
and el
Ġsc ented
Ġrel atives
Ġirrit ation
h ist
p ool
x ter
Ġtw ea
ath a
Ġcra ving
Ġmid night
Ġself ie
Ġsole ly
return ing
Ġexplor er
Ġmarath on
Ġepo xy
Ġse ars
Ġcom ical
Ġfe ars
Ġexp ose
li ps
Ġsuper glue
Ġsk ates
Ġob ama
Ġview point
Ġpar ks
Ġcommand s
Ġpj s
Ġautobio graphy
Ġconsp ir
g ift
m ers
Ġa ired
Ġe ct
Ġhard core
Ġint imate
Ġdra pe
Ġself ish
Ġbend able
Ġcarp ets
Ġanat omy
3 2
f ailed
s y
Ġinst al
Ġte flon
Ġappli ances
Ġgrat uitous
Ġwreat h
Ġw agon
Ġd ings
Ġca mi
Ġrecom m
Ġway ne
Ġwa ves
Ġpe ppers
Ġwar ren
Ġel abor
Ġdv i
Ġev anov
Ġaf ghan
Ġspo ken
Ġauthentic ity
Ġhesit ation
Ġunne cessarily
Ġy ield
Ġgrand father
Ġpat rick
Ġnostal gic
Ġindestruct ible
h l
ot ica
Ġl ac
the arted
Ġca pris
Ġover head
Ġcor ks
umb a
Ġfilter ed
Ġsepar ation
Ġna ive
bu ilt
Ġprecise ly
worth less
Ġon ions
Ġch illy
Ġsho el
Ġhead aches
zz les
Ġran ch
Ġsquee zing
Ġdump ed
Ġlux ury
Ġmund ane
c us
Ġf uses
Ġbe ck
Ġun responsive
Ġover looked
Ġte va
Ġmin istry
im a
Ġmine craft
Ġflavor ing
Ġob jective
Ġmad den
Ġreset ting
Ġexplor ation
Ġdistrib ut
Ġne il
Ġrec essed
Ġplastic s
Ġchocol ates
fl ower
Ġconce al
Ġinterch ange
Ġn ada
Ġre build
Ġv oy
Ġcl int
Ġpaper weight
Ġspr int
Ġdisplay ing
Ġbrief ly
Ġwitch es
Ġrabb its
Ġwaaa ay
liter ally
b id
nd e
Ġno kia
Ġhigh lighter
Ġer otica
Ġcoun ty
Ġjam ie
del icious
Ġnecess ity
Ġstan ley
Ġn t
Ġpl odd
Ġde ci
Ġpe ek
ip es
Ġsw ings
Ġknock ing
Ġweld s
Ġenh anced
Ġsinc erely
x x
Ġh ugh
ca ust
Ġfan atic
Ġsal ads
Ġban anas
Ġfunn iest
Ġe lli
st rap
Ġam mo
Ġco z
Ġcount less
Ġmisle ad
Ġcas io
Ġver ified
bul b
hand le
ou lt
Ġdis abled
ind ing
Ġplan ter
Ġexist s
Ġjer ry
Ġuna v
Ġax e
Ġlantern s
Ġrepro duction
Ġkern els
Ġmat thew
Ġgl ory
Ġproblem atic
Ġsuper hero
Ġlunch box
Ġuna ware
Ġversat ility
Ġwatt age
Ġtitan ium
b ri
en na
Ġe agle
Ġsme ar
Ġaware ness
Ġsuff ice
Ġrot ors
Ġtransl uc
Ġhighlight ed
Ġconcent rate
Ġara b
fal se
b ling
ic ation
Ġhard y
Ġfast ened
Ġshi h
Ġz a
Ġcook ware
Ġdoor bell
Ġweak ness
Ġimpro b
Ġmag enta
Ġrock er
Ġident ity
Ġanten nas
Ġtid y
Ġretrie ve
Ġillum ination
Ġevanov ich
Ġsm ash
Ġv alley
Ġcool s
Ġgra vity
Ġimpro ves
Ġindic ating
Ġlic orice
Ġoverhe at
Ġembroider ed
Ġber ries
Ġcave at
Ġprofession als
Ġa ids
Ġse an
ce nd
Ġcon ve
ff ee
Ġwar y
Ġgra vel
Ġlunch es
Ġknowledge able
Ġtransfer red
assemb led
m edi
Ġem ily
Ġgreen ish
Ġimpro v
Ġrese mble
Ġaust in
Ġemploy ees
Ġtac oma
Ġgrandp arents
u el
Ġt ink
Ġhi re
Ġhard back
Ġfinish es
Ġown s
Ġwrist band
Ġdeter mination
Ġsket chy
Ġplum ber
Ġkink s
Ġnud ity
Ġy uk
Ġad op
Ġsp ind
Ġwall ets
Ġsub par
Ġhands et
Ġcell s
Ġneg atives
Ġcounter top
Ġmuff ins
Ġinvestig ation
Ġvictor ia
Ġsaus age
Ġl le
Ġin ver
ic ide
Ġup stairs
un able
Ġcard io
Ġrem ix
Ġannoy ance
Ġseat tle
Ġmor gan
ato graphy
Ġpassion ate
Ġvillain s
pea re
b ol
Ġb orders
Ġf rig
Ġc f
Ġe z
Ġwh ine
Ġwh irl
Ġwater color
eng u
Ġcour ses
Ġund o
Ġrespond ing
Ġphili ps
def ective
3 0
u ated
Ġst al
Ġun com
ass y
Ġsl ack
Ġwater me
Ġstud ied
Ġtom my
bag s
Ġjim my
Ġsymbol s
cons ider
Ġholo caust
j et
Ġth ier
Ġm erc
Ġwh ip
se at
lo st
ca le
Ġle opard
Ġunder lying
Ġmar ry
Ġdoub les
Ġjam ming
Ġunexpected ly
Ġscan ned
Ġharmon y
help ful
Ġw y
Ġr ates
Ġcom cast
Ġpo se
Ġthr ott
Ġed ging
Ġdi ana
Ġcli pping
app arently
Ġprevent ed
ork ers
Ġdang ling
Ġscream ing
Ġjaw s
Ġdess ert
Ġtransluc ent
le ans
Ġse ated
Ġfr inge
ist ration
Ġmis al
Ġann oun
Ġpillow cases
Ġexclus ively
Ġced ar
Ġbe cu
Ġti pping
ul um
Ġed c
Ġche cks
Ġxl arge
Ġnon stick
Ġmer maid
Ġcow orkers
Ġincom pat
Ġhe ather
Ġbran ch
Ġi p
Ġsh aky
ac ies
Ġout look
Ġover rated
up on
Ġreg ulator
Ġpower ing
Ġhum ble
Ġsepar ates
Ġcomb inations
Ġgrad ually
Ġban ks
Ġfool ish
Ġham per
Ġach e
Ġinterfer es
Ġde bbie
Ġaw fully
Ġro bb
air y
Ġste th
Ġshakes peare
Ġretire ment
Ġcuss ler
Ġun l
Ġkn ifes
Ġrun ners
Ġtast eless
Ġem bell
Ġdrink er
Ġrock ing
Ġgig antic
Ġtim ers
Ġcalib rate
bott om
Ġtimber land
b an
r ous
Ġc en
Ġp itt
Ġex isted
Ġeas tern
Ġins ides
Ġfil ed
Ġswe e
Ġsurf ing
Ġabsor bs
Ġcompre he
Ġox o
er ved
Ġand y
est ic
Ġdis assemble
Ġpo nder
Ġsc al
Ġwa king
Ġacc idently
Ġz umba
io let
Ġfla ke
Ġbur ied
Ġscot land
Ġfuss y
Ġradi ator
l ings
Ġs ill
Ġp oof
Ġp engu
Ġwor ms
ul u
ist ent
Ġinterest s
Ġsw ipe
Ġtermin als
Ġspac ers
Ġvir gin
Ġpinea pple
Ġo me
Ġd utch
Ġd airy
Ġdis tinguish
ig o
Ġun pl
Ġsl ats
Ġside w
Ġdri vel
Ġgra ins
Ġlearn s
Ġaff air
Ġcam ry
Ġencourage ment
fab ulous
Ġsav vy
Ġhanna h
Ġtram po
d ire
Ġh ills
Ġor leans
ls on
Ġmain e
ron ics
log ist
ik o
diff erent
ett es
Ġcinem atography
Ġm ash
it z
Ġgl ows
po ds
Ġinstall s
Ġcustom ize
Ġtrack er
Ġrot ates
Ġunfold s
Ġbrid al
Ġbrow sing
Ġsau ces
Ġmiser able
u i
Ġch ubby
Ġlo vable
Ġma ggie
Ġback story
Ġer rand
Ġmagn ifier
Ġmulti player
Ġscra ped
Ġgam ble
Ġencoura ged
Ġsyno ps
f ace
Ġit ching
Ġwh ining
Ġen force
Ġsim on
Ġproper ties
Ġtouch y
Ġda vis
Ġpet als
Ġelectric ian
jo hn
rec ieved
Ġcommit ted
Ġcarr ots
Ġaggrav ating
Ġhelicop ter
c up
ic an
Ġan c
Ġgri ffin
Ġele ven
Ġmattress es
Ġmaintain ing
Ġmerch ant
Ġadventur ous
d ish
f lo
Ġli z
Ġse ating
Ġfind er
Ġtail gate
Ġapocaly pse
Ġmistaken ly
Ġargum ents
Ġligh thearted
Ġfeat uring
Ġembo ss
Ġp ays
Ġbe eping
all as
ere lla
Ġcan ad
pl ot
Ġav o
Ġinv ict
Ġant ics
Ġstat istics
Ġsket ch
Ġconfig ure
Ġtoler able
Ġbubb led
Ġtrend y
Ġarmp it
Ġappoin t
Ġaccustom ed
el a
Ġab ras
Ġma ma
Ġrec reat
Ġsc ales
Ġstr ide
Ġadd icting
itch ed
Ġhy d
app ears
Ġstatement s
Ġmort ar
d urable
ur ies
Ġwa aay
Ġquick en
Ġmust ang
Ġsol ves
Ġform ing
ga e
Ġpic nic
Ġcro s
Ġinfl atable
Ġscra ping
Ġconsequ ences
Ġcong r
le ar
Ġr aces
Ġal gae
Ġle nd
Ġbr ook
Ġcor rupt
sh op
Ġchrist ie
Ġcra pped
Ġfinger n
Ġsla very
Ġgm c
Ġugg s
Ġwiz ard
Ġthrott le
Ġd ane
es is
Ġme g
Ġmu dd
Ġwar ms
Ġfast ener
exce lent
Ġsuc ceed
Ġfunn ier
Ġloos ens
f ia
Ġw ack
Ġd ental
Ġch ai
Ġco ils
Ġsi p
Ġeffect iveness
Ġcin ch
cu ps
Ġax le
Ġcalib ration
Ġado les
st ep
Ġext ensions
Ġwind ing
Ġswe ll
Ġair ing
Ġsand paper
Ġinv o
Ġproject ion
Ġhd x
Ġobst acles
sha pen
z ip
Ġen ch
Ġback ward
pl ain
Ġlet down
Ġair soft
Ġshoot er
Ġcru cial
Ġdetect ed
Ġclaw s
Ġcitiz en
Ġfas ci
b ull
o x
Ġh t
ri x
Ġse ag
ick ed
ment ed
Ġbr ows
Ġro pes
Ġbreak able
Ġgra vy
Ġsy l
Ġtrans fers
Ġcomm ute
Ġpat ent
Ġshut ter
Ġinsect s
s pe
Ġi on
Ġd allas
is ms
Ġen s
Ġv ig
Ġwear ings
ud ed
cri pt
Ġro ss
Ġshow ers
Ġdra pes
Ġloud ly
Ġju icy
Ġpol ka
Ġtack le
Ġtermin al
Ġhorizont ally
Ġtutor ial
Ġcomprehe nd
Ġo ught
Ġh ugs
il er
Ġv ince
pl icated
Ġdel ta
Ġwarm ers
Ġtun a
Ġcream er
Ġosc ar
Ġstew art
Ġwimp y
Ġtrampo line
Ġsynops is
o vers
Ġs ple
Ġp bs
Ġpr d
mo b
Ġmis shapen
Ġori g
Ġmar s
Ġsilver ware
lus ter
Ġdest ination
Ġfaith ful
Ġwrench es
Ġdevot ion
Ġloa f
Ġblaz er
Ġunsatisf actory
ter rific
il st
Ġsp ong
Ġspr ung
Ġpill ed
Ġheart beat
Ġbeat en
Ġshot gun
Ġbull ets
Ġquil ts
Ġchron icles
Ġrevers ible
Ġharr is
Ġlifes pan
1 1
r ub
Ġd b
Ġst ake
ad ays
Ġstar ters
Ġdec ides
Ġsuper market
Ġche ers
co vers
Ġmarsh m
Ġjeal ous
ac ord
Ġu h
Ġse nder
Ġrec ived
Ġman if
Ġsur pass
Ġbir ken
Ġident ified
Ġfif teen
Ġry p
Ġpix els
Ġruss ia
Ġcud dly
Ġche at
Ġsw earing
Ġbur lap
Ġmer cy
Ġfulfill ed
Ġdiab et
Ġsupr ised
Ġavo ided
Ġsn oo
Ġmight y
co st
Ġfilter ing
Ġtre ble
Ġmargin al
Ġcind erella
l ining
Ġli ly
Ġsu g
Ġover flow
Ġnow adays
Ġlarge ly
Ġreal ism
Ġter rain
Ġfoot print
Ġcal vin
Ġfilm ing
Ġtransfer ring
Ġcris is
Ġdevot ed
Ġtut u
Ġunsatisf ying
Ġt j
Ġprice less
Ġla ura
Ġem br
als a
Ġflu ores
Ġbatch es
Ġtap estry
Ġpanca ke
Ġtwee zers
a verage
c lock
h em
ced es
Ġkitchen aid
Ġcraf ting
Ġconv ince
Ġexpand able
Ġphilosoph ical
Ġestablish ed
s n
re ason
Ġn ar
Ġsi bl
Ġk ra
Ġif fy
ant ing
am iliar
Ġtea pot
Ġpump ed
Ġsumm ers
Ġconspir acy
Ġunpl ugging
Ġsibl ings
b rand
t ie
Ġf bi
Ġpo pper
Ġad ores
Ġstrong est
Ġred ucing
Ġmet aph
ian a
pro v
Ġdownlo ads
sa id
eal ing
ims ical
Ġbrew ed
Ġcow orker
Ġdiscuss ions
Ġcontr ary
Ġjul ie
Ġdiscard ed
b rew
Ġs z
Ġk is
ore t
ink y
Ġbr oth
Ġmar ie
Ġincl ined
Ġcra ig
eas ily
Ġwrink ly
Ġtap ing
Ġsore ly
Ġamb ient
i ate
Ġs r
Ġd up
Ġg ary
Ġre im
Ġbo ats
Ġhop eless
Ġpar acord
Ġking dom
Ġdepict s
Ġreim bur
d ied
v ol
Ġf izz
Ġc ree
Ġwork able
Ġr uth
Ġpl ating
Ġret ina
ink s
Ġput ty
ud ge
Ġtea ms
Ġair flow
Ġtend ed
Ġcla ire
ru ption
Ġtang les
Ġhide ous
Ġwrest ling
2 0
Ġme ats
Ġen vision
Ġv cr
Ġwat ers
Ġtri pping
Ġins uff
Ġdy stop
Ġeduc ated
Ġregister ed
Ġvibr ates
Ġatro cious
Ġsubsequ ent
Ġscul pt
Ġimprob able
Ġadop ted
p age
Ġd ifer
ri pped
Ġqu inn
Ġrest ric
Ġsil ence
Ġsold ered
ho e
Ġrechar ged
Ġvalent ines
Ġmf g
Ġwaterme lon
Ġfasci itis
st y
Ġag atha
ond ition
ane ous
Ġvict ims
Ġhighlight ing
Ġillumin ate
Ġgaug es
Ġsteth oscope
er pt
Ġl inger
Ġand erson
Ġwh isk
et e
Ġret ention
Ġint im
Ġpaper white
Ġexc erpt
rid ged
Ġrecogn ition
Ġland ed
Ġsoooo oo
Ġuk ule
Ġclich es
Ġoverhe ated
mis leading
Ġmalfunction ing
Ġnutrition al
Ġintellect ual
Ġt zu
Ġe u
Ġbe lla
Ġpro long
Ġsa iling
Ġcar ib
Ġz ag
Ġflo ss
Ġenter ed
Ġminimal ist
Ġrevel ation
Ġfluores cent
Ġr ays
Ġsi erra
Ġab und
pt on
Ġel mo
Ġsupp er
Ġweird ly
Ġcompare s
Ġalex ander
Ġwip ers
Ġexpress ed
Ġhorn s
Ġshim mer
1 00
g iven
Ġp g
Ġlo gs
Ġbet ray
Ġta pping
Ġty ler
ins on
ho le
Ġtro pical
Ġrefresh er
Ġproced ure
o pher
gh etti
Ġcar ab
Ġmind ful
Ġlay ered
Ġmeet ings
Ġeconom ic
Ġtheat re
Ġmosquito es
Ġclin ical
Ġnes presso
e ck
Ġn as
en ix
Ġal an
Ġk ite
Ġen able
Ġsp ain
Ġsl anted
Ġacc idents
Ġfloor ing
Ġdev ast
Ġlip stick
Ġdiscover ing
Ġshad ows
Ġpell et
Ġlone ly
Ġinval uable
Ġcorpor ate
o ph
Ġto asty
Ġd art
Ġsw ift
Ġstor ms
Ġrest ing
pro f
mm et
rid ge
Ġbur r
Ġdeter gent
Ġbubb ling
Ġrp m
Ġluc as
s pect
Ġc ough
le e
Ġin o
Ġti er
Ġsc or
Ġsho pped
Ġstr ay
Ġcost um
Ġra ining
Ġcrack er
Ġent ries
Ġnum b
Ġshrink ing
Ġweekend s
Ġcrisp y
hol ster
Ġcit rus
Ġspa ghetti
Ġa i
Ġe go
Ġsh ore
Ġid le
Ġweak est
Ġstri pping
Ġstea ming
Ġcontr ad
Ġassign ment
Ġveter an
Ġrf id
Ġa pt
Ġon going
Ġbe eps
Ġy um
all ows
ce ption
ce lain
Ġlo re
Ġbig gie
Ġday care
Ġbox ing
Ġtight ness
Ġmod ule
Ġpink ish
Ġvar ies
Ġhd tv
Ġwild er
Ġsoph om
Ġdiagra m
Ġpk g
Ġflashback s
Ġinvict a
Ġthe ology
Ġday time
Ġamazon s
Ġem it
Ġper m
Ġlab rad
Ġlack luster
Ġspl atter
Ġrepres ents
Ġli mp
gin s
Ġpoc o
Ġmer cedes
Ġland ing
Ġexpand s
Ġgimm ick
Ġfright ening
Ġprinc ip
f ig
Ġl ith
ic orn
Ġsoft ener
Ġport ability
Ġsand ed
Ġelimin ated
Ġhall mark
h ar
Ġti ene
Ġcon ference
Ġpre de
Ġbo bby
Ġaut ism
Ġaccident al
Ġacadem y
Ġseg ments
Ġpud dle
Ġolymp us
Ġjung le
Ġwh imsical
Ġlight ening
Ġsn iff
Ġra ven
Ġnight light
Ġrefer ring
Ġpor celain
Ġtransl ate
Ġfigur ine
Ġfoll ett
Ġintroduct ory
it ate
Ġst umbled
li kable
Ġcar l
Ġgra ham
Ġev idently
Ġboot leg
Ġcol on
Ġdu o
Ġbump ers
Ġpolish ing
Ġvisual ize
Ġkara oke
e lle
g own
s pr
Ġa me
Ġl t
if ty
Ġmis labeled
Ġforget table
Ġunf amiliar
Ġmisunder stood
Ġsunsh ine
Ġprejud ice
z ero
Ġc atherine
Ġn orton
Ġe lf
Ġun icorn
Ġbl a
Ġend ured
Ġcomp ound
sol ved
char ger
Ġcalend ars
Ġw right
re ction
ll ings
le vant
Ġat v
Ġsl its
Ġhandle bars
Ġjes se
Ġbeha vi
Ġreact ions
Ġatl as
Ġunwra pped
Ġincompat ible
Ġcanad ian
Ġt ues
Ġhow ard
Ġfin ale
Ġimp at
Ġimm ig
Ġgre ens
met al
Ġexpand ing
Ġribb ons
Ġaccommo d
Ġtiss ues
Ġreb el
Ġcompo st
Ġobserv ations
Ġcrum pled
Ġno zzles
Ġv ans
Ġcor rupted
Ġfut ur
Ġmen us
Ġcoun se
Ġposition ing
Ġspl its
Ġvari able
Ġeval uate
m al
ic ians
Ġru ger
Ġped est
Ġshield s
Ġwestern s
Ġspar se
Ġdigit izer
Ġth y
Ġto l
Ġre ver
Ġde xter
Ġcor s
Ġbrilli antly
Ġlic ens
Ġmicha els
Ġtax es
m ates
it ives
Ġj ac
Ġgl am
Ġnight gown
Ġcho pper
Ġcustom s
Ġbind ers
Ġcompos ition
Ġtattoo s
Ġcramp ed
Ġerrand s
Ġe e
el ing
Ġfr is
Ġmin nie
Ġra ke
Ġsub mer
Ġbackground s
Ġhall way
Ġintegr ated
Ġner ves
Ġdimm able
Ġdesper ately
et ing
Ġun con
Ġsl ant
Ġrest ore
Ġdr oop
Ġconvenient ly
Ġpepper mint
Ġrecy cling
Ġwhis per
Ġshri mp
c id
un te
Ġher b
Ġdown right
Ġexce eds
Ġdog gie
Ġsecond ly
Ġacc um
Ġcond o
Ġlaugh able
oc ative
Ġfat ig
Ġteles cope
Ġc elt
Ġqu ail
use ful
Ġcar n
Ġvol unte
Ġcoun ted
Ġvi king
Ġsport ing
Ġlam b
Ġoverwhel med
Ġgee k
g ener
Ġs aint
ar o
me l
Ġj ury
Ġpo ker
Ġcheap o
Ġhel en
Ġla ps
Ġbelie ves
prof ess
Ġ 5
Ġh ound
Ġh yster
Ġha ired
Ġst u
ie lle
Ġcur s
Ġdan ielle
Ġbod ice
wa ist
Ġcoup on
Ġdramat ically
Ġb unk
Ġm ast
Ġpe e
Ġinf inity
Ġcomple ting
Ġair line
Ġgra m
ser ves
fill ed
Ġpip ing
belie f
Ġunbe atable
Ġukule le
e lling
f our
it ems
Ġis l
Ġre illy
Ġsh ear
Ġch anger
ain e
Ġv ita
Ġpe aling
Ġwaist line
Ġteach ings
Ġcompe lled
Ġloyal ty
Ġirre levant
Ġremas tered
Ġa k
Ġf ract
Ġout gr
Ġadh es
Ġban ner
dro pped
Ġmitt ens
Ġco ps
Ġdis belief
Ġservice able
Ġstain ing
gle ct
Ġreflect ed
Ġec co
Ġmisal igned
c ence
Ġpur s
Ġworking s
ruct ion
Ġfire s
Ġeye lets
Ġexist ence
Ġduck s
Ġtermin ology
Ġfest ival
Ġexcelent e
Ġdiscou ra
b led
f are
Ġch an
Ġj us
Ġimp lies
Ġdispos al
Ġcontem pl
Ġbach el
Ġdans ko
v d
Ġw ik
Ġb ing
Ġdo able
Ġun e
Ġsa x
ang es
Ġmust y
Ġair craft
Ġtal ents
Ġseal er
su ppo
Ġzip lock
Ġrespons ibility
Ġhaw ai
Ġstich ing
Ġimpat ient
Ġl uster
ish ment
Ġcle av
Ġcar pen
ier d
Ġsw ed
Ġdist ressed
rid iculous
Ġprocess es
Ġps p
hh h
Ġdecre ase
Ġcleav age
m atched
Ġc reek
Ġp ent
is ance
Ġne glect
Ġsa gs
Ġcont our
Ġbright ly
Ġbreak down
Ġsymp athetic
Ġeras ers
c or
ct ic
Ġch ief
Ġus ps
Ġfa ve
Ġcl one
Ġwa vy
Ġann ie
Ġappear ing
Ġbrown ish
Ġoper ations
Ġgas oline
Ġscra per
wr ite
Ġfranc isco
Ġpromot ion
d led
u ity
Ġo ops
Ġmo les
Ġsu z
Ġk ent
Ġbl unt
Ġrun ny
Ġfoot wear
Ġlab s
Ġske w
pa id
Ġbio s
Ġbuff alo
hand y
Ġnu isance
Ġrect angle
Ġsnor ke
Ġaccompany ing
Ġcommut er
g lo
Ġl ump
Ġfr yer
ant o
Ġro y
Ġz oo
Ġscr unch
Ġcra m
Ġburn ers
Ġcap ri
Ġtem pl
Ġgre ed
Ġexcess ively
Ġtact ics
v ac
Ġti ff
Ġmat es
Ġra v
he art
Ġoh io
Ġconc l
Ġlog os
h ated
Ġw th
Ġc ater
Ġpl as
ag ne
Ġle o
Ġhand book
ph ie
Ġcur se
Ġbed side
Ġspeed o
Ġcompet itors
Ġmalfunction ed
Ġmisspe llings
Ġply wood
Ġrevis it
Ġbecu ase
Ġr t
Ġeas el
Ġbo l
Ġbl at
ail able
Ġbar rier
Ġsqu at
Ġdy ed
Ġtail or
Ġmath em
Ġsmud ged
Ġrhy mes
Ġdea f
Ġkod ak
Ġinter es
Ġstr uck
Ġatt rib
ric ia
Ġswe ep
Ġchildren s
Ġlangu ages
Ġgro c
big ger
Ġdread ful
Ġargum ent
Ġjag ged
Ġto oooo
Ġsi ms
Ġfr oth
Ġde hy
Ġsm iling
Ġsa ggy
Ġtr ous
Ġchrist opher
Ġent rance
Ġsturd iness
Ġemerg encies
ob viously
gu ess
Ġspell b
Ġmarsh all
Ġcompens ate
a el
Ġsi ri
Ġde od
Ġcart on
Ġcred ibility
dri ve
Ġcommit ment
Ġy ep
the ir
Ġpo ked
Ġinformation al
Ġdirect ing
Ġrevers ed
Ġincorpor ate
Ġinsuff icient
m ary
re view
Ġli ed
pl ant
Ġint el
Ġcar ving
sol ut
Ġind ent
Ġtest im
Ġdecor ated
Ġtrad er
Ġprogress ion
Ġencoun ters
Ġcous ins
Ġanth ony
Ġproced ures
wo lf
Ġcelt ic
Ġst ages
Ġex otic
and y
Ġmid way
Ġprom ote
Ġcal idad
Ġapplic ator
Ġfem ales
Ġveget arian
Ġvegg ie
Ġinspect or
Ġfrost ing
Ġilleg al
Ġdisci pl
Ġenforce ment
Ġn icks
Ġdoes n
Ġad ored
Ġmin es
Ġdi als
Ġger ber
Ġo cd
Ġm ere
Ġsh attering
Ġex quis
wor thy
ton es
Ġey el
Ġrele asing
Ġsca nd
Ġsqueak ers
Ġgrom met
i ries
Ġh mm
Ġn om
Ġbe th
Ġme ters
Ġen abled
Ġche ating
Ġra gs
Ġcomfort ing
Ġcred ited
Ġcrit ters
Ġswive ls
Ġrhy me
tit le
Ġconflict s
Ġresemb les
Ġd oo
ri el
Ġse ep
Ġbeing s
Ġrub y
Ġmiss ions
by e
Ġjar gon
Ġash ley
Ġdefl ate
Ġenem ies
Ġgeor gia
c ity
Ġw ierd
Ġco d
Ġab usive
Ġri vet
atch es
Ġsoft est
Ġz uc
Ġcrack ling
Ġfair ness
char ges
Ġpit bull
Ġbom bs
Ġzuc ch
Ġi an
Ġj ill
Ġph o
Ġcompl ic
Ġve y
Ġfur ry
Ġpour s
Ġperfor ated
Ġdefinit ly
m us
Ġi l
Ġb id
re x
Ġwe bbing
Ġti em
Ġall ey
Ġany how
ag an
Ġover look
itch ing
Ġple x
get ic
Ġmotiv ational
Ġevol ved
Ġencoura ges
Ġsnor kel
Ġplodd ing
c cess
Ġm ul
Ġwh ites
Ġr ising
Ġv es
Ġclo cks
Ġper ch
Ġmed al
Ġrepair ing
Ġnic est
Ġweb cam
Ġglitter y
Ġcompos ite
Ġmasc ul
Ġvulner able
Ġunav ailable
Ġfutur istic
i ar
Ġa y
Ġthe ft
Ġmu m
Ġpa vement
bed ded
Ġaudio book
Ġhal ves
Ġmalt ese
Ġlith ium
f inder
re pl
Ġf ries
Ġn c
it udes
Ġmy st
Ġne lson
Ġgo sh
Ġbl ot
Ġlar ry
Ġbr icks
Ġsim ult
Ġdr ank
Ġremember ing
Ġran cid
Ġmal es
Ġloosen ing
Ġfid dle
incred ible
Ġm ics
Ġex it
Ġco lo
Ġsm ar
Ġun co
Ġshe ep
Ġdisc ern
Ġsnow y
cl a
Ġarr anged
Ġscrewdri vers
Ġgran ite
Ġalter ations
Ġpul se
Ġacqu ired
Ġrelie ve
consider ing
r ome
s izes
t or
t ake
Ġp el
Ġd ill
Ġuse full
Ġexp lored
Ġun likable
Ġsa gging
Ġhel ium
Ġrel ating
Ġthri ft
Ġcoun ters
Ġna ut
Ġconver ted
Ġheadband s
Ġfrost ed
Ġreput able
Ġdrastic ally
d ead
n uts
r ings
Ġstr anger
Ġimp ractical
Ġpowder ed
Ġq t
Ġforg ive
Ġrive ted
Ġstro kes
Ġwayyy yy
Ġdissol ve
o llen
as ion
Ġcomp r
Ġacc ounting
Ġleg ible
Ġjack ie
Ġash es
Ġtour nam
Ġdiv ided
Ġvary ing
Ġmosquit os
Ġstereoty pes
Ġsauc ony
Ġp its
Ġgood ies
Ġman go
Ġhard ened
Ġhard ships
Ġsw ollen
Ġphoto shop
ne ck
Ġvis its
Ġpop ulation
Ġdy lan
Ġpeace ful
Ġplac em
Ġunw anted
Ġburg ers
Ġeleph ants
Ġgroom ing
d ucing
f ting
Ġse iko
Ġor gin
Ġun fair
not es
Ġaw ards
Ġim pe
Ġda isy
Ġdist ant
Ġbuild ings
Ġba ff
Ġinvol ves
Ġdestro ys
Ġident ifying
Ġshif ters
wr iter
Ġbuff s
Ġtransport ing
Ġscholar ly
Ġzucch ini
b ies
Ġd us
ie val
Ġwell s
Ġcoll ea
Ġstop ed
Ġna use
Ġtex ting
Ġdisg u
Ġvictor ian
Ġbetray al
Ġsh uff
Ġjust in
Ġen amel
Ġca fe
ress ive
Ġins ult
Ġgr out
Ġboth ersome
Ġes per
Ġplant ronics
Ġdece ption
Ġwarning s
Ġgirlfriend s
Ġstraw berries
Ġconcent ration
Ġgroc eries
r ating
Ġm ia
Ġto ned
ook y
Ġinst ances
bo k
Ġpet e
Ġrev ised
Ġc rib
Ġre think
Ġexcellent ly
Ġcool est
Ġgrand pa
Ġgar ments
Ġprom inent
Ġcand id
Ġadapt ation
Ġrac ist
Ġpunct ure
Ġtues day
d ue
Ġs ang
Ġm cd
Ġto days
al one
Ġover kill
Ġher bal
Ġra ises
Ġbegin ing
Ġuseful ness
install ation
Ġemp athy
Ġisland s
Ġchamp agne
Ġf ert
Ġn oodle
Ġsur g
Ġlow e
Ġlow s
Ġbed sp
ma ids
Ġsharp ness
Ġcopy right
Ġbother ing
Ġlower ed
Ġprotagon ists
Ġgab riel
bri lli
m ith
w ere
Ġt iring
Ġh z
Ġout lander
ist ically
Ġover lap
Ġby pass
Ġpull ey
de veloped
Ġdissa pointment
Ġboun cy
Ġdiv ine
Ġarthrit ic
Ġfigur ines
a ves
Ġa irt
ook ie
ent ious
Ġqu its
Ġpe ices
Ġsto ppers
Ġmin is
Ġdri lls
de c
Ġfail ures
Ġpri est
Ġblo ss
Ġcapt uring
rif ied
Ġautom otive
Ġcock tail
Ġcarol ina
Ġmes m
organ ized
Ġf usion
Ġm h
or se
Ġen large
Ġga udy
Ġroom ba
Ġcur sing
Ġremain der
Ġreject ed
Ġscro lling
Ġhawai ian
Ġs ans
er ie
Ġm k
Ġd ensity
at ement
Ġre print
th ick
Ġsp erry
Ġpe c
Ġclear ing
Ġwarm ed
Ġfra ming
Ġspecif ics
Ġcance ling
Ġfiber glass
Ġjudge ment
Ġsnorke ling
Ġt x
Ġs alsa
Ġbe c
Ġbe ading
Ġj umbled
Ġr ank
Ġtri via
Ġdra b
Ġsca res
Ġmed ieval
Ġadh ered
she ll
Ġborder line
Ġoccur s
Ġlegend s
Ġawe ful
Ġpronoun ced
Ġo o
Ġd m
Ġout ing
Ġsp ike
Ġnew bie
Ġbefore hand
Ġwa kes
Ġwar fare
bs on
Ġsme ars
Ġcomb ines
str ange
Ġunsu ccess
at ics
Ġst air
Ġover la
Ġinter st
Ġche v
Ġinv ention
Ġdon ald
Ġclever ly
Ġdock ers
Ġsteal ing
Ġfairy t
Ġrend ers
Ġvirgin ia
Ġdifer ent
in ally
Ġto asted
Ġe acute
Ġcan n
Ġdis lo
Ġv iolet
Ġworks hop
Ġrepl ay
Ġra is
Ġones ie
Ġzi ps
Ġquiet ly
Ġdom estic
Ġproport ions
Ġdeduct ed
Ġe g
el ine
Ġab bey
Ġho ot
ick ing
Ġgu ilt
vel ed
Ġstick iness
Ġkill ers
Ġconsum ption
Ġner ve
Ġutens il
Ġmuse um
Ġt c
Ġh ig
ce eded
Ġk ia
Ġke ller
Ġke to
Ġover weight
po le
Ġhead lamp
Ġcoll ie
Ġcons ume
Ġmind set
Ġtyp ed
ugg ets
Ġdem ocr
Ġscra pes
Ġted dy
Ġretain ing
Ġment ally
Ġseg ment
Ġdeterior ated
Ġarmp its
Ġdystop ian
Ġi ra
Ġh uh
Ġwh iny
Ġv r
Ġreal m
Ġla va
Ġmatch a
Ġconf use
Ġstiff ness
Ġest imate
Ġanth ology
Ġgrid dle
Ġd ement
Ġst ing
Ġst ats
ur us
Ġch andel
Ġsk ins
Ġind uction
Ġgen esis
Ġrad ar
Ġstri kes
Ġrock port
Ġland s
Ġfalse ly
Ġlimit ations
Ġpreview s
Ġaero b
d ar
Ġs assy
Ġn ifty
Ġg ums
Ġca ption
Ġtr unks
Ġori entation
Ġbackpack s
Ġavoid ing
Ġspir its
Ġmont ana
Ġmascul ine
Ġp ing
Ġn uggets
ic ier
Ġbe g
Ġun app
so ld
Ġfl ames
Ġfo gged
Ġsli me
Ġed die
sole te
Ġmaintain s
Ġqual ify
picture s
Ġvitam ins
Ġdol ph
f an
Ġi am
Ġpl ast
ens es
Ġpe w
Ġdefin itions
Ġrel ates
Ġseam lessly
Ġoffer ings
Ġcarpet ed
Ġdu h
Ġincre ases
Ġdeliver ing
Ġscient ist
Ġchron ic
Ġplumb ing
b aby
z o
Ġnot ified
ic i
Ġde ceived
Ġloc ket
Ġheight s
Ġmanual s
Ġaccept ance
Ġrot or
tr usive
sp eak
Ġsimpl ified
Ġinterchange able
h ire
p ow
st atic
Ġcan ning
Ġke nd
Ġbo oth
Ġjo ined
im po
Ġfast est
Ġblue berry
Ġfish y
Ġarch er
Ġmouth piece
bul bs
Ġmembers hip
Ġmush room
Ġpunct ured
Ġdistrib ution
Ġaes thetic
oton ous
Ġbrows er
j ack
th s
Ġst ash
Ġmo phie
Ġde pt
Ġorder d
Ġdown er
sh ar
mm ers
Ġaccept ing
Ġcash ew
Ġexpress ion
Ġrere ading
Ġorchest ra
Ġfe es
Ġho g
Ġfa me
Ġte h
Ġmis led
Ġed ward
Ġsweet en
Ġspecial ty
Ġchi mes
Ġshel ving
Ġstri king
Ġcro c
Ġmaintain ed
Ġstress ful
Ġdick ens
Ġairt ight
s oooo
Ġg our
Ġj ade
Ġfix able
Ġunb al
Ġmax x
Ġjud ging
Ġintrodu ces
Ġblink s
Ġjig gle
Ġwhis key
Ġdivor ce
Ġinvo ice
Ġbedsp read
a e
Ġg il
Ġnot icable
Ġk irk
Ġk ibble
Ġear l
wor ld
Ġvers a
Ġgen e
Ġcord ed
Ġpri us
Ġob solete
Ġtow ers
how ever
Ġtechn ician
Ġparen ting
she ets
Ġsmar ter
g ues
y l
Ġp anda
Ġsh ook
Ġsu ite
Ġno ble
ist ine
Ġair y
Ġsand y
Ġbuild er
Ġoper ator
Ġmir acles
Ġcross ing
Ġstre ak
Ġtroub led
Ġsalv age
profess ional
Ġw ok
le aks
ion ic
Ġqu oted
Ġrece ives
Ġlea ky
Ġgi ants
Ġmach ined
Ġbat ting
plug ged
Ġadmit tedly
Ġscott ish
Ġcorro sion
Ġtutor ials
inform ative
certain ly
Ġseag ate
Ġcarpen ter
Ġa un
Ġo uch
in ters
Ġh ong
Ġeven ings
Ġmon otonous
ud ing
Ġopen ers
Ġsay ings
Ġswe eper
Ġhandle bar
Ġpat rol
Ġemp ower
Ġner d
Ġchill ing
Ġslouch y
p aint
u y
Ġm owing
ro e
Ġpr istine
ind s
Ġtr u
Ġfine ly
Ġcou pled
Ġbre eds
Ġfriend ships
Ġroom mate
Ġpull er
Ġsch n
Ġir ons
Ġot tom
Ġtrad itions
Ġdu ke
Ġobs ession
Ġspac er
Ġcowboy s
Ġcontract or
Ġbagg age
turn ed
Ġcarib bean
Ġsimult aneously
c ats
e zu
u cc
Ġm ack
Ġg oth
th rough
Ġst unk
Ġsh akers
Ġr ma
Ġwere wolf
Ġorigin ality
Ġdev ise
Ġjoy stick
Ġlifes aver
Ġosc ill
bol t
Ġprede cess
s k
ic ion
Ġun zip
and o
Ġsoft ball
Ġreason ing
Ġunderstand s
Ġvo lley
Ġpat ricia
Ġintro ducing
Ġju ices
Ġrot ted
Ġfortun ate
Ġdetect ion
Ġunders ized
Ġliber ty
Ġmitt s
orig inally
cord ing
Ġcitiz ens
Ġzag g
Ġs id
it age
Ġe lo
Ġbe et
Ġta pped
Ġref ers
Ġcam ps
Ġign ition
Ġcommer cials
Ġven ezu
Ġgermin ation
Ġmea nder
Ġafghan istan
Ġl on
Ġwh iter
ac cording
st ein
Ġtrue ly
Ġbright est
Ġnovel a
Ġtem po
Ġfinger tips
Ġhy p
Ġmaster ful
Ġbrew er
Ġpray ing
Ġsoph ie
Ġgust o
attach ed
Ġchandel ier
Ġi vy
Ġb ip
Ġg age
Ġbe gging
Ġst ee
Ġu g
Ġwor m
Ġgood bye
Ġar ro
ight ly
Ġthin nest
ush i
Ġhor rors
Ġgener ate
fall s
Ġtempor arily
Ġstir ring
Ġmelod ies
try ing
Ġsporad ically
Ġhazel nut
exc iting
Ġrecept acle
imag in
Ġdistribut or
ici ency
c uts
f ake
Ġto me
al ine
Ġch ores
Ġtw ig
Ġhead line
Ġmis read
Ġres erve
Ġmet ro
Ġmain stream
Ġcra b
Ġsecure s
Ġbow ling
Ġintern ally
Ġproof reading
Ġspl inters
cu its
Ġgran ola
Ġsprink led
Ġcha f
Ġcalib rated
Ġtid bits
Ġorth otics
Ġt uff
Ġs ash
Ġun he
Ġtw een
be lls
Ġcoll ins
ne at
Ġfresh ness
ho pe
some how
Ġdon na
Ġscar let
Ġconsequ ently
Ġdivers ity
o lla
Ġw icks
Ġs words
Ġc t
Ġwh ilst
Ġch is
Ġor ph
ul ates
Ġhe brew
Ġle vers
Ġexce l
int zy
Ġpresent ing
Ġfut on
Ġmouse pad
Ġsnow board
Ġclar ify
Ġya wn
Ġdisa pointing
Ġconcent rated
Ġdiabet es
s l
Ġn fl
Ġbe ams
Ġex e
Ġdown stairs
Ġpe ters
Ġorigin s
Ġoverhe ats
Ġnap kin
Ġaband oned
Ġhobb it
s us
Ġc ia
Ġn ite
Ġg ates
Ġne uro
il ated
Ġcl ings
Ġstr ung
Ġgif ting
Ġown ership
Ġdev oured
Ġjew s
Ġsoap y
Ġtown s
Ġreflect or
Ġbrief case
Ġcaps ules
Ġopportun ities
cr acked
Ġindian a
Ġbis cuits
Ġstereoty pical
Ġwholes ome
Ġstu art
impo ssible
b read
j u
Ġm im
Ġso ggy
Ġch ap
Ġsty list
Ġred dish
Ġgra ve
key board
Ġsport y
Ġmer ry
Ġhub s
Ġrepresent ative
Ġunscrew ed
Ġo der
Ġg ill
le ton
so cks
Ġar gue
Ġta ils
Ġcard stock
Ġsw ay
Ġgarden er
Ġbored om
Ġcru iser
Ġstack ing
str ings
Ġprod uc
Ġtic kets
Ġoffic ially
Ġstenc il
Ġjas mine
p ure
on ing
Ġso x
Ġr oth
are st
Ġbar ry
Ġtreat ments
Ġeconom ics
Ġpercent age
Ġcert ific
recommend ed
Ġchal ky
christ mas
g ies
Ġs log
Ġc ot
Ġd oom
en a
Ġnot ification
Ġha ven
Ġst are
Ġmo lly
Ġbet ta
Ġfl uct
Ġcl an
tain s
Ġphoto cop
Ġstuff ers
Ġhappen ings
Ġtem pt
Ġsimilar ly
Ġsun flower
graph ies
with out
Ġapproach es
Ġcorn well
Ġcray on
Ġinj ured
Ġcomplet ly
Ġcomprom ise
p ay
Ġf ue
pl enty
Ġle is
Ġsli mming
Ġdur ation
Ġblack s
Ġtra uma
ne ither
Ġrefer enced
Ġclos ures
Ġdirection al
Ġcompet e
Ġmuff ler
Ġdisapp ears
Ġfund amental
Ġhaun ted
Ġsym pt
Ġspind le
v als
Ġl aced
Ġl umps
Ġre ds
Ġlo gan
Ġam anda
Ġret elling
Ġcont est
Ġhand made
Ġdri ft
Ġsub standard
gr ass
Ġdan ny
some one
Ġver b
Ġfauc ets
Ġlem ons
Ġchuck s
Ġja va
Ġblemish es
y ers
Ġw oo
Ġdo pe
Ġr ows
ul f
Ġsm iles
Ġv ise
Ġsp iders
Ġle verage
Ġfo ss
Ġaut istic
Ġcr umble
Ġinf requ
Ġgen res
Ġpublish ers
Ġmoment um
Ġsatur ated
Ġdiscus sing
Ġbudd ies
o do
Ġth irst
Ġl acing
Ġhe als
Ġwear y
Ġz eal
op ath
Ġgri lls
Ġconf ess
purch ase
Ġsnow fl
Ġarr ay
Ġrefill ed
Ġgig s
Ġsupple ments
Ġglitch y
Ġgermin ate
Ġextensive ly
assemb ly
grand son
Ġrelie ved
Ġtu pper
Ġanc est
brilli ant
p rene
s ucks
Ġm orm
th ose
Ġgl aring
Ġplay able
ip edia
und ra
gra m
Ġrubber maid
Ġdon ation
Ġdar cy
Ġast ro
Ġshin ny
Ġglor ified
Ġunpack ed
Ġunderwhel ming
Ġtiem po
Ġt undra
Ġp ong
Ġh bo
Ġh edge
ed ing
ill as
Ġde bit
lo s
Ġint r
Ġmet als
Ġev a
Ġhar le
Ġhar per
fun ctions
Ġstress ed
Ġpolar is
Ġmush rooms
Ġgran ny
Ġcraw ling
Ġstabil ize
van ia
Ġh ou
st ay
Ġj k
Ġen vy
Ġsc ree
ss ip
Ġta hoe
Ġher itage
dy s
Ġhot els
Ġfoot notes
Ġper sever
Ġdim ming
Ġblo nde
Ġmag s
Ġground ed
Ġbal i
Ġhy ped
Ġcy ber
Ġspare s
Ġselect ing
Ġfond ant
Ġinflu enced
Ġth ief
in um
Ġn ord
Ġand re
li a
Ġsli my
Ġunus ually
Ġdest iny
Ġgenuine ly
Ġachie ved
Ġcompliment ed
Ġast ron
Ġintent ions
Ġentre prene
Ġrepack aged
Ġino per
p ump
Ġo e
an es
Ġse vent
Ġsiz z
Ġgo dd
Ġwat erf
Ġplay ful
Ġjo di
Ġreg ency
Ġnail ed
Ġmaster ed
Ġtoast ing
Ġinconsist encies
Ġunbal anced
Ġvenezu ela
r ust
Ġthe e
nd ers
Ġl ure
Ġd war
Ġout puts
Ġsm ack
Ġab road
Ġsc ores
Ġhel mets
Ġcost a
gg s
arr ing
Ġring ing
Ġsing les
res cent
Ġfur ious
Ġtransl ations
war ned
Ġplat inum
ament e
Ġmall et
Ġwayyy y
Ġassess ment
Ġfris bee
Ġwik ipedia
suppo sed
f ree
Ġch intzy
Ġj bl
Ġk eds
Ġkind les
ric ulum
Ġremind ers
Ġscra mb
Ġrhy ming
Ġawa it
Ġassign ed
protect ed
Ġshaw l
Ġplas ma
Ġschn au
b ug
f ood
l ite
Ġo dys
Ġun ion
Ġtr ac
Ġpa k
ass ing
ub a
Ġcur riculum
Ġtrans itions
Ġrich er
Ġactiv ation
mit ted
Ġhols ters
Ġfield s
Ġcrit ique
Ġemb ar
Ġreport ing
Ġsubstant ially
Ġpy rex
Ġcher ries
protect s
Ġparr ot
Ġsnoo ze
glo ves
Ġexquis ite
b on
g ance
Ġi ck
Ġw ides
Ġd ab
ch ief
st ress
Ġqu i
Ġbet ty
Ġsp ade
Ġleft overs
Ġsus pected
Ġpin ches
Ġhy m
Ġow ls
Ġsumm ar
lar ger
Ġelimin ates
gu ard
Ġwarri ors
b el
re ce
le ather
Ġti lts
Ġr ud
Ġr acket
Ġres ets
Ġunt ill
Ġred iculous
Ġev apor
Ġsal vation
Ġpla id
Ġimproper ly
Ġleon ard
Ġdus k
i at
m ot
Ġ 8
or ter
Ġp es
Ġn aught
Ġd ak
Ġk u
un belie
Ġen lar
Ġdis gr
Ġgo ssip
Ġle xus
Ġcl ive
Ġcoll abor
Ġsat ire
Ġflo pping
Ġoption al
char ged
Ġspirit uality
Ġdistur bed
Ġskate board
Ġshoel aces
Ġscal p
gener ally
n he
Ġh ank
Ġnot ches
Ġre y
Ġe than
Ġdo h
Ġmo cking
lo cks
Ġdown ton
Ġstand alone
Ġconst it
Ġentire ty
Ġbuild up
Ġrespond s
Ġserving s
Ġdud s
Ġenthusi astic
Ġinvent ory
Ġjum per
Ġrevel ations
Ġcen ters
Ġtupper ware
Ġw ich
Ġw olves
Ġn athan
Ġwill ow
Ġpo e
Ġdes irable
Ġsl ash
Ġro gue
Ġmin ts
ap ted
Ġperform er
Ġfresh er
Ġrepe llent
Ġinvol vement
Ġrefill ing
Ġfac ility
Ġswallow ed
Ġsidew alk
Ġpew ter
Ġad apted
Ġfl aky
ile y
Ġtry ed
Ġinc ase
Ġgi bson
Ġbright en
Ġcho ck
Ġass ured
Ġdead ly
Ġelect ro
Ġprodu cer
Ġwig gles
Ġswing ing
Ġlag s
Ġteles cop
c lip
u eless
Ġth s
Ġsc oops
Ġfir ing
Ġsub t
Ġsqu irt
Ġnumber ed
Ġtrust ing
Ġpolit ically
Ġboun ced
gl as
Ġrow ling
reg ard
Ġergon om
e ither
Ġd ile
ri p
Ġen gin
Ġdis cri
Ġstr at
Ġear n
Ġstra pped
Ġbi ker
Ġass isted
Ġproject ed
Ġsal on
Ġrust s
Ġpersonal ized
Ġcred its
Ġfirm ness
Ġdiagno sed
Ġengin es
as m
ar ks
lo c
Ġover st
Ġext rem
Ġcr inge
Ġinc ome
Ġpay ment
Ġem bedded
Ġdisc la
Ġtool box
Ġseam stress
Ġclick er
Ġing en
Ġbreath taking
Ġbrew s
Ġbun nies
Ġtransp orted
Ġquant ities
watch ed
Ġrif les
Ġpret entious
Ġshep ard
Ġsprink le
Ġclou ds
Ġappet ite
Ġw ade
Ġw ks
Ġh ott
st a
Ġex hib
Ġco ding
pl ots
Ġri ff
Ġcor rection
mas ter
Ġpen nies
Ġnon stop
Ġsun screen
Ġmor als
Ġposs ess
Ġjud y
Ġsket ches
comp act
Ġacce ler
Ġsusp icious
Ġpho enix
Ġo ps
Ġd at
ll ation
Ġre wind
Ġdo e
Ġlo dge
Ġat omic
Ġcam is
Ġfurther more
Ġdem ille
Ġopt ic
Ġottom an
y on
Ġs ara
it o
Ġfr other
Ġab solut
Ġv ign
Ġret un
Ġsp ooky
Ġle ot
Ġfo gging
Ġsl ate
Ġunder ground
Ġwash cloth
Ġexam s
Ġsix th
Ġbang ing
Ġcance llation
Ġmelod ra
Ġdecre ased
Ġoli via
Ġaesthet ics
Ġkrist en
Ġknuck les
o gy
Ġt umble
Ġbe ater
Ġr um
Ġsu ms
Ġun o
Ġar k
Ġta per
Ġfin n
Ġra gged
Ġser rated
Ġrel ations
Ġpres erve
Ġpost ure
Ġregret ted
Ġq a
Ġmur phy
Ġlum en
Ġharm ful
urs day
Ġexagger ated
Ġyan kee
p icked
Ġth ai
Ġb d
pp a
Ġwind er
Ġann ual
Ġconce aled
Ġunderwhel med
c il
j es
k ien
Ġth ursday
Ġmore over
Ġsp un
ab it
Ġpad dles
Ġgir a
Ġfill ers
Ġsus pen
Ġpresent ations
ho ly
Ġshap ing
bl ade
lim actic
Ġcrow ded
Ġsophom oric
Ġpurs ue
s ort
Ġall ig
Ġun install
Ġfun k
Ġter r
Ġpar ad
Ġdan cer
Ġclaim ing
Ġspread ing
Ġmi ami
Ġsen iors
Ġcha os
Ġpy th
Ġgeo graphy
Ġspig ot
Ġvolley ball
Ġodys sey
b ian
t uce
Ġm it
ot te
Ġr it
Ġun professional
Ġra ge
Ġcontro vers
Ġwra ppers
Ġwed ges
Ġcy n
Ġassum ption
Ġexplo res
mar ks
Ġcollaps ible
Ġven ue
Ġmyth s
Ġabras ive
Ġleis ure
l aw
Ġt ess
Ġc gi
Ġbut cher
Ġmo le
Ġab ound
Ġho key
Ġoff line
Ġke ens
Ġsho ve
Ġapp all
Ġgu age
Ġcreat ure
con f
Ġminim ize
Ġmonitor ing
Ġped ometer
Ġhom eless
Ġcoup ons
Ġdischar ge
Ġkoh ler
Ġpengu in
Ġre load
Ġco pe
un o
Ġmu zzle
Ġsc oo
Ġmon roe
our se
Ġimp ul
Ġmar ia
und ai
Ġp ies
Ġd eri
Ġas set
Ġal erts
Ġno ir
Ġsmall ish
ple x
Ġman aging
Ġcont am
Ġstra pless
Ġgener ated
Ġyellow ed
Ġcushion y
Ġcas ters
Ġuns ightly
Ġantic limactic
Ġmer it
Ġblur b
Ġpinch ing
Ġretain s
Ġlen ght
Ġpir ates
Ġblaz e
Ġmoistur izer
Ġunderst atement
Ġreun ion
prov ides
Ġtiff any
c reen
s ight
Ġb pa
Ġr al
ain ts
Ġsa nder
Ġri ley
Ġwho d
Ġspe lls
Ġhy undai
Ġspark ling
Ġumbre llas
Ġprogress ive
Ġfet ch
00 0
Ġemploy ee
Ġur ge
Ġdou glas
Ġenthrall ing
clear ly
Ġadoles cent
Ġcontrad ict
Ġhou ston
Ġc z
Ġy ikes
Ġse min
Ġpl ague
Ġstar k
Ġcl ueless
Ġgr rr
Ġwatch able
ang ing
Ġel bows
Ġple ather
Ġdri er
Ġline ar
Ġsy nd
Ġcra mmed
Ġcho ir
co ffee
Ġfire arm
Ġrese al
Ġsurv iving
log ue
Ġirrit ates
Ġpal ms
Ġreinforce ment
Ġt ide
Ġm d
Ġin ward
ment e
Ġatt est
Ġsad den
Ġpain s
Ġlet tuce
Ġmar bles
gr ad
Ġfunction ally
Ġpass able
Ġsil va
Ġpet t
ili ary
Ġtruth ful
Ġextend ing
Ġrout ines
Ġkno cks
Ġfac il
Ġenthusi asm
Ġcongr at
Ġira q
Ġf umes
Ġm g
ut ive
Ġnot ing
Ġre no
ent ive
Ġlo ser
Ġco bb
Ġte aser
Ġind ians
Ġsub plots
Ġnut ri
Ġharness es
Ġbang s
Ġmob ility
Ġenvironment al
Ġrhinest one
Ġlect ure
Ġjon athan
Ġelabor ate
rub ber
Ġtol kien
Ġdiscla imer
b us
c ott
k it
m uy
on o
Ġpro pped
Ġadd itions
Ġed itors
Ġmar kets
Ġrelax ation
Ġfurn ace
Ġbio logy
cra ppy
Ġdent ist
Ġaux iliary
Ġlect ura
Ġdestruct ion
Ġswee ter
er a
Ġp ont
is ons
Ġin ability
et ary
Ġu a
Ġr uffle
li est
Ġeffort lessly
Ġwireless ly
ifi ers
Ġcirc us
Ġrin sed
Ġdistort s
Ġspool s
Ġattend ing
Ġerr atic
Ġlicens ed
Ġfatig ue
p c
v ial
Ġthe sis
Ġn im
Ġmat ted
Ġman ly
Ġfa ults
Ġpe al
Ġcor olla
Ġgr ates
Ġbeginning s
Ġmicro phones
Ġbal ancing
head phones
Ġunre l
but tons
Ġexplo de
Ġken more
Ġbb c
Ġtransform ers
Ġmedic ation
Ġinteres ante
Ġth irds
Ġk g
Ġv ote
ph on
ky o
Ġfant as
Ġsimilar ities
Ġye ast
Ġbath rooms
Ġben n
Ġconsist s
Ġbill ed
Ġbill iona
Ġblan ks
Ġmouth s
Ġquestion ing
Ġskim mer
Ġrespons es
Ġprogress es
Ġprolong ed
e als
f ive
ad ded
Ġti vo
Ġout lines
Ġfe ast
Ġen ought
Ġab by
Ġpre form
Ġexpect s
Ġins pected
Ġz une
Ġtravel er
Ġded ication
person ally
l est
Ġf ow
Ġc ue
Ġg umb
Ġre write
ri ers
Ġse as
Ġme jor
li ers
ans as
Ġplot ted
Ġsub m
Ġfore warned
Ġexam ination
Ġinsp ires
Ġund e
Ġident ification
Ġmeaning less
lex ible
bec ca
Ġcomed ic
i ated
l id
Ġh ulk
ro red
Ġne ice
Ġr x
Ġen se
Ġab c
Ġma k
ab i
Ġte ther
Ġmin eral
Ġcare less
Ġmid west
Ġpred icted
Ġrot ary
Ġesca pes
Ġrequest s
Ġamong st
Ġpupp et
Ġcray ola
Ġrecover ing
Ġlinger ie
Ġfert il
Ġsympt oms
Ġt ing
er un
Ġis a
Ġin her
Ġch ia
em an
Ġpr un
Ġma ze
Ġca ptions
Ġun zi
Ġstr angers
Ġscreen play
Ġfli m
Ġheavy weight
Ġsy mmet
Ġexperi ments
Ġbrown s
Ġsna kes
Ġreco il
wond erfully
Ġharr ison
Ġcul pr
Ġcarab iner
Ġcors air
Ġb ak
Ġh mmm
Ġn ess
Ġun natural
ci ence
Ġed gy
Ġsty led
sh ad
Ġtra vis
Ġtem ple
tr ay
Ġlegg ing
Ġleash es
Ġmotiv ating
Ġsen nhe
Ġdeb t
Ġsymp athy
Ġc ider
en cer
ac a
st art
ra h
Ġfl ute
Ġjo an
Ġext r
Ġres il
Ġmar tha
Ġcool ed
Ġpres um
Ġcol umn
Ġsyn ch
Ġjoy ce
Ġrac co
Ġacknow ledge
Ġimprov ise
Ġbol ted
Ġl or
em a
Ġle gged
Ġthrough ly
Ġfree bie
Ġwal nut
mp unk
sc r
Ġmich elle
Ġgentle man
Ġexpress ions
Ġree bok
Ġvast ly
Ġandrew s
b ury
Ġf ern
al on
se ction
Ġch or
Ġan ita
Ġdis order
Ġun imagin
Ġsp ur
Ġkind ness
Ġatt or
Ġref ined
Ġcharacter istics
Ġpast ed
Ġwin ch
Ġpriv ile
Ġvitam in
Ġchee ks
s bur
Ġw an
Ġr g
Ġv om
Ġpart ners
Ġgl ides
Ġauthor ity
int rig
bs ter
Ġcons ult
Ġtouch pad
ugg ish
aa ay
Ġthom pson
Ġinvent ive
Ġenthusiast s
Ġcrumb ly
Ġcurs or
s il
en ch
st ones
Ġch ry
Ġref lections
Ġpain less
Ġnone x
Ġenviron ments
Ġlum ia
Ġevol ve
Ġrang es
Ġincorpor ated
Ġkat ie
stra ps
Ġbushing s
h ooked
Ġt ugging
Ġh unk
Ġl umin
Ġg ator
ro ph
Ġgreat ness
Ġk urt
ab ra
Ġlight est
Ġmar red
Ġfront ier
Ġoper ational
Ġstea mpunk
Ġesca p
Ġlinks ys
Ġlegit imate
Ġdess erts
Ġterri fying
Ġredes ign
Ġrestric ted
Ġwilder ness
Ġt ull
Ġth ail
Ġp p
Ġn un
ing ing
Ġe w
Ġas ton
Ġcan isters
est a
Ġexp ire
Ġoff ended
Ġwear er
Ġpe as
Ġda w
Ġmanufact ures
go es
Ġnet works
Ġbree zy
Ġsurround ings
cand y
Ġheartbre ak
mob ile
Ġthail and
Ġb act
Ġn uff
Ġbe have
ld a
Ġj ail
Ġunder developed
Ġinstall ments
Ġfla ked
iv a
Ġper t
Ġly n
Ġener getic
Ġintention ally
Ġrevolution ary
m ons
Ġo acute
Ġfor ty
st itching
Ġsu icide
Ġhas sel
Ġover lay
Ġsp its
Ġdes ires
Ġmon keys
fe el
Ġdesign ers
Ġche erful
Ġra wh
Ġwal t
Ġdist ress
Ġsens ation
Ġmac om
Ġcamp y
Ġlat te
Ġretail ers
Ġpatient ly
Ġast ound
Ġarchitect ure
Ġxt ra
Ġbour ne
Ġwhirl pool
Ġa u
Ġd umps
it zer
om er
Ġne cks
Ġk ath
Ġpr ism
Ġbo ils
Ġdown gr
Ġear pieces
Ġstand point
pr om
ne ll
iv an
Ġvis ibly
Ġannoying ly
Ġvo id
Ġrad ius
Ġpool s
Ġaccom od
Ġshif ted
Ġfest ive
Ġhal ter
Ġpyth on
Ġp int
Ġd ads
Ġca po
ight ful
Ġdi ane
Ġgoo ey
Ġwick ing
Ġrin sing
Ġgather ed
nes ota
Ġcharl otte
Ġoli ver
Ġconscious ness
Ġgrac ias
Ġtempl ates
Ġhig gins
t ough
w ing
Ġb ast
Ġb art
in arily
ri ve
Ġr s
Ġat tended
Ġma fia
Ġback ups
Ġcrack le
ons ider
Ġbow ed
Ġreme mb
Ġpat ty
Ġdan i
Ġlif el
fo lio
Ġprem ature
Ġoptim al
Ġfranc is
Ġunapp ealing
i mo
l ot
Ġde ff
Ġbet a
Ġbl ush
Ġmin nesota
Ġbott led
unch y
Ġprom oted
get ting
Ġslee ved
Ġver d
Ġener g
plug s
Ġesca ped
Ġbroad way
Ġhaw k
hel ps
Ġshad y
Ġec static
Ġassign ments
Ġillumin ated
haw k
Ġdimin ished
Ġfairyt ale
n els
n ets
Ġe lla
Ġfor bid
Ġu b
Ġpro ceed
Ġfr umpy
Ġno s
Ġno ah
Ġv ital
Ġta me
pr inted
Ġele ction
Ġgray ish
Ġpunch ing
bes ides
Ġkay aking
Ġdetract s
Ġnar c
Ġisl am
Ġorgin al
Ġproduc ers
Ġdo sen
Ġup ward
Ġup holster
Ġaw ak
Ġcor ruption
Ġsl uggish
Ġplastic y
po ints
Ġbag gie
Ġswe lling
Ġlist ens
Ġhook up
land s
Ġmir rored
Ġju icing
Ġloss es
Ġpowder y
Ġconsum ers
Ġbee fy
Ġvirt ual
cons in
Ġassass in
Ġimmers ed
Ġuninsp ired
l ength
m ere
Ġa hold
Ġw en
Ġb ice
Ġbu ckets
Ġafter ward
Ġv on
pl an
iz zy
Ġsn ipp
Ġbunch ing
Ġrot ated
Ġskill ed
Ġcere mon
Ġtwea king
Ġral ph
n ier
Ġa uss
Ġg unk
Ġca pp
Ġun protected
ca pt
Ġtri vial
Ġgl aze
Ġac ne
Ġatt itudes
Ġvacuum s
Ġrecogn izing
Ġcance led
Ġreward ing
Ġpett ico
y d
y hose
ac ement
Ġk yle
Ġab ridged
Ġsho ved
Ġbad ass
Ġreal ise
Ġdel ve
Ġstand by
Ġent icing
Ġimpress ions
Ġrid den
Ġcopy ing
Ġthri lls
Ġspl ur
Ġrac er
Ġwis consin
Ġcinem a
Ġsubmit ted
Ġallig ator
4 0
f iction
Ġh s
Ġl ud
Ġre els
om et
ious ly
Ġcou pler
Ġsub jective
Ġve il
ler y
Ġcompli ant
Ġperi pher
Ġcarr ot
Ġisol ated
g ian
j acket
s mo
Ġg le
Ġv ida
Ġunder gar
po st
ol in
Ġmis ter
arr ow
chea per
Ġsweat pants
Ġmp g
Ġspider man
Ġbis sell
Ġsynd rome
Ġmacom ber
Ġo c
Ġf onts
Ġco al
Ġcon qu
Ġproduct ive
Ġover coming
Ġman kind
ph ile
Ġdesign ing
bo se
Ġind ie
Ġcra z
Ġgard ens
Ġjam a
Ġstea ks
Ġsta pled
Ġpant yhose
Ġstrand ed
Ġidi ots
Ġhumming birds
Ġsex ually
Ġwaaa aay
inform ation
Ġm eds
Ġso bre
Ġstr uts
Ġauthor ized
Ġplot ting
Ġfact ors
Ġzi pping
Ġheart ache
Ġhun ters
Ġforget ting
Ġunre solved
ey e
Ġscoop ing
Ġremark ably
Ġknuck le
Ġintim id
m ain
t ouch
u ates
Ġt es
Ġi cons
Ġs es
Ġs own
Ġb ats
Ġm ashed
Ġha mb
Ġho pping
Ġun ob
Ġrecom med
Ġatt ire
Ġel sa
Ġwide ly
Ġpass age
Ġseason al
Ġconcer ts
Ġcomb ining
Ġupgr ades
Ġdefe ated
Ġcash mere
Ġtoast s
Ġtransport ation
Ġshaving s
Ġcruel ty
Ġstenc ils
Ġdl c
Ġorig ami
shar p
Ġnonex istent
Ġhamb ur
w olves
in ator
Ġp b
Ġn ag
le te
Ġlo aned
Ġco ke
Ġr ic
Ġtr acy
Ġdef ine
uff s
ex plain
Ġrem an
Ġcli matic
Ġcur t
Ġplan ters
Ġblo b
Ġbud ge
Ġbio graphies
Ġdump ing
Ġmurder ed
Ġconfirm ation
Ġpatri ot
Ġbenn ett
Ġculpr it
Ġf ier
Ġre all
Ġman gled
Ġwar ping
Ġclear s
ne th
Ġrid ers
Ġsens es
Ġgrind ers
Ġnic ole
Ġload er
bl u
Ġfrank lin
Ġinse c
Ġcompliment ary
Ġtumb lers
Ġmargin ally
Ġdistinct ive
Ġdestruct ive
Ġstim ulating
dire ctions
Ġschnau zer
l ig
Ġa le
re f
ri a
Ġgood y
Ġam used
Ġexp erts
Ġar du
Ġtri ggers
Ġhand gun
Ġpe bble
Ġsw ir
Ġser vers
ative ly
Ġpick le
eas es
Ġlim bs
Ġcamp us
Ġunlike able
Ġchuck le
Ġoptim istic
Ġwast es
Ġinfect ion
Ġdiver gent
Ġpon cho
Ġsple nd
Ġlabrad or
Ġgour met
Ġdak ota
p ain
y et
Ġd al
Ġd oodle
Ġcon ect
Ġwa xy
Ġaut umn
Ġcor gi
Ġplay list
Ġpers u
ret t
Ġcli pper
Ġsqu ash
Ġstraight ened
Ġoil ed
Ġmention ing
Ġcamp bell
uth er
Ġsyn cing
fr uit
Ġelev ated
Ġindul gent
Ġsubmer ged
Ġunsuccess ful
z ie
Ġth ay
Ġwh i
Ġdo ve
Ġli am
Ġse l
Ġcom edi
un comfortable
Ġcon n
Ġun box
Ġpre y
Ġcl am
Ġmay a
Ġinstall er
Ġcho ps
Ġview ers
Ġrough er
Ġmeant ime
Ġgam ers
Ġly nn
Ġdefe at
Ġpit iful
Ġproud ly
Ġfat al
Ġaggra vation
Ġdivers ion
Ġadj uster
Ġsentiment al
Ġdwar f
p eri
v ention
Ġt ins
Ġw ifes
Ġb bs
el ity
Ġhas s
Ġcheap y
Ġtri o
zz ard
Ġspread s
rec ently
Ġimpr int
Ġcertific ate
Ġgumb all
Ġpettico at
d vd
w ant
Ġb inge
Ġc oop
it ative
Ġre used
Ġph arm
Ġleft over
Ġart if
Ġwed nes
Ġbutter y
Ġvent ure
Ġnove llas
Ġsurround ed
Ġunfold ing
Ġspat ulas
Ġveter ans
Ġbehavi ors
Ġtournam ent
Ġsennhe iser
c astic
c ule
Ġto pping
Ġsh ards
pp les
Ġpo kes
Ġke ith
ab s
az zy
Ġter rit
Ġbul ges
Ġem its
Ġbread s
Ġwild ly
Ġvisit ors
Ġsurvivor s
Ġcoh esive
Ġhyster ical
Ġterrit ory
s uction
Ġw ives
Ġc b
Ġh ems
Ġj d
Ġme nd
Ġno is
Ġinst it
Ġcont ra
Ġhis s
Ġbr aces
Ġjo ckey
Ġfoot ed
Ġspr outs
Ġve in
Ġspan x
Ġapo log
Ġjul ian
Ġsla pped
Ġsinc ere
Ġrestrict ive
e ves
h og
ed ible
Ġto ppers
Ġj ere
Ġmay hem
Ġshort ing
Ġsn ark
sh r
Ġcho ker
Ġflat ware
Ġcondition ing
Ġseal ant
Ġpet ty
Ġdie go
Ġsquee zes
Ġclamp ing
Ġtread s
Ġsar castic
Ġdistrib uted
Ġinvent ed
thes es
excelent e
Ġnarc iss
d ings
Ġs is
al so
Ġli ver
Ġsh ank
Ġout ta
Ġinf in
wor n
Ġimp lied
Ġdi pped
Ġra ved
Ġprom o
Ġdist ill
Ġmult ip
Ġdim med
Ġhero ines
Ġgal ore
Ġinfl ating
Ġboyfriend s
Ġdetect ives
Ġhoney well
ime ters
Ġadm ired
Ġsav age
Ġconvert ible
Ġflare s
Ġreform at
Ġinsul ting
Ġnaught y
Ġmak ita
Ġm ills
ll ip
Ġlo llip
Ġpr icier
Ġwere wolves
Ġri val
po ster
Ġgen eal
Ġrep lied
Ġcollect ible
Ġsnug gle
Ġspo kes
Ġver a
Ġhood ies
Ġrecogn izable
Ġtrail ers
Ġfund ament
Ġactress es
Ġmisrepres entation
Ġreapp ly
Ġleot ard
Ġchry s
d ged
z he
Ġs if
Ġs iding
Ġd ora
ic ate
ag les
lf ul
ip ers
Ġper pet
Ġadv oc
head s
Ġpic oult
inst ein
Ġmill ions
Ġextend ers
Ġraz r
Ġquart z
fil ter
h an
j am
n i
ut ing
Ġco ded
Ġal ab
Ġout ward
Ġexp ires
Ġint rest
Ġbr oo
Ġra unchy
Ġbar ks
Ġprom oting
Ġtext ures
Ġrecip ies
Ġfore arm
Ġdan ces
inst ead
Ġnur ses
Ġtour ist
ino x
Ġfed eral
Ġtheat ers
Ġsail or
Ġm ow
Ġre becca
Ġr ica
Ġcan al
Ġfit flo
own ed
Ġbr at
Ġmess enger
Ġbra id
de vice
Ġhear s
Ġblu ish
Ġchick s
Ġscra ps
Ġexplan atory
Ġcollaps ing
Ġpla que
Ġcoach ing
Ġlick ing
Ġstupid ity
Ġdiscipl ine
Ġmorm on
Ġinter rupted
Ġtri pped
Ġra id
Ġconst ric
Ġgri me
ufact ured
Ġfrequ encies
Ġexperiment ing
Ġding ed
iw an
Ġmicros d
Ġinver ter
Ġunl ucky
Ġfoss il
re ak
Ġre ese
ca ps
Ġwr itting
Ġri vers
Ġta iwan
Ġmin er
Ġbelie vers
eng aging
Ġband ana
co s
Ġbi bs
Ġaff ir
Ġsearch es
Ġinvol ve
Ġrecogn izes
Ġwild life
Ġcompet itor
Ġreceipt s
Ġbless ings
Ġbrad ley
Ġhumming bird
Ġweal thy
Ġblat ant
g able
m ich
al thy
ter ribly
Ġu l
st orm
Ġal zhe
Ġun attached
ss ibly
ap ed
Ġx y
Ġmar g
op ed
Ġgri lled
Ġey ed
Ġpurpose ly
Ġmac y
Ġbuff er
Ġpoo ch
Ġdemand ing
Ġdeterior ate
cas m
Ġenlar ged
t ails
Ġo xy
Ġp se
Ġn uc
qu ed
Ġrec onsider
Ġsa ber
Ġsl ang
Ġve nder
Ġequ als
Ġly rical
Ġpath s
Ġpil ates
Ġwand er
Ġrac ial
Ġsar casm
Ġenvision ed
m l
z els
Ġs orted
id ences
Ġwith ing
st ract
Ġgreat s
Ġab dom
Ġab stract
Ġfun eral
Ġreal istically
Ġsk ating
Ġcheck book
Ġev ans
Ġgre edy
Ġcas ually
Ġdon ut
Ġgolf er
Ġdepart ure
Ġknit ted
Ġdemonstr ates
hum id
Ġdup ed
Ġcostum er
Ġdisgr ace
Ġwednes day
3 6
Ġt ge
Ġl ather
Ġe ee
Ġfor ums
Ġwith stood
Ġmo cha
Ġco iled
Ġpl s
Ġcan oe
Ġsc uba
Ġkeeps ake
Ġrest ored
Ġav oc
Ġgreen house
cc as
Ġran ks
Ġgard ner
Ġsam pler
Ġzip loc
Ġassum es
Ġraz er
Ġpier ce
Ġskull s
Ġexcell ant
Ġinevit able
Ġunrel ated
s and
t ure
t ool
Ġs ushi
Ġf atter
Ġl ung
Ġd ict
Ġre x
Ġso aps
Ġlo bster
ome ters
Ġal k
Ġho ll
Ġback lit
Ġro ger
Ġinf ra
Ġdi ps
Ġcare full
Ġgen ie
Ġcur ry
Ġexc l
co de
Ġschool er
Ġcy mb
Ġdoubt ful
Ġstrength s
Ġvibr ations
Ġchop sticks
Ġeth ics
Ġlubric ant
Ġasp iring
Ġmicros cope
Ġrelo ading
Ġembr ace
Ġplast icky
Ġbilliona ire
v ar
Ġ 1
Ġt m
Ġs ant
Ġb ah
Ġn ubs
om i
om on
ad d
Ġwh ack
st e
el f
Ġpl aster
Ġab it
Ġtw e
Ġstar ing
Ġins ign
Ġatt acks
Ġincl usion
Ġpen n
cy clo
Ġcreat or
Ġrecei vers
Ġant lers
Ġcig ar
Ġfid dling
Ġstabil izer
Ġcali per
Ġbrook lyn
Ġmcd on
d ust
Ġf us
Ġl r
le aked
Ġe mo
Ġdo cs
Ġbook mark
Ġr ott
Ġde pos
Ġen cyclo
Ġad vers
Ġbo gus
Ġgu ided
Ġstretch er
con cept
Ġtee thing
ru ps
ien e
Ġtransform ation
Ġhaha ha
Ġnu vi
Ġobst ruct
Ġexped ition
Ġsug ary
intrig uing
e lled
h t
n c
t ra
Ġin let
Ġu ke
Ġk il
Ġrep el
Ġfresh ly
Ġremind ing
Ġlaw rence
Ġtar ot
Ġwonder land
Ġprior ity
Ġstrength en
Ġsaf ari
kn ife
Ġcelebr ation
Ġentre ten
Ġclint on
Ġaerob ics
Ġimpul se
Ġses ame
s pend
Ġs aints
Ġp all
Ġto oo
Ġus d
Ġpl ag
Ġk er
ca ke
Ġtr aded
Ġpa lette
ily n
Ġkeep ers
ol ver
Ġinteresting ly
Ġpres erv
to ps
Ġfantastic ally
Ġmotor home
mar ked
Ġrac ism
Ġretain er
Ġet ched
Ġmelod ic
Ġisol ation
Ġmiser ably
Ġsucc inct
Ġelo qu
h ook
m ir
r ants
Ġa mend
Ġth ie
Ġn ate
ut o
ir y
Ġen rich
iz ers
inter est
Ġsub urban
Ġseat belt
Ġsharp ens
Ġver bose
Ġign orant
Ġbrit ain
bre aking
Ġdavid son
Ġbond ed
Ġpier ced
Ġlouis iana
Ġcomprom ised
Ġabund ance
Ġdeod orant
Ġinoper able
d ark
h ensive
m ath
Ġa ve
Ġn az
Ġsh out
Ġco y
Ġca ms
Ġbo g
Ġamaz e
Ġjo el
ne ys
Ġswe pt
Ġball er
Ġform ulas
Ġcomm only
Ġbeh old
Ġeffort less
Ġwidth s
Ġprem ier
Ġsquee gee
Ġhing ed
Ġgross ly
Ġincom ing
Ġmotiv ations
Ġharle quin
Ġpert inent
j an
Ġi b
Ġh ud
Ġg rie
Ġha ce
Ġse th
Ġbook case
Ġmo en
est e
Ġca ges
Ġtr in
Ġri pe
ire ct
Ġear ings
Ġcut eness
Ġres ume
Ġsupp liers
Ġrem edi
Ġsens ual
Ġjump y
Ġtur bot
Ġbrilli ance
Ġbun ion
Ġtour ing
Ġdigest ive
Ġdetract ed
Ġruff les
Ġcarn ival
Ġturbot ax
c p
Ġt ines
Ġt pu
ill es
Ġv ionic
Ġput ter
ose x
Ġreg istration
Ġcur b
Ġrom per
Ġblo gs
Ġcre ed
Ġcaps ule
Ġquir ks
Ġfry e
Ġcharacteriz ations
cas ue
Ġappoint ments
Ġcontempl ating
Ġtull e
t one
ca ution
Ġar nold
Ġdefin atly
ib les
Ġmid s
Ġpan ic
Ġbrown ies
Ġsal ted
Ġbear able
Ġrob ots
Ġknot ted
Ġassist ant
Ġtact ile
wa ited
Ġalle vi
cost ume
u ating
Ġn am
ed o
at ra
Ġbe casue
Ġco ve
Ġpur ifier
Ġag ency
Ġdiff rent
Ġdi pping
Ġsha fts
any thing
Ġport folio
Ġvis ors
play able
Ġsort ing
Ġdece it
sp ent
Ġinte x
Ġden ver
Ġlegend ary
Ġampl ified
Ġros ary
Ġp f
Ġp ice
Ġn an
ul us
Ġout comes
un ting
Ġma j
Ġle ase
Ġdef lect
Ġnight ly
Ġsand ford
Ġbuck led
Ġtur k
Ġsuspect s
hel ped
Ġlibro s
Ġebook s
Ġcateg ories
Ġpsych ic
Ġdisclo sed
Ġmerc ury
Ġcashew s
Ġattor ney
Ġauss ie
r ug
u u
er ving
Ġre installed
ro lled
Ġread out
Ġrecom ment
Ġbro ch
Ġcar rie
Ġac ura
Ġcr ushing
Ġdi agon
Ġchrist ine
Ġwal ter
Ġconf lic
cle an
Ġhistor ian
sle eves
Ġdele ting
len e
Ġsuck ers
Ġrp g
Ġbact eria
g reen
Ġt attered
Ġi cy
Ġc ust
Ġgood ie
ps y
Ġri gged
Ġfa iries
ath ize
Ġpe bbles
Ġimp orted
Ġgir th
Ġgri pped
Ġcoff eem
Ġcreat ions
Ġinv itations
Ġheat ers
Ġdish onest
Ġtrick ed
Ġpound ing
Ġillustr ate
Ġrob inson
Ġconsum ed
Ġdispens ing
Ġchains aw
Ġknockoff s
Ġrang ing
Ġmudd led
Ġmast iff
Ġense mble
Ġreman ufactured
Ġmcdon ald
3 00
b ac
as i
an ian
Ġan i
Ġco ben
Ġun certain
Ġsa pp
Ġpre pping
Ġmat rix
Ġend urance
Ġfo gs
mo on
Ġclo gging
Ġfront line
Ġrest or
Ġsch em
Ġavail ability
Ġmean ings
Ġexam ine
Ġnet book
Ġgrad uated
Ġlemon ade
Ġwand ering
Ġles bian
Ġni bs
sty lish
Ġartif act
t im
Ġc isco
ro ck
Ġho ver
Ġun playable
Ġmon k
Ġthing y
Ġfa kes
Ġfin ance
wor se
Ġones ies
Ġpain ter
Ġfavor able
Ġmar ines
Ġwall paper
Ġnarr ated
Ġbra king
Ġflat t
he ard
pack aged
Ġsou lful
Ġcast s
Ġsink ing
Ġtom tom
Ġpublic ations
Ġspan iel
Ġresid ents
Ġspar ingly
Ġrac quet
Ġox id
anna h
Ġmemor ial
Ġoffic ers
Ġkeller man
Ġalab ama
ac ity
ir teen
Ġqu ot
un ci
Ġdis p
Ġend ea
ens ible
Ġfun ko
Ġhead er
Ġbre nda
Ġsha ved
Ġhuge ly
Ġannoy s
Ġempt ied
Ġflick s
Ġjud g
Ġpun ishment
Ġmuff s
Ġenh ances
Ġtoler ance
Ġresc ued
Ġvibr ating
Ġcran king
Ġcud dle
Ġbern ie
Ġunse en
Ġtink er
Ġlle go
Ġmyst ical
Ġbloss om
Ġarro gant
Ġgira ffe
d an
h ang
h ilarious
Ġm n
Ġin line
Ġin edible
Ġmy stic
ri fying
Ġpo pe
so ver
ud a
Ġple ats
Ġstart up
Ġgar ter
Ġvol vo
perfect ly
Ġaudio phile
Ġeye br
bre aker
ime ter
Ġcert ification
Ġmand atory
Ġswa pping
Ġtodo s
pill ow
Ġfingern ail
Ġexcerpt s
Ġtrous ers
Ġsadden ed
h ou
Ġw oofer
on ic
Ġst out
Ġco bra
Ġag ents
Ġsc ans
te c
Ġac ces
Ġra ving
Ġunt angle
Ġrefund ing
Ġsnug ger
Ġlab elled
Ġass ure
super b
Ġempt ying
Ġspl ice
Ġadm ir
Ġexpos es
thin ner
Ġcourage ous
Ġpreach ing
rem ote
Ġpoin ters
Ġrit ual
Ġchrys ler
p ress
s ub
Ġo ster
Ġf ret
us b
Ġti med
Ġr he
un ct
Ġde ere
Ġdis organized
Ġhi red
Ġfl int
are l
ber y
Ġprot o
Ġfil tr
Ġmar ilyn
Ġval ance
Ġir is
Ġiron ic
Ġze lda
Ġacqu ire
Ġpron unci
Ġfreak in
Ġproofread er
Ġcorks crew
Ġswed ish
Ġsplend id
Ġfiltr ation
a f
c ers
d ies
Ġt sa
Ġi z
Ġl s
ce eds
Ġwill ie
Ġk omb
Ġover size
Ġfo lio
Ġapp arel
hor ribly
sh owed
Ġsat an
Ġsub mar
Ġsqu ared
Ġinv asion
Ġcross bow
Ġrev ise
Ġdisney land
Ġsup reme
Ġdispens ers
Ġgig gle
Ġutil ized
Ġavi ation
Ġbobb ins
const antly
k now
m ouse
t t
Ġa ches
Ġl ashes
Ġg mo
Ġe llen
ion es
Ġpro hib
Ġat kins
Ġal p
Ġout lined
the ast
un ning
Ġrec ur
Ġbo ating
Ġsc ored
Ġact u
Ġaut or
Ġdra ke
Ġpres idents
Ġform ats
Ġeff iciency
Ġdev our
Ġappreci ates
Ġdrain age
sim ilar
Ġeditor ial
Ġado pt
Ġdisintegr ate
Ġbobb in
Ġbage l
Ġunco vered
i ating
l is
Ġl ush
Ġto mb
Ġg in
Ġout age
Ġk athy
Ġtw ine
Ġsc ooper
Ġthr ones
Ġinf lexible
Ġz ap
Ġz ane
Ġmar cus
Ġwom ans
Ġsqu ad
Ġxl t
Ġframe work
Ġhar vest
Ġcenter piece
Ġlim iting
Ġland fill
Ġsyn ced
Ġske leton
Ġbell e
Ġdc or
Ġquil ted
Ġdiagno sis
Ġclump ing
Ġunfor get
repl acement
Ġancest ors
Ġrawh ide
Ġp ts
Ġh ight
Ġre eds
ad vant
Ġj ets
ear ly
Ġgr ater
Ġinc idents
Ġbel ive
Ġdeli ber
Ġtwist y
Ġshr ug
con y
ery l
Ġken neth
Ġpupp ets
Ġrepro du
Ġbush es
Ġfulfill ing
Ġunpack ing
Ġobtain ed
Ġcamel b
Ġth orn
Ġo mitted
Ġp su
Ġbut ler
ke eping
Ġup wards
Ġdis cribed
Ġv ain
Ġri pper
ff y
Ġshort est
Ġfast ening
no pe
Ġcop ier
Ġsil hou
cle ver
Ġhero ic
Ġbusiness es
Ġfoc al
Ġrelig ions
Ġvict ory
end ing
Ġhill ary
Ġpoo rest
Ġlaunder ed
Ġadhes ion
Ġwaterf all
e z
h ound
er es
Ġm unch
Ġdo orm
ac ious
Ġpro pri
Ġk ale
Ġfe eds
Ġtight est
Ġdec l
Ġbrand on
Ġroom ier
Ġper ception
Ġadjust ability
Ġgri m
Ġhistor ies
Ġpot ent
Ġba pt
Ġvi able
Ġwaterproof ing
Ġgym n
Ġpor que
Ġmotorcy cles
Ġenlight en
grand daughter
surpr ised
Ġbage ls
Ġdeci pher
Ġcapp ucc
m c
z illa
Ġth irteen
Ġc ured
Ġm iz
Ġbe le
Ġso aks
Ġor anges
Ġme yer
pl us
Ġunder rated
ang led
Ġstra it
ix on
ord on
Ġsens ory
Ġsens ational
Ġest eem
Ġpor ter
Ġcrit eria
Ġsciss or
Ġnavig ating
now here
Ġplacem ats
Ġpersever ance
g ly
Ġt um
ou fl
le aves
Ġe instein
Ġme ow
lo e
Ġwar ner
Ġra pp
Ġmus lim
Ġcall ers
Ġmid i
Ġshar ks
iss ions
Ġguitar ist
Ġspl ot
Ġath lete
Ġcomplet ion
Ġtrump et
pow erful
Ġpredecess or
n it
Ġs orrow
Ġb li
Ġc k
Ġp ict
Ġwill is
Ġfl ared
Ġte ase
po ly
ang les
Ġele vation
Ġsleep y
Ġgre eting
port ant
Ġlou ise
Ġarc ade
Ġpros pective
Ġcliffh angers
Ġbrid ges
Ġcric ut
Ġbirken stock
Ġreimbur sed
Ġneglect ed
c al
ll ant
Ġg ree
Ġg als
on na
Ġsi ren
Ġho pper
au g
Ġro aches
Ġshow ering
Ġclo ver
bo b
Ġres pected
Ġwhite board
Ġdam on
co aster
Ġpet co
Ġdull er
Ġpositive ly
Ġbreath es
Ġhoney moon
Ġunw ind
Ġles lie
Ġtheat rical
Ġcompo sed
Ġexcell ence
nold s
Ġcoffeem aker
Ġw olver
Ġm its
it ating
ar io
Ġv ader
Ġgo at
Ġfo e
Ġhigh lander
Ġcar son
Ġgr ades
ne g
Ġper cy
Ġlisten er
Ġop rah
Ġwid est
Ġcol a
Ġcy an
Ġsmo key
Ġdin o
Ġcompet ing
Ġcommunic ating
Ġgogg le
Ġcomplet es
Ġrecomm and
vol ume
Ġtestim ony
Ġnuc lear
Ġc fl
Ġd uff
Ġd angle
us cript
ble ms
el and
Ġsm idge
Ġover board
Ġsp am
Ġbl aster
Ġcor ps
po ons
Ġcr ud
Ġcr ouch
Ġdress ier
Ġpin ned
Ġcarpet ing
Ġign ores
Ġcarb ure
Ġmicrow a
Ġjourn als
Ġmood y
Ġtro y
Ġexpos ition
Ġpreschool ers
Ġtroublesho ot
Ġartic ulation
Ġdre ary
Ġcollea gues
Ġmh z
Ġfertil izer
Ġmarg aret
1 5
x im
Ġw s
Ġo ats
Ġre vision
pp age
ce ll
lo ving
Ġman uscript
ens er
Ġear lo
Ġid ol
Ġdeal ers
Ġbab ys
Ġcam oufl
tr ash
Ġflower y
Ġroller coaster
Ġmotiv ate
Ġrepro duct
Ġsher iff
Ġreh ab
Ġprinci ple
Ġsla ves
Ġdexter ity
Ġstee le
Ġrey nolds
Ġsuspen ce
Ġendea vor
xim ity
l ance
r ons
oo sh
Ġli fter
Ġlo an
Ġco herent
Ġde humid
ind a
ink le
Ġcl umpy
Ġreal ities
Ġport ug
cept ible
Ġob lig
Ġfle et
Ġstock ed
Ġeye let
Ġequ ipped
Ġwo ld
Ġdon uts
Ġfro gs
Ġsoooo oooo
hand s
Ġslid ers
Ġramb les
Ġinvestig ate
Ġgod zilla
Ġsurpass ed
Ġupholster y
b ub
f ills
Ġa the
Ġdo d
Ġcom mend
Ġv ic
Ġstar ring
Ġmat ress
Ġsl r
Ġcr v
Ġche es
mm a
Ġlay man
Ġwid ow
Ġna val
Ġinspir on
Ġexpert ise
Ġteas poon
Ġportra its
Ġcoinc idences
Ġuncom mon
g rew
Ġo we
ar ound
Ġta re
Ġaw g
Ġpe ac
Ġexc urs
Ġrefund s
Ġgar bled
mm able
play ed
Ġbath s
Ġflex es
ann on
Ġauto graph
Ġrob bed
Ġcub a
Ġpit a
Ġpets mart
Ġcivil ization
Ġcelebr ity
Ġkle en
Ġremas ter
Ġincreasing ly
Ġpodcast s
Ġinevit ably
medi ocre
Ġsweeten ers
p in
Ġc um
Ġp yle
Ġn f
Ġl m
Ġex ited
Ġsu nd
Ġdis li
Ġpre teen
Ġinst inct
sh ock
Ġmid st
Ġprom pted
Ġye ll
Ġwrist let
Ġcol um
Ġdeter rent
Ġpatch ed
Ġrou ters
Ġpend ants
Ġven ice
Ġnightmare s
Ġcock er
Ġtitan ic
Ġhind sight
Ġseper ated
Ġdimin ish
Ġzeal and
Ġcongrat ulations
blu etooth
Ġflatt ens
r ont
Ġus ability
Ġwork place
Ġsn ee
Ġsun k
Ġrese ll
Ġce il
Ġmel on
Ġwheel er
Ġcre st
Ġbump ing
Ġdefe nd
Ġemer ald
Ġange les
watch able
Ġjaw bone
Ġreserv ation
Ġreb ate
Ġeval uation
Ġaccompan ied
Ġemboss ed
Ġfizz led
mus ic
Ġorph an
Ġturk ish
v il
Ġt l
Ġa aron
Ġh ic
Ġha gg
Ġha zy
Ġpro ximity
Ġdis res
thing s
Ġfl aming
Ġsound bar
Ġx small
Ġreg isters
ier a
Ġmar in
Ġbra very
Ġhur ried
Ġfold able
Ġny lab
kind le
Ġpil ots
Ġplat forms
Ġbib les
Ġflav our
Ġcha ff
Ġrestart ing
Ġpud dles
Ġscrapbook ing
Ġparad ise
Ġunob trusive
Ġhud son
Ġh ulu
Ġl ull
et ta
se nd
Ġr ises
Ġthan x
ort ex
Ġdis advant
Ġcr ane
im age
ia h
Ġvac cum
Ġpet ro
Ġsweat shirts
Ġshut off
Ġcross es
Ġchrome cast
Ġrev ived
Ġcompet ent
Ġach illes
accur ate
bet ween
Ġcass ero
old er
Ġpoo h
Ġdemand s
Ġbrides maids
Ġaccomod ate
Ġcamelb ak
v ideo
Ġi pods
Ġa pe
Ġl te
ri ll
Ġan ton
Ġout ings
Ġsa man
Ġimp aired
Ġsoft ened
Ġdam pen
Ġflo yd
Ġer ased
Ġbirth days
Ġprogra mmable
Ġbal cony
Ġcompat able
Ġcri m
big gest
Ġprincess es
Ġcrimp ed
mag net
Ġplex ig
Ġsaman tha
w id
in et
Ġp interest
Ġh ull
Ġd na
Ġu ppers
Ġch ir
Ġj b
Ġse uss
Ġpo ll
Ġbo bble
Ġmis matched
Ġstra ining
Ġtra um
Ġslow ing
Ġrem arks
Ġpass ive
umb ling
Ġsun set
Ġaff airs
Ġsca mmed
Ġver ry
Ġpolit icians
Ġcrit ics
Ġadvertisement s
Ġtroubles ome
fi ghter
short s
bott le
wo ven
Ġmaid en
Ġsurg ical
t em
Ġt ung
om atic
Ġsh ure
Ġj ing
Ġcan yon
Ġen ables
act ual
Ġpo ach
erf ull
Ġta ps
Ġint ensive
ens on
Ġinto ler
Ġjo g
im portant
pr inter
Ġdoll y
Ġcraf ty
Ġdefe ating
Ġtransform ed
ob i
Ġfer ret
Ġtreasure s
Ġmanip ulation
Ġlaunder ing
mic ro
Ġchaf ing
Ġhass les
Ġnaz is
Ġpropri etary
ll ect
Ġnot ifications
al g
me asure
Ġti ara
itt ings
Ġover load
Ġwat son
ms on
Ġhis sing
Ġmin ister
Ġsli ppage
Ġdi vision
Ġmust ache
ex cept
Ġsme lt
Ġsy ring
Ġsqu eal
Ġimm ort
Ġrecip ients
Ġvo ila
Ġfire arms
con venient
Ġsew er
Ġbur ger
Ġabsor ption
sc rew
da vid
Ġdiv ide
Ġjet ta
sme lled
Ġfund s
Ġpreschool er
Ġunderst ated
Ġinfra red
Ġunforget table
e le
Ġs ally
Ġb itty
Ġp oth
Ġn pr
as ide
Ġg ordon
Ġso ren
ill ac
ag en
ish op
Ġtw ain
Ġher os
bo at
Ġcou l
Ġscratch er
Ġda le
Ġdist urb
Ġinv iting
Ġsweet ened
Ġpar ade
Ġpar ody
Ġbur ke
Ġsmo ky
Ġinfl ation
Ġnut ty
Ġassum ptions
hard ly
Ġinaccur acies
Ġportray ing
Ġtac o
Ġclim ates
Ġench anting
Ġmarshm allows
Ġsilhou ette
m aker
Ġw ag
Ġre ins
Ġch ills
Ġne o
Ġlo ft
Ġal ge
Ġsi enna
Ġfr uity
Ġkn e
Ġinter woven
Ġkind ly
Ġgr ating
Ġdec line
Ġje llo
Ġblu er
Ġdig its
Ġlaw yers
Ġcol in
Ġsouth west
Ġdock ed
Ġgain s
Ġbattle field
Ġwil ton
Ġsig ning
Ġrais ins
Ġcamis ole
Ġw ets
Ġf x
Ġf isk
Ġre he
Ġe tern
ro it
Ġde pp
Ġdis assembled
ish i
Ġdog gy
Ġdri pped
Ġcur ren
Ġray on
Ġesca ping
Ġgain ing
Ġjournal ing
Ġpolar oid
Ġspar ked
Ġalcohol ic
Ġcad illac
Ġpistol s
Ġimperfect ion
av oid
Ġcrink led
Ġpromot ional
Ġdiscou rage
Ġredes igned
Ġcomplic ations
Ġnaut ical
Ġmeander ing
j ames
m ail
n ap
Ġj f
vel ess
Ġdet roit
Ġind is
Ġent it
Ġdevelop ments
Ġfre aked
Ġpresent able
Ġslee veless
Ġskin nier
Ġink jet
Ġrock ed
Ġnet working
Ġtrick le
Ġshame ful
log ically
Ġhom osex
Ġbroad er
Ġbitter ness
Ġtil ting
Ġsan it
Ġrail road
Ġfragr ant
Ġado ption
flow ers
Ġindepend ence
Ġgut ter
Ġmemoir s
Ġcyl ind
Ġpud ding
Ġbou quet
Ġembell ish
Ġunhe althy
Ġunde veloped
Ġceremon y
Ġencyclo p
e nder
k no
w al
w aa
y ep
Ġa acute
in side
al ie
ra ine
Ġout back
Ġno ses
Ġun set
ott o
ead y
Ġdro pper
Ġnight time
Ġve ts
Ġtrans cend
Ġentertain s
Ġalong side
res so
Ġpract ition
ield y
Ġcross fit
Ġdeath s
Ġchip m
Ġinj uries
Ġacid ic
turn s
Ġvoy age
Ġdement ia
Ġardu ino
c reat
Ġt et
ut ton
Ġnot ep
Ġj vc
Ġr ushing
Ġfr onts
Ġapp eals
Ġscreen ed
Ġche et
Ġunt ied
Ġswe eping
Ġleather man
Ġrid dled
igh th
Ġpar ked
bu ying
Ġquant um
Ġroast ing
Ġchron o
Ġoptim us
Ġdeploy ed
Ġpedest rian
Ġabsolut ly
Ġunimagin ative
mich ael
b earing
c all
c uit
l ons
w ide
Ġw oud
ed ies
ed dar
Ġto ners
Ġdo ct
Ġch eddar
Ġpl ump
Ġtri bul
Ġthin ly
Ġpoor er
Ġrem edies
Ġair lines
Ġtaste ful
Ġclip board
Ġspecial ized
Ġrand y
Ġtrain ers
Ġram en
Ġqual ified
Ġpret zels
Ġtoothp ick
eriz ing
Ġdil uted
Ġkidna pped
Ġome ga
Ġfundament als
Ġpeac ock
Ġtribul ations
c ies
p it
Ġmo ck
Ġk ane
Ġde e
Ġuse ing
lo ading
Ġfar mer
Ġmin ty
Ġbrand ing
Ġche ering
Ġtra its
iv able
Ġair brush
Ġperform ers
aw kward
Ġinex peri
Ġeyes ight
Ġver bal
Ġempt or
Ġdelight fully
Ġflick ered
Ġbun ions
Ġcore y
Ġunw ieldy
Ġheaven ly
Ġcelebr ate
Ġdread ed
Ġmant le
Ġorganiz ers
Ġpel ican
Ġinsec ure
Ġb if
at in
le um
Ġst ench
Ġwe nd
Ġpro ving
Ġal way
Ġsmall s
Ġke l
Ġmay o
ud o
Ġshort age
Ġind ig
Ġlength wise
Ġbra ins
Ġcop ter
Ġsummer time
Ġhy po
fl a
Ġpor ous
bl ue
Ġtin a
Ġbuff et
ser vice
Ġlawn m
asse ls
Ġunif orms
Ġyuck y
Ġdiscoura ged
Ġspellb inding
Ġgoth ic
Ġsnowboard ing
Ġjudg ment
h ubby
n asty
Ġg w
Ġco gn
Ġjust ified
ere k
Ġpl ight
Ġcon ceived
Ġins ider
Ġear plugs
Ġbar nes
Ġye lling
Ġcapt ive
Ġproof ing
Ġtor o
Ġden zel
but ton
Ġunst itched
Ġmort al
Ġlect ures
Ġglor ious
Ġinval id
Ġrelo c
Ġspong es
Ġpetro leum
c ontin
w ax
Ġis t
Ġre wards
et own
Ġfr ays
Ġca ulk
ide on
Ġbit ters
Ġins ist
Ġsn ea
pr ay
Ġshar on
Ġspot ted
Ġbal m
Ġsnow man
Ġsurv ives
Ġcent uries
Ġbull ying
Ġhom etown
Ġdom ino
Ġinno cence
Ġcock at
oret te
Ġbachel orette
Ġextrem ly
Ġcontra ption
d ear
i ro
Ġs nd
Ġm ould
Ġto pped
Ġto ooo
ad ium
Ġy up
Ġlo bby
Ġr ant
Ġun broken
ab a
Ġlight en
Ġdec lined
op es
Ġev an
Ġperi meter
Ġocc ass
sa ved
Ġcott age
Ġclos ets
Ġfly s
Ġprompt s
Ġrepair able
Ġsalt water
Ġden nis
Ġww i
Ġmas king
Ġhan ks
Ġelimin ating
Ġconver ting
Ġaim ing
Ġpom er
Ġshin ier
Ġinterpret ations
Ġmasc ara
Ġaccompan iment
Ġhyd ration
Ġdoorm at
Ġcarbure tor
Ġceil ings
f u
g alley
Ġw er
Ġh ans
Ġch ow
Ġj s
Ġal gun
Ġthere after
Ġsp encer
Ġhand ker
mo il
Ġsha per
Ġhands ets
Ġnet galley
Ġcross word
Ġtur moil
Ġcro pped
Ġmad ness
Ġstack able
Ġovers ight
Ġclich ed
Ġchoo ses
Ġicon ic
Ġaband on
Ġexped ited
Ġpersona jes
Ġgodd ess
conf using
Ġcappucc ino
Ġhandker chief
l oud
w w
Ġth w
Ġl ugs
ch anged
ro y
pp ie
Ġne arest
Ġex iting
Ġsu ll
Ġk ool
pl anted
Ġkn ack
Ġact uality
ci ble
Ġmin ing
Ġdec o
Ġstra ined
Ġres ent
Ġgra ft
Ġcoff e
co ck
Ġsmooth ed
Ġcart s
Ġtrack ed
Ġspot light
Ġdepth s
Ġmechan isms
Ġbur ton
Ġapproach ing
Ġgap ing
Ġstruct ures
Ġvivid ly
Ġlean ed
Ġrespect s
Ġroot ed
Ġcommand er
Ġcrock pot
Ġsett ling
Ġgreg ory
Ġentreprene ur
Ġunzi pped
Ġoxy gen
9 0
v ian
Ġ 6
Ġ velo
Ġthe o
Ġf used
Ġun explain
Ġyear ly
Ġseem ing
Ġpe ep
Ġthin ness
Ġsn ob
Ġsur vey
Ġcamer on
Ġpast ry
Ġele gance
Ġmail s
Ġdisa pointment
Ġbund led
list en
Ġcontrib ution
Ġundersh irts
Ġsplinter ed
Ġcus sing
Ġhighlighter s
Ġarab ic
Ġmarshm allow
Ġthirst y
Ġcamoufl age
k id
k ick
p ages
Ġt assels
Ġd izzy
Ġre ass
Ġre ign
Ġwh ale
ac in
Ġj ee
Ġdes cend
Ġcar o
bs p
Ġsleep ers
Ġpar ake
Ġword ed
Ġwed dings
Ġking ston
Ġfu ji
Ġcompar isons
Ġq i
Ġow en
Ġchron ological
Ġindepend ently
Ġagre ement
Ġreson ate
Ġilleg ible
Ġrib bed
stra ight
Ġdiscre et
Ġdissip ate
c art
Ġi acute
Ġsh ir
pp ily
Ġpro logue
Ġout last
Ġafter math
Ġv tech
Ġar ises
Ġman ne
Ġunder arm
Ġfan ci
inter ested
Ġball istic
Ġsqu ashed
Ġmulti ples
Ġboard ing
Ġaff ix
Ġcell ular
Ġgrill e
Ġengine ers
Ġtort illas
Ġsav annah
Ġdiscus ses
Ġparall els
Ġobserv ation
Ġcoinc idence
Ġcomed ies
Ġmesm erizing
smo oth
Ġminer als
Ġdisres pect
wid th
l uck
n ormal
Ġl un
Ġin h
Ġch loe
un ique
Ġthere for
Ġover time
Ġsp ont
Ġlight bulb
Ġapp ar
Ġgl az
Ġcr ummy
Ġprotect er
Ġbas il
Ġsha ver
Ġgri pper
Ġsch o
Ġsmooth ing
Ġprefer ences
exce ption
Ġill usion
Ġbrown ing
Ġship ments
Ġfresh man
Ġcountry side
Ġmechan ically
Ġreli ed
Ġtin iest
unt u
Ġunst eady
Ġbreast fe
Ġjen ny
Ġbudd ing
Ġknight s
i ments
k ie
v ised
Ġp arch
Ġn ip
at us
Ġg iz
Ġg ideon
th ood
al i
Ġdo ber
se ls
Ġfe ist
Ġinter rupt
Ġcover up
Ġjo ining
Ġprov ocative
Ġgri ppers
Ġgar land
Ġmult itude
Ġcamp fire
Ġcol omb
Ġstea med
Ġunre ason
Ġantenna e
Ġconvers ational
Ġket ch
thy st
Ġox ford
Ġrang ers
Ġpretend ing
Ġillum inating
whe el
Ġsnipp ets
Ġdehumid ifier
Ġencyclop edia
Ġparch ment
b uster
m ount
Ġl est
Ġd itch
Ġre w
Ġdis able
Ġun watchable
Ġbro s
Ġcar riers
Ġpick les
Ġdr ool
Ġbelieve able
Ġut f
Ġlocks mith
Ġbrit a
Ġscream s
Ġflood ed
Ġgn ats
Ġaven gers
Ġame thyst
Ġpts d
w au
Ġb oooo
Ġd int
Ġd erek
Ġy ah
ro b
Ġu ber
st en
Ġan a
Ġhas h
Ġmu le
Ġsp here
Ġbl ouses
Ġinter pre
Ġori ental
Ġsy d
Ġtravel ers
Ġunus eable
Ġreli es
Ġsignific ance
Ġprim itive
Ġpercent ile
Ġevol ving
Ġtim othy
Ġspy der
bi age
Ġgs d
Ġcoord inate
Ġprope ller
Ġspong y
Ġalk aline
wau kee
g il
Ġc reme
Ġp edi
Ġp ige
Ġn ash
at ley
Ġr iser
act ive
uck le
Ġtra ma
Ġla kes
Ġhair line
Ġant agon
Ġunb reak
Ġver biage
Ġstre aky
Ġign or
Ġtherm ometers
Ġsac red
Ġet ching
Ġloa fers
Ġshim ano
Ġluke warm
Ġsubsequ ently
Ġlex mark
connect ed
Ġalzhe imer
Ġtung sten
Ġunset t
Ġunbreak able
b ir
l ousy
p ur
re nder
Ġo g
Ġh vac
Ġto ll
Ġmo lle
ce nding
Ġr ico
Ġsc outs
Ġph d
te x
Ġsuper vision
Ġz ones
Ġclass ified
Ġrest arted
Ġsharpen ers
Ġscra bble
Ġdrawback s
Ġach ing
sto cks
Ġnu ances
Ġinfect ed
Ġadmin istration
Ġuninsp iring
Ġcater pill
Ġwhod unit
Ġtes la
Ġjere my
fla vor
Ġlawnm ower
p ix
Ġt shirts
Ġb ishop
Ġdo ses
Ġsh ading
Ġpl ow
Ġk ers
ig ra
Ġpurch as
Ġte ac
Ġel ong
Ġres ur
Ġcoll een
Ġblue grass
Ġev ange
fy i
Ġmil waukee
Ġtun nels
Ġge omet
Ġstream s
yy y
Ġstamp ing
Ġange la
Ġbod ied
Ġramb led
Ġalter ing
Ġairpl anes
Ġbleach ed
Ġcric ket
Ġwides creen
Ġremedi ed
Ġkers haw
l ace
l isted
p ull
r ange
z one
Ġth aw
Ġb ale
Ġst i
Ġdo yle
se a
Ġk ir
Ġv ouch
Ġtw eak
Ġle ery
Ġmat er
hor se
Ġpers ist
sh ows
Ġdi ale
Ġmet iculous
Ġlist ings
Ġbra g
Ġmot ives
Ġlevel ing
Ġimag ining
Ġarm ed
Ġsna ppy
Ġlatch ed
Ġdrum mer
fa vor
Ġbound aries
Ġjumps uit
Ġtort ured
Ġfid get
Ġsed an
Ġsig ma
Ġfier ce
Ġdiale ct
d et
Ġt ud
Ġg ur
Ġbe aded
Ġmo ccas
Ġdis rupt
Ġrec ondition
Ġsa vor
Ġcar ved
Ġturn ers
fe w
im ed
Ġdesign ated
Ġprob es
Ġcook top
Ġhy dra
Ġinsert ion
Ġphotograph ed
Ġban ned
Ġmur ray
Ġbond ing
Ġax is
Ġfer rets
Ġfid elity
Ġmand olin
Ġreject s
Ġcrink ly
Ġmitch ell
Ġannoun ce
Ġperm ission
Ġmelodra matic
c co
ver ty
Ġal go
Ġlook in
Ġout ter
Ġtime frame
Ġmu ck
Ġback seat
ens ical
az ard
ning s
Ġdel ays
Ġreg ain
Ġey ep
Ġdoor way
Ġpred icable
Ġappro ve
Ġlower ing
Ġabs ent
Ġxx s
Ġden ied
Ġdang ers
Ġmargin s
Ġsex uality
Ġcrumb les
Ġcrumb ling
Ġalt ima
Ġhast a
Ġkidna pping
Ġproto col
Ġplexig lass
screw s
s illy
Ġc j
Ġfor um
Ġli ken
Ġch im
Ġhe nd
Ġrec k
Ġpo verty
so red
Ġle igh
Ġfun c
Ġro gers
Ġwaste ful
Ġhor rifying
Ġheart broken
cc able
Ġflash ed
Ġpow ders
Ġcell o
char ge
Ġther mo
Ġobs ess
amazing ly
Ġunra ve
Ġsuperb ly
Ġcompreh ension
Ġtoothbrush es
Ġeth ical
Ġoli ves
Ġwack y
Ġaccommod ating
Ġquail ty
Ġcontrovers ial
Ġreseal able
e at
Ġh ating
Ġl ures
ul ative
Ġout right
Ġhe in
Ġbo gs
Ġwatch band
Ġdri bble
Ġdep icting
Ġglo bes
Ġsens ible
Ġwheel chair
Ġvacuum ed
Ġreco vered
Ġban jo
Ġtack s
Ġbun s
Ġunst uck
Ġado be
Ġbudd h
Ġconfigur ations
Ġartic ulate
Ġcrimin als
Ġexclus ive
Ġprope llers
Ġisa ac
Ġentit led
r ine
s qu
it arian
Ġsa vers
Ġpur suit
Ġapp end
Ġins ure
Ġcor vet
bb age
Ġtrack ball
Ġvac ations
Ġce ased
Ġmac s
Ġpleas urable
Ġdepend ent
Ġdin ners
Ġrout es
bre aks
sca m
Ġsau cer
Ġsucc ul
speak er
Ġscoo by
Ġalge bra
s li
Ġw ally
Ġb ons
in ates
Ġn ub
Ġin just
id en
Ġli mb
pp ies
Ġam bi
Ġall oy
Ġk ansas
Ġhe ed
appoin ted
Ġbl iss
Ġend orse
Ġlea ps
Ġter rified
ont o
Ġexc uses
Ġfra il
Ġbar bec
Ġplan ets
bb led
Ġflavor less
Ġface plate
Ġfire fighter
og ical
Ġaccept s
pet ta
Ġreflect ing
Ġexplo its
Ġtables poon
bal t
pleas antly
Ġcontrib ute
Ġdj i
Ġassass ination
Ġdehy d
prom pt
Ġbli zzard
Ġsull ivan
Ġt ux
Ġw ou
Ġb j
Ġf ot
Ġha ze
Ġco balt
Ġsi bling
Ġma ui
Ġthr ought
Ġapp re
Ġgr ays
Ġref lex
Ġfull est
Ġpast els
Ġsom thing
was hing
Ġsuggest ing
Ġsharp ies
nt ax
Ġten th
Ġchem ically
Ġger mans
Ġmaster ing
Ġque ens
Ġwig gling
Ġscar petta
Ġaffect ing
Ġash tray
Ġsoci et
Ġquil ter
Ġpi per
Ġexhaust ed
Ġcigaret tes
Ġfingern ails
Ġbirken stocks
Ġtelescop ing
Ġub untu
Ġdistill ed
Ġcolum ns
b n
k irt
s po
Ġs ookie
er to
Ġf eared
Ġm x
us ions
Ġy oy
ion age
Ġsa vior
Ġret reat
Ġcase y
Ġins isted
ci ating
Ġhour glass
Ġrel ive
Ġsy ntax
Ġcontin ual
Ġmach ete
ru ciating
Ġgoo gled
Ġshine y
Ġry obi
Ġpist on
Ġpotter y
suit able
aud io
Ġdow el
Ġcounse ling
Ġpronunci ation
3 4
t own
t oy
Ġh ust
Ġd well
ch i
et to
ill ion
el in
Ġsu mmed
Ġk ona
Ġun po
Ġpre ced
and ra
Ġlast ly
ree ze
be th
Ġsli ver
Ġunt ouch
Ġsaw dust
Ġnon fiction
Ġcal ipers
Ġtrack pad
Ġhar p
perf orms
Ġbri ggs
Ġstri ker
Ġrain coat
Ġbeach es
Ġmax well
Ġshap eless
Ġcirc uits
Ġembarrass ment
Ġlil ac
Ġexchang es
Ġnons ensical
Ġchill ed
Ġrely ing
Ġbis cuit
Ġesp ionage
Ġmisunder standing
Ġdp i
Ġacknow led
Ġwarren ty
Ġimpe ccable
2 50
i am
r ary
s ign
Ġnot able
Ġbe for
Ġst ow
ch em
qu eness
Ġme gan
Ġfit z
Ġsm al
Ġtr out
Ġad ul
Ġdi aries
Ġdisc on
Ġbright ens
Ġrest room
Ġpost al
umb ar
perf orm
Ġbend y
Ġminim ally
Ġspl ashes
Ġdisapp earing
Ġnorth west
Ġfran ken
Ġintention al
Ġcher ish
Ġkin ect
Ġcrink le
Ġfisher man
Ġjama ica
Ġsel ves
Ġconstric ting
Ġjf k
Ġshir ley
Ġignor ance
f red
Ġ urn
Ġs ittings
Ġe agles
Ġwas ter
Ġsh t
Ġso res
Ġor de
Ġpl atter
Ġwell ness
Ġmat urity
Ġinst a
Ġpart e
Ġcl ad
Ġhel per
Ġpe ed
Ġmis ery
Ġra pt
Ġsw amp
Ġlearn t
Ġform a
Ġpu ch
Ġhar vey
he it
sp ace
Ġspirit ually
Ġobs erved
Ġearth y
Ġsoooo ooo
Ġdar th
Ġcran ked
Ġcul inary
Ġscand al
Ġves sel
Ġscramb led
Ġwolver ine
Ġketch up
c ube
Ġth t
Ġs g
Ġre built
ic ature
Ġall eg
Ġhe pa
Ġsome place
est ion
ig ans
Ġle v
Ġcame o
Ġapp l
Ġcar icature
Ġed en
Ġcou pe
Ġreg ions
Ġlear y
Ġthank you
Ġhar v
Ġmag ically
Ġgraph ite
Ġtor x
Ġsick ening
Ġexhaust ing
Ġsyl vania
Ġcounse lor
ridiculous ly
Ġpec ans
Ġinfrequ ent
alg ene
Ġc oo
Ġl umbar
Ġnot ices
Ġin advert
Ġe cc
Ġst ared
st yle
ea u
Ġsp lic
Ġref in
Ġdi a
Ġdi ets
Ġschool ers
Ġgener ously
Ġlink ing
ifi able
Ġmad ison
Ġeduc ate
Ġpoly mer
Ġguard ian
Ġsturd iest
Ġdetach ing
ony m
Ġpig gy
cr ack
Ġdeb ate
Ġmono poly
Ġinflu ences
Ġko i
Ġthunder bolt
Ġappoint ment
Ġsapp hire
Ġrestor ation
m ounted
r ates
s ay
v ices
x ie
Ġt ard
Ġthe oret
em ic
Ġk ung
Ġhe lla
Ġab ra
Ġsc opes
Ġdes de
Ġman ners
Ġmoney s
Ġaw es
ach i
Ġsto ked
Ġtight ens
Ġones elf
Ġmod ifying
Ġsub d
Ġcall igra
Ġtablet op
umb ers
Ġrain bows
char ging
Ġnat alie
Ġshoot ers
Ġscript s
Ġpig ment
Ġsan ford
Ġfran co
Ġcateg or
Ġskull candy
Ġrecall ed
uk i
Ġimplement ation
Ġtypo graphical
Ġelli ptical
Ġmocking bird
Ġbak ery
Ġthie ves
Ġbele ive
Ġcalligra phy
c ou
w ires
Ġm ck
Ġp ike
es se
th us
th ird
Ġst adium
Ġr ational
Ġtr ough
Ġfl ushed
Ġhand writing
Ġgl enn
Ġbr itt
Ġbutton ed
Ġplot line
Ġexc ruciating
Ġflo pped
res den
Ġhat red
Ġspeaker phone
uch a
Ġboo kend
Ġpolic ies
Ġclamp ed
Ġsoph ia
Ġber lin
Ġcran berry
Ġatl anta
Ġbrow se
Ġinterfer ed
Ġfoll ower
Ġpatri otic
Ġcorrespond ing
Ġgrape fruit
Ġesc rit
Ġsyl via
Ġjac ob
Ġvolunte er
Ġindent ations
Ġpes ky
Ġresil ient
Ġkomb ucha
Ġpomer anian
Ġgraft on
Ġmanne quin
3 50
Ġa ur
Ġe q
Ġwas ps
Ġbe ers
ad y
Ġpr att
est ation
Ġdis pose
Ġpo ppy
Ġtr oops
Ġover bearing
Ġta ffy
Ġinf used
Ġdra mas
Ġcool ers
Ġlear ner
Ġper me
Ġcho ked
ma king
Ġmot ions
Ġmov able
Ġspec ulation
Ġpatter ned
Ġadv is
Ġhealth care
con tains
Ġtur t
tr ans
Ġdu plicated
Ġram ps
Ġborrow ing
Ġrebo oting
Ġquad cop
Ġdevelo per
Ġdemonstr ate
power ed
Ġelev ator
Ġvoy ager
Ġbing o
Ġsuz uki
Ġscrunch ed
Ġdolph in
Ġpse udo
Ġavoc ado
Ġetern ity
Ġdober man
m ation
t ly
Ġs ought
on ics
ut ies
ad h
ro p
Ġan not
Ġse ized
Ġun helpful
Ġsp her
Ġpa ula
Ġdef ro
Ġed ged
uff ed
Ġslow est
Ġbar rels
Ġsaw s
Ġview points
Ġwalk ie
Ġthri ve
bea m
min ator
Ġice land
Ġweather ed
Ġcell oph
Ġabs ence
Ġrose mary
Ġweld er
Ġjournal ist
Ġhammer ed
Ġclut tered
Ġdiscontin ue
Ġpy ram
Ġcompassion ate
Ġmanif old
Ġkent ucky
Ġscarlet t
sus pense
Ġconstit ution
Ġergonom ics
Ġperipher al
Ġbroch ure
Ġambi ance
Ġcelloph ane
v ance
Ġc p
ot al
it i
ke ty
Ġso oth
Ġam or
Ġr ally
Ġdis pro
Ġar ctic
Ġman h
Ġcomp ra
Ġshow case
Ġmar c
Ġplug in
Ġrep orter
Ġav a
Ġenter pr
gr an
Ġvac c
Ġimag inary
Ġmail er
Ġfresh ener
Ġwig s
Ġfluff ed
bl ower
Ġobject ion
Ġsteal th
Ġfuzz ies
Ġcontrib uted
Ġhaul ing
Ġcommut ing
Ġvin cent
Ġcolo gn
Ġpeters on
Ġhedge hog
Ġhym ns
Ġballer ina
l oose
Ġi w
Ġa ver
Ġth ump
Ġthe ological
Ġf oto
Ġn algene
Ġd resden
Ġj ude
Ġmo lasses
Ġdec an
Ġsn ail
Ġcou pling
Ġcons cience
Ġwal nuts
Ġrep aint
Ġsch w
Ġsqu ats
Ġop al
Ġmodel ing
Ġjack ed
Ġfly er
Ġdeg ener
Ġimpact s
Ġactive ly
Ġtuck ing
Ġunfortun atly
Ġcass ettes
Ġbubb ly
Ġretro spect
Ġdun can
Ġvul gar
Ġdeploy ment
Ġrg b
Ġsplur ge
Ġbuddh ism
f ted
o is
t ag
Ġt ents
Ġa kin
Ġf f
Ġg pu
us al
us ters
Ġy u
Ġv apor
Ġar rest
ep th
Ġpe can
Ġjo ins
Ġspe cks
Ġsn oop
Ġcut esy
Ġx m
Ġx p
Ġfla x
Ġclass ify
Ġdry s
Ġnarr atives
Ġsus ceptible
ti est
Ġeye glasses
Ġaltern ating
Ġrob bery
Ġcru ising
Ġtap ers
bul ky
Ġven eer
Ġtort illa
Ġdissappoin ting
Ġris ky
requ ired
Ġdegr aded
Ġdile mma
Ġriff s
f oc
m ont
t asted
Ġb itten
Ġo u
Ġd k
Ġre iss
Ġdis regard
Ġun installed
ca ve
Ġtw itter
Ġbr ac
ub ishi
eng ers
Ġdark est
Ġflo rence
Ġball ads
Ġdr ones
Ġass urance
Ġrich ness
asc ar
Ġgro ve
Ġbuzz er
Ġdefl ating
Ġcartoon ish
Ġboil er
Ġmemor ize
Ġder by
Ġcric kets
Ġkis ses
ete ly
Ġdehy dr
Ġkleen ex
Ġw ann
Ġh ick
Ġn ations
Ġg aze
ri lled
Ġj arring
ome ver
Ġde bor
Ġcon soles
Ġho ff
Ġlove able
Ġv ale
Ġman agers
ath e
Ġinf er
Ġinc entive
Ġel k
bo ot
Ġbre asted
Ġtot es
Ġpos itives
Ġgold fish
Ġmean while
Ġaff ixed
oub tedly
Ġsix teen
Ġtemper amental
Ġphotograph ers
fr ank
Ġpend ent
Ġadapt ors
Ġdefl ates
Ġrect ify
Ġattack ed
Ġillumin ates
Ġdos nt
Ġdesp icable
Ġexceed ingly
Ġdevast ating
unbelie vable
Ġundergar ments
c lips
n ish
p ul
Ġb p
Ġc ual
Ġp um
ar thy
ter y
Ġdis may
Ġar gent
Ġsee ps
Ġsoft ens
Ġdi ves
Ġprob able
Ġpres et
lish ed
Ġmid section
Ġsatisf ies
Ġmagn um
Ġuni queness
Ġappro val
Ġwo e
Ġten nes
rit ious
Ġindic ators
Ġcommun ist
Ġcub icle
Ġprogress ively
Ġkink ed
Ġharmon ica
Ġdil ig
Ġbrides maid
Ġbarr ington
Ġcros sover
Ġlend s
mot or
Ġmits ubishi
Ġbons ai
Ġtennes see
l inks
p ic
t ow
Ġi q
at ers
Ġe cle
Ġpro ceeded
Ġco lt
Ġun roll
pl ants
Ġpurch aser
we igh
Ġcont igo
oun g
im an
ap ore
Ġz oe
Ġfollow ers
Ġper u
Ġsing apore
Ġsand les
Ġmult ico
Ġbrown ie
Ġsnag ging
Ġtuck er
Ġcad ence
Ġwea ver
Ġcarol ine
Ġell is
Ġchor us
Ġnois ier
Ġgeneal ogy
Ġadvers ity
Ġgree ce
h ensible
Ġw ove
Ġo ve
Ġp ci
Ġd w
ar ming
ro se
Ġare na
Ġco b
Ġup loaded
Ġv ortex
Ġins anity
Ġsl ed
Ġstr ut
Ġexce pted
Ġinf ants
Ġfall out
do a
Ġcou ches
Ġz ig
Ġori ent
Ġsw ears
Ġbul ging
Ġcur v
Ġconf ined
Ġwalk ers
Ġguide book
Ġmir ac
Ġdu et
Ġnut ritious
cl asp
Ġgroo mer
Ġpist ach
Ġrevol ver
Ġgh etto
Ġrenew ed
reason ably
Ġscor p
Ġvign ettes
Ġwashcloth s
Ġrememb ers
Ġcorvet te
d est
m ult
Ġt roll
Ġd ific
Ġg est
Ġre na
il ia
est on
Ġar ise
Ġtw ent
Ġta urus
Ġman uel
Ġim plic
Ġcl ash
Ġsto cks
Ġbea utif
Ġra mble
Ġcool ant
Ġdisappointing ly
Ġmor ality
Ġvel ve
Ġsams on
Ġinex plic
Ġphys ician
Ġcalf s
Ġzoom ed
Ġbrad y
Ġfri zzy
Ġjeff erson
Ġharmon ies
Ġproced ural
Ġdigit ally
Ġclin ic
Ġbagg ier
haw ks
vs ki
medi um
aro vski
Ġcollabor ation
Ġunexplain ed
c uss
l ink
Ġi a
Ġa uction
Ġd as
ing way
ch s
Ġli v
ur ate
Ġne got
Ġcon quer
Ġthere by
ss on
ph azard
Ġstr ang
Ġfound ing
Ġcr itter
Ġsim pson
Ġres orted
Ġgrand e
op ic
op us
Ġve g
Ġwood working
Ġmach ining
Ġboot ie
Ġcomm ing
Ġoh m
Ġcri mson
Ġwrit en
sound ed
ino a
Ġjul iet
Ġcourt room
Ġanecd otal
Ġburr s
Ġnutri ents
bac co
Ġbif oc
adh esive
t ion
or ical
Ġto bacco
Ġd aug
at ric
Ġg ly
Ġre arr
ad or
pp ling
st ant
Ġsm ushed
Ġab d
Ġma is
Ġun original
oy ing
Ġdefin etely
Ġsay in
uff les
Ġoverall s
Ġfollow up
Ġfore ns
Ġarm rest
Ġshower head
Ġled ge
Ġrepe ater
Ġillustr ates
Ġcy cl
Ġtub s
Ġstre aking
Ġjer ker
Ġstruct ural
Ġstack s
Ġdispens es
Ġretain ed
Ġsin atra
Ġmcc arthy
lip se
Ġaun que
Ġoscill ating
Ġconn or
Ġindis pens
Ġfeist y
Ġappre hensive
b ath
c ings
Ġit ouch
an ing
al ot
Ġj ot
Ġal b
Ġsi xt
Ġsp oof
Ġstill s
Ġcomp iled
Ġte k
Ġfind ings
Ġsw arovski
Ġgar ner
Ġappear ances
Ġhon ored
Ġpar ach
Ġprogra mmer
graph ics
Ġmed itations
Ġadh eres
Ġsmo kes
Ġsam pling
Ġtrad em
ik i
Ġchurch es
Ġoct opus
Ġchamp ions
Ġpret tiest
Ġconfig ured
Ġpier cings
Ġredeem ed
Ġfemin ist
inte ll
Ġgeo graphic
Ġsupr ise
Ġmoistur izing
Ġreef s
Ġprotr uding
Ġreimbur se
Ġbip od
Ġtwig s
Ġdani els
Ġforbid den
Ġsixt ies
c ents
f et
Ġha phazard
ad ers
Ġch atter
Ġex or
Ġpl z
Ġpre ston
Ġbl ooms
Ġhapp end
Ġac orn
Ġadd itives
Ġbattery s
Ġdoll house
Ġmach in
Ġground breaking
Ġpot ting
Ġpat ton
Ġrecie ving
ches ter
Ġspout s
Ġretract ing
Ġathlet es
Ġpredict ability
Ġmisunder stand
Ġplun ge
Ġskew ed
Ġingen ious
Ġgymn astic
b ast
g ive
n f
Ġd ante
Ġne x
Ġqu inoa
Ġk cups
Ġfe ver
Ġab ys
Ġar sen
Ġlar son
Ġbad ges
Ġhead piece
Ġla ur
Ġind igo
Ġblue berries
Ġexc erc
Ġcheck er
Ġob li
Ġprom otes
Ġpract iced
Ġdan ced
Ġsight ing
Ġlam inator
Ġspill age
Ġanch ored
Ġenlight ened
Ġdistrib ute
Ġpom s
Ġbelong ed
Ġatl antic
Ġgrat itude
Ġcoord ination
Ġdomin ant
Ġaer ator
Ġyuk on
Ġht ml
Ġhydra ul
c ustom
t alk
u ced
w ave
Ġb ans
Ġbe au
al right
Ġwh ipped
Ġproduct ions
ich ton
au er
ha pe
Ġfla pping
Ġswe ets
Ġcra ve
Ġeat ers
Ġheal ed
Ġjour neys
Ġquestion ed
Ġdocument aries
Ġhem ingway
Ġken wood
Ġcass ie
Ġec lipse
Ġscholar ship
Ġdesp air
Ġsnowfl ake
Ġextr aneous
Ġastound ing
Ġlollip ops
Ġsubd ued
fet ched
m ind
p al
Ġl uther
Ġre assemble
Ġha an
me m
Ġco lander
ul ity
Ġen comp
ven port
Ġtr acing
Ġover hang
Ġsc oring
Ġthink er
ass ed
ci o
Ġever thing
Ġz o
Ġdi ms
Ġind epth
Ġblue ish
Ġste in
Ġtow ing
Ġrefer encing
he el
Ġmicro sc
Ġbrother hood
Ġspir ited
Ġut ah
Ġrecie ver
Ġspecific ation
Ġgoo gling
Ġfool s
Ġexec utive
bre vi
Ġcleans er
Ġreserv ations
Ġstrateg ic
Ġwrest le
Ġbru ised
Ġdor othy
Ġseper ately
Ġmish and
Ġdarken ing
Ġza pper
Ġsuz anne
Ġsubt ract
Ġsymmet rical
Ġintimid ating
Ġdisli kes
Ġdisadvant age
Ġre pt
Ġli ar
pp led
Ġr erun
Ġsi phon
Ġab brevi
Ġke e
Ġmon ot
ip id
Ġfar fetched
Ġres hape
Ġcustom ization
Ġsand erson
Ġgraph s
Ġlim itation
Ġnik ki
Ġunlock ing
Ġscient ists
Ġunscrew ing
Ġtas sel
Ġdisintegr ating
requ ires
Ġbever ly
Ġconve ction
Ġdisgu ised
Ġflim sey
Ġpremature ly
Ġsyd ney
Ġappl aud
g id
Ġf udge
Ġp d
it ated
ul ators
if ically
Ġqu arts
Ġca ul
lo l
iff on
pl ers
te ly
Ġstar ch
Ġman or
Ġplay ground
Ġsl aughter
Ġcr ates
Ġes que
Ġper col
Ġda venport
Ġrad ical
Ġmor ris
put er
Ġexplo sive
Ġdetach es
Ġcommunic ations
Ġbarb ies
Ġidi otic
Ġcompos er
Ġmanip ulated
Ġfiance e
Ġorth otic
Ġrestrict ions
Ġpoof y
Ġhambur ger
Ġvelo city
Ġrecondition ed
Ġcologn e
6 4
d ull
d ia
Ġm ites
Ġm oose
Ġl x
th al
Ġe ternal
Ġha ird
ac ent
Ġso iled
Ġqu iz
not ice
Ġinter lock
Ġind entation
Ġdirect ors
man n
Ġev ocative
Ġsuit cases
Ġpersonal ize
Ġhandy man
Ġund oubtedly
Ġdest ined
Ġclar inet
Ġsneak y
Ġvent ilated
Ġden y
Ġseed lings
Ġwick er
Ġallevi ate
Ġnan ny
Ġbitters weet
Ġvulgar ity
d ex
Ġth ongs
Ġc x
Ġg us
le gs
Ġon kyo
Ġch iffon
ust ing
Ġlo be
Ġam en
Ġlook out
Ġpr ying
Ġca mb
ist ical
Ġv ented
ag re
Ġlong ing
Ġend lessly
Ġjo lly
Ġcorrect ing
Ġpass engers
Ġpost cards
Ġbent o
Ġdull ed
Ġenc ased
Ġintro s
Ġgrey hound
Ġswim mer
Ġdem ise
Ġdu per
Ġtruth fully
Ġrechar ges
Ġdream ed
Ġsturd ily
Ġcub an
Ġdetect ing
Ġparent al
Ġratt led
Ġinvestig ating
Ġgee z
Ġphill ip
Ġdemonstr ated
Ġemboss ing
Ġswir ls
Ġrecur ring
Ġappar atus
Ġmanh att
Ġxp eria
mult i
y e
Ġt anto
Ġf b
Ġn ets
Ġn esting
ed er
Ġg im
Ġon y
Ġe ts
Ġbe veled
se ason
st ics
Ġan o
Ġpro l
Ġun ed
Ġhand ica
Ġreg l
Ġhum ane
Ġconf etti
Ġste lla
Ġiron ically
Ġtun ers
Ġdem asi
Ġtransl ator
Ġtarget ed
Ġpopular ity
Ġimagin able
Ġpsych opath
Ġris ks
Ġolymp ic
Ġgt x
Ġell ie
Ġdevast ated
review s
Ġbreastfe eding
h c
i ant
Ġh ect
Ġh ugging
ar is
Ġsh aken
ul iar
Ġsp art
Ġpa il
Ġro ar
Ġbag ged
Ġcr ichton
Ġcut lery
Ġra ves
Ġred irect
Ġent r
Ġcustom ized
Ġmot if
Ġpu ede
Ġcam aro
Ġauto zone
ta pe
Ġlit le
Ġpal mer
Ġimpact ed
Ġvest s
Ġdumb est
Ġincom pet
Ġwobb led
Ġtransp aren
Ġblind ing
Ġwound ed
Ġcock tails
Ġutil izing
Ġpsych iat
Ġlabor ious
Ġros ie
Ġwreck ed
Ġproportion ed
Ġkis sing
Ġprincip al
Ġsiri us
Ġdislo dged
Ġchis el
Ġwend y
Ġelong ated
s mart
Ġt ant
Ġg els
Ġsm ashing
Ġro by
Ġmin ion
Ġwar ps
Ġinc line
Ġsur real
Ġra iling
Ġfree way
iv ating
Ġdisc rete
Ġcorrect ions
Ġyoung sters
Ġpaint ball
Ġkick er
Ġsuc ceeded
Ġstream lined
Ġhips ter
Ġgolf ing
ext ra
Ġhem ming
Ġintend ing
Ġparan oid
Ġpreach er
Ġloa ves
Ġcong ress
Ġlaunch er
Ġsacrif ices
Ġdub bed
Ġclim actic
Ġtriumph s
Ġaudi ences
Ġbry an
Ġsporad ic
Ġempower ing
Ġbeet le
Ġpresum ably
favor ite
Ġbarbec ue
Ġquadcop ter
Ġecle ctic
a ff
b ill
d j
y uck
Ġt rent
Ġt inge
Ġn ikes
Ġd unk
us ement
th ane
Ġst ump
Ġwh omever
Ġam usement
Ġun ab
act or
Ġgr umpy
Ġmin ut
Ġprot est
Ġx ps
ren heit
Ġshi ms
Ġter ra
Ġla v
Ġchrist ina
com ed
io logy
Ġincl usive
Ġclass mates
Ġdirect v
Ġpri zes
Ġprefer ed
Ġadh d
Ġgoo gles
Ġrob es
Ġgloss ary
ald on
rem inds
Ġmemor ized
Ġphili pp
step h
Ġick y
Ġderi vative
Ġdiagon al
Ġcaro lyn
c aster
h renheit
t asty
Ġt outed
Ġb ich
Ġh ut
ay er
Ġout ages
Ġout grew
Ġsi b
ist ing
Ġlot r
Ġfa hrenheit
ip io
Ġinc o
Ġsn are
Ġsw irl
Ġmod ules
Ġob d
Ġmil ky
Ġwarrant ee
Ġoverp aid
Ġtoile ts
Ġsmile y
Ġsan ity
Ġchuck les
Ġlandsca ping
Ġtrend s
Ġtam b
Ġorch ids
Ġrepack age
Ġsustain ed
Ġdow els
Ġhomeschool ing
Ġvig orous
Ġparach ute
e hh
l ude
Ġm j
Ġn vid
Ġl icks
Ġg ist
Ġre gg
ad os
ac c
Ġso ber
ent ric
Ġam big
Ġen ters
Ġma ge
Ġtr uffles
Ġhard en
Ġhand ing
Ġjo ker
Ġbott on
Ġhea p
Ġap ric
Ġsw oon
Ġcons ul
Ġrel ent
Ġspend y
Ġpred ator
Ġaccess ing
Ġhy dr
Ġminor ity
Ġstat icky
Ġbuff ering
Ġwobb ling
Ġgig gles
Ġmb p
Ġlum ix
Ġvir gil
Ġtam pered
Ġsex ist
Ġreward ed
Ġbru ises
const ruction
Ġmetaph ors
Ġimpatient ly
Ġdill ard
Ġuntouch ed
Ġdebor ah
bast ian
Ġnvid ia
Ġt us
Ġa is
Ġth i
Ġh il
Ġy ds
ure ka
Ġca val
Ġun at
ist r
Ġeven though
Ġinter vals
Ġcl unk
Ġtri ath
Ġcar riage
Ġunder grad
Ġloves eat
Ġtra ct
Ġwall ed
pro blem
Ġgener ates
Ġloud est
Ġbeat ers
Ġmag pul
Ġant ler
Ġnat ivity
Ġge ck
Ġdem ol
Ġdream ing
Ġmeat y
Ġstink ing
Ġpit ted
Ġseven th
Ġlandsca pes
Ġimplement ed
Ġgab aldon
Ġling ering
Ġelli ot
reason able
Ġfow ard
v ies
Ġp ep
Ġd uster
Ġg az
Ġsc ars
Ġnew man
cri be
po lit
Ġmin ions
Ġinf ur
Ġsim iliar
Ġdel am
Ġloo oo
ib i
ject ives
Ġer in
Ġpu erto
Ġble ak
Ġblo ated
pre hensible
Ġtur f
Ġaltern ator
Ġbur den
Ġdialog ues
Ġposs ession
Ġlam inating
Ġreve iw
agra m
Ġcraft manship
ino is
Ġregister ing
Ġwand s
Ġnin et
Ġris ers
Ġling ers
cont ro
Ġparticip ate
Ġremodel ing
ros se
Ġbrazil ian
Ġpec uliar
Ġhott est
Ġsnark y
Ġfanci er
Ġkir by
Ġecc entric
o ft
t ea
Ġt n
Ġa per
Ġn ect
us ers
ro g
ro cket
st ro
el sea
Ġno g
Ġlong time
te e
ph alt
Ġjo h
Ġcr us
Ġinc ipio
Ġstand out
Ġtra velo
ouse l
Ġper ceived
Ġent ice
Ġconf ront
Ġseason ings
aw some
Ġtend on
Ġrele vance
Ġrich ly
Ġbust ing
Ġdy es
Ġbon ing
Ġpops icle
Ġwax ed
Ġbond s
Ġtrigger ed
Ġwitch craft
Ġcoach es
Ġinn ue
Ġbatt ling
Ġlac rosse
Ġcram ps
Ġintr usive
Ġawak ening
Ġcurren cy
Ġorde al
Ġinadvert ently
Ġabys mal
c ook
c ross
f ir
g reens
ed ges
Ġre sold
us ual
Ġwas abi
al an
Ġas phalt
Ġj j
ome gran
Ġk l
ort ion
ess a
Ġun iden
Ġrec line
Ġad jectives
eri an
Ġmis fit
gg ings
Ġgra mmer
Ġgri ff
Ġlearn ers
mm mm
pect ing
Ġbus ter
Ġsens ing
Ġdust ing
Ġaf ar
Ġpot ted
Ġten or
Ġcas ino
fl ash
Ġaddress ing
del ightful
Ġpepper corn
Ġsurround s
Ġwhist ling
Ġfac et
rec ipes
Ġcircumst ance
Ġlany ards
Ġbudd ha
Ġbelong ings
Ġvin ci
Ġgou ge
Ġcolon ial
Ġcompr ar
Ġbeg gin
Ġrott we
Ġalp ine
Ġcassero le
Ġfisk ars
Ġmirac ulous
d c
g one
m id
w ea
Ġt ens
Ġw we
Ġw oul
Ġd agger
Ġd inky
Ġsh aded
Ġam per
Ġdis eng
Ġca ct
Ġun hook
Ġun suitable
ca bles
Ġsa k
Ġpur su
vel cro
Ġstra pping
Ġperson nel
Ġsong writing
Ġrest ra
Ġsub way
Ġflo rescent
Ġeng ages
Ġstretch able
Ġrechar gable
Ġmal functions
Ġalumin ium
bl ades
Ġbold er
Ġintegr ation
omen ess
Ġvague ly
Ġchef s
Ġfed ex
Ġassoci ation
Ġcrochet ing
Ġextraord inarily
Ġshovel ing
Ġlitt ler
Ġbenef ited
Ġdism ant
shr unk
Ġembellish ments
Ġgiz mo
Ġindispens able
Ġs as
er ous
Ġh ots
Ġn g
ed or
es ar
en ne
an or
Ġe ureka
ad el
ch os
ur g
Ġse bastian
el o
Ġr ms
Ġworks he
mo ved
Ġcar ousel
Ġjo king
Ġz ach
Ġsk is
Ġgame cube
Ġper k
Ġbed rooms
Ġport al
Ġot g
Ġcre vices
Ġtorn ado
Ġly cra
Ġautom ob
Ġpolish es
bre ak
Ġpil es
Ġpolar ity
Ġsubstit uted
Ġroast s
Ġtick ed
Ġrepurch asing
Ġdeterior ating
care ful
Ġsteven s
Ġunfor giving
Ġbachel or
Ġcyn ical
Ġgrie ving
Ġinexperi enced
Ġwann abe
b ike
g um
s hor
s na
Ġt ul
Ġe os
Ġst ance
st ain
st ays
Ġmo ds
Ġor g
Ġbu ick
Ġca min
Ġoff ices
Ġtr oop
Ġbo on
Ġdifferent iate
Ġinf estation
Ġmis used
Ġel ves
Ġwrong ly
Ġnorm an
Ġbar bell
Ġpres ume
Ġloc ating
cer ting
Ġsaw yer
product s
Ġviol a
Ġcru z
Ġtack ed
Ġmedic ations
Ġsolo s
Ġsupplement al
Ġpul itzer
Ġfulfill ment
Ġrul ed
Ġratchet ing
Ġdrown ing
Ġric kety
Ġnotep ad
Ġdiscon certing
l ens
l ah
r in
u ve
Ġw art
Ġp omegran
Ġj azzy
ul o
ul sive
Ġrec ess
Ġsp ans
Ġdes ks
Ġhi ker
ace ll
Ġfl own
Ġamaz es
Ġsl ush
Ġwatch ers
Ġmusic ally
Ġrem orse
Ġpres cribed
Ġlater al
Ġliter al
Ġdan a
Ġcomment aries
Ġfrag mented
Ġpal atable
Ġrout ing
len eck
Ġmono pod
Ġhazard ous
ole um
Ġbrut ality
Ġunc ont
Ġkim ber
Ġsprout ing
Ġremix es
Ġsple nda
Ġsubmar ine
Ġbapt ism
Ġdecan ter
k d
m om
s atisfied
w asted
is an
en ic
Ġre agan
Ġha cks
al f
Ġlo gged
Ġsm iled
Ġun rolled
Ġag rees
Ġaw ning
ress ion
Ġmis use
Ġever last
Ġfla pper
Ġport land
Ġer asing
Ġdisappoint ments
Ġcenter pieces
Ġexam ined
Ġfresh en
Ġps al
Ġillustr ator
Ġscrub bed
Ġign oring
Ġselect or
Ġgall ery
Ġspread er
Ġstove top
Ġincom prehensible
Ġry ka
lim ps
Ġadm ission
Ġadm irable
Ġmaxim ize
Ġassoci ate
Ġjeff rey
Ġgimm icky
Ġrecreat ional
Ġmul ch
Ġnylab one
Ġprol ific
Ġs b
Ġb ates
Ġb erg
re lls
in als
Ġh orm
Ġl d
Ġin ane
th en
se ams
st ories
Ġsi pping
Ġno on
Ġun int
Ġpre sta
Ġafter thought
Ġv as
Ġta i
Ġok lah
ci um
Ġid a
Ġser ie
Ġglass ware
Ġrem ington
Ġsat urn
Ġpres ently
pad s
Ġchin ch
Ġcop ing
Ġcal cium
Ġcour te
Ġplain ly
Ġxx xx
Ġrh et
Ġscrub ber
Ġtele photo
Ġstun ned
Ġintegr al
Ġsprink les
Ġfac ets
Ġfer r
mag nets
aco lor
Ġterr arium
Ġabdom en
Ġcoy ote
Ġsyring e
Ġwets uit
Ġarsen al
Ġoklah oma
c ities
i phone
Ġs ic
er ves
Ġh utch
Ġn j
ou g
Ġg limps
Ġbut ts
Ġbut ane
Ġgood reads
ast roph
Ġde ffin
ant is
act ing
ry n
Ġcharact ors
ass is
Ġplay room
ang o
Ġhead lines
Ġmis place
Ġclean se
Ġdet ox
Ġve z
Ġheart y
Ġpar ing
Ġaud rey
Ġarm holes
lit ol
Ġspot ting
iss ance
Ġsmart phones
Ġresol utions
Ġcomplex ities
Ġmill enn
Ġstead ily
Ġtoler ances
Ġfer ment
Ġpresident ial
Ġ3 4
Ġame lia
Ġscree ching
Ġcomedi an
Ġcheet ah
Ġfranken stein
Ġdispro port
l ists
Ġ 10
Ġb ash
ot eric
Ġl ance
Ġto ffee
ro po
ro let
Ġwe ir
Ġu i
Ġj p
Ġj ax
Ġex s
Ġr w
Ġout weigh
ear rings
Ġmuch as
Ġad ri
Ġback bone
Ġkn itter
Ġpa uses
Ġdown town
Ġpie ced
Ġspe ci
do or
Ġsur ve
Ġra ft
Ġreg ulate
Ġcare ers
Ġgra pes
Ġkey ed
Ġdam ned
Ġbar code
Ġcat astroph
Ġfre eman
Ġdoor step
Ġdist rict
Ġmac ar
Ġground ing
Ġequ ations
Ġhy g
Ġliqu or
Ġrecomend able
Ġflu ids
Ġken ny
vin ci
Ġdud es
Ġlag gy
Ġanaly t
Ġinvestig ator
Ġgate way
dra w
Ġpronoun ce
Ġatro cities
Ġchev rolet
Ġfantas ies
Ġunsett ling
Ġdefro st
Ġrena issance
Ġgymnastic s
Ġmanhatt an
i ation
i bo
l ower
p our
Ġb ail
Ġc els
Ġm itten
Ġm ma
Ġn ba
Ġnot ion
us et
Ġsh annon
Ġor b
Ġall y
Ġfe nders
Ġab o
Ġexp resso
Ġpa ige
Ġfo d
Ġga ff
Ġinf ested
Ġes oteric
Ġsw an
Ġmar ri
Ġbas hing
Ġnum bing
Ġmot ive
Ġroll ins
Ġfire works
Ġthri ving
Ġbal ances
Ġsuff oc
Ġwise ly
Ġmaster fully
Ġbon nie
Ġcommun ion
Ġsimpl est
Ġsan uk
down loaded
Ġanth ropo
Ġbloom ed
whe els
Ġreattach ed
Ġcind y
Ġretun ed
Ġnim bus
Ġescap ism
Ġdumps ter
Ġcraz iness
Ġapolog ize
Ġtransparen cy
Ġcels ius
j er
s we
Ġb ic
Ġc ort
at im
es ium
Ġre id
ic ia
om n
Ġbe vel
Ġy ak
al ay
ill o
Ġch ak
Ġmo bo
Ġk atherine
ers ed
pe lling
Ġv ases
Ġeas ly
Ġfir s
Ġmat eri
Ġlight ness
Ġhard ness
Ġte c
Ġcor rel
Ġgr in
Ġjo ck
Ġunder powered
Ġdi va
Ġweight y
Ġcustom izable
Ġrid ged
Ġmagn esium
Ġmor ph
Ġhood ed
Ġmer rells
Ġgrab ber
Ġsyn cs
Ġcale nder
Ġrefill able
cur rent
Ġcleans ing
Ġobsc ene
Ġunimp ressive
Ġexagger ation
ben ch
Ġstupid ly
Ġorganiz ations
Ġmanif est
Ġquail ity
Ġconcl uded
dec ided
Ġchev ron
Ġlifel ong
Ġtwe ens
Ġartifact s
Ġduff el
Ġhoff man
Ġminut ia
Ġregg ae
l ids
p atter
Ġw ading
Ġb ung
es a
es cending
Ġg ret
Ġis bn
Ġbut ch
Ġout law
Ġcan ine
Ġcon an
Ġcon no
Ġoff ense
Ġtr ashing
Ġsho pper
Ġpa is
Ġins ipid
Ġins omn
ak is
com pelling
Ġcool pix
Ġphoto sho
Ġem blems
Ġinstruct ive
Ġrest arts
Ġsub li
Ġsatisf actor
Ġmem o
Ġprof iles
Ġwid en
Ġiron man
Ġna pole
dis c
Ġfrag ments
Ġsight ed
Ġcapac itor
Ġabsorb ant
Ġhers hey
Ġcha otic
Ġbush nell
Ġcham ois
Ġbees wax
Ġaggrav ated
Ġcoh en
Ġunse aled
Ġbou gth
utter ing
Ġshoel ace
Ġgill ian
Ġprivile ge
Ġprism acolor
Ġfitflo ps
Ġcylind ers
Ġinh abit
Ġhydraul ic
Ġsatisfactor ily
f one
m ad
w ired
Ġ eri
Ġs ift
Ġp ag
ic ap
Ġfor rest
ow a
ch ose
Ġj ur
Ġsu mp
Ġpl uck
Ġde cept
Ġno va
Ġab normally
Ġdis posed
Ġpre cio
Ġover clock
Ġinter sp
Ġnew bies
we ed
Ġpe ppa
Ġreal ised
Ġpers istent
Ġdel co
Ġser mon
Ġplug ed
Ġcond escending
co gn
Ġsmooth ness
Ġfire wire
Ġaccess ed
Ġps c
Ġavoid s
Ġcream s
Ġlace y
cur ities
Ġsumm aries
Ġinse curities
Ġbeds kirt
rad io
Ġunc ondition
Ġbeard ed
Ġkrist in
Ġdisclo sure
Ġwy att
Ġblot chy
Ġprun ing
Ġpurchas ers
Ġinjust ice
Ġtheoret ical
Ġamper age
Ġintersp ersed
f ixed
Ġn ina
Ġnot or
Ġmy ri
Ġch eryl
Ġk w
un ken
Ġde em
Ġrec ourse
Ġhi ppo
ry er
Ġga iman
Ġcar y
Ġgr as
Ġgr un
Ġfin ances
iz ations
Ġres ale
ha ir
Ġbas in
Ġroom mates
Ġconst ra
Ġred one
Ġball ed
board s
Ġmom ma
Ġda unting
Ġvis ions
Ġheart ily
ma jor
Ġnor theast
Ġtar a
Ġshut down
Ġshop kins
Ġemail ing
Ġspin ach
Ġincre ments
bud s
Ġcarb ide
Ġcaptiv ate
stick ers
Ġraz ors
Ġbrist le
Ġner dy
Ġredund ancy
Ġwolf e
Ġoccup y
Ġremodel ed
Ġweakness es
poster ous
Ġnf c
luck ily
Ġmicrosc opic
Ġmyri ad
j v
o les
t in
Ġw ac
Ġthe ra
er ver
in ently
Ġg ild
ay e
Ġj ut
ess ential
Ġun cover
Ġshe ers
Ġri o
Ġinter play
Ġtri ke
Ġblack ed
Ġsw ip
Ġhim alay
Ġmar ley
Ġlow ers
Ġfre aks
br inging
Ġhar lan
Ġspecial ist
Ġstri pper
iss ipp
Ġba iley
Ġver mont
Ġdisco vers
Ġlibr aries
sm ith
Ġny lons
Ġpath finder
Ġbio graphical
Ġsea food
Ġgum mies
Ġrefriger ated
Ġinterview ed
Ġree ks
Ġgran ules
Ġwea ved
Ġari el
Ġoccup ation
Ġorth oped
Ġgown s
Ġkar ma
Ġclump ed
cont ent
whe ther
Ġemit ted
Ġfract ured
Ġpak istan
Ġracco ons
Ġbice ps
Ġinfin ite
Ġxy litol
Ġbich on
issipp i
n ant
Ġi owa
Ġth re
Ġm ths
Ġh v
Ġh inder
Ġto by
Ġd uffle
Ġsh an
Ġsh ane
ac ula
Ġhe ath
Ġyour selves
Ġhard ship
Ġpart ition
Ġga u
Ġcar ve
Ġins ists
Ġjo st
Ġkid ney
Ġbre ville
reme mber
Ġplan ks
Ġcat tle
Ġstud ios
Ġcondition ed
Ġcu ando
Ġble h
Ġself ies
Ġdan cers
Ġmed all
Ġstring y
port s
fl ag
Ġweb page
Ġstylus es
Ġslot ted
Ġmagic ian
Ġstream light
Ġgro in
Ġnecess ities
Ġreact ed
Ġappli que
Ġdigest ion
Ġacqu ainted
Ġorch id
Ġwhit ney
Ġdissol ved
Ġligh th
Ġparticip ants
Ġbern ard
Ġalle ged
Ġuncon vin
Ġpee ing
Ġbroo ke
Ġchaff ing
Ġimplic ations
Ġnect ar
l ack
p ace
v iet
Ġs ane
nd s
Ġc ada
Ġp im
ll is
it als
Ġre am
th read
ood oo
Ġmo sa
Ġam our
Ġr j
Ġma ver
art y
Ġover came
Ġint uit
Ġfun gus
Ġwa h
Ġdel ves
Ġvol can
Ġste als
Ġje ll
Ġmagn ify
Ġill ogical
Ġbow ie
Ġprogra ming
Ġmiss issippi
Ġmed itate
Ġest oy
Ġgro ves
Ġintense ly
Ġghost ing
Ġcore lle
Ġyarn s
story line
Ġunw rap
Ġpea chy
ita ire
Ġsav ory
Ġdun ge
Ġdear ly
Ġresemb lance
Ġadj acent
Ġrecon c
Ġaccommod ates
Ġoutgr own
Ġmathem atics
Ġlor i
mir ror
Ġchipm unks
Ġenterpr ise
Ġunat tended
e cy
g ast
i ver
Ġs ank
Ġc ay
Ġd azz
ar ity
ad am
Ġti gers
Ġcom bs
Ġsu ds
Ġk ors
Ġwhat not
Ġcon j
Ġun cut
Ġv icious
Ġpur ina
Ġover shad
Ġshe eps
Ġend er
Ġpa rece
Ġstr um
Ġear m
Ġear ing
Ġthin ning
Ġimp erial
Ġwash y
vent ful
retch ed
br ace
Ġsun beam
Ġfi esta
Ġrock in
Ġtab oo
Ġdy mo
Ġpol ite
Ġfaith fully
yy yy
Ġbeha ved
Ġgroo ms
Ġpam pered
Ġpuff s
wall et
Ġalask an
Ġkern el
Ġdism al
Ġunsu pp
Ġorganiz ational
Ġproph ecy
Ġswee the
Ġviking s
Ġdiscoura ging
Ġdisgu ise
Ġsnowfl akes
Ġawes omeness
Ġets y
Ġcamin o
Ġsheeps kin
a pointed
j os
t ri
er k
at ivity
as is
as ible
ll an
Ġg ong
th ora
Ġe ighth
se nding
Ġso fia
Ġch ases
Ġfe asible
Ġsm oosh
Ġcon ner
Ġca bbage
Ġover tones
nder gast
Ġunder tones
Ġfin ches
Ġless en
Ġarm strong
Ġaudio books
Ġiron y
Ġtag ged
Ġfal con
Ġtail oring
Ġsick ness
cl ub
Ġtang ling
Ġforg ets
Ġrev ive
Ġadapt able
Ġtransm itting
Ġhay ward
Ġhack ed
Ġmt b
Ġpatri ots
Ġbry son
Ġpon ies
Ġconvey ed
lips ch
Ġuncom plicated
Ġoutgr ow
Ġdolph ins
Ġdat ab
Ġappall ed
Ġreproduct ions
Ġtradem ark
b ber
n ose
v ana
Ġa kward
Ġto en
Ġy he
Ġy ada
al ach
Ġch urn
Ġde ple
Ġover use
Ġsp itting
Ġold ies
Ġtri angular
Ġsl ings
po ssibly
Ġthin s
Ġple thora
Ġcost ed
Ġkey ring
Ġpen et
mm v
Ġform ation
Ġbab e
Ġinv ites
Ġmagnet ized
Ġfur y
Ġsteel ers
Ġsister hood
Ġwow ed
Ġanti qu
Ġslo ppily
Ġdar ned
Ġphr asing
Ġbod um
Ġbubb a
Ġginger bread
Ġcran ks
Ġtraged ies
Ġdorm an
Ġkar ate
Ġinqu iry
Ġsill iness
Ġug liest
Ġsevent ies
vention al
Ġholl and
Ġcymb al
Ġjing le
Ġtard is
Ġpomegran ate
c ules
p ins
u ese
Ġ 12
Ġw oth
Ġre i
Ġy or
Ġk lipsch
Ġbu gged
Ġdis eases
Ġsa p
Ġv ap
Ġv otive
Ġbo ls
Ġph ony
Ġend uring
Ġthought fully
Ġdiffer nt
Ġapp alach
Ġjo es
Ġgive away
Ġhelp full
Ġscreen ing
Ġsur render
Ġple ated
Ġsol itaire
Ġthick est
Ġind ents
Ġper mit
Ġbar ney
Ġimm une
Ġgre et
land ish
Ġsubject ed
arn ation
Ġny dj
Ġjun ction
Ġstink er
Ġmur ky
Ġwand ers
old ers
Ġinno vation
Ġwel comed
Ġfarm ers
Ġdiab lo
Ġarts y
Ġris king
Ġaero soles
hum an
Ġstal ker
fig ured
Ġimmig rants
Ġune ventful
Ġmathem atical
Ġportug uese
Ġunreason able
Ġalb om
Ġroby n
Ġaper ture
b ugs
c iful
Ġs ins
in ction
on ica
Ġis o
Ġy ank
se arch
Ġch elsea
Ġout landish
Ġcan v
Ġpre sto
Ġta o
Ġim aging
ass ic
Ġgu iding
Ġwar r
ash a
Ġimp ly
Ġdur acell
Ġreg ional
Ġmod ular
Ġband width
for get
mb ling
Ġxl r
Ġcu cum
Ġbody suit
Ġfore ster
Ġresp ective
Ġreco llect
Ġwin ners
sen eck
Ġske in
Ġslo p
Ġpsy ched
Ġshield ing
Ġskill ets
Ġsky e
Ġborder ing
Ġquir k
Ġren ee
Ġdd r
Ġlum ber
Ġawa ited
who ever
Ġairport s
Ġcrimp ing
Ġreadjust ing
Ġgn ome
Ġannoun ced
Ġtestim on
Ġinterst ing
Ġverb atim
Ġlud ic
Ġdomino es
Ġteac up
cco li
Ġchim ney
Ġrottwe iler
Ġdisproport ion
Ġcucum ber
m ixed
r ide
r ane
s lim
z on
Ġh atchet
Ġto pple
Ġto fu
Ġe erie
ke eper
Ġli lly
Ġso viet
ill ight
Ġal bert
Ġal fred
Ġma uve
Ġret icle
Ġend owed
Ġaw ays
Ġdefin tely
Ġtop ical
Ġquick books
fe ld
Ġsn ip
atch ett
Ġcard inals
Ġpain ters
Ġhome own
ib u
Ġcook ers
Ġaction able
to day
br ide
Ġflash cards
Ġbend ed
he ats
Ġmotor ized
val ent
Ġmel anie
Ġlif eless
Ġinvest or
Ġmad onna
Ġtour s
Ġwound s
sme ll
Ġpuff ed
Ġsuperf l
Ġbudd hist
Ġtam per
Ġll ama
Ġmaneuver ing
Ġglor ia
Ġmusicians hip
Ġvitam ix
Ġlitt e
Ġide ally
Ġprotr udes
Ġdefinitive ly
Ġimmig rant
Ġattrib utes
Ġpp m
f resh
g ated
p ancy
w ig
er ted
Ġf ath
Ġc vs
Ġp iling
Ġn ue
Ġl ur
en ough
en zie
Ġon board
Ġli b
Ġch assis
Ġj c
Ġor acle
Ġam id
um i
Ġsp ed
Ġman ic
Ġbro ccoli
Ġlar ges
Ġcl uster
Ġpe aled
Ġpe ndergast
Ġsl inky
Ġro land
Ġmis c
Ġkey less
Ġfra m
Ġdr acula
Ġmist reat
Ġelect ed
Ġappreci ative
sw itch
Ġlad en
Ġprogram ed
vis ions
Ġcam ara
Ġdy nasty
Ġcub ic
Ġdetect ors
Ġhoriz on
Ġlag ging
Ġhitch cock
Ġprev ention
Ġcad et
Ġinstrument als
Ġful fills
Ġmartin i
Ġsubtit le
Ġcompos itions
Ġschol ars
Ġkh akis
Ġ3 6
Ġatmosph eric
Ġvocal ist
Ġviv o
cont rary
augh n
Ġliz ard
Ġsans a
Ġappall ing
Ġeyebr ows
a ways
c ated
d uring
Ġt ate
Ġb k
re k
Ġre buy
Ġbut ters
Ġy mmv
id ency
Ġj ance
ra g
Ġr ation
Ġsi ppy
Ġlove craft
Ġback ings
Ġbo a
Ġbo bs
Ġtri angles
mo d
Ġbr ite
Ġro am
Ġed wards
Ġes o
ib al
Ġsat is
Ġgri zz
Ġpres idency
Ġmail ers
Ġpuzz led
Ġbind s
enjoy ing
Ġgoo seneck
Ġroo ster
Ġban king
Ġdiet ing
Ġmal ibu
Ġups cale
Ġped antic
Ġjoy ful
Ġdetect s
Ġcompan ions
Ġemp lo
Ġdumb bells
Ġgig abit
Ġfee han
Ġoccur ring
dro ps
Ġretract s
Ġachie ving
Ġcontrast ing
Ġpowers hot
Ġroutine ly
Ġtoothp icks
assemb ling
Ġoutrage ously
Ġspeech less
Ġterror ist
Ġfel ine
burn ed
Ġconduct or
Ġresident ial
speak ers
odo x
Ġnord ic
Ġmiz uno
Ġdific ult
custom er
Ġhandica pped
Ġinfur iating
Ġjur assic
Ġi g
Ġm iter
Ġh ugg
Ġg sm
en oid
om ing
ur ai
Ġsh eared
st ri
Ġj ared
Ġti ers
ard on
Ġdis ability
Ġpre posterous
am ents
Ġover loaded
Ġdiff ers
Ġman n
Ġtop az
Ġline up
Ġwind breaker
Ġsong writer
Ġob long
Ġseam ed
Ġblo bs
Ġtrash can
Ġshut tle
Ġconv ien
Ġsung lass
bit ious
Ġopp on
onsist ent
ob ic
Ġwil ted
Ġcalc ulus
Ġvir uses
Ġdun e
je ans
person al
Ġdiscre pancy
Ġpedest al
Ġuncon ventional
Ġjill ian
cla ims
hope fully
Ġnord str
start ing
Ġvom iting
Ġaston ishing
Ġschw inn
Ġhimalay an
1 6
n ail
r ison
z an
Ġt mobile
Ġi home
Ġn ero
Ġl ut
Ġl acy
an u
le en
Ġj ugs
Ġj abra
ce l
Ġab normal
Ġfl am
Ġrece ipes
Ġro xy
Ġfar ms
Ġblack hawk
band s
Ġfabric ation
Ġstuff y
Ġgen et
Ġste vie
Ġgreen ies
Ġda vinci
ung ent
Ġvar nish
par able
Ġtech ie
Ġfore see
Ġnoise y
Ġmor se
Ġna h
Ġcamp ground
dis sa
Ġdownload able
Ġver ge
Ġprep aid
Ġclar a
Ġboun ty
Ġmas quer
Ġtermin ator
mark able
Ġalter ation
Ġsymbol ism
Ġsponge bob
Ġinterfer ing
Ġkin sey
Ġappet izing
Ġplumb ers
gri pping
Ġbour bon
Ġpengu ins
Ġoverla pping
Ġverd ad
Ġlaur ie
Ġrhet oric
Ġglimps es
Ġmateri el
d amaged
m att
r ue
Ġf let
Ġh atched
Ġd rench
oo my
th ia
Ġst ern
se ct
Ġex em
Ġall an
Ġal arming
Ġsi eve
Ġup to
Ġhe irl
Ġtr an
not iced
Ġv ile
Ġneed y
Ġmat ing
Ġinst ill
Ġinst agram
ff icient
Ġins ulate
Ġinf omer
Ġsoft ly
Ġcoll age
Ġcrack les
Ġpick ups
Ġlin ens
Ġfire wood
Ġimpo s
Ġsense less
Ġmor rison
Ġstring ing
Ġresol ving
Ġtechno logies
Ġfif ties
len a
Ġcuff links
bas ics
Ġrebo oted
Ġincorpor ating
Ġhack ing
Ġnud ge
Ġchee zy
Ġinver ted
lear ned
Ġkra ft
Ġphotocop y
Ġsizz ling
Ġhagg ar
Ġcourte ous
b ase
d ough
n early
Ġs ow
Ġs cept
Ġb aught
Ġc ate
Ġp ungent
Ġh one
ac cess
Ġall on
Ġsu et
Ġme ad
Ġpo lly
Ġv ines
am ous
Ġbo gg
Ġsp enser
ab ling
Ġjo ey
Ġro ach
Ġsn ails
Ġgi ver
sh er
Ġsk unk
Ġwal greens
Ġcra fter
gra mmed
was aki
Ġlisten ers
go ld
Ġrock ers
Ġlad le
Ġcross body
Ġscra mble
Ġdie hard
Ġboo gie
has hing
Ġpun ish
Ġgloss ed
Ġlie u
Ġfav s
Ġprev ail
Ġexpans ions
Ġreh ears
Ġimplement ing
Ġstub by
Ġterror ism
Ġreluct antly
Ġpest s
Ġdrown ed
Ġwy oming
Ġbid et
Ġdiscern ible
Ġesper aba
Ġpall et
Ġcoul ter
exception al
Ġorthoped ic
d im
e ous
h r
p ark
v ability
Ġt eng
Ġw ic
Ġc bs
Ġit ty
Ġl att
Ġre hashing
Ġin a
Ġsh ins
se eds
Ġas th
st ration
Ġne ces
Ġwork horse
Ġco ars
Ġread ability
Ġqu ibble
Ġpre valent
Ġv aughn
um ber
Ġsp ies
Ġte vas
Ġcle vel
ph ony
Ġwish y
Ġro aster
Ġro ckets
ol ar
Ġsty li
Ġfull ness
Ġreg ulation
Ġbelie vability
Ġawesome ly
Ġexc ite
Ġcra ps
ific ant
Ġblo nd
Ġyellow ing
Ġpet it
Ġlad ders
Ġfu chs
Ġrod ents
Ġchurch ill
Ġmal a
Ġexplo s
Ġscarf s
Ġry e
Ġreccomend ed
Ġpil gri
Ġdeb ated
Ġlag ged
Ġven ge
Ġmono price
Ġdemon stration
Ġvictor inox
Ġaccomplish ments
Ġrefresh ed
Ġcontrib utions
Ġtablecloth s
Ġeth nic
Ġluc id
Ġrhyth ms
Ġmodest y
charact er
Ġlex i
Ġscro lls
Ġkod i
Ġhast ily
Ġshimmer y
spr ing
Ġglam orous
Ġattrib ute
Ġmesm erized
Ġchees es
Ġeyep iece
Ġsuccul ents
Ġclevel and
Ġfuchs ia
g reg
t ment
in ers
Ġm w
Ġp ia
Ġn ana
Ġl ps
om in
Ġmy lar
id y
Ġne ater
Ġcan teen
Ġpr atchett
Ġgo ats
eri le
Ġover used
Ġri ot
Ġta illight
ens en
Ġright eous
Ġpe er
Ġcar ters
Ġcome back
Ġadd itive
edi ately
Ġsw ag
Ġsol vent
Ġbar re
Ġsqu irts
Ġfore arms
Ġpet al
land ers
Ġsitu ated
Ġdon ot
Ġcre o
Ġwrink ling
Ġregret ting
Ġsam urai
Ġcale b
cra zy
Ġree ves
Ġfund ra
Ġspiral izer
Ġcuis ine
Ġtransmit ters
Ġdesp ise
Ġasp ire
Ġench anted
Ġdroop y
Ġimpe ller
Ġracco on
Ġenlighten ment
Ġbookend s
Ġinco herent
Ġwac om
b bs
n al
Ġw re
Ġthe s
Ġthe sa
Ġg it
Ġnot ify
st iff
Ġch ile
ir a
Ġup bringing
uct ose
Ġfr uctose
Ġbu lls
Ġdis orders
Ġun p
Ġpre ordered
Ġafter life
Ġv h
Ġad verse
Ġbet r
Ġbet te
Ġle fty
Ġhand c
Ġgl en
Ġgu nd
Ġcar los
Ġac re
Ġhead ers
do ll
sh ame
Ġz inc
Ġter vis
ex p
Ġbreak ers
Ġnovel ist
Ġflo ated
Ġtem ples
Ġlay ed
Ġglo b
Ġass ault
Ġglue ing
Ġdrink ers
Ġfantastic al
Ġspray ers
Ġspo iling
Ġunb utton
Ġlibr arian
Ġcomment ing
Ġpol k
Ġlat ency
Ġbang le
Ġequal izer
Ġcharl eston
Ġampl ify
Ġnit ro
Ġcel est
Ġdegr ad
Ġka wasaki
Ġgod send
Ġfighter s
Ġcongr ats
Ġswed en
Ġtrous er
Ġeloqu ent
Ġanton io
Ġmisunderstand ings
elo pe
shor ter
Ġthesa urus
b is
i arty
j ar
o cc
Ġw t
Ġc ited
Ġh m
Ġg athers
on er
Ġe ld
om an
Ġbe gs
se ys
Ġso f
qu iet
Ġal tit
Ġv oodoo
li ving
Ġbl air
Ġpack able
Ġdefin ing
Ġclean ings
up dated
com b
Ġstuff s
Ġinstruct ors
Ġcra bs
iter ate
Ġdraw strings
Ġmult it
Ġcart il
que en
Ġdrink able
Ġliter ate
Ġbeat iful
ale x
cent ed
Ġarch ery
ugg ling
Ġund es
Ġuns weet
Ġsam uel
Ġvend edor
Ġcreative ly
Ġtan ner
Ġjer seys
Ġpsy che
Ġexpress es
hand les
[...]
