#version: 0.2
Ġ t
Ġ a
Ġ i
Ġt h
Ġ .
Ġ w
Ġ s
e r
Ġth e
Ġ b
r e
Ġ o
i n
n d
Ġ f
Ġ c
Ġ m
o r
Ġ p
Ġ h
e d
Ġ n
Ġi t
o u
o t
Ġ l
Ġt o
a t
Ġ d
a s
in g
l l
Ġa nd
i t
i s
e s
Ġ ,
Ġ g
e n
o n
a r
Ġn ot
Ġi s
u t
Ġ re
o o
Ġ [
a n
l e
Ġi n
v e
Ġo f
Ġo n
i c
u s
v er
t h
Ġ e
o m
Ġh a
Ġf or
Ġth is
c t
g h
l y
Ġw as
Ġb e
Ġs t
B E
M BE
N U
MBE R
NU MBER
l d
a d
Ġ y
Ġb ut
k e
a l
Ġm y
oo k
o w
a ll
Ġw h
c h
t er
i d
a y
r o
it h
ver y
e t
Ġ !
m e
Ġy ou
Ġw ith
u r
gh t
Ġd o
Ġha ve
Ġl i
Ġw e
ou ld
Ġs h
Ġth at
r i
s e
a c
en t
p p
Ġw or
Ġs o
i on
s t
Ġa re
Ġ u
Ġc h
i ll
Ġa s
Ġ very
Ġa n
Ġ us
b le
Ġ j
re at
Ġb ook
Ġthe y
Ġs e
i r
oo d
er e
c e
us t
Ġm o
Ġl o
Ġp ro
Ġn e
e ct
ic e
Ġwor k
all y
r a
Ġon e
Ġw ould
Ġe x
Ġli ke
q u
Ġg reat
on e
g e
Ġo r
Ġg ood
Ġa m
Ġc om
e l
Ġc o
Ġt i
K N
N KN
O W
U NKN
OW N
UNKN OWN
Ġw ill
ac k
Ġa ll
Ġ r
Ġa t
Ġre ad
Ġa l
. .
u l
Ġthe m
Ġ. ..
i f
as t
Ġj ust
Ġ qu
e m
om e
u ct
Ġo ut
Ġl ook
Ġc an
Ġp l
Ġg et
Ġha d
Ġs u
Ġto o
Ġ k
a p
t ed
Ġs i
Ġh e
er s
Ġu p
th is
a ble
a in
Ġd id
Ġb u
Ġm e
i e
Ġf r
Ġp r
Ġd e
Ġth an
Ġf it
ou ght
u n
Ġthe se
ou gh
Ġwe ll
th e
ou t
Ġn o
d uct
ar d
i l
or t
es s
v ed
Ġf e
it y
it t
Ġpro duct
Ġmo re
Ġi f
Ġ en
Ġus e
es t
Ġdo es
a k
Ġa b
Ġc on
Ġwh at
u re
Ġfr om
on g
Ġd is
as e
a m
Ġwh en
ur n
Ġs m
Ġs ome
Ġlo ve
an t
th er
ar t
a me
i ve
Ġti me
Ġon ly
Ġre c
Ġre ally
l o
i g
Ġh o
ou nd
Ġsi z
Ġbu y
Ġu n
a g
in d
Ġh as
v en
Ġw ere
a ct
Ġan y
Ġl e
f ter
Ġs p
Ġex p
al ity
ot h
ic k
it e
Ġp o
d er
in e
Ġsm all
c k
Ġt r
Ġof f
at e
Ġab out
Ġqu ality
er f
Ġm u
is t
itt le
or y
Ġ v
Ġa fter
Ġe as
n ot
s o
Ġl ittle
Ġbe c
Ġh ow
Ġg o
Ġp re
a nd
i es
a us
Ġch ar
Ġa d
Ġmu ch
Ġcom p
id e
Ġ ke
Ġsiz e
Ġo ther
Ġa r
pp o
ad e
Ġp ur
e ar
Ġyou r
l i
me nd
u m
aus e
o re
Ġrec om
Ġor der
Ġrecom mend
Ġc ould
a ke
Ġbec ause
Ġre t
e p
Ġb ack
Ġe ven
at ion
Ġb ought
Ġn ice
Ġne ed
p t
Ġb o
Ġth ere
is h
ay s
Ġbe t
Ġret urn
Ġo ver
a b
Ġa g
Ġt w
Ġst ory
Ġg ot
Ġs c
Ġw r
Ġpr ice
Ġch e
ppo in
a ppoin
at er
Ġp h
Ġm ade
ow n
t ing
Ġpur ch
in k
a re
s s
t e
Ġp erf
ir st
u e
Ġdis appoin
th ing
a ge
v es
Ġf irst
i ght
o y
Ġp ut
Ġk n
l or
Ġw ay
if f
Ġh i
Ġbet ter
Ġexp ect
Ġe very
p le
Ġy ear
Ġm on
Ġeas y
Ġperf ect
Ġd es
Ġsh e
Ġl ong
Ġcan not
Ġb l
v ie
one y
ic t
Ġst ar
Ġ ri
f ort
Ġm oney
at ch
Ġc ase
Ġco lor
Ġn ow
Ġha pp
A D
B AD
ac e
Ġm an
p e
Ġin st
Ġus ed
t o
Ġd iff
Ġb y
Ġag ain
Ġal so
Ġmon th
Ġwe ar
ic h
Ġst ill
Ġh er
Ġwork s
j oy
Ġsh o
Ġli ght
p s
as ed
Ġtw o
Ġt e
Ġche ap
a v
a ch
l f
ut e
k s
Ġke ep
p l
Ġwh o
t y
m ent
Ġb ig
Ġen joy
Ġit s
Ġb ro
Ġe nd
Ġs er
Ġbe en
i re
Ġo ld
ou s
Ġa w
Ġdisappoin ted
o nd
oth er
Ġh ard
i al
p er
Ġd own
f f
Ġph one
Ġse em
r y
u ll
Ġwh ich
en s
Ġth r
Ġth ing
Ġs a
ou r
Ġl ot
Ġne w
Ġf l
Ġlook s
ict ure
pp ed
Ġl ast
Ġp icture
a z
at ter
Ġi m
t s
i le
w e
Ġorder ed
Ġthe n
Ġp art
l es
g er
as s
Ġa ct
Ġre ce
Ġho ld
Ġb it
Ġin ter
Ġl ar
Ġit em
Ġchar act
a u
i ly
es e
Ġwor th
Ġc l
Ġsh ould
Ġth ink
Ġt ri
Ġhi gh
ion s
Ġm ake
Ġfe el
Ġse e
Ġde f
Ġc ame
Ġlook ing
Ġw ant
Ġin to
Ġhapp y
e ver
Ġri ght
v ing
Ġkn ow
Ġf un
Ġs et
at h
t ty
or m
Ġdiff er
Ġf o
Ġwe e
a ir
Ġcon t
ak es
Ġam az
Ġc le
Ġfe w
a il
f t
Ġha nd
ast ic
Ġne ver
Ġth ought
Ġh is
th ese
Ġexpect ed
fort able
Ġbook s
Ġa pp
i m
ra nd
i ved
f ul
Ġ ?
Ġg l
Ġread ing
Ġd ay
re e
Ġen ough
Ġp ack
Ġpre tty
Ġf ind
x t
p en
Ġb r
Ġb ad
m o
f ore
Ġthr ough
Ġth ough
b e
at ed
p h
Ġmonth s
Ġo ur
g reat
Ġco ver
re ss
Ġg u
Ġlo ved
Ġan other
nd er
u d
Ġs ame
gh ter
k ed
Ġhow ever
Ġman y
u ally
m y
Ġsp e
ul t
Ġp e
Ġdiffer ent
w h
Ġw a
vie w
Ġh el
Ġbe fore
re ad
Ġc ar
Ġrece ived
u g
m s
Ġtr y
is e
Ġpurch ase
ou n
Ġm ay
Ġre pl
Ġbro ke
Ġin s
Ġcharact ers
Ġgo ing
a ve
Ġbo x
Ġre view
Ġb est
Ġpro ble
Ġsu re
Ġwas te
Ġser ies
Ġa ut
Ġdef in
Ġcom fortable
Ġse c
Ġa c
Ġpl ay
Ġf ine
ater ial
Ġp ie
h ing
Ġus ing
Ġc or
Ġg r
ot t
Ġst o
Ġar ound
Ġwork ed
c ri
Ġpurch ased
Ġm aterial
Ġ ro
Ġw ish
re en
Ġmo st
Ġti m
Ġf ar
oo l
h or
Ġfit s
Ġb atter
Ġlar ge
i p
ve l
i ous
Ġu nder
ite ly
Ġw atch
Ġre al
Ġt urn
Ġm in
Ġwh ile
Ġj o
an s
b er
U R
Ġo pen
au ghter
f e
Ġar ri
Ġex t
Ġpl astic
Ġc ute
Ġf in
Ġsome thing
Ġto p
Ġb ag
Ġsh ow
Ġs l
Ġthe ir
Ġdes cri
an g
Ġdefin itely
an ce
g in
Ġsh ort
Ġst r
Ġs ound
Ġqu ick
Ġk ind
Ġc r
Ġg if
Ġex ce
Ġtim es
Ġwork ing
d y
C UR
Ġpr ot
u b
i ld
Ġf ound
Ġhel p
Ġw ater
Ġg ive
Ġc lo
Ġyear s
Ġs ay
Ġtri ed
Ġmo vie
Ġinter est
an ted
Ġne xt
a ut
se lf
n ing
i z
Ġpo or
it ion
Ġwith out
Ġm akes
Ġcom e
Ġenjoy ed
pp ing
Ġim p
Ġsho es
Ġaut hor
ig n
Ġr un
Ġprot ect
ak ing
ri ble
Ġw ar
ri e
ic al
Ġinst all
Ġlo ves
d e
in ce
ath er
w n
Ġl ess
Ġdo g
Ġad d
it ing
Ġd ays
Ġb ott
in t
Ġhe ad
Ġe ver
at ing
Ġo k
Ġseem s
en ce
Ġgif t
w or
Ġw anted
Ġat t
i ble
Ġs on
w ays
d o
Ġstar s
Ġamaz on
ll ent
aut if
as on
ate ly
Ġd aughter
Ġin f
Ġin c
Ġre f
Ġe ar
Ġs ince
Ġarri ved
ir t
o l
Ġbe l
Ġt ake
pt ion
Ġst ick
itt en
Ġcomp le
Ġm is
Ġsi m
l ess
rie nd
o se
Ġs li
av or
is ed
Ġb oth
Ġneed ed
as h
Ġsec ond
Ġwh ere
ke t
Ġaw ay
Ġf all
Ġnot hing
Ġs n
Ġwr itten
read y
Ġal ways
Ġsc reen
an ge
Ġs ide
Ġp le
c es
Ġg i
Ġdes ign
Ġal ready
Ġsu per
Ġth in
Ġrepl ac
ver s
Ġti ght
Ġli fe
Ġde c
oo m
u ck
Ġs ur
Ġe l
Ġc ut
Ġli ked
Ġeas ily
Ġbe ing
lo ve
ar k
Ġp air
t ain
Ġk id
re d
Ġproble m
ge ther
ow er
ing s
u al
Ġd ur
Ġa p
n ect
c i
Ġreturn ed
Ġst ay
autif ul
Ġre s
Ġd el
Ġ ed
d ay
Ġac c
Ġst ra
Ġf ast
r ic
r uct
Ġget ting
Ġto gether
ll ow
b o
ab ly
it ch
Ġa ble
mo st
Ġon ce
Ġis s
Ġcle an
Ġperfect ly
Ġsh i
Ġc ou
Ġpe o
b s
Ġinterest ing
Ġso ft
Ġstar ted
Ġb rand
Ġ x
Ġpeo ple
w ard
s h
v ice
Ġb re
Ġcomple te
ar y
Ġtoo k
Ġst y
Ġch r
Ġp ers
i o
Ġ z
Ġbatter y
Ġact ually
Ġf ull
Ġf riend
Ġex act
Ġwee ks
k en
Ġwee k
Ġjo b
Ġany thing
so l
Ġbl ack
oun t
Ġcon nect
Ġo wn
j ust
Ġst and
Ġany one
Ġwa it
Ġd ri
Ġha lf
Ġs k
Ġsmall er
it s
Ġpie ce
Ġst art
us h
Ġw ond
Ġevery thing
Ġh our
s ed
ed i
Ġal most
Ġap art
u ff
or s
e ad
Ġfin ish
Ġqu ite
Ġc ard
Ġy et
Ġbuy ing
Ġco st
ck s
Ġse ver
re n
ot s
Ġsa id
Ġhigh ly
Ġ ra
Ġt er
ver t
i x
Ġbro ken
Ġd ra
Ġg ave
d s
Ġp ay
p r
em ent
Ġt ra
Ġc am
Ġsu pp
ou se
Ġsho e
Ġlong er
Ġchr ist
Ġhe av
Ġsever al
Ġcou ple
u p
Ġbe autiful
i ed
Ġt y
ll er
Ġexce llent
Ġm ust
g g
es ome
Ġo ri
Ġwas h
Ġst ore
Ġre g
g ood
Ġs ad
Ġthing s
Ġpers on
Ġsh irt
ens ive
Ġre ason
Ġe ach
Ġcle ar
Ġch ild
Ġins ide
ation s
Ġw ent
t on
Ġl oo
ct ion
Ġf an
Ġ es
Ġpl ace
Ġt ast
i er
Ġwh y
Ġf il
Ġreview s
Ġchar ge
m m
erf ul
e x
Ġmay be
Ġke pt
n er
Ġori gin
Ġexact ly
Ġs w
Ġdiff ic
Ġst ur
ul ar
o s
Ġad vert
Ġon es
Ġho pe
b and
Ġkid s
Ġc are
Ġun t
Ġwith in
Ġl ine
Ġcolor s
Ġquick ly
Ġg ame
ent s
Ġgu ess
Ġbott om
Ġco ll
ag es
m as
l ain
sol ute
Ġover all
Ġth ree
Ġf avor
Ġhi m
Ġlook ed
Ġha ving
Ġp ain
y s
Ġst or
Ġb ri
Ġdiffic ult
Ġl et
e e
Ġunt il
Ġpro b
Ġp er
Ġm us
ter s
Ġinf orm
Ġstur dy
t en
ap e
id es
on t
th ers
the y
Ġi de
st and
Ġo thers
Ġel se
Ġstr ong
Ġwr ong
Ġinst ead
Ġf li
Ġd et
Ġheav y
al k
re me
b ought
pp er
Ġt ot
Ġamaz ing
Ġho p
Ġprob ably
Ġg rand
Ġf am
Ġs me
Ġsu ch
a w
s ing
i v
at s
Ġe m
Ġf ab
if e
n y
Ġs ent
ment s
Ġfe et
Ġorigin al
Ġtry ing
ar n
Ġcom es
re w
Ġwh ite
Ġh ere
Ġth ose
Ġh us
Ġso l
Ġh or
Ġd ress
Ġsto pped
Ġse nd
Ġchrist mas
Ġsme ll
Ġd one
Ġ vers
un k
Ġbut ton
Ġr oom
Ġaw esome
re t
Ġwr iting
Ġl ow
Ġbre ak
u es
Ġsty le
Ġf ree
Ġwho le
Ġchar g
Ġhus band
u nd
ra ct
solute ly
Ġf act
Ġb ul
Ġshi pping
Ġm ar
l s
el t
at ive
Ġlar ger
Ġreplac ement
b ed
ith er
Ġc ool
Ġp a
Ġwe ight
Ġdescri ption
Ġs ays
Ġw ind
Ġph ot
Ġpl ot
reme ly
n e
Ġcon s
Ġcomplete ly
ap er
Ġpl ug
Ġdel i
Ġte ll
Ġgl ass
Ġh ot
Ġcon st
Ġst uff
Ġmus ic
Ġbel ie
Ġre l
Ġinst ruct
Ġkeep s
Ġfe ll
Ġm ight
Ġp ower
Ġde al
l ine
Ġb as
Ġle ft
Ġget s
Ġw all
Ġdis c
Ġpack age
ut es
Ġtr ue
Ġthan k
Ġm et
Ġext ra
Ġclo se
ci ally
on es
Ġs le
et s
ph one
Ġt able
Ġth ick
Ġneed s
Ġfab ric
Ġadvert ised
el s
Ġs ong
Ġsupp ort
Ġmin utes
Ġex c
Ġhour s
fort un
Ġfo llow
Ġpr in
ull y
th ough
an y
Ġn orm
Ġl ist
Ġd ro
Ġre m
ou ch
Ġfavor ite
at ure
i b
Ġcl ass
Ġes pe
ag ed
Ġh ome
Ġn ight
Ġinc l
Ġreturn ing
Ġsc r
Ġespe cially
Ġcr ack
g n
l ed
Ġv al
Ġwond erful
Ġre d
or d
Ġsu ppo
w ise
Ġfor ward
it ed
Ġwar m
Ġpie ces
Ġext remely
Ġre mo
Ġr ub
Ġp ull
Ġs we
in y
er a
ir d
v ious
Ġi nd
Ġloo se
Ġfr ont
Ġincl ud
re ct
Ġother wise
Ġcomp lain
Ġbig ger
u me
Ġf elt
Ġfam ily
ow s
wor ks
Ġsur pr
fortun ately
Ġp aper
Ġpro v
Ġg en
Ġexp ensive
n ice
Ġc ap
en g
c om
a le
ect ive
Ġsome one
Ġc li
Ġa ir
ant s
Ġh ist
Ġc ur
Ġbri ght
Ġcharact er
Ġc d
Ġs at
Ġre p
Ġso on
id er
are d
Ġwear ing
d id
c ess
Ġinform ation
Ġm ag
e w
Ġle ast
Ġb and
el ess
Ġb ed
l ic
Ġdet ail
ent ion
Ġse ller
Ġs y
ic s
wh ere
Ġab solutely
Ġe ither
w are
Ġunder stand
Ġm aking
ic ally
Ġfeel s
Ġdisappoin ting
al s
Ġstor ies
Ġa v
Ġgl ad
Ġbl ue
Ġend ed
Ġpo c
Ġfo ot
Ġp ick
Ġh ouse
s ide
Ġp ast
is f
Ġple ased
Ġhapp en
Ġthan ks
Ġproble ms
wh at
Ġinstruct ions
Ġpicture s
Ġpro per
Ġno vel
Ġp ort
Ġke y
Ġag o
Ġpo int
Ġin ch
Ġco nd
Ġmo d
Ġc able
Ġsl ow
at es
Ġre st
ms y
ar r
Ġm edi
Ġlot s
Ġter rible
Ġg ra
Ġscr atch
Ġd am
ve lo
Ġbe gin
Ġc ra
Ġvers ion
Ġf ra
Ġf ig
Ġd ark
Ġm ine
v ent
Ġref und
we en
Ġdur able
Ġd ry
Ġg ir
Ġb or
Ġlast ed
Ġp ages
Ġsu b
o oth
Ġbet ween
Ġf lo
Ġcam era
Ġcor rect
s ter
p o
Ġrepl ace
Ġd ire
Ġb all
Ġpa id
Ġiss ue
Ġdescri bed
Ġtast e
Ġw om
es ted
Ġd r
Ġad just
Ġc all
Ġco ff
Ġp ad
Ġm ain
Ġw ire
Ġst e
j ect
Ġun it
Ġfli msy
Ġg ar
Ġend ing
Ġrecommend ed
Ġide a
Ġpl an
Ġsp r
Ġle g
Ġhand le
Ġs ch
Ġm ess
Ġt ouch
Ġpl us
Ġin t
id ed
Ġpre s
Ġg ri
Ġen g
Ġpart s
er i
bo ard
Ġc ook
Ġh um
Ġit self
Ġ ent
Ġspe c
Ġch o
Ġcomp any
Ġatt ach
Ġcoff ee
it er
Ġiss ues
Ġlo st
Ġmy self
Ġfig ure
Ġbatter ies
Ġcom ing
on s
Ġcont ro
Ġmet al
ag ing
Ġsim ple
Ġmedi um
Ġmis sing
i an
k es
Ġt v
l ish
Ġun fortunately
Ġb ar
do es
um p
Ġh u
Ġle arn
Ġto y
Ġgo es
i a
Ġseem ed
Ġw ide
am s
Ġf ood
a x
velo p
Ġh ang
n g
Ġty pe
Ġ ve
Ġm atch
Ġe le
Ġt akes
Ġlight s
ant ly
Ġcont in
f er
c ed
Ġser vice
Ġspe ak
Ġhu ge
Ġre qu
om et
ss ible
Ġus ually
Ġf ill
Ġal though
Ġp age
Ġhold s
Ġw alk
Ġus eless
Ġphot o
Ġd v
eng th
n o
w ay
pp y
g es
Ġsli ght
Ġreg ular
Ġchar ger
Ġl ength
Ġsh ar
Ġkind le
Ġen ter
Ġhop ing
b ook
Ġsuppo sed
Ġch ange
Ġexpect ing
Ġbelie ve
Ġl in
iz e
Ġf ix
Ġcomp ut
Ġr ather
Ġw ife
Ġj unk
Ġd i
g ra
Ġtr ans
Ġsat isf
Ġdo ll
c o
Ġexp eri
mm er
Ġb are
Ġwor ld
Ġhor rible
ust om
Ġdire ct
Ġproper ly
Ġproduct s
Ġne ar
Ġapp ear
n ess
ent ly
Ġ %
Ġde velop
Ġdur ing
Ġan n
Ġr om
ro ss
p ro
Ġn um
Ġopen ed
Ġc at
Ġimp ress
im es
Ġst ud
l ing
Ġp en
at t
an k
b b
Ġs omet
ire d
Ġtw ist
Ġc up
Ġc ustom
Ġi phone
Ġh ook
Ġcond ition
in s
g r
Ġle ather
g y
ce pt
Ġv ol
Ġbo ots
Ġmo ve
Ġpl ac
Ġb ir
Ġtot ally
Ġcoll ect
Ġar t
g ed
Ġse en
Ġd ue
Ġevery one
Ġcor d
Ġb ra
Ġle ak
Ġm id
Ġhe ar
Ġrub ber
Ġfriend s
en se
Ġlo c
Ġf our
d d
Ġp ants
Ġbor ing
ou ble
Ġval ue
Ġim m
Ġare a
Ġspe nd
s et
Ġf ail
iz ed
g an
Ġf re
Ġv ide
ust r
il ity
Ġn arr
Ġcar ry
ic ed
Ġent ire
ret ch
b um
Ġto day
Ġsa ve
Ġr ing
Ġsiz es
Ġsto p
ar ch
Ġfun ny
Ġz i
Ġenter tain
Ġshow s
Ġpre ss
Ġst retch
Ġcon f
Ġfun ction
Ġpoor ly
Ġcomput er
Ġsomet imes
se m
Ġal bum
am p
Ġsch ool
f or
Ġbare ly
Ġlist en
Ġsol id
Ġf air
Ġhand s
ou d
Ġfor m
Ġde vice
Ġ er
Ġc er
Ġs ing
Ġpr int
Ġche ck
Ġho les
Ġpr om
Ġcheap ly
Ġwor n
ot e
Ġf ant
Ġal ong
Ġch ang
Ġs it
k ing
Ġfl at
Ġp ill
Ġnice ly
k y
Ġde p
ke ts
p ad
Ġw ore
Ġact ion
Ġout side
to p
Ġli ve
as ing
f ully
Ġdv d
ap ter
w as
Ġne ck
Ġp ri
Ġgi ven
Ġm ic
Ġs qu
Ġm om
i ent
Ġhist ory
Ġho le
ll ing
Ġe y
Ġitem s
ic es
t c
Ġl ater
Ġstra p
Ġsw itch
s on
Ġwh e
Ġcl oth
Ġfl avor
Ġst uck
n et
Ġpre vious
or der
d ing
Ġw ood
Ġo b
Ġp ass
am es
Ġg reen
Ġr id
Ġm em
ap s
Ġchild ren
Ġun less
Ġc reat
Ġsi gn
Ġm ind
Ġco p
Ġcont ain
Ġsa w
Ġsp ace
in ter
Ġdra w
d le
ex ce
Ġus es
Ġcard s
g et
Ġj e
c y
com fortable
Ġadd ition
c er
Ġtw ice
Ġch in
Ġdo or
Ġorder ing
il ar
Ġb ab
Ġann oy
Ġt iny
Ġsm ooth
Ġhe art
Ġmy ster
Ġl ap
Ġsh ape
Ġwa ist
Ġf a
Ġb urn
Ġfall ing
Ġe ff
te nd
Ġgen er
Ġgi ves
Ġdec ent
Ġty p
Ġok ay
Ġte xt
re ally
as es
Ġcons ider
Ġnorm al
Ġturn ed
l ook
Ġl ab
Ġinstall ed
li ght
Ġdog s
Ġs and
ver ed
Ġpo s
Ġsu gg
Ġpres ent
le t
Ġuse ful
as ter
Ġe tc
Ġb i
Ġcrack ed
a fter
Ġs us
Ġi pad
Ġple ase
Ġpur p
Ġm ix
it ive
exce llent
il t
Ġso cks
Ġi r
Ġimm edi
Ġwor ds
Ġha ir
p ect
Ġbel t
Ġsatisf ied
ar s
Ġm ult
Ġwor st
st em
Ġpack aging
or ry
z y
Ġfe ature
Ġbir th
un g
Ġlo ck
if ic
Ġconst ruct
Ġm atter
oo f
Ġm ot
Ġhelp ful
Ġsy stem
i et
Ġm ach
Ġdo ing
Ġas sem
Ġmod el
Ġin v
Ġf ace
Ġslight ly
ad ing
Ġco ld
Ġl au
Ġput ting
Ġtra vel
Ġo p
Ġam ount
Ġus b
Ġexce pt
Ġthink ing
Ġli kes
Ġv is
Ġset ting
Ġinclud ed
Ġl id
as ure
are n
re s
Ġexc ited
Ġcharg ing
Ġc art
Ġdisappoin t
Ġperf orm
Ġh on
Ġprotect or
Ġfin ally
Ġcer tain
Ġpoc ket
Ġcheap er
Ġimmedi ately
Ġeas ier
Ġpicture d
Ġthr ow
Ġbott le
Ġn on
us ed
m ore
Ġwr ite
g ot
Ġimpress ed
u ly
Ġtoo l
Ġri pped
Ġf ive
Ġsong s
Ġbu ild
Ġrec ip
b age
Ġvide o
Ġmult i
Ġp ract
Ġreplac ed
Ġav ail
Ġrun ning
Ġdis t
Ġremo ve
Ġcom m
Ġdeli very
Ġcustom er
Ġv ar
Ġrun s
Ġv ie
Ġsk in
Ġp an
Ġc ab
Ġsn ug
Ġx l
Ġvie w
Ġon line
as y
Ġgi ving
Ġhe ld
Ġbirth day
Ġact ual
r ant
ur ch
Ġun comfortable
m an
ph ones
p ar
Ġyou ng
s u
Ġl oud
Ġt ape
ion al
Ġof ten
Ġturn s
Ġl uck
Ġcont act
Ġp ink
Ġp u
Ġsi l
Ġzi pper
Ġcli p
Ġh at
Ġb le
we ll
Ġbab y
Ġe v
Ġlap top
Ġsle ep
Ġdam aged
ad ed
Ġt em
Ġenjoy able
Ġpo st
Ġst ep
Ġf ing
Ġsle e
Ġplay ing
Ġrom ance
Ġc al
Ġi ll
Ġf ut
Ġte a
b r
Ġbegin ning
ac ket
Ġc our
pro duct
m ber
Ġy e
a h
Ġc u
Ġb us
i gh
Ġprotect ion
Ġnarr ow
Ġinter ested
Ġstand ard
Ġshar p
Ġswe et
Ġstra ight
Ġfant astic
Ġse ason
r or
Ġsurpr ised
Ġvol ume
pl ay
Ġle vel
Ġv o
Ġsc rew
Ġsec ure
Ġpurp ose
Ġfinish ed
Ġshi pped
Ġmid dle
Ġwe ak
li ke
Ġtable t
Ġbutton s
Ġatt ention
Ġed ge
Ġy es
Ġl ay
in ed
Ġsim ilar
Ġro ll
Ġb ase
Ġup d
Ġacc ur
Ġbo y
Ġavail able
Ġse at
l er
Ġf ire
Ġentertain ing
wh en
Ġsugg est
Ġs orry
Ġs ides
wor ked
Ġg lo
Ġsh own
Ġto ld
Ġin k
Ġbo ard
Ġfil m
Ġf le
Ġmach ine
Ġfil ter
f it
Ġte ch
Ġbu ilt
Ġmo v
Ġhon est
Ġpurch asing
Ġpre fer
Ġexperi ence
Ġh ur
Ġfra me
Ġv ac
Ġaw ful
Ġsu mmer
Ġbag s
Ġl ack
Ġread er
Ġl ens
Ġcontro l
qu e
Ġpo p
Ġfut ure
Ġgar bage
Ġpain t
um b
Ġmyster y
re am
Ġrece ive
Ġsu n
Ġde ep
Ġcollect ion
Ġgo ld
Ġw ra
r oom
Ġmov ies
ed s
in ess
c c
th ere
ul ous
i me
Ġtot al
Ġgir l
Ġcomplain t
Ġd a
Ġdri ve
Ġfo ld
Ġlau gh
Ġas s
Ġh it
p ly
Ġcover s
itt ing
Ġt ear
Ġwom en
p erf
Ġwash ed
Ġbo ot
Ġb ased
ul ts
Ġst ain
Ġt aking
Ġf ore
Ġcomp li
Ġrecip es
r id
ter n
g le
Ġacc ess
ri ed
Ġsc en
Ġany more
er ic
Ġdr ink
Ġtr ack
u f
Ġcop y
Ġde ad
Ġle ave
Ġbo dy
lo ved
o g
Ġh ate
f y
z z
Ġcomp ared
Ġa ud
Ġflo or
Ġall ow
Ġdro pped
Ġtri p
Ġkey board
Ġch air
Ġold er
Ġb ow
Ġpro f
Ġkn ew
Ġpro ject
uf act
Ġnorm ally
Ġn ame
Ġhold ing
Ġse par
v able
Ġhappen ed
Ġcour se
t oo
Ġim ag
is ing
Ġstra ps
er ing
Ġdiffer ence
is ted
Ġwatch ing
Ġm oun
Ġm il
Ġres p
Ġqu est
ch e
Ġannoy ing
Ġtr uly
Ġse al
Ġl iter
Ġb ath
Ġt est
Ġth ird
Ġman ufact
Ġdef ective
Ġhe at
Ġprin ter
Ġno ise
Ġdeli vered
Ġsim ply
Ġtr ash
Ġimp ro
is ter
Ġdec ided
Ġam eric
Ġmulti ple
Ġscrew s
er o
Ġp ar
Ġsur f
u ed
Ġwa iting
Ġed ges
Ġun i
a ves
or n
Ġc aus
Ġpart y
Ġleg s
Ġg re
Ġsing le
Ġar m
Ġsp ent
Ġc ount
Ġte ach
Ġc and
Ġfl ow
Ġpill ow
order ed
Ġs al
we ight
Ġsiz ed
Ġd im
Ġhe al
Ġpre d
h e
Ġwe ird
Ġimp o
y ou
Ġbr own
Ġpart ic
Ġtr ouble
Ġhead phones
ent y
Ġcom fort
Ġm ouse
Ġc e
look s
Ġkn ife
Ġinch es
Ġnum ber
perf ect
Ġme an
Ġk itch
h ad
Ġp atter
Ġhel ps
Ġopen ing
Ġsome what
Ġb other
Ġimpo ssible
Ġs ens
Ġm or
Ġp ush
Ġgl ue
Ġbe at
Ġkitch en
Ġl bs
it es
Ġsound s
Ġgot ten
Ġchin a
pen se
un ch
Ġb ent
Ġbe h
Ġn one
Ġr ad
Ġconnect ion
ist ic
Ġm at
Ġme asure
Ġwind ow
Ġnot e
Ġser ious
c le
n ers
Ġe at
Ġr ating
Ġm ist
Ġsu it
Ġconst antly
Ġele ct
Ġst iff
Ġop in
Ġwas hing
Ġth ri
Ġimp ort
n ed
Ġp ow
Ġgr ow
Ġb lo
Ġg one
Ġth read
Ġfl ash
Ġt reat
Ġi d
at or
Ġhold er
m ing
ict ion
z e
Ġbl u
Ġkeep ing
f its
Ġglass es
Ġdisappoint ment
Ġrem ote
Ġspec ial
Ġpe el
Ġt it
Ġp ump
Ġl a
Ġm en
Ġth rew
Ġt all
Ġor gan
Ġk it
Ġde v
b ly
Ġcare ful
Ġcompli ments
Ġfair ly
pt ions
Ġs ense
Ġtwist s
Ġaccur ate
Ġc ats
Ġo il
av ing
Ġse lf
ict able
Ġloc al
Ġbi ke
Ġn or
Ġda ily
Ġhe ard
Ġto w
Ġappear s
Ġgrand son
Ġch ain
Ġwear s
Ġsus pense
Ġbas ic
Ġdis play
Ġg ames
Ġm ark
Ġl ate
Ġcart rid
Ġsiz ing
Ġgu y
Ġnot ice
Ġpro gra
Ġm ount
l it
Ġfr ustr
Ġapp ro
d aughter
ut ion
Ġw al
Ġplac es
Ġd ate
Ġdown lo
Ġcon cept
Ġcom fy
ad es
Ġst itch
Ġcost ume
Ġre se
Ġst ated
d u
Ġso ld
Ġshow er
Ġwom an
Ġye llow
Ġm ac
Ġopin ion
Ġd ig
Ġphot os
Ġpoc kets
Ġfail ed
Ġref er
m a
Ġre me
Ġan t
Ġpro cess
Ġob vious
g o
er ed
Ġfall s
i or
Ġdis s
Ġyour self
Ġsa fe
i ps
en ter
Ġper io
Ġre le
Ġche w
Ġbu n
Ġdirect ions
Ġwar rant
Ġrec ord
Ġfit ting
Ġm a
Ġspr ay
tend ed
in ted
Ġattach ed
Ġdis h
Ġwas ted
Ġm ail
Ġins ight
ir ts
Ġwor d
Ġle aves
Ġs ou
Ġje ans
y ing
Ġclear ly
Ġd ied
Ġt alk
Ġsto ck
Ġcorrect ly
Ġo cc
Ġspeak er
Ġreal ize
is s
Ġreme mber
Ġm ention
Ġy r
Ġwalk ing
Ġmo ving
Ġbul ky
or able
Ġr an
Ġa ff
Ġconstruct ion
Ġmis s
Ġadd ed
Ġbe nd
Ġm other
Ġpl enty
p ack
Ġpartic ular
Ġlight weight
ib ly
Ġj acket
Ġpo ssible
lo gy
Ġsend ing
p urch
Ġpred ictable
Ġapp re
Ġhelp ed
h ave
Ġupd ate
che ap
an e
in ing
Ġpatter n
ie ld
Ġexpect ations
Ġsli p
Ġse ll
Ġrece i
Ġsh ip
pp ers
Ġcontin ue
Ġevery day
Ġdetail s
Ġgrand daughter
us ing
Ġw inter
l t
Ġwarrant y
Ġbr ush
Ġle ad
Ġr ange
Ġs ams
Ġappre ci
bo x
Ġm ed
Ġplay er
Ġr ough
Ġc ases
er t
Ġmic ro
Ġstory line
Ġhist or
i ence
ren t
Ġfre sh
Ġmag net
Ġclass ic
Ġgri p
e asy
Ġl ed
ll ed
h a
Ġshe ets
Ġh ar
Ġrad io
Ġo per
u be
Ġinc red
Ġp et
purch ased
Ġre ach
Ġear ly
Ġf i
Ġend s
Ġrese arch
Ġcertain ly
ac es
Ġch ance
Ġr ust
Ġc enter
Ġchang ed
Ġbus iness
Ġhigh er
o ck
Ġdes k
Ġwant ing
Ġcra zy
at ic
Ġcharg ed
Ġins p
Ġwr iter
Ġpr iced
ir ty
Ġac ross
Ġaud io
Ġfeel ing
ie ce
Ġsams ung
ure s
aren t
Ġsh el
Ġplug ged
g s
Ġ nd
Ġh d
ver age
Ġe vent
Ġo ption
Ġmin i
Ġex am
Ġdesign ed
i ves
Ġad apter
in ation
Ġad ult
Ġbul bs
m p
Ġhum or
Ġcu ps
Ġhand y
h o
Ġsil ver
us e
Ġa ge
it ies
Ġgr ound
Ġstart ing
wh ile
b ack
Ġsurf ace
Ġad vent
Ġread y
Ġp in
Ġp ub
Ġex ch
p re
Ġagain st
Ġoff ice
Ġspe ed
Ġnear ly
Ġwall et
Ġinf o
Ġglo ves
Ġmanufact ur
Ġj ack
Ġlab el
Ġri p
Ġad v
Ġc ott
Ġw ed
ou b
Ġplay ed
Ġro ck
Ġr u
Ġfa ult
e en
Ġw et
ak en
ne y
s w
ar ning
Ġs ort
Ġperson al
Ġus ual
Ġg un
c ent
Ġdro p
ic ulous
Ġse arch
Ġc oun
ab ility
Ġi ce
Ġg al
Ġfull y
Ġst ri
Ġwind ows
Ġher o
is m
Ġsp ot
Ġpack aged
Ġf ish
Ġheal th
c ute
in ts
Ġbul b
on ly
Ġt al
Ġlo l
l and
Ġsl ide
ri ved
Ġrequ ire
Ġo h
Ġbec ome
Ġgu ide
Ġperio d
Ġto e
Ġmot or
Ġwor se
id ent
Ġear s
Ġbe ware
Ġwant s
Ġqu it
Ġch apter
Ġcon cer
Ġbl ade
Ġwe ather
ut s
Ġany way
Ġliter ally
en ces
Ġkn own
Ġcho ice
Ġbas ically
be autiful
Ġimport ant
Ġd an
Ġs itting
ac ed
m b
Ġcott on
s es
Ġstor age
Ġdevelop ment
Ġho se
Ġbeh ind
Ġl ower
Ġwr ist
Ġe qu
p ensive
Ġnot iced
Ġd ust
Ġc atch
ak er
Ġevery where
Ġatt ract
Ġtr uck
b ro
Ġcab les
Ġun able
in es
Ġf ur
Ġfore ver
Ġst ays
Ġclo sed
Ġz ero
Ġey e
Ġm att
Ġbec ame
ore d
Ġfill ed
Ġto n
g ar
Ġlo se
Ġcur rent
Ġpress ure
gra ph
Ġmost ly
Ġ vel
Ġd irty
or ough
an n
Ġim age
Ġsh irts
o id
Ġlin es
it or
Ġan sw
ap ters
is es
Ġown ed
Ġhope fully
Ġhop ed
Ġtit le
Ġl ang
Ġide as
Ġn et
po or
Ġa f
Ġthrough out
it ter
Ġra in
Ġdevelop ed
c on
ce ived
Ġsh r
Ġdec or
Ġp s
ri g
ap o
iv id
Ġfe ed
Ġprof ess
Ġp at
Ġste el
or ies
er c
Ġgra ph
Ġd ut
Ġt ab
Ġr ound
Ġey es
Ġvo ice
Ġhe el
Ġa verage
Ġp ot
Ġcont ent
Ġstore s
Ġon to
Ġsi x
Ġcon ven
Ġclean ing
Ġr ug
o ver
Ġun us
Ġlearn ed
Ġapp le
Ġr ate
ir ing
Ġexp lain
Ġlang u
Ġin ex
Ġsu cks
Ġti ps
Ġle arning
le ct
wor k
Ġte nd
Ġpair s
Ġlove ly
Ġcap t
Ġp ool
Ġcall ed
o ve
ll y
au ght
Ġm el
Ġfl aw
Ġc red
ter rible
Ġm ir
su per
Ġrid iculous
Ġter ri
Ġatt em
Ġe f
Ġan im
m in
Ġt ough
Ġp ound
ri ght
Ġc ush
Ġact ing
Ġup on
Ġscratch es
bb les
a pped
b ers
Ġgu ys
Ġir on
Ġprov ide
Ġli m
Ġt en
Ġpur se
Ġhang ing
Ġmor ning
j or
a im
h aps
Ġli f
Ġcomplain ts
Ġl isted
Ġsn ap
Ġcom b
ug g
Ġstick s
Ġd ouble
Ġrem ind
Ġapp ly
Ġcloth es
Ġw o
Ġef fort
le ading
Ġth orough
Ġeff ect
Ġdoll ars
i ally
Ġbr ing
Ġlangu age
Ġfing er
Ġad orable
po d
Ġb al
Ġtr ick
Ġf ly
Ġtoo ls
Ġcam p
ur al
c an
et ooth
Ġsh or
ir m
Ġdut y
Ġfo am
v al
Ġassem ble
Ġdam age
Ġt ank
Ġcover ed
Ġdel ic
c ro
Ġrel ation
Ġne g
Ġfle x
Ġinex pensive
em s
Ġt aken
Ġc ir
Ġe p
Ġd ial
Ġan k
o d
Ġhur t
pre tty
Ġt un
Ġf iction
autif ully
Ġar ms
Ġsuppo se
Ġspeak ers
Ġuni que
re ceived
Ġj ew
Ġsub ject
Ġte en
c ing
Ġset s
Ġany where
Ġear r
Ġl aw
Ġce ll
Ġli ves
Ġhapp ens
Ġt re
Ġke ys
Ġb en
Ġameric an
Ġab ove
aw esome
Ġal ot
Ġc ast
Ġblu etooth
b y
ation al
ar rived
Ġinstall ation
Ġw id
Ġprov ides
Ġstart s
ill s
Ġmatt ress
Ġclo ck
as p
Ġspr ing
li er
Ġclo s
l us
Ġse qu
m i
Ġma jor
Ġbr ought
Ġr ide
Ġar ch
Ġup set
Ġem ot
c ol
Ġs ister
ent ed
Ġgir ls
Ġt ag
s le
Ġpur ple
Ġad h
Ġint rig
Ġvel cro
Ġse am
Ġimpro ve
Ġrelation sh
Ġswe at
Ġli ving
u um
Ġre pe
bo dy
Ġrequ ired
Ġen c
Ġper haps
Ġscen es
iet y
Ġav oid
Ġmis leading
Ġd ull
ax y
Ġshort s
Ġw in
i pe
Ġti p
Ġrec o
Ġinform ative
Ġgal axy
Ġas k
Ġbun ch
Ġscratch ed
it em
Ġbu cks
Ġl ad
ure d
Ġprom pt
Ġdep th
Ġexch ange
Ġhard ly
Ġill ustr
f irst
r ors
gr ound
Ġthick er
Ġapp e
r ow
n a
Ġvac uum
Ġso le
hor rible
Ġme et
ch ar
Ġconnect ed
Ġf ake
Ġwed ding
Ġbr ace
it al
Ġconsider ing
ad s
Ġbre aking
Ġfeature s
Ġsm art
Ġstitch ing
Ġprov ided
Ġpull ed
Ġpro du
Ġhistor ical
Ġkn ock
c il
Ġfo c
est ing
Ġsh ut
Ġch em
Ġres ults
Ġexc iting
Ġwe bs
Ġj our
Ġpos ition
r on
Ġeng lish
Ġbe ach
Ġprogra m
i pped
Ġind ic
Ġsmell s
Ġv ib
Ġfind ing
Ġback pack
Ġshow ed
Ġbrand s
Ġwhe el
Ġmist ake
Ġmo der
s c
se l
Ġcl aim
Ġf ans
Ġph ones
Ġme ans
p ite
Ġocc as
Ġcut ting
Ġmin ute
Ġto es
Ġprin ted
Ġsp o
Ġsee ing
Ġperform ance
Ġd est
pl es
Ġch all
Ġauthor s
d is
Ġapp lic
Ġquest ions
Ġhook ed
Ġbu ck
Ġcount ry
Ġthr u
Ġsoft ware
Ġd oub
Ġmaterial s
Ġmem ory
Ġch apters
ct ions
Ġm r
Ġneg ative
Ġsurpr ise
Ġnovel s
Ġhas sle
Ġint ro
Ġp c
s ome
Ġrep air
Ġstick er
as k
Ġneck l
Ġc ry
uct ion
Ġel astic
t ime
Ġor ange
Ġturn ing
Ġbe autifully
Ġcor ner
Ġo dd
b all
Ġball s
Ġgr ou
Ġbu bbles
Ġto ys
g ing
Ġcor ners
Ġsn ow
Ġwid th
or ge
Ġshor ter
Ġc ross
Ġsay ing
Ġtight en
p ut
Ġtem per
ward s
cess ary
x y
Ġb ible
Ġbr other
Ġu nd
Ġed ition
Ġfunction al
Ġsit u
Ġleak s
al though
Ġal one
Ġth er
Ġch art
Ġti e
Ġcon c
lo red
Ġtr ust
Ġmess age
Ġvar iety
Ġsecond s
Ġreason able
Ġso c
Ġf em
Ġqu iet
Ġfrustr ating
Ġobvious ly
Ġwatch ed
Ġshe et
u c
e ven
Ġback ground
Ġattract ive
Ġdownlo ad
Ġbe y
ll a
Ġsu c
Ġfollow ed
id ing
Ġsli m
Ġdoll ar
Ġl amp
h n
ic le
Ġk ick
Ġin tended
ish ed
Ġsw im
Ġcons ist
Ġcred it
our ce
Ġse ams
Ġlast s
w ould
e very
ens ion
Ġcomp at
Ġplac ed
Ġsign al
Ġpack ed
ch an
Ġb ill
f in
Ġconven ient
Ġtech n
Ġp ens
Ġsh ame
Ġli ghter
f un
Ġgre y
Ġwond er
h ow
Ġcoll ar
Ġt ree
Ġrec ently
Ġeff ective
Ġmag n
Ġhum an
Ġpl ain
an ces
Ġmo ld
Ġsho p
ent ial
c um
ome nd
Ġmanufactur er
Ġconf using
Ġattem pt
Ġcur tain
Ġslee ves
Ġgr ind
Ġme chan
Ġstick y
Ġk ing
Ġwebs ite
if y
u it
as c
apo inted
Ġbey ond
Ġsm o
en cy
Ġun b
Ġbelie vable
ren ch
Ġdev ices
Ġl b
Ġd on
Ġremo ved
Ġcomp act
Ġthorough ly
Ġcush ion
Ġsub st
Ġdetail ed
ri es
ha ppy
h ip
k ward
Ġple as
Ġl ink
Ġbox es
Ġde g
Ġo em
Ġsp ir
le y
Ġg as
Ġpr oof
Ġbott les
Ġgu it
Ġpick ed
Ġre li
Ġr ack
Ġm m
Ġj ump
Ġearr ings
Ġn at
Ġinter net
Ġto dd
Ġfigure d
oo se
d ed
Ġpen cil
Ġk ill
us s
Ġo t
o p
Ġhard ware
Ġcontain er
Ġo ptions
Ġcli ps
Ġb reat
Ġr ich
Ġout do
Ġw ays
Ġarri ve
Ġc re
h ead
Ġadvent ure
Ġsty lish
Ġsn apped
Ġreg ard
Ġst ates
oo oo
p ort
Ġem ail
Ġ ver
Ġco at
Ġc as
if ied
Ġfing ers
Ġf aded
Ġwire less
Ġf irm
Ġhand les
Ġworth less
pr oof
Ġr d
Ġbath room
Ġte e
Ġadjust able
Ġneckl ace
Ġbreak s
Ġhe ight
Ġman ual
Ġse w
Ġas ked
Ġreco gn
Ġcl ick
sel ves
Ġc aught
Ġmo ved
Ġcho col
Ġjo hn
Ġcoun ter
Ġappreci ate
Ġaw kward
u ing
Ġstr ing
Ġsp ots
Ġmin im
Ġc y
Ġf aster
Ġtast es
Ġsp lit
Ġdes pite
Ġn ic
ab solutely
pe nd
m ed
Ġfix ed
Ġwork out
Ġdisc o
Ġact iv
Ġt ur
Ġve h
a pp
r it
Ġstr ange
Ġpad s
Ġgener al
Ġpow erful
Ġg er
Ġshel f
Ġt ill
Ġs uction
c ould
b ing
Ġab s
Ġbl an
Ġgif ts
Ġt ar
Ġro ad
Ġbe gan
Ġpos itive
Ġpl ate
Ġr ings
Ġserious ly
Ġreg ret
Ġgrou p
Ġenjoy ing
Ġblo ck
Ġlisten ing
n am
l ass
Ġt ub
Ġcartrid ge
Ġmis sed
Ġwire s
Ġli br
Ġapp arent
Ġme ant
Ġear lier
Ġv i
Ġp ic
Ġtyp ical
er g
zz le
Ġsur v
Ġ rand
Ġsuc cess
Ġaw are
Ġs ite
Ġto m
Ġstud y
Ġpract ical
Ġprofess ional
Ġh y
Ġare as
Ġrefer ence
p et
Ġevent ually
Ġer rors
Ġinv ol
Ġg ard
Ġform at
Ġex erc
dis appoin
Ġt ube
Ġread s
Ġsa ved
Ġg e
Ġco l
Ġmon itor
Ġcompat ible
Ġover p
Ġd ad
Ġsho ot
Ġbo ys
Ġal tern
f l
Ġac cept
Ġpract ice
Ġall ows
Ġmar ket
Ġconstruct ed
Ġy ard
ra id
an other
c ase
ut h
Ġo d
it ions
Ġbec om
c ame
Ġ est
Ġguit ar
inter esting
Ġad vice
Ġtext ure
Ġhonest ly
Ġthere fore
Ġbow l
Ġf u
Ġwhe els
Ġwr ink
Ġs ink
Ġelse where
Ġpre p
Ġpu ppy
Ġwr ites
Ġaf raid
Ġjew el
Ġle aving
f o
Ġoff er
Ġread ers
Ġpri me
Ġgr ay
Ġpl ays
Ġfli p
Ġcoll e
Ġ ess
Ġinv est
Ġj u
Ġwra p
Ġsho ck
Ġlibr ary
Ġb ur
Ġin it
Ġt ale
Ġn ail
Ġchocol ate
Ġgri ll
Ġin g
Ġh un
Ġh ood
Ġrec ie
Ġ ut
Ġun happy
Ġcharg es
Ġt ap
Ġbut ter
t le
Ġincred ibly
Ġres ist
Ġaff ord
f riend
Ġn av
p ed
ou th
Ġi pod
Ġcook ing
Ġprom ised
et y
Ġbrace let
p ri
Ġse xy
Ġlike ly
Ġmo ves
Ġup gr
Ġfl ag
Ġunus able
Ġsepar ate
Ġch est
Ġpub lish
e ak
Ġf ash
Ġha llow
Ġset up
Ġad ults
es ive
Ġfor get
p ective
Ġimag ine
Ġdest ro
b ble
Ġpo ints
Ġaddition al
Ġto re
Ġm outh
ke y
Ġcom ment
i i
Ġsp ort
Ġstick ers
Ġcl ub
ill y
or ted
m et
Ġr ot
Ġble nd
Ġm ax
ar m
Ġprotect s
Ġfash ion
Ġreal ized
Ġpad ding
Ġf ather
Ġb ust
Ġchar m
Ġdel ight
orge ous
Ġer ror
Ġleak ed
Ġho l
o k
Ġfact ory
Ġst re
h ile
Ġaw hile
Ġpo ss
Ġhallow een
Ġwater proof
Ġthin ner
Ġrand om
Ġwhat ever
Ġinclud ing
Ġp aced
if i
b est
m er
Ġtime ly
Ġwr ote
Ġtra il
Ġs am
Ġind ivid
Ġus er
ul ty
Ġch ann
a ly
Ġknow s
id s
Ġf ro
Ġch ose
Ġfam il
Ġem pt
can not
Ġf t
Ġdial og
Ġbl ow
Ġtemper ature
Ġfre qu
Ġm aster
Ġev ents
Ġve nd
Ġvar ious
Ġhead set
ric ed
Ġcl asp
Ġlo go
Ġexce ption
y m
Ġde ce
Ġcra f
Ġpl ant
Ġb ass
Ġco lored
Ġstay ed
Ġgard en
Ġsh ot
Ġwor ry
Ġre sol
Ġsli pper
Ġch oose
Ġst one
Ġm er
Ġdoub t
Ġdaughter s
Ġmoder n
Ġheav ier
Ġmention ed
at isf
gg ed
Ġsa le
Ġart ist
Ġcab in
Ġboy friend
Ġmir ror
Ġc ro
w ash
Ġlo ad
am az
m art
g est
Ġsu gar
Ġf al
in ating
ll s
Ġnum bers
li ed
Ġdri ed
Ġd irt
el ie
Ġfem ale
Ġcolle ge
Ġid ent
Ġsp in
Ġsu ff
Ġun like
Ġst ate
Ġsand als
Ġe gg
Ġreplac ing
Ġep is
Ġprotect ive
Ġinf l
Ġan ten
Ġf ight
Ġfoc us
Ġsequ el
Ġthem selves
Ġc ream
Ġpay ing
Ġrele ase
Ġgar age
Ġdim ens
Ġli qu
Ġg love
Ġt orn
on se
aren ts
Ġadh esive
an ced
Ġaut o
l an
un fortunately
Ġbad ly
is ion
f ic
Ġshr ink
Ġsad ly
Ġcut s
Ġun s
Ġco de
Ġreal istic
t r
pect ed
mm ed
Ġpers pective
at a
Ġsk irt
Ġse ction
in st
Ġne ither
Ġresp onse
Ġstud ents
itt y
Ġinclud e
Ġcartrid ges
Ġlim ited
Ġdig ital
is on
Ġo z
Ġturn er
Ġd y
Ġle aking
Ġcomp ar
Ġho ls
ac y
Ġcard board
Ġtr ad
Ġbel ow
Ġti red
stand ing
Ġhook s
Ġm s
m it
Ġsurpr ising
Ġrem ain
Ġl and
Ġacc om
Ġguess ing
Ġbe ar
ur ing
Ġb on
Ġse eds
Ġan gle
Ġant ic
Ġjo ke
Ġeng aging
Ġstain less
Ġsh ap
Ġflex ible
er y
Ġacc ount
Ġarri val
Ġcar pet
Ġport ion
Ġunderstand ing
Ġbl ades
Ġlet ters
Ġrelationsh ip
f orm
Ġsc ience
Ġfur ther
Ġso ap
Ġspec ific
Ġins ert
Ġdis p
w ow
Ġchrist ian
Ġc ri
g th
Ġslee ve
ex act
Ġe ating
Ġgra b
Ġassem bly
Ġw ider
Ġd em
Ġbu d
Ġgr ade
Ġillustr ations
Ġcontro ller
Ġapparent ly
Ġtow el
Ġband s
Ġne at
Ġfil ters
Ġf asc
Ġre ar
Ġeng ine
Ġshow ing
ll i
Ġr ay
Ġn iece
Ġra re
u ce
led ge
Ġwash es
Ġoverp riced
Ġgl ued
Ġmil es
Ġb es
Ġdark er
en joy
Ġb ind
Ġex ist
n al
et ic
Ġfor ce
Ġrep et
Ġtodd ler
Ġne cessary
Ġprompt ly
f ast
w ill
Ġch ick
Ġr ated
Ġtell ing
Ġchang ing
i ents
Ġtr uth
Ġn ut
Ġst ren
Ġconnect or
m es
Ġing red
Ġru ined
Ġnat ural
i ke
Ġshould er
Ġj am
Ġbl ur
Ġd u
Ġchem ical
Ġreli able
Ġcontact ed
Ġspir it
Ġg ear
Ġdra g
Ġdelic ious
Ġan g
Ġsy n
Ġcomm on
Ġl unch
Ġu lt
Ġchin ese
ne ath
Ġunder neath
Ġshar pen
Ġg oo
Ġantic ip
ush ed
Ġmoun ting
Ġfra g
Ġdestro y
es h
Ġsal t
Ġhols ter
Ġjour ney
Ġtalk ing
Ġm ad
Ġpre vent
Ġank le
Ġbuy er
Ġanten na
Ġg orgeous
Ġveh icle
Ġsetting s
Ġd in
Ġquest ion
Ġsol ution
Ġtell s
Ġprotect ed
Ġblan ket
Ġab ility
Ġp arents
Ġfal se
Ġh p
s p
Ġbal ance
Ġmom ent
ph ew
Ġto wn
Ġelect ric
Ġbar s
Ġtra ining
Ġpeel ing
Ġde pend
Ġempt y
Ġc ent
Ġcarry ing
Ġpri or
Ġz ip
Ġacc ord
z en
Ġwe b
Ġun re
Ġne phew
Ġqu e
Ġburn ed
iz ing
Ġprevious ly
Ġto ss
lo g
Ġus a
Ġtem p
Ġstr ings
Ġg ym
Ġacc ident
exact ly
Ġcaus ed
Ġstren gth
ant ic
act ion
Ġdra ma
Ġchall eng
Ġsc ra
Ġrecei ving
b or
Ġhol id
Ġot ter
Ġt ail
Ġhealth y
p iece
atter ing
Ġsp ark
Ġprin ting
Ġcomp art
Ġag ree
Ġd ie
Ġste am
Ġpound s
Ġprice y
Ġcas ual
a f
Ġsqu are
Ġdirect ly
Ġw ow
Ġwor ried
Ġc ult
Ġrel ax
Ġreview ers
on nect
Ġmar ks
Ġbreat h
Ġy og
Ġlo ss
Ġt or
Ġinc or
Ġsh iny
Ġdo cum
Ġres ult
Ġcheck ed
Ġvend or
Ġdri ving
um in
w ear
Ġthread s
Ġknow ledge
Ġinvol ved
Ġbr ings
Ġapplic ation
Ġvide os
Ġpo l
an ger
Ġfree z
Ġcir c
bro ke
le ction
Ġwra pped
Ġn y
Ġcand y
Ġr oo
Ġcamp ing
ke nd
Ġpull ing
Ġx x
disappoin ted
Ġb ored
Ġcomp lic
Ġre char
Ġsh are
ud e
Ġman ner
Ġfollow ing
Ġth us
Ġtyp es
Ġwal mart
Ġcar s
u x
Ġt ad
oth ing
Ġfriend ly
Ġsi lic
Ġparticular ly
ac ing
d es
Ġrecie ved
Ġwe igh
Ġsk ip
Ġjewel ry
i ving
Ġappro pri
Ġinstall ing
Ġunb elie
Ġchang es
i pping
en ed
Ġvac ation
Ġrequire s
w ood
Ġe ase
Ġphoto graph
Ġthri lled
Ġde ter
Ġgraph ics
Ġcor ds
Ġsome where
Ġmin or
atisf ied
Ġfit ted
Ġpo lit
w ond
Ġsc ar
Ġin ner
Ġdescri ptions
Ġfact s
Ġvi ol
Ġperson ally
Ġout fit
wash er
Ġw ise
Ġp or
Ġh ated
Ġcomm un
Ġgra mm
Ġsupp ly
Ġfant asy
i k
Ġabs or
Ġd ata
Ġfrag ile
Ġvib rant
Ġsp l
ed ed
Ġoutdo or
Ġpre m
Ġdiss apointed
Ġenjoy s
il ing
Ġsl ides
Ġsqu ee
Ġm aker
Ġdish washer
Ġhard er
i ar
Ġb read
Ġt ested
Ġto ps
Ġresp ond
Ġpo pped
Ġsens itive
Ġas pect
Ġsi ght
Ġlo ving
Ġbas ket
Ġw ifi
Ġsto ps
Ġin te
Ġwhe ther
Ġmu g
Ġswe ater
Ġwee kend
Ġdef ect
Ġstr ugg
Ġloo s
Ġdry er
Ġannoy ed
ast e
Ġref lect
Ġansw er
Ġod or
ar ily
om b
Ġrec omend
Ġhd mi
Ġs its
Ġp ure
Ġtrans fer
at o
Ġliqu id
Ġag es
Ġde ath
Ġoff ers
s m
Ġstrong er
UR L
Ġus age
Ġle gg
Ġindivid ual
se ems
Ġfl ick
Ġkn ives
atter ed
Ġdri ll
Ġequ ip
Ġtow els
r u
ver se
amaz ing
Ġw ig
Ġh ung
lo ck
Ġsh if
Ġlo g
Ġthr own
Ġp ouch
Ġminim al
ion ally
Ġdes er
en ced
Ġhop es
Ġh es
id ge
Ġv an
Ġincred ible
Ġlin ing
Ġins er
Ġc ake
Ġgr ad
ex pected
Ġro b
Ġafford able
Ġcaus ing
Ġben e
Ġl am
is k
Ġfun ctions
Ġlens es
Ġl itter
Ġbut t
ra ge
Ġcl ar
en ing
Ġtra in
Ġwait ed
m ans
Ġson y
Ġmo de
Ġadd s
Ġm ale
Ġthe me
Ġdra in
Ġcolor ing
Ġlight ing
Ġf au
Ġch urch
Ġdur ability
Ġw ine
Ġelect ron
erf ully
Ġh ub
is ters
Ġmean ing
Ġj un
Ġim ages
Ġmag ic
Ġl y
ag er
Ġcloth ing
Ġde ck
Ġst ones
Ġcomplic ated
Ġs illy
all ow
Ġg am
Ġgrow ing
Ġoff ered
Ġlet ter
Ġre n
oo p
b ut
Ġfa ith
rie f
Ġnic er
Ġequip ment
u ch
Ġm ask
Ġv iny
Ġsc ri
Ġno se
Ġaltern ative
Ġg au
Ġsa f
Ġthrow ing
Ġpack s
Ġhead s
Ġport able
Ġplug s
Ġyou n
ay ed
Ġact ors
th ought
Ġyoun ger
Ġbed room
Ġslipper y
Ġrel ative
Ġcreat e
Ġed uc
Ġtee th
Ġus able
Ġre ality
Ġsc ent
Ġcom ments
Ġbo at
Ġpl ants
Ġsty lus
Ġsh ade
Ġro d
um ps
Ġr ou
w r
Ġcomfort ably
Ġbes ides
Ġexp lan
Ġsp are
Ġyes ter
Ġaccord ing
Ġflash light
Ġdimens ions
Ġcreat ive
Ġtrad ition
Ġcomp are
Ġdraw er
Ġsh red
Ġcontin ues
Ġdri ver
ur y
r ing
Ġviny l
Ġto oth
Ġappe ared
Ġmac book
Ġa head
lass es
Ġn uts
Ġs ke
Ġbuild ing
Ġfasc inating
Ġse lling
Ġingred ients
Ġdire ction
Ġbu m
b u
Ġp ins
Ġcolor ful
wond erful
Ġm ill
Ġcon v
Ġc ale
Ġmel ted
Ġdialog ue
o c
Ġn ur
Ġmix ed
i um
u ro
Ġdown side
Ġlegg ings
Ġstep s
Ġtr ay
Ġm al
Ġsp ill
mans hip
Ġcall s
Ġsign ific
er gy
Ġknow ing
Ġproject s
Ġless on
Ġtear s
Ġj oy
Ġbo l
Ġh ing
Ġaut om
Ġyester day
qu ality
er v
Ġorigin ally
Ġbu mmer
Ġb oo
Ġinc re
Ġs ick
Ġo bs
Ġsu ng
Ġout standing
Ġfavor ites
Ġb an
Ġcomple x
Ġm ich
Ġdro ps
Ġclos er
Ġplan ning
Ġorgan ized
Ġf urn
Ġintrig uing
Ġen v
Ġwond ering
b it
Ġass um
Ġg b
al ing
Ġes c
k er
c ome
Ġcon vers
Ġsl ot
Ġs ource
Ġgen re
Ġtrans l
Ġp atch
Ġport s
Ġstretch ed
ast ed
Ġl it
h ood
Ġp ace
Ġg ro
Ġph ys
Ġbu ll
Ġed iting
Ġst able
Ġst atic
Ġluck ily
Ġte am
Ġbri lli
Ġdi et
Ġr h
ib ility
Ġput s
Ġskin ny
Ġlack ing
Ġgl ow
Ġsens or
Ġli ft
Ġth igh
Ġse lect
Ġcost s
Ġh r
Ġsecure ly
Ġgreat est
Ġmagnet ic
Ġtri logy
inst all
Ġrom antic
Ġtravel ing
Ġo ven
d en
Ġp ark
Ġcontain s
Ġbon us
Ġmeasure ments
ic ient
Ġch ips
Ġcomp e
Ġpre c
Ġappropri ate
Ġout er
Ġadvert ising
Ġres et
Ġtar get
Ġir rit
Ġanim als
Ġnot es
Ġmo ist
a a
g ress
Ġdisc onnect
Ġrid ing
le ts
ash ed
Ġst ation
Ġaut h
is y
Ġcare fully
co lor
Ġpow der
Ġrecord ing
Ġspend ing
Ġdra wn
Ġpain ted
Ġexam ples
Ġimprove ment
m on
Ġli ved
Ġtreat s
Ġcontin u
Ġslow ly
Ġbegin ner
Ġinsp ir
Ġbuck le
ch o
Ġfo l
Ġfl uff
Ġscri pt
Ġfr uit
h ere
Ġre v
Ġdep ress
Ġsleep ing
Ġsome how
Ġal arm
Ġbecom es
Ġmechan ism
Ġbu bble
Ġstick ing
Ġunbelie vable
Ġcry st
Ġti re
Ġl atch
Ġst ream
Ġsc ale
Ġpu zzle
w ith
Ġse wn
Ġadd ing
Ġpub lic
Ġl as
Ġnotice able
Ġpo lic
Ġsp an
Ġclo set
Ġrel ate
Ġt an
Ġincor rect
Ġsc o
Ġyog a
Ġtast ed
Ġclean er
Ġj er
Ġwond erfully
e es
Ġyou t
Ġab solute
Ġfab ulous
Ġup s
t w
Ġc ity
Ġupgr ade
Ġwish ed
ac kets
Ġgraph ic
Ġp unch
ple te
Ġameric a
Ġcomp ress
duct ion
sm all
lf riend
Ġrece ption
Ġdan ger
Ġf ield
Ġfall en
Ġh its
u ary
e y
Ġch ipped
Ġh om
Ġj an
Ġassem b
Ġcale nd
le x
Ġmoun ted
Ġst at
Ġrou ter
Ġspec if
Ġb ird
Ġfin al
Ġch ip
Ġto ne
Ġp our
Ġexam ple
e c
att le
Ġsaf ety
Ġback ing
Ġson s
Ġsl iding
Ġpass ed
ed y
Ġprem ise
re es
Ġg rew
Ġf ool
Ġun expected
Ġvis ible
Ġcurrent ly
Ġyout ube
Ġto ng
Ġthri ller
ret urn
ur b
Ġp ed
Ġsn ack
nd a
Ġgir lfriend
Ġbul k
iz er
Ġlad y
Ġf rench
Ġcr it
Ġdist ance
c l
Ġstand s
Ġmag az
Ġst ink
Ġant i
n othing
Ġhel met
Ġbottom s
iv ity
Ġsilic one
Ġv ent
Ġhes it
Ġteach er
Ġbol ts
g ant
Ġexp and
Ġco ating
Ġfl attering
cri ption
Ġconst ant
enjoy ed
Ġcook book
Ġbu mp
Ġsho pping
Ġbit s
Ġbe ads
Ġse lection
Ġmagn ets
Ġem b
Ġxx l
Ġm esh
Ġear th
sh irt
Ġcaus es
Ġremo ving
Ġseal ed
Ġind o
Ġbri ghter
e xt
ent ic
Ġne igh
Ġchair s
Ġshould ers
Ġcool er
Ġad e
Ġflow ers
Ġsli ppers
Ġpill ows
Ġsitu ation
Ġgo lf
Ġrepet itive
Ġu pper
Ġbig gest
Ġme at
Ġpo lish
pl ug
Ġj ar
it ure
Ġbre w
Ġship ment
Ġposs ibly
Ġlo sing
Ġm art
Ġdesign s
Ġmove ment
Ġpolic y
ul a
Ġs oooo
Ġlay er
Ġcan on
Ġlid s
Ġhapp ier
Ġp al
Ġloo p
Ġl g
Ġkn ee
Ġout let
Ġman age
Ġwar ning
Ġstud ent
m uch
Ġappear ance
Ġpot ential
Ġmil k
t ook
de fin
Ġclean ed
ak ed
Ġprotect ors
Ġhear ing
dd en
Ġd ash
Ġfrequ ently
b ud
Ġcomb ination
Ġbir ds
r um
ch es
Ġv ia
Ġp ath
Ġpack ing
m ine
Ġg el
h ard
Ġg ent
ic ing
Ġzi ppers
Ġmom ents
Ġstretch y
Ġcand le
Ġconcer ned
Ġsc ary
Ġpen ny
Ġfurn iture
Ġrec ipe
Ġterri fic
Ġsu dden
Ġb rief
qu ate
Ġauth entic
Ġsim pl
Ġinsp iring
un t
Ġh arn
Ġd en
Ġscr ub
Ġsl ots
Ġgu est
Ġt ang
iv al
mb re
Ġcabin et
b l
Ġinstruct ion
Ġtrack s
ic y
Ġble w
Ġe uro
Ġmatch es
Ġaccess ories
Ġfor th
Ġton s
Ġdestroy ed
a ur
Ġw ild
Ġpo ster
every thing
n ever
Ġb a
Ġharn ess
Ġs d
Ġpo ly
Ġu mbre
e nd
Ġhim self
Ġeffect s
Ġl at
Ġnum er
Ġen ergy
Ġti res
Ġlisten ed
Ġun its
Ġopen er
Ġcr is
ic a
Ġfamil iar
Ġto wards
Ġdeg rees
Ġinit ially
Ġcompe lling
Ġt ed
Ġex tended
oth ers
Ġsung lasses
i est
ook ed
ous ly
Ġrecogn ize
v y
Ġrel ig
Ġval ve
Ġl ace
Ġl ou
Ġcan s
Ġanticip ated
Ġfl u
Ġpull s
Ġtri ps
Ġenc ou
Ġsitu ations
Ġi gn
Ġst ap
so le
j o
Ġh ous
i ans
Ġtri m
Ġc ash
Ġd ance
Ġbl ood
Ġsmell ed
it ary
Ġx box
Ġoper ate
Ġear bud
Ġanim al
Ġtradition al
Ġt in
Ġsh attered
Ġso ck
Ġterri bly
ul ation
Ġexp lo
Ġappro ach
Ġapp lied
Ġro se
Ġre ve
p es
Ġexperi enced
Ġcreat ed
d el
Ġsc an
Ġluck y
over all
k in
Ġentire ly
Ġal umin
Ġadd ress
Ġcr u
Ġreason ably
Ġtouch ing
Ġrecei ver
Ġnav y
Ġspecif ically
Ġdri ves
Ġscen e
Ġst ere
Ġj ames
Ġno isy
Ġmod els
Ġpo le
Ġo pt
defin itely
Ġ q
Ġp ant
Ġno ve
Ġo ppo
Ġstra w
Ġb at
Ġfor t
Ġme th
ct or
Ġcover age
Ġlin er
Ġhi ps
Ġe li
Ġre order
ic les
Ġrechar ge
um bs
Ġw w
Ġbu mmed
Ġcap s
Ġele gant
Ġgu ard
ext remely
Ġto ile
Ġpo ps
Ġcalend ar
Ġfold ed
Ġcar b
Ġam p
Ġcapt iv
ill a
Ġrepe ated
Ġgent le
m ay
Ġchr ome
Ġr ice
Ġvers ions
ot es
m ade
u ine
Ġwash er
Ġpattern s
e ed
Ġtim er
Ġbrilli ant
Ġaff ect
Ġvo c
Ġgener ally
Ġrep res
Ġd av
il s
Ġemb arr
Ġimp act
Ġallow ed
Ġchick en
in c
ch y
Ġadjust ment
Ġstain s
so ft
Ġsmooth ly
Ġm ap
Ġser ves
um my
im ately
es ter
Ġhum id
Ġdis g
g a
ick s
Ġm ass
Ġcontain ers
Ġsport s
Ġexerc ise
Ġnumer ous
Ġb ree
less ly
Ġo w
Ġm ild
y y
us hing
Ġgau ge
t ot
Ġfor g
Ġreturn s
Ġso les
Ġstand ing
Ġmicro phone
ch ild
Ġrelative ly
Ġor d
Ġbus y
Ġsuit able
Ġs lo
p ted
Ġv s
Ġpleas ant
Ġconcer n
ilar ious
ug gle
Ġprov o
Ġfau c
wor st
Ġd ream
Ġdis k
Ġhead phone
Ġsugg ested
ch ed
Ġdo ors
Ġp itch
Ġcover ing
Ġpencil s
Ġhe els
Ġalumin um
s im
Ġmem ories
Ġb oun
Ġpleas antly
Ġgen uine
Ġpain ful
Ġc ub
Ġimag ination
Ġb ang
Ġattach ment
Ġshap ed
Ġpan el
Ġsearch ing
Ġpro p
Ġcra ppy
Ġbag gy
Ġembarr ass
Ġdelic ate
Ġs ag
Ġte x
f r
Ġle ash
Ġt ent
Ġm p
Ġche ese
Ġsoon er
Ġpresent ed
Ġcraf ts
Ġumbre lla
or k
ast y
Ġme ets
Ġb atch
Ġeuro pe
iz ation
Ġp ics
Ġmic row
Ġb io
Ġcol our
Ġg all
Ġfan cy
Ġmil itary
Ġal right
Ġcand les
ur ity
Ġg ps
Ġplay ers
Ġcle ver
Ġter ms
Ġri g
Ġport r
l on
Ġn ames
Ġun even
Ġblur ry
ad o
Ġremind s
Ġtoile t
Ġser ve
Ġcan ce
Ġhappen ing
Ġdocum ent
Ġf lor
Ġro pe
Ġresist ant
Ġlast ing
Ġthick ness
Ġcomp an
es y
h er
Ġover ly
re l
Ġwhat so
Ġsepar ated
Ġinclud es
Ġar r
g l
Ġti ghter
Ġal ign
Ġsound ed
Ġhero ine
Ġdisco vered
o on
Ġcomp et
Ġher self
Ġpr ay
Ġapp s
Ġstr uggle
Ġout put
id a
Ġwhen ever
Ġprin ts
Ġres ource
Ġprovo king
Ġcontro ls
Ġwhatso ever
r ical
Ġtop ic
Ġflavor s
Ġti es
Ġhelp ing
o sed
Ġpain ting
x ic
Ġgr ass
ap an
Ġdiss atisfied
Ġchann els
Ġcont ents
Ġmyster ies
Ġrec ent
Ġcrack s
Ġt ack
Ġroll s
Ġdet ect
Ġhor ri
Ġfil es
Ġresp ons
Ġj es
Ġg ap
Ġj apan
Ġas king
ro id
Ġsuspense ful
Ġl em
Ġwatch es
Ġha m
in a
ap t
Ġtab s
Ġcons um
Ġclaim s
return ed
sh o
Ġg ross
Ġwood en
os es
Ġcom for
Ġansw ers
Ġsli pping
Ġy o
Ġth umb
Ġc ow
ent al
Ġmark ers
Ġenv ir
Ġholid ay
Ġpri m
Ġegg s
a i
Ġj ud
Ġgro cer
Ġact ive
Ġsc i
Ġther m
st o
Ġrep ort
h as
Ġtight ly
Ġmess ed
Ġcl amp
Ġmo b
Ġdis ney
Ġcap ac
Ġex tend
li ked
Ġcho ices
Ġnew er
r ation
Ġli king
ag ra
Ġmain tain
Ġdi ame
Ġproduct ion
Ġbr acket
Ġstr uct
a ff
Ġgoo gle
Ġuni vers
Ġsli ps
Ġhold ers
Ġthought s
Ġhi king
Ġf ile
ber ry
Ġbo lt
Ġdownlo aded
an a
Ġgrand child
Ġem p
ag on
Ġsk im
Ġn ature
Ġro cks
Ġd umb
Ġcam er
Ġtech no
Ġfol ks
Ġso fter
Ġw es
Ġp ans
Ġtri es
Ġemot ions
j unk
res hing
Ġh ilarious
Ġappreci ated
Ġmagaz ine
Ġpick s
Ġad mit
f ant
Ġhor ror
Ġph il
Ġide al
Ġfort un
Ġdef e
Ġtechn ical
th eless
Ġenvir on
ut ed
Ġand roid
Ġsh allow
Ġprodu ce
Ġlist ing
Ġsou l
Ġnow here
Ġfrustr ated
Ġps y
Ġotter box
ho ld
Ġl aces
Ġp it
Ġdiame ter
Ġwar ped
Ġsn eak
Ġsew ing
f li
Ġst ress
Ġresearch ed
Ġlabel ed
Ġl ic
Ġsurprising ly
Ġcook ies
Ġdisg ust
Ġfor ced
ist ry
Ġdrink ing
Ġrare ly
ep s
w ish
Ġtend s
Ġscar f
tern al
fant astic
Ġburn ing
Ġslee k
Ġprep ared
ten se
Ġintro du
Ġpublish ed
Ġdescri be
Ġroo my
Ġteach ing
Ġcr ooked
Ġfli ght
Ġblo cks
Ġclos ure
in ary
Ġpe pper
Ġdri vers
Ġfauc et
Ġmin s
Ġra m
Ġdeg ree
Ġrelationsh ips
Ġsn aps
Ġneed ing
Ġconnect ions
Ġsou th
Ġcompart ment
ru pt
Ġst om
Ġdeli ver
Ġsh ield
p or
Ġd ies
ar ted
ess ed
l ers
Ġsto ve
se y
Ġqu een
Ġin tense
Ġback up
unk y
Ġtechn i
Ġref reshing
Ġsp read
Ġmicrow ave
o de
Ġstur d
Ġmain ly
Ġcris p
Ġexp osed
Ġa lex
Ġv est
Ġemot ional
il ed
Ġret ail
Ġimpro ved
Ġk en
sh ip
Ġcult ure
Ġloc ation
Ġele ment
Ġun ra
Ġfa ulty
Ġmot ion
Ġsec urity
Ġro ber
Ġpost ed
und red
Ġcom edy
Ġtast y
st r
Ġconc lus
Ġm ats
Ġflo ors
Ġh undred
Ġpl ates
od es
Ġade quate
Ġfe ar
Ġfill ing
Ġ era
Ġp un
Ġcou ch
ac c
Ġro ller
Ġcomfor ter
Ġh ide
p res
Ġwr it
Ġinstall ment
Ġhe a
Ġvers at
Ġpri v
Ġchalleng ing
t a
x ious
Ġy a
Ġsh ine
Ġext ension
a el
Ġconnect ing
gg ing
Ġassemb led
ic ted
Ġlo cks
Ġd iv
Ġw rench
ach e
Ġbree ze
Ġmoun tain
Ġger man
s orry
Ġund one
Ġdet ach
Ġentertain ment
Ġst ack
Ġas h
Ġinter ior
Ġs oo
Ġmar ked
m ar
Ġmu ff
Ġlab els
Ġpe ace
Ġlaugh ed
Ġfl ower
Ġalbum s
Ġl ame
Ġless ons
Ġconnect ors
Ġinst rum
Ġtast ing
Ġli p
Ġcurtain s
Ġconf used
Ġsh ades
k ind
Ġple asure
Ġess ential
n ight
re st
Ġdist ract
Ġthink s
Ġter m
Ġju ice
Ġc age
Ġburn t
Ġdisp ens
Ġwa x
Ġdo ck
Ġstar ter
Ġcamer as
b atter
Ġh id
sh e
Ġra w
um s
su ch
Ġinvest ment
an cy
Ġch alk
Ġunus ual
ve t
am ond
Ġepis odes
Ġw iring
ho st
Ġnail s
u le
on ce
Ġw est
Ġlo ver
Ġfl ap
Ġbegin ners
Ġsurpr ises
Ġg host
o logy
Ġun ne
Ġsand al
Ġfra mes
Ġepis ode
Ġexperi ences
Ġconsist ent
Ġdanger ous
c d
Ġex ternal
Ġwall s
Ġdraw back
Ġwe ld
Ġaccept able
Ġdelight ful
Ġt ension
Ġtyp ically
Ġlevel s
Ġw ink
Ġdiffic ulty
Ġwes tern
Ġted ious
Ġintro duction
ul es
Ġscratch y
Ġresol ution
Ġpr ices
Ġp ear
mm ing
Ġdro pping
Ġstre et
Ġdi amond
Ġche esy
r ound
Ġbu ff
Ġgl itter
Ġan ge
if ier
Ġsol ar
g ain
Ġref ill
Ġpro gress
Ġmess y
o ff
Ġinc om
Ġgri ps
c orn
Ġb in
Ġdec al
Ġinte ll
Ġun plug
Ġsmo ke
id ence
ak s
Ġr isk
Ġte le
u able
Ġz omb
Ġswitch ed
s ure
Ġindic ated
Ġsuper b
Ġvis ual
Ġsco pe
Ġbra in
Ġpet ite
Ġr out
Ġgr own
Ġcal f
Ġprefer red
Ġpe nd
Ġdish es
Ġenviron ment
Ġh em
Ġbe lly
Ġjes us
Ġqu ar
Ġser ved
Ġs aving
Ġpurp oses
Ġg ain
Ġcl iff
Ġcapac ity
Ġchew ed
Ġbud get
Ġunra vel
b ad
Ġhe ater
graph y
tw o
v as
Ġbe ll
Ġoccas ionally
Ġrandom ly
Ġchann el
Ġm i
Ġdeep er
Ġchall en
Ġdo zen
Ġkn ees
Ġgener ic
Ġmem bers
Ġtrail er
t ried
Ġw ip
Ġf if
Ġfinish ing
c s
g ave
y er
Ġkind s
s l
Ġc in
Ġsh a
Ġal ive
Ġbar gain
Ġab use
Ġcharg ers
v o
Ġst amp
Ġstrong ly
Ġly ric
Ġroll ed
Ġhor se
Ġvis it
Ġinsight ful
Ġbr it
Ġmatch ing
Ġfor d
Ġbu ds
at able
Ġsqu eak
y es
Ġclass y
Ġfr idge
i en
Ġco re
Ġstom ach
Ġbu gs
Ġoff ic
Ġv amp
aw ful
Ġadjust ed
Ġadv ise
ire s
Ġgramm ar
Ġlem on
Ġev il
c a
Ġgreat ly
am ps
Ġaccident ally
Ġunder wear
b ow
Ġhr s
Ġo pp
Ġcomp on
Ġreview er
Ġex ec
Ġj uly
Ġcop ies
Ġstri ps
Ġde le
Ġbr as
Ġdv ds
Ġdrink s
Ġabsor b
zz les
Ġv ict
xt ure
Ġsur round
Ġgrocer y
b re
Ġwill ing
may be
Ġcra ft
Ġdav id
Ġwrit ers
ain t
Ġhar ry
Ġsoc ket
Ġcond itions
Ġbe ats
Ġo ct
Ġtyp os
Ġsk ills
im ate
Ġbe e
Ġcryst al
Ġview ing
Ġco zy
ag ue
Ġdes ired
ot a
Ġbow ls
ar a
Ġman aged
Ġadvent ures
Ġfold s
Ġrele ased
l ots
Ġexc ess
ter ed
Ġyr s
Ġle e
Ġfood s
r as
Ġregard ing
Ġflo ps
Ġlack s
art s
Ġas ide
Ġele ments
d ri
Ġjust ice
Ġpe an
Ġinter m
Ġje ep
Ġchallen ge
Ġa ug
Ġsubst ance
Ġlink s
de cent
Ġs av
Ġbe aut
Ġnet work
c omend
Ġh oney
Ġeven ing
Ġsquee ze
Ġup side
Ġfail s
Ġdepress ing
c ket
Ġth umbs
ific ation
Ġupd ated
Ġho nda
Ġrefund ed
Ġlad ies
at ically
Ġany body
Ġinter nal
ri er
Ġrec comend
Ġst ale
Ġfly ing
Ġro lling
ie f
Ġs our
in o
us es
il ities
Ġdisc uss
Ġmotor cy
ome ter
Ġop ens
r al
air s
Ġse ctions
Ġm as
Ġadvert is
um es
Ġi i
Ġun st
Ġcontin ued
et ime
Ġinst antly
Ġsty les
look ed
Ġc iv
Ġprotect ing
Ġsam ple
s ound
Ġcomp re
Ġlo aded
Ġexp ress
Ġdress es
Ġunre al
Ġshel ves
install ed
Ġappro x
Ġmedi a
Ġregard less
Ġhous ing
Ġearbud s
Ġgrind er
Ġem erg
Ġmar ch
y al
ap ers
fun ction
Ġlo vers
Ġdin ner
Ġlock ing
Ġsubst ant
Ġmot iv
wh y
Ġres id
Ġseason s
Ġw are
Ġexp ired
Ġtext book
Ġsk ill
Ġsn ag
Ġti l
Ġad apt
Ġmeasure d
sh ield
Ġstere o
z zy
ab les
Ġli e
Ġrefer ences
Ġti ed
Ġreason s
Ġr ow
Ġsm ile
Ġcli m
am ed
Ġsec ret
Ġshoot ing
Ġv ivid
Ġhalf way
Ġm ath
Ġdec ide
s ize
Ġpolit ical
Ġb aking
Ġpack ages
Ġli l
Ġcor n
Ġloc ally
sto pped
Ġcommun ic
Ġcan vas
nd ay
Ġtal ent
r ated
Ġy ork
cheap ly
Ġvol t
o h
Ġde ll
Ġper man
Ġintrig ue
Ġbeaut y
Ġthigh s
c ra
Ġh anger
Ġtechno logy
io s
Ġadv anced
ll ers
Ġr y
Ġnew s
Ġdece iving
h ouse
l asted
v ant
Ġrequ ested
am a
Ġrust ed
Ġpurch ases
Ġhang s
Ġstri pped
k ids
Ġn ik
Ġc ds
ard s
Ġdepend ing
Ġimpress ion
Ġy arn
Ġse ven
Ġpo pping
Ġcle ans
Ġpad ded
Ġb er
Ġbit ter
Ġgam ing
Ġlyric s
Ġcustom ers
Ġm ile
Ġsu mm
Ġt our
Ġs ided
re ts
Ġsc iss
Ġlo s
Ġstay ing
Ġhur ts
Ġfeed er
Ġrepe at
Ġen th
Ġinsight s
Ġso ci
Ġve get
Ġren t
Ġred u
Ġstep h
Ġtw isted
Ġrequ est
Ġlock ed
Ġlaugh ing
Ġdisc ount
Ġbl ank
Ġwind shield
Ġr ushed
Ġfr ank
Ġsol ve
Ġg ig
Ġpick y
Ġadvertis ement
d a
Ġre nder
ath ers
Ġdefin ately
Ġregular ly
ore s
poor ly
Ġswim ming
Ġye ah
Ġconsist ently
Ġsa uce
ri l
Ġorgan ic
Ġconcept s
Ġind ust
Ġvis ion
Ġbl ah
Ġfil ms
Ġpop ular
Ġgrandchild ren
ist s
Ġpop corn
Ġmoist ure
Ġtall er
Ġm ur
Ġsu bs
Ġpoly ester
ort un
Ġtri pod
Ġb attle
Ġe ight
Ġind eed
Ġlin ed
Ġshr unk
Ġw ake
Ġinst ant
Ġlif etime
Ġbind ing
Ġ vert
Ġviol ence
n is
Ġconnect s
Ġbas is
Ġimpress ive
Ġjun e
o ons
Ġwas ting
Ġsw ing
i ers
Ġto ner
Ġri pping
light s
Ġp ig
Ġh ats
Ġtag s
Ġtoss ed
Ġsneak ers
b es
wh el
Ġra p
Ġchild hood
Ġfish ing
Ġtrick y
Ġbl ind
b ag
Ġdo ctor
Ġfunction ality
Ġto ast
Ġgi ant
Ġpick ing
Ġti le
Ġrub bed
v i
Ġun lock
Ġmich ael
Ġu gh
Ġgener ation
on ge
Ġshe er
con om
Ġdece mber
Ġdry ing
Ġbro ad
Ġsol ved
Ġcontain ed
Ġprodu ced
Ġbr others
Ġtrans p
Ġconsider ed
Ġpl ots
Ġversat ile
ong s
Ġcomput ers
Ġres pect
al ed
Ġpre gn
Ġl int
Ġconclus ion
Ġjour nal
e in
wor d
Ġass ume
Ġsoc ial
Ġrel ated
Ġkill ed
m any
Ġdis app
Ġmob ile
Ġd ented
it ation
Ġsatisf ying
Ġr ides
Ġdr ug
Ġpush ed
Ġmatch ed
Ġindo or
Ġsepar ately
Ġap ril
Ġpass ion
Ġlas er
as hing
st on
Ġlau nd
Ġopp ortun
Ġpower ed
Ġcompar ison
Ġcrack ing
Ġtouch ed
Ġexplain ed
Ġfor got
en er
Ġbe an
Ġexplan ation
Ġneigh bor
Ġin se
Ġclass room
Ġtun e
Ġamaz ed
Ġx mas
Ġdisc s
Ġbra ke
Ġentertain ed
et t
Ġcom bo
Ġhi p
Ġtal ented
Ġsa ves
Ġcut ter
Ġshock ed
Ġref urb
pt ical
Ġsk y
Ġp ix
Ġat e
Ġb b
Ġe conom
Ġinser ts
Ġny lon
Ġse ed
Ġra z
g ger
Ġst un
Ġexerc ises
Ġpl ush
Ġflor ida
Ġglo ss
Ġlat est
Ġcom ic
pt ive
Ġbrush es
Ġnight s
Ġhe y
Ġme al
Ġsudden ly
Ġfigure s
Ġob ject
c re
iz z
Ġsuper ior
Ġelect rical
Ġmed ical
Ġwo bb
Ġbecom ing
Ġinit ial
acc ur
Ġn asty
Ġbust ed
Ġmist akes
Ġread able
Ġshort ly
Ġesc ape
Ġspan ish
Ġinter f
Ġnarr ative
fo ld
Ġt uck
Ġhe ating
ate g
Ġtrans form
Ġc a
h igh
Ġwork manship
Ġqu ant
c ast
Ġam ong
Ġkill er
Ġsc am
Ġs an
Ġfit bit
Ġha w
st ick
Ġsch ed
Ġnote book
Ġse ats
Ġri bb
Ġext reme
Ġgold en
h u
Ġor nam
Ġfeel ings
Ġremind ed
Ġs en
i us
r up
Ġa ch
l en
Ġchem istry
Ġwal ked
Ġsh ake
n el
Ġha mmer
Ġdisgust ing
Ġf ade
qu es
pl ic
Ġsing ing
b oth
Ġdeal ing
Ġcheck ing
Ġsus pect
Ġold s
Ġbum per
Ġnot ed
Ġevery time
com plete
Ġtrans m
Ġpresent ation
Ġri ve
Ġsc uff
Ġve t
Ġsuggest ions
Ġstuff ed
0 0
Ġreplacement s
Ġexplain s
mo s
Ġperform ed
Ġhand ling
Ġwarm er
Ġwar s
Ġcri me
Ġafter no
d om
Ġank les
Ġcre ep
Ġunne cessary
Ġmotorcy cle
h ol
Ġit chy
l ies
Ġbab ies
Ġcaptiv ating
Ġlaund ry
Ġsturd ier
p a
x us
Ġbu zz
Ġwar ned
Ġl az
v is
Ġch uck
Ġgood ness
Ġaug ust
Ġsciss ors
Ġpeel ed
ul ated
Ġsyn c
Ġl ugg
ll o
Ġin put
Ġno pe
Ġall erg
y le
Ġyou th
Ġbright ness
Ġmem ber
w atch
Ġfro zen
batter y
Ġcr ushed
Ġsc re
Ġser ving
Ġsl ick
Ġhing e
Ġsign s
Ġw ipe
Ġhid den
Ġw i
Ġd ent
Ġsw ive
Ġmu y
Ġcont r
Ġdecor ation
Ġro le
velo pe
Ġoutdo ors
Ġbo nd
Ġtrans port
Ġwrink les
Ġgri pping
n ow
Ġnav ig
Ġhe ck
Ġstandard s
Ġident ical
Ġse a
Ġfamil ies
Ġlead s
Ġfe e
Ġbr ass
Ġexc it
Ġconvers ation
Ġelectron ic
Ġassum ed
Ġapart ment
Ġrug ged
Ġc ause
Ġcy cle
Ġmo s
Ġst orm
Ġgall on
Ġk itty
Ġsp out
Ġneed less
Ġtr oub
Ġsou p
io cre
Ġstain ed
at ives
on y
Ġeven ly
Ġadjust ing
Ġpu zzles
d ate
Ġmar ke
Ġcreat ing
Ġa th
Ġdisc over
Ġafterno on
w aste
un s
Ġclar ity
Ġwal ks
Ġke t
Ġbe ans
Ġle an
Ġreg ister
Ġunivers al
Ġp il
st arted
ons ist
Ġsk ipped
Ġpot ato
Ġl u
Ġnot ch
Ġbl own
Ġdra gged
Ġa qu
or a
Ġto aster
Ġquar ter
in er
az z
Ġed itor
Ġtra p
Ġhorri bly
Ġbl ink
Ġwrink led
Ġworth y
Ġpol ar
Ġrelax ing
at ical
Ġaccess ory
Ġsurv ive
Ġg um
om a
Ġplan e
Ġfu el
Ġsp ect
Ġcent ury
Ġfeed back
Ġjan uary
ad a
ent ially
Ġdis apointed
Ġsa ver
Ġra ised
eri or
re te
Ġqu al
Ġtear ing
Ġval uable
com ing
s ent
ri ger
Ġri m
Ġemerg ency
Ġsh ots
Ġresid ue
Ġha z
Ġclo sing
sc reen
Ġtop ics
su it
Ġm c
al ian
Ġble ed
Ġdis like
f ill
Ġco con
ang ed
ant a
Ġfl ush
Ġgl are
Ġform ula
re g
Ġart work
i ge
Ġref riger
Ġdraw ers
ar ant
Ġto ward
Ġse pt
Ġbas ics
Ġactiv ities
Ġnik on
Ġco pper
Ġintell ig
umb ers
Ġen velope
Ġdr um
Ġsubstant ial
Ġc uff
Ġfight ing
b et
Ġbr ittle
Ġaspect s
Ġexcit ement
Ġp ets
Ġro ot
Ġincre ase
Ġslo ppy
Ġdescri ptive
i ently
Ġlo ses
Ġstruct ure
Ġw at
Ġb ib
i ven
Ġthank fully
Ġsc ared
Ġcook ie
st ood
Ġb one
Ġd arn
Ġed ited
co ver
Ġm aps
Ġst ations
Ġgu arant
Ġso re
oun ts
Ġgre ase
an o
k able
Ġten nis
Ġske ptical
Ġspirit ual
Ġl ord
Ġal ph
Ġthe ory
th y
Ġinc on
Ġlugg age
Ġst ead
Ġsurf aces
l ar
Ġw ii
or ds
ll e
Ġle ading
erc ial
Ġm ood
Ġown er
Ġspe lling
Ġphys ical
c r
Ġover night
Ġexist ing
k a
Ġar c
Ġloos en
g ie
Ġint act
Ġcocon ut
Ġm b
Ġnor th
Ġu k
Ġla wn
Ġsmall est
Ġboard s
Ġmeth od
Ġneed le
Ġelectron ics
Ġbene fit
Ġw it
Ġun fortun
Ġbar b
Ġsqu ir
Ġd ated
Ġis land
Ġinter n
Ġjo e
Ġeng aged
Ġcon ver
Ġqu ir
Ġcar rier
Ġw on
Ġfind s
Ġch amp
Ġteen age
ther n
Ġv irt
Ġdep ot
Ġh ill
ol a
Ġeduc ational
Ġp ushing
it ors
Ġrecip ient
Ġfu zzy
Ġdraw ing
Ġk not
Ġsp ar
Ġinf erior
d ro
Ġro be
Ġin accur
Ġscratch ing
Ġhang ers
Ġfi ber
Ġinspir ational
Ġeli min
Ġlic ense
Ġmus ical
Ġover s
if ying
Ġpress ed
Ġsignific ant
d ated
Ġdeal er
Ġce iling
Ġme as
Ġass ist
Ġdispens er
Ġo s
ing ly
Ġstock ing
Ġv ill
Ġsc oop
r ate
Ġsm ud
Ġrefurb ished
Ġshar ing
Ġunreal istic
Ġd ual
Ġdep art
Ġprof ile
Ġfr ay
Ġs ket
Ġcr ash
Ġcompart ments
Ġd ed
Ġhun ting
Ġco s
Ġinter act
Ġfair y
Ġb ank
Ġc ents
Ġbl ess
Ġcheap est
Ġflo at
Ġw is
Ġc ried
Ġh ence
Ġn in
Ġd om
Ġmed iocre
oun tain
am ic
Ġte ens
Ġjapan ese
Ġr ac
Ġcreat es
Ġf av
Ġc ass
Ġpract ically
Ġfour th
Ġdist ur
Ġsever e
Ġbor der
Ġben ch
Ġaccom mo
e aker
Ġw and
Ġz oom
Ġsignific antly
Ġble nder
Ġg ad
Ġtub es
Ġhe ats
Ġpro s
Ġr v
Ġtechni ques
Ġm ary
Ġdeli vers
Ġwin ner
Ġsupp le
Ġwh ist
Ġab rupt
Ġopportun ity
Ġbo ld
Ġpin ch
Ġtor so
Ġno zzle
Ġdy e
Ġw ool
Ġpl at
Ġstore d
Ġoppo s
Ġflaw lessly
h ensive
pr int
Ġfail ure
Ġincon ven
Ġw att
Ġlou der
Ġste al
Ġback wards
Ġtri gger
Ġpend ant
Ġf ountain
Ġbl isters
Ġbre ast
Ġocc ur
Ġd uck
Ġult ra
w ater
an c
Ġnur sing
f all
Ġreview ed
tr ack
Ġdrag on
Ġcook er
Ġrecommend ation
Ġpat io
Ġst ro
Ġwobb ly
Ġd re
Ġbrit ish
Ġattempt s
Ġan xious
Ġlaz y
k ins
Ġbend s
Ġch er
am ent
Ġb ound
Ġsm ashed
Ġinc onsist
Ġup right
et te
Ġun fold
Ġdisplay ed
h and
h el
in ated
Ġj ars
be ll
Ġour s
Ġany ways
Ġhub by
Ġtex as
Ġsoci ety
b ig
Ġcup c
Ġcir cle
aw s
Ġperform s
Ġmed ic
Ġamazing ly
Ġst em
Ġlet ting
Ġpaper back
Ġautom atically
Ġk ay
Ġbeh av
Ġr ace
Ġhigh est
ott en
bb y
Ġliter ature
Ġt read
Ġscre ens
Ġgo gg
Ġscrew dri
Ġmon ster
Ġenc lo
Ġconc ise
Ġmu d
Ġoper ation
us ion
Ġpar a
b orn
Ġd ud
Ġgr ate
Ġloo ps
Ġallow ing
Ġla id
Ġli bro
Ġevery body
Ġbal anced
Ġexception al
Ġsc ient
Ġkn o
Ġweight s
Ġtransl ation
Ġtw in
Ġw ick
Ġdisp os
Ġb ite
Ġb ark
Ġmark er
Ġne xus
ple ase
Ġremo vable
Ġar th
Ġfle e
Ġridiculous ly
Ġrig id
m aterial
ch ool
sh ould
Ġplan ned
Ġapplic ations
Ġl eds
th ank
st ill
ont in
Ġsli pped
Ġhead ache
l if
v ision
Ġan ch
o b
Ġcare er
Ġc aut
Ġp up
ing er
Ġw itch
Ġthem ed
Ġconc rete
Ġtre es
Ġholid ays
Ġoccas ional
Ġcub es
o ber
p icture
Ġclose ly
Ġrub bing
ri age
Ġfo g
Ġoct ober
Ġbu en
Ġsha ft
Ġcraf ted
ul ate
Ġtight s
Ġo un
Ġch i
Ġret ract
Ġgramm atical
ous y
pro s
Ġri f
Ġpol ice
ne eded
cle ar
Ġcl ut
Ġpres ents
Ġeff icient
Ġcomm ercial
Ġzomb ie
Ġt act
Ġback s
in ting
Ġmanufactur ing
Ġchemical s
.. .
Ġf et
Ġp ots
Ġp ian
Ġrelig ious
Ġw ound
Ġover whel
v ity
Ġdistract ing
Ġstud io
Ġaccom pl
Ġfluff y
Ġmeas uring
Ġdesk top
sol id
Ġra bb
Ġx s
Ġcur ious
Ġpot ter
ro ll
Ġcoll ap
Ġclass es
it ude
l a
ear s
ish am
pl ace
Ġgr ace
Ġsell ers
Ġencou ra
Ġd ot
Ġwire d
Ġcompress ion
Ġapply ing
Ġhood ie
Ġbe er
Ġfoot ball
Ġn ine
Ġsupport ive
Ġp apers
Ġbr ackets
Ġfortun ately
Ġrecei pt
Ġav id
Ġpoint less
Ġf er
Ġover he
Ġrest aur
Ġlay ing
out s
Ġinterm itt
Ġpost age
Ġbase ball
Ġrepres ent
Ġm elt
Ġpa ul
Ġket tle
m is
Ġrec y
Ġexce eded
Ġnone theless
Ġp ipe
Ġd ump
fer ence
b oy
Ġre in
Ġkick stand
Ġvar i
Ġnove mber
ang le
Ġprot agon
Ġattem pted
Ġbu g
Ġh itting
lo y
Ġjo bs
Ġt ax
Ġsal es
Ġch ic
Ġen h
Ġst ool
Ġover view
Ġth om
qu ick
Ġbl and
Ġdet ective
Ġhea ven
h aving
ac cept
Ġad m
Ġcal if
ers on
Ġcompar able
g ets
o ld
Ġmoun ts
c les
Ġpre t
Ġmin t
Ġtoy ota
Ġcan cer
Ġche ep
Ġlack ed
Ġartist s
Ġj im
Ġdifferent ly
Ġteen ager
li m
Ġactiv ity
Ġcar ried
Ġfact or
Ġg em
Ġenc oun
Ġhead band
Ġrecogn ized
Ġang ry
Ġvan illa
Ġh itch
Ġembarrass ed
Ġp ist
gar bage
u ation
Ġstuff ing
Ġdoll s
Ġcu z
Ġribb on
Ġs ar
Ġinter view
Ġstrugg les
Ġmat te
Ġsnug ly
ur ig
Ġper cent
Ġprec ise
Ġoppos ite
Ġfle as
un ks
Ġfl av
Ġsound track
Ġcomp ass
Ġret ain
v ia
al ways
Ġshif t
Ġdecor ative
Ġl ite
Ġirrit ating
Ġc ous
Ġadjust ments
Ġund ers
ak ers
v a
Ġphotograph y
le ep
amp oo
g un
Ġl an
Ġdeser ve
Ġas leep
Ġr ere
int age
Ġww ii
Ġflee ce
Ġcir cum
Ġhy pe
Ġach ie
m ond
Ġpre v
Ġlay ers
Ġsoo o
Ġcam per
f a
Ġsh ampoo
Ġprep are
Ġtap ed
Ġf ac
Ġfr ayed
Ġcompli ment
Ġpean ut
Ġcall ing
p ing
Ġspe eds
Ġhand led
Ġbor row
sim ple
a ired
Ġne cess
Ġwho se
Ġsubst it
ed e
Ġeng land
Ġcru ise
Ġstun ning
Ġ ven
Ġin no
Ġun accept
Ġgr isham
Ġcal ves
Ġflaw s
Ġsk ipping
Ġhumor ous
Ġcalif orn
Ġpo et
sho es
v in
Ġd c
Ġfree ze
Ġround ed
Ġspo on
pl aced
Ġconcer t
Ġdeser ves
Ġsp ice
Ġpo d
so ph
a fe
Ġc asing
Ġso ph
Ġun w
Ġprom ise
Ġrele vant
small er
Ġtherm ometer
s er
Ġdev ot
Ġha ll
Ġse mi
Ġswitch ing
Ġspo il
Ġb am
Ġkill ing
ate ur
ab e
Ġst age
o ir
if orm
Ġtab les
Ġleg o
Ġimag ined
Ġbuy ers
Ġhor n
Ġaf ric
Ġlam ps
Ġh ers
Ġcomm and
agra ph
or row
Ġpal m
fr om
umbers ome
Ġd ar
Ġun iform
b al
u nder
Ġpar agraph
a id
Ġhor iz
Ġgar min
del i
Ġout lets
Ġany time
Ġv intage
Ġfreez er
Ġcu be
Ġjump ing
Ġke urig
c ool
Ġdefin ite
Ġquick er
Ġcer amic
Ġtyp ing
Ġad apters
Ġsl ower
tot ally
Ġme xic
r uns
Ġmo on
Ġref used
Ġpsy cho
pres so
Ġciv il
Ġev ol
Ġar g
Ġbor n
ul ator
Ġsupport s
Ġlim it
Ġinaccur ate
Ġcaliforn ia
Ġman ually
Ġsupp lier
Ġbend ing
Ġinsp ired
Ġunfortun ate
th etic
Ġgo ver
Ġdec ision
Ġgun s
Ġath let
Ġunaccept able
Ġd d
Ġa id
qu it
Ġresist ance
Ġan aly
Ġs anta
Ġbar rel
Ġsun light
it a
Ġde b
w ar
Ġconf ig
Ġmanufact ured
s ad
Ġs s
ers hip
Ġcont em
Ġslight est
Ġgas ket
Ġs isters
Ġcomple ted
Ġfl ies
Ġstead y
Ġtong ue
Ġpatter son
on est
Ġmicro soft
Ġemot ion
Ġtransp arent
Ġswive l
Ġl ag
Ġdra m
m akes
Ġc umbersome
Ġve gg
Ġsub tle
a pping
Ġbu nd
act ory
ac le
Ġcompan ies
Ġgogg les
Ġwe l
Ġsh uts
Ġpa le
Ġd s
Ġsh ad
h h
Ġsuccess ful
Ġpan els
se c
Ġquant ity
st ory
Ġperio ds
Ġf ond
Ġpr oud
Ġn u
Ġno body
Ġbother ed
Ġtroub les
Ġw il
Ġs in
Ġsur ger
Ġj umps
il ation
Ġworkout s
Ġrein for
d iff
Ġfool ed
Ġcompre hensive
Ġball oons
Ġmess ages
Ġam ateur
Ġtal es
Ġe ast
ch ain
Ġsu nday
Ġro ast
Ġexplan ations
Ġpa ired
se em
Ġblow ing
Ġbel ts
Ġp izz
Ġe book
Ġn ap
Ġcenter ed
Ġoccas ion
Ġencou rage
Ġlike able
Ġpre mi
Ġsell s
Ġfi xture
Ġrender ing
om en
Ġres c
Ġcompon ents
Ġrefriger ator
Ġp arent
Ġle af
Ġsweat shirt
Ġcl ich
be c
Ġclaim ed
Ġhing es
Ġj azz
co hol
Ġd ying
al og
Ġchar ming
Ġm ush
Ġsm ith
Ġb ay
Ġreach er
log ical
Ġsh ared
Ġgrand kids
Ġtest ing
Ġhesit ate
d own
p y
Ġa x
Ġgover n
Ġb ones
Ġlaugh s
Ġw itty
Ġli kable
Ġsent ence
Ġmar riage
Ġtable ts
b a
Ġout dated
Ġprin cess
be ware
Ġtreat ment
Ġsh ep
ive ly
Ġte as
Ġsure ly
Ġtang led
Ġm ower
Ġpu pp
Ġdistur bing
Ġp ile
Ġear phones
Ġfunction ing
Ġquir ky
Ġl en
Ġre el
Ġbr ick
Ġred uce
Ġcook ed
fin ally
Ġc m
Ġl um
Ġbl ast
Ġcr unch
Ġfill er
Ġemail ed
Ġpian o
jo inted
Ġadv ance
Ġcarb on
orm al
Ġal cohol
Ġappe al
Ġsharpen er
Ġinspir ation
Ġfold ing
Ġt ort
Ġbas ement
Ġstretch es
Ġther ap
bet ter
Ġqu il
Ġen light
Ġmin us
Ġdepart ment
Ġrun ner
Ġdri es
Ġrub s
Ġtele vision
Ġvamp ire
Ġbe ige
Ġl cd
Ġgr oo
br uary
Ġhur ry
Ġult imately
Ġd ots
Ġre e
Ġchew ing
Ġexp ert
Ġstory te
Ġpor ch
Ġfe bruary
Ġprot ein
Ġmatter s
Ġbu cket
Ġkn it
l ines
Ġf ont
Ġp oo
Ġj ul
o soph
ch ers
ood le
Ġaw a
Ġtouch es
Ġr ise
Ġexp os
Ġcrafts manship
Ġgr an
Ġtre asure
Ġstink s
f ull
so les
Ġgrow th
Ġtack y
Ġsu ited
ick y
gg y
Ġphil osoph
Ġbo se
Ġattach es
Ġout come
Ġcollect or
Ġpar an
Ġident ify
Ġjud ge
t it
Ġo l
at ors
Ġexpect ation
and a
Ġcl unky
Ġins pect
Ġsc ott
Ġh an
Ġlar gest
Ġsing er
Ġguest s
ic er
Ġin tend
Ġpa j
Ġplac ing
Ġdisc ontin
Ġjump ed
Ġt ro
Ġbreak fast
m are
n at
Ġworth while
Ġfoc used
Ġinser ted
sc rew
be en
Ġgu id
Ġearr ing
Ġhar sh
Ġri ps
Ġter min
Ġent ry
Ġloc ations
Ġf acing
Ġre de
Ġwra pping
Ġdirect ed
Ġcer t
Ġbr on
s ince
Ġn ons
Ġr in
Ġbind er
n ie
Ġspr ink
Ġdelight ed
f i
Ġwashing s
Ġord ers
Ġcreep y
Ġc it
Ġc ere
Ġcal c
ld er
Ġsound ing
Ġsupp lies
Ġwood s
Ġsystem s
Ġconv in
Ġt aught
Ġw ings
Ġcool ing
Ġburn s
Ġappe aling
Ġpremi um
s is
Ġus ers
Ġconf irm
Ġsearch ed
Ġr oof
Ġr ules
ear ing
Ġext ras
Ġsurger y
Ġwe ap
Ġcar ries
Ġtighten ed
Ġincom plete
Ġm ice
Ġexp lor
Ġru in
Ġunst able
Ġt arn
Ġli ber
Ġse als
Ġdef l
Ġpost s
tot al
Ġrespons ive
m ark
Ġres ul
Ġow ning
Ġho lly
Ġv ary
Ġacc ent
umb led
Ġlif ting
Ġmoder ate
Ġfreez ing
Ġaccur ately
cra ft
Ġn ike
Ġcur ve
Ġcro cs
Ġletter ing
Ġj en
Ġst er
fli x
as sem
Ġstor ing
Ġgen ius
Ġspray ed
Ġg aps
Ġdis jointed
ind er
Ġneed les
Ġbelie f
Ġnight mare
Ġh int
Ġmer ch
Ġraz or
Ġr att
Ġspr ings
Ġnet flix
b oo
Ġproject or
b ul
Ġt ick
ut en
Ġj ane
ot ic
Ġmix ing
Ġcapt ure
Ġsurv ived
Ġinstrum ent
Ġvert ical
p ical
Ġh oo
Ġmet all
Ġcli mb
Ġer ase
Ġdy nam
Ġtr unk
Ġdocument ary
Ġcr ate
Ġrober t
Ġcl amps
Ġoccas ions
ke eps
Ġun a
ious ly
Ġremain s
Ġcon sole
Ġswitch es
Ġinte gr
Ġc ad
Ġch ipping
Ġsp aces
Ġintrig ued
Ġcommun ity
Ġbo b
Ġimag in
Ġto ler
Ġpolit ics
Ġup lif
Ġpo les
Ġfast en
Ġsil k
Ġconven ience
Ġscrewdri ver
i el
Ġr at
ie ces
Ġtw enty
Ġtre mend
Ġovers ized
Ġout s
Ġapprox imately
Ġart ific
Ġperman ent
Ġd uct
ir ation
Ġqu ilt
Ġwarm th
Ġintrodu ced
Ġsc ore
k n
Ġhand ed
Ġra il
Ġoriginal s
on a
Ġgl itch
Ġmajor ity
ok ay
Ġpun ct
Ġsurv ival
Ġord inary
Ġbo ss
Ġrecord ed
Ġhoriz ont
Ġstat ement
Ġspec s
Ġm all
t able
wor th
se qu
ur dy
Ġbl ows
Ġcost co
Ġcatch ing
s ame
ou l
ut ions
Ġar my
Ġjam med
Ġdefe ats
Ġrif le
Ġph r
Ġbehav ior
Ġme als
Ġsome body
ps on
Ġbi kes
disappoin ting
Ġsomet ime
f ound
Ġp am
Ġpre f
Ġbath ing
Ġcr ay
Ġsuff icient
l ent
Ġco le
Ġed it
Ġd ang
Ġind ex
Ġmarke ting
Ġt iss
d ge
ch ing
Ġsp ac
Ġjer sey
Ġc rew
Ġsl id
Ġbreath able
Ġaccommo date
Ġhapp ily
Ġfra ction
Ġhumid ity
Ġit alian
Ġlay out
Ġbring ing
Ġreg ion
Ġdu plic
Ġs ac
Ġli es
Ġcr ow
Ġbrace lets
Ġr uss
Ġprotagon ist
re ls
Ġvirt ually
o f
Ġst rand
Ġperson ality
Ġaccur acy
Ġdiscuss ion
Ġjo int
Ġc ig
te en
Ġwis dom
Ġrem ark
Ġrh y
in est
Ġrel ief
Ġcal ib
Ġfreez es
Ġri ver
Ġhigh light
Ġthought ful
Ġchalleng es
Ġs ess
Ġattach ments
Ġplat form
Ġpl um
Ġthe ater
Ġfl our
Ġautom atic
Ġho sp
Ġmill ion
Ġa ustr
Ġdraw ings
Ġmar ried
Ġveh icles
love ly
Ġdan cing
Ġrap id
iven ess
Ġdeal s
Ġpro se
Ġsupp orted
Ġequ al
Ġcomb ined
Ġtun es
Ġindust ry
p u
cept ive
Ġtom orrow
Ġge orge
Ġa ux
in ct
Ġl ousy
Ġsent ences
Ġje an
Ġoffic ial
g u
Ġweigh s
Ġf ading
Ġt ut
Ġconf idence
Ġhon or
Ġinfl ated
Ġarr ange
Ġcou rage
Ġco ck
Ġal mond
Ġact ed
Ġra iny
Ġp i
Ġd ice
Ġste ering
Ġdes ire
r ist
Ġtr ade
Ġwaist band
Ġep ic
Ġh ates
us i
Ġprov iding
Ġeng age
Ġoil s
ha ust
Ġobs essed
Ġrev ol
Ġartific ial
Ġd ough
Ġspe aking
Ġmax im
Ġdeter m
u ps
Ġi v
Ġkeep er
Ġcr ank
Ġathlet ic
f ab
Ġwarm ing
Ġportr ay
Ġinterf ace
Ġf m
ri b
Ġsil ent
Ġsou thern
g ic
Ġt int
ou red
Ġsat ur
Ġenth usi
Ġthom as
Ġgovern ment
Ġpl iers
Ġtal ks
Ġdist orted
Ġaud ience
Ġdo se
st urdy
em ber
Ġmu gs
ot ing
Ġdiss appoin
Ġgl uten
ason ic
Ġteach es
Ġwo ven
Ġe b
Ġchr on
Ġillustr ated
Ġadh ere
Ġmix er
Ġsept ember
Ġmake up
Ġess entially
Ġrep aired
g ers
Ġb oom
Ġz e
Ġsecure d
Ġremind er
Ġresol ved
Ġbo d
Ġdep icted
Ġdist ort
Ġtodd lers
Ġhaz ard
Ġas us
Ġconsist ency
Ġpl ans
Ġfar m
Ġshap es
Ġmon o
Ġbr idge
Ġwrist s
Ġal to
do g
Ġpast a
Ġex haust
ne w
Ġpizz a
Ġflu id
oo per
Ġk ong
Ġreach ed
Ġroo ms
Ġrh inest
Ġparan ormal
Ġa a
ple as
Ġaccess ible
Ġrede em
Ġb att
Ġf ul
Ġf aces
Ġv ir
Ġapp li
Ġpat ience
s ave
Ġno ises
Ġle ver
1 0
Ġem bro
ur a
Ġsc ot
Ġmetall ic
Ġso lo
Ġpe ll
Ġpregn ant
Ġe c
Ġdetach ed
Ġe ager
Ġact ions
l ict
Ġsh akes
Ġbl ues
Ġact or
w ich
Ġorgan izer
ar ies
Ġm ent
Ġche f
Ġmar vel
th an
Ġjo kes
Ġeng ross
bor ing
Ġcl oud
Ġbr ist
Ġorgan ize
Ġknock off
Ġbr an
Ġconf ident
Ġconf lict
Ġboo st
Ġwor dy
Ġplac ement
Ġdraw s
Ġsquee z
Ġmal function
Ġboun ce
Ġe cho
Ġped al
Ġh ors
lo ad
ug s
Ġadvert ise
Ġchain s
Ġstrugg ling
Ġn erv
ack s
Ġimport antly
Ġnerv ous
u a
com p
Ġdele ted
Ġpoet ry
o pen
Ġis h
Ġmy th
Ġlow est
Ġfra gr
Ġfashion ed
l ow
Ġl ake
Ġcapt ured
c ling
Ġin j
Ġsupport ing
oo ms
Ġoper ating
Ġland sc
Ġf aint
Ġp ra
ous and
Ġpart ially
bu y
Ġneigh b
Ġp ier
Ġbreak er
Ġadv ant
Ġbum ps
h onest
Ġf ed
Ġro ds
po int
Ġer as
iss ion
Ġas ian
Ġloose ly
Ġembro ider
Ġwh om
Ġtom ato
cl oth
m other
Ġpre par
wh o
Ġth ousand
Ġme ter
Ġpo inted
Ġunder stood
Ġra mb
Ġgrand ma
Ġarth rit
Ġfl ows
Ġfam ous
c ious
Ġha y
p an
Ġso fa
Ġsupp lied
Ġin sole
ite ch
Ġswim suit
Ġco ach
Ġsp y
Ġhard wood
Ġkno bs
en c
Ġro yal
Ġprogra mming
Ġstitch ed
Ġcushion ing
Ġbee f
Ġn er
en omen
Ġupgr aded
Ġid i
Ġexplain ing
Ġrelig ion
Ġco ated
Ġcomplain ed
Ġfill s
Ġredu ced
Ġsec rets
Ġsand wich
Ġst ood
Ġhand ful
Ġsto len
iz es
Ġinconsist ent
Ġflav ored
h s
Ġst ir
Ġstretch ing
Ġsy rup
Ġsnack s
Ġrere ad
ac ular
Ġsit es
Ġwrink le
b ably
Ġgar ment
Ġcl ue
Ġkey chain
Ġf ence
Ġtr ays
fin ished
Ġrot ate
Ġspe ll
Ġsoc cer
bec ause
Ġe ats
Ġmeasure ment
Ġsag a
Ġornam ent
ke l
Ġun screw
Ġange l
en e
Ġv ague
Ġhusband s
Ġwith stand
Ġgif ted
Ġvolt age
l ist
f ord
Ġuni verse
Ġstrugg led
Ġbook let
Ġdri lled
Ġplan et
Ġsuggest ion
Ġindo ors
Ġr ush
br ush
Ġheal ing
mb ol
in te
Ġhun ter
k u
y ard
Ġeas ter
Ġut ter
Ġuplif ting
Ġy ummy
Ġal ike
ag ers
Ġreading s
Ġsy mbol
iz on
Ġhouse hold
ump y
Ġdescri bes
l in
Ġso aked
Ġwill i
Ġre act
Ġsched ule
b as
Ġmach ines
Ġtighten ing
ra ction
Ġhope ful
Ġrep ly
Ġlog itech
Ġvoc als
Ġeurope an
ig ible
Ġinvest ig
Ġexec ution
Ġco ats
Ġflo p
Ġpist ol
Ġhors es
ke e
Ġv ine
aus ible
Ġsteph en
Ġd ents
Ġle vi
pro bably
Ġrating s
com mend
t aste
Ġol ive
Ġso il
Ġshe ath
Ġdiscontin ued
Ġgad get
e k
Ġun read
co pe
Ġimm ense
Ġvo ices
Ġinfl u
Ġlight ning
Ġscen ar
Ġcapt ures
Ġsk i
Ġart icle
Ġhesit ant
mar ket
Ġsour ces
Ġd ick
Ġdri p
Ġcur ved
Ġmanufact ure
Ġfet ched
nat ural
Ġind ian
ab solute
Ġminim um
Ġstap les
honest ly
Ġl oun
Ġpl anted
Ġcl ou
Ġj et
Ġass ort
c ons
Ġc ath
Ġe ve
Ġy uck
Ġrec all
Ġforg otten
Ġcous in
f elt
Ġst ab
Ġpress ing
Ġgreat er
Ġsk ull
Ġgra in
l ong
ge nd
Ġrepeated ly
Ġout fits
Ġthri lling
Ġtreat ed
Ġham mo
Ġch ill
Ġex ter
Ġreflect ive
ri but
Ġmeet ing
with in
Ġh tc
Ġg ate
Ġver izon
Ġneighb ors
Ġsil ky
Ġprogra ms
Ġbreat he
Ġlo ads
Ġte al
Ġdeep ly
Ġpriv acy
Ġf use
Ġha ha
uck s
Ġhot el
Ġdimens ional
Ġselect ed
Ġrecharge able
Ġbam boo
Ġm ah
Ġn ick
Ġemail s
Ġut ens
Ġt ask
Ġsu its
are t
Ġmeth o
fli msy
te xt
Ġbl ing
Ġalph a
Ġsubstit ute
Ġpr ongs
ep end
Ġview s
g on
Ġw ard
y i
re c
Ġcontin uing
Ġg ather
ic ult
Ġe lder
Ġleg al
Ġassort ment
Ġg ag
Ġmod ify
Ġdevelop ing
g iving
Ġin e
Ġpo ds
Ġbe am
Ġle gend
Ġtra ps
Ġcliff h
Ġc ateg
Ġoff ering
Ġpart ies
Ġdem on
Ġstream ing
Ġser ial
Ġstud ying
Ġpray er
Ġa ri
Ġexp iration
Ġspark le
Ġvict or
u its
Ġhe ated
Ġpres ident
Ġrel atable
Ġlan tern
Ġprodu ces
Ġhun t
th at
Ġso da
Ġfrustr ation
Ġgrind ing
Ġover se
Ġcompan ion
w ire
Ġdim mer
Ġsimpl istic
Ġholly wood
5 0
Ġbull et
l ical
Ġd ys
Ġdin os
Ġrober ts
Ġwas t
Ġqu otes
Ġfe athers
Ġen velop
Ġdispos able
Ġprim ary
Ġvegg ies
s ons
am as
Ġrec ords
Ġfo il
Ġsafe ly
Ġintellig ent
Ġsh er
Ġplan ner
Ġcook s
Ġpow ers
ill e
Ġintern ational
Ġcircum st
Ġgood will
b i
id ay
oun ted
Ġwo lf
Ġuns atisfied
Ġcaut ion
Ġprev ents
Ġdiss apo
Ġspray er
Ġdre ams
Ġoverwhel ming
Ġtri al
Ġiron ing
Ġfem in
Ġhosp ital
ag o
Ġcatch es
Ġalto gether
Ġpr icing
Ġcontact ing
Ġjack son
Ġcomp os
li able
fe els
Ġveget ables
Ġa ust
Ġd rew
ur t
Ġde ceptive
Ġdis aster
Ġbed s
Ġinfl ate
Ġshred ded
ke pt
Ġho llow
Ġf und
Ġen sure
Ġra ise
res p
Ġw ing
fe ll
Ġval ues
Ġmod em
Ġorgan ization
Ġexch anged
Ġsyn thetic
Ġspill ed
Ġsu ede
Ġform er
Ġcabin ets
Ġcontr ast
Ġco in
Ġcl ay
Ġhom em
Ġbl ower
Ġown ers
Ġtrans action
Ġpublish er
qu ite
Ġbu bb
Ġtrack ing
Ġlif est
Ġknock ed
Ġindivid ually
Ġoppo sed
Ġwra ps
Ġflaw ed
Ġsumm ary
g ent
Ġin vent
ig an
Ġsmell ing
Ġvol unt
Ġscrub s
Ġcush ions
be at
Ġcr own
Ġcryst als
Ġsupple ment
ac on
Ġins ane
Ġeffective ly
Ġang les
Ġp ul
Ġst airs
Ġlight ly
Ġcond ens
Ġhundred s
wr ong
s me
Ġo ce
Ġd iction
Ġpo ke
Ġcollect ing
Ġstitch es
b ra
Ġs word
Ġarri ves
Ġfriend ship
is er
to ps
Ġenjoy ment
Ġair port
Ġsens it
Ġam using
Ġsk ips
Ġvers us
Ġhomem ade
Ġes presso
Ġplug ging
Ġspec ified
Ġansw ered
Ġfro st
Ġsto pping
Ġclo ses
Ġstud s
Ġfeed ing
Ġportr ayed
Ġph enomen
per ate
im s
Ġopen ings
Ġburn er
Ġut il
Ġrive ting
Ġad o
Ġrabb it
Ġre verse
if t
en ger
Ġpan asonic
Ġmir rors
Ġcl ums
ci ent
Ġattempt ing
Ġp ir
Ġtra ction
Ġrust ing
u ate
Ġn ative
Ġit aly
av y
Ġgar lic
Ġnove lla
Ġval ent
pr ice
Ġsal ad
Ġadd ict
Ġprefer ence
des cription
sh ort
Ġcirc uit
Ġre ct
Ġmart in
Ġinconven ient
Ġti lt
Ġcontinu ation
Ġthread ed
Ġhom es
Ġunread able
Ġco ins
if er
Ġrug s
Ġspin ning
sl ow
Ġre action
Ġoverse as
Ġto pper
Ġche vy
Ġbre ed
Ġtemper ed
Ġscra p
Ġal ter
Ġsp ills
Ġcl ing
Ġindic ator
Ġde er
Ġsmo king
Ġbur st
Ġdisconnect ed
Ġincorrect ly
Ġbron ze
p ress
Ġgrand mother
Ġart icles
Ġt as
Ġrestaur ant
Ġhammo ck
Ġfe llow
Ġcor k
Ġrest art
Ġdi ab
Ġheav ily
Ġmen u
Ġeb ay
Ġre bo
Ġac ad
Ġshep her
pack age
c am
n n
Ġne on
ep ing
Ġcra w
Ġscan ner
Ġpil ot
Ġd ing
Ġcare s
Ġmag ical
Ġcrit ical
Ġest im
Ġtransm itter
Ġnons ense
w anted
po ff
Ġsu ck
pl astic
Ġsl ice
diff icult
Ġdinos aur
Ġch os
Ġassum ing
Ġexter ior
h am
Ġne ut
Ġbund le
f air
l ie
Ġb ush
re sh
Ġpre view
Ġspo ons
ing e
Ġre sem
Ġs om
st op
Ġman e
b ar
Ġgo pro
Ġste ve
Ġfre ed
Ġindic ate
Ġmos quit
pr ints
Ġimmense ly
a ver
Ġre ordered
Ġwa ff
Ġspect acular
Ġachie ve
em y
Ġjo ints
Ġcontro llers
Ġe t
Ġam pl
Ġtot e
Ġho ly
Ġsen ior
v ation
Ġsh ark
Ġser v
Ġcrit ic
Ġto xic
us ive
Ġcon cent
Ġk itt
Ġsc are
Ġm ature
Ġrep ro
Ġelement ary
Ġo ak
Ġp uff
Ġl ux
Ġpath etic
Ġbrist les
Ġt umb
Ġfr iday
Ġult imate
Ġprim arily
Ġchos en
y e
Ġf id
hu ah
Ġadvant age
Ġf uss
Ġf yi
Ġint u
Ġfirm ly
Ġmexic o
Ġad ore
Ġdec als
Ġhum ans
ree k
Ġattach ing
in ate
Ġele ph
Ġperform ances
Ġchi huah
sec ond
ad orable
se ll
Ġdown fall
Ġfun ky
pleas ant
Ġcon vert
Ġgr ows
Ġsquir rels
Ġful fill
Ġeas iest
Ġret ro
Ġcow boy
Ġtre k
Ġnavig ate
act ually
Ġgri pe
Ġeduc ation
Ġa st
Ġlo ading
Ġun finished
Ġback yard
Ġremember ed
o e
Ġri poff
Ġwig gle
u k
th in
ere ly
Ġsal ty
Ġmass ive
Ġu v
Ġmon itors
Ġclass ics
Ġm ike
Ġk itten
Ġno vice
Ġsepar ating
Ġopt im
Ġbegin s
Ġmetho ds
Ġcart oon
Ġcontem por
Ġp ine
Ġpan c
Ġequ ally
fl ow
Ġsensit ivity
Ġinter action
war ming
Ġm ental
Ġfl ame
uff le
Ġprin ci
Ġcomment ary
kn own
Ġbl ame
Ġdel ay
Ġremain ing
Ġl onge
ak y
Ġhur ting
Ġclick ing
Ġvolunt arily
Ġpre ach
Ġheart s
Ġpear l
us ter
Ġsmooth ies
Ġt ic
Ġv hs
ol ine
Ġmanage ment
n t
r is
st ic
Ġdown s
Ġfore ign
Ġclums y
Ġl any
an ie
Ġuse able
Ġsuit case
Ġp umps
Ġas ics
Ġteach ers
Ġhero es
d r
Ġo x
Ġgloss y
Ġded ic
Ġanaly sis
Ġli me
Ġfl ashing
Ġstud ies
Ġflick er
Ġresc ue
Ġbr ad
Ġtemp or
Ġbib lical
Ġscient ific
b ur
us er
Ġexp lic
Ġgo al
Ġwear able
Ġsa u
sh ipping
Ġwind y
Ġvill ain
Ġlonge vity
o ise
al t
Ġch am
Ġce le
in al
Ġcoll ars
Ġoce an
f ly
is ions
Ġimagin ative
Ġgrand sons
Ġba ld
Ġsupposed ly
Ġg ems
Ġair pl
Ġpast e
Ġupd ates
Ġf est
Ġtal ked
Ġcontinu ously
seem ed
Ġf ir
Ġgr asp
Ġactiv ate
Ġdocum ents
Ġfix ing
Ġspark ly
Ġgood s
Ġup coming
Ġfle w
Ġrecord ings
Ġjer ky
ang ing
Ġflat ten
Ġdu vet
Ġrout ine
Ġguarant ee
Ġb ills
Ġrep ut
Ġb icy
Ġse es
Ġins ulated
Ġp and
Ġk ink
Ġhapp iness
Ġkid ding
Ġgr om
Ġlin ers
Ġhar mon
Ġtooth p
p ic
ur ance
ens ity
Ġsub tit
Ġpatch es
Ġa im
Ġk ore
Ġspeak s
Ġmiss ion
Ġd un
az e
Ġcour t
Ġtub ing
Ġbed time
Ġden im
j a
Ġb arn
Ġg inger
Ġal ien
Ġcont rived
Ġsol utions
Ġtap es
Ġpitch er
Ġsp ices
Ġcal ories
Ġdisco lored
so ci
Ġpe ter
Ġcho ppy
Ġresol ve
Ġflo ppy
Ġpres chool
Ġfrank ly
Ġwhist le
Ġthem es
Ġexp ans
Ġre nd
Ġcon text
Ġrubber y
Ġger many
Ġfu zz
Ġdiction ary
nd o
Ġsp onge
Ġlist s
Ġcomplain ing
Ġhear ted
Ġgrab bed
Ġdem and
Ġbene fits
sad ly
Ġcontempor ary
Ġun known
Ġesc ap
in it
Ġre h
Ġstri pes
Ġlad der
Ġpo nd
Ġass ign
Ġrecommend ing
Ġvib ration
Ġbu dd
Ġbl ouse
Ġwash able
Ġequ ival
Ġsp a
ail s
Ġgrate ful
i kes
Ġan ne
Ġac ce
Ġind epend
Ġsatisf actory
Ġenlight ening
Ġenvelop es
i ors
r ition
st one
Ġch ase
Ġas soci
Ġgener ous
Ġcele br
Ġin soles
Ġafter wards
Ġlifest yle
Ġbe ad
Ġcl ark
Ġfrequ ent
Ġbb q
Ġrhinest ones
w ent
Ġb acon
Ġk ate
pl ays
al most
Ġexp ense
Ġfl ats
Ġunre liable
Ġelder ly
ble m
Ġsn eaker
Ġcor ro
Ġfollow s
Ġoper a
Ġdram atic
Ġb ake
Ġm ort
Ġch unks
Ġsc roll
Ġwar n
Ġtow er
Ġnut rition
Ġm ens
ac ute
Ġun pleasant
Ġext ensive
Ġheart bre
Ġcre ases
Ġviol ent
Ġba it
n es
p art
Ġf ict
Ġsp icy
Ġnew born
Ġdi aper
Ġabsorb ent
Ġconver ter
Ġaccompl ish
p red
ath y
Ġteen agers
en cing
il i
Ġwriting s
or ial
Ġj ams
Ġtrick s
al es
Ġun interesting
ph er
Ġref ills
Ġleg it
Ġground s
Ġsew ed
Ġrent al
Ġpix el
Ġdissappoin ted
Ġgu ides
Ġinse am
Ġm and
te nder
Ġnever theless
Ġvoc ab
inte gr
Ġcircumst ances
Ġweek ly
Ġtra ff
Ġspo iled
b les
Ġir ish
Ġsp ins
Ġhi ke
Ġdescri bing
Ġcontin ually
Ġexplic it
Ġj ig
Ġco aster
Ġc ave
Ġre ly
Ġman ip
Ġflex ibility
Ġrob ust
Ġbat man
Ġbio graphy
Ġmanufactur ers
Ġfau x
Ġembarrass ing
Ġdefect s
Ġf oul
Ġan th
Ġv iet
Ġmeasure s
ur ally
Ġco des
Ġcomple ments
Ġcur l
Ġch oo
Ġcomp ilation
Ġdisc us
Ġflo ating
Ġvis or
Ġtruck s
Ġdiamond s
Ġp ac
Ġsh eds
Ġround s
Ġover come
Ġsee king
Ġnor a
Ġbasket ball
Ġa es
Ġl ately
Ġd er
Ġank er
z er
Ġk o
Ġchar ms
Ġfo x
Ġcap able
co al
Ġpos itions
Ġmold ed
Ġcupc akes
Ġpo ems
Ġtur key
Ġremark able
enc ies
Ġdo a
Ġdef i
Ġeng ra
Ġcher ry
l ittle
s ur
ar ium
Ġmechan ical
Ġwip es
Ġdo s
Ġsu perf
des pite
Ġconsum ing
Ġtit les
Ġtre nd
Ġcere al
Ġdis ks
Ġdis integr
Ġchar coal
Ġsc ream
Ġme h
Ġtra ged
Ġcho p
Ġemp loy
Ġster ling
Ġshepher d
Ġequival ent
Ġg ently
Ġbox er
Ġro ku
Ġest e
Ġuns ure
Ġpain ts
Ġrain bow
Ġrespond ed
r om
Ġl ave
Ġdis e
Ġfi ance
Ġgrou ps
Ġrepres ented
Ġl ays
ach es
Ġfl esh
Ġz one
Ġdi agra
nam on
open ed
Ġg ut
ood les
un it
um ble
Ġgr anted
Ġje ff
Ġremote ly
Ġdig est
Ġash amed
amaz on
Ġgrad er
Ġhorizont al
p ass
nd on
Ġhum ming
Ġfail ing
Ġpolish ed
Ġneut ral
Ġd ining
Ġsp ider
Ġnarr ower
i vers
Ġbr ook
Ġac id
Ġscript ure
Ġpriv ate
Ġwel come
Ġan cient
ven ile
Ġscen ery
Ġt ay
Ġg h
Ġun im
read ing
Ġcommunic ation
Ġl es
Ġal ittle
ul ary
Ġdress y
Ġodd ly
Ġpant ry
Ġfreed om
Ġt am
Ġdon ated
p ret
Ġt ac
Ġspir al
in i
Ġcliffh anger
Ġsnug g
Ġg li
Ġsqu e
Ġtem ps
Ġdecor ations
Ġtur tle
Ġcin namon
Ġware house
Ġpam ph
ch et
Ġnur se
Ġl ind
Ġdec ades
Ġball oon
Ġdeter mine
ar ms
se e
Ġtest s
Ġneat ly
Ġstap le
Ġfragr ance
Ġm ate
is c
Ġres erv
Ġind ia
Ġanch or
Ġp ip
st al
Ġintu itive
Ġf ri
pl ed
Ġmane u
Ġmem orable
Ġgranddaughter s
Ġper o
ma id
s a
Ġgre asy
Ġocc up
Ġexperi ment
Ġexcess ive
Ġim ple
Ġvib r
Ġres our
Ġpaj amas
Ġmain ten
Ġcomm it
m ets
ic iently
Ġtrans ition
Ġmem oir
Ġphotograph s
Ġspar ks
Ġmedic ine
us able
Ġpro ved
Ġel igible
Ġremo val
ah a
Ġjun ior
Ġmaxim um
l ab
Ġag gress
Ġins ulation
Ġinform ed
Ġblend s
b its
Ġl is
Ġg ust
Ġhar m
Ġreve aled
p uts
Ġsh all
ves ted
Ġcam o
Ġrust y
Ġban ana
Ġdon ate
Ġun c
Ġbel ong
Ġpour ing
n on
s ch
s ters
t akes
Ġac qu
s omet
Ġyour s
Ġthr ows
bb ing
Ġrough ly
every one
Ġchihuah ua
Ġclo gged
Ġfitting s
Ġk its
wor king
Ġatt ack
Ġnovel ty
Ġresour ces
a ii
Ġsevere ly
Ġmainten ance
al f
et ly
Ġho ses
ol ic
Ġ ur
Ġa aa
Ġj ones
ple ased
Ġpat ient
Ġindic ates
p aper
Ġex tender
Ġref resh
Ġpret t
Ġd ates
Ġr us
Ġcon ce
ash es
Ġsubs cription
Ġbe ast
Ġqu art
Ġbl ister
Ġaud ible
Ġadapt or
abe th
pred ictable
Ġpr on
Ġint ention
Ġr asp
Ġtim ing
Ġther mos
Ġfav our
Ġvine gar
Ġtay lor
Ġb omb
il es
Ġfl aps
Ġvol umes
Ġsp at
Ġbuck les
Ġju venile
Ġsp ool
Ġflaw less
Ġshor ted
Ġvocab ulary
Ġn amed
Ġpr one
Ġact s
Ġallerg ic
Ġintermitt ently
Ġan ts
ry lic
Ġchic ago
Ġdefi antly
ve y
ow ing
Ġel bow
Ġdownlo ading
Ġgear s
Ġpamph let
Ġcost umes
br is
Ġl l
Ġsle pt
Ġt ummy
Ġes p
Ġphenomen al
Ġam ounts
Ġcar r
Ġgr id
Ġtur qu
Ġwh is
Ġlo ndon
Ġde bris
Ġyard s
somet imes
al ia
Ġhan es
Ġst ability
Ġal ert
ame l
Ġdisappoin ts
tain ing
fi ber
Ġlave nder
m en
Ġcl as
Ġss d
Ġbur g
re ll
Ġlo yal
Ġexc use
Ġloc ate
Ġtan ks
sim ply
Ġhaw aii
Ġp j
ot ed
Ġtravel s
Ġalign ed
ag le
Ġac rylic
Ġdra gs
Ġgra iny
fo llow
Ġfif th
Ġimple ment
ar ian
ic o
Ġse g
Ġk er
Ġv ents
Ġheart warming
complete ly
Ġnecess arily
Ġarthrit is
w all
Ġd ou
st ra
Ġrem otes
Ġregard s
Ġsco ot
Ġcance l
g ia
Ġa unt
Ġc akes
und ant
Ġbarb ie
Ġcass ette
Ġawa iting
Ġtiss ue
Ġti les
Ġho bby
and ex
Ġcord less
Ġg m
Ġthank ful
bro ken
inc red
Ġn ook
Ġsw ap
Ġdust y
Ġfro ze
g lass
Ġm itt
Ġfr an
Ġte nder
Ġclou dy
as ters
Ġbe ating
Ġan alog
Ġun com
be ing
ud os
Ġpill s
Ġbear ings
Ġturqu oise
Ġdiffer ences
Ġmor al
Ġchew s
Ġcy l
re al
Ġm oth
an ity
Ġke en
Ġple asing
ren e
Ġloc ated
Ġpar is
Ġconvers ations
e ch
Ġp om
Ġsuper natural
Ġsoft en
Ġliter ary
Ġpush es
h i
ot y
Ġe pson
Ġwr ang
Ġry an
Ġwor ries
Ġwa ve
Ġref uses
Ġchr is
Ġrelax ed
Ġor th
Ġco ast
Ġdis plays
Ġob st
Ġrich ard
re pres
Ġp ud
Ġfun n
gl ued
Ġpupp ies
att ract
Ġf ades
Ġp acket
Ġbe lls
atch et
Ġdec isions
sh ipped
Ġmotor ola
Ġsubject s
Ġallerg ies
Ġcig aret
Ġre b
Ġdef orm
Ġdro id
Ġdr one
Ġin vested
Ġend ings
Ġpart ner
Ġmar sh
Ġfict ional
Ġsp ine
Ġrep orted
Ġmicro fiber
Ġstoryte lling
a ld
Ġor ch
Ġref lection
Ġcur ves
Ġaddition ally
urb an
Ġbuzz ing
Ġfray ing
c key
z el
Ġb s
Ġfre aking
Ġtur bo
Ġeli z
Ġdo dge
ir l
Ġsp andex
erf ect
Ġimp erfect
Ġmaster piece
Ġlany ard
Ġf ried
Ġn ational
Ġcli ents
Ġterri er
Ġpotato es
Ġwash ers
Ġport ra
Ġprec ious
lar ge
Ġlandsc ape
Ġestim ated
Ġmechan ic
Ġcent ral
Ġr acing
Ġho st
and er
Ġgr itty
Ġclear er
Ġve g
Ġchart s
Ġobject s
Ġabrupt ly
Ġche ated
Ġpell ets
d ers
Ġl ect
Ġal ask
Ġunderstand able
Ġve gan
b led
Ġwe ber
Ġbra ve
Ġd ense
Ġar ts
Ġfashion able
Ġt id
Ġso ak
Ġbear ing
Ġfemin ine
Ġthe at
Ġthe ses
Ġtraff ic
Ġp ackets
ed ding
ad vert
ac les
Ġrep urch
Ġflu ke
ge e
Ġcon verse
Ġcar go
Ġcirc les
e ll
Ġmail ed
Ġmaneu ver
Ġsh in
Ġpro ve
Ġpro port
iss a
Ġflick ering
e ared
g rand
re m
Ġh en
Ġshi ps
Ġmini ature
Ġcry ing
o le
Ġk at
ag ger
Ġscuff ed
id ently
Ġspe cially
Ġcar ing
Ġclas ps
e er
Ġr p
Ġlap tops
Ġpersonal ities
Ġpro ced
Ġun ited
Ġwho ever
Ġst aff
Ġap oc
Ġsharpen ing
Ġd read
Ġcro chet
Ġclar ks
Ġbicy cle
w ore
we et
Ġpass ing
Ġdisco lor
Ġha ck
wear able
color s
Ġpand ora
Ġf at
Ġsw allow
Ġtend ency
Ġt ug
Ġkind erg
Ġreturn able
Ġbed ding
Ġcatch y
Ġhumid ifier
Ġb iz
Ġo ily
Ġj um
Ġse x
Ġtri mmer
Ġcomple t
Ġsac ri
than ks
Ġi e
Ġm cc
Ġpro ven
Ġal as
Ġsqu ish
Ġcomb at
Ġsurround ing
attract ive
th et
Ġang st
Ġcompress or
deli vered
Ġha un
Ġsch ol
Ġdi ag
Ġsteam er
wr itten
Ġb m
ne ed
Ġwork er
Ġgr oom
Ġviet nam
i ment
Ġwish ing
Ġwind s
Ġsort s
Ġbo il
Ġinter pret
Ġtherap y
Ġbr id
Ġgra bs
Ġbuild s
Ġameric ans
Ġloos er
Ġairpl ane
Ġqu ad
Ġsm h
Ġim pl
Ġtri ple
Ġlif es
Ġincor por
Ġp y
Ġbo ston
Ġflow ed
Ġcompon ent
Ġmerch and
Ġsee k
Ġbra kes
Ġcro ck
Ġbud dy
Ġsoooo o
ivers ary
Ġm ater
Ġd um
Ġpay ed
Ġmother board
Ġsoc kets
Ġconfig ur
id as
Ġstra in
Ġmark ings
Ġi ke
ch er
Ġj on
r all
Ġpr ide
Ġrel ie
Ġje lly
Ġble ach
Ġmr s
Ġtor que
Ġspill ing
Ġp aw
ul ed
Ġatt itude
Ġint ric
Ġapoc aly
Ġcont ract
Ġmar ine
Ġform ed
Ġtem pl
Ġbrush ed
ugg ing
Ġwh it
Ġsatur day
a que
Ġr is
Ġbo sch
Ġsur ge
Ġmar gin
Ġwom ens
Ġfif ty
Ġphilosoph y
n s
Ġc ooper
Ġde ar
Ġend less
Ġcr ush
Ġchew er
Ġped als
se ver
Ġside ways
Ġextra ord
mp se
Ġadv ised
Ġadd icted
Ġcost ly
Ġdisc om
Ġpear ls
Ġsav ings
Ġelimin ate
Ġgli mpse
Ġkinderg art
Ġout rage
Ġde w
Ġun wearable
Ġprocess or
str ong
u ality
Ġem ph
Ġger min
r ooms
im m
Ġh arr
at ory
Ġd orm
Ġr ca
am aged
Ġperfect ion
Ġbr ut
Ġstr ateg
Ġdeter ior
Ġshred der
Ġutens ils
k o
ro be
Ġco il
Ġsto pper
Ġann iversary
Ġsus pend
Ġtrain er
mis sing
com es
Ġtraged y
Ġtime less
Ġdress ed
Ġspray ing
Ġar oma
Ġtw ins
Ġcal m
Ġflow ing
Ġprinci ples
Ġfor ms
Ġfl are
Ġinf ant
Ġwond ered
Ġtarn ished
ur s
Ġear ned
Ġsk irts
Ġill umin
Ġf ib
Ġwe ave
Ġmis repres
Ġsat in
Ġenclo sed
Ġrin se
p ants
Ġd ive
Ġcan ister
Ġdefin ed
Ġbun ny
Ġsilic on
Ġemph as
m ake
Ġh ug
Ġk h
Ġcontact s
Ġtechni que
Ġfl ood
Ġfold ers
Ġpsy ch
Ġsubtit les
w a
id ers
um a
Ġway yy
Ġro s
Ġmiss pe
Ġmeaning ful
a ire
Ġc ud
Ġoun ce
Ġat l
Ġincre ased
Ġaqu arium
Ġdiscom fort
h art
Ġset t
Ġcreat ivity
Ġsuccess fully
Ġstre aks
Ġunplug ged
Ġmerchand ise
Ġg lor
Ġall en
Ġag ed
Ġbri m
Ġpass enger
Ġvis iting
Ġexec uted
Ġneighbor hood
b ott
d dy
e g
t v
Ġl ying
Ġno stal
ab ilities
att ach
Ġprofess or
Ġhuman ity
Ġgo re
Ġfinger prints
Ġg ee
me h
Ġref use
Ġdash board
Ġl uc
Ġpick up
Ġmur der
Ġunlock ed
Ġv it
Ġag gra
Ġour selves
z u
Ġfle a
Ġarm or
Ġsweat y
Ġshad ow
g en
v c
Ġn est
ic ial
Ġe ther
Ġb out
ou ted
Ġre vers
Ġcollect s
Ġps i
Ġaggress ive
Ġfr ance
Ġem blem
Ġtit an
high ly
out standing
Ġsw ear
Ġdig it
Ġmel od
Ġdress ing
Ġnarr ator
Ġhar ley
Ġtun er
Ġdec ently
Ġr attle
Ġk le
Ġmind s
Ġwed ge
Ġperman ently
Ġruss ian
r ict
Ġoff s
Ġsa fer
Ġext ract
Ġwater ing
Ġeat en
Ġsuff ering
Ġoun ces
c are
Ġkid do
Ġclut ch
Ġencoura ging
sur pr
Ġclo gs
Ġmold s
Ġcre ase
Ġtin ny
Ġstamp ed
Ġbark ing
Ġcath olic
Ġc one
ib ilities
Ġfold er
Ġtemperature s
Ġcontinu ous
Ġredeem ing
Ġn iss
Ġret ired
Ġreview ing
fo ot
Ġbrief s
Ġpre tend
Ġcount ries
fun ny
Ġbo iling
Ġdes ert
Ġseem ingly
Ġfound ation
Ġblan kets
Ġbrew ing
d ly
er ts
Ġre ject
Ġph ill
be autifully
Ġmix es
Ġgarden ing
enjoy able
Ġm others
Ġsho ddy
und y
Ġdisc ounted
oo ps
Ġblo g
Ġcar ol
Ġsuff er
Ġniss an
ic ity
st ring
Ġinter ference
Ġsold er
Ġborrow ed
Ġeliz abeth
or ing
Ġst ub
Ġfe ather
Ġdress er
Ġfig uring
ian a
sho e
Ġclim ate
Ġtroubles ho
Ġwond ers
Ġhome work
Ġve ter
Ġthread ing
Ġnic kel
Ġsubs cri
re placed
Ġal i
ant e
Ġrecommend ations
Ġser ver
Ġdam p
Ġcondition er
Ġneckl aces
bu yer
Ġsteph anie
Ġenthusi ast
Ġengine ering
Ġtooth brush
Ġign ored
Ġun glued
Ġhigh s
Ġdecor ate
Ġest ab
Ġunravel ed
Ġirrit ated
Ġj ackets
Ġsp ig
Ġher bs
Ġhands ome
Ġpred ict
Ġingred ient
Ġweap on
r ad
Ġb aked
or ig
Ġhe llo
Ġun clear
Ġboth ers
Ġobs c
Ġresul ting
r r
Ġste ep
ific ations
Ġnat urally
Ġbatt les
Ġm ason
Ġl oom
if ul
ag ain
Ġru le
Ġign ore
Ġmi xture
ab led
Ġstab il
w ife
Ġgr at
Ġdec re
Ġru ins
Ġtun ing
Ġcert ified
c ar
Ġafter market
atch ed
Ġconnect ivity
Ġafric a
fab ric
Ġwe al
Ġtra gic
Ġwhe at
Ġpregn ancy
Ġaustr alia
b elie
Ġwat ts
Ġburg undy
Ġd ivid
Ġwa aa
Ġcollap se
Ġlen o
d ie
Ġb ore
Ġha l
id ents
Ġr ash
Ġsecond ary
Ġdist inct
Ġsuggest s
Ġsun ny
l ast
Ġw d
Ġg own
Ġsh ines
Ġkn itting
aw ay
gy pt
Ġhealth ier
Ġblock ing
Ġenth rall
lim ited
Ġrec onnect
Ġsub mit
Ġrepair s
Ġexpans ion
l ap
er ve
Ġgo sp
ep r
Ġhonest y
Ġske chers
Ġmonth ly
Ġexce lent
Ġcap ability
Ġprof ound
Ġg oof
ang es
he ld
Ġindividual s
Ġpublic ation
Ġdise ase
ter ri
Ġu gg
Ġfli pping
for ward
Ġtrash ed
Ġmed itation
Ġexplo re
hold s
Ġdele te
Ġencoun tered
Ġwork book
Ġact ress
Ġexplo ded
Ġlu ke
ser iously
Ġcateg ory
v ably
Ġm akers
av a
Ġcut est
nice ly
Ġev idence
Ġcin em
Ġtr ump
Ġloo sing
Ġtext ured
anc ial
Ġad idas
Ġconsider ably
a ay
Ġo at
Ġe gypt
Ġst ating
Ġsh edding
Ġcell phone
Ġexception ally
Ġbes ide
Ġconsum er
Ġout line
Ġcr ashed
Ġstuff er
Ġdisc ard
Ġsmart phone
Ġstere oty
f ire
om ic
Ġcu is
Ġcompar ing
Ġj ess
Ġpad dle
Ġmagn ifying
Ġvamp ires
d les
Ġg or
ow ed
Ġch unky
Ġdis liked
Ġdra ins
Ġprom ising
Ġyork ie
Ġfact ual
Ġrest ock
Ġaffect ed
Ġcrunch y
c ut
l ined
z i
Ġc el
Ġsh aking
st ock
Ġpo in
Ġhand bag
Ġl ug
Ġg ang
Ġspeed y
Ġla unch
Ġmild ew
s aw
Ġear piece
Ġdri ven
Ġnotice ably
Ġwo bble
b ish
ar se
ic ting
Ġcoll aps
Ġdam aging
Ġn oodles
Ġst en
Ġso y
Ġun cle
Ġdro ve
sme lls
Ġscoot er
Ġcare d
Ġbackpack ing
Ġrout e
Ġfin ancial
Ġrasp berry
Ġafter taste
Ġtra ve
Ġcorrect ed
Ġd j
ri al
Ġsho vel
Ġther most
u ous
Ġc ape
Ġtr ite
Ġbelie ved
Ġlength s
Ġrequire ments
Ġexpand ed
Ġd ip
Ġcom o
Ġsl ing
Ġprofess ionally
ate gy
Ġrubber ized
col n
Ġsmo ker
Ġut ility
Ġzomb ies
Ġbm w
Ġp aws
Ġco arse
he avy
Ġwashing ton
Ġsight s
Ġren ted
Ġfr y
Ġde velo
Ġfit ness
un less
Ġpe gs
Ġcar p
Ġarm band
Ġserv ices
Ġtempor ary
t om
Ġblink ing
Ġwrang ler
Ġdis assem
Ġsp ite
Ġstr ategy
Ġdisconnect s
function al
Ġcalc ulator
t ies
Ġt el
Ġpr ison
Ġte ller
ail ed
Ġcor al
Ġap o
h alf
al o
st airs
Ġat tend
Ġk udos
Ġsi gh
Ġred undant
Ġsolid ly
Ġlab or
Ġlead er
Ġcaptiv ated
Ġconcern s
Ġparagraph s
Ġconvin ced
Ġrevol ution
er al
Ġm oo
Ġer gon
Ġi phones
Ġb ows
Ġso othing
ul ating
Ġro ots
Ġaltern ate
Ġrecie ve
Ġtherm al
c lass
Ġsu pr
Ġpe ach
Ġinc ense
Ġsens ors
Ġenh ance
Ġphr ases
Ġeleph ant
s izing
Ġm ph
Ġbe ars
me al
Ġco co
Ġdi ary
Ġdisapp eared
Ġmosquit o
ll en
Ġmyster ious
go ing
Ġrack s
Ġcy cling
Ġengross ing
Ġch ore
Ġpr ince
Ġcon sequ
Ġun pack
Ġdirect or
Ġmist aken
Ġeconom ical
Ġsar ah
Ġg ab
Ġcom ics
Ġoff ensive
Ġsy mp
Ġdecor ating
p ieces
Ġa ero
ab out
Ġday light
Ġtrust ed
Ġquestion able
Ġreve aling
o dy
Ġwork ers
Ġbox ed
Ġsmo other
Ġcol umb
Ġcrash es
Ġn it
Ġhard cover
Ġreach ing
Ġhun ger
r ay
Ġr atchet
Ġpr y
Ġag re
Ġacc ounts
mm a
Ġbas kets
Ġcur vy
Ġbra vo
Ġton ight
Ġestab lish
c ases
Ġha lo
Ġby e
Ġsatisf action
Ġform al
Ġdig ging
wor ds
Ġdi me
Ġoper ated
Ġmuff led
Ġim itation
Ġgame play
Ġlin coln
Ġstraight forward
Ġfirm ware
Ġike a
ar re
Ġre ward
Ġdesign er
Ġsty ling
Ġmic key
Ġbean ie
Ġre usable
ist ics
Ġgo ds
Ġassemb ling
Ġtable cloth
Ġcoun ting
Ġportray al
Ġcigaret te
Ġan ime
Ġwhere ver
Ġfire place
Ġprofess ion
Ġtar p
Ġopt ical
r ick
Ġl ense
ent ation
Ġspo ke
Ġre vel
Ġinter tw
Ġmir acle
Ġalask a
re ck
Ġjust ify
ie ndo
Ġpair ing
sh ips
Ġchrist ians
Ġsqu eaker
Ġbutter fly
Ġexist ent
Ġunravel ing
Ġsmud ges
Ġo li
el ve
Ġmusic ians
Ġint ent
Ġjew ish
dro p
Ġt b
Ġe th
ak i
Ġdet ract
Ġport ions
Ġcal i
Ġiv ory
Ġat mos
Ġar row
Ġglo be
Ġelectric ity
Ġreport s
Ġst il
Ġaw e
Ġaw some
Ġabs ur
s pe
Ġrec over
Ġsho ots
Ġupset ting
Ġcray ons
Ġsacri f
Ġw rest
Ġd sl
Ġcr umb
Ġwar ri
Ġpri mer
Ġthri llers
Ġcri mp
w arning
Ġac ou
ower ing
tend o
Ġsimpl icity
Ġskim med
Ġutter ly
Ġh oop
Ġdi y
Ġcloth s
Ġfavour ite
Ġfor k
Ġbe gun
Ġj r
Ġworld s
Ġshif ter
Ġlou is
Ġguid ance
Ġas ks
Ġk ills
Ġbr ide
Ġrele ases
some what
fl ies
Ġphys ically
Ġcut ters
Ġter ry
Ġsad dle
Ġrus sell
Ġ 3
Ġnew est
Ġdefin etly
Ġeffort s
Ġcast ing
Ġrot ating
Ġdivid ers
g orgeous
Ġo sc
Ġspe ech
Ġmus cle
Ġmess ing
Ġrequ iring
Ġarg um
Ġcit iz
m ies
Ġs inc
at ly
am i
Ġtheir s
gl ad
Ġornam ents
il ight
Ġtri mming
Ġsatisf y
Ġsign als
Ġliqu ids
Ġalign ment
Ġprett ier
b ie
ar ing
Ġwor ding
li p
fo am
Ġpean uts
Ġcompass ion
Ġpo ign
Ġlog ic
Ġfor ces
Ġcan ada
ist a
Ġpart ial
Ġwo bbles
Ġspl itting
Ġqual ities
xt ures
Ġran ger
Ġdrag ons
Ġnin tendo
wr iting
Ġinterview s
Ġdistort ion
Ġpl ausible
ud es
Ġfin est
Ġembroider y
Ġo ly
Ġret ire
Ġap ron
Ġmot o
Ġpublish ing
Ġdepend s
Ġgosp el
Ġf aced
Ġwa isted
Ġpump ing
Ġuns atisf
Ġab used
Ġnew sp
Ġether net
Ġp m
Ġy ay
Ġv ga
Ġnew ly
Ġcupc ake
Ġpo lo
Ġdraw string
Ġdepend able
Ġsh ave
Ġk im
ol uted
no xious
Ġpouch es
Ġdick ies
a ult
Ġdefin ition
Ġcr ad
Ġfavor s
Ġmel issa
Ġdrug s
Ġman ages
Ġsk ate
Ġmod es
att oo
Ġperform ing
Ġacce pted
Ġd ess
Ġg f
ri ever
em ic
Ġpe els
Ġsn ake
Ġval id
Ġthanks giving
Ġfig ur
Ġdrive way
h ill
Ġn a
Ġst amps
Ġret riever
Ġpass port
Ġindust rial
Ġi re
oo o
Ġunlike ly
f ty
Ġbiz arre
Ġton es
Ġinstrum ents
Ġan x
Ġen orm
Ġdis pleased
Ġtw ilight
Ġbr ow
Ġforg iveness
Ġt attoo
Ġmo nday
Ġcor ny
Ġmis er
Ġzi pped
Ġcompet ition
Ġo m
Ġsh im
Ġfre ak
Ġob noxious
Ġshock ing
Ġcomment ed
Ġcritic ism
Ġvit am
Ġclass ical
Ġyog urt
Ġch unk
ie ter
Ġmon key
Ġra ve
Ġface book
Ġrepe ats
Ġam ish
Ġimport ance
Ġpump kin
rup ted
Ġreinfor ce
Ġpra ise
Ġtri als
Ġdri ps
land er
Ġjew els
Ġsplit ter
Ġire land
x l
Ġt shirt
Ġs ed
oo fer
Ġprin ters
Ġrub bish
Ġanim ation
Ġcult ural
aff e
Ġange ls
Ġafric an
g i
Ġp ity
Ġinstruct ed
Ġpract ices
bu ild
Ġhous es
Ġsuperf icial
en ess
Ġshr ank
Ġremain ed
Ġcirc ulation
Ġny c
Ġwi per
Ġatmos ph
d f
Ġst ew
Ġreve al
Ġeras er
Ġthermost at
s ays
Ġn ation
us eless
Ġtw elve
ans w
Ġra ils
Ġtra ctor
Ġcuff s
Ġsu p
Ġprec ision
Ġdynam ic
is co
Ġv ul
Ġhead ed
Ġreg rets
Ġent re
Ġsus an
Ġund amaged
Ġflag s
Ġcolour s
Ġs ab
Ġk ar
ruct ions
Ġrad i
Ġdan iel
Ġcushion ed
Ġconv ention
Ġto ms
Ġqu ieter
Ġun fl
Ġrecom iendo
Ġpers pect
Ġcap tain
Ġhung ry
Ġdefl ated
Ġward robe
Ġth irty
Ġrec commend
ang ers
Ġfra med
Ġspr ays
Ġposs ibilities
Ġrepet ition
Ġwilli ams
c led
Ġ 4
Ġg reek
Ġch ord
Ġwater ed
Ġperson s
Ġob tain
Ġinspect ion
init ially
Ġoat meal
Ġd arts
Ġha ul
Ġmon t
Ġsl ices
Ġear phone
Ġdim ension
m ust
id o
Ġch ances
Ġgl ance
pr ot
Ġopin ions
Ġheads ets
Ġlow es
Ġpass ages
Ġpar all
Ġmail box
Ġreco very
Ġl one
Ġchild ish
Ġweight ed
Ġint ensity
Ġbi ased
Ġbl oom
Ġart ic
Ġla ure
Ġvoc al
Ġlis a
Ġveg as
Ġoly mp
Ġn ano
ero kee
Ġclich e
Ġidi ot
Ġkn ight
Ġbit es
Ġvis ually
Ġtremend ous
Ġanx iety
Ġperspect ives
le g
Ġbe es
Ġinsp ire
Ġru ining
Ġportra it
Ġoutrage ous
i able
ra in
Ġun limited
Ġcar hart
Ġcrack ers
Ġrep ack
Ġwin ters
Ġge o
Ġschol ar
Ġth ro
Ġn i
Ġchar les
Ġinter fer
Ġlim its
Ġjen n
Ġn es
Ġdo c
Ġbuy s
Ġhair s
hu ge
Ġguarant eed
i que
m ill
w est
Ġto sh
Ġcl ump
Ġtwist ing
Ġfi xtures
Ġbelief s
Ġdeterm ined
Ġheartbre aking
m r
Ġl ick
Ġd are
Ġv ast
Ġro ses
Ġfree ly
Ġgener ations
app ro
Ġvan ity
Ġtuck ed
n ut
Ġn ich
Ġan ec
Ġlot ion
Ġfol k
Ġrhy th
Ġdedic ated
Ġintric ate
Ġanec d
Ġst ems
Ġcou ples
Ġra ch
Ġrom ances
Ġzipper ed
Ġsuc ce
j ective
w o
re qu
Ġh ints
Ġconv oluted
Ġdisapp ear
Ġclimb ing
k i
Ġbl essed
Ġvis ited
Ġge ared
Ġretract able
Ġpoign ant
g les
Ġblack berry
Ġcli pped
Ġbran ches
Ġextraord inary
epr oof
Ġwor ship
Ġhigh way
Ġsn or
Ġimmedi ate
Ġgrad uation
Ġtut orial
f ield
Ġwalk er
n orm
Ġc pu
ic ious
om s
Ġapp les
Ġtra pped
Ġfli pped
Ġcap abilities
Ġstat us
Ġenclo sure
Ġexpos ure
Ġvalent ine
ag ree
Ġinstruct or
ib a
Ġbar ley
Ġmold y
Ġdemon str
v an
Ġp ly
Ġam b
Ġpl un
Ġtw ee
ign ed
Ġcar afe
Ġcr an
Ġev o
Ġdev il
Ġmagaz ines
Ġfr anc
Ġset tle
fe it
ins p
Ġguard s
f ish
Ġd p
Ġcl in
Ġsal mon
Ġtransform er
Ġh ue
Ġl aughter
Ġg s
Ġinst ep
Ġlif eproof
Ġtun nel
Ġalex a
Ġsnag s
Ġs ack
in ations
Ġso aking
Ġfr uits
Ġcame l
answ ered
Ġt aper
Ġsuff ered
Ġsharpen ed
Ġweld ed
Ġintermitt ent
Ġbox y
Ġheart felt
Ġlead ership
Ġreflect s
Ġlog ical
Ġselect ions
Ġl p
Ġj ason
Ġcan op
Ġcr umbs
Ġres on
Ġleg os
Ġarr ows
Ġsuck er
Ġtumb ler
b ird
Ġc ure
Ġl ub
Ġd ub
if es
pt ic
ty pical
Ġsl icer
Ġfra ud
Ġstraight en
Ġclick s
Ġclim ax
follow ed
Ġpl ated
lo aded
Ġun f
Ġman s
Ġless er
Ġview ed
Ġseason ing
Ġcri min
Ġaes thet
Ġcyl inder
Ġter ror
Ġchew y
Ġlaw s
end ed
Ġsnugg ly
Ġleno vo
Ġso d
Ġch erokee
Ġbad ge
Ġsleep s
Ġtosh iba
Ġgrand aughter
Ġsand isk
Ġlif ted
Ġsess ion
Ġcon fortable
ab or
Ġvel vet
Ġp ion
Ġwe eds
ff ective
Ġaddict ive
Ġtoothp aste
Ġi con
Ġdra gging
Ġdark ness
Ġimag ery
Ġkindergart en
appro pri
Ġrec l
Ġgain ed
Ġr ul
Ġrepe ating
g ate
j un
s ery
Ġis ol
Ġal ice
ber ries
Ġra g
Ġviol in
Ġdeser ved
Ġnur sery
Ġaqu a
Ġassist ance
Ġbe ep
Ġk iss
un es
Ġcr ude
ll ar
Ġcou p
Ġdeal t
Ġspr out
Ġdist ribut
Ġpark er
Ġpref ers
Ġco asters
ast es
Ġfortun e
Ġrebo ot
Ġreput ation
d ra
Ġ urban
Ġbe ver
Ġli ps
st ore
Ġam y
Ġcut er
Ġsoft ness
Ġpaper work
Ġnarr ation
Ġneck line
Ġgroo ves
Ġtremend ously
Ġsess ions
p ower
Ġdo ct
ir ds
Ġun answered
Ġinv is
Ġill ness
Ġpartic les
Ġconcer ning
Ġsweat ers
Ġs ings
Ġcast le
Ġformat ting
Ġintrodu ce
norm ally
Ġs ate
Ġco ord
Ġstr ict
class ic
look ing
Ġcand ies
in ity
Ġd ome
us ually
Ġrec order
ath an
Ġinf ect
Ġmo p
Ġmom s
Ġmicro s
Ġindic ation
Ġdad dy
Ġdeck er
Ġguid el
Ġspac ious
Ġpir ate
um n
Ġstar b
Ġsa il
Ġfin s
Ġstiff er
Ġpanc akes
Ġha ms
st ation
Ġreal izing
Ġrob ot
Ġgrom mets
g ue
in art
Ġm ute
ac ci
st icks
Ġhigh lights
Ġhus ky
Ġcirc ular
n ip
n els
Ġha bit
Ġy am
Ġj aw
Ġsu v
Ġtri angle
Ġspark les
Ġconfigur ation
ade quate
Ġinv al
istic ated
Ġrequire ment
Ġblock ed
Ġcommunic ate
Ġpolar ized
Ġoccur red
Ġo o
Ġm t
Ġfrequ ency
Ġow l
Ġrepurch ase
h us
i pp
n ies
p at
Ġth reat
Ġal t
Ġpr icy
Ġfe nder
ab y
Ġcop ied
Ġshut ting
Ġrob in
Ġdefe nder
Ġdew alt
Ġfib ers
h y
Ġb aker
Ġswe ep
Ġflash es
Ġactiv ated
Ġsurv iv
Ġclub s
Ġdeform ed
b one
l ife
Ġp acing
Ġto ny
Ġha log
ly n
enter taining
Ġcompet itive
Ġramb ling
Ġspat ula
Ġp k
Ġr f
Ġen emy
Ġle w
Ġwo ke
Ġsequ ence
Ġcanop y
n ic
Ġf el
if ies
Ġgo als
Ġjo in
Ġfoot age
Ġsquare s
Ġtel es
Ġinvis ible
Ġt t
Ġk in
Ġtas ks
Ġm f
Ġback ed
Ġunb ear
oc ular
Ġprepar ing
Ġcolumb ia
Ġunfl attering
Ġch at
Ġshe lls
Ġmis under
Ġstra iner
Ġanti que
Ġknot s
Ġarrange ments
f ar
Ġdes perate
Ġfl akes
Ġlin ux
Ġunivers ity
Ġcrow d
hus band
ic ian
Ġam ber
el ed
il ty
Ġmon sters
Ġhead ing
Ġproper ty
ising ly
Ġprogra mmed
Ġhistor ia
Ġdiagra ms
Ġc c
Ġst an
qu ately
Ġqu ote
Ġv iv
Ġty ing
Ġju icer
Ġtoss ing
Ġt a
il og
Ġdown hill
Ġsched uled
b urn
Ġm l
Ġp ony
Ġfl ann
Ġdec af
Ġev al
Ġpc s
Ġlatch es
b io
Ġth under
Ġemot ionally
Ġcrad le
d ays
e ach
ur able
Ġfo ll
ber g
Ġarm p
Ġmel ting
Ġscenar ios
j e
Ġto do
Ġsh aker
Ġam ps
Ġfew er
ber t
Ġdri lling
Ġdep ict
Ġpri ze
Ġbi king
Ġshare s
Ġinse ct
Ġchoo sing
b are
Ġs ust
Ġin appropri
th ink
ub by
Ġint ake
Ġcounter feit
Ġcham ber
g led
n one
Ġste er
d ress
in n
Ġst ich
Ġal tered
Ġfish er
Ġep ilog
Ġunders h
Ġstrateg ies
f ra
t urn
Ġchar ity
Ġexperi encing
Ġill eg
Ġmiss es
Ġmel ts
Ġloun ge
Ġdissapo inting
Ġphill ips
Ġdsl r
Ġenorm ous
m ate
v ille
Ġd ude
Ġho lo
de f
Ġaccompl ished
id ad
Ġread ily
Ġhead lights
Ġspr outed
Ġcat nip
Ġabsur d
prot ect
Ġyam aha
Ġh iding
Ġcan ned
Ġle ague
Ġpe ice
Ġadd iction
Ġdi vers
Ġsam ples
Ġphotograph er
Ġdocument ation
Ġl itt
Ġwe aves
un e
and es
Ġcomp rom
Ġret rie
Ġshif ts
Ġc ement
Ġp oodle
Ġchar lie
Ġcoun ts
p any
t astes
Ġfin icky
Ġcr ink
Ġclo g
Ġsle nder
Ġtv s
Ġcollect ors
Ġglo ck
ann ah
Ġguit ars
Ġhol mes
Ġaccom pany
Ġrestock ing
m ag
re y
Ġpr ong
Ġun used
Ġag ent
Ġinc andes
Ġclear ance
Ġste pped
he y
Ġb om
Ġdevot ional
Ġbi kin
Ġcold er
advert ised
in form
ra el
Ġchild s
zi pper
Ġcolor ado
Ġwho les
Ġorgan izing
Ġattract ed
Ġmild ly
Ġstrand s
Ġtic ket
Ġm erely
Ġfe b
Ġgr ac
Ġsl acks
Ġcons cious
Ġlead ers
Ġarch es
deli very
Ġflann el
b ling
Ġv ista
Ġad s
sound s
Ġinteract ions
Ġrapid ly
Ġsust ain
Ġs ake
Ġexc lus
Ġflavor ful
ann a
Ġbutter flies
Ġobs erv
Ġsimpl er
Ġinterm edi
Ġindepend ent
Ġis rael
ge ar
ph y
wh e
Ġbel ongs
Ġcond uct
Ġpract icing
Ġawkward ly
Ġcy cles
reg ular
v it
Ġfit ment
wh ite
Ġste ak
Ġsequ els
Ġgor illa
Ġdel ux
Ġmuff in
Ġkay ak
Ġand rew
Ġon s
Ġunder water
Ġvers es
Ġrom an
Ġfore st
Ġstock ings
Ġposition ed
Ġskill et
Ġtact ical
Ġp oured
Ġho ckey
ne eds
Ġmusic ian
Ġir re
Ġseal ing
Ġreli ably
Ġcollap sed
Ġunw ra
Ġcuis inart
Ġstarb ucks
w ind
Ġke lly
cri bed
Ġbag g
Ġswe ating
Ġscra pe
Ġded uct
Ġl umpy
Ġperf ume
Ġcru el
Ġg t
ra m
Ġsi g
Ġad am
Ġbooks hel
aut hor
Ġmove ments
Ġappropri ately
Ġnewsp aper
a ign
u ish
le ast
Ġam d
Ġprof anity
Ġappro ved
Ġreach es
Ġrot ation
ett i
Ġh ind
Ġam ple
il ton
Ġim ac
Ġiss ued
Ġdri pping
Ġdest ruct
Ġade quately
Ġali ens
b elt
Ġche er
Ġseason ed
Ġsold iers
Ġciv ic
Ġbless ing
Ġstool s
Ġbald acci
Ġa h
Ġin h
Ġpro ves
ul ations
Ġtr ading
Ġtri mmed
Ġcomple ment
Ġfabric s
Ġunbelie vably
om y
li o
Ġshi pper
Ġsol ving
Ġshred s
Ġreinfor ced
Ġfasten ers
e me
Ġg rief
Ġr ick
Ġsad ness
ord an
Ġsch eme
Ġop ted
Ġmountain s
Ġalph ab
ce nd
Ġr c
Ġrest rict
Ġconf usion
Ġdig s
Ġhistor ic
Ġsom ed
Ġepilog ue
Ġd ave
Ġfo ster
Ġra ising
Ġmod est
Ġele v
Ġpos ters
o dd
Ġapp et
Ġbr u
Ġra mp
Ġred em
Ġnet ting
Ġmagn ific
Ġmoist ur
Ġdevelo ps
Ġfo b
Ġspend s
Ġsilver ado
Ġpat ri
Ġkick s
Ġspecific ations
Ġphys ics
Ġdetect or
Ġtomato es
Ġm az
ent a
Ġmar io
Ġformat ted
Ġtransm ission
Ġconfirm ed
all ey
ven ge
ens ions
Ġins urance
int ment
Ġbulk ier
Ġscot ch
press ed
re nd
Ġl ing
Ġsho cks
Ġro ads
book s
Ġmail ing
Ġnephew s
Ġeager ly
Ġinj ury
Ġaust en
Ġle ap
Ġhard est
Ġguess ed
Ġbi en
Ġmud dy
Ġevol ution
Ġdelux e
c able
on ed
Ġat ro
Ġjo se
Ġimm ature
Ġop aque
Ġill um
Ġweap ons
Ġde an
Ġdis sol
Ġpost ing
Ġcamp aign
Ġbleed ing
Ġcos play
Ġinno v
Ġjenn ifer
Ġintermedi ate
z ona
Ġre new
Ġha bits
Ġcreat ures
Ġtrail s
Ġcream y
Ġwip ed
Ġinterf ere
Ġari zona
Ġp iv
Ġj ay
Ġtrans mit
Ġtur t
Ġvert ically
Ġtort ure
Ġpoin ty
Ġdo z
ord ers
light weight
Ġpitch ed
Ġwaff le
Ġacou stic
t ail
Ġp on
Ġcut outs
Ġprom ot
Ġf right
Ġp ause
Ġit unes
th orough
Ġe mma
Ġpre qu
and y
Ġgl ide
Ġcr ust
Ġsty ro
any one
Ġjohn ny
Ġclut ter
Ġrecy cled
Ġpunct uation
Ġb f
Ġj ake
um ph
Ġend earing
ol ves
Ġre use
Ġre aly
Ġk rist
Ġde gr
Ġampl ifier
Ġassoci ated
Ġhen ry
le ad
ff in
Ġcar amel
ather ine
Ġann a
Ġvib rate
Ġtransl ated
qu et
Ġro les
Ġspec ify
Ġdead line
Ġsomed ay
Ġsw iss
Ġpink y
Ġwebs ites
Ġcos met
Ġlew is
Ġinappropri ate
c at
e as
Ġm uted
Ġd il
th a
Ġbe loved
Ġas p
Ġag ing
Ġrel uct
Ġprov ider
Ġlin en
Ġstri ke
Ġaltern atives
Ġreserv oir
h ot
Ġth ong
Ġf athers
an as
ist an
Ġaw ard
ath etic
Ġsmell y
Ġloos ened
Ġmb ps
Ġthousand s
c ont
d i
Ġth or
Ġtri umph
Ġbas es
Ġhur ric
Ġpsycho logical
Ġresul ted
Ġjum bo
g us
Ġsp ikes
Ġsto le
Ġrem in
Ġcho king
Ġsold ering
Ġposs ibility
Ġfasc inated
Ġsoph isticated
Ġratt ling
1 50
s weet
Ġde but
Ġproduct o
Ġpat ients
Ġretail er
Ġliber al
j ud
Ġn erf
Ġfli ps
Ġlength y
Ġpartic ip
inst ructions
Ġpray ers
Ġnin ja
Ġappli ance
Ġpixel ated
Ġst all
Ġch a
am ing
Ġun predictable
Ġback drop
Ġpill ing
Ġstyro foam
Ġg imm
Ġbe verage
Ġle x
Ġsp it
Ġpe g
Ġhead light
Ġsing ers
Ġroll ers
Ġlif ts
Ġtechn ically
Ġgall ons
Ġwrench ing
Ġtread mill
Ġcarhart t
Ġm asc
Ġch lor
ted ly
Ġmod ified
Ġw reck
Ġn ieces
th ree
per haps
Ġyet i
Ġcons erv
Ġgir ly
Ġball et
Ġsleep er
Ġintell ect
qu is
Ġbr ides
Ġremo del
Ġpass word
Ġg n
Ġhot ter
Ġclos est
Ġcross ed
resp ond
Ġatmosph ere
m ight
Ġh atch
Ġd ug
Ġun z
Ġro de
Ġglad ly
Ġdv r
Ġdi ver
Ġtrans it
Ġer r
Ġlau nder
Ġhistor ically
Ġtrave lling
Ġp est
it is
ke ep
Ġlo af
Ġti pped
Ġcl ancy
Ġprocess ed
Ġfly nn
Ġabsor bed
Ġsqueak y
Ġbrook s
Ġrach el
Ġfe at
Ġcor por
Ġacc ents
Ġbrand ed
Ġrepresent ation
be y
Ġgu ilty
Ġcor respond
ang ular
Ġconvin cing
Ġmus cles
Ġpast or
Ġdisco very
Ġod ors
Ġblood y
Ġbin ocular
Ġtroublesho oting
Ġt u
Ġexerc ising
Ġveget able
Ġincandes cent
Ġpro ps
Ġfr iction
Ġdist ress
Ġstink y
Ġskim ming
Ġkitt ens
g ame
Ġb ach
Ġst akes
ld om
ren ce
Ġste via
Ġass orted
Ġest a
Ġgoof y
Ġo u
Ġd l
Ġlong est
Ġro cket
Ġthri ll
Ġauto bio
Ġshrink age
Ġflo ats
tr uly
Ġree f
Ġdynam ics
g ling
Ġli gh
be it
Ġmis placed
Ġper ry
Ġcli ent
Ġjohn son
Ġbull dog
Ġprop ag
Ġpsycho logy
Ġquil ting
Ġalphab et
Ġredem ption
b ased
Ġw iz
Ġb t
Ġg p
ro ad
Ġat least
Ġsli mmer
Ġste ven
Ġhum our
Ġratt les
Ġweal th
Ġre venge
Ġright s
edi a
Ġrem ake
Ġcreat ion
Ġintellig ence
Ġamateur ish
Ġmarvel ous
Ġbikin i
Ġh dd
ot o
Ġre mas
Ġbe ard
Ġpo ison
au d
aw are
Ġengine er
Ġnap kins
Ġscenar io
o st
Ġf ired
Ġhe x
Ġup beat
Ġpur ses
Ġsc attered
Ġstro be
Ġdinosaur s
Ġdoz ens
f al
gh an
Ġall ot
Ġdis cription
Ġdec ade
Ġoverp owering
Ġinconven ience
Ġagre ed
Ġn ud
Ġin puts
Ġsc out
Ġcr ic
Ġcr umbled
Ġprom ises
Ġfl aking
Ġdef ense
Ġatt raction
ol as
eri a
for ce
Ġtravel ed
Ġsharp ie
Ġcomb ine
Ġdefect ed
Ġrecomend ed
Ġaggra v
an cing
Ġmo ss
Ġti ger
ess ion
Ġfar ther
Ġadvert ized
Ġfeature d
Ġin adequate
Ġsh ri
Ġpro ce
Ġal beit
Ġcl ues
Ġra ins
Ġinv esting
Ġiron ed
Ġcance lled
fair ly
bare ly
Ġc ul
Ġl ane
Ġv iz
ish ing
Ġunder wire
Ġdepress ion
Ġflight s
Ġinflu ence
Ġbrut al
Ġsten cil
Ġbookshel f
in ent
Ġn b
Ġaw ake
Ġpain fully
Ġsend s
Ġvar ied
Ġdoub led
Ġcondens ation
Ġ 2
al ous
Ġle f
Ġcl own
oun ting
Ġmind ed
Ġgrind s
Ġess ays
Ġchalleng ed
Ġcrafts man
h ate
Ġv ice
Ġuns afe
Ġstap ler
or ic
Ġab and
Ġspoil er
Ġlub ric
r ich
Ġdis apo
Ġcle ared
Ġcor set
Ġgen e
Ġcur ios
Ġdr ums
Ġprodu cing
Ġshrink s
Ġanch ors
Ġhoo ver
Ġguidel ines
Ġi os
Ġk aren
Ġcou pl
os ition
1 2
Ġs q
Ġm ut
Ġmar ath
Ġmem or
Ġgre g
Ġflor al
bas ically
thorough ly
Ġremin is
f asc
Ġw ins
Ġread just
Ġcur ls
Ġsp ouse
Ġbox ers
Ġwin ning
Ġunders ide
Ġbod ies
Ġthro at
i as
o logical
Ġh ides
al ready
se ller
st ar
Ġse ldom
Ġstory lines
Ġres ort
Ġmust ard
Ġcur ling
Ġge or
Ġpark ing
Ġduplic ate
Ġprepar ation
Ġacad emic
Ġrhyth m
Ġi ced
Ġo val
ro s
Ġback side
Ġsuper man
Ġdra ined
Ġbri an
Ġfoot bed
Ġillustr ation
Ġinvol ving
Ġsnag ged
resp ons
m ers
Ġtri b
Ġbreat hing
fasc inating
ch a
Ġpro be
Ġtest ament
Ġkore an
l iter
Ġm itch
Ġsl ouch
Ġschool s
Ġbump ed
Ġwick ed
b ri
r us
Ġr ats
Ġbl ad
con nect
Ġstub born
Ġex agger
Ġgri ppy
Ġcookbook s
Ġf ps
Ġha v
Ġpu ps
Ġmark ing
Ġspl ash
Ġlam inate
Ġcomp ens
Ġke vin
ont z
he llo
Ġmotiv ation
Ġtex ts
Ġwil son
Ġhaun ting
Ġstil ted
Ġd or
Ġback light
Ġhi kes
Ġsl it
Ġtra ins
up id
Ġpac ific
Ġunbear able
Ġh mm
an ed
Ġun attractive
Ġpass es
Ġjack s
Ġtruth s
Ġcad dy
Ġf ist
ing ton
Ġir regular
Ġvis ibility
Ġstro ller
Ġglitch es
Ġcling y
Ġdou g
Ġimperfect ions
Ġc ind
Ġsh y
Ġup load
Ġcli ppers
Ġsub w
Ġsub sequ
Ġdep iction
Ġgam er
Ġm ant
Ġhorri fic
Ġinno cent
Ġsate ll
Ġlef to
ack ed
Ġcan non
Ġexp ed
Ġtouch screen
Ġcomm ut
Ġtang le
Ġp unk
Ġche e
Ġwater y
Ġgrand p
Ġdoub ts
Ġreli ability
tr ue
Ġrespons ible
Ġbuen o
rib ution
Ġplay station
Ġloo ses
Ġcup board
Ġess ence
Ġmass age
Ġpion eer
Ġgr ant
Ġdeal ership
Ġcomplain s
Ġconf orm
Ġweak er
Ġprocess ing
Ġsink s
Ġflashlight s
Ġinteract ive
Ġfor cing
Ġst im
Ġbr ushing
Ġz en
Ġcra mp
Ġcontro lled
Ġsus p
Ġresearch ing
Ġstraw berry
Ġroot ing
Ġhurric ane
Ġt p
Ġr on
Ġv ase
Ġcut out
Ġbra ided
Ġfunction ed
Ġlaw yer
Ġglow ing
Ġtempl ate
un like
Ġty po
Ġfil thy
Ġhor rid
Ġrat io
d one
Ġwh im
Ġbl ake
Ġwind ed
Ġcho ke
Ġtun ed
Ġspin ner
Ġsmud ge
Ġwhist les
z ed
Ġw reat
our s
Ġsl iced
Ġel vis
Ġclean ly
up date
reme l
Ġste llar
Ġye a
Ġdem ons
Ġdock ing
Ġrestaur ants
worth less
Ġdys on
Ġkle in
e ve
Ġj ag
Ġbr uce
Ġhor rend
Ġeff iciently
Ġwra pper
he a
Ġclick ed
Ġmal t
Ġmush y
Ġflesh ed
s light
Ġg a
Ġspe ck
ib ble
Ġsat a
Ġhook ing
Ġproof read
ye ah
Ġa very
Ġm es
Ġe ject
Ġwish es
Ġdisc ou
Ġmechan ics
Ġanxious ly
Ġhalog en
Ġt ester
ll as
Ġsh uffle
Ġun se
Ġcar ter
Ġac er
Ġent r
Ġlock er
Ġsou ps
char act
Ġvict im
Ġstoryte ller
Ġa ck
Ġd remel
Ġre lo
Ġe co
Ġda wn
Ġgrad ers
Ġemphas is
ut ter
ain ty
Ġtime x
Ġsc ents
Ġbit ing
Ġgr it
Ġcam c
bb ie
Ġleak age
Ġass ass
Ġexch anging
con y
Ġsquir rel
Ġsket chers
Ġdiab etic
Ġpron oun
Ġbel kin
Ġgra pe
Ġradio s
Ġplant ar
Ġtemp ted
Ġa ppoin
Ġcart oons
Ġfocus es
fr ont
Ġadm ire
Ġdisintegr ated
Ġorch est
Ġm ish
an ne
ke ys
Ġsh atter
Ġbl az
Ġsk id
Ġbunch ed
Ġhy br
Ġpor k
Ġban ter
Ġwit ness
Ġlum ens
Ġmagnific ent
z a
Ġdec iding
Ġsy m
Ġcush y
ball s
incred ibly
Ġcurios ity
Ġse per
ap en
un a
Ġcult ures
it ious
Ġunder st
Ġipad s
Ġstre ets
Ġchristian ity
Ġp t
Ġin n
Ġch ili
Ġco inc
Ġbl ed
Ġfre ight
Ġlate x
g ri
s n
Ġp vc
Ġwh ims
Ġun be
Ġoccup ied
Ġinterpret ation
t ub
y our
Ġthe ories
Ġd ong
ie ved
Ġpo v
Ġreplac es
Ġmod ification
Ġyellow ish
Ġshel ter
Ġinser ting
Ġmich igan
Ġdisconnect ing
batter ies
Ġpoke mon
Ġu m
Ġdis char
Ġv w
Ġsl ap
ys ter
Ġmess es
Ġmap le
Ġrecy cle
surpr isingly
Ġprequ el
f ather
j i
r ough
Ġd ainty
ci a
Ġleg acy
Ġsand ing
Ġhar bor
Ġweld ing
Ġoffic er
Ġine ffective
Ġc uss
Ġe h
ro l
Ġcan e
pl ess
Ġsl am
Ġapplic able
mes ter
Ġabsor bing
Ġwilli am
i ased
u gh
Ġtim ber
Ġcr uc
Ġimm ers
Ġunb iased
Ġfro g
Ġvend ors
Ġgad gets
Ġpref ect
Ġmyth ology
Ġcoco a
Ġb ou
Ġto gg
Ġe ater
ur ious
Ġun su
Ġev ident
Ġver ify
Ġjan et
Ġreorder ing
Ġchalk board
Ġlind a
Ġri b
Ġdetail ing
Ġdr own
Ġsal v
Ġage nda
Ġdisgust ed
Ġbuen a
Ġmoth s
Ġspig en
Ġconvention al
Ġb ot
Ġk od
Ġrep ub
Ġer ic
Ġess ay
Ġblur ay
Ġanticip ation
Ġrev is
Ġaustr alian
Ġsqueez ed
f ailed
m ination
n est
Ġth ou
Ġb isc
Ġno v
Ġed itions
Ġsub ar
Ġrequ esting
Ġpos es
Ġdies el
Ġlean ing
sever al
Ġst upid
Ġsh ack
Ġgu ine
uck y
Ġbra z
Ġmot ors
fy ing
Ġcompat ibility
Ġessential s
l ot
l amp
Ġg ory
Ġsh am
Ġas ia
Ġexce ed
Ġhead board
Ġgri lling
Ġfinger print
Ġduplic ates
Ġsubscri be
k ers
Ġd ach
Ġk ir
Ġk oh
Ġrepl ica
Ġra ined
Ġremo ver
Ġsmooth ie
Ġblend ing
Ġworry ing
Ġaccom pan
Ġspl inter
Ġgroo ve
def ective
Ġchlor ine
c ore
ep t
Ġfli ms
Ġval ves
Ġlam inated
Ġpropag anda
fal se
ly ing
Ġsu e
est ruct
Ġsp or
Ġinc ident
Ġsun sh
Ġdiv ider
Ġmarke ted
Ġgermin ated
Ġi ii
Ġw im
Ġs aus
Ġp df
le ft
ch air
Ġme ga
Ġexce ll
Ġdel ayed
ix ed
Ġappreci ation
Ġstri pe
Ġteen y
Ġdo l
Ġchick ens
Ġaccording ly
Ġmill er
Ġmotiv ated
Ġrive ts
Ġencoun ter
Ġintegr ity
Ġanecd otes
Ġstrict ly
Ġhams ter
stand ard
op rene
Ġsubar u
p riced
Ġbe zel
Ġch ime
Ġab ilities
Ġle nd
Ġbo bb
fort ably
iz ations
Ġsign ed
Ġmile age
Ġutil ize
c kets
p ill
Ġk ings
Ġdis ci
Ġdef ault
Ġmar ble
Ġdi ving
Ġprevent ing
Ġtor ch
Ġrender ed
Ġenthrall ed
f ers
w arm
Ġa ra
Ġre duction
Ġbu lly
Ġcon ne
Ġviz io
n ity
p os
s ion
ac o
Ġbo gged
Ġsl ider
Ġson ic
Ġel ite
Ġbelie ving
Ġyoung est
Ġmorning s
Ġkick ed
Ġbraz il
ed ge
Ġan at
Ġco h
Ġfr ying
Ġdis m
Ġsc ro
Ġcl aw
read s
Ġgra ms
Ġconvers ion
liter ally
Ġj ordan
Ġr otten
Ġcard igan
Ġble m
Ġinvol ve
Ġexpos ing
Ġan ger
we ak
Ġwar p
Ġclean up
Ġtra ined
ton s
Ġenter ing
cer tain
Ġadvent ur
Ġest ate
Ġflick ers
Ġren ting
Ġdom in
Ġvir us
Ġdiscolor ation
Ġtrib ute
Ġon ion
ul as
Ġsu m
Ġpaper weight
Ġslow ed
Ġcollect ed
Ġsold ier
Ġhy dro
Ġtong s
c ard
h ero
m int
re commend
Ġwe aving
Ġne oprene
Ġme llow
Ġle er
Ġpo etic
Ġad j
Ġsho ps
Ġend ure
Ġold est
Ġsa ppy
Ġver b
Ġincre asing
Ġdar ling
Ġtoler ate
Ġcole man
Ġdiag no
Ġrul er
Ġhorrend ous
h ib
i ac
Ġo le
Ġe a
Ġall ergy
br ought
Ġnor thern
Ġprop ane
Ġham ilton
Ġvari ation
Ġengross ed
Ġdiscus sed
Ġegypt ian
Ġintertw ined
c lo
Ġf as
ic op
Ġpro fit
Ġdefin it
Ġind estruct
arr hea
Ġflash y
Ġbrain er
Ġf ian
it ations
ar i
Ġr uff
sh und
Ġbelie ver
Ġmet ric
Ġaud i
Ġod ds
or ant
or ker
Ġr ome
Ġsu cc
Ġho bb
ish es
be e
be fore
Ġori ented
Ġdi arrhea
Ġpier cing
Ġsacrif ice
Ġinnov ative
Ġdach shund
M L
X ML
as m
Ġg oose
th es
act ic
Ġgo d
Ġadvert ises
velop ed
Ġdep loy
Ġglo bal
Ġboot ies
Ġtit led
Ġblend ed
fic ial
Ġpainting s
Ġsque aking
Ġs f
Ġb ry
ot ive
Ġsand ra
Ġfeed ers
Ġtun ic
Ġang led
Ġmoo re
Ġergon omic
Ġbinocular s
Ġguine a
ul k
Ġsp acing
Ġmuch o
Ġcl umps
Ġbunch es
Ġver se
Ġstrange ly
Ġscript ures
Ġb ins
Ġo reg
Ġr ude
Ġrecom m
Ġman ager
Ġsqu ished
Ġanticip ate
Ġhesit ation
Ġstraw s
Ġmur ders
Ġsky pe
Ġbarb ara
Ġunfold ed
Ġarrange ment
Ġoreg on
Ġbook store
il iar
Ġperf or
Ġkn uck
Ġhand held
Ġmis sh
Ġfilm ed
Ġarm our
Ġchew ers
Ġkick ing
fab ulous
Ġhomes chool
Ġlaure n
Ġcamc order
e h
k ill
Ġp uck
Ġcon gr
Ġhel icop
iz able
Ġdifficult ies
Ġbreak age
Ġremo ves
Ġbus hing
Ġpillow case
Ġchrome book
b right
Ġpl iable
il a
Ġle vis
li ghter
Ġinter ch
Ġed ible
Ġart istic
Ġimpro per
Ġfight s
Ġpunch es
Ġalmond s
Ġgh z
er ra
Ġg ummy
Ġre install
Ġshe en
Ġgr u
Ġdra ft
Ġav i
po sed
Ġfix es
Ġcat alog
Ġmer rell
Ġoverhe ating
Ġko ontz
Ġsubw oofer
Ġprot r
bo ots
Ġcho pping
Ġbeat les
Ġsmo ked
Ġboo ster
Ġken ned
Ġlu cy
Ġmaz da
Ġblad der
it ect
en n
Ġse perate
Ġrec on
return ing
del icious
Ġsar c
Ġkh aki
Ġcollaps es
p erson
Ġli on
ise x
app le
wash ed
Ġbene ath
Ġstat ue
Ġboun cing
Ġwaff les
Ġproport ion
Ġspor ad
t aking
Ġl atter
Ġre ed
Ġch asing
Ġcon jun
Ġpo em
Ġcr ashing
Ġdim in
Ġarch itect
Ġdong le
p se
Ġre attach
Ġpro pe
Ġbo iled
Ġsn apping
Ġres in
Ġmus e
Ġcharacter ization
Ġgra bbing
Ġrid ge
Ġdist ances
Ġdist raction
Ġfi ghter
Ġplant ing
Ġsher lock
f il
Ġsign ature
Ġbene ficial
Ġopt ics
Ġber ry
o ke
t ry
Ġd ating
Ġin qu
Ġy an
Ġph ase
Ġpres ence
Ġsort a
Ġpig s
Ġchamp ion
Ġspoil ers
cam era
Ġcorro ded
Ġpip es
Ġsquish y
Ġsh ining
Ġal arms
Ġnight stand
Ġpress es
Ġcal ming
graph ical
Ġnet gear
hel p
Ġpreach y
y a
on ts
Ġfe ars
au gh
Ġmin istry
Ġste pping
Ġge nder
Ġtherap ist
Ġuncom fortably
Ġfunn iest
Ġjess ica
b ot
Ġl ac
Ġl ent
Ġpro ph
Ġref orm
Ġmod ifications
Ġgener ator
Ġcance lling
Ġcrimin al
Ġbever ages
A I
E M
b en
b ows
ch rist
Ġfl ake
Ġimp r
Ġreplace able
Ġball ast
Ġbath tub
AI L
EM AIL
Ġs or
Ġd ans
Ġe ll
Ġun for
Ġad ams
Ġri bs
Ġpeo ples
Ġdr astic
Ġcall er
Ġpeel er
Ġma id
Ġtough er
Ġmisrepres ented
orig inal
Ġhybr id
Ġconjun ction
d ling
v est
Ġp ug
te ch
Ġext ent
Ġfil ament
Ġreve als
Ġplun ger
Ġrecl iner
Ġconne lly
Ġi cing
Ġinst ance
Ġlight ed
Ġaffect s
Ġhem med
Ġappli ances
Ġvul ner
p ot
Ġa er
Ġdam ages
Ġbi as
Ġtar gets
Ġaddress ed
gl ue
Ġredu ces
Ġ xt
Ġp as
Ġr ider
Ġdis pense
ck ing
Ġtr ace
Ġdri vel
Ġpres cription
exce lent
Ġspot ty
op ard
Ġcontinu ity
Ġspect rum
Ġcaut ious
o ple
Ġn ancy
ort on
Ġph ant
ting uish
Ġins ul
Ġjo sh
ex c
Ġgrad uate
Ġbang ed
Ġghost s
Ġjul ia
Ġtt l
w in
Ġsh aw
Ġal oud
Ġad min
Ġrel atives
po on
Ġview er
Ġdestro ying
Ġkore a
m ic
Ġb ough
Ġf are
Ġte es
Ġturn table
Ġadd icting
Ġinf user
Ġrock y
Ġkiddo s
Ġmarath on
Ġrepub lic
h is
h um
i pher
Ġk ara
Ġdiff user
Ġmom my
Ġass ess
Ġskim py
Ġken nel
Ġblind s
Ġscrap book
Ġkitt ies
g ift
Ġm ig
ll ey
Ġbare foot
Ġdoor bell
iet ies
Ġmagn ification
Ġlat in
Ġmisspe lled
or ie
oth y
Ġclean ers
sh irts
Ġsme ared
Ġsy no
some thing
Ġdocum ented
Ġrechar ging
Ġnavig ation
p ir
Ġin ject
Ġri ms
Ġem bo
Ġcap ital
Ġshar per
Ġnear by
Ġcount less
Ġbun gee
ane ously
Ġoper ates
Ġcre ased
Ġshred ding
Ġexplor ing
Ġreminis cent
t ight
Ġt s
Ġd ow
Ġy uk
Ġdis agree
Ġv in
Ġdes per
Ġdi verse
co p
Ġob ama
let te
con st
Ġbill y
Ġstation ary
Ġdump ed
Ġpaj ama
Ġhoo ps
lab eled
Ġmater nity
c ers
Ġs ir
er ent
Ġcost ing
gg ers
Ġdisc lo
Ġspec ies
Ġcontain ing
Ġimpro ving
Ġrefer red
Ġgather ing
Ġpiv ot
Ġf uses
Ġch ested
Ġse ars
Ġswe ats
Ġflow y
Ġansw ering
Ġdetach able
Ġeconom y
Ġvari ations
Ġpale o
Ġski ing
terri fic
respons ive
Ġre un
Ġre build
ad er
Ġr ural
Ġun opened
Ġrecommend s
Ġro asted
Ġsou ls
Ġdon ating
Ġvi be
Ġhy per
Ġding y
Ġdoct ors
Ġsatell ite
Ġt icks
Ġdo sent
Ġch ess
Ġgl uing
Ġres ident
ho les
Ġfoc using
Ġmas ters
Ġsandwich es
slight ly
Ġkenned y
b ars
h ose
Ġn ib
Ġapp lies
Ġlabel ing
Ġversat ility
Ġflatten ed
Ġrend ition
Ġfran ch
k ia
t es
ar ge
est ry
Ġfull er
Ġplan es
Ġrom p
Ġvol ts
Ġpot entially
Ġpod cast
Ġdeterm ination
Ġlux urious
Ġengra ving
Ġa ven
al a
Ġall e
Ġman ga
Ġdra ining
Ġcook ware
Ġlive ly
Ġseam less
Ġxx xl
Ġstruct ured
Ġmanip ulate
Ġunim pressed
Ġsett led
Ġf ought
ic able
ir able
Ġde cks
Ġcle ats
mo vie
os cope
Ġcur ly
Ġadjust s
Ġsweet ness
Ġmold ing
Ġgas kets
Ġaddress es
Ġtele phone
Ġimpl ausible
Ġsuspend ers
Ġfian c
Ġa z
Ġc affe
im a
Ġgl ory
ract ical
Ġscar ves
Ġscan ning
Ġnotebook s
Ġhaz el
Ġapocaly ptic
qu er
am ental
Ġpre jud
ab by
Ġhead aches
Ġsk ates
Ġcra ving
Ġsal ads
Ġanim ated
Ġaware ness
Ġencourage ment
comp ared
Ġcraw l
Ġparall el
Ġstan ley
h at
Ġt ense
Ġh art
Ġj ung
un able
Ġun isex
Ġun responsive
Ġfl ask
Ġdi apers
Ġcal orie
Ġrust ic
graph ic
Ġengine ered
Ġformula ic
Ġm erc
ot ics
Ġbe agle
Ġle on
Ġdv i
Ġelastic ity
her ent
Ġjose ph
Ġindestruct ible
Ġn ause
Ġbr oom
Ġinstruct ional
Ġrest s
Ġspr int
Ġkeyboard s
Ġmel ody
Ġimprove ments
Ġencoura ged
and el
Ġinst al
Ġjo gging
Ġshort en
Ġsur pass
com fy
log ies
Ġcompress ed
Ġmas ks
Ġack now
g ives
n as
p ool
Ġp arr
Ġk y
ous es
be an
Ġwar ren
Ġpartic le
Ġlink ed
Ġdem o
Ġblur red
bl ack
Ġbroad cast
Ġdum mies
Ġphant om
Ġa ka
Ġf red
Ġn ada
Ġv alley
pe ople
ass y
Ġcr um
do gs
Ġwhere as
Ġperiod ically
bu ilt
Ġemp ire
Ġpassion ate
Ġvill age
Ġsprink ler
Ġreluct ant
h ome
Ġb arr
Ġbe ck
Ġch ords
Ġj ug
Ġam mo
ine x
Ġsc ul
Ġpe ak
Ġrel ay
Ġkey pad
Ġfilter ed
arent ly
ork ers
Ġharmon y
Ġmurder er
b id
Ġa ce
Ġre do
Ġe po
Ġdis abled
Ġfl air
Ġarri ving
Ġtast eless
Ġgrand father
Ġem ily
Ġcra pped
Ġconsider ation
Ġsweet ener
Ġcatch er
Ġengage ment
Ġtac oma
fra me
Ġsusp ension
c us
Ġt art
Ġb our
Ġsh ears
the w
Ġno kia
Ġrem edy
Ġver ified
Ġcri mes
Ġdepress ed
Ġpunch ed
Ġcow orkers
Ġextend s
Ġconclus ions
rib ute
Ġdys functional
Ġgrandp arents
Ġfranch ise
d ied
s ive
Ġr ite
ps ided
Ġje alous
Ġaf ghan
Ġshif ting
Ġcomplex ity
Ġmart ial
Ġquar ters
Ġexplor ation
Ġf ate
Ġf rig
Ġl le
Ġg uts
Ġin ks
Ġch illy
Ġoff set
Ġsl icing
ex pensive
Ġvar ieties
che ck
Ġq c
Ġphr ase
Ġoak ley
Ġcaffe ine
Ġb age
Ġd dd
Ġre app
Ġcom ed
Ġmar oon
Ġmine craft
Ġtreat ing
Ġrot ors
Ġsod ium
t iny
Ġf ax
Ġe z
Ġprice less
Ġplay back
Ġcor ks
Ġblack out
Ġcollect ions
Ġpar ks
Ġcounter top
Ġreset ting
Ġirrit ation
Ġstack ed
Ġtextbook s
Ġwitch es
Ġcalib rate
Ġplum ber
Ġloun ging
Ġengra ved
Ġundersh irt
Ġg ou
Ġj as
Ġne il
Ġco ax
ain ted
Ġsc ifi
uit ous
Ġweigh ing
Ġlantern s
Ġcarp ets
r ather
w alk
Ġi p
Ġc ities
or ous
Ġp ap
Ġup stairs
Ġind ul
Ġmedium s
Ġdim m
Ġmor gan
Ġdisplay ing
Ġpat rick
fl on
Ġcro p
Ġportr ays
Ġmexic an
Ġaust in
Ġinsane ly
Ġrect angular
Ġemploy ees
Ġprofession als
inex pensive
c ular
c ards
l ings
Ġth a
Ġs age
Ġlo psided
Ġcon es
Ġcar bs
Ġown s
Ġfan atic
Ġsw apped
Ġcoff ees
Ġsequ ins
Ġchocol ates
Ġjam ie
Ġelectric ian
Ġham per
Ġprecise ly
Ġsinc erely
x x
Ġp uma
st ep
Ġan s
Ġcon vey
Ġsp aced
Ġunder whel
Ġatt ic
umb a
Ġincom pat
Ġscuff s
Ġarth ur
a very
b irds
z ero
Ġt ah
Ġand y
Ġe agle
Ġlo vable
ap or
Ġhe fty
Ġme g
Ġen ch
Ġdefin itive
Ġdrink er
Ġtail ored
Ġmanage able
Ġtick ing
Ġturt les
Ġon ions
Ġcom cast
Ġad op
Ġcont ribut
Ġpe ek
Ġcur led
Ġupd ating
Ġmoder ately
Ġanticip ating
Ġrespond ing
Ġphil ips
ano v
Ġexplor er
Ġlux ury
Ġinval uable
st ream
Ġse attle
Ġbu ggy
Ġpe ppers
ub s
Ġed c
Ġcoff e
Ġstri ped
Ġmich e
Ġirrit ate
Ġenh anced
Ġwarri or
Ġc ed
or ice
ul um
Ġway ne
Ġwall ets
Ġcomb inations
Ġmerch ant
Ġretire ment
Ġtaper ed
j et
Ġp ays
Ġex isted
Ġred es
Ġpast el
ho p
Ġexist s
Ġweigh ed
Ġdiv or
bul b
Ġobsc ure
Ġmiser able
Ġdown ward
Ġim ho
Ġfil ing
Ġcho pped
Ġmid night
Ġflavor ing
play er
Ġran ch
Ġspo ken
Ġcas io
Ġrabb its
Ġnecess ity
Ġnostal gia
Ġwreat h
Ġit ch
Ġover head
Ġreg ulator
Ġcons pir
Ġpower ing
Ġheart beat
Ġpin ched
Ġjewel er
Ġwip ing
ca ust
Ġnich olas
Ġholo caust
Ġretrie ve
c ur
Ġsh aving
Ġche ek
Ġte flon
Ġflash back
Ġself ie
Ġlunch es
log ist
Ġboun ces
mis leading
Ġhighlight ed
f ine
m ates
u ated
en na
Ġcustom ize
Ġforg iving
Ġine vit
Ġscream ing
m at
Ġw aking
Ġw agon
ri an
ri pped
lo st
Ġwater color
Ġnon stick
Ġobst acles
Ġo re
Ġc f
Ġn t
le ans
Ġout look
Ġrec ived
Ġfo ggy
Ġsuper hero
Ġint imate
Ġhu gh
Ġdut ch
over priced
Ġcell s
Ġvacuum ing
Ġdetect ed
Ġresem ble
Ġpuff y
v s
Ġe lli
Ġy um
Ġwh irl
Ġse mester
Ġrece pt
Ġshi h
Ġbul ge
Ġrock ing
Ġjam ming
Ġvent ilation
Ġauthentic ity
Ġmuff ins
Ġoverhe at
Ġjim my
rec ieved
Ġb is
Ġmu nd
ath a
co at
Ġpure ly
Ġinstrum ental
Ġfri lls
h aw
Ġa ired
Ġth ier
or gan
ind ing
Ġad ores
Ġmis lead
vious ly
eng u
Ġhum ble
Ġmac ro
Ġintro duct
Ġvictor ia
Ġdess ert
2 0
Ġre im
Ġbe eping
el a
ap h
est ic
Ġtime line
Ġun insp
li ps
Ġhead rest
Ġrep osition
Ġplan ter
Ġview point
Ġindic ating
Ġbrilli antly
Ġrepro duction
Ġsucce ed
Ġadventur ous
b an
Ġw y
Ġe ct
up on
Ġgra vel
Ġstud ied
Ġupgr ading
Ġze bra
Ġvillain s
Ġsaus age
ig ning
Ġrun ners
Ġcam ry
Ġcontro lling
Ġknowledge able
Ġvisual s
Ġunfold s
b rand
Ġo me
ot ica
Ġor leans
Ġun av
Ġover l
Ġfun nel
Ġsent iment
Ġinv ict
Ġtransfer red
Ġjer ry
Ġfool ish
Ġbrid al
eas ily
Ġconserv ative
all as
Ġwh ip
Ġsm ash
Ġkn ifes
Ġte va
iz ers
Ġperson a
Ġcred ible
Ġdoub les
app arently
Ġident ity
Ġcondens ed
Ġox o
Ġmort ar
Ġtid y
Ġugg s
Ġanat omy
Ġd iana
me l
Ġli ly
Ġwor ms
Ġse an
Ġsp le
Ġv oy
Ġche ers
Ġche cks
Ġwa ves
Ġcor rupt
Ġtim ers
Ġinstall s
Ġem br
Ġdry wall
Ġmer maid
Ġfaith ful
Ġexclus ively
help ful
ou lt
Ġpo inter
Ġpo inting
not e
Ġsme ar
Ġmag gie
Ġlearn s
Ġtun a
jo hn
Ġuneven ly
Ġcave at
p arts
nd e
Ġc s
it z
Ġfor ks
Ġle opard
Ġsho el
Ġcl int
Ġcard io
Ġer otica
Ġcoun ty
Ġtom my
Ġmer cy
Ġmaintain ing
Ġdevot ion
Ġvalent ines
Ġreh ash
Ġfas ci
Ġp engu
Ġy ield
Ġcom ical
ant ing
pe are
Ġmust ang
Ġmain e
fl ower
Ġcommand s
Ġax e
Ġscot land
d urable
Ġst umbled
Ġli z
Ġr ank
Ġdisc er
Ġgra vity
Ġring er
Ġob jective
Ġmat thew
Ġlic orice
Ġoverhe ated
Ġsau ces
Ġker nels
Ġaesthet ically
Ġappoin t
Ġtogg le
Ġinterch ange
Ġh ast
ul u
Ġover looked
Ġz umba
Ġinv o
Ġcour ses
rid iculous
ik o
Ġcontem pl
f ia
i w
r ous
Ġst u
Ġwh isk
Ġco z
Ġgl ows
Ġsec uring
Ġtra mp
Ġann oun
Ġself ish
pack aging
oc r
Ġban anas
Ġradi ator
Ġgru esome
Ġced ar
Ġen force
ick ed
Ġsoooo oo
Ġscrub bing
Ġm ash
Ġh ills
Ġd allas
Ġtw e
Ġdisc re
Ġanten nas
Ġfif teen
Ġber ries
Ġapocaly pse
Ġcosmet ic
Ġto asty
Ġse ag
Ġr ates
Ġde bbie
Ġsp ind
Ġhand set
Ġfin er
Ġfinish es
Ġsus pic
Ġcircum ference
Ġwiz ard
Ġara b
r an
z ers
Ġd up
Ġpo king
Ġeas tern
Ġad ap
Ġexce eds
Ġdel ta
Ġgam ble
Ġban ks
Ġvir gin
Ġsqueez ing
Ġbubb led
Ġpj s
Ġnostal gic
Ġdiscard ed
3 0
Ġd ings
ar on
ic an
Ġsh ams
Ġqu inn
Ġfind er
Ġsim on
Ġsw ings
Ġste th
Ġspr ung
Ġboot y
Ġpillow cases
Ġhy d
Ġshakes peare
charact ers
Ġp aren
Ġh t
ur ies
Ġte ams
Ġfl atter
Ġsl ows
Ġquick en
Ġsad d
Ġhop eless
Ġprin c
po ds
Ġlay ering
Ġabsor bs
Ġweld s
Ġbran ch
stra p
Ġgm c
Ġgrat uitous
Ġsupr ised
o x
er ved
Ġd ental
Ġk ra
Ġthr ott
we ird
Ġsw ipe
Ġsol ves
ls on
Ġsy l
Ġhd tv
Ġpic nic
Ġbump y
Ġdistract ed
Ġprogress ed
Ġuk ule
Ġjul ie
Ġembroider ed
Ġadop ted
h ist
Ġnot icing
ig o
Ġte ap
Ġplastic s
Ġmar ie
Ġcomm ute
Ġcro s
Ġdiscover ing
Ġax le
Ġpul p
Ġcitiz en
b ol
Ġm ama
Ġrec essed
Ġsc ented
Ġcool s
Ġsub par
Ġtrack er
Ġpump ed
Ġrock er
Ġknock ing
Ġfirm er
Ġinfl atable
Ġunsatisf actory
Ġunbe atable
1 00
h ated
l est
u el
Ġa ids
Ġc av
Ġh annah
Ġse nder
Ġv ince
Ġend ured
air y
Ġaut ism
Ġav o
Ġgri ffin
Ġele ven
Ġdiss ip
Ġbur ied
ga e
ona ld
Ġolymp us
Ġautobio graphy
g lasses
Ġa che
Ġp bs
Ġwh ine
Ġal gae
Ġdid n
Ġde x
the arted
Ġche at
Ġhigh lighter
Ġbeat en
Ġdownlo ads
Ġmattress es
Ġsole ly
Ġsuff iciently
Ġsore ly
Ġrecy cling
Ġment ions
Ġcud dly
Ġatro cious
Ġillum ination
Ġit ching
ere lla
Ġins ides
Ġshow ers
Ġwar y
Ġmight y
Ġgra ins
Ġcra ig
Ġrot ates
Ġlunch box
Ġscra ping
Ġjun iors
Ġhide ous
Ġtil ted
Ġregister ed
Ġstatement s
Ġmalfunction ing
Ġcali ber
Ġbrow sing
Ġt ink
Ġc en
Ġand erson
Ġg ary
Ġan c
Ġse ating
Ġcan ad
ist ration
Ġhard y
Ġspe lled
Ġdec ides
sol ut
no ld
Ġrid ges
Ġsepar ation
Ġbend able
Ġcream er
ato graphy
Ġbrief ly
Ġcarr ots
f our
Ġi on
Ġhe ather
Ġpr d
Ġcon ve
Ġun l
Ġun aware
Ġhi re
Ġmon ot
Ġfast ened
Ġmar ry
Ġcli pping
he nd
Ġla ura
Ġhd x
Ġwrist band
Ġsuff ers
Ġprevent ed
des ign
Ġpine apple
Ġluc as
Ġcruc ial
Ġreim bur
Ġfasci itis
h l
Ġh ugs
Ġin o
qu in
Ġexp ose
Ġbet ray
Ġro pes
Ġrem ix
Ġcap ris
Ġrechar ged
Ġscan ned
hand le
Ġconce al
incred ible
Ġfeat uring
Ġembo ss
Ġmund ane
Ġp itt
Ġd airy
en ix
Ġsh abby
Ġco ils
Ġr aces
Ġfr inge
Ġv a
au pe
Ġsw ift
Ġble eds
Ġboot leg
ron ics
Ġund o
Ġunexpected ly
Ġsqueak s
Ġsumm ers
Ġmarsh m
Ġcorpor ate
anov ich
Ġt inted
Ġc ough
Ġsi p
Ġcon ference
Ġman if
Ġhard core
Ġro bb
Ġsl avery
Ġcost um
Ġdra pe
Ġmag enta
Ġtrans fers
Ġfore head
Ġattract s
Ġcalend ars
Ġalex ander
Ġry p
Ġstorm s
Ġfuss y
Ġtramp oline
c lock
Ġsc al
Ġmis al
Ġer rand
Ġsand paper
Ġmulti player
Ġtail gate
Ġdiab et
Ġsurviv or
Ġhelicop ter
1 1
a pper
o pher
Ġc us
Ġh yster
Ġn c
as er
le e
ac ord
Ġme ats
Ġdes cent
Ġhard back
Ġwar ms
pro f
Ġsurf ing
Ġbur lap
Ġpol ka
Ġtack le
Ġcompre hend
Ġgig antic
Ġdread ful
Ġdisassem ble
Ġfright ening
Ġepo xy
Ġincompat ible
Ġn as
es is
Ġr ays
Ġen able
Ġrec reat
Ġpart ly
Ġshoot er
Ġconfig ure
Ġsymbol s
c up
r ub
Ġt aupe
Ġl ith
Ġto l
Ġin ver
Ġch ai
Ġpo nder
Ġpo pper
ff ee
mo b
ph oto
Ġcor rupted
Ġsl ats
als a
ced es
Ġbir ken
Ġking dom
Ġland ed
Ġtransfer ring
Ġgrad ually
ett es
Ġdigit izer
Ġtimber land
Ġthe ology
ic ide
Ġun pl
Ġmar s
Ġfoot print
Ġdev ast
Ġant ics
Ġcow orker
Ġpix els
Ġwatt age
Ġtermin als
Ġwaaa ay
Ġcinem atography
Ġconsequ ences
Ġcind erella
s y
Ġd b
Ġbe lla
Ġsi erra
Ġhe ft
ist ent
Ġday care
ip es
Ġamazon s
sh op
os is
arn ed
Ġweekend s
Ġexpand able
Ġdav is
Ġwat ers
Ġfulfill ed
Ġkink s
Ġtrend y
Ġharr is
Ġtitan ium
Ġveter an
Ġou ght
Ġavo ided
a ved
h em
u cent
Ġn ar
Ġsi bl
Ġfil ed
Ġpaper white
Ġsil ence
Ġdu o
Ġcompare s
Ġtires ome
Ġexcelent e
Ġthrott le
Ġsibl ings
Ġs r
Ġab ras
itch ed
Ġkitchen aid
Ġcoun se
Ġju icy
oc ative
Ġbrew ed
Ġsav vy
Ġinvestig ation
Ġrevel ation
Ġdepict s
Ġsyno ps
p age
s pr
Ġb orders
ac ies
Ġj aws
Ġsm iling
Ġsn oo
Ġev anovich
ime ter
Ġtransl ucent
Ġwip ers
Ġtiss ues
Ġchron icles
Ġwrest ling
Ġinvict a
Ġse ated
un te
Ġsc ales
Ġinterest s
de ad
Ġsuper market
Ġproblem atic
io let
Ġpar acord
Ġshut ter
Ġtap estry
Ġtarn ish
Ġargum ents
Ġconspir acy
f lo
Ġd ifer
Ġle ans
Ġpo se
Ġret ina
Ġbo ats
ond ition
Ġacc idents
Ġcam i
Ġper m
Ġvol unte
Ġteach ings
Ġsold ered
Ġdest ination
Ġpanc ake
Ġassign ment
Ġreb el
Ġrp m
Ġs ill
Ġu h
Ġk ite
Ġcor s
Ġreal ism
Ġra ven
Ġweak ness
Ġmeet ings
Ġcraf ting
Ġdiscuss ions
Ġquil ts
Ġscul pt
Ġw ack
Ġv cr
Ġstar ters
Ġcl aire
Ġext ensions
most ly
Ġter rain
Ġori g
Ġmus cular
Ġlab rad
Ġxl arge
Ġsepar ates
Ġpet als
Ġsilver ware
Ġsteam ing
Ġeduc ated
Ġeconom ic
dro pped
Ġado les
Ġna ive
Ġinsect s
bri lli
Ġwhims ical
Ġem bell
Ġswe e
Ġconsider able
Ġproject ion
Ġimpro ves
Ġruss ia
Ġnud ity
3 2
b rew
c ups
Ġt ues
ic ians
ri x
Ġpl umb
Ġed ging
Ġexpress ed
Ġtermin al
Ġhorizont ally
Ġspac ers
Ġcalib ration
Ġmalfunction ed
bott om
Ġmf g
Ġr uth
Ġsp ong
Ġbec u
Ġput ty
Ġcar l
Ġunder lying
Ġbelie ves
Ġproper ties
ru ption
Ġlifes pan
Ġnes presso
Ġt ai
Ġp oof
Ġn orton
Ġbe eps
Ġst ake
Ġex quis
Ġen em
Ġsa iling
Ġair soft
Ġenter ed
Ġlaugh able
Ġsequ ences
Ġgau ges
Ġelimin ated
Ġtro pical
Ġfest ival
Ġdiag n
Ġsteth oscope
Ġukule le
Ġsynops is
Ġd ane
Ġsh ore
se nd
Ġover rated
Ġmis labeled
Ġacc idently
Ġfinger n
Ġscra ped
er ry
Ġti pping
Ġfr is
Ġsho pped
Ġbr oth
Ġbox ing
Ġwind ing
Ġgra m
Ġpill ed
Ġconven iently
Ġneg atives
Ġexist ence
Ġmich a
Ġvisual ize
Ġcin ch
Ġproced ure
Ġcuss ler
se at
Ġdes p
Ġbr ows
Ġcar ib
Ġro ss
Ġsn iff
Ġsupp er
Ġexcellent ly
Ġint im
Ġmagn ifier
Ġmer cedes
Ġminimal ist
Ġsoph om
Ġcommit ted
Ġloyal ty
Ġstew art
Ġkod ak
d ire
Ġm au
Ġis l
Ġwh ining
me lon
Ġal an
Ġdra pes
Ġchrist ie
Ġty ler
cess arily
Ġsam pl
ym es
Ġident ified
Ġexpand s
Ġbatch es
Ġcrisp y
Ġbubb ling
Ġmosquito es
Ġligh thearted
a e
Ġa pt
all ows
et e
Ġch anger
Ġcomp ost
ink s
Ġel mo
Ġflo ss
Ġaff air
Ġrecogn ition
Ġrepres ents
Ġteap ot
prof ess
p ens
Ġf bi
Ġdog gie
Ġcrack er
Ġswe ll
Ġmod ule
Ġfire s
Ġfloor ing
ho le
Ġru ger
app ears
pa id
Ġcontr ary
Ġconcent rate
g iven
Ġt zu
ar o
ic orn
gh etti
Ġat v
Ġag atha
char ger
Ġwhis per
Ġblaz er
Ġwim py
Ġkara oke
Ġw right
is ms
Ġpl odd
ud ge
mm et
Ġair ing
Ġgra vy
Ġdy stop
Ġhall way
Ġtheat re
Ġrf id
b ull
Ġi dle
re ction
Ġc atherine
Ġsp ain
ment ed
Ġcl aws
Ġra ining
Ġnight light
Ġrest ore
Ġgra ve
Ġsub mer
pro v
Ġfilter ing
Ġstat istics
Ġexpand ing
Ġvict ims
Ġdeb ating
Ġaim ed
Ġspa ghetti
Ġnutrition al
Ġl t
Ġlo gs
Ġpl ating
Ġfr yer
Ġover flow
Ġwater melon
Ġform ing
Ġcris is
Ġsket ch
Ġtut u
Ġpell et
Ġrevers ible
Ġosc ar
Ġinterfer es
Ġintellect ual
Ġunpl ugging
d on
Ġp ave
st arts
Ġun icorn
Ġcomp ound
Ġwa aay
Ġins ult
Ġmin nie
Ġair flow
Ġland ing
Ġredu cing
Ġsket chy
Ġencoura ges
Ġdang ling
Ġestablish ed
Ġsunsh ine
Ġre illy
ad ays
Ġpo ker
Ġher b
co vers
Ġloud ly
Ġcomb ines
Ġduck s
Ġteles cope
Ġunwra pped
b able
v ol
Ġt j
re x
Ġdis tinguish
Ġlight ening
Ġhel en
de c
Ġcho pper
Ġgre ens
Ġrepet itious
Ġconv ince
Ġlic ens
Ġaccommo d
Ġcous ins
bas ic
Ġacad emy
Ġlone ly
Ġsnor ke
Ġamb ient
m atched
Ġd art
Ġe go
Ġsu g
ag an
Ġhow ard
Ġnow adays
Ġsl ack
wor thy
Ġsecond ly
Ġcool est
Ġbill ion
Ġtang les
Ġwild er
Ġflu ores
Ġwrench es
Ġpud dle
Ġillumin ate
Ġgee k
Ġp are
it ate
Ġst ing
ri el
Ġj ill
Ġv ig
ore t
cri pt
Ġacc ustom
Ġgra ham
Ġcal idad
Ġfilm ing
Ġtest im
ane ous
Ġstri pping
Ġbull ets
hol ster
Ġspell b
cons ider
Ġarmp it
f ake
r un
Ġs aint
Ġl inger
Ġbe th
Ġco d
if ty
Ġdown right
Ġem it
Ġstop ed
Ġoh io
Ġaccident al
Ġpeace ful
Ġhaw ai
Ġdispos al
Ġclich es
Ġatl as
v ac
Ġm ates
Ġe lf
Ġy ep
Ġti er
Ġimp at
Ġz ag
Ġwarm ers
Ġdeter gent
c id
Ġw ik
it ems
Ġqu ail
Ġun con
Ġgo sh
Ġsc or
Ġgl am
ph ie
Ġair line
Ġcustom s
Ġcomfort ing
Ġcoun ted
Ġnic est
Ġrh ymes
plug ged
Ġlip stick
Ġcit rus
Ġhighlight ing
Ġcompos ition
Ġilleg al
Ġgeor gia
Ġmissh apen
Ġw th
Ġg y
Ġon going
Ġli ed
se ls
Ġr t
Ġk ent
Ġno zzles
Ġback ward
ink y
Ġsa x
Ġtri pping
Ġz uc
Ġchrist opher
Ġcond o
Ġcal vin
Ġlay ered
he art
Ġthri ft
Ġran cid
Ġshrink ing
Ġjes se
Ġwon ky
Ġtwee zers
Ġgimm ick
Ġcanad ian
Ġc reek
Ġh ound
Ġli mp
Ġsh aky
Ġad ored
li kable
Ġback story
Ġstr ide
Ġel abor
Ġlab s
Ġpat ent
Ġrespons ibility
len e
Ġcontr ad
Ġhorn s
Ġreact ions
Ġreput able
f ig
i ries
l aim
ct ic
Ġret ention
Ġfing ert
Ġbur r
Ġwestern s
diff erent
Ġobserv ations
Ġbach el
Ġfluores cent
v d
Ġt apping
Ġre ver
ce lain
orm s
Ġcomple ting
ric ia
Ġra v
Ġra ke
ins on
su ppo
Ġev idently
Ġgre ed
Ġbackground s
Ġclin ical
Ġcoup on
Ġmes mer
Ġa me
Ġb ing
Ġp ent
Ġover done
Ġro y
Ġshri mp
Ġcl one
ail able
Ġbeing s
Ġra gs
Ġem er
Ġfoot wear
Ġimm ig
Ġseal er
Ġbind ers
Ġfalse ly
Ġash ley
Ġunne cessarily
Ġtax es
Ġdevot ed
Ġshad ows
Ġlifes aver
Ġawe ful
Ġaggrav ating
Ġjung le
Ġenforce ment
Ġlith ium
t or
Ġa i
Ġf ave
Ġc elt
as ion
Ġch ap
Ġstr ay
Ġannoy ance
rid ged
Ġgre et
Ġtal ents
Ġdecor ated
Ġspl its
Ġq t
Ġdiv ine
Ġfat ig
Ġpk g
Ġerrand s
Ġmicha els
c ence
Ġch an
pl ain
Ġgas oline
Ġpor celain
Ġspl atter
Ġbuff alo
c ity
c cess
o ph
z es
Ġ 5
Ġa k
Ġm ast
Ġen abled
Ġmu m
Ġwear ings
Ġfin ale
gin s
Ġshort ened
Ġchildren s
Ġbio s
Ġanth ony
s k
Ġa u
Ġc ater
Ġha ired
Ġch ubby
Ġsu z
Ġshe ep
Ġbl at
Ġbig gie
Ġsuper glue
Ġprom ote
Ġmind ful
Ġadh es
Ġremas tered
Ġdesper ately
Ġdimm able
Ġti em
Ġle o
Ġrest ric
Ġgreen ish
Ġdram atically
er pt
Ġthe ft
Ġpl as
il er
im po
ud ed
Ġcar n
Ġinf inity
Ġbreak able
Ġexc erpt
Ġbed side
Ġport ability
Ġann ie
Ġinv ention
Ġsport ing
Ġlog os
Ġbump ers
Ġpun ish
Ġvibr ates
Ġfoll ett
Ġs assy
Ġf ract
or se
Ġp g
Ġj ac
el ing
Ġsl anted
Ġscra per
Ġcompet itors
Ġvari able
Ġeras ers
Ġcrum pled
p ure
re pl
Ġti ene
Ġde hy
Ġim pe
Ġpe e
Ġlet down
Ġroom ba
Ġve y
co st
gle ct
Ġaudio book
tr usive
Ġzip lock
Ġshield s
Ġcommit ment
Ġrefresh er
Ġmalt ese
Ġbetray al
st atic
Ġti ff
Ġall ey
Ġsi ri
Ġcheap o
Ġaw fully
Ġsw earing
Ġmind less
Ġdece ption
Ġrac ist
Ġevol ved
Ġmistaken ly
Ġgab riel
Ġsubsequ ent
s ucks
Ġi an
ie lle
Ġen s
ant o
Ġph o
Ġpe aling
Ġins uff
Ġsoft est
Ġdan ielle
Ġseam lessly
Ġtransl ate
Ġpolish ing
Ġrive ted
Ġcommut er
Ġdex ter
Ġenem ies
Ġzuc ch
s aid
Ġm ere
at ement
ce ption
Ġpro d
Ġne glect
Ġwork able
Ġvis its
Ġfut ur
Ġmen us
by e
Ġmaster ful
Ġgrocer ies
Ġseg ments
Ġgroom ing
Ġfigur ine
Ġfranc isco
Ġentr ance
Ġdisci pl
brilli ant
Ġtues day
Ġcomp r
Ġlar ry
Ġcur se
Ġtap ing
Ġlam b
Ġunw anted
Ġphilosoph ical
Ġmarsh all
Ġtattoo s
Ġunav ailable
Ġde af
am iliar
Ġv es
Ġste aling
Ġtouch y
Ġint el
Ġdirect ing
Ġsqu at
Ġcred ited
Ġshot gun
Ġshif ters
Ġcrit ters
Ġpepper mint
Ġveget arian
Ġsmud ged
Ġcock tail
Ġdissapo intment
Ġdefinit ly
Ġm k
Ġd oo
Ġche ating
Ġhard ships
Ġsw ed
Ġgrand pa
Ġappear ing
Ġprocess es
Ġrele asing
Ġtre ble
dri ve
Ġhall mark
Ġmitt ens
Ġdeduct ed
st ay
Ġmo les
Ġpro long
Ġde od
Ġbo bby
Ġhand book
Ġbreak down
Ġrest ing
Ġey el
Ġposition ing
Ġenv ision
Ġmath em
Ġrhy me
Ġpromot ion
c ord
h ar
Ġsi ms
ag in
Ġcar ving
Ġwrink ly
Ġban ner
tit le
Ġdefl ate
Ġintegr ated
Ġreject ed
r ome
Ġus ps
Ġworking s
Ġsim ult
Ġz oo
Ġquiet ly
Ġrend ers
Ġply wood
Ġdiscou ra
Ġprinc ip
Ġzucch ini
d ish
f are
s oooo
Ġb id
Ġab usive
ag ne
Ġbright ly
Ġnum b
Ġbur gers
Ġash es
Ġconver ted
Ġprejud ice
c ion
Ġn om
Ġe acute
Ġmy st
ent ious
Ġch ief
im o
Ġclo cks
Ġincl ined
ord ing
Ġmatch a
Ġcapt uring
Ġdem ocr
hand y
Ġcelt ic
d led
g own
t ake
u ity
Ġm ul
Ġp el
Ġst ages
Ġmu dd
Ġfast ener
Ġair craft
Ġdr ank
Ġcand id
Ġspeed o
Ġeffect iveness
Ġrepair ing
Ġspir its
Ġloos ens
Ġcarol ina
Ġaccompany ing
Ġvulner able
Ġmisal igned
impo ssible
o llen
le vant
Ġe e
ie val
Ġeas el
Ġhead lamp
Ġps p
Ġmaintain s
Ġribb ons
c ap
i ate
n uts
it ives
il st
Ġke to
Ġcar pen
bs on
Ġsw ollen
Ġlangu ages
fill ed
Ġtact ics
Ġpip ing
Ġunsu ccess
Ġsnorke ling
e lling
Ġco ps
Ġfr oth
Ġho ot
Ġlarge ly
Ġstr uck
Ġfast est
Ġmust y
bed ded
Ġnight gown
Ġhandle bars
Ġfail ures
Ġoper ations
Ġavoid ing
Ġtrad er
Ġgirlfriend s
Ġoverwhel med
Ġsymp athetic
Ġargum ent
m ith
er ie
Ġm cd
Ġd us
al ine
Ġgood ies
Ġqu its
Ġde ceived
Ġv ita
Ġhel ium
get ic
Ġcart on
Ġstain ing
Ġblo ss
Ġcoun ters
Ġdestro ys
wr iter
Ġpour s
Ġclever ly
Ġdecre ase
Ġi l
Ġs z
Ġf ries
Ġj us
Ġme ters
Ġwell s
Ġsp ook
Ġpre form
per ed
Ġopen ers
Ġinformation al
Ġcra m
Ġbar rier
Ġdev oured
Ġjack ie
Ġheadband s
Ġm ics
at ics
Ġd ill
it udes
Ġbl unt
Ġman go
Ġworks hop
Ġcur s
Ġcopy right
Ġmed ieval
Ġpet e
met al
Ġrot ted
Ġdy ed
Ġvegg ie
Ġtoler able
Ġconflict s
Ġner ve
Ġincorpor ate
Ġoo ps
turn ed
Ġintroduct ory
Ġaccustom ed
Ġsh ear
Ġse iko
Ġjust in
Ġbl ot
Ġacc um
Ġclear ing
rid ge
char ges
wr ite
Ġwarning s
Ġconsum ption
Ġtransport ing
Ġisland s
Ġfrost ing
Ġeval uate
s en
Ġf usion
le aks
Ġdo able
Ġfe es
Ġv ans
Ġrun ny
Ġtrue ly
Ġgau dy
Ġtex ting
Ġmaintain ed
Ġprogress ion
Ġscrewdri vers
Ġrect angle
Ġdiagra m
Ġstich ing
Ġorchest ra
Ġhawai ian
Ġt x
Ġs ang
Ġl ump
Ġsc and
Ġrub y
Ġpull ey
Ġent ries
Ġsand ed
Ġweird ly
Ġrefer ring
Ġtechn ician
Ġresem bles
Ġm ia
Ġr ising
Ġdoes n
Ġab bey
Ġdis gr
are st
Ġher bal
Ġdy lan
Ġba ff
Ġca fe
cr acked
Ġfunn ier
Ġcitiz ens
Ġunf amiliar
Ġwholes ome
Ġrevis it
Ġsporad ically
Ġpave ment
f inder
Ġs ans
Ġha h
Ġr ma
Ġif fy
Ġbl a
Ġfl ames
Ġsoft ener
Ġcrack ling
install ation
Ġexcess ively
bag s
Ġswive ls
Ġstro kes
Ġvary ing
Ġirre levant
f ied
Ġth y
Ġh ig
Ġh ank
Ġto oooo
un belie
Ġcar ab
Ġcou pled
Ġstrong est
Ġlow s
Ġrad ar
Ġstraw berries
Ġsag ging
Ġtour nam
Ġgran ola
Ġmosquit os
Ġstereoty pes
Ġbom bs
Ġjag ged
Ġmuse um
Ġf ame
Ġg ums
Ġch andel
Ġmo phie
Ġtr ous
so ld
Ġeven ings
Ġday time
itch ing
Ġes per
Ġind uction
Ġcap ri
Ġspecial ty
Ġfur ry
Ġeye lets
Ġmad den
Ġdiv ided
Ġbuff s
bul bs
Ġproced ures
re view
Ġne lson
Ġgood bye
Ġen amel
pl ot
pl ant
Ġmed al
Ġarch er
Ġsnow y
Ġenv y
Ġmotiv ational
Ġgran ite
Ġinspect or
Ġutens il
Ġdeterior ated
Ġsalv age
Ġdans ko
Ġseag ate
m us
Ġm h
Ġm ak
Ġm owing
it age
th rough
Ġun e
Ġgu ilt
Ġsli me
Ġunderstand s
Ġbother ing
Ġmiss ions
Ġdom estic
Ġec co
christ mas
Ġdiscer n
b aby
e zu
Ġs alsa
Ġn aut
Ġd ian
Ġun likable
Ġdown stairs
im er
Ġpe ices
Ġgr out
Ġfriend ships
Ġda isy
ma ids
Ġstri kes
Ġbackpack s
Ġfem ales
Ġger ber
Ġrot or
Ġmal es
Ġspar se
Ġcompliment ed
Ġarthrit ic
s pect
Ġa irt
in ally
Ġst air
em aker
Ġcan ning
Ġab solut
Ġun he
Ġche v
Ġleg ible
Ġtyp ed
Ġpop ulation
Ġimpro v
Ġapplic ator
Ġautom otive
Ġven ezu
Ġchron ic
Ġrelie ve
Ġcontract or
Ġparen ting
Ġlo re
the ir
Ġsm ar
Ġsm iles
Ġby pass
Ġsweet en
Ġaccept ance
Ġtrad itions
Ġted dy
Ġfortun ate
Ġpul se
Ġacqu ired
Ġdol ph
Ġinvo ice
profess ional
t ie
Ġout gr
Ġsl ant
ne ck
Ġrel ates
Ġpri est
Ġbuild ings
Ġplant ronics
Ġreflect ed
Ġske w
cl aim
Ġdisg u
Ġforg ive
Ġemerg encies
Ġvictor ian
Ġgrid dle
Ġimpl ies
wa ist
Ġunsatisf ying
Ġfigur ines
Ġscro lling
Ġafghan istan
Ġvirgin ia
Ġino per
Ġdifer ent
Ġbecu ase
f ting
Ġw akes
Ġse ep
Ġcan n
and o
Ġstr anger
Ġacc ounting
bo k
Ġsk ins
Ġburn ers
Ġdist ant
lus ter
Ġinvol ves
Ġpowder ed
sole te
Ġemp athy
Ġadapt ation
Ġblink s
ob viously
Ġinj ured
p rene
Ġw avy
Ġf ert
ed ing
Ġd m
Ġnot ified
ic i
Ġbe g
Ġsh uff
Ġj ade
Ġho g
ist ine
Ġaw ards
Ġsl its
Ġimp ractical
Ġtight ness
Ġremember ing
Ġident ifying
Ġpit bull
Ġqual ify
Ġfrost ed
Ġwayyy yy
Ġvitam ins
Ġmisunder stood
Ġcongr at
Ġexquis ite
c or
Ġh ut
Ġst ash
Ġwe bbing
Ġex otic
Ġr ud
Ġcoll ins
Ġphoto shop
Ġvar ies
Ġsturd iness
Ġelimin ates
Ġliber ty
Ġchill ing
Ġwhis key
Ġmargin al
p ow
Ġa y
re ason
Ġm ack
Ġto pp
Ġst unk
Ġwh ites
Ġch ores
Ġsp erry
Ġpo ked
Ġcont our
Ġbr icks
Ġcoll ie
char ged
Ġcol on
Ġmax x
Ġweb cam
Ġbat ting
Ġdeliver ing
cra ppy
Ġcompos ite
wo lf
Ġdissol ve
Ġdistress ed
Ġperfor ated
exc iting
d ue
j ack
w ere
Ġi ra
Ġn oodle
Ġl ava
Ġch imes
Ġpr istine
Ġno ble
Ġuse full
atch es
Ġmin es
Ġed die
Ġsoft ball
Ġplac em
Ġob solete
Ġdial s
Ġapproach es
Ġchamp agne
Ġcowboy s
Ġbudd ies
Ġrelie ved
Ġentre prene
Ġmasc ul
Ġdrastic ally
Ġtah oe
m u
ro e
ri p
Ġor gin
Ġk ia
lo ves
ag ues
ick ing
Ġjo ined
Ġleak y
Ġimpro bable
Ġbreath taking
Ġdock ers
Ġsqueak ers
Ġlegend s
Ġshim mer
Ġfutur istic
d ar
Ġi vy
ll ings
al one
el ine
Ġke nd
Ġthin nest
Ġed ward
Ġwarm ed
Ġcra b
Ġsecure s
Ġrecei ves
Ġger mination
Ġregret ted
Ġsport y
Ġbrew er
Ġmelod ies
r ust
Ġc ot
Ġl aps
Ġd ement
Ġe lo
Ġout l
Ġke ller
Ġsto ppers
Ġcons ume
Ġind ent
Ġgen res
Ġbegin ing
gr ass
purch ase
wond erfully
Ġpray ing
Ġtermin ology
Ġcorro sion
Ġd ensity
ic ier
th ick
Ġsp ike
Ġhard ened
Ġdef end
Ġfo gged
Ġpe c
Ġple x
Ġra ises
Ġgen esis
Ġnon stop
Ġbrown ish
Ġrock port
Ġcri b
Ġcompe lled
Ġarr anged
fall s
Ġlandsc ap
Ġtic kets
organ ized
Ġcarib bean
Ġchandel ier
s us
u er
Ġh ou
Ġbe gging
Ġsh ook
Ġu g
Ġex it
Ġun app
Ġv r
Ġbet ta
Ġri vet
Ġhand made
Ġper sever
Ġsme ars
Ġhor rors
Ġlow e
Ġair y
Ġbar ry
Ġpat ricia
Ġsuff ice
Ġmont ana
Ġsnor kel
Ġplumb ing
Ġdystop ian
Ġtiem po
Ġw ier
Ġf izz
Ġn icks
Ġre think
th s
Ġne uro
Ġout ing
Ġbo oth
av age
Ġexce l
Ġgi ants
Ġgar ments
Ġpat rol
Ġconc l
Ġjar gon
Ġfauc ets
Ġglitter y
Ġfairy t
Ġawa it
Ġeleph ants
Ġast ro
Ġgermin ate
orig inally
Ġbagg age
Ġcramp ed
Ġt c
Ġto days
Ġg il
ook ie
Ġk ibble
Ġab road
Ġun fair
Ġher itage
Ġinter es
Ġaut istic
ruct ion
Ġdri lls
Ġcam ps
ne ither
Ġmind set
Ġsand y
Ġir ons
Ġmer ry
Ġcru iser
Ġstress ful
Ġencoun ters
Ġscholar ly
recommend ed
Ġsimult aneously
c uts
y l
Ġi am
Ġp es
Ġwill ow
Ġun co
Ġtri via
vel ed
Ġpull er
Ġfut on
Ġvo lley
Ġsupple ments
Ġrere ading
Ġsoph ie
Ġner d
Ġgrom met
Ġinterchange able
Ġairt ight
h ook
w an
Ġwor m
Ġqu oted
li a
Ġwar fare
Ġstuff ers
Ġzi ps
Ġmach ined
Ġbow ling
Ġsal on
Ġshel ving
Ġest imate
Ġoffic ially
Ġexpress ion
Ġchuck s
Ġbod ice
Ġment ally
Ġdick ens
Ġkir k
Ġflashback s
h ire
s ue
Ġt uff
Ġn ifty
Ġst ats
Ġrel ating
Ġbed sp
Ġdr oop
ugg ets
Ġjew s
Ġaccept ing
Ġgarden er
Ġsprink led
Ġwarri ors
Ġvenezu ela
ici ency
b ies
i at
Ġo cd
Ġh z
lo c
Ġsiz z
Ġorder d
Ġcle avage
sol ved
Ġcost a
Ġfra ming
Ġsub standard
Ġhu h
Ġdist ribution
Ġadh ered
Ġign ition
Ġcance ling
Ġtransp orted
Ġpunct ure
Ġdistribut or
Ġstu art
k ien
Ġh ong
Ġwh iny
ul f
ind s
Ġtw eak
be lls
Ġreal m
Ġsli my
ush i
Ġpresent ing
Ġbuild er
Ġmir acles
Ġot tom
Ġincre ases
Ġscient ist
Ġimproper ly
b read
f an
r ating
Ġw oo
Ġg ill
Ġam anda
wor ld
Ġmag s
ho ly
Ġfish y
Ġdon ald
Ġjoy stick
Ġmembers hip
Ġintern ally
Ġfiber glass
Ġpercent age
Ġanth ology
Ġproport ions
Ġp ing
Ġn uggets
is ance
ill as
Ġj umbled
Ġor ph
und ra
Ġcord ed
Ġpri us
Ġdon na
Ġkill ers
Ġped est
Ġboun cy
ament e
Ġcalib rated
Ġdiagno sed
Ġhobb it
Ġdivor ce
Ġt undra
Ġw icks
Ġto asted
Ġg our
Ġre print
Ġde pt
lo s
Ġsp iders
not es
Ġtw ig
Ġinter st
Ġplay ful
ip edia
Ġper ch
Ġwaist line
Ġpink ish
Ġweak est
Ġheight s
Ġremain der
Ġrev ised
acc ording
Ġoverhe ats
Ġner ves
Ġaband oned
Ġl aced
en a
Ġnot ification
Ġbe et
Ġlo gan
Ġout lander
Ġen erg
Ġen large
Ġtr unks
Ġv iolet
Ġte h
hor ri
ric ulum
Ġmet ro
Ġpoc o
Ġperform er
Ġass ured
Ġsal vation
Ġground ed
Ġcy ber
Ġdu ke
Ġhub s
Ġintrodu ces
Ġtroub led
Ġnu isance
Ġpunct ured
Ġscare s
Ġplodd ing
b on
l ite
Ġw olves
Ġst alk
ist ically
Ġres erve
Ġtra uma
mas ter
Ġcur riculum
Ġcho ck
Ġuseful ness
Ġsharp ness
Ġinsp ires
Ġpersonal ized
Ġsnow board
Ġbored om
Ġloos ening
Ġsag gy
Ġarr ay
picture s
hh h
Ġcomplet ly
urs day
attach ed
van ia
Ġdivers ity
Ġfris bee
Ġwier d
u cc
Ġp its
Ġp anda
Ġde bit
il ated
Ġover kill
pl enty
ub a
Ġear l
Ġbre eds
Ġorigin s
Ġdev ise
Ġtow ers
Ġactiv ation
Ġnail ed
Ġcash ew
Ġmuff ler
Ġoccur s
Ġhal ves
Ġfingert ips
c rew
g ance
r ings
Ġth ursday
Ġm im
Ġst are
Ġmo lly
Ġr oth
Ġout puts
Ġle vers
Ġapp all
Ġdefin itions
Ġkind les
Ġhead line
sh ar
Ġcoll abor
Ġcur sing
Ġbright en
Ġsus pen
Ġtem pt
Ġbun k
Ġstri king
Ġdetect ion
Ġeconom ics
Ġfond ant
Ġgran ny
grand son
Ġosc ill
Ġbrows er
Ġf ue
Ġso ggy
Ġch is
Ġti vo
Ġgo dd
Ġar ro
our se
Ġtry ed
Ġvers a
Ġeffort lessly
Ġfurther more
Ġrespond s
Ġlem ons
Ġjud ging
Ġintrodu cing
Ġcommercial s
Ġmush room
Ġdedic ation
Ġmisspe llings
Ġunpack ed
Ġsweep er
Ġscal p
Ġdiabet es
Ġtol kien
Ġwik ipedia
Ġplas ma
v als
Ġb ip
Ġg ates
Ġdo pe
st y
dy s
Ġscr unch
Ġred iculous
Ġbright est
Ġlack luster
Ġmouse pad
Ġdest iny
Ġgenuine ly
str ings
Ġber n
Ġretain ing
Ġnap kin
Ġtutorial s
Ġdisapo inting
Ġpronoun ced
Ġsmar ter
Ġmascul ine
y on
Ġth ief
Ġn ite
Ġd oom
Ġand re
Ġe than
Ġsh akers
Ġfr other
Ġpe w
Ġbefore hand
Ġres ets
Ġconst it
Ġfur ious
Ġmanual s
Ġspirit uality
Ġobs ession
Ġreport ing
Ġwat erf
Ġsprink le
Ġharm ful
Ġseg ment
Ġcompens ate
Ġsym pt
Ġanc est
consider ing
Ġzag g
mu y
s izes
y ers
Ġo uch
in ters
Ġm orm
Ġh bo
Ġj k
Ġrepl ay
Ġsty list
Ġra is
Ġpay ment
Ġreg ency
Ġrubber maid
Ġbath rooms
Ġdu h
Ġpolar is
Ġsau cony
Ġunderst atement
j u
o lla
Ġth irst
Ġl uster
Ġha ven
ul ates
Ġpl ague
ain e
ight ly
Ġnew bie
Ġsay ings
de veloped
Ġstick iness
Ġmis led
Ġgi bson
Ġblue berry
Ġju ices
Ġland s
Ġsag s
Ġrepresent ative
Ġarg ue
Ġhazel nut
Ġpho enix
Ġhou ston
Ġbedsp read
Ġt at
Ġh edge
Ġbe ading
Ġpre de
li est
Ġfine ly
Ġmin ts
Ġdead ly
Ġdan ny
Ġhy m
Ġstre ak
Ġhols ters
Ġfurn ace
Ġped ometer
aur us
Ġya wn
Ġpret entious
Ġfac ility
Ġstir ring
Ġaes thetic
Ġgust o
Ġrevers ed
Ġrecept acle
Ġcarpen ter
p ump
Ġo dys
Ġh ott
Ġd ak
Ġas set
Ġret un
ass ing
Ġext rem
ton es
Ġmain stream
Ġsing les
Ġhar per
some one
Ġunb al
Ġscar let
Ġcaps ules
Ġborder line
big ger
Ġscott ish
Ġcraw ling
Ġextensive ly
Ġorth otics
Ġtu pper
Ġflims ier
Ġspind le
bol t
Ġdus k
m al
Ġc t
Ġbe ams
ch ief
Ġj ava
Ġsc ree
Ġfun k
Ġcont est
Ġcarpet ed
Ġpolit ically
Ġexplo res
gl as
Ġfund amental
belie f
Ġappet ite
Ġjas mine
suppo sed
c ats
p icked
ion ic
Ġover look
Ġover weight
Ġsli mming
Ġint r
Ġev a
use ful
Ġscra pes
Ġopportun ities
Ġpy rex
Ġrepack aged
Ġn athan
Ġhe brew
Ġdis belief
Ġdec l
Ġown ership
Ġbun nies
Ġcapt ion
Ġcro c
Ġspl inters
Ġbrief case
Ġstress ed
Ġrefill ed
Ġrow ling
Ġinvent ory
Ġfid dle
Ġaero b
Ġgrac ias
Ġo der
in um
Ġc ia
Ġp ak
Ġg age
le ton
th ose
Ġso x
Ġme and
Ġri ff
ens es
Ġhel mets
Ġblack s
gg s
Ġones ie
Ġsat ire
Ġsch n
Ġann ual
ky o
Ġstiff ness
Ġing en
Ġscra mb
with out
Ġmush rooms
Ġjudge ment
Ġdecre ased
Ġoli via
Ġs ash
Ġs words
Ġn aught
Ġn fl
Ġto ned
it o
Ġr ows
Ġmore over
Ġun ion
Ġwere wolf
Ġpe ters
Ġside walk
Ġter r
und ai
Ġring ing
Ġass isted
Ġsnow fl
Ġdon ation
Ġoffer ings
Ġplat inum
Ġrif les
Ġprotagon ists
Ġec static
Ġskate board
f ect
p aint
Ġo e
Ġl umps
ll ation
Ġbut cher
Ġexp lored
Ġsc oops
Ġref ers
tain s
Ġpain s
Ġroom mate
Ġconf use
Ġtreat ments
Ġsix th
Ġcred ibility
Ġclar ify
Ġmotiv ating
watch ed
Ġspac er
Ġmitt s
Ġcomprom ise
Ġlefto vers
Ġinsuff icient
f ive
Ġt apped
on ing
Ġnot icable
Ġsp ade
Ġv ote
Ġover lap
ab it
Ġsc oo
Ġfl uct
ile y
Ġcont am
Ġcr inge
Ġorigin ality
Ġhot els
Ġtrust ing
Ġhy undai
Ġcance llation
Ġchalk y
Ġcorn well
gu ard
comp act
Ġinflu enced
Ġconcent ration
Ġjig gle
Ġhaun ted
Ġre no
Ġgif ting
Ġinf requ
Ġfix able
Ġloc ket
Ġelect ro
Ġwo k
Ġben net
Ġmouth piece
Ġrequest s
Ġrhy ming
Ġur ge
Ġglor ified
try ing
Ġe u
Ġj bl
Ġsu ite
Ġv ise
Ġmon roe
Ġstr ung
Ġkind ness
Ġinc ase
Ġori entation
Ġmet als
Ġpresent ations
cc a
Ġpat iently
Ġclaim ing
Ġhy p
Ġgrill s
Ġsoap y
Ġtail or
Ġspecif ics
Ġexplo de
Ġprogress ive
Ġunders ized
Ġcert ific
Ġacce ler
excelent e
Ġsnoo ze
Ġtupper ware
Ġto me
Ġre assem
Ġse vent
Ġle xus
Ġsp un
Ġoff line
Ġv om
ment e
Ġgl ides
Ġjo di
ans as
Ġsw ay
Ġsy nd
Ġsub t
Ġpres erve
Ġrepe llent
key board
Ġspare s
Ġtransl ations
Ġselect ing
Ġcray on
Ġjon athan
Ġadap ted
f ree
Ġa ston
Ġi ck
or ter
Ġp ong
Ġre be
an es
Ġab ound
Ġun professional
Ġtr ac
ud ing
Ġremind ers
Ġfield s
Ġcompet e
Ġlimit ations
Ġast ron
Ġassign ed
Ġlegit imate
Ġtid bits
Ġbisc uits
Ġreun ion
Ġcen ters
Ġcors air
m ot
Ġn ord
Ġen gin
Ġun install
Ġle is
Ġthrough ly
Ġear n
Ġunt ill
Ġhappen ings
Ġnovel a
Ġfair ness
Ġsun flower
Ġpar ad
Ġfresh ness
Ġoper ator
Ġpublish ers
Ġreflect or
Ġmeaning less
Ġken more
Ġmi ami
Ġdisapp ears
reg ard
clear ly
Ġdar cy
Ġshep ard
Ġdiscus sing
Ġjum per
Ġyan kee
Ġmiche lle
Ġengin es
Ġs ara
Ġo c
ad ded
ri ers
Ġse as
Ġse min
Ġtw een
Ġem bedded
Ġrel ations
Ġmid way
Ġprogra mm
op ath
Ġhom eless
Ġbrew s
Ġsimpl ified
Ġpriv ile
Ġstack ing
Ġmyth s
Ġunscrew ed
Ġunim agin
Ġembell ish
Ġprede cess
Ġodys sey
c lip
Ġa un
Ġb pa
Ġh unk
Ġman aging
Ġatt est
Ġreason ing
Ġprom inent
Ġtool box
Ġrefer enced
ho pe
Ġgig s
Ġpir ates
Ġast ound
Ġheartbre ak
Ġspig ot
Ġshaw l
Ġparr ot
Ġo ps
Ġg oth
ar ks
Ġch af
Ġlo aned
Ġall ig
Ġqu i
Ġk ath
Ġk eds
ain ts
Ġpur sue
Ġbet ty
ight ful
Ġri ley
Ġfo ss
Ġro gue
Ġinc ome
Ġblo nde
Ġbal i
Ġcross ing
Ġjoy ce
Ġjud y
Ġmedic ation
Ġdou glas
Ġkoh ler
Ġvolley ball
b ug
Ġb d
Ġp ies
Ġbe ater
Ġwear y
Ġdown ton
Ġcard stock
Ġlower ed
Ġtail s
Ġharness es
Ġdud s
Ġven ue
Ġalter ations
terri bly
Ġslouch y
Ġshoel aces
Ġottom an
w aa
Ġw ks
Ġn uff
Ġex e
Ġex hib
Ġr acket
Ġret elling
Ġplay able
Ġcor rection
Ġhandle bar
Ġpen nies
Ġbeginning s
Ġmor als
Ġclos ures
Ġprodu cer
Ġcy n
Ġsurv iving
Ġcrit ique
Ġumbre llas
Ġopt ic
Ġindian a
Ġharr ison
lot te
Ġsophom oric
h ooked
Ġm d
Ġd war
Ġdo e
Ġr um
Ġun ob
Ġany how
Ġche erful
Ġbl aze
Ġfl ute
Ġfin n
Ġra ge
Ġheart ache
Ġbi ker
Ġpu zz
Ġsil va
Ġoption al
Ġterri fying
Ġminim ize
Ġnut ri
Ġbang ing
Ġmur phy
Ġbb c
y et
Ġ 8
Ġt ess
Ġth s
Ġth ai
Ġm it
Ġg umb
ri ve
st ein
Ġat omic
Ġdis cri
ab s
Ġstr angers
Ġstand alone
Ġmar ia
Ġsqu irt
Ġdirection al
Ġmob ility
Ġlinks ys
Ġcher ries
Ġclou ds
Ġintent ions
Ġkrist en
Ġunz ip
Ġtiff any
Ġdisgr ace
Ġira q
e ither
s bur
Ġt umble
Ġl or
un o
Ġbad ass
Ġauthor ized
Ġdra b
Ġsand er
Ġsus pected
Ġmaster ed
Ġboun ced
Ġleash es
she ets
00 0
Ġserving s
Ġpreview s
inform ative
Ġmoistur izer
Ġisl am
k it
Ġhe als
Ġsm ack
Ġaw aken
Ġdan cer
graph ies
sc r
Ġcas ters
Ġposs ess
Ġtruth ful
Ġcirc us
Ġow ls
Ġspread ing
Ġrout ines
Ġenvironment al
Ġsurround ings
Ġsket ches
Ġlum ia
Ġconce aled
Ġshin ny
Ġswallow ed
protect ed
rub ber
Ġspook y
Ġf ow
Ġf iring
Ġp aus
Ġre y
Ġfor bid
Ġwh iter
Ġch ry
Ġex ams
Ġen er
Ġdes ires
Ġstar k
Ġdri ft
mm m
Ġgener ate
Ġsun screen
Ġdim ming
Ġwin ch
Ġsumm ar
gu ess
Ġemploy ee
Ġschn au
v ial
Ġb inge
Ġre ds
Ġfe ast
li ers
Ġdown er
Ġunder ground
Ġpast ed
Ġentire ty
Ġpost ure
Ġproject ed
Ġpit iful
Ġfet ch
Ġenthrall ing
Ġfatig ue
Ġunbal anced
b ian
b ury
m ax
p ol
Ġb act
Ġd ile
Ġd umps
le ather
al on
Ġdo h
Ġmo le
Ġco pe
Ġno s
Ġinst ances
Ġgr rr
Ġadd itions
Ġz une
Ġlos er
Ġquant ities
Ġretain s
Ġachie ved
Ġfac il
Ġconcent rated
Ġlect ure
Ġenthusiast s
Ġteles co
Ġthe e
ter y
ak able
Ġun o
Ġrecom med
Ġsc ores
Ġstr at
ci ence
res cent
Ġwireless ly
Ġforget table
ifi ers
Ġspark ling
Ġq a
Ġgentle man
Ġretail ers
Ġrefill ing
Ġsubstant ially
Ġtransform ers
Ġspool s
Ġaggra vation
Ġcha os
Ġinvolve ment
Ġpengu in
Ġw ich
re f
Ġl ure
Ġr al
Ġat tended
Ġfl aky
Ġspe lls
Ġmar tha
Ġwind er
era ld
Ġcho ir
Ġfire arm
str ange
Ġamong st
Ġdent ist
Ġproud ly
Ġattend ing
Ġdess erts
Ġwhirl pool
Ġlicens ed
Ġpew ter
Ġw ade
ed ible
Ġd ads
Ġch ia
Ġk g
Ġdis lo
lo cks
Ġle verage
ss ip
Ġbott led
Ġdur ation
Ġmar kets
Ġcool ed
gra m
Ġev apor
Ġtem po
Ġwal t
Ġrese al
Ġwed ges
Ġnic ole
mar ks
she ll
Ġrac co
Ġwayyy y
Ġassess ment
m ons
Ġb art
Ġd at
Ġwh ilst
Ġan ita
Ġr anges
Ġdis order
Ġexp ire
so cks
Ġgu age
Ġins pected
Ġtravel er
Ġye ast
Ġpred icted
Ġnumber ed
go es
Ġfresh er
fun ctions
bl ade
Ġbless ings
Ġpinch ing
Ġlum en
Ġrin sed
Ġpy th
Ġergon om
Ġhyster ical
ut ive
Ġne ice
Ġno ir
Ġbo ils
Ġlight est
lf ul
Ġcr umble
int zy
wor se
Ġplot ted
Ġind ie
Ġfoot notes
Ġcontro vers
Ġsimilar ly
Ġwra ppers
Ġnet works
Ġlif el
Ġbill ed
Ġjam a
Ġtown s
Ġdistur bed
Ġsatur ated
Ġidi ots
Ġleon ard
Ġsympt oms
Ġre els
ent ive
Ġco ding
Ġr it
Ġpl ast
Ġproduct ive
Ġv ital
Ġauthor ity
ne at
Ġfront ier
Ġma fia
Ġpet t
Ġdan i
Ġmonitor ing
Ġrelax ation
Ġbol ted
Ġconsum ers
Ġextend ing
Ġtoast ing
Ġlag s
Ġsubmit ted
Ġdischar ge
Ġdian e
w w
Ġt ide
Ġs id
Ġl acing
le te
le aked
Ġmu zzle
Ġcl ings
Ġamaz e
Ġcor olla
Ġwash cloth
Ġmar bles
Ġste aks
Ġexperi ments
Ġtem ple
Ġreco il
Ġblan ks
Ġly nn
Ġrespons es
Ġevol ve
Ġdeb t
Ġglitch y
Ġinvent ed
Ġstabil ize
Ġarmp its
Ġandrew s
Ġsple nd
e aling
t ra
t uce
Ġt ing
en cer
ld a
ra h
Ġal erts
Ġk urt
Ġar k
ab ra
Ġra gged
Ġcreat ure
Ġgal ore
some how
Ġsyn ch
Ġconfirm ation
Ġconscious ness
Ġimmers ed
Ġblem ishes
Ġcontrad ict
c reen
g reg
j es
s mo
Ġa hold
Ġf umes
at ra
Ġout lines
Ġno ah
Ġgo ssip
Ġsl ash
Ġtra vis
Ġpain less
Ġcred its
Ġthom pson
Ġinvent ive
Ġkat ie
Ġmisrepres entation
Ġstereoty pical
Ġreward ing
Ġacknow ledge
f ts
m ich
n he
Ġa uss
Ġg ator
on o
Ġfor ty
Ġsu ms
Ġk yle
Ġab c
Ġab by
Ġover coming
Ġmon keys
Ġgr ates
Ġmin eral
Ġatt or
Ġres il
Ġpad dles
gr ad
Ġclick er
Ġrot ary
Ġsen iors
ser ves
Ġremark ably
Ġrhinest one
cons in
Ġinsul ting
Ġbis sell
Ġleis ure
g ener
Ġw ides
Ġsh attering
Ġlo dge
un comfortable
Ġv ida
pl ots
Ġimp ul
Ġmid west
Ġrid den
Ġgener ated
Ġexam ination
Ġwed nes
Ġconsist s
Ġfirm ness
Ġabras ive
horri bly
b us
l id
z ing
Ġpr un
Ġen lar
ab i
Ġri pp
Ġcl ive
Ġinf in
Ġdisc laim
Ġfantastic ally
Ġmac om
lex ible
Ġadmit tedly
Ġwis consin
Ġveter ans
Ġcrumb ly
Ġvast ly
prov ides
Ġhig gins
Ġd aw
Ġis a
Ġsh ards
Ġpl aid
ap hor
Ġme nd
am m
int rig
Ġtra ct
Ġlet tuce
iv an
Ġmet aphor
Ġrem an
Ġmicro phones
Ġhar le
Ġbal ancing
Ġgrind ers
Ġrich er
Ġuns ightly
inst ead
mit ted
Ġshap ing
Ġbang s
Ġbroad way
hel ps
Ġfest ive
nes ota
Ġlle go
Ġwilder ness
Ġener getic
Ġt iring
Ġm g
Ġre load
Ġre wind
Ġr s
Ġcon qu
Ġke ens
Ġmin nesota
Ġatt ire
Ġcons ult
Ġfant as
land s
Ġgoo ey
Ġshif ted
but tons
Ġcance led
Ġswing ing
bes ides
Ġcray ola
Ġze al
Ġcollaps ible
Ġconsequ ently
Ġgeo graphy
Ġpatri ot
Ġsynd rome
u eless
z o
Ġc z
Ġd ab
Ġin her
et ary
ac ement
Ġch or
Ġj ury
Ġr x
em a
Ġun box
Ġle ot
Ġbet a
Ġover st
Ġser vers
Ġcharacter istics
Ġele ction
Ġhook up
head phones
rec ently
Ġcarr ot
Ġfranc is
Ġcoup ons
Ġknuck les
Ġbushing s
Ġadoles cent
g loves
w olves
Ġp p
Ġy ikes
Ġgreat ness
Ġr ica
Ġsp ur
Ġchar lotte
Ġman ly
Ġte ther
Ġser rated
Ġtri vial
ph on
Ġjo an
Ġstr uts
ol in
bs ter
Ġfli m
Ġlist ens
Ġprom oted
Ġmat ted
Ġcomb ining
Ġmouth s
Ġident ification
Ġpal ms
Ġvisit ors
Ġraz r
Ġshad y
Ġtempor arily
ili ary
Ġsinc ere
Ġfert il
t ouch
w arned
Ġf ot
Ġu a
Ġsp its
Ġoff ended
Ġpart ners
Ġfo gging
pr om
ret t
ne ll
Ġsub m
Ġconf ess
amp unk
Ġcopy ing
Ġlat te
Ġenviron ments
Ġescap ed
Ġn v
ing ing
Ġre write
Ġme jor
Ġmay a
Ġstra pless
ne th
Ġcra mmed
Ġev ans
Ġvo id
Ġthri lls
Ġran ks
Ġcushion y
Ġvirt ual
Ġpupp et
Ġree bok
Ġaux iliary
Ġoli ver
Ġaesthet ics
Ġdup ed
Ġbennet t
Ġallig ator
i ated
in arily
Ġc ider
Ġm eds
Ġd oodle
Ġnot ches
Ġso bre
Ġpo e
Ġdes igning
ph ile
iz zy
Ġve nder
log ue
Ġskill ed
Ġkay aking
Ġdistort s
Ġlinger ie
j am
Ġh s
ed o
Ġu b
Ġde ff
Ġbo gus
Ġac ne
Ġsl ate
Ġed gy
Ġbelie vers
Ġind ians
Ġste ampunk
no pe
co ffee
Ġmem orial
Ġcompli ant
Ġbrown s
Ġoper ational
Ġconcer ts
con f
Ġmill ions
Ġbio logy
Ġcere mon
rib utes
Ġinfect ion
Ġcruel ty
d vd
Ġn im
Ġl ud
on er
on ous
Ġha mb
Ġch intzy
Ġmo cking
Ġpro pped
Ġr uffle
Ġpr icier
Ġhas s
Ġexp erts
Ġv on
Ġinstall ments
Ġscreen play
Ġheavy weight
any thing
Ġcur t
arr ing
Ġcra z
Ġnone x
Ġbud ge
Ġunre l
Ġmall et
Ġmelod ic
Ġerr atic
Ġlabrad or
Ġsubmer ged
Ġhamb ur
f ace
v ention
y d
Ġth ay
Ġth ail
Ġc app
Ġl umin
Ġd al
Ġwith stood
st art
st ress
Ġj ail
Ġco bb
Ġr g
Ġbu ckets
Ġtri o
Ġpe al
Ġsn akes
pr inted
Ġred dish
Ġcap o
Ġsub plots
Ġspr outs
play able
Ġadv oc
Ġupgr ades
Ġspider man
wa ited
Ġbothers ome
Ġembr ace
Ġsuspic ious
Ġnar c
Ġcurs or
Ġinoper able
Ġdak ota
Ġgumb all
Ġmacom ber
Ġthail and
b ath
w ant
Ġf ier
Ġnot ing
Ġe lla
Ġwith ing
Ġcan isters
Ġup holster
Ġv ign
Ġback ups
own ed
Ġman kind
Ġhand ic
Ġrepl ic
Ġcor ruption
Ġstra pped
Ġsty led
Ġrep lied
Ġmult ip
Ġbuild up
Ġunus ually
tr ash
Ġfrank lin
Ġhaw k
Ġincorpor ated
Ġrevel ations
Ġasp iring
Ġdiver gent
Ġreform at
Ġintim id
Ġmak ita
Ġral ph
Ġwednes day
w ing
Ġb ast
in ator
Ġco ded
Ġal ab
Ġout ta
Ġen rich
Ġhas sel
Ġv ale
Ġwho d
Ġcor gi
Ġra wh
Ġflo pping
zz ard
Ġbow ed
Ġgard ens
Ġboyfriend s
Ġpath s
Ġknockoff s
Ġtumb lers
Ġassign ments
Ġhumming bird
Ġhumming birds
Ġsymp athy
Ġdemonstr ates
Ġcostum er
Ġdisclaim er
Ġo acute
Ġf akes
Ġc gi
it zer
st e
Ġwere wolves
Ġpre y
ss ibly
Ġexpect s
Ġbr oo
Ġinstall er
Ġclear s
Ġrest ored
Ġent icing
Ġimpress ions
ufact ured
Ġcamp bell
Ġrecogn izing
Ġreflect ions
Ġwig gles
Ġtransport ation
Ġcelebr ation
Ġlect ura
Ġvitam in
Ġsurviv ors
Ġexcell ant
Ġcomed ic
Ġchry s
Ġpyth on
d ings
n als
u ates
Ġin edible
st itching
Ġgreat s
Ġtr acy
av ings
Ġfun eral
Ġhis s
Ġcare less
Ġpres erv
Ġcho ps
sem ble
Ġmanufact ures
Ġsens es
Ġrad ius
Ġeffort less
Ġcamp us
Ġmer it
Ġquestion ing
Ġbread s
Ġsen nhe
Ġkno cks
Ġstrand ed
Ġcinem a
Ġdestruct ion
certain ly
Ġunsuccess ful
Ġunapp ealing
d ad
g re
p ain
s il
Ġc b
Ġin ward
Ġsh avings
Ġpr ism
Ġun playable
Ġri val
uff s
Ġper t
Ġtouch pad
Ġcondition ing
Ġgreen house
Ġfle et
Ġloss es
Ġpunch ing
Ġgolf er
Ġmp g
Ġsurround ed
Ġsav age
ino x
Ġlen ght
Ġrecover ing
mob ile
y hose
Ġs es
Ġp f
Ġg unk
Ġco ke
Ġcan oe
Ġen ought
Ġsho ve
Ġpe as
Ġaut umn
Ġatt itudes
Ġper ipher
Ġsy mmet
Ġwide ly
co py
Ġseason al
Ġrust s
Ġhy ped
Ġforget ting
Ġunlike able
Ġblur b
Ġenthusi astic
Ġintention ally
Ġmonot onous
Ġpett ico
p ay
t t
Ġs if
Ġs log
Ġc ue
is ons
Ġg le
Ġin ability
Ġfor ums
ro ph
st ones
Ġcl ueless
Ġmis read
Ġstand by
Ġswe lling
Ġgri lled
Ġfill ers
unch y
Ġblo b
Ġyellow ed
Ġsou lful
Ġcol umn
sp ent
plug s
Ġwild life
Ġdavid son
Ġdump ing
Ġarchitect ure
f iction
z ie
al so
ro red
Ġli ver
st orm
est e
Ġke ith
ple x
Ġsur g
Ġel bows
Ġprom oting
Ġpass age
Ġdist ill
Ġsnug gle
Ġsens ual
Ġseam stress
fo lio
Ġspl ur
Ġlegg ing
ien e
Ġhoney well
hand s
Ġnu vi
Ġfat al
Ġisol ated
Ġappoint ments
Ġfairyt ale
3 00
h ilarious
Ġt ge
Ġw ifes
Ġm ow
Ġn ess
Ġl ung
it ative
ad d
al thy
Ġpl aque
Ġab und
Ġsc uba
Ġri vers
Ġfl aked
az zy
Ġcont ra
Ġsl apped
Ġshort ing
Ġcam is
Ġcrack le
Ġtrans itions
ler y
Ġdish onest
Ġtend ed
Ġvacuum s
Ġland fill
Ġaccom od
Ġassum ption
Ġpant yhose
Ġdos en
thes es
Ġunfor get
Ġxt ra
Ġcongrat ulations
Ġrebe cca
c andy
z he
Ġg rie
Ġr anging
Ġsu icide
Ġjo el
de vice
Ġsn ipp
Ġel sa
Ġve il
Ġhear s
Ġfa ults
Ġpat ty
Ġhun ters
Ġly rical
Ġnur ses
Ġenh ances
Ġpoo rest
Ġrevolution ary
Ġmiser ably
Ġsab er
Ġlefto ver
Ġsarc astic
hum id
Ġswee ter
Ġrestric ted
Ġdiscipl ine
Ġorgin al
Ġelo qu
t ails
Ġw an
Ġp se
Ġpl s
Ġcon ect
av id
Ġear pieces
Ġdesign ers
Ġpers u
iv a
Ġvis ibly
Ġsens ation
Ġpool s
Ġprodu cers
Ġrecogn izes
Ġmoment um
Ġemb ar
Ġign orant
Ġstap led
Ġdefe ated
Ġexpress ions
Ġtil ts
Ġfer n
Ġcrow ded
Ġnonex istent
Ġo xy
Ġcom edi
Ġcon n
lo ving
Ġun protected
Ġexp ires
fe el
Ġper pet
Ġplot ting
eng aging
Ġplan ters
Ġdi pped
co aster
Ġtext ures
Ġbeh old
Ġcapt ions
Ġju icing
Ġrot ated
Ġchick s
Ġdie go
Ġly n
Ġscam med
Ġescap es
Ġspat ulas
Ġexped ition
Ġstim ulating
Ġinteres ante
Ġ 1
Ġc oop
Ġp su
Ġto pping
Ġre used
se ction
Ġse l
Ġr ic
un ning
ag les
Ġph arm
Ġsho ved
Ġplay list
ip ers
Ġunder rated
Ġed itors
Ġdri er
Ġgen ie
Ġbar ks
Ġey ed
Ġsharp ens
Ġbeh ave
Ġwal nut
Ġmention ing
Ġrecei vers
Ġpound ing
Ġstrength s
Ġscra ps
ey e
bl u
Ġprogress es
Ġadm ired
Ġenthusi asm
Ġdigest ive
Ġfreak in
Ġreinforce ment
Ġhmm m
Ġorig ami
Ġnaught y
d ust
s pend
t im
Ġw en
Ġm aze
Ġp b
Ġl un
Ġne cks
Ġal zhe
Ġun natural
Ġle gged
Ġafter ward
Ġwear er
Ġcl an
Ġcar rie
Ġsn ark
Ġra id
Ġsw ept
ne ys
Ġcli pper
Ġsqu ash
Ġremind ing
Ġgam ers
Ġvent ure
Ġbree zy
Ġskim mer
Ġchuck le
Ġunfold ing
press ive
Ġillumin ated
shar p
Ġpettico at
3 6
Ġt es
Ġs ant
er ving
Ġto ppers
Ġli v
Ġj ere
ome ters
Ġinst it
av oid
Ġdef ine
Ġpe a
Ġmay hem
Ġmin er
Ġter rit
Ġsupp liers
Ġline ar
arr ow
Ġpres um
Ġcreat ions
Ġsimilar ities
Ġtur bot
ru ps
Ġroller coaster
Ġrac er
Ġbehav iors
Ġrin sing
Ġdistinct ive
Ġcali per
Ġcul pr
Ġstupid ity
Ġsurpass ed
Ġuninsp ired
Ġterrit ory
Ġturbot ax
m ere
Ġa ches
Ġm ills
Ġp int
Ġh ulk
Ġd ale
Ġre installed
Ġdo ve
Ġal k
Ġad vers
pt on
Ġbl ush
Ġman gled
ily n
Ġgl aring
Ġres h
Ġservice able
Ġslee ved
Ġwal ter
Ġdece it
Ġstrength en
Ġgross ly
Ġspread s
Ġwick ing
Ġcourage ous
Ġfed eral
Ġgather ed
Ġfund ament
stra ps
Ġhal ter
Ġapo log
protect s
Ġcoupl er
const antly
Ġbour ne
Ġunl ucky
Ġelabor ate
Ġdeod orant
Ġnarc iss
g ian
j an
n apped
Ġs is
Ġst ee
Ġu ke
Ġj a
Ġco al
Ġrecom ment
Ġend e
Ġpe bble
Ġwar ping
Ġref ined
Ġcur ry
Ġsub urban
co de
Ġart if
Ġcheck book
Ġcreat or
Ġass ure
Ġfore warned
Ġdan ces
Ġcas ually
Ġdem ille
Ġpil ates
Ġcoach ing
Ġtempl ates
Ġmicros cope
Ġchee ks
Ġrelo ading
Ġtournam ent
Ġsplend id
a ppy
Ġd ora
Ġe mo
Ġbr aces
Ġflat ware
Ġrid ers
Ġgre edy
he ard
Ġpin ches
Ġmotor home
Ġbutter y
Ġload er
Ġinfl ating
Ġdisney land
Ġbee fy
Ġscoop ing
Ġteas er
Ġjul ian
Ġmurder ed
Ġpon cho
Ġgour met
o ps
t ough
Ġs aints
Ġb bs
om i
Ġso aps
Ġdis cribed
Ġple ather
Ġdel ve
Ġsw ir
Ġfront line
Ġschool er
Ġlab e
Ġbunch ing
Ġver a
Ġvi king
Ġgard ner
Ġrob ber
Ġspan x
Ġinconsist encies
Ġknit ted
Ġlegend ary
Ġoptim al
Ġelev ated
Ġadj uster
4 0
d an
h og
Ġt ull
Ġt ins
Ġb ats
Ġf onts
Ġn ate
ll ip
ut o
Ġdo cs
Ġli am
Ġlo llip
Ġk omb
un ting
Ġar du
Ġins ign
Ġrefund s
Ġappreci ates
Ġsearch es
ann on
Ġlim bs
Ġmeant ime
Ġfrequ encies
Ġprem ier
Ġgrad uated
Ġden ver
Ġcash mere
Ġdele ting
Ġraz er
Ġbrad ley
person ally
Ġdimin ished
Ġinver ter
Ġmorm on
Ġcertific ate
Ġreman ufactured
g able
Ġw ives
Ġs iding
Ġthe s
ic ion
Ġj d
Ġfit flo
Ġexp oses
Ġtr in
Ġput ter
Ġdep os
Ġsweat pants
Ġund e
Ġwonder land
Ġrecogn izable
Ġdefe at
hel ped
Ġtread s
Ġreceipt s
Ġdc or
Ġtheat ers
Ġwaaa aay
Ġdestruct ive
Ġexagger ated
Ġblat ant
Ġbact eria
Ġauss ie
t ure
Ġi cons
Ġs own
Ġthe sis
Ġb ah
Ġf us
Ġmo cha
Ġbo ating
Ġdes irable
Ġgu ided
Ġdefin atly
Ġreal ise
wor n
Ġx y
sh owed
Ġfree bie
Ġfoot ed
Ġpick le
ons ider
Ġcollect ible
get ting
Ġview ers
Ġspan iel
Ġconsum ed
Ġhill ary
Ġbrook lyn
Ġsex ually
Ġcud dle
Ġactress es
Ġimpr int
Ġprolong ed
Ġalab ama
c p
h an
m l
s uction
Ġs ushi
Ġm ashed
ri a
em an
Ġen semble
Ġstar ing
Ġchrist ine
Ġmar g
Ġkeeps ake
Ġnight ly
Ġband ana
Ġve in
Ġhuge ly
cle an
Ġma j
Ġmir rored
Ġtrick ed
Ġtar ot
Ġsyn cing
Ġbreath es
Ġwild ly
Ġcompet itor
Ġwast es
Ġchop sticks
Ġeth ics
Ġsail or
Ġassass in
Ġsucc inct
Ġsarc asm
Ġclint on
Ġcarab iner
Ġpersever ance
Ġsuspen ce
g ies
j acket
m ir
Ġp ice
Ġre ese
Ġsh out
Ġlo bster
Ġho ll
ial s
Ġext r
Ġsk ating
ib les
Ġcur b
Ġgri me
Ġstock ed
Ġhero ines
Ġpowder y
Ġlemon ade
Ġcompre h
lar ger
Ġdepart ure
Ġrac ism
Ġado pt
Ġconvert ible
Ġdeterior ate
Ġros ary
Ġdistribut ed
mag net
Ġlubric ant
Ġrecomm and
Ġindul gent
Ġoverl ay
Ġtai wan
Ġdwar f
Ġunob trusive
Ġschnau zer
n ets
s and
Ġa mend
Ġc isco
Ġh ud
Ġre all
Ġbe le
Ġsh af
Ġus d
Ġbook mark
Ġgood y
el ity
ap ed
est a
Ġab ridged
Ġgl aze
Ġbag gie
Ġhead er
Ġbre nda
Ġra ved
Ġmar ines
Ġmess enger
Ġsand ford
Ġoil ed
Ġant lers
Ġhar vest
Ġpet ty
Ġequ als
Ġtrail ers
Ġprem ature
Ġexplan atory
mar ked
Ġmotorcy cles
Ġtour ist
Ġinse c
Ġcollap sing
Ġcompliment ary
Ġcert ification
Ġmicros d
Ġtodo s
Ġstencil s
Ġmerc ury
Ġreapp ly
Ġunderwhel ming
Ġcarn ival
c ake
d ged
Ġc ust
el f
Ġco bra
Ġr ott
Ġpre st
Ġri pe
Ġdiff rent
Ġkeep ers
Ġtri pped
ud a
Ġwa xy
Ġatt acks
Ġra unchy
Ġfact ors
Ġdi ps
Ġcomm only
perfect ly
Ġdev our
Ġlaw rence
Ġpic oult
uth er
Ġzip loc
Ġrob bed
Ġsaf ari
Ġtour ing
Ġtransform ed
Ġadm ir
Ġpoo ch
Ġet ched
Ġquart z
Ġlouis iana
Ġlick ing
Ġdl c
Ġcorks crew
Ġmyst ical
Ġbloss om
Ġt l
Ġth ie
Ġo we
Ġn az
Ġme ow
Ġfe eds
Ġle ase
Ġv ic
Ġag ency
Ġwr itting
Ġmon k
Ġend urance
Ġcl am
Ġro ger
ex plain
Ġfavor able
Ġpa lette
Ġcho ker
Ġpurpose ly
op ed
Ġnove llas
Ġber nie
Ġtroublesho ot
inform ation
Ġproce ed
Ġsentiment al
Ġbillion aire
Ġmast iff
intrig uing
Ġsennhe iser
Ġi b
Ġi do
Ġi cy
Ġp ep
Ġd ict
an tha
Ġe ee
om on
ro ck
ro lled
Ġsh ank
pp a
Ġmo en
Ġgood ie
Ġco y
Ġcan al
Ġup ward
Ġde ere
Ġpre pping
ens ible
Ġfun ko
Ġunder gar
Ġunder developed
Ġstart up
Ġrest or
Ġfa iries
Ġheat ers
Ġmac y
Ġnet book
Ġbuck led
Ġcolle agues
Ġhood ies
Ġantic lim
Ġath lete
Ġflare s
Ġstabil izer
Ġsup reme
Ġench anting
Ġtestim ony
Ġses ame
b el
u ating
Ġt m
Ġt are
Ġt ugging
Ġw ats
Ġs orrow
Ġu l
Ġam used
Ġread out
Ġthr ones
Ġim per
Ġrefund ing
Ġfunction ally
Ġbirth days
cc as
Ġdon ut
head s
ery l
Ġpor ter
Ġdispens ers
Ġassist ant
Ġlibro s
Ġobst ruct
Ġbobb in
Ġalle vi
Ġmcd onald
Ġabsolut ly
Ġchrys ler
Ġunforget table
n c
Ġn am
Ġbook case
Ġco ve
Ġwill ie
Ġk athy
Ġen ables
ind a
Ġhi red
Ġtri ggers
Ġcor ps
Ġper cy
Ġmar ilyn
Ġrep el
Ġav oc
Ġbra id
Ġprom o
Ġinv itations
Ġannoying ly
Ġdim med
Ġfresh ly
Ġaudio phile
Ġexam ine
super b
Ġcast s
Ġproof reading
Ġinspir on
Ġbio graphies
Ġpier ce
Ġoptim istic
Ġexperiment ing
Ġcomplet es
Ġweal thy
s ight
Ġa le
Ġb li
Ġn an
Ġl r
Ġre x
us b
ir y
Ġco ben
Ġho key
Ġac ura
Ġjo ckey
Ġimp orted
Ġinf ra
Ġgir affe
Ġpen n
Ġbra king
Ġbi bs
Ġpan ic
how ever
Ġcre ed
Ġpositive ly
Ġtom tom
Ġguitar ist
Ġsink ing
Ġgray ish
Ġdelight fully
inst ein
Ġsquee gee
Ġinte x
Ġclamp ing
Ġextend ers
Ġgig gle
Ġrac ial
Ġze lda
Ġdemand ing
Ġunse en
Ġavi ation
Ġredes ign
Ġattor ney
d iss
Ġb apt
Ġm n
Ġl ashes
Ġk a
Ġpo pe
Ġtr u
Ġcheap y
Ġbr at
Ġear ings
Ġbel ive
sh ad
Ġz ap
Ġem its
Ġgri pped
Ġeff iciency
Ġseal ant
Ġblo gs
Ġhero ic
Ġspo kes
Ġtransform ation
watch able
Ġmood y
Ġding ed
Ġles bian
Ġreserv ation
Ġcoffe emaker
h ound
Ġt sa
Ġth irds
ce ll
the ast
erf ull
Ġbro ch
Ġfo e
do x
Ġdra ke
Ġdeal ers
Ġrem ed
Ġsat an
Ġball er
Ġint rest
Ġbra very
Ġrecip ies
che aper
Ġbusiness es
Ġken neth
Ġbuff er
Ġincom ing
Ġbell e
Ġbrit ain
Ġvict ory
Ġtoast s
Ġcig ar
repl acement
Ġimpul se
Ġpert inent
a ic
k now
m ath
z els
Ġt um
Ġl s
qu ed
Ġk il
Ġsc ored
Ġsc ooper
Ġro aches
Ġreal ities
Ġclo gging
Ġimp lied
ose x
Ġres ume
sh ock
Ġmar red
Ġcap su
Ġtwist y
Ġform ulas
ah aw
pack aged
Ġpet co
Ġtee thing
Ġcrit eria
Ġebook s
Ġskull s
Ġrestart ing
Ġrepro du
Ġmand atory
Ġvibr ations
Ġrp g
Ġfoss il
Ġcapsu le
l ig
s ub
Ġre eds
ac ity
ul us
Ġthan x
Ġho ver
Ġgo at
mo on
Ġgr ater
Ġfil tr
Ġmar cus
ative ly
ord on
Ġvol vo
Ġsort ing
Ġcross bow
Ġshame ful
Ġcy mb
Ġpor que
grand daughter
Ġkle en
Ġunpack ing
Ġknuck le
Ġsadd ened
Ġwaterf all
Ġancest ors
Ġfiltr ation
m ain
Ġo ster
Ġc ages
Ġm its
Ġm unch
Ġp all
Ġha ce
Ġout age
Ġun attached
so ver
Ġdown gr
Ġac ces
Ġreal istically
Ġbrand on
Ġra ving
ix on
po ints
Ġvo ila
ugg ish
Ġcamp y
fr uit
Ġpets mart
big gest
Ġretain er
Ġreimbur sed
Ġculpr it
l ousy
Ġs orted
ll ant
Ġal p
Ġpl aster
Ġk ale
ear ly
Ġsc ans
ire ct
Ġhistor ian
Ġgym n
hard ly
Ġcarb ure
Ġquil ted
Ġexpert ise
Ġcrank ing
Ġvibr ating
alo gy
Ġexcell ence
mich ael
e z
t ool
Ġc fl
on na
ur ring
Ġr he
Ġho pping
are l
ps y
Ġpain ter
Ġmar in
Ġind is
Ġmid s
Ġzi pping
Ġir is
Ġsal ted
Ġtur k
Ġrou ters
Ġoffic ers
Ġresid ents
Ġspar ked
Ġenlight en
Ġtrump et
Ġobtain ed
Ġadhes ion
d ark
g reen
Ġc ured
Ġto oo
es a
on ic
an ian
Ġbut ler
Ġen cy
Ġapp l
Ġapp arel
Ġmin ister
Ġreg istration
Ġbul ges
Ġwall paper
Ġsqu ad
exce ption
Ġavail ability
Ġbear able
Ġrob ots
Ġrob inson
Ġdetect ives
Ġdispens ing
accur ate
Ġresc ued
Ġpoo h
Ġtreasure s
Ġbobb ins
Ġdiagn osis
Ġartif act
Ġlabe lled
Ġency clo
c ott
d avid
Ġn ag
Ġal ge
Ġcan yon
Ġde humid
Ġsp am
Ġsmall ish
Ġinter rupted
Ġfin ance
ang led
Ġcr ushing
Ġclo ver
Ġbab ys
Ġinv asion
Ġbrown ies
tr ay
Ġirrit ates
Ġcock er
Ġchains aw
Ġsuck ers
Ġpsych ic
Ġabund ance
i ating
w al
Ġf ret
Ġto ners
Ġg in
Ġe g
Ġst out
Ġch ills
Ġwork place
Ġco iled
Ġfr ye
ort ex
Ġtim ed
Ġcr ud
ol ver
Ġcou l
Ġz ane
Ġmid st
inter est
Ġmean ings
Ġcenter piece
Ġbond ed
Ġknot ted
Ġseper ated
Ġdisclo sed
Ġinevit able
Ġbirken stock
Ġgreet ing
Ġpunish ment
sty lish
Ġleot ard
c apt
d ies
m ouse
p in
Ġw oofer
Ġp yle
as ue
Ġwh ack
Ġj ets
Ġse th
Ġab dom
Ġcomp osed
Ġag ents
Ġcl ap
Ġinto ler
Ġsn ee
mm ers
Ġmus lim
Ġsub mar
su its
Ġhistor ies
Ġauto graph
Ġbuff et
Ġpros pective
Ġtact ile
Ġteas poon
Ġrepro duct
Ġpreschool ers
rem ote
Ġinval id
Ġcomprom ised
Ġcric ut
pill ow
Ġarro gant
1 5
j ames
Ġt ines
Ġb ice
Ġn un
lo e
Ġbec asue
Ġback lit
Ġfo lio
Ġwar ner
Ġexc l
Ġcharacter izations
Ġport folio
board s
Ġmid i
Ġnarr ated
ime ters
Ġfore arm
Ġbath s
Ġfro gs
Ġdoubt ful
Ġprior ity
Ġchrome cast
now here
Ġquir ks
Ġtheat rical
Ġaccompan ied
Ġcoh esive
Ġimpe cc
Ġswed ish
Ġunrel ated
Ġende avor
m c
Ġa ve
Ġi z
Ġth orn
Ġm iz
Ġp ts
Ġh ight
Ġmy stic
Ġout comes
Ġout lined
Ġfr umpy
Ġcon ceived
ag en
Ġpur ifier
Ġinteresting ly
Ġsch em
Ġpres idents
Ġalong side
Ġcop ter
Ġcop ier
Ġinv iting
Ġxl t
con cept
Ġiron ic
Ġvi able
Ġsyn ced
Ġsoooo oooo
Ġhoney moon
Ġrac quet
fi ghter
Ġutil ized
Ġbage ls
dire ctions
Ġtrous ers
Ġmh z
pow erful
i ation
in et
Ġd uff
ar io
Ġha gg
se a
ac ious
Ġan ton
Ġex ited
Ġat kins
Ġno is
itt ings
Ġho pper
Ġtr aded
au g
Ġgr ades
Ġsound bar
aut ion
bo b
ne g
Ġincl usion
Ġtrans cend
Ġrom per
Ġop rah
Ġjour nals
Ġwheel er
Ġcompat able
Ġflick s
Ġflick ered
Ġange les
Ġsqueez es
Ġcateg ories
Ġfulfill ing
Ġdread ed
Ġjaw bone
Ġbage l
Ġcontempl ating
Ġtink er
Ġenlar ged
Ġcapp ucc
Ġshaf ts
r ants
Ġh ems
ill ac
Ġor anges
Ġme yer
Ġrec onsider
Ġpo kes
Ġv ader
Ġsa pp
ath ize
Ġcar son
Ġsl r
Ġsl uggish
sh r
pr inter
Ġcam s
Ġsub jective
Ġform ats
Ġstraight ened
Ġseat belt
Ġfire arms
Ġframe work
Ġsun set
Ġnet working
Ġillustr ate
sc am
Ġcre st
Ġsam antha
Ġrev ived
Ġpil ots
ob i
Ġheaven ly
Ġpreach ing
sa ved
Ġsweeten ers
Ġaerob ics
Ġa the
Ġo ats
Ġn f
Ġl ush
as ide
st ract
ir teen
Ġab stract
Ġdis organized
ish i
Ġche ering
Ġcr v
Ġcr ane
Ġstand point
Ġreg isters
Ġconst ric
Ġexc urs
Ġind u
Ġgar bled
Ġcol a
Ġdock ed
Ġbib les
Ġarc ade
Ġtro y
kn ife
Ġpier ced
Ġtac o
Ġglor ious
Ġcamel b
Ġscrapbook ing
Ġunhe althy
Ġplacem ats
Ġunimagin ative
Ġrit ual
Ġhass les
Ġt ame
Ġa aron
er es
Ġb c
Ġh ulu
Ġd io
Ġe llen
Ġch im
Ġv ionic
Ġbl aster
Ġhis sing
Ġplastic y
Ġair brush
Ġdi pping
Ġvis ors
Ġpar ked
Ġbal cony
Ġempt ying
Ġdrain age
Ġbrilli ance
plic ated
Ġflav our
Ġcad illac
Ġbush es
Ġox id
Ġni bs
Ġclump ing
Ġmarshm allows
Ġrawh ide
Ġstee le
e nder
n i
Ġf atter
Ġc um
un ct
Ġpe bbles
Ġprot o
Ġinf lexible
Ġcut eness
Ġsw apping
Ġdam on
Ġmat rix
Ġunb re
amazing ly
kind le
Ġvivid ly
Ġsuspect s
Ġdisintegr ate
Ġbrid ges
Ġmesmer izing
Ġkeller man
Ġsurg ical
Ġhud son
r ons
t one
Ġg ur
Ġg mo
Ġg ordon
ble ms
Ġout ward
Ġk l
Ġdis res
ag s
Ġri gged
Ġres pected
Ġdri pped
Ġunt angle
Ġval ance
Ġsens ational
sc ale
Ġver ry
Ġsew er
Ġske leton
Ġassum es
aa ay
Ġspar ingly
Ġdre ary
Ġuniform s
Ġreh ab
Ġacqu ire
Ġsig ning
Ġunderst ated
Ġprogramm able
l ate
Ġt attered
Ġp att
Ġh ic
Ġd angle
it ating
Ġnot ep
Ġin line
Ġin let
ke eping
Ġse uss
Ġout last
Ġup wards
Ġun watchable
Ġtw ine
te c
Ġshow ering
ang les
Ġmar c
po ly
po ons
Ġcall ers
Ġrecip ients
Ġdist urb
Ġsleep y
Ġeye br
Ġwidth s
Ġcross fit
Ġking ston
Ġrelig ions
Ġlou ise
Ġportray ing
stra ight
Ġreb ate
surpr ised
wo ven
Ġrestrict ive
Ġlaunder ed
Ġemboss ed
Ġcashew s
Ġparad ise
blu etooth
h ou
w ax
y ep
Ġc k
Ġl te
Ġg ree
Ġe cc
Ġso aks
ill es
Ġun certain
Ġv ain
Ġar ises
Ġmay o
Ġsl ang
Ġsuper bly
Ġkid na
Ġwom ans
Ġlisten er
umb ling
Ġblu ish
use able
Ġequ ipped
Ġnut ty
Ġcub a
Ġmotiv ate
Ġfid dling
Ġpud ding
Ġdeploy ed
fil ter
d ear
Ġi pods
Ġth irteen
Ġl ather
Ġdo orm
Ġsh ure
pp age
Ġpro hib
Ġcom mend
el and
Ġbo g
Ġstar ring
Ġtri bul
Ġgr ating
Ġra pp
Ġtra um
Ġdress ier
Ġtaste ful
ia h
omet own
Ġmat ress
cle ver
Ġmail s
Ġdin o
bu ying
Ġsouth west
Ġmotiv ations
Ġbattle field
Ġjournal ing
Ġunw ind
Ġslid ers
list en
Ġjet ta
flow ers
Ġeste em
Ġcomplet ion
Ġneglect ed
Ġorph an
Ġmarg aret
Ġcarbure tor
Ġtribul ations
b ub
g rew
et ta
Ġwe nd
Ġsh ir
Ġpro pri
ra ine
Ġsi enna
Ġpo ach
Ġinter woven
Ġdef lect
Ġimm ort
Ġsun k
Ġfold able
iss ions
Ġrock ed
Ġfoc al
Ġdon uts
Ġbur ke
Ġny lab
Ġpolit icians
Ġcrit ics
Ġtin a
Ġcompet ing
Ġcommunic ating
Ġroast ing
Ġles lie
Ġilleg ible
Ġbrides maids
Ġsampl er
Ġentreprene ur
Ġzeal and
c art
h ang
n asty
Ġt ung
Ġw s
Ġh ometown
Ġne o
Ġout back
un ci
Ġover size
Ġinst inct
ud o
Ġpe ac
Ġaut or
Ġkind ly
Ġmis o
Ġdec ipher
Ġstra it
os ter
Ġsme lt
iv able
Ġrem arks
Ġgir th
Ġflo yd
Ġgri m
Ġentertain s
Ġpract ition
Ġce il
Ġcy an
Ġhy po
Ġcarpet ing
Ġtor o
Ġspl ot
Ġign ores
Ġbitter ness
Ġnavig ating
Ġtoler ance
Ġampl ified
Ġdemand s
Ġcelebr ate
Ġome ga
Ġexcerpt s
Ġfertil izer
Ġupholster y
z illa
Ġt et
Ġh ull
Ġn ubs
ou fl
Ġl m
Ġto pped
Ġy up
Ġso ren
Ġqu ot
Ġpo ll
Ġche es
Ġkn ack
Ġri pper
Ġsl aves
Ġshort age
Ġmis matched
Ġdeli ber
Ġadjust ability
Ġdi agon
Ġdoll y
Ġsil hou
Ġsweet ened
play ed
Ġlaw yers
Ġdepth s
Ġban ned
Ġcass ero
Ġwand er
Ġinno cence
Ġnu clear
Ġprincess es
Ġsac red
Ġramb les
Ġprinci ple
Ġportra its
Ġcrock pot
smo oth
h ubby
k no
Ġs ally
Ġre ass
Ġe tern
Ġch aff
Ġlo an
Ġpro ving
Ġsu nd
Ġk is
Ġk ap
ink le
Ġdes cend
ens on
Ġact u
Ġhigh lander
ms on
Ġswe eping
Ġpar ody
Ġsens ory
Ġrese ll
Ġhing ed
bet ween
Ġroot ed
Ġwand ering
Ġcivil ization
Ġwil ton
Ġpupp ets
Ġtort illas
Ġinj uries
Ġpron unci
Ġunderwhel med
oret te
Ġbachel orette
Ġunco vered
Ġtull e
r ug
Ġt pu
Ġb ish
Ġb itty
Ġh vac
Ġg als
le aves
th ood
pp ie
Ġpl ag
Ġk u
Ġpre teen
Ġover load
Ġkn e
Ġbit ters
Ġwatch able
bo at
Ġent it
Ġele vation
Ġbra ins
Ġpass able
Ġpar ade
Ġfly s
Ġchip m
Ġmuff s
Ġsav ior
Ġtoothp ick
Ġbarn es
Ġpud dles
Ġmargin ally
Ġentre ten
Ġisol ation
mic ro
ridiculous ly
Ġtwe aking
Ġsug ary
Ġgodd ess
Ġextrem ly
gener ally
Ġnaz is
b ir
l iness
v ide
Ġs avor
Ġb oooo
Ġli fter
Ġj vc
pl us
Ġaw g
Ġfl int
Ġcar riers
Ġstra ining
ier a
Ġcur ren
Ġele gance
Ġshar on
Ġleather man
res so
Ġvac cum
Ġdig its
Ġhar p
Ġcott age
Ġappe als
Ġcri m
Ġsalt water
Ġabsor ption
Ġconvers ational
Ġden ied
Ġsha ved
Ġpolar oid
Ġpistol s
Ġado ption
Ġmort al
Ġdetract s
nold s
vol ume
Ġspellb inding
Ġnaut ical
Ġceremon y
Ġwats on
9 0
n ier
Ġre he
Ġr er
Ġout ings
Ġsu ll
Ġde e
lo ading
Ġsp encer
Ġbo bble
Ġher os
Ġend orse
Ġjo g
Ġshort est
Ġmis ter
ci o
Ġcare full
Ġnight time
Ġshar ks
Ġconf lic
Ġer ased
Ġblu er
Ġpet ro
Ġpot ent
Ġsmo key
Ġempt ied
Ġpatch ed
Ġbull ying
Ġjud g
Ġdiv ide
bre aker
Ġsciss or
Ġpreschool er
Ġimprov ise
Ġdement ia
Ġoxy gen
Ġanticlim actic
Ġturk ish
f ills
g ene
z one
Ġl ull
Ġst i
al i
Ġj b
ra p
Ġco gn
Ġwill is
Ġke l
Ġfl aming
Ġsli ppage
Ġcam oufl
Ġprov ocative
Ġve ts
Ġfre aked
Ġtrick le
Ġwid ow
Ġclos ets
Ġwaterproof ing
Ġgain ing
Ġnightmare s
Ġinvestig ate
Ġrecall ed
Ġcliffh angers
Ġindepend ence
Ġdj i
Ġbou quet
Ġpodcast s
Ġcontra ption
n it
t alk
x im
Ġp oth
ed dar
Ġd na
Ġre wards
Ġe instein
Ġch ow
Ġch eddar
ere k
Ġr ico
Ġuse ing
Ġun useable
Ġle ar
Ġar nold
Ġcl umpy
Ġcoll een
Ġsummer time
Ġcell ular
Ġrand y
Ġbur ger
Ġnav al
Ġow en
sim ilar
Ġlawn m
Ġdang ers
pleas antly
Ġoptim us
Ġflood ed
Ġgod zilla
Ġinevit ably
Ġvoy age
Ġperm ission
Ġfingern ail
Ġenvision ed
Ġpel ican
Ġrey nolds
Ġfundament als
Ġardu ino
Ġdehumid ifier
Ġcamelb ak
xim ity
c all
e ves
i ments
l ength
u u
ar ound
al ie
Ġne arest
Ġsm idge
Ġle igh
Ġfo gs
Ġcont ribution
mo il
Ġcar o
do a
Ġport ug
Ġrid dled
Ġtravel ers
Ġperform ers
Ġlay man
Ġwed dings
Ġjump y
Ġtur moil
Ġsharpen ers
Ġspl ice
Ġrev ision
Ġpublic ations
Ġflower y
Ġrail road
Ġchoo ses
Ġinfra red
Ġunbre akable
a we
c ook
p c
Ġa acute
Ġs nd
Ġn pr
Ġco herent
Ġk ane
Ġde pp
Ġfe ist
hor se
Ġinc idents
Ġbright ens
Ġblue grass
Ġball istic
Ġprom pted
Ġje llo
Ġev an
Ġev ange
igh th
Ġboard ing
Ġflash ed
Ġrough er
Ġeye let
Ġwo ld
Ġcomplic ations
Ġrev ise
Ġq i
Ġembarrass ment
Ġdefe ating
Ġsan it
Ġdrum mer
Ġgogg le
Ġfund s
Ġdisassem bled
Ġlex mark
Ġaband on
Ġdisapo intment
Ġpredecess or
c ontin
p ull
Ġw olver
us cript
Ġha zy
act ual
Ġtw ain
Ġyear ly
Ġfl att
im age
Ġcr ouch
Ġdog gy
Ġscreen ed
Ġye lling
Ġge omet
Ġspirit ually
Ġhom osex
bl ue
Ġign or
Ġdiv ision
Ġket ch
Ġven ice
Ġfragr ant
Ġbudd ing
bott le
Ġagre ement
Ġcrimp ed
w ide
Ġp interest
Ġg arn
om atic
Ġlo ft
Ġr angers
Ġk ansas
Ġman uscript
pl anted
Ġimp aired
ank ing
Ġbun ion
Ġpin ned
Ġmel on
Ġshut off
Ġrepair able
Ġempt or
Ġinfl ation
Ġcent uries
Ġban jo
Ġach ing
Ġeditor ial
Ġcommand er
Ġevol ving
Ġtroubles ome
Ġsher iff
Ġacid ic
Ġuncom mon
Ġsten ch
Ġknight s
Ġincreasing ly
Ġpes ky
Ġsnowboard ing
Ġfier ce
Ġimpecc able
b earing
r ont
in side
Ġp ict
ro y
ill ion
Ġj f
Ġj s
Ġmo ck
Ġpro ximity
Ġex iting
Ġal way
Ġout right
ort s
Ġthere after
Ġsc outs
Ġche et
ens ical
Ġthing y
Ġcr ummy
Ġple ats
Ġfull est
ex cept
Ġair lines
Ġslow ing
Ġhands ets
Ġflavor less
Ġfire fighter
Ġink jet
Ġorgan izers
Ġfresh man
Ġwid est
Ġvacuum ed
Ġcraf ty
Ġdin ners
unt u
Ġgain s
bre aking
Ġyuck y
Ġox ford
Ġremas ter
connect ed
Ġalzhe imer
Ġalk aline
Ġalge bra
h t
p ix
w au
Ġw ets
Ġc ree
Ġp arch
Ġh ans
Ġto mb
Ġre gg
ad vant
ro it
Ġdo d
Ġch ir
Ġse ized
and ra
Ġcomp ra
appoin ted
Ġfar mer
Ġturn ers
Ġdet roit
Ġthank you
Ġdevelop ments
Ġce ased
Ġaff airs
Ġswim s
Ġver bal
Ġmad ness
Ġdeter rent
Ġphil ipp
Ġlocks mith
Ġpend ants
Ġplatform s
Ġcelebr ity
Ġparall els
Ġartic ulate
Ġobserv ation
Ġrelo c
Ġverb ose
Ġruff les
Ġmaid en
Ġdiscoura ged
Ġplex ig
Ġthirst y
Ġharle quin
Ġpropri etary
Ġpeac ock
wau kee
Ġparch ment
m ail
re nder
Ġf used
Ġm ould
Ġlo bby
un ique
act ive
Ġres ur
bs p
Ġz ones
pr ay
Ġsy ring
Ġdr ool
Ġmult itude
Ġword ed
Ġwrist let
Ġcamp fire
Ġprompt s
Ġcol omb
Ġbur ton
Ġsha ver
Ġconver ting
Ġelimin ating
Ġalcohol ic
Ġhan ks
Ġorth o
Ġpretend ing
Ġsplinter ed
cost ume
unbelie vable
Ġindis pens
Ġf isk
at in
Ġnot ifications
pp ily
Ġso oth
st en
Ġpl ump
Ġk ers
Ġsi ren
Ġfr onts
Ġad ul
Ġte ase
Ġsoft ened
Ġdro pper
Ġsy d
Ġstretch er
Ġmulti ples
Ġye ll
Ġsnow man
Ġapproach ing
yy y
Ġclim ates
Ġbond ing
Ġqual ified
Ġfer ret
Ġpi per
Ġescap ing
Ġgut ter
Ġpom er
Ġalt ima
Ġkin ect
Ġmant le
Ġjama ica
Ġdisres pect
m ounted
v ised
Ġb ons
Ġh ating
at us
le um
ch anged
ac a
Ġret reat
thing s
Ġaw es
Ġapp ar
Ġsn appy
Ġdec line
sh ows
Ġfan ci
Ġper ception
Ġind ig
Ġsqu ared
Ġpass ive
Ġpu er
Ġmil waukee
Ġbal m
Ġwheel chair
Ġcol um
Ġfu ji
Ġtor x
Ġange la
Ġnu ances
Ġspy der
sme lled
Ġtitan ic
Ġsed an
Ġcounse lor
Ġspong es
Ġdexter ity
Ġsilhou ette
vide o
k id
Ġ velo
Ġt aps
Ġc reme
Ġn ash
Ġto ooo
Ġd erek
me asure
Ġus ability
Ġr ant
Ġpl ight
Ġtr out
Ġph d
Ġhand ker
Ġhel per
Ġpoor er
Ġinf om
Ġx small
Ġmust ache
Ġroom ier
Ġpast ry
Ġrest arted
Ġgar ter
Ġcart s
Ġvac ations
Ġspecial ized
Ġappro ve
Ġspot ted
Ġcross word
Ġcol in
Ġstre ams
Ġfac ep
Ġpoin ters
Ġartic ulation
Ġaccompan iment
Ġredes igned
Ġhast a
Ġchaf ing
Ġminer als
Ġencyclo p
Ġceil ings
Ġpetro leum
Ġhandker chief
c co
r ina
t em
Ġt aff
Ġs ittings
Ġl akes
Ġl ugs
Ġd izzy
le on
ad ium
Ġdo ber
Ġch loe
Ġco lo
Ġhe ap
Ġun helpful
Ġv tech
Ġbl iss
Ġlight en
Ġins ist
Ġsn ob
Ġdec lined
Ġtra its
Ġones ies
Ġbri ggs
aw kward
Ġexc uses
Ġcapt ive
Ġsweat shirts
Ġcross es
Ġray on
Ġtherm ometers
Ġram en
Ġry obi
Ġcher ish
Ġmanip ulation
Ġmemoir s
Ġgs d
Ġreson ate
Ġgn ats
Ġunz ipped
Ġprope ller
Ġhyd ration
Ġcater pill
mus ic
Ġscoo by
Ġaccomod ate
Ġcappucc ino
Ġlawnm ower
k ie
w ired
Ġt ux
Ġw er
Ġthe o
Ġb j
in ates
Ġp edi
Ġp ige
Ġd itch
as i
id ences
Ġu ber
Ġti ara
Ġfr uity
Ġno ses
Ġle ery
Ġv ouch
ab a
Ġdes de
Ġbro s
ens er
Ġcl unk
Ġear lo
edi um
Ġscratch er
Ġappre hensive
Ġhealth care
con ven
Ġut f
Ġunre solved
but ton
Ġcamer on
Ġstack able
Ġdiscontin ue
Ġnons ensical
Ġbudd h
Ġmand olin
Ġshim ano
Ġicon ic
turn s
Ġcrink led
Ġlaunder ing
Ġsucc ul
Ġcomed ies
Ġplast icky
Ġbli zzard
Ġtung sten
Ġsull ivan
l isted
m aker
p ages
w id
me ter
Ġsh t
Ġsh aper
Ġu ppers
Ġj ing
te x
Ġfl ared
vel ess
Ġjo ining
Ġtight est
Ġkid napped
ci ating
Ġdri bble
ead y
Ġmet iculous
Ġpick les
Ġob lig
Ġheart broken
Ġslee veless
Ġthri ve
Ġflex es
Ġther mo
port ant
Ġpor ous
Ġdeath s
ru ciating
uch a
Ġjer ker
Ġbreast fe
Ġbund led
Ġrebo oting
Ġinterpret ations
Ġcompassion ate
Ġdivers ion
whe el
Ġdil uted
Ġexped ited
Ġdiscre et
Ġreseal able
Ġjere my
Ġkomb ucha
Ġbish op
c ube
g ly
k ick
Ġth w
Ġb ale
Ġo mitted
Ġg iz
Ġis t
Ġsp ont
Ġsa vers
Ġbrand ing
Ġper c
co ck
Ġsmooth ing
perf orms
Ġcountry side
Ġsmo ky
Ġpleas urable
Ġsteam ed
Ġassum ptions
Ġbump ing
Ġden nis
Ġsav annah
Ġmur ray
Ġca ulk
Ġquant um
Ġtort ured
Ġder iv
Ġfisher man
Ġillum inating
Ġpromot ional
Ġsubsequ ently
Ġmarshm allow
Ġcounse ling
Ġunde veloped
Ġbele ive
Ġignor ance
f avor
g il
l ay
m ary
m atic
Ġw ag
Ġg w
Ġre ins
th ird
Ġfor um
Ġy ah
Ġhe ed
Ġdis li
Ġmu le
Ġafter math
Ġcase y
be th
Ġear plugs
Ġed en
po st
Ġconf ir
sle eves
char ging
Ġden zel
Ġinaccur acies
Ġpret zels
Ġharmon ies
Ġdiscus ses
Ġconfigur ations
Ġmasc ara
Ġrais ins
Ġcompreh ension
Ġinsec ure
Ġremed ies
c al
m ont
n ap
s ay
y uck
Ġa ur
Ġw oud
Ġl est
Ġst al
Ġsc op
Ġpurch as
Ġbr itt
Ġtim othy
uck le
Ġpa ula
Ġrel ive
Ġbar bec
Ġpu ch
Ġhat red
Ġarm ed
Ġmac s
Ġhar vey
char ge
Ġmechan isms
Ġdisp ose
Ġengine ers
Ġscra bble
Ġbrit a
Ġach illes
Ġnorth west
Ġexpos ition
Ġjen ny
Ġindepend ently
Ġeth ical
Ġprope llers
Ġwarren ty
Ġmeand ering
Ġpts d
Ġscop es
b n
ro b
ac in
Ġr ises
Ġpr att
Ġover board
Ġte ac
Ġinter pre
Ġpe ep
Ġins ure
Ġcor vet
Ġres ent
Ġclass ified
Ġint ensive
Ġcook top
Ġcho ked
Ġdep icting
Ġsaw dust
Ġcal ipers
Ġtrack ed
Ġaff irm
Ġtin iest
Ġww i
Ġprim itive
sto cks
Ġquil ter
Ġchron ological
Ġbod ied
Ġado be
Ġreject s
Ġinfect ed
Ġhah aha
sus pense
Ġriff s
Ġdistill ed
Ġdoorm at
Ġketch up
t own
Ġpl ow
Ġab it
Ġtime frame
Ġle v
Ġins ider
Ġmin ing
Ġref lex
cept ible
Ġlevel ing
Ġeyes ight
Ġcell o
rit ious
Ġstre aky
Ġmad ison
Ġunre ason
Ġeduc ate
Ġhorri fying
Ġadvertisement s
Ġpotter y
Ġfer rets
Ġlect ures
Ġhaul ing
Ġdp i
Ġcoord inate
Ġmitch ell
Ġcoinc idence
Ġvolunte er
Ġkleen ex
Ġentit led
b ac
Ġi acute
Ġb if
Ġf x
at ley
pp ies
Ġmo ccas
Ġpro logue
Ġam bi
Ġdis advant
Ġrec k
Ġun broken
Ġprotect er
Ġsur vey
Ġreg ain
Ġbas il
Ġdi ves
Ġpost al
Ġsuggest ing
Ġpow ders
Ġship ments
Ġshr ug
Ġproof ing
Ġstruct ures
bre aks
Ġdisapp earing
Ġbound aries
inte ll
Ġexclus ive
Ġdiscou rage
Ġannoun ce
Ġhighlighter s
Ġfingern ails
Ġmau i
Ġaccommod ating
Ġub untu
Ġido l
Ġcamoufl age
Ġkers haw
favor ite
i enced
r ine
t ly
Ġl ures
Ġd ia
oo sh
Ġan i
Ġr iser
Ġseem ing
Ġins isted
Ġsto ked
Ġinf used
Ġfast ening
Ġpers ist
Ġexc ruciating
Ġdam pen
Ġplan ets
Ġlearn t
Ġpresent able
res den
Ġill usion
Ġsens ible
Ġlink ing
Ġhy dra
Ġnut ritious
log ically
Ġcirc uits
Ġxx s
Ġreflect ing
Ġsoooo ooo
Ġgap ing
Ġash tray
Ġunst itched
Ġclim atic
short s
Ġquad cop
Ġfoll ower
Ġrenew ed
Ġcul inary
Ġaven gers
Ġacknow led
Ġuninsp iring
Ġforbid den
Ġsnipp ets
Ġshir ley
Ġflatt ens
2 50
3 50
Ġn ip
Ġin just
Ġdo ses
Ġdo yle
ri ll
ust ing
qu eness
uct ions
Ġk ool
Ġhe nd
Ġde bor
Ġcon soles
Ġun installed
Ġtr oops
Ġar ise
be am
Ġgr ays
Ġmin ty
ub ishi
Ġsuper vision
Ġem erald
po pped
Ġsqu ashed
Ġvac c
Ġspot light
Ġreli ed
Ġgoo gled
Ġtrain ers
Ġsick ening
Ġstamp ing
Ġcore y
Ġunst uck
Ġtil ting
Ġpig gy
Ġscre ams
Ġsoph ia
screw s
Ġchron o
Ġairpl anes
Ġsett ling
Ġundersh irts
Ġpatri otic
Ġadmin istration
Ġimpat iently
Ġmudd led
Ġconstit ution
Ġgoth ic
Ġpse udo
Ġrobber y
l uck
r ary
Ġw ove
Ġb ater
Ġc j
Ġd resden
on ym
Ġre ign
Ġre built
Ġe agles
Ġbe for
Ġbe aded
Ġso res
Ġmo lle
Ġr ational
Ġcon quer
Ġdis able
Ġlove able
Ġrec ondition
ide on
Ġfun cion
Ġro gers
Ġcou pe
Ġori ental
Ġgra ft
Ġgar land
Ġgener ously
Ġsharp ies
Ġappro val
Ġlim iting
Ġten th
Ġten nes
Ġchem ically
Ġaccept s
Ġpolic ies
Ġunra ve
Ġbleach ed
Ġcran ked
Ġeval uation
Ġblem ish
Ġdeploy ment
Ġvin cent
haw k
Ġarab ic
Ġscramb led
Ġbuddh ism
Ġtennes see
p ur
Ġth ump
nd ers
Ġn al
Ġn ub
Ġd int
Ġnot ices
th us
Ġe cle
Ġwas ter
Ġwas ps
ro se
Ġpl z
Ġwell ness
Ġdis rupt
Ġlight bulb
pl ate
Ġlast ly
Ġact uality
Ġcl ad
ath e
Ġfound ing
Ġunt ouch
Ġcool ers
Ġbelieve able
sem ary
Ġmechan ically
Ġdeg ener
Ġgrill e
Ġmax well
Ġphotograph ed
Ġsignific ance
Ġobs erved
Ġsan ford
suit able
thy st
Ġdom ino
Ġidi otic
Ġchill ed
Ġcyl ind
Ġcric ket
Ġsyl vania
ete ly
prom pt
Ġmits ubishi
Ġencyclop edia
Ġt shirts
Ġw ann
Ġs g
Ġm x
Ġm ck
it an
on ics
Ġan a
el in
Ġhe pa
Ġfr ays
Ġfe ared
Ġle ary
Ġv ortex
Ġbl ouses
Ġman ne
Ġgl az
Ġgl enn
Ġra pt
os ity
Ġey ep
Ġhair line
Ġsleep ers
Ġprefer ences
Ġcro pped
Ġwig s
Ġaffect ing
Ġpit a
Ġunst eady
sound ed
Ġcock tails
Ġko i
Ġillumin ates
Ġcrumb ling
Ġsig ma
Ġgreg ory
Ġspong y
Ġame thyst
Ġdehy d
Ġcontrovers ial
conf using
3 4
h ensible
i y
m ount
p ul
Ġc p
Ġto ll
ver ty
Ġst ared
Ġhe in
Ġhe lla
Ġab ra
Ġsp here
Ġpur suit
Ġman agers
Ġthin ly
Ġunt ied
Ġrest room
Ġphoto cop
Ġsatisf ies
Ġbun ions
Ġlower ing
Ġcru ising
agra m
Ġprogress ively
Ġmas king
Ġinflu ences
Ġet ching
Ġfid elity
Ġdisintegr ating
Ġimplement ation
Ġsex uality
Ġtoothbrush es
Ġoli ves
Ġcrumb les
Ġcrimin als
Ġloaf ers
Ġyuk on
Ġsyl via
Ġdevast ating
Ġkent ucky
Ġbing o
Ġisa ac
Ġetern ity
a verage
f u
h r
p it
w asted
Ġ 6
Ġg aze
Ġha ze
Ġwh ale
Ġall oy
Ġfit z
est ation
ig ra
Ġsp lic
Ġpo verty
Ġhand gun
Ġdec o
Ġx m
sh ot
Ġones elf
Ġper me
Ġcons cience
Ġdry s
Ġwalk ie
Ġprom otes
Ġsnug ger
Ġbrown ing
Ġice land
con tains
Ġsurv ives
Ġrecie ving
Ġmaster ing
Ġphotograph ers
Ġcompet ent
Ġdar th
Ġclich ed
Ġmono poly
Ġgrat itude
Ġsupr ise
Ġdemonstr ate
Ġcoord ination
Ġbirken stocks
Ġdehy dr
Ġves sel
Ġrestor ation
Ġbroch ure
Ġbons ai
i ro
n f
Ġ urn
Ġt aurus
Ġw ally
Ġc ual
Ġd unk
Ġg ideon
Ġbe ers
Ġr ho
Ġsi bling
Ġun set
so red
Ġpe ed
Ġcar ved
Ġro semary
ip id
ning s
Ġsw ears
Ġav a
Ġsaw s
Ġsmooth ed
Ġtrack ball
Ġimag inary
asc ar
Ġnat alie
Ġger mans
Ġwig gling
Ġfluff ed
end ing
Ġemp ower
cr ack
Ġax is
Ġdun can
Ġgroom er
Ġproce eded
Ġindispens able
wid th
Ġambi ance
e at
l ace
m ult
t ax
Ġt ud
Ġp ike
Ġh ick
ll ect
it ated
is a
Ġre na
Ġon kyo
ic ature
Ġam or
Ġlook in
Ġun id
Ġpo ppy
Ġar ctic
Ġte k
Ġthr ought
Ġinter rupt
Ġcame o
Ġcar icature
Ġdefin etely
Ġcr itter
Ġsli ver
Ġmag ically
Ġpast els
Ġdi ets
Ġev ocative
Ġmat urity
Ġwal nuts
Ġocc ass
ield y
Ġpersonal ize
Ġgraph ite
Ġinex plic
Ġreco vered
Ġstre aking
Ġantenna e
Ġque ens
Ġguard ian
Ġweld er
Ġsoci et
Ġexhaust ed
Ġsom thing
pic able
Ġfri zzy
Ġimperfect ion
spe aker
Ġlend s
Ġelli ptical
Ġmanif old
Ġimpat ient
Ġadvers ity
Ġproto col
Ġjudg ment
d ull
n ormal
Ġw ou
Ġs ought
Ġl on
Ġl av
Ġg pu
ro p
Ġli ken
Ġan not
Ġor de
Ġco b
Ġjust ified
Ġdis may
fe w
Ġinf er
Ġmis ery
Ġprob es
Ġper imeter
Ġwhite board
Ġgri ppers
Ġmodel ing
Ġmor ris
Ġmail er
min ator
Ġillustr ates
Ġjour neys
put er
Ġsmo kes
Ġabs ent
ifi able
Ġlam inator
Ġgro ve
Ġdumb est
bal t
Ġjumps uit
Ġcad ence
Ġdissappoin ting
Ġaim ing
Ġtriumph s
Ġquail ty
Ġingen ious
Ġthie ves
Ġjf k
Ġplexig lass
Ġdober man
t oy
t asted
Ġa pe
Ġb p
ion age
Ġco lt
Ġco balt
ig ans
Ġun original
Ġhas h
Ġman ners
Ġwatch band
Ġinf ants
Ġdel ays
edi ed
Ġsw amp
aw some
Ġplug in
Ġrem edied
Ġdark est
Ġsch w
Ġlength wise
Ġsqu ats
Ġsand erson
Ġass urance
Ġpar ake
Ġexch anges
Ġweather ed
Ġterri fied
Ġchurch es
Ġlatch ed
Ġemp owering
Ġchamp ions
old er
Ġarg ent
Ġdeb ate
lip se
Ġmemor ized
Ġrib bed
Ġwack y
Ġpec ans
Ġnutri ents
Ġsplur ge
Ġfeist y
Ġtaff y
l inks
Ġi q
Ġp ci
Ġd k
it arian
ar thy
Ġst ow
Ġan o
Ġal gun
Ġsome place
Ġun to
Ġtr ough
Ġar sen
Ġpur su
Ġthere for
Ġdes picable
Ġcover up
Ġref in
Ġdesign ated
Ġel k
Ġhour glass
Ġsw oon
Ġoverall s
iv ating
Ġlist ings
Ġclass mates
bb led
Ġdoor way
Ġmot ives
Ġhon ored
he it
Ġinex per
Ġmagn um
Ġspir ited
Ġut ah
Ġcompar isons
Ġphys ician
Ġearth y
Ġcub icle
Ġunw ieldy
Ġtables poon
Ġtort illa
Ġimagin able
Ġdos nt
Ġesp ionage
Ġfran ken
Ġvul gar
aud io
Ġcommut ing
Ġexceed ingly
Ġdissip ate
Ġcollabor ation
Ġhedge hog
Ġhym ns
Ġastound ing
Ġcamis ole
Ġtes la
Ġgymn astic
Ġkidna pping
Ġlear ner
Ġpomer anian
e le
Ġt ents
Ġi w
Ġn ations
Ġnot able
Ġin advert
Ġst adium
Ġy oy
Ġup loaded
ass ed
Ġsl ed
Ġfall out
Ġsn oop
Ġdr ones
ank y
gr an
Ġform a
Ġuni queness
Ġmor ality
Ġla ur
Ġbun s
Ġdan ced
mb ers
Ġrain bows
Ġshap eless
Ġinsert ion
Ġclar inet
bl ower
Ġdream ed
Ġram ps
Ġken wood
Ġadapt ors
Ġpist on
Ġborrow ing
Ġscholar ship
Ġwreck ed
Ġdow el
Ġpersona jes
Ġinfrequ ent
mot or
Ġfacep late
conven ient
b ber
l oose
r ates
s illy
x ie
Ġb itten
ed or
Ġl uther
Ġg im
Ġbe autif
ome ver
Ġme gan
Ġfe ver
Ġlong ing
Ġman h
Ġfl ax
Ġfl ushed
az ard
Ġhand writing
edi ately
Ġcam aro
eng ers
Ġslow est
Ġcontin ual
Ġwood working
Ġview points
Ġhur ried
umb ar
perf orm
Ġreme mbers
Ġbeach es
Ġabs ence
Ġfool s
Ġsan ity
Ġsin atra
Ġrect ify
Ġatl anta
Ġdevelo per
Ġproofread er
Ġgrape fruit
step h
Ġdiscre p
Ġdisgu ised
Ġdani els
Ġwides creen
Ġrg b
Ġavoc ado
Ġsapp hire
Ġcorvet te
Ġnal gene
6 4
d et
v ance
Ġc oo
Ġg ly
Ġg est
Ġmo lasses
Ġam en
ul ative
Ġmu ck
Ġpe can
Ġjo ins
Ġshow case
Ġsn ail
Ġthin ness
Ġreg ions
Ġrel ies
Ġtable top
Ġdark en
po le
Ġwalk ers
Ġdi aries
Ġnarr atives
was hing
Ġsand les
Ġnon fiction
Ġtow ing
Ġhar v
Ġrich ly
Ġauto zone
Ġdu et
Ġcommun ist
ik i
Ġesc rit
Ġscript s
cl asp
Ġtack s
Ġshine y
Ġrespect s
Ġcass ettes
Ġenlight ened
Ġec lipse
Ġder by
Ġmargin s
Ġsacrif ices
Ġcorrespond ing
Ġgene alogy
Ġcoupl ing
Ġdolph in
Ġsel ves
l ink
Ġl umbar
Ġd as
ad or
Ġy u
Ġli mb
Ġse ahaw
Ġr ally
Ġal f
Ġk ona
ers ed
Ġen comp
Ġdis regard
Ġover bearing
Ġtw itter
we igh
Ġlar son
au er
Ġins anity
Ġstra ined
Ġx ps
Ġz o
Ġgri pper
Ġob d
Ġglo bes
Ġaff ix
Ġrain coat
Ġrechar ges
Ġcleans er
Ġlean ed
uk i
Ġmcc arthy
Ġcran berry
Ġelev ator
Ġcric kets
Ġcros sover
Ġreimbur se
Ġscor p
Ġsuz anne
b ast
m aking
s ign
Ġthe ological
Ġd aug
Ġpro l
Ġne got
Ġout ter
Ġbu ng
Ġar rest
Ġback seat
ach i
Ġcont ribute
Ġcar oline
Ġwaste ful
cri be
Ġcou ches
Ġbattery s
Ġtot es
Ġcool ant
Ġswe ets
inter ested
Ġmach ete
Ġgold fish
Ġbrown ie
Ġrad ical
Ġadv is
Ġfly er
Ġappe nd
Ġgrey hound
Ġver bi
Ġsight ing
Ġboo kend
Ġobs ess
Ġnik ki
Ġspout s
Ġdefl ating
Ġdefl ates
Ġshin ier
Ġpy ram
Ġclin ic
Ġthunder bolt
Ġbisc uit
Ġappoint ment
Ġdevast ated
Ġpeters on
Ġtelesco ping
Ġwashcloth s
Ġresil ient
Ġwend y
Ġpronunci ation
Ġbitters weet
Ġverbi age
b uster
c ustom
k irt
w ave
Ġs ap
Ġh ust
Ġd w
ch i
et to
me m
ac ion
ul ators
Ġk ung
Ġsi ber
Ġab ys
Ġsm iled
Ġsmall s
Ġpart e
Ġimp os
Ġinf ested
Ġbar rels
Ġer in
Ġmach in
Ġpract iced
Ġcomm ing
Ġjack ed
Ġpot ting
Ġshoot ers
Ġsyn tax
Ġpoly mer
Ġstack s
Ġbroad er
Ġjournal ist
Ġven eer
Ġconfig ured
Ġkiss es
power ed
Ġbrides maid
Ġell ie
Ġsuz uki
Ġdill ard
Ġscarlet t
Ġwhod unit
Ġecle ctic
mult i
c aps
l ad
Ġo g
an ing
Ġe w
ur ate
Ġj ude
Ġall eg
if ically
Ġout ages
Ġpl atter
Ġun explain
ven port
Ġsp ear
ree ze
Ġbr ac
Ġfollow up
Ġflo pped
Ġcall igra
Ġop al
Ġfore see
Ġspeaker phone
Ġoh m
Ġcy cl
pet ta
Ġmaster fully
Ġgoo s
log ne
Ġstink ing
Ġsneak y
Ġrout es
Ġpend ent
Ġlil ac
Ġpig ment
Ġtuck er
Ġbuzz er
Ġretain ed
omen ess
Ġramb led
Ġharmon ica
Ġsque al
Ġorch ids
Ġboil er
Ġris ky
Ġbrow se
Ġplun ge
Ġbever ly
Ġbaker y
Ġdegr aded
Ġassass ination
Ġcoinc idences
Ġdesp air
Ġindent ations
Ġergonom ics
Ġcalligra phy
c reat
s li
Ġt us
Ġa uction
us ions
Ġe q
Ġe ternal
Ġwe aver
ce ive
Ġco lander
Ġco logne
lo l
Ġbad ges
Ġadd itives
Ġel ong
uff les
Ġdra mas
Ġtra ma
Ġrep orter
Ġenter pr
Ġschool ers
Ġimag ining
Ġpatter ned
Ġfresh ener
Ġbrother hood
Ġposs ession
Ġscar petta
Ġgolf ing
Ġexplo sive
del ightful
Ġimpact s
Ġathlet es
Ġcock at
Ġskull candy
Ġcateg or
Ġtas sels
Ġtam pered
Ġmicros co
Ġgt x
vs ki
Ġcus sing
aro vski
Ġjac ob
Ġcompr ar
Ġhambur ger
Ġintimid ating
Ġballer ina
Ġgree ce
Ġcolum ns
Ġdebor ah
Ġunset t
o is
s po
w ires
x ide
Ġth t
Ġm j
Ġh ect
Ġn ave
at ric
Ġd ante
it i
Ġe ts
Ġbe au
Ġli ar
Ġsi xt
Ġun roll
Ġcomp iled
Ġthere by
Ġbl ooms
Ġhapp end
Ġend lessly
Ġsl aughter
Ġever thing
Ġper u
Ġste lla
Ġannoy s
Ġheart ily
Ġda venport
Ġheal ed
Ġsams on
Ġhandy man
Ġguide book
Ġtun ers
Ġadh eres
Ġdest ined
Ġkick er
Ġrich ness
Ġcri mson
Ġvent ilated
Ġexplo its
fr ank
Ġincom pet
Ġgig gles
Ġwick er
ser vice
Ġrevol ver
Ġbubb ly
Ġattack ed
Ġdigit ally
Ġvoy ager
Ġdumps ter
Ġchor us
Ġlollip ops
Ġsyd ney
Ġmanne quin
Ġsixt ies
c ou
c aus
m ind
Ġo ve
Ġd well
us ters
ad h
Ġwh ipped
Ġsh ading
Ġr ang
Ġmoney s
per ia
Ġstr ut
Ġstr ang
Ġinc o
Ġtight ens
Ġsw arovski
Ġper col
Ġfollow ers
Ġdoll house
Ġsuit cases
Ġshower head
Ġsix teen
Ġwo e
Ġtun nels
Ġund oub
sp ace
ext ra
Ġactive ly
Ġpit ted
Ġdetach es
Ġseed lings
Ġpist ach
Ġjul iet
Ġfid get
Ġsau cer
Ġintention al
Ġluke warm
Ġinterfer ed
Ġmemor ize
Ġperipher al
Ġgraft on
c ings
Ġm age
Ġp d
Ġha ird
Ġso ber
Ġare na
qu est
Ġsu mmed
Ġrec ourse
Ġpurch aser
ace ll
ry n
Ġlot r
Ġthink er
Ġtri ath
Ġamaz es
Ġinc entive
Ġsim pson
Ġra ves
Ġchrist ina
com ed
Ġsub d
Ġball ads
Ġhum ane
Ġprogra mmer
Ġmed itations
Ġdan a
Ġeye glasses
Ġvel ve
Ġdull er
Ġrecie ver
ches ter
Ġclut tered
Ġtick ed
Ġhazard ous
Ġredeem ed
Ġpier cings
Ġrely ing
Ġfran co
Ġatl antic
Ġreward ed
Ġgeo graphic
Ġmisunder stand
Ġparticip ate
Ġsteven s
Ġell is
Ġht ml
Ġnan ny
Ġalp ine
Ġpuer to
c lips
f ixed
t ion
Ġf udge
at ers
ro st
ent ric
st ics
Ġcon gress
Ġsm al
Ġro ar
Ġx peria
Ġz oe
Ġz apper
Ġbutton ed
Ġcra ve
Ġfra il
Ġpar ach
Ġant agon
Ġbend y
pre hensible
Ġmir ac
op us
Ġtub s
Ġrecomend able
Ġwrit en
Ġcommunic ations
Ġovers ight
assem bly
Ġalter ing
Ġbelong ed
Ġstrateg ic
Ġpsych iat
Ġspeech less
Ġcrink ly
whe ther
cend ing
Ġbru ised
Ġremodel ing
Ġreef s
Ġkir by
Ġhomeschool ing
Ġsiri us
Ġlandscap ing
Ġoscill ating
Ġhott est
Ġquadcop ter
b ill
s ort
t ow
v ices
Ġt n
Ġb ans
Ġc x
Ġm ites
Ġd ah
Ġha an
ke ty
ri lled
el o
Ġr ushing
Ġab d
ure ka
Ġtw ent
Ġim plic
ang o
Ġsay in
io logy
Ġloo oo
Ġgame cube
Ġfree way
Ġexc erc
Ġsch o
Ġiron ically
Ġge ck
Ġgoo gling
Ġdepend ent
Ġspl ashes
Ġbarb ies
Ġscient ists
bul ky
Ġduplic ated
Ġexhaust ing
Ġfulfill ment
Ġbrad y
Ġunc ondition
Ġprett iest
Ġdetract ed
Ġmisunder standing
Ġbip od
Ġfow ard
Ġgrie ving
Ġecc entric
Ġcaro lyn
Ġwolver ine
Ġhydra ul
c ents
h c
l oud
Ġa kin
Ġi a
Ġp um
ing way
Ġch atter
Ġj j
Ġj ot
Ġk cups
ap ore
ort ion
Ġv apor
ss on
Ġcont igo
oun g
Ġjo h
Ġdec an
ale ct
Ġgri ff
Ġcustom ized
Ġsing apore
Ġsaw yer
Ġmult ico
Ġfore ns
Ġeat ers
Ġpot ted
Ġrepe ater
Ġnat ivity
Ġtrad em
Ġstink er
Ġtoile ts
Ġoct opus
Ġber lin
Ġblind ing
Ġhammer ed
Ġcass ie
Ġsteal th
Ġratt led
Ġfemin ist
Ġfiance e
Ġbloom ed
Ġsucce eded
Ġsprout ing
Ġdor othy
Ġmish and
Ġcontribut ed
lest on
Ġdile mma
Ġconn or
Ġappar atus
Ġmanh att
bast ian
p al
t ag
Ġt ant
Ġth aw
Ġw re
Ġs ookie
Ġn g
ot al
Ġl d
Ġl x
th al
ro g
Ġsh annon
ir k
Ġen ters
Ġrec urring
Ġpre ston
Ġover time
te ly
pl an
Ġspe cks
Ġro by
Ġz ach
Ġsk is
Ġbul ging
Ġsong writing
Ġdark ening
Ġste in
Ġdi alect
Ġdoor step
Ġmot ions
man n
Ġpaint ball
Ġthri ving
Ġdu per
Ġpal mer
Ġexec utive
ino a
Ġseven th
Ġstun ned
Ġpercent ile
Ġlum ix
Ġcoach es
rem inds
Ġris ers
Ġphill ip
Ġolymp ic
Ġhind sight
ros se
Ġtwig s
k ings
t asty
Ġt roll
Ġb ich
Ġp ail
Ġe ureka
ay er
el sea
ess ential
Ġproduct ions
Ġho ff
Ġun ab
Ġsto cks
Ġmin ion
Ġhead piece
Ġrep aint
Ġeng ages
Ġspec ulation
Ġmov able
Ġtrack pad
Ġindic ators
Ġswim mer
Ġaltern ator
tr ans
Ġgoo gles
Ġimpact ed
Ġgall ery
Ġdispens es
Ġunlock ing
Ġwobb led
Ġbond s
Ġcompos er
Ġorth otic
Ġkim ber
Ġatro c
Ġdil ig
Ġbry an
Ġlac rosse
Ġlandscap es
Ġsnowfl ake
Ġconstric ting
Ġwann abe
Ġunid en
Ġvulgar ity
Ġprol ific
adh esive
c ial
c ables
r ange
s mart
t ape
er ies
Ġf f
Ġp im
ed er
Ġit ouch
Ġto by
Ġbe a
Ġse bastian
qu ir
Ġsi phon
Ġpr ying
Ġun not
Ġbo gs
Ġgr in
Ġunder arm
Ġsw irl
Ġgrand e
Ġcons ul
Ġbed rooms
Ġpres ently
Ġpass engers
Ġskin nier
Ġcell oph
Ġenc ased
Ġest oy
Ġtorn ado
Ġcommun ion
Ġlam inating
Ġclamp ed
Ġmedic ations
Ġnecess ities
Ġfuzz ies
Ġsex ist
Ġris ks
Ġrepack age
Ġaer ator
Ġelli ot
Ġburr s
Ġprivile ge
Ġsnark y
Ġappl aud
Ġregg ae
Ġbarbec ue
bac co
Ġrecondition ed
Ġcelloph ane
d c
Ġt rent
Ġf b
Ġn ikes
Ġto bacco
Ġin ane
ad el
Ġlo gged
Ġlook out
Ġun ed
Ġsp oof
Ġpre ced
Ġsc ars
Ġins ipid
Ġplay ground
Ġjo lly
Ġever last
Ġsn are
Ġind entation
Ġflo rence
Ġgar ner
Ġpres et
Ġdirect v
Ġdist ribute
Ġpost cards
Ġwarrant ee
Ġstri ker
Ġdem ise
Ġcub an
Ġdocument aries
Ġvest s
Ġincom prehensible
Ġsmile y
Ġtuck ing
Ġfer ment
Ġfac et
Ġmono pod
Ġjeff rey
Ġgh etto
Ġreserv ations
Ġcrink le
send ing
Ġbeet le
Ġsubt ract
Ġallevi ate
Ġbapt ism
Ġnotep ad
Ġarsen al
Ġabys mal
g ive
g alley
l ons
l ude
p ose
Ġi c
er ves
Ġp ont
Ġh il
Ġn ets
en ic
Ġre arr
Ġe os
Ġwh omever
Ġwe ir
Ġqu inoa
Ġtr ashing
Ġtr uffles
Ġstar ch
Ġinst a
ich ton
Ġstill s
Ġfind ings
mo ved
Ġsoft ens
Ġdisc rete
Ġblue berries
Ġmod ules
Ġdirect ors
Ġmot if
Ġmean while
Ġbeat ers
Ġnet galley
Ġpat ton
Ġminim ally
med iocre
Ġhy dr
Ġspecific ation
Ġquestion ed
Ġsight ed
Ġsturd ily
Ġhem ingway
Ġzoom ed
Ġanch ored
Ġretract ing
Ġroast s
Ġcigaret tes
Ġsustain ed
cont ro
Ġremodel ed
Ġprotr uding
Ġug liest
Ġflim sey
Ġbreastfe eding
Ġbif oc
m ble
Ġt ard
Ġn esting
Ġn ba
Ġon y
Ġso iled
Ġor g
Ġr uled
Ġqu arts
ist ical
Ġpre sto
Ġpre cio
Ġsc oring
iff on
Ġdes ks
mo d
Ġcr ook
Ġinc line
Ġz ig
Ġter ra
Ġplot line
Ġrem ington
Ġport al
Ġkey ed
for get
Ġcheck er
Ġyoung sters
Ġadh d
Ġillustr ator
Ġbon nie
Ġreve iw
Ġaddress ing
Ġdetach ing
Ġbuff ering
Ġpopular ity
Ġregister ing
Ġbatt ling
Ġvir gil
Ġassoci ation
Ġjeff erson
Ġunc ont
Ġdow els
Ġappall ed
Ġuntouch ed
g id
m om
s pective
Ġa is
Ġth i
Ġw we
Ġb ash
is an
Ġg az
en ne
ut ton
Ġsh ims
Ġex or
Ġbu ick
Ġsm ashing
Ġsp ans
Ġoff ices
ab el
Ġag rees
Ġinter lock
im al
ph alt
Ġgr umpy
Ġinf ur
ci um
Ġbre asted
uff ed
Ġrem orse
Ġpres cribed
Ġpos itives
pect ing
Ġcal cium
product s
Ġcenter pieces
Ġemail ing
Ġcomplex ities
Ġdetect ing
Ġstruct ural
Ġwax ed
Ġdrawback s
ino is
Ġsnag ging
Ġpolar ity
Ġunfortun atly
Ġtrigger ed
Ġtrend s
Ġimplement ed
Ġextraord inarily
Ġbarr ington
Ġquail ity
Ġpedest rian
Ġreassem ble
Ġawaken ing
Ġinfin ite
Ġvelo city
Ġw t
in als
Ġc act
Ġg us
Ġst ump
st ro
Ġch iffon
Ġas phalt
Ġse af
Ġne ct
Ġqu iz
Ġk aw
Ġno on
Ġdis pro
ist r
Ġman uel
to day
Ġsho pper
Ġhand ing
ress ed
Ġac orn
Ġjo king
Ġexce pted
Ġmis place
Ġra iling
ib i
Ġappear ances
Ġspend y
Ġcour te
Ġfire wire
aim an
Ġaltern ating
Ġdem ol
Ġspill age
Ġcapac itor
Ġpil es
Ġcircumst ance
Ġkink ed
Ġpsych opath
Ġgee z
Ġratchet ing
Ġdub bed
Ġchis el
Ġretun ed
Ġbroo ke
exception al
Ġcurren cy
Ġundoub tedly
Ġparach ute
i ant
Ġa ver
Ġs ak
Ġh ots
Ġl icks
us ers
Ġy ds
st ays
Ġch eryl
Ġne x
Ġr w
ul o
ul sive
Ġk atherine
Ġde ffin
ess a
Ġdis posed
Ġtr oop
Ġhard ship
Ġinf estation
Ġsur real
Ġap ric
Ġdel am
Ġed ged
Ġcare ers
Ġdet ox
Ġmag pul
Ġport land
Ġsub way
Ġnum bing
Ġcustom ization
Ġpri zes
fy i
Ġmil ky
Ġarm rest
Ġarm strong
Ġant ler
iss ance
Ġplain ly
Ġsyn cs
Ġtransp aren
Ġwitch craft
Ġutil izing
Ġtas sel
ald on
Ġcrochet ing
Ġwhit ney
Ġwrest le
Ġbees wax
Ġanecd otal
burn ed
Ġcomedi an
Ġprest a
Ġawes omeness
Ġgymnastic s
Ġ eri
Ġs ank
ar ming
Ġre pt
Ġre sold
ro let
ro cket
st ain
st ant
Ġmo bo
Ġr j
Ġal go
ast roph
Ġk ors
Ġsi pping
Ġun suitable
Ġke e
Ġover clock
oy ing
Ġman or
Ġthought fully
Ġplay room
Ġgr as
Ġunder grad
Ġsur ve
Ġcool pix
Ġpa is
Ġplug ed
Ġmusic ally
Ġind igo
co gn
Ġclip board
Ġbent o
Ġma ver
Ġled ge
Ġexam ined
Ġequ ations
Ġgraph s
Ġsmart phones
Ġoverp ower
Ġdy mo
Ġweb page
Ġfaith fully
Ġsimpl est
Ġdream ing
Ġrout ing
Ġcraft manship
Ġwobb ling
Ġfed ex
Ġner dy
Ġbelong ings
Ġling ers
Ġexagger ation
cur rent
Ġsple nda
Ġsampl ing
Ġchev rolet
Ġdolph ins
Ġvign ettes
gre ens
Ġsymmet rical
Ġundergar ments
Ġfanci er
Ġrena issance
f ood
Ġs cept
ed ges
ar is
th ane
om er
Ġbut ane
al an
ow a
ill o
Ġlo aves
Ġde cept
ak is
Ġsp art
Ġmuch as
Ġbo on
to s
Ġnew man
Ġfl own
Ġfl apping
Ġcharact ors
Ġkid ney
Ġred irect
Ġcat astroph
Ġconf ined
Ġcop ing
Ġmach ining
Ġdisappoint ments
Ġdist rict
Ġpu ede
Ġaff ixed
Ġspot ting
Ġtag ged
Ġtemper amental
Ġcas ino
Ġhy g
fl avor
fl ash
Ġdy es
Ġmal functions
Ġden y
Ġalumin ium
yy yy
Ġparan oid
Ġpresident ial
Ġcartoon ish
Ġpreach er
Ġtam b
Ġmelod ram
gri pping
Ġbou gth
Ġstupid ly
Ġemboss ing
Ġcram ps
Ġlifel ong
Ġderiv ative
Ġinadvert ently
Ġmelodram atic
f resh
l ame
l ah
o ft
Ġt ens
Ġth ongs
Ġh ugging
Ġl ance
Ġd agger
ll is
es se
ar ity
us ement
Ġha ph
se ams
ac ent
Ġam usement
Ġqu ibble
ome gran
Ġcan ine
Ġsp her
Ġtr acing
ist ing
ep th
Ġlong time
Ġdown town
Ġgu iding
Ġwatch ers
Ġcr ichton
do or
Ġmis fit
Ġcut lery
Ġdur acell
Ġdam ned
Ġsub li
Ġlearn ers
Ġlin ens
Ġaction able
Ġmom ma
Ġob li
Ġinv ites
Ġpred ator
Ġsens ing
ma jor
Ġmed itate
Ġshop kins
Ġtur f
Ġxx xx
Ġrob es
bl ades
Ġcru z
Ġpops icle
Ġspread er
Ġca ul
Ġmaxim ize
Ġgate way
Ġbush nell
Ġbudd ha
Ġgab aldon
Ġclump ed
Ġrestrict ions
Ġling ering
Ġdissol ved
Ġtypo graphical
Ġdomin ant
Ġproportion ed
Ġintr usive
Ġvom iting
Ġcyn ical
Ġcraz iness
Ġrott we
Ġgiz mo
Ġorde al
Ġatroc ities
Ġhaph azard
s ia
Ġc els
Ġm ma
Ġre id
an or
th en
om n
Ġbe veled
Ġbut ch
Ġbut ts
al ay
Ġsh aded
se ason
Ġj ax
Ġall y
Ġcon no
Ġsm ushed
ip io
Ġhead lines
Ġok lah
bo ot
Ġhim alay
Ġsat is
po ssibly
Ġcat tle
pad s
Ġsus ceptible
Ġsun beam
Ġda unting
Ġpar ing
Ġrele vance
Ġdust ing
Ġps al
Ġpepper corn
Ġwand s
Ġwound ed
lim ps
Ġgroo ms
Ġree ks
Ġsprink les
Ġbod um
Ġmanip ulated
Ġpom s
requ ired
whe els
Ġunsu pp
Ġsporad ic
hist or
Ġjill ian
Ġmul ch
Ġhut ch
Ġfizz led
Ġterr arium
Ġnois ier
Ġnylab one
Ġcels ius
Ġoklah oma
f ted
Ġi owa
Ġs ane
Ġb ail
ot to
Ġd uster
Ġg limps
Ġnot or
Ġre w
ic ia
Ġout grew
Ġrec line
Ġun int
Ġun hook
Ġun rolled
Ġshe ared
Ġaw ning
Ġhard en
Ġcar riage
Ġins omn
Ġro land
Ġsl ush
Ġprot est
Ġclean se
ren heit
Ġori ent
Ġperson nel
Ġper k
Ġsong writer
pro blem
Ġconf etti
Ġheart y
Ġmor ph
Ġrefer encing
Ġhar lan
Ġbal ances
Ġot g
Ġtar a
Ġbust ing
Ġtruth fully
Ġviol a
Ġrefill able
Ġsurround s
Ġfac ets
down loaded
Ġdear ly
Ġbrut ality
Ġdemonstr ated
Ġinh abit
Ġbru ises
Ġcind y
Ġcoh en
Ġdism al
Ġmanif est
dec ided
Ġame lia
Ġcolon ial
Ġmocking bird
Ġpresum ably
Ġnf c
Ġmicrosco pic
d amaged
h renheit
m iss
r in
Ġa per
Ġw oul
er ous
Ġthe oret
Ġm oose
Ġp omegran
Ġh orm
Ġn ina
it als
Ġg aiman
Ġis bn
le gs
ro po
Ġj p
Ġlo be
Ġv ases
Ġv ented
Ġyour selves
Ġkn itter
Ġhi ker
pe lling
Ġold ies
Ġmin ions
Ġra ft
Ġcur v
Ġrest ra
Ġint uit
Ġcustom izable
Ġfa hrenheit
Ġbus ter
Ġliter al
Ġten or
Ġtap ers
enjoy ing
Ġjoy ful
Ġautom ob
Ġrev ive
Ġpolish es
Ġcore lle
Ġadm ission
Ġdiab lo
Ġcourt room
Ġalask an
Ġdeterior ating
requ ires
Ġcongr ats
Ġsizz ling
Ġscrunch ed
Ġick y
Ġswir ls
Ġchaff ing
Ġsubd ued
Ġmirac ulous
Ġd azz
Ġha cks
Ġwas abi
Ġmy ri
se eds
Ġmo ds
ge l
Ġor b
ul iar
Ġhe irl
Ġoff ense
Ġph ony
av ier
Ġser ie
Ġcl ash
Ġfun gus
Ġjo ker
Ġinc ipio
Ġbre ville
Ġcost ed
ouse l
Ġglass ware
Ġnorm an
Ġincl usive
com pelling
Ġsat urn
Ġkey less
Ġcorrect ing
Ġcondition ed
Ġmid section
Ġbow ie
Ġma is
Ġshut down
dis c
dis g
Ġstat icky
Ġscrub bed
Ġlace y
Ġdetect ors
Ġexpress es
Ġstead ily
thin ner
Ġassoci ate
Ġanth ropo
Ġrefresh ed
Ġproced ural
Ġhack ed
mag nets
Ġgod send
Ġbry son
Ġremix es
Ġbachel or
Ġaston ishing
Ġcassero le
Ġmyri ad
d ia
Ġ 10
Ġs ic
Ġb aught
Ġn j
Ġd ific
ll an
Ġg els
le en
us et
Ġfor rest
ur g
Ġli lly
Ġj azzy
Ġout weigh
Ġno va
Ġab o
Ġun cover
Ġv arn
Ġinter vals
Ġcr us
Ġloves eat
ash a
Ġel ves
Ġdel ves
Ġcam ara
ex p
Ġper mit
Ġrel ent
Ġflo rescent
Ġmem o
Ġgener ates
Ġcab bage
Ġfire wood
Ġground ing
Ġtab oo
Ġiron man
Ġdull ed
Ġvend edor
Ġfal con
Ġmill enn
Ġstream lined
Ġflu ids
Ġcaptiv ate
Ġstove top
Ġsturd iest
Ġken ny
Ġwil ted
Ġparent al
Ġintegr ation
Ġsolo s
who ever
Ġpul itzer
Ġfir s
Ġunim pressive
Ġconve ction
Ġbid et
Ġblot chy
Ġgill ian
Ġlor i
Ġdislo dged
Ġfantas ies
vention al
Ġartifact s
Ġduff el
Ġdisli kes
Ġets y
Ġhydraul ic
Ġbich on
b ike
Ġt ate
Ġw oth
Ġh inder
Ġn ue
at ivity
Ġre agan
al ach
ch os
ay e
Ġsh ane
Ġsh aken
Ġch ak
Ġj arring
Ġex s
Ġpl a
Ġexp resso
Ġad ri
Ġover hang
Ġhi ppo
Ġworks he
Ġte c
Ġpe aled
Ġwa h
Ġfin ances
Ġcr ates
gg ings
Ġes que
Ġwrong ly
Ġbas in
Ġclass ify
Ġcorrect ions
Ġvol can
Ġseason ings
Ġdim s
Ġnor theast
Ġbun n
Ġsteel ers
Ġtrust worthy
Ġver mont
Ġdialog ues
Ġrechar gable
Ġcale nder
Ġraz ors
Ġmb p
old ers
Ġwolf e
Ġbubb a
Ġker nel
Ġros ie
Ġmoistur izing
Ġpon ies
Ġaccommod ates
Ġmesmer ized
review s
Ġappall ing
Ġfitflo ps
Ġpremature ly
Ġmanhatt an
f one
g one
g um
i ver
k d
l um
t ment
Ġt ul
at im
es cending
ut ing
Ġst ance
id ia
Ġsh an
Ġu i
Ġj ur
Ġse eps
Ġwork horse
Ġex em
ul ity
Ġpl uck
Ġsi eve
Ġhe ath
Ġun at
Ġri o
ry er
Ġpart ition
Ġapp alach
Ġcar ousel
Ġgr un
Ġbag ged
Ġbott on
bo s
Ġcam ino
Ġmar ley
Ġwall ed
Ġind e
Ġmod ifying
Ġgra mmer
po inted
Ġbar code
Ġstud ios
Ġboot ie
Ġblo ated
lit ol
Ġlim itation
Ġavoid s
Ġcomment aries
Ġspin ach
Ġmad onna
sm ith
Ġtransl ator
Ġpal atable
Ġba iley
Ġinse cur
Ġrefriger ated
Ġdarn ed
Ġsubstit uted
Ġinno vation
assem bled
Ġvir uses
Ġdigest ion
Ġris king
Ġlaunch er
Ġvitam ix
Ġkrist in
Ġligh th
Ġinn ue
Ġrecomm ened
Ġpengu ins
Ġcav al
Ġembellish ments
rive ting
Ġracco ons
Ġprun ing
Ġnv idia
Ġimper ial
Ġcoul ter
Ġkis sing
Ġfisk ars
Ġinsecur ities
j er
p ace
p our
z on
er ted
Ġg ild
Ġis o
ad am
Ġy ak
se arch
Ġso fia
Ġde em
Ġrec ess
Ġv ap
Ġv ile
te e
Ġend uring
Ġear m
Ġsur render
sh er
Ġprob able
Ġpa ige
Ġbas hing
Ġcond escending
Ġste als
Ġve z
Ġfre aks
Ġje ll
Ġloud est
Ġaccess ed
Ġaccess ing
Ġaud rey
Ġprof iles
Ġorgan izations
Ġappreci ative
Ġstri pper
Ġwin ners
Ġlibr aries
Ġgrab ber
Ġwise ly
Ġren ee
Ġselect or
Ġign oring
Ġtransm itting
Ġgum mies
Ġnin et
Ġretract s
Ġwel comed
Ġpam pered
Ġhay ward
Ġunscrew ing
Ġvague ly
Ġinvestig ating
Ġairport s
Ġlany ards
Ġluc id
Ġobsc ene
Ġvocal ist
Ġrhyth ms
Ġturt lene
Ġunse aled
Ġdrown ing
aco lor
Ġdism ant
Ġbour bon
Ġgou ge
Ġbeg gin
Ġpec uliar
mir ror
Ġsubmar ine
Ġdiagon al
Ġdisadvant age
Ġinjust ice
b bs
c and
e cy
j os
n early
Ġt anto
Ġw art
Ġh atched
Ġto d
Ġd ign
Ġd rench
Ġd uffle
en oid
id ency
ac ula
ra g
Ġdis eng
am ous
Ġtr an
Ġover came
Ġinter play
Ġstr um
Ġwar ps
Ġdel co
sh ame
Ġdisc on
ib u
Ġrest arts
Ġpres idency
retch ed
Ġble h
br inging
Ġtrash can
iss ipp
Ġsuff oc
Ġliqu or
Ġpol ite
Ġmal a
Ġincre ments
Ġfabulous ly
Ġscrub ber
Ġmas quer
Ġadapt able
Ġprev ail
Ġintegr al
Ġcad et
Ġdun ge
Ġimplement ing
Ġrepurch asing
Ġshovel ing
Ġmusicians hip
insp iring
Ġmf c
Ġaggrav ated
Ġseper ately
Ġbrazil ian
Ġproph ecy
Ġannoun ced
Ġvig orous
Ġdiscern ible
Ġskew ed
Ġpak istan
Ġapolog ize
Ġcoy ote
Ġchipm unks
Ġsti hl
Ġelong ated
Ġdecan ter
Ġroby n
issipp i
1 6
Ġb ates
Ġc ada
Ġp av
Ġe erie
Ġy or
ce l
Ġam id
Ġti gers
Ġr ms
Ġchar leston
Ġpur ina
Ġinst agram
Ġher c
Ġcar y
Ġins ists
vel cro
Ġcut esy
Ġreg ulate
Ġawesome ly
Ġgen et
Ġmod ular
Ġcra ps
Ġlater al
Ġsweet est
Ġmor se
Ġsense less
Ġoverp aid
Ġhood ed
Ġminor ity
Ġrh et
Ġtang ling
Ġhips ter
Ġdumb bells
Ġintense ly
Ġsumm aries
Ġwound s
ita ire
Ġintend ing
Ġinvestig ator
Ġcham ois
Ġoccup ation
Ġacqu ainted
Ġkh akis
Ġcrimp ing
Ġkar ma
Ġterror ism
Ġpatri ots
Ġcha otic
Ġlex i
Ġbeard ed
ben ch
Ġalle ged
Ġswee the
Ġtestim on
Ġmetaphor s
Ġcheet ah
Ġinco herent
Ġtransparen cy
g uns
i phone
Ġw ac
Ġm ths
ot eric
Ġd inky
es ar
ad os
ch em
Ġwe aved
Ġas th
Ġor acle
Ġam big
Ġsu mp
Ġup scale
art y
Ġsp itting
li ving
Ġri ot
Ġend er
Ġfl apper
Ġcl aus
Ġcle vel
Ġcard inals
Ġweight y
Ġinstruct ive
Ġind epth
Ġdisappointing ly
Ġphoto sho
Ġloc ating
Ġchin ch
Ġble ak
Ġcu cum
Ġmist reat
Ġmac ar
Ġmiss issippi
Ġprep aid
Ġly cra
Ġtarget ed
Ġpath finder
bl ance
Ġabsorb ant
bre vi
Ġskill fully
Ġobject ion
Ġprev ention
Ġmono price
Ġresem blance
pic uous
ole um
Ġdorm an
Ġkar ate
Ġta o
Ġlitt ler
Ġgimm icky
Ġaudi ences
Ġwy att
Ġuncon ventional
Ġfract ured
Ġsans a
Ġlud ic
Ġhagg ar
Ġwets uit
cco li
Ġnect ar
Ġhimalay an
Ġclevel and
Ġcucum ber
l ens
o les
Ġ 12
Ġt eng
Ġt outed
Ġs as
Ġb erg
nd s
Ġc ay
Ġl att
on ica
Ġre am
th ia
Ġch elsea
qu iet
Ġfe nders
Ġab brevi
Ġdis orders
ab ridge
Ġshe ers
ach ing
Ġbro ccoli
Ġtri ke
Ġtri pe
Ġtri angular
Ġcar los
Ġmin is
Ġjo ey
Ġmis c
Ġres ale
Ġed wards
Ġes oteric
Ġthick est
Ġpres ume
Ġbar bell
gra mmed
Ġpen et
Ġer asing
Ġbab e
Ġvis ions
Ġfire works
Ġfresh en
Ġdan cers
graph ics
Ġmagn ify
Ġlit le
Ġpsy ched
Ġdiv a
Ġgig abit
Ġari el
Ġrebo oted
Ġtoothp icks
Ġginger bread
Ġreh ears
Ġ3 4
Ġviv o
cont rary
Ġpoof y
Ġprincip al
Ġscree ching
capt ivating
Ġreproduct ions
Ġmiz uno
Ġinfom ercial
Ġlaur ie
Ġseahaw ks
Ġunexplain ed
b ard
d ough
Ġs b
Ġs ins
Ġn ero
Ġn apo
Ġg sm
om ing
id y
st unning
Ġlo a
Ġam per
Ġall an
uct ose
Ġfr uctose
Ġno g
il ia
ate ver
Ġgo dly
Ġtri be
wh atever
Ġac re
Ġpie ced
Ġfar ms
Ġjo ck
Ġhead l
Ġmis used
Ġmis use
Ġsw an
Ġgrand baby
Ġsol itaire
Ġspecial ist
Ġrock in
Ġcre ams
Ġver dad
Ġstring y
Ġinvest or
Ġprop os
Ġskill ets
Ġgloss ary
Ġsan uk
Ġfav s
Ġwhist ling
Ġdud es
Ġexpert ly
Ġreact ed
Ġpowers hot
Ġdissapo int
Ġtraged ies
Ġorch id
dra w
Ġinqu iry
Ġdefinitive ly
Ġconve ys
Ġrecreat ional
Ġchev ron
claim s
Ġsnowfl akes
Ġsevent ies
Ġprism acolor
Ġric kety
Ġxy litol
Ġsyring e
Ġaur ora
Ġpurchas ers
Ġinexper ienced
Ġimplic ations
b ab
b ugs
n ant
p ins
r ue
t ri
Ġt inge
Ġw ic
Ġb ic
re k
in ently
Ġto ffee
Ġre i
Ġbut ters
Ġch al
Ġde ple
un ken
ant is
Ġun intell
Ġpre ordered
we ed
Ġmin ut
Ġsim iliar
Ġthin ning
mm mm
Ġpain ters
Ġdress ings
Ġroom mates
Ġmar ri
Ġgra pes
Ġfra m
Ġste vie
ject ives
Ġcook ers
Ġphoto copy
Ġbra g
Ġimm une
par able
Ġsun r
Ġdrink ers
Ġmail ers
Ġiron y
Ġvi kings
Ġmad d
Ġroo ster
Ġstylus es
Ġcale b
Ġstream light
Ġmeat y
Ġsha wn
Ġreccomend ed
Ġry ka
Ġachie ving
Ġlum ber
bas ics
Ġtam per
Ġglor ia
Ġfel ine
Ġench anted
Ġweakness es
Ġemit ted
Ġpee ing
Ġpp m
Ġextr aneous
Ġcourte ous
d j
i am
l ids
l ists
p atter
p ark
re liable
in ci
Ġf ath
Ġc ort
Ġl ps
Ġto fu
as is
Ġj ance
Ġne al
Ġne ater
Ġam our
Ġal b
Ġk j
Ġbu lls
Ġcon an
Ġman n
Ġim aging
ass is
Ġdef rost
Ġfo d
Ġgl en
Ġpe er
Ġro ach
Ġfin ches
iz ational
de x
Ġless en
Ġres orted
Ġlow ers
Ġconst ra
Ġband width
Ġdr acula
Ġconf ront
Ġgreen ies
Ġfore ster
Ġorgan izational
sw itch
Ġmel anie
Ġlif eless
Ġsubject ed
Ġdon ot
Ġresol utions
Ġbon ing
Ġfrag ments
Ġcarb ide
Ġchuck les
Ġconver ts
Ġfer r
Ġhoriz on
Ġanaly t
Ġschol ars
Ġjess ie
Ġunwra p
Ġdegr ad
Ġasp ire
augh n
Ġresident ial
lips ch
Ġshoel ace
Ġspellb ound
Ġuncon vin
Ġmathem atical
Ġdat ab
Ġhandic apped
Ġgeomet ry
Ġadul thood
Ġargent ina
Ġfranken stein
custom er
elo pe
Ġpomegran ate
t in
u as
Ġw ading
ou g
as aki
it as
th ora
Ġe ighth
Ġj abra
one l
Ġall on
Ġk lipsch
Ġdis ability
Ġeas ly
Ġad jectives
Ġman ic
Ġser mon
ass ic
ress ion
Ġdefin tely
Ġreal ised
Ġquick books
Ġz inc
Ġra ff
Ġsw ip
Ġline up
Ġper ceived
Ġem blems
Ġstuff y
Ġhome own
com puter
Ġblue ish
Ġcra bs
Ġplan ks
Ġent ice
Ġlisten ers
Ġvis c
br ide
Ġroll ins
og ical
Ġelect ed
Ġprogra ming
Ġlim es
Ġarch ery
Ġsister hood
Ġcre vices
Ġdisco vers
Ġslo ppily
Ġcompan ions
bre ak
Ġtransport s
Ġinstrument als
Ġspiral izer
Ġcran ks
Ġfraud ul
Ġtransmit ters
keep er
Ġfighter s
Ġvin ci
Ġwy oming
Ġsug ars
unbelie vably
rust ed
Ġeloqu ent
Ġanton io
Ġsuccul ents
Ġcylind ers
Ġeyep iece
d uring
l ack
m ad
s we
er k
in ction
Ġm iter
Ġh ugg
Ġn ixon
as ive
en zie
ar ious
Ġre iss
ur ai
Ġsh ay
Ġcom f
ant y
Ġar lo
Ġbro ck
ph ony
Ġgu nd
Ġpe ppa
Ġdifferent iate
Ġinf amous
Ġple thora
Ġpers istent
Ġz a
Ġblack hawk
Ġreg ulation
arn ation
Ġswe lled
Ġdevelop ers
exce eded
Ġxl r
br ings
que en
Ġself ies
Ġps c
Ġcamp ground
Ġdy nasty
Ġmagic ian
Ġgro ves
Ġdetect s
Ġghost ing
Ġtele photo
Ġhem ming
Ġcleans ing
Ġfee han
Ġquir k
Ġrepresent ing
Ġhitch cock
Ġinterview ed
Ġawa ited
Ġbrist le
Ġvictor inox
Ġfund ra
Ġroutine ly
see ing
Ġatmosph eric
Ġgn ome
Ġverb atim
Ġmathem atics
Ġbern ard
Ġinsign ia
Ġholl and
Ġcymb al
Ġenlighten ment
Ġtradem ark
Ġseaf ood
c aution
d umb
i our
er ver
Ġn ana
ll ie
Ġg ret
en ough
on ted
th o
Ġbe ac
Ġy ada
Ġli zzy
ac cess
Ġch urn
ill ight
Ġex h
Ġal bert
Ġsu ds
Ġk ai
Ġlove craft
Ġv ines
Ġcar ve
Ġcor rel
Ġro aster
fe ld
Ġstra pping
up dated
Ġsol enoid
ale x
Ġfre eman
Ġill ogical
Ġmed all
Ġfur y
Ġtend on
Ġprogram ed
Ġshock ingly
Ġscra mble
Ġjoy s
Ġlat ency
Ġemp lo
Ġram ble
Ġsav ory
Ġfarm ers
Ġec u
sme ll
Ġunc ut
Ġuncom plicated
Ġorth oped
Ġarts y
Ġhack ing
care ful
rad io
Ġcuis ine
spr ing
Ġimmig rant
reason ably
Ġpaus es
Ġracco on
shr unk
Ġenterpr ise
Ġinfur iating
Ġrottwe iler
Ġjur assic
i ator
l ower
l ining
m edium
t ore
v iet
Ġh v
Ġl ut
Ġl acy
Ġg ta
Ġon board
us ual
Ġe ld
ke es
ch ose
Ġch ile
Ġk ris
Ġsi e
Ġcon j
Ġcon ner
Ġv as
Ġeven though
ens en
Ġinter sp
Ġmay er
Ġunder powered
Ġatt ributes
ket t
Ġap c
Ġter esa
Ġem per
Ġsqu irts
Ġbeat iful
land ers
fin ity
Ġlibr arian
Ġinvest ments
Ġunre cogn
Ġrod ents
Ġsung lass
Ġforg ets
Ġslo p
Ġtoilet ries
Ġpix ar
Ġcuff links
Ġhers hey
hh hh
Ġtoler ances
Ġramb lings
Ġbeds kirt
Ġchihuah uas
Ġdise ases
Ġincorpor ating
Ġmt b
Ġconduct or
Ġbagg ier
bey ond
Ġkod i
Ġliz ard
Ġhyd rated
Ġsill iness
Ġabdom en
bir th
aca o
Ġteac up
Ġhoff man
Ġuncont roll
Ġkaw asaki
Ġglimps es
Ġaper ture
Ġintersp ersed
a ways
j im
p ractical
r ane
Ġc vs
Ġc acao
Ġm itten
Ġh atchet
Ġl ur
Ġg aff
oo my
Ġsh en
Ġj ut
Ġne ces
Ġcom bs
Ġup to
act ing
ear rings
Ġret icle
Ġbo gg
Ġbo ls
Ġperfect o
Ġhard ness
ff icient
Ġthr one
Ġhand c
ph ia
ud y
Ġspe w
Ġjo st
de ep
Ġthin s
Ġblack ed
Ġsk unk
Ġter vis
po p
Ġball ed
Ġstretch able
Ġir res
Ġlay ed
Ġblo bs
Ġflash cards
Ġaudio books
Ġrock ers
fo cus
Ġinfl amm
Ġcommun ities
Ġoven s
Ġhom er
Ġcub ic
Ġphil adel
eps kin
Ġfif ties
Ġrow ing
Ġsky e
len a
Ġmusical s
Ġoccur ring
Ġadm irable
Ġdar ing
Ġdd r
Ġdeb ated
Ġgran ules
Ġcalc ulations
Ġacad em
Ġsuck ered
Ġpuff ed
Ġbarn ey
Ġincorpor ates
Ġparticip ants
utter ing
fig ured
Ġdiscoura ging
36 0
Ġjing le
suspense ful
Ġunreason able
Ġdehydr ator
Ġphiladel phia
c in
j ar
r ide
Ġs ift
Ġb k
Ġf let
or rect
Ġnot ion
le arned
th rew
Ġso pr
Ġj aco
ir a
Ġal ta
Ġcan v
Ġup bringing
Ġle ah
Ġv aughn
um an
um ber
Ġover loaded
Ġche ery
Ġshe epskin
Ġbl aming
Ġnew bies
Ġcl uster
Ġdiffer nt
Ġbr ite
Ġro am
Ġimp ala
Ġadd itive
Ġson os
Ġscreen ing
Ġdec oy
Ġsoft ly
Ġreg ional
Ġsw at
Ġtot o
Ġcrack les
Ġred und
Ġkey ring
Ġyoung ster
Ġbeh aved
Ġwal greens
Ġhistor ians
Ġmotor ized
Ġregret ting
Ġprep oster
Ġsam urai
will ing
Ġclar a
Ġcreative ly
Ġearth qu
Ġtack ed
Ġtechno logies
Ġscarf s
Ġcalf s
ca fe
Ġtour s
Ġhaw kins
Ġfer al
Ġappli que
Ġchef s
Ġcontrast ing
Ġmartin i
Ġretro spect
Ġll ama
Ġcooper ative
Ġ3 6
Ġbloom ing
Ġinfect ions
Ġappet izing
Ġpare ce
Ġaun que
Ġschw inn
Ġheirl oom
Ġamper age
Ġpreposter ous
e ys
p air
s lim
v arn
z an
Ġ ere
Ġth re
Ġit ty
Ġnot ify
Ġre ps
Ġbe gged
ad ers
Ġmy lar
Ġso f
Ġgood reads
el ent
ard on
Ġab undant
Ġtr uffle
Ġgo ats
Ġad verse
li ze
Ġback bone
Ġhi ked
Ġte ared
Ġgl ider
Ġpack able
ph alon
Ġro xy
Ġatt ain
Ġx finity
Ġtra velo
Ġstuff s
ib al
Ġgri zz
br ace
Ġresp ective
Ġnoise y
Ġdisplay port
go ld
Ġstri ve
Ġtail g
Ġbene f
Ġmal ibu
Ġslot ted
cl ub
Ġcompos itions
Ġsupplement al
Ġpuff s
Ġjig saw
Ġros en
spe akers
Ġsail boat
Ġthreat ening
Ġscro lls
Ġprotr ude
Ġunfor giving
Ġnause ous
Ġglam orous
Ġnord str
onym ous
Ġgaze bo
Ġpursu ing
d im
h ear
i ghter
p athy
Ġh one
Ġg it
al ot
st ration
Ġj ared
Ġj ugs
Ġall ies
Ġr ut
Ġcan teen
Ġk ens
Ġwhat not
Ġar bor
atch ett
Ġtri angles
hor n
Ġreal ization
Ġsl ings
Ġgi ver
Ġed gar
Ġfil mm
Ġcra fter
arch y
Ġform ation
Ġsmooth ness
Ġmach o
Ġliter ate
Ġbend ed
Ġmagnet ized
Ġprofess ors
Ġlad en
Ġchem o
Ġdownload able
uss ion
Ġdece ased
Ġbind s
Ġjun ction
Ġeduc ator
Ġconv ien
Ġboo gie
Ġsick ness
Ġesc al
Ġanti qu
Ġshield ing
bad ly
cra zy
Ġjournal ism
Ġdom ain
Ġment or
Ġdemon stration
Ġbudd hist
Ġhost ess
Ġtug ged
Ġoutrage ously
wa iting
Ġinterfer ing
Ġrenew al
Ġpon to
Ġadj acent
Ġsculpt ure
Ġandre a
Ġnord ic
Ġkath ryn
Ġresh ape
Ġchim ney
Ġchees es
luck ily
Ġbookend s
Ġmisunderstand ings
Ġexem pl
Ġwac om
c ross
e ous
Ġt mobile
Ġs ri
re ly
Ġm w
Ġg asp
Ġe lle
Ġch ases
ge es
Ġall ison
Ġsi ppy
Ġab normally
Ġab normal
Ġsp ed
Ġbo a
Ġover la
Ġag ony
Ġbl air
Ġlight ness
au x
Ġcl are
Ġright eous
Ġhand ler
Ġsl inky
Ġhelp full
Ġgive away
Ġcome back
Ġinf init
Ġed ger
Ġreg l
Ġflo ated
Ġhum ility
pro du
Ġce ases
Ġtreat ise
Ġund es
Ġdon key
Ġrh ino
Ġhesit ated
Ġade le
Ġpsy che
Ġenvironment ally
Ġos x
Ġsoundtrack s
Ġven ge
Ġpizz as
Ġdeterm ining
Ġful fills
Ġwithstand s
Ġdun e
Ġsponge bob
Ġmater iel
Ġpredict ability
Ġcel est
Ġlabor ious
Ġta illight
Ġrepublic an
Ġdisclo sure
Ġcontribut ions
Ġens ures
Ġstalk er
Ġpreserv atives
Ġimmort al
Ġcolomb ia
Ġpedi atric
Ġdaug ther
Ġunsett ling
Ġuncondition al
Ġpont iac
disg usting
Ġrhet oric
f ir
m ite
m att
n ail
r ison
Ġt sp
er se
Ġc ows
Ġp ia
Ġp iling
Ġn cle
Ġto ge
Ġwas p
Ġbe gs
Ġst ero
Ġso viet
Ġch assis
Ġj c
ood oo
Ġpl umbers
act or
Ġpo land
Ġv otive
Ġafter life
um i
Ġbo bs
ab ling
pe ck
joy ed
av an
Ġtri mmers
Ġdef en
Ġcle at
Ġjo es
Ġauthor ization
Ġple ated
Ġclean ings
band s
Ġcoll age
reme mber
Ġbreak ers
Ġfabric ation
Ġmedi abridge
Ġloc ale
Ġimm erse
Ġbirth stone
Ġcal phalon
Ġcu ando
Ġass ault
Ġmil ton
Ġbeh alf
Ġrese nd
Ġspray ers
Ġcamp ers
Ġlad le
Ġlad ders
Ġcomment ing
Ġinfl ates
Ġdu el
Ġny lons
Ġgro in
Ġdanger ously
Ġsnack ing
Ġmart y
Ġign ite
Ġbang le
Ġbio graphical
Ġrefreshing ly
Ġpend ulum
onsist ent
Ġoppos ites
Ġpian ist
Ġlag ging
Ġree ves
Ġtreasure d
Ġster n
Ġsymbol ism
Ġaccomplish ments
wall et
weet ened
Ġstub by
Ġnit ro
Ġreson ates
Ġsustain able
Ġpest s
Ġpronoun ce
Ġimmig rants
Ġimpe ller
Ġreno v
Ġsynch ron
Ġcurt is
Ġgur u
Ġdeliber ately
Ġinexplic ably
Ġdispro port
Ġscept ical
Ġunat tended
Ġncle x
g as
i arty
m id
o cc
s ooo
t ested
Ġt ugs
Ġa ub
Ġb ess
Ġf cil
Ġn m
Ġn p
Ġn bsp
Ġd andy
Ġst acy
Ġst umble
ad ds
Ġsh ins
Ġsu et
ap y
Ġme ad
ard i
Ġab ortion
Ġcon vent
am ents
Ġle aps
Ġv icious
Ġv dc
Ġgo bble
Ġbet r
Ġag ian
Ġinst ill
Ġcr ass
Ġhead ers
ol ar
Ġsn ails
Ġap rons
ors che
Ġfil th
ract or
[...]
