{
  "version": "1.0",
  "truncation": null,
  "padding": null,
  "added_tokens": [
    {
      "id": 0,
      "content": "<s>",
      "single_word": false,
      "lstrip": false,
      "rstrip": false,
      "normalized": false,
      "special": true
    },
    {
      "id": 1,
      "content": "<pad>",
      "single_word": false,
      "lstrip": false,
      "rstrip": false,
      "normalized": false,
      "special": true
    },
    {
      "id": 2,
      "content": "</s>",
      "single_word": false,
      "lstrip": false,
      "rstrip": false,
      "normalized": false,
      "special": true
    },
    {
      "id": 3,
      "content": "<unk>",
      "single_word": false,
      "lstrip": false,
      "rstrip": false,
      "normalized": false,
      "special": true
    },
    {
      "id": 4,
      "content": "<mask>",
      "single_word": false,
      "lstrip": true,
      "rstrip": false,
      "normalized": false,
      "special": true
    },
    {
      "id": 5,
      "content": "[EMAIL]",
      "single_word": false,
      "lstrip": false,
      "rstrip": false,
      "normalized": false,
      "special": true
    },
    {
      "id": 6,
      "content": "[URL]",
      "single_word": false,
      "lstrip": false,
      "rstrip": false,
      "normalized": false,
      "special": true
    },
    {
      "id": 7,
      "content": "[XML]",
      "single_word": false,
      "lstrip": false,
      "rstrip": false,
      "normalized": false,
      "special": true
    },
    {
      "id": 8,
      "content": "[PATH]",
      "single_word": false,
      "lstrip": false,
      "rstrip": false,
      "normalized": false,
      "special": true
    },
    {
      "id": 9,
      "content": "[NUMBER]",
      "single_word": false,
      "lstrip": false,
      "rstrip": false,
      "normalized": false,
      "special": true
    },
    {
      "id": 10,
      "content": "[CUR]",
      "single_word": false,
      "lstrip": false,
      "rstrip": false,
      "normalized": false,
      "special": true
    },
    {
      "id": 11,
      "content": "[BAD]",
      "single_word": false,
      "lstrip": false,
      "rstrip": false,
      "normalized": false,
      "special": true
    },
    {
      "id": 12,
      "content": "[UNKNOWN]",
      "single_word": false,
      "lstrip": false,
      "rstrip": false,
      "normalized": false,
      "special": true
    }
  ],
  "normalizer": null,
  "pre_tokenizer": {
    "type": "ByteLevel",
    "add_prefix_space": false,
    "trim_offsets": true,
    "use_regex": true
  },
  "post_processor": {
    "type": "RobertaProcessing",
    "sep": [
      "</s>",
      2
    ],
    "cls": [
      "<s>",
      0
    ],
    "trim_offsets": true,
    "add_prefix_space": false
  },
  "decoder": {
    "type": "ByteLevel",
    "add_prefix_space": true,
    "trim_offsets": true,
    "use_regex": true
  },
  "model": {
    "type": "BPE",
    "dropout": null,
    "unk_token": null,
    "continuing_subword_prefix": "",
    "end_of_word_suffix": "",
    "fuse_unk": false,
    "byte_fallback": false,
    "vocab": {
      "<s>": 0,
      "<pad>": 1,
      "</s>": 2,
      "<unk>": 3,
      "<mask>": 4,
      "[EMAIL]": 5,
      "[URL]": 6,
      "[XML]": 7,
      "[PATH]": 8,
      "[NUMBER]": 9,
      "[CUR]": 10,
      "[BAD]": 11,
      "[UNKNOWN]": 12,
      "!": 13,
      "\"": 14,
      "#": 15,
      "$": 16,
      "%": 17,
      "&": 18,
      "'": 19,
      "(": 20,
      ")": 21,
      "*": 22,
      "+": 23,
      ",": 24,
      "-": 25,
      ".": 26,
      "/": 27,
      "0": 28,
      "1": 29,
      "2": 30,
      "3": 31,
      "4": 32,
      "5": 33,
      "6": 34,
      "7": 35,
      "8": 36,
      "9": 37,
      ":": 38,
      ";": 39,
      "<": 40,
      "=": 41,
      ">": 42,
      "?": 43,
      "@": 44,
      "A": 45,
      "B": 46,
      "C": 47,
      "D": 48,
      "E": 49,
      "F": 50,
      "G": 51,
      "H": 52,
      "I": 53,
      "J": 54,
      "K": 55,
      "L": 56,
      "M": 57,
      "N": 58,
      "O": 59,
      "P": 60,
      "Q": 61,
      "R": 62,
      "S": 63,
      "T": 64,
      "U": 65,
      "V": 66,
      "W": 67,
      "X": 68,
      "Y": 69,
      "Z": 70,
      "[": 71,
      "\\": 72,
      "]": 73,
      "^": 74,
      "_": 75,
      "`": 76,
      "a": 77,
      "b": 78,
      "c": 79,
      "d": 80,
      "e": 81,
      "f": 82,
      "g": 83,
      "h": 84,
      "i": 85,
      "j": 86,
      "k": 87,
      "l": 88,
      "m": 89,
      "n": 90,
      "o": 91,
      "p": 92,
      "q": 93,
      "r": 94,
      "s": 95,
      "t": 96,
      "u": 97,
      "v": 98,
      "w": 99,
      "x": 100,
      "y": 101,
      "z": 102,
      "{": 103,
      "|": 104,
      "}": 105,
      "~": 106,
      "¡": 107,
      "¢": 108,
      "£": 109,
      "¤": 110,
      "¥": 111,
      "¦": 112,
      "§": 113,
      "¨": 114,
      "©": 115,
      "ª": 116,
      "«": 117,
      "¬": 118,
      "®": 119,
      "¯": 120,
      "°": 121,
      "±": 122,
      "²": 123,
      "³": 124,
      "´": 125,
      "µ": 126,
      "¶": 127,
      "·": 128,
      "¸": 129,
      "¹": 130,
      "º": 131,
      "»": 132,
      "¼": 133,
      "½": 134,
      "¾": 135,
      "¿": 136,
      "À": 137,
      "Á": 138,
      "Â": 139,
      "Ã": 140,
      "Ä": 141,
      "Å": 142,
      "Æ": 143,
      "Ç": 144,
      "È": 145,
      "É": 146,
      "Ê": 147,
      "Ë": 148,
      "Ì": 149,
      "Í": 150,
      "Î": 151,
      "Ï": 152,
      "Ð": 153,
      "Ñ": 154,
      "Ò": 155,
      "Ó": 156,
      "Ô": 157,
      "Õ": 158,
      "Ö": 159,
      "×": 160,
      "Ø": 161,
      "Ù": 162,
      "Ú": 163,
      "Û": 164,
      "Ü": 165,
      "Ý": 166,
      "Þ": 167,
      "ß": 168,
      "à": 169,
      "á": 170,
      "â": 171,
      "ã": 172,
      "ä": 173,
      "å": 174,
      "æ": 175,
      "ç": 176,
      "è": 177,
      "é": 178,
      "ê": 179,
      "ë": 180,
      "ì": 181,
      "í": 182,
      "î": 183,
      "ï": 184,
      "ð": 185,
      "ñ": 186,
      "ò": 187,
      "ó": 188,
      "ô": 189,
      "õ": 190,
      "ö": 191,
      "÷": 192,
      "ø": 193,
      "ù": 194,
      "ú": 195,
      "û": 196,
      "ü": 197,
      "ý": 198,
      "þ": 199,
      "ÿ": 200,
      "Ā": 201,
      "ā": 202,
      "Ă": 203,
      "ă": 204,
      "Ą": 205,
      "ą": 206,
      "Ć": 207,
      "ć": 208,
      "Ĉ": 209,
      "ĉ": 210,
      "Ċ": 211,
      "ċ": 212,
      "Č": 213,
      "č": 214,
      "Ď": 215,
      "ď": 216,
      "Đ": 217,
      "đ": 218,
      "Ē": 219,
      "ē": 220,
      "Ĕ": 221,
      "ĕ": 222,
      "Ė": 223,
      "ė": 224,
      "Ę": 225,
      "ę": 226,
      "Ě": 227,
      "ě": 228,
      "Ĝ": 229,
      "ĝ": 230,
      "Ğ": 231,
      "ğ": 232,
      "Ġ": 233,
      "ġ": 234,
      "Ģ": 235,
      "ģ": 236,
      "Ĥ": 237,
      "ĥ": 238,
      "Ħ": 239,
      "ħ": 240,
      "Ĩ": 241,
      "ĩ": 242,
      "Ī": 243,
      "ī": 244,
      "Ĭ": 245,
      "ĭ": 246,
      "Į": 247,
      "į": 248,
      "İ": 249,
      "ı": 250,
      "Ĳ": 251,
      "ĳ": 252,
      "Ĵ": 253,
      "ĵ": 254,
      "Ķ": 255,
      "ķ": 256,
      "ĸ": 257,
      "Ĺ": 258,
      "ĺ": 259,
      "Ļ": 260,
      "ļ": 261,
      "Ľ": 262,
      "ľ": 263,
      "Ŀ": 264,
      "ŀ": 265,
      "Ł": 266,
      "ł": 267,
      "Ń": 268,
      "Ġt": 269,
      "Ġa": 270,
      "Ġth": 271,
      "Ġi": 272,
      "Ġthe": 273,
      "Ġs": 274,
      "Ġw": 275,
      "er": 276,
      "Ġ.": 277,
      "Ġo": 278,
      "in": 279,
      "re": 280,
      "Ġb": 281,
      "nd": 282,
      "Ġh": 283,
      "Ġc": 284,
      "Ġf": 285,
      "Ġm": 286,
      "Ġ,": 287,
      "ou": 288,
      "at": 289,
      "Ġp": 290,
      "ing": 291,
      "or": 292,
      "Ġto": 293,
      "ed": 294,
      "es": 295,
      "Ġd": 296,
      "en": 297,
      "on": 298,
      "Ġand": 299,
      "Ġn": 300,
      "is": 301,
      "Ġl": 302,
      "ll": 303,
      "it": 304,
      "ot": 305,
      "as": 306,
      "ar": 307,
      "Ġit": 308,
      "Ġof": 309,
      "an": 310,
      "Ġin": 311,
      "Ġis": 312,
      "Ġg": 313,
      "Ġre": 314,
      "om": 315,
      "ut": 316,
      "le": 317,
      "ve": 318,
      "Ġe": 319,
      "ic": 320,
      "Ġ[": 321,
      "us": 322,
      "Ġon": 323,
      "Ġbe": 324,
      "Ġnot": 325,
      "Ġha": 326,
      "oo": 327,
      "ly": 328,
      "Ġthis": 329,
      "Ġwh": 330,
      "Ġy": 331,
      "ac": 332,
      "ver": 333,
      "Ġthat": 334,
      "Ġst": 335,
      "al": 336,
      "Ġfor": 337,
      "et": 338,
      "BE": 339,
      "MBE": 340,
      "NU": 341,
      "MBER": 342,
      "NUMBER": 343,
      "gh": 344,
      "ow": 345,
      "ld": 346,
      "ion": 347,
      "ad": 348,
      "ter": 349,
      "Ġyou": 350,
      "ith": 351,
      "Ġwas": 352,
      "id": 353,
      "ay": 354,
      "Ġwith": 355,
      "ent": 356,
      "ro": 357,
      "ook": 358,
      "ct": 359,
      "all": 360,
      "Ġbut": 361,
      "ke": 362,
      "st": 363,
      "Ġu": 364,
      "Ġhave": 365,
      "ch": 366,
      "th": 367,
      "Ġan": 368,
      "se": 369,
      "ri": 370,
      "Ġsh": 371,
      "Ġmy": 372,
      "Ġas": 373,
      "Ġli": 374,
      "Ġdo": 375,
      "ur": 376,
      "me": 377,
      "ould": 378,
      "Ġare": 379,
      "ir": 380,
      "Ġch": 381,
      "Ġso": 382,
      "ill": 383,
      "Ġse": 384,
      "ght": 385,
      "Ġj": 386,
      "Ġbook": 387,
      "ce": 388,
      "Ġmo": 389,
      "Ġhe": 390,
      "Ġwe": 391,
      "pp": 392,
      "ble": 393,
      "Ġr": 394,
      "ally": 395,
      "ust": 396,
      "Ġne": 397,
      "Ġal": 398,
      "Ġpro": 399,
      "Ġus": 400,
      "Ġex": 401,
      "Ġor": 402,
      "Ġwor": 403,
      "Ġde": 404,
      "il": 405,
      "Ġcom": 406,
      "very": 407,
      "Ġam": 408,
      "Ġat": 409,
      "ag": 410,
      "Ġthey": 411,
      "ie": 412,
      "Ġme": 413,
      "Ġfr": 414,
      "Ġone": 415,
      "Ġk": 416,
      "pe": 417,
      "am": 418,
      "Ġcon": 419,
      "out": 420,
      "im": 421,
      "Ġsu": 422,
      "Ġwould": 423,
      "ain": 424,
      "Ġsom": 425,
      "Ġall": 426,
      "ack": 427,
      "ere": 428,
      "ul": 429,
      "Ġwill": 430,
      "ess": 431,
      "est": 432,
      "qu": 433,
      "ers": 434,
      "ant": 435,
      "Ġab": 436,
      "Ġif": 437,
      "Ġout": 438,
      "Ġpl": 439,
      "Ġread": 440,
      "Ġlike": 441,
      "Ġup": 442,
      "el": 443,
      "Ġfrom": 444,
      "Ġcan": 445,
      "em": 446,
      "one": 447,
      "Ġjust": 448,
      "Ġtr": 449,
      "art": 450,
      "ap": 451,
      "Ġco": 452,
      "ough": 453,
      "Ġlo": 454,
      "Ġv": 455,
      "ist": 456,
      "Ġno": 457,
      "ate": 458,
      "Ġher": 459,
      "Ġ!": 460,
      "ood": 461,
      "Ġget": 462,
      "ation": 463,
      "un": 464,
      "Ġun": 465,
      "if": 466,
      "ive": 467,
      "ast": 468,
      "ard": 469,
      "her": 470,
      "ak": 471,
      "ice": 472,
      "Ġthere": 473,
      "Ġabout": 474,
      "Ġfe": 475,
      "Ġvery": 476,
      "Ġhad": 477,
      "ound": 478,
      "and": 479,
      "Ġle": 480,
      "Ġwhen": 481,
      "Ġsome": 482,
      "ind": 483,
      "Ġmore": 484,
      "ure": 485,
      "um": 486,
      "ort": 487,
      "Ġhas": 488,
      "Ġti": 489,
      "Ġpo": 490,
      "Ġwork": 491,
      "Ġen": 492,
      "Ġthem": 493,
      "ig": 494,
      "ect": 495,
      "ong": 496,
      "Ġwhat": 497,
      "Ġqu": 498,
      "ple": 499,
      "KN": 500,
      "NKN": 501,
      "OW": 502,
      "UNKN": 503,
      "OWN": 504,
      "UNKNOWN": 505,
      "Ġoth": 506,
      "Ġbec": 507,
      "Ġhow": 508,
      "able": 509,
      "ven": 510,
      "ory": 511,
      "Ġdid": 512,
      "reat": 513,
      "ame": 514,
      "ies": 515,
      "Ġshe": 516,
      "Ġany": 517,
      "lo": 518,
      "Ġby": 519,
      "Ġgo": 520,
      "so": 521,
      "Ġgood": 522,
      "ge": 523,
      "Ġpr": 524,
      "ck": 525,
      "Ġpre": 526,
      "ity": 527,
      "aus": 528,
      "ich": 529,
      "Ġhis": 530,
      "itt": 531,
      "Ġwho": 532,
      "Ġad": 533,
      "Ġint": 534,
      "ake": 535,
      "ine": 536,
      "are": 537,
      "Ġtime": 538,
      "Ġthan": 539,
      "ite": 540,
      "..": 541,
      "ight": 542,
      "Ġ...": 543,
      "Ġchar": 544,
      "ide": 545,
      "Ġother": 546,
      "ause": 547,
      "Ġman": 548,
      "uct": 549,
      "Ġtoo": 550,
      "Ġdis": 551,
      "Ġaf": 552,
      "Ġonly": 553,
      "vie": 554,
      "Ġthese": 555,
      "Ġbecause": 556,
      "Ġyour": 557,
      "Ġreally": 558,
      "Ġdoes": 559,
      "pt": 560,
      "ars": 561,
      "Ġover": 562,
      "Ġbu": 563,
      "Ġwr": 564,
      "ous": 565,
      "Ġwell": 566,
      "pl": 567,
      "act": 568,
      "Ġkn": 569,
      "Ġwhich": 570,
      "Ġlook": 571,
      "ss": 572,
      "Ġwere": 573,
      "ab": 574,
      "Ġar": 575,
      "ick": 576,
      "Ġgreat": 577,
      "Ġsc": 578,
      "Ġmu": 579,
      "Ġho": 580,
      "ase": 581,
      "Ġstory": 582,
      "ore": 583,
      "int": 584,
      "Ġte": 585,
      "ink": 586,
      "Ġoff": 587,
      "ought": 588,
      "Ġfir": 589,
      "Ġeven": 590,
      "Ġafter": 591,
      "Ġrec": 592,
      "Ġmuch": 593,
      "hing": 594,
      "Ġalso": 595,
      "Ġuse": 596,
      "Ġback": 597,
      "iv": 598,
      "Ġfirst": 599,
      "Ġtw": 600,
      "lf": 601,
      "iz": 602,
      "AD": 603,
      "BAD": 604,
      "Ġcould": 605,
      "age": 606,
      "Ġwant": 607,
      "ue": 608,
      "ire": 609,
      "Ġbet": 610,
      "Ġbo": 611,
      "Ġtheir": 612,
      "own": 613,
      "urn": 614,
      "ach": 615,
      "per": 616,
      "our": 617,
      "Ġsp": 618,
      "Ġprod": 619,
      "view": 620,
      "Ġag": 621,
      "Ġke": 622,
      "Ġbr": 623,
      "Ġway": 624,
      "ions": 625,
      "ep": 626,
      "Ġbeen": 627,
      "Ġim": 628,
      "Ġ?": 629,
      "Ġye": 630,
      "ment": 631,
      "nder": 632,
      "Ġinto": 633,
      "av": 634,
      "acter": 635,
      "ud": 636,
      "Ġreview": 637,
      "Ġcharacter": 638,
      "Ġthing": 639,
      "Ġgr": 640,
      "ile": 641,
      "Ġevery": 642,
      "Ġproduct": 643,
      "ace": 644,
      "Ġthen": 645,
      "fer": 646,
      "Ġcl": 647,
      "Ġneed": 648,
      "Ġthr": 649,
      "ish": 650,
      "Ġper": 651,
      "Ġdes": 652,
      "ays": 653,
      "nt": 654,
      "Ġser": 655,
      "ade": 656,
      "Ġcont": 657,
      "Ġbl": 658,
      "Ġknow": 659,
      "Ġph": 660,
      "Ġthink": 661,
      "ip": 662,
      "ittle": 663,
      "Ġlove": 664,
      "Ġend": 665,
      "other": 666,
      "Ġlittle": 667,
      "Ġact": 668,
      "Ġnew": 669,
      "Ġtwo": 670,
      "Ġpart": 671,
      "Ġcomp": 672,
      "Ġro": 673,
      "ting": 674,
      "fe": 675,
      "Ġinst": 676,
      "Ġsm": 677,
      "Ġfl": 678,
      "Ġinter": 679,
      "Ġnow": 680,
      "ail": 681,
      "Ġapp": 682,
      "ens": 683,
      "Ġsee": 684,
      "Ġseem": 685,
      "ater": 686,
      "Ġpur": 687,
      "Ġaut": 688,
      "Ġdif": 689,
      "ull": 690,
      "ying": 691,
      "Ġstr": 692,
      "Ġpe": 693,
      "ial": 694,
      "az": 695,
      "Ġthrough": 696,
      "Ġsa": 697,
      "ved": 698,
      "Ġeas": 699,
      "Ġmost": 700,
      "ious": 701,
      "Ġmake": 702,
      "Ġfind": 703,
      "ass": 704,
      "pect": 705,
      "Ġstill": 706,
      "oth": 707,
      "ult": 708,
      "der": 709,
      "ence": 710,
      "Ġset": 711,
      "Ġfeel": 712,
      "ol": 713,
      "Ġri": 714,
      "Ġbetter": 715,
      "ree": 716,
      "ated": 717,
      "Ġac": 718,
      "Ġsomet": 719,
      "ry": 720,
      "Ġmany": 721,
      "Ġdown": 722,
      "ance": 723,
      "Ġspe": 724,
      "ful": 725,
      "vel": 726,
      "ict": 727,
      "Ġauth": 728,
      "igh": 729,
      "Ġgot": 730,
      "ily": 731,
      "Ġmay": 732,
      "Ġlong": 733,
      "ality": 734,
      "ans": 735,
      "te": 736,
      "not": 737,
      "orm": 738,
      "os": 739,
      "Ġsl": 740,
      "Ġauthor": 741,
      "wn": 742,
      "ical": 743,
      "Ġits": 744,
      "ving": 745,
      "Ġput": 746,
      "self": 747,
      "Ġhapp": 748,
      "Ġwhile": 749,
      "Ġmade": 750,
      "ft": 751,
      "we": 752,
      "co": 753,
      "atch": 754,
      "ose": 755,
      "Ġtri": 756,
      "ually": 757,
      "Ġfo": 758,
      "Ġagain": 759,
      "Ġgu": 760,
      "akes": 761,
      "app": 762,
      "ased": 763,
      "Ġcannot": 764,
      "ff": 765,
      "ang": 766,
      "Ġpurch": 767,
      "Ġshould": 768,
      "Ġaw": 769,
      "ever": 770,
      "Ġstart": 771,
      "blem": 772,
      "ome": 773,
      "les": 774,
      "Ġproblem": 775,
      "Ġlot": 776,
      "mo": 777,
      "oy": 778,
      "Ġinc": 779,
      "mend": 780,
      "Ġnever": 781,
      "Ġcharacters": 782,
      "Ġsay": 783,
      "fore": 784,
      "Ġunder": 785,
      "Ġcr": 786,
      "atter": 787,
      "Ġfew": 788,
      "Ġhigh": 789,
      "ber": 790,
      "thing": 791,
      "Ġbought": 792,
      "Ġpeo": 793,
      "ves": 794,
      "Ġused": 795,
      "Ġhard": 796,
      "imes": 797,
      "Ġpeople": 798,
      "Ġrecom": 799,
      "Ġlife": 800,
      "Ġmon": 801,
      "ty": 802,
      "Ġbuy": 803,
      "Ġrecommend": 804,
      "Ġold": 805,
      "Ġche": 806,
      "Ġhand": 807,
      "Ġdiffer": 808,
      "Ġcase": 809,
      "Ġbeing": 810,
      "Ġsame": 811,
      "ary": 812,
      "Ġwhere": 813,
      "Ġplay": 814,
      "Ġdr": 815,
      "Ġgoing": 816,
      "Ġanother": 817,
      "ount": 818,
      "Ġhowever": 819,
      "Ġbit": 820,
      "Ġbooks": 821,
      "ations": 822,
      "Ġhim": 823,
      "Ġcle": 824,
      "Ġamaz": 825,
      "ub": 826,
      "Ġhel": 827,
      "Ġfit": 828,
      "ating": 829,
      "vers": 830,
      "Ġbefore": 831,
      "Ġreading": 832,
      "ign": 833,
      "ps": 834,
      "gin": 835,
      "Ġquality": 836,
      "Ġfound": 837,
      "Ġsmall": 838,
      "Ġsomething": 839,
      "Ġlight": 840,
      "ize": 841,
      "air": 842,
      "Ġres": 843,
      "ild": 844,
      "Ġkeep": 845,
      "Ġimp": 846,
      "Ġreal": 847,
      "Ġfin": 848,
      "ark": 849,
      "Ġret": 850,
      "Ġop": 851,
      "ress": 852,
      "xt": 853,
      "ise": 854,
      "Ġsin": 855,
      "Ġright": 856,
      "ning": 857,
      "Ġyears": 858,
      "Ġperf": 859,
      "Ġenj": 860,
      "Ġown": 861,
      "Ġorder": 862,
      "Ġsim": 863,
      "Ġenough": 864,
      "Ġdec": 865,
      "Ġatt": 866,
      "ci": 867,
      "Ġlast": 868,
      "oint": 869,
      "gg": 870,
      "Ġthought": 871,
      "ph": 872,
      "ces": 873,
      "Ġins": 874,
      "end": 875,
      "ather": 876,
      "iting": 877,
      "Ġsound": 878,
      "Ġadd": 879,
      "Ġenjoy": 880,
      "this": 881,
      "Ġnice": 882,
      "Ġpers": 883,
      "Ġthough": 884,
      "Ġsince": 885,
      "ower": 886,
      "ord": 887,
      "Ġsupp": 888,
      "Ġaround": 889,
      "Ġturn": 890,
      "Ġinterest": 891,
      "Ġbad": 892,
      "aking": 893,
      "ors": 894,
      "Ġfun": 895,
      "de": 896,
      "get": 897,
      "Ġour": 898,
      "Ġdifferent": 899,
      "Ġrel": 900,
      "Ġbig": 901,
      "Ġdef": 902,
      "Ġcar": 903,
      "ition": 904,
      "be": 905,
      "Ġseries": 906,
      "UR": 907,
      "Ġjo": 908,
      "gr": 909,
      "Ġbel": 910,
      "Ġmin": 911,
      "Ġhelp": 912,
      "cess": 913,
      "Ġthose": 914,
      "Ġgive": 915,
      "Ġbest": 916,
      "ents": 917,
      "Ġday": 918,
      "Ġdisapp": 919,
      "ason": 920,
      "Ġthings": 921,
      "Ġsure": 922,
      "Ġtake": 923,
      "Ġboth": 924,
      "Ġem": 925,
      "Ġiss": 926,
      "ave": 927,
      "io": 928,
      "fort": 929,
      "less": 930,
      "Ġprice": 931,
      "ual": 932,
      "Ġwithout": 933,
      "Ġexpect": 934,
      "Ġreturn": 935,
      "Ġsho": 936,
      "Ġeasy": 937,
      "Ġphone": 938,
      "Ġrece": 939,
      "Ġwar": 940,
      "Ġusing": 941,
      "Ġed": 942,
      "Ġlooking": 943,
      "Ġeach": 944,
      "Ġcons": 945,
      "CUR": 946,
      "Ġsur": 947,
      "ible": 948,
      "ange": 949,
      "red": 950,
      "Ġdisappoint": 951,
      "Ġpret": 952,
      "ately": 953,
      "Ġhead": 954,
      "aw": 955,
      "ably": 956,
      "Ġperson": 957,
      "ks": 958,
      "Ġpoint": 959,
      "au": 960,
      "Ġmonth": 961,
      "Ġtimes": 962,
      "Ġpretty": 963,
      "Ġwhy": 964,
      "Ġgl": 965,
      "vice": 966,
      "Ġrepl": 967,
      "ath": 968,
      "Ġext": 969,
      "Ġfar": 970,
      "riend": 971,
      "bs": 972,
      "Ġshow": 973,
      "Ġamazon": 974,
      "ix": 975,
      "cond": 976,
      "Ġkind": 977,
      "wh": 978,
      "ool": 979,
      "Ġsecond": 980,
      "Ġcol": 981,
      "Ġcomple": 982,
      "Ġinf": 983,
      "ott": 984,
      "Ġhere": 985,
      "Ġfil": 986,
      "Ġscre": 987,
      "Ġtop": 988,
      "ings": 989,
      "Ġstars": 990,
      "Ġsize": 991,
      "Ġhold": 992,
      "read": 993,
      "ia": 994,
      "astic": 995,
      "Ġseems": 996,
      "Ġyear": 997,
      "oney": 998,
      "tain": 999,
      "Ġel": 1000,
      "Ġmakes": 1001,
      "Ġworks": 1002,
      "arly": 1003,
      "Ġactually": 1004,
      "iss": 1005,
      "ger": 1006,
      "Ġcome": 1007,
      "Ġclo": 1008,
      "Ġdet": 1009,
      "Ġperfect": 1010,
      "Ġsuch": 1011,
      "Ġfact": 1012,
      "ures": 1013,
      "nect": 1014,
      "Ġless": 1015,
      "Ġrun": 1016,
      "Ġfam": 1017,
      "Ġdri": 1018,
      "Ġmoney": 1019,
      "ages": 1020,
      "ute": 1021,
      "Ġev": 1022,
      "li": 1023,
      "bo": 1024,
      "Ġmus": 1025,
      "ways": 1026,
      "ked": 1027,
      "cept": 1028,
      "Ġcover": 1029,
      "ward": 1030,
      "ipp": 1031,
      "Ġwee": 1032,
      "ra": 1033,
      "cri": 1034,
      "Ġopen": 1035,
      "Ġnovel": 1036,
      "Ġwater": 1037,
      "Ġworth": 1038,
      "Ġlet": 1039,
      "Ġreviews": 1040,
      "ead": 1041,
      "Ġbox": 1042,
      "Ġworld": 1043,
      "Ġpict": 1044,
      "Ġfriend": 1045,
      "Ġcall": 1046,
      "Ġbatter": 1047,
      "Ġgen": 1048,
      "Ġside": 1049,
      "Ġwatch": 1050,
      "Ġacc": 1051,
      "Ġpack": 1052,
      "Ġexp": 1053,
      "Ġfull": 1054,
      "Ġcam": 1055,
      "Ġcou": 1056,
      "ues": 1057,
      "Ġlar": 1058,
      "Ġind": 1059,
      "lud": 1060,
      "Ġlist": 1061,
      "ne": 1062,
      "Ġever": 1063,
      "Ġexper": 1064,
      "Ġreason": 1065,
      "ian": 1066,
      "Ġes": 1067,
      "ters": 1068,
      "op": 1069,
      "Ġwo": 1070,
      "Ġaway": 1071,
      "ween": 1072,
      "Ġsaid": 1073,
      "Ġnext": 1074,
      "Ġpie": 1075,
      "Ġdefin": 1076,
      "Ġtry": 1077,
      "Ġconnect": 1078,
      "Ġcame": 1079,
      "Ġalways": 1080,
      "llow": 1081,
      "Ġbetween": 1082,
      "ys": 1083,
      "ons": 1084,
      "Ġquite": 1085,
      "ics": 1086,
      "Ġonce": 1087,
      "most": 1088,
      "Ġty": 1089,
      "ction": 1090,
      "Ġhaving": 1091,
      "ived": 1092,
      "Ġgame": 1093,
      "ash": 1094,
      "Ġprot": 1095,
      "itch": 1096,
      "Ġstand": 1097,
      "itten": 1098,
      "Ġtried": 1099,
      "Ġmight": 1100,
      "Ġnothing": 1101,
      "Ġable": 1102,
      "Ġbelie": 1103,
      "dy": 1104,
      "Ġtell": 1105,
      "Ġshort": 1106,
      "Ġsy": 1107,
      "Ġcare": 1108,
      "Ġmovie": 1109,
      "stand": 1110,
      "ience": 1111,
      "Ġpower": 1112,
      "Ġpurchased": 1113,
      "Ġinclud": 1114,
      "Ġwanted": 1115,
      "Ġgetting": 1116,
      "ced": 1117,
      "Ġchild": 1118,
      "ouse": 1119,
      "Ġmain": 1120,
      "ts": 1121,
      "ense": 1122,
      "uck": 1123,
      "the": 1124,
      "Ġz": 1125,
      "gether": 1126,
      "ically": 1127,
      "Ġdescri": 1128,
      "Ġsk": 1129,
      "Ġunit": 1130,
      "Ġwritten": 1131,
      "ren": 1132,
      "Ġcomplete": 1133,
      "Ġrem": 1134,
      "Ġwa": 1135,
      "arn": 1136,
      "Ġwriting": 1137,
      "Ġprob": 1138,
      "ative": 1139,
      "Ġalmost": 1140,
      "Ġanything": 1141,
      "ib": 1142,
      "Ġsever": 1143,
      "Ġsw": 1144,
      "Ġunt": 1145,
      "Ġtogether": 1146,
      "Ġprobably": 1147,
      "led": 1148,
      "Ġdesign": 1149,
      "Ġplace": 1150,
      "vious": 1151,
      "Ġcheap": 1152,
      "Ġcor": 1153,
      "Ġreg": 1154,
      "Ġinteresting": 1155,
      "Ġdisc": 1156,
      "Ġreceived": 1157,
      "Ġquick": 1158,
      "Ġfine": 1159,
      "Ġthree": 1160,
      "Ġori": 1161,
      "pr": 1162,
      "Ġbott": 1163,
      "Ġstar": 1164,
      "ention": 1165,
      "Ġtrying": 1166,
      "ds": 1167,
      "Ġitem": 1168,
      "Ġleft": 1169,
      "Ġeverything": 1170,
      "aps": 1171,
      "Ġter": 1172,
      "Ġbre": 1173,
      "Ġscreen": 1174,
      "Ġsub": 1175,
      "ush": 1176,
      "Ġmaybe": 1177,
      "Ġma": 1178,
      "ided": 1179,
      "Ġsong": 1180,
      "Ġide": 1181,
      "Ġmonths": 1182,
      "Ġwear": 1183,
      "ories": 1184,
      "Ġoverall": 1185,
      "Ġdefinite": 1186,
      "Ġinstall": 1187,
      "Ġhour": 1188,
      "Ġtook": 1189,
      "Ġuntil": 1190,
      "alk": 1191,
      "Ġseveral": 1192,
      "Ġrep": 1193,
      "Ġwom": 1194,
      "ten": 1195,
      "elt": 1196,
      "ug": 1197,
      "ither": 1198,
      "Ġdisappointed": 1199,
      "Ġcoll": 1200,
      "ner": 1201,
      "Ġdays": 1202,
      "Ġplastic": 1203,
      "Ġvers": 1204,
      "Ġmusic": 1205,
      "Ġref": 1206,
      "ement": 1207,
      "ruct": 1208,
      "Ġhappen": 1209,
      "Ġbag": 1210,
      "Ġalb": 1211,
      "Ġhappy": 1212,
      "Ġdefinitely": 1213,
      "Ġchr": 1214,
      "Ġorigin": 1215,
      "Ġplot": 1216,
      "Ġsol": 1217,
      "Ġmet": 1218,
      "Ġreplac": 1219,
      "Ġunderstand": 1220,
      "Ġprov": 1221,
      "ets": 1222,
      "Ġalbum": 1223,
      "Ġhome": 1224,
      "Ġhist": 1225,
      "Ġyet": 1226,
      "Ġfelt": 1227,
      "plain": 1228,
      "Ġcomes": 1229,
      "Ġent": 1230,
      "hip": 1231,
      "Ġwonder": 1232,
      "fic": 1233,
      "Ġdur": 1234,
      "Ġinstead": 1235,
      "ates": 1236,
      "Ġhum": 1237,
      "Ġlooks": 1238,
      "Ġinv": 1239,
      "ness": 1240,
      "Ġbas": 1241,
      "Ġmar": 1242,
      "Ġbro": 1243,
      "Ġloved": 1244,
      "up": 1245,
      "Ġothers": 1246,
      "als": 1247,
      "ider": 1248,
      "Ġfamily": 1249,
      "Ġcolor": 1250,
      "Ġsty": 1251,
      "Ġleast": 1252,
      "Ġmust": 1253,
      "ature": 1254,
      "Ġear": 1255,
      "ides": 1256,
      "Ġprotect": 1257,
      "log": 1258,
      "Ġhon": 1259,
      "augh": 1260,
      "Ġdone": 1261,
      "Ġbegin": 1262,
      "no": 1263,
      "ited": 1264,
      "Ġhalf": 1265,
      "Ġhope": 1266,
      "Ġfree": 1267,
      "Ġmiss": 1268,
      "Ġfan": 1269,
      "Ġcut": 1270,
      "Ġfall": 1271,
      "Ġwent": 1272,
      "Ġple": 1273,
      "ject": 1274,
      "ption": 1275,
      "ular": 1276,
      "Ġstarted": 1277,
      "Ġsomeone": 1278,
      "cially": 1279,
      "Ġfollow": 1280,
      "Ġanyone": 1281,
      "Ġfilm": 1282,
      "Ġcomm": 1283,
      "Ġconf": 1284,
      "aut": 1285,
      "Ġob": 1286,
      "Ġpurchase": 1287,
      "Ġgiv": 1288,
      "ier": 1289,
      "Ġcouple": 1290,
      "Ġpast": 1291,
      "ont": 1292,
      "Ġeff": 1293,
      "Ġok": 1294,
      "ows": 1295,
      "Ġpres": 1296,
      "avor": 1297,
      "Ġordered": 1298,
      "Ġclean": 1299,
      "Ġinform": 1300,
      "era": 1301,
      "day": 1302,
      "sol": 1303,
      "though": 1304,
      "Ġsupport": 1305,
      "Ġbattery": 1306,
      "Ġblack": 1307,
      "Ġespe": 1308,
      "Ġworked": 1309,
      "Ġwhole": 1310,
      "Ġsuper": 1311,
      "arch": 1312,
      "Ġespecially": 1313,
      "Ġjob": 1314,
      "ied": 1315,
      "Ġrather": 1316,
      "Ġav": 1317,
      "iter": 1318,
      "Ġworking": 1319,
      "Ġbutt": 1320,
      "Ġeither": 1321,
      "ready": 1322,
      "Ġkid": 1323,
      "Ġline": 1324,
      "Ġalready": 1325,
      "Ġissue": 1326,
      "ility": 1327,
      "ale": 1328,
      "Ġappe": 1329,
      "Ġelse": 1330,
      "Ġsch": 1331,
      "Ġeasily": 1332,
      "Ġhonest": 1333,
      "Ġmater": 1334,
      "Ġeng": 1335,
      "Ġbri": 1336,
      "Ġcard": 1337,
      "Ġdire": 1338,
      "ware": 1339,
      "Ġform": 1340,
      "Ġlarge": 1341,
      "Ġspec": 1342,
      "Ġpick": 1343,
      "Ġmod": 1344,
      "aph": 1345,
      "Ġdeal": 1346,
      "ls": 1347,
      "Ġmaterial": 1348,
      "pped": 1349,
      "Ġalthough": 1350,
      "uff": 1351,
      "Ġliked": 1352,
      "Ġrom": 1353,
      "Ġpain": 1354,
      "Ġpicture": 1355,
      "ised": 1356,
      "ng": 1357,
      "ized": 1358,
      "Ġcontro": 1359,
      "Ġsn": 1360,
      "Ġdetail": 1361,
      "Ġpoor": 1362,
      "Ġreader": 1363,
      "Ġport": 1364,
      "Ġlearn": 1365,
      "any": 1366,
      "Ġwish": 1367,
      "Ġmind": 1368,
      "Ġcer": 1369,
      "Ġconc": 1370,
      "Ġpages": 1371,
      "Ġele": 1372,
      "Ġcap": 1373,
      "Ġchap": 1374,
      "Ġrest": 1375,
      "ently": 1376,
      "ones": 1377,
      "Ġcour": 1378,
      "ully": 1379,
      "Ġmaking": 1380,
      "Ġsoft": 1381,
      "Ġgi": 1382,
      "Ġissues": 1383,
      "Ġchrist": 1384,
      "Ġnum": 1385,
      "its": 1386,
      "velo": 1387,
      "res": 1388,
      "ling": 1389,
      "ugg": 1390,
      "Ġstrong": 1391,
      "Ġet": 1392,
      "Ġgir": 1393,
      "Ġnight": 1394,
      "ficult": 1395,
      "Ġfig": 1396,
      "Ġste": 1397,
      "ared": 1398,
      "ments": 1399,
      "Ġhor": 1400,
      "Ġdifficult": 1401,
      "og": 1402,
      "Ġstories": 1403,
      "Ġgets": 1404,
      "Ġsto": 1405,
      "Ġmyself": 1406,
      "Ġbeaut": 1407,
      "Ġenjoyed": 1408,
      "Ġart": 1409,
      "ping": 1410,
      "line": 1411,
      "Ġcompletely": 1412,
      "Ġsell": 1413,
      "Ġbelieve": 1414,
      "ret": 1415,
      "Ġversion": 1416,
      "Ġscen": 1417,
      "Ġcost": 1418,
      "Ġneeded": 1419,
      "Ġcomfort": 1420,
      "ustom": 1421,
      "Ġgener": 1422,
      "Ġoriginal": 1423,
      "Ġitself": 1424,
      "Ġtrans": 1425,
      "Ġwrong": 1426,
      "Ġproblems": 1427,
      "Ġfinish": 1428,
      "Ġbottom": 1429,
      "Ġstick": 1430,
      "Ġdog": 1431,
      "ots": 1432,
      "ster": 1433,
      "Ġcamera": 1434,
      "Ġkey": 1435,
      "Ġphot": 1436,
      "Ġinside": 1437,
      "Ġsing": 1438,
      "Ġson": 1439,
      "Ġmag": 1440,
      "Ġsec": 1441,
      "Ġexc": 1442,
      "Ġmark": 1443,
      "Ġcustom": 1444,
      "Ġpri": 1445,
      "utes": 1446,
      "Ġtakes": 1447,
      "Ġetc": 1448,
      "arent": 1449,
      "Ġstud": 1450,
      "Ġwind": 1451,
      "Ġroom": 1452,
      "Ġcertain": 1453,
      "ines": 1454,
      "unately": 1455,
      "ames": 1456,
      "Ġpage": 1457,
      "Ġpiece": 1458,
      "Ġmed": 1459,
      "Ġstyle": 1460,
      "Ġheart": 1461,
      "Ġap": 1462,
      "Ġconsider": 1463,
      "Ġtrue": 1464,
      "ife": 1465,
      "Ġgave": 1466,
      "Ġplan": 1467,
      "Ġdevelo": 1468,
      "Ġhouse": 1469,
      "Ġclass": 1470,
      "Ġinformation": 1471,
      "Ġfinally": 1472,
      "att": 1473,
      "Ġbrand": 1474,
      "Ġexam": 1475,
      "ouch": 1476,
      "lic": 1477,
      "Ġexce": 1478,
      "Ġcur": 1479,
      "Ġhours": 1480,
      "Ġfavor": 1481,
      "Ġupd": 1482,
      "Ġtech": 1483,
      "ensive": 1484,
      "Ġconst": 1485,
      "Ġpay": 1486,
      "Ġalong": 1487,
      "Ġsurpr": 1488,
      "Ġremo": 1489,
      "med": 1490,
      "ny": 1491,
      "ional": 1492,
      "Ġquest": 1493,
      "ank": 1494,
      "ific": 1495,
      "Ġpos": 1496,
      "Ġpull": 1497,
      "arr": 1498,
      "ross": 1499,
      "Ġcontin": 1500,
      "ird": 1501,
      "Ġunfort": 1502,
      "lish": 1503,
      "Ġhu": 1504,
      "Ġpair": 1505,
      "Ġred": 1506,
      "man": 1507,
      "Ġadv": 1508,
      "ired": 1509,
      "Ġclear": 1510,
      "Ġvo": 1511,
      "Ġpass": 1512,
      "Ġguess": 1513,
      "els": 1514,
      "osed": 1515,
      "Ġmid": 1516,
      "Ġexperience": 1517,
      "Ġgiven": 1518,
      "Ġass": 1519,
      "Ġlow": 1520,
      "ote": 1521,
      "Ġseemed": 1522,
      "Ġgoes": 1523,
      "Ġvide": 1524,
      "stem": 1525,
      "eric": 1526,
      "Ġlive": 1527,
      "ric": 1528,
      "Ġminutes": 1529,
      "Ġx": 1530,
      "Ġdep": 1531,
      "Ġgre": 1532,
      "Ġstore": 1533,
      "Ġband": 1534,
      "ew": 1535,
      "Ġheav": 1536,
      "Ġsystem": 1537,
      "ats": 1538,
      "Ġbreak": 1539,
      "Ġcop": 1540,
      "Ġspeak": 1541,
      "Ġbuying": 1542,
      "Ġsit": 1543,
      "ape": 1544,
      "Ġduring": 1545,
      "Ġlonger": 1546,
      "Ġpub": 1547,
      "Ġhot": 1548,
      "ume": 1549,
      "Ġsent": 1550,
      "Ġfriends": 1551,
      "Ġidea": 1552,
      "Ġstay": 1553,
      "Ġposs": 1554,
      "Ġchang": 1555,
      "reme": 1556,
      "Ġdist": 1557,
      "Ġfair": 1558,
      "Ġdirect": 1559,
      "Ġinstruct": 1560,
      "Ġlisten": 1561,
      "cc": 1562,
      "Ġentire": 1563,
      "Ġvie": 1564,
      "Ġago": 1565,
      "Ġbeautif": 1566,
      "Ġcompany": 1567,
      "fully": 1568,
      "ustr": 1569,
      "Ġvol": 1570,
      "Ġview": 1571,
      "Ġcreat": 1572,
      "Ġtrack": 1573,
      "Ġmean": 1574,
      "Ġrequ": 1575,
      "Ġfigure": 1576,
      "Ġyoung": 1577,
      "Ġtest": 1578,
      "Ġlater": 1579,
      "Ġtot": 1580,
      "Ġones": 1581,
      "Ġyes": 1582,
      "Ġpartic": 1583,
      "Ġoften": 1584,
      "Ġclose": 1585,
      "Ġexcell": 1586,
      "Ġfail": 1587,
      "Ġmove": 1588,
      "ams": 1589,
      "Ġmom": 1590,
      "mm": 1591,
      "cks": 1592,
      "cy": 1593,
      "itive": 1594,
      "Ġcd": 1595,
      "ted": 1596,
      "Ġfront": 1597,
      "Ġcomput": 1598,
      "board": 1599,
      "Ġexact": 1600,
      "ped": 1601,
      "Ġunfortunately": 1602,
      "Ġdevice": 1603,
      "Ġneeds": 1604,
      "Ġhighly": 1605,
      "ah": 1606,
      "Ġweek": 1607,
      "ices": 1608,
      "rible": 1609,
      "Ġlack": 1610,
      "Ġchange": 1611,
      "gan": 1612,
      "dd": 1613,
      "ract": 1614,
      "Ġdoing": 1615,
      "Ġair": 1616,
      "Ġtv": 1617,
      "Ġfast": 1618,
      "ply": 1619,
      "Ġsometimes": 1620,
      "Ġdro": 1621,
      "Ġlead": 1622,
      "ism": 1623,
      "Ġlevel": 1624,
      "Ġval": 1625,
      "Ġsetting": 1626,
      "Ġservice": 1627,
      "Ġmem": 1628,
      "Ġparts": 1629,
      "Ġexcellent": 1630,
      "Ġhistory": 1631,
      "side": 1632,
      "Ġextreme": 1633,
      "Ġloc": 1634,
      "Ġer": 1635,
      "iet": 1636,
      "que": 1637,
      "Ġrecord": 1638,
      "Ġmess": 1639,
      "Ġameric": 1640,
      "Ġcourse": 1641,
      "Ġdark": 1642,
      "Ġsimply": 1643,
      "Ġcho": 1644,
      "Ġtight": 1645,
      "aper": 1646,
      "iness": 1647,
      "Ġbeh": 1648,
      "Ġrelations": 1649,
      "Ġloo": 1650,
      "Ġimport": 1651,
      "aster": 1652,
      "ists": 1653,
      "Ġarri": 1654,
      "Ġdecided": 1655,
      "Ġsle": 1656,
      "Ġcheck": 1657,
      "Ġprevious": 1658,
      "Ġfour": 1659,
      "Ġcre": 1660,
      "Ġgri": 1661,
      "Ġvar": 1662,
      "way": 1663,
      "Ġrele": 1664,
      "Ġswe": 1665,
      "ell": 1666,
      "Ġtouch": 1667,
      "Ġpress": 1668,
      "Ġdv": 1669,
      "eng": 1670,
      "Ġmention": 1671,
      "just": 1672,
      "Ġmount": 1673,
      "Ġsad": 1674,
      "Ġpa": 1675,
      "Ġtype": 1676,
      "antly": 1677,
      "Ġwhite": 1678,
      "Ġstuff": 1679,
      "Ġwithin": 1680,
      "Ġnorm": 1681,
      "where": 1682,
      "Ġquickly": 1683,
      "Ġprint": 1684,
      "Ġrelationship": 1685,
      "Ġexpected": 1686,
      "Ġtold": 1687,
      "ences": 1688,
      "Ġfill": 1689,
      "Ġweeks": 1690,
      "Ġsign": 1691,
      "aged": 1692,
      "Ġaud": 1693,
      "Ġ%": 1694,
      "Ġopin": 1695,
      "Ġextra": 1696,
      "Ġshipp": 1697,
      "solute": 1698,
      "ities": 1699,
      "Ġhero": 1700,
      "Ġreplacement": 1701,
      "Ġkept": 1702,
      "iced": 1703,
      "Ġseen": 1704,
      "ient": 1705,
      "aughter": 1706,
      "Ġhear": 1707,
      "Ġcount": 1708,
      "Ġschool": 1709,
      "Ġey": 1710,
      "Ġspend": 1711,
      "Ġsongs": 1712,
      "Ġabsolute": 1713,
      "Ġchildren": 1714,
      "Ġmyster": 1715,
      "Ġsimple": 1716,
      "Ġdue": 1717,
      "Ġlost": 1718,
      "ution": 1719,
      "Ġpar": 1720,
      "band": 1721,
      "Ġamazing": 1722,
      "Ġexcept": 1723,
      "Ġvis": 1724,
      "Ġslow": 1725,
      "Ġbased": 1726,
      "Ġfood": 1727,
      "Ġwall": 1728,
      "po": 1729,
      "Ġkids": 1730,
      "Ġcomputer": 1731,
      "Ġve": 1732,
      "rect": 1733,
      "Ġbuild": 1734,
      "Ġprof": 1735,
      "Ġfa": 1736,
      "Ġtable": 1737,
      "Ġperform": 1738,
      "Ġenter": 1739,
      "Ġcomfortable": 1740,
      "Ġtra": 1741,
      "Ġstep": 1742,
      "king": 1743,
      "Ġcook": 1744,
      "Ġtext": 1745,
      "Ġwire": 1746,
      "Ġsat": 1747,
      "Ġwoman": 1748,
      "Ġmatter": 1749,
      "Ġplac": 1750,
      "Ġsus": 1751,
      "Ġeveryone": 1752,
      "Ġbus": 1753,
      "Ġang": 1754,
      "Ġcool": 1755,
      "uc": 1756,
      "ms": 1757,
      "Ġsense": 1758,
      "Ġupdate": 1759,
      "ilar": 1760,
      "Ġpol": 1761,
      "Ġwrite": 1762,
      "ooth": 1763,
      "Ġforward": 1764,
      "Ġprin": 1765,
      "Ġbor": 1766,
      "Ġrese": 1767,
      "br": 1768,
      "Ġdou": 1769,
      "Ġmach": 1770,
      "ho": 1771,
      "Ġsaw": 1772,
      "Ġvideo": 1773,
      "Ġcustomer": 1774,
      "Ġslight": 1775,
      "Ġcomplain": 1776,
      "Ġbeautiful": 1777,
      "Ġir": 1778,
      "Ġnon": 1779,
      "Ġheavy": 1780,
      "Ġfix": 1781,
      "cus": 1782,
      "amp": 1783,
      "Ġromance": 1784,
      "Ġweight": 1785,
      "Ġextremely": 1786,
      "Ġfavorite": 1787,
      "dle": 1788,
      "phone": 1789,
      "Ġswitch": 1790,
      "Ġmen": 1791,
      "ins": 1792,
      "Ġsays": 1793,
      "Ġbar": 1794,
      "Ġcharg": 1795,
      "light": 1796,
      "Ġcollect": 1797,
      "Ġcalled": 1798,
      "Ġwait": 1799,
      "Ġfeels": 1800,
      "Ġaction": 1801,
      "Ġsugg": 1802,
      "Ġsuggest": 1803,
      "Ġsend": 1804,
      "Ġself": 1805,
      "lling": 1806,
      "Ġpaper": 1807,
      "Ġserious": 1808,
      "irt": 1809,
      "Ġtit": 1810,
      "Ġclos": 1811,
      "Ġlooked": 1812,
      "Ġaddition": 1813,
      "Ġpresent": 1814,
      "Ġfant": 1815,
      "Ġending": 1816,
      "Ġthinking": 1817,
      "Ġshoes": 1818,
      "Ġdev": 1819,
      "tern": 1820,
      "ern": 1821,
      "Ġcharge": 1822,
      "Ġattach": 1823,
      "book": 1824,
      "Ġcopy": 1825,
      "Ġcable": 1826,
      "Ġbutton": 1827,
      "und": 1828,
      "Ġsoon": 1829,
      "empt": 1830,
      "Ġmot": 1831,
      "Ġhus": 1832,
      "Ġflo": 1833,
      "Ġadjust": 1834,
      "Ġinstructions": 1835,
      "Ġdaughter": 1836,
      "logy": 1837,
      "Ġnumber": 1838,
      "aging": 1839,
      "Ġthin": 1840,
      "iction": 1841,
      "uly": 1842,
      "Ġcontact": 1843,
      "Ġdi": 1844,
      "Ġbed": 1845,
      "Ġobvious": 1846,
      "Ġapart": 1847,
      "Ġhuge": 1848,
      "Ġsupposed": 1849,
      "Ġill": 1850,
      "Ġresult": 1851,
      "Ġdvd": 1852,
      "Ġeffect": 1853,
      "Ġpop": 1854,
      "Ġtalk": 1855,
      "Ġhappened": 1856,
      "Ġrub": 1857,
      "Ġuni": 1858,
      "ken": 1859,
      "Ġwords": 1860,
      "Ġplus": 1861,
      "fact": 1862,
      "Ġpieces": 1863,
      "Ġname": 1864,
      "Ġtoday": 1865,
      "sy": 1866,
      "my": 1867,
      "ane": 1868,
      "ined": 1869,
      "Ġproper": 1870,
      "Ġhusband": 1871,
      "ffe": 1872,
      "Ġdrive": 1873,
      "itting": 1874,
      "apt": 1875,
      "haps": 1876,
      "Ġwaste": 1877,
      "Ġtyp": 1878,
      "Ġwomen": 1879,
      "Ġprom": 1880,
      "Ġgirl": 1881,
      "ilt": 1882,
      "ror": 1883,
      "Ġimpress": 1884,
      "Ġimag": 1885,
      "Ġmic": 1886,
      "mber": 1887,
      "Ġcoming": 1888,
      "Ġabsolutely": 1889,
      "Ġperhaps": 1890,
      "ases": 1891,
      "Ġhands": 1892,
      "Ġmaj": 1893,
      "Ġscr": 1894,
      "Ġspr": 1895,
      "vert": 1896,
      "Ġleav": 1897,
      "Ġusually": 1898,
      "Ġmother": 1899,
      "Ġexactly": 1900,
      "Ġmetal": 1901,
      "istic": 1902,
      "ump": 1903,
      "Ġgif": 1904,
      "Ġallow": 1905,
      "Ġwonderful": 1906,
      "ains": 1907,
      "Ġnarr": 1908,
      "Ġchapter": 1909,
      "Ġstop": 1910,
      "Ġmodel": 1911,
      "Ġbeginning": 1912,
      "Ġpictures": 1913,
      "Ġcorrect": 1914,
      "wor": 1915,
      "Ġge": 1916,
      "Ġopinion": 1917,
      "Ġnote": 1918,
      "Ġtal": 1919,
      "Ġresearch": 1920,
      "Ġocc": 1921,
      "mb": 1922,
      "Ġmult": 1923,
      "Ġfut": 1924,
      "Ġleg": 1925,
      "rant": 1926,
      "Ġbecome": 1927,
      "Ġfeet": 1928,
      "Ġjack": 1929,
      "Ġcontrol": 1930,
      "Ġproducts": 1931,
      "Ġpersonal": 1932,
      "Ġwalk": 1933,
      "Ġsingle": 1934,
      "Ġgiving": 1935,
      "lt": 1936,
      "Ġrunning": 1937,
      "Ġtast": 1938,
      "Ġcoffe": 1939,
      "Ġmajor": 1940,
      "Ġamount": 1941,
      "Ġbul": 1942,
      "eless": 1943,
      "Ġappro": 1944,
      "Ġfoot": 1945,
      "Ġimportant": 1946,
      "Ġreplace": 1947,
      "Ġagainst": 1948,
      "Ġhandle": 1949,
      "rod": 1950,
      "Ġpract": 1951,
      "Ġinch": 1952,
      "Ġshows": 1953,
      "Ġoffer": 1954,
      "Ġmor": 1955,
      "asing": 1956,
      "Ġmine": 1957,
      "Ġprogr": 1958,
      "Ġwife": 1959,
      "Ġfre": 1960,
      "bed": 1961,
      "Ġgives": 1962,
      "Ġleave": 1963,
      "Ġprocess": 1964,
      "ident": 1965,
      "Ġrid": 1966,
      "Ġsimilar": 1967,
      "Ġtaking": 1968,
      "Ġface": 1969,
      "Ġmix": 1970,
      "Ġexplain": 1971,
      "Ġincluded": 1972,
      "Ġunless": 1973,
      "Ġboy": 1974,
      "Ġsort": 1975,
      "Ġfunction": 1976,
      "Ġturned": 1977,
      "Ġreaders": 1978,
      "Ġusb": 1979,
      "Ġsave": 1980,
      "Ġfocus": 1981,
      "Ġpost": 1982,
      "Ġemot": 1983,
      "ming": 1984,
      "ior": 1985,
      "oud": 1986,
      "Ġcoffee": 1987,
      "Ġavail": 1988,
      "Ġglass": 1989,
      "Ġtruly": 1990,
      "Ġdescription": 1991,
      "what": 1992,
      "Ġid": 1993,
      "Ġliter": 1994,
      "Ġphoto": 1995,
      "Ġsou": 1996,
      "net": 1997,
      "unch": 1998,
      "Ġpad": 1999,
      "rent": 2000,
      "Ġvolume": 2001,
      "ef": 2002,
      "Ġperfectly": 2003,
      "Ġattempt": 2004,
      "Ġfits": 2005,
      "Ġpock": 2006,
      "Ġpan": 2007,
      "Ġdraw": 2008,
      "Ġsolid": 2009,
      "Ġkill": 2010,
      "Ġarea": 2011,
      "Ġrefer": 2012,
      "Ġadm": 2013,
      "Ġmis": 2014,
      "Ġwin": 2015,
      "Ġguy": 2016,
      "aken": 2017,
      "ator": 2018,
      "Ġmachine": 2019,
      "medi": 2020,
      "Ġfive": 2021,
      "Ġmil": 2022,
      "Ġdecent": 2023,
      "Ġfuture": 2024,
      "Ġoutside": 2025,
      "Ġended": 2026,
      "Ġexpensive": 2027,
      "sel": 2028,
      "Ġarrived": 2029,
      "Ġspace": 2030,
      "Ġcertainly": 2031,
      "to": 2032,
      "Ġsuc": 2033,
      "play": 2034,
      "Ġdam": 2035,
      "Ġknew": 2036,
      "Ġmiddle": 2037,
      "Ġdisco": 2038,
      "Ġnor": 2039,
      "Ġrating": 2040,
      "uss": 2041,
      "ives": 2042,
      "Ġblue": 2043,
      "Ġluck": 2044,
      "aim": 2045,
      "Ġnet": 2046,
      "iny": 2047,
      "Ġword": 2048,
      "unk": 2049,
      "Ġplaying": 2050,
      "pping": 2051,
      "Ġtem": 2052,
      "Ġrock": 2053,
      "phones": 2054,
      "Ġwants": 2055,
      "ances": 2056,
      "ney": 2057,
      "Ġdead": 2058,
      "Ġbi": 2059,
      "ax": 2060,
      "Ġtrou": 2061,
      "Ġshipping": 2062,
      "ML": 2063,
      "XML": 2064,
      "par": 2065,
      "ister": 2066,
      "Ġthick": 2067,
      "land": 2068,
      "sw": 2069,
      "Ġmeans": 2070,
      "Ġexample": 2071,
      "Ġmanu": 2072,
      "Ġbusiness": 2073,
      "ried": 2074,
      "ese": 2075,
      "wise": 2076,
      "Ġdeli": 2077,
      "Ġgar": 2078,
      "Ġhuman": 2079,
      "Ġmr": 2080,
      "Ġimmedi": 2081,
      "ium": 2082,
      "Ġthird": 2083,
      "Ġfore": 2084,
      "ising": 2085,
      "Ġball": 2086,
      "Ġaff": 2087,
      "Ġmulti": 2088,
      "Ġfeat": 2089,
      "Ġcat": 2090,
      "Ġmanufact": 2091,
      "Ġlives": 2092,
      "ex": 2093,
      "Ġsoftware": 2094,
      "Ġdeep": 2095,
      "Ġfather": 2096,
      "Ġevent": 2097,
      "Ġheard": 2098,
      "Ġpen": 2099,
      "Ġtravel": 2100,
      "Ġcord": 2101,
      "Ġhar": 2102,
      "Ġentertain": 2103,
      "Ġbroke": 2104,
      "Ġyourself": 2105,
      "ann": 2106,
      "Ġsme": 2107,
      "Ġreme": 2108,
      "Ġavailable": 2109,
      "Ġfeature": 2110,
      "Ġhoping": 2111,
      "Ġimpro": 2112,
      "Ġflat": 2113,
      "Ġcal": 2114,
      "ptions": 2115,
      "Ġscenes": 2116,
      "Ġben": 2117,
      "graph": 2118,
      "Ġansw": 2119,
      "ges": 2120,
      "Ġshar": 2121,
      "Ġfrustr": 2122,
      "Ġstandard": 2123,
      "Ġbody": 2124,
      "Ġmystery": 2125,
      "ants": 2126,
      "Ġbatteries": 2127,
      "Ġcond": 2128,
      "Ġglad": 2129,
      "Ġbehind": 2130,
      "ips": 2131,
      "ien": 2132,
      "Ġdevelop": 2133,
      "atic": 2134,
      "arely": 2135,
      "ller": 2136,
      "Ġkeyboard": 2137,
      "Ġthroughout": 2138,
      "Ġparent": 2139,
      "Ġdesp": 2140,
      "Ġenc": 2141,
      "Ġsens": 2142,
      "Ġplease": 2143,
      "Ġbroken": 2144,
      "Ġkindle": 2145,
      "Ġlab": 2146,
      "Ġla": 2147,
      "Ġprogram": 2148,
      "ung": 2149,
      "ured": 2150,
      "Ġelect": 2151,
      "Ġsmaller": 2152,
      "Ġwarrant": 2153,
      "Ġplug": 2154,
      "Ġsil": 2155,
      "Ġanno": 2156,
      "Ġhook": 2157,
      "Ġloose": 2158,
      "Ġfeeling": 2159,
      "Ġannoying": 2160,
      "Ġage": 2161,
      "Ġlay": 2162,
      "Ġhang": 2163,
      "Ġheal": 2164,
      "Ġdeath": 2165,
      "lect": 2166,
      "ites": 2167,
      "Ġexch": 2168,
      "let": 2169,
      "Ġtotally": 2170,
      "Ġrad": 2171,
      "Ġmist": 2172,
      "Ġslightly": 2173,
      "Ġpurp": 2174,
      "Ġsumm": 2175,
      "Ġbright": 2176,
      "Ġtreat": 2177,
      "Ġmissing": 2178,
      "Ġspo": 2179,
      "selves": 2180,
      "Ġpaid": 2181,
      "Ġdoor": 2182,
      "ength": 2183,
      "Ġearly": 2184,
      "kes": 2185,
      "Ġremember": 2186,
      "Ġseller": 2187,
      "Ġactual": 2188,
      "Ġsounds": 2189,
      "Ġauthors": 2190,
      "Ġaccess": 2191,
      "Ġacross": 2192,
      "Ġdry": 2193,
      "Ġlength": 2194,
      "Ġcurrent": 2195,
      "ural": 2196,
      "Ġunc": 2197,
      "Ġstra": 2198,
      "umb": 2199,
      "Ġnoticed": 2200,
      "Ġpossible": 2201,
      "Ġdig": 2202,
      "Ġfab": 2203,
      "Ġspent": 2204,
      "owing": 2205,
      "Ġfur": 2206,
      "Ġotherwise": 2207,
      "Ġintrod": 2208,
      "Ġsitu": 2209,
      "Ġreturned": 2210,
      "ina": 2211,
      "Ġlots": 2212,
      "Ġamerican": 2213,
      "Ġinterested": 2214,
      "Ġsearch": 2215,
      "Ġwood": 2216,
      "itor": 2217,
      "ert": 2218,
      "ially": 2219,
      "Ġgrou": 2220,
      "Ġfire": 2221,
      "Ġlapt": 2222,
      "Ġequ": 2223,
      "Ġincluding": 2224,
      "Ġcaus": 2225,
      "load": 2226,
      "ibly": 2227,
      "Ġlarger": 2228,
      "lus": 2229,
      "Ġopp": 2230,
      "bb": 2231,
      "Ġspecial": 2232,
      "Ġsav": 2233,
      "Ġaudio": 2234,
      "Ġgift": 2235,
      "Ġhit": 2236,
      "ued": 2237,
      "Ġbecom": 2238,
      "Ġbab": 2239,
      "Ġonline": 2240,
      "Ġimmediately": 2241,
      "ield": 2242,
      "Ġthank": 2243,
      "Ġsubject": 2244,
      "Ġtitle": 2245,
      "oof": 2246,
      "Ġep": 2247,
      "Ġstraight": 2248,
      "ime": 2249,
      "Ġplayer": 2250,
      "Ġinvest": 2251,
      "face": 2252,
      "Ġjour": 2253,
      "like": 2254,
      "mas": 2255,
      "Ġfairly": 2256,
      "Ġpot": 2257,
      "Ġoh": 2258,
      "ler": 2259,
      "Ġpush": 2260,
      "Ġsmell": 2261,
      "Ġlock": 2262,
      "ination": 2263,
      "Ġneg": 2264,
      "Ġbase": 2265,
      "Ġhistor": 2266,
      "Ġturns": 2267,
      "Ġdoll": 2268,
      "pend": 2269,
      "Ġlim": 2270,
      "Ġflaw": 2271,
      "Ġant": 2272,
      "Ġconnection": 2273,
      "Ġanyway": 2274,
      "Ġvoice": 2275,
      "Ġgames": 2276,
      "Ġappre": 2277,
      "Ġsuccess": 2278,
      "Ġdre": 2279,
      "set": 2280,
      "Ġwash": 2281,
      "Ġputting": 2282,
      "Ġprofess": 2283,
      "Ġnear": 2284,
      "Ġsomewhat": 2285,
      "Ġresp": 2286,
      "Ġchance": 2287,
      "Ġvac": 2288,
      "Ġtaken": 2289,
      "Ġinvol": 2290,
      "Ġglo": 2291,
      "Ġsaying": 2292,
      "Ġshoe": 2293,
      "ential": 2294,
      "Ġnormal": 2295,
      "Ġdial": 2296,
      "Ġpackage": 2297,
      "zz": 2298,
      "Ġheadphones": 2299,
      "ond": 2300,
      "Ġliving": 2301,
      "ther": 2302,
      "Ġclearly": 2303,
      "Ġfeatures": 2304,
      "Ġeffort": 2305,
      "Ġprefer": 2306,
      "Ġwarranty": 2307,
      "Ġann": 2308,
      "Ġappreci": 2309,
      "ital": 2310,
      "Ġmostly": 2311,
      "Ġknown": 2312,
      "hn": 2313,
      "Ġexchange": 2314,
      "Ġbring": 2315,
      "Ġworst": 2316,
      "Ġburn": 2317,
      "Ġterrible": 2318,
      "Ġtechn": 2319,
      "esome": 2320,
      "Ġdespite": 2321,
      "Ġexcited": 2322,
      "Ġda": 2323,
      "Ġstrugg": 2324,
      "Ġokay": 2325,
      "Ġconfus": 2326,
      "Ġcu": 2327,
      "Ġmatch": 2328,
      "Ġstopped": 2329,
      "Ġfiction": 2330,
      "Ġuses": 2331,
      "ky": 2332,
      "Ġblo": 2333,
      "Ġstur": 2334,
      "Ġsweet": 2335,
      "Ġlaptop": 2336,
      "Ġconcept": 2337,
      "Ġtre": 2338,
      "Ġadvert": 2339,
      "Ġolder": 2340,
      "Ġabo": 2341,
      "Ġsleep": 2342,
      "Ġnotice": 2343,
      "Ġinstalled": 2344,
      "Ġalone": 2345,
      "Ġperio": 2346,
      "Ġwriter": 2347,
      "Ġuseful": 2348,
      "Ġled": 2349,
      "enty": 2350,
      "Ġstre": 2351,
      "Ġadult": 2352,
      "ularly": 2353,
      "Ġmouse": 2354,
      "Ġhappens": 2355,
      "Ġawesome": 2356,
      "Ġrecommended": 2357,
      "Ġra": 2358,
      "Ġcen": 2359,
      "Ġrubber": 2360,
      "Ġgone": 2361,
      "Ġsatis": 2362,
      "Ġlights": 2363,
      "Ġoper": 2364,
      "uth": 2365,
      "ison": 2366,
      "ether": 2367,
      "Ġfans": 2368,
      "Ġremove": 2369,
      "Ġfunny": 2370,
      "Ġcute": 2371,
      "Ġchristmas": 2372,
      "ability": 2373,
      "anger": 2374,
      "Ġcup": 2375,
      "Ġmoder": 2376,
      "Ġhimself": 2377,
      "ivid": 2378,
      "Ġcollection": 2379,
      "ples": 2380,
      "Ġquestions": 2381,
      "Ġspeed": 2382,
      "Ġscratch": 2383,
      "Ġbasically": 2384,
      "Ġclaim": 2385,
      "Ġabove": 2386,
      "Ġfight": 2387,
      "erg": 2388,
      "Ġstarts": 2389,
      "Ġflash": 2390,
      "Ġdetails": 2391,
      "Ġwarm": 2392,
      "Ġchapters": 2393,
      "Ġgrand": 2394,
      "Ġcir": 2395,
      "cial": 2396,
      "Ġupon": 2397,
      "Ġtrain": 2398,
      "Ġregard": 2399,
      "Ġwide": 2400,
      "Ġfing": 2401,
      "Ġpet": 2402,
      "Ġsal": 2403,
      "cum": 2404,
      "Ġlang": 2405,
      "Ġthemselves": 2406,
      "Ġsmooth": 2407,
      "Ġmanufactur": 2408,
      "gn": 2409,
      "Ġhate": 2410,
      "Ġlocal": 2411,
      "Ġblu": 2412,
      "Ġmarket": 2413,
      "Ġjohn": 2414,
      "back": 2415,
      "Ġtoward": 2416,
      "Ġloves": 2417,
      "oid": 2418,
      "Ġble": 2419,
      "rib": 2420,
      "Ġdifference": 2421,
      "Ġappear": 2422,
      "Ġasse": 2423,
      "Ġattention": 2424,
      "Ġpat": 2425,
      "lex": 2426,
      "Ġmac": 2427,
      "Ġboard": 2428,
      "Ġknows": 2429,
      "Ġhelpful": 2430,
      "Ġmov": 2431,
      "Ġremote": 2432,
      "Ġbasic": 2433,
      "Ġworse": 2434,
      "Ġregular": 2435,
      "Ġbuilt": 2436,
      "Ġsold": 2437,
      "Ġcomb": 2438,
      "Ġsepar": 2439,
      "ground": 2440,
      "Ġtown": 2441,
      "Ġmeet": 2442,
      "Ġwhe": 2443,
      "Ġstuck": 2444,
      "pad": 2445,
      "Ġsurprised": 2446,
      "Ġwhether": 2447,
      "ulous": 2448,
      "Ġkeeps": 2449,
      "oun": 2450,
      "Ġquestion": 2451,
      "Ġgreen": 2452,
      "Ġrequire": 2453,
      "orn": 2454,
      "ational": 2455,
      "ises": 2456,
      "Ġrange": 2457,
      "Ġnone": 2458,
      "Ġcolors": 2459,
      "Ġnearly": 2460,
      "Ġphotos": 2461,
      "Ġcrack": 2462,
      "vered": 2463,
      "ective": 2464,
      "Ġdress": 2465,
      "Ġfinished": 2466,
      "Ġsor": 2467,
      "Ġcart": 2468,
      "Ġweak": 2469,
      "Ġmovies": 2470,
      "Ġways": 2471,
      "Ġpoints": 2472,
      "Ġitems": 2473,
      "Ġedge": 2474,
      "Ġherself": 2475,
      "Ġcold": 2476,
      "Ġcent": 2477,
      "Ġends": 2478,
      "Ġcontain": 2479,
      "Ġlangu": 2480,
      "Ġincred": 2481,
      "ding": 2482,
      "Ġmentioned": 2483,
      "Ġloud": 2484,
      "Ġexpl": 2485,
      "Ġplayed": 2486,
      "Ġproperly": 2487,
      "apped": 2488,
      "Ġproject": 2489,
      "Ġcab": 2490,
      "lly": 2491,
      "ision": 2492,
      "Ġrich": 2493,
      "Ġdoub": 2494,
      "vable": 2495,
      "Ġapparent": 2496,
      "Ġlens": 2497,
      "Ġfell": 2498,
      "Ġeasier": 2499,
      "Ġpolit": 2500,
      "Ġparticular": 2501,
      "Ġaccept": 2502,
      "ws": 2503,
      "Ġcenter": 2504,
      "tend": 2505,
      "af": 2506,
      "lled": 2507,
      "rig": 2508,
      "Ġdem": 2509,
      "Ġlaugh": 2510,
      "Ġwatching": 2511,
      "Ġpositive": 2512,
      "ley": 2513,
      "Ġvalue": 2514,
      "Ġtrouble": 2515,
      "Ġwearing": 2516,
      "Ġcapt": 2517,
      "pper": 2518,
      "Ġsturdy": 2519,
      "Ġwindows": 2520,
      "Ġthri": 2521,
      "Ġbuttons": 2522,
      "Ġspir": 2523,
      "work": 2524,
      "Ġground": 2525,
      "Ġtaste": 2526,
      "Ġfurther": 2527,
      "Ġprovide": 2528,
      "Ġrefund": 2529,
      "Ġadded": 2530,
      "Ġvarious": 2531,
      "Ġgroup": 2532,
      "bers": 2533,
      "Ġfully": 2534,
      "Ġcult": 2535,
      "Ġsharp": 2536,
      "Ġboring": 2537,
      "Ġprovided": 2538,
      "Ġaccur": 2539,
      "ron": 2540,
      "Ġhur": 2541,
      "Ġess": 2542,
      "Ġguide": 2543,
      "Ġpocket": 2544,
      "Ġwebs": 2545,
      "Ġholes": 2546,
      "Ġbecame": 2547,
      "son": 2548,
      "ipes": 2549,
      "uced": 2550,
      "Ġgeneral": 2551,
      "Ġvi": 2552,
      "Ġdim": 2553,
      "Ġchanged": 2554,
      "Ġcompared": 2555,
      "ery": 2556,
      "Ġtoy": 2557,
      "Ġfamil": 2558,
      "ades": 2559,
      "Ġmicro": 2560,
      "Ġdisplay": 2561,
      "for": 2562,
      "Ġmultiple": 2563,
      "Ġsusp": 2564,
      "Ġseason": 2565,
      "ety": 2566,
      "cing": 2567,
      "Ġperiod": 2568,
      "Ġnat": 2569,
      "Ġpurpose": 2570,
      "asure": 2571,
      "Ġbey": 2572,
      "Ġult": 2573,
      "agon": 2574,
      "Ġemail": 2575,
      "Ġrepe": 2576,
      "Ġms": 2577,
      "Ġlog": 2578,
      "izing": 2579,
      "Ġadvent": 2580,
      "Ġhair": 2581,
      "Ġprinter": 2582,
      "Ġnoise": 2583,
      "Ġmoving": 2584,
      "Ġbrother": 2585,
      "Ġcharger": 2586,
      "Ġfem": 2587,
      "Ġiphone": 2588,
      "Ġtrust": 2589,
      "do": 2590,
      "Ġevents": 2591,
      "Ġrecently": 2592,
      "Ġscene": 2593,
      "he": 2594,
      "ored": 2595,
      "Ġparents": 2596,
      "Ġnecess": 2597,
      "Ġbaby": 2598,
      "Ġinit": 2599,
      "Ġorgan": 2600,
      "ries": 2601,
      "erm": 2602,
      "Ġleather": 2603,
      "Ġfilter": 2604,
      "room": 2605,
      "Ġlikely": 2606,
      "Ġdest": 2607,
      "Ġexpecting": 2608,
      "Ġtool": 2609,
      "iff": 2610,
      "ugged": 2611,
      "Ġseeing": 2612,
      "Ġopened": 2613,
      "Ġhorrible": 2614,
      "Ġje": 2615,
      "Ġconcern": 2616,
      "Ġfabric": 2617,
      "Ġring": 2618,
      "ishing": 2619,
      "Ġland": 2620,
      "Ġcarry": 2621,
      "use": 2622,
      "Ġdisappointing": 2623,
      "Ġdesigned": 2624,
      "Ġcommun": 2625,
      "Ġtend": 2626,
      "Ġattract": 2627,
      "Ġsand": 2628,
      "Ġbeyond": 2629,
      "Ġcast": 2630,
      "Ġopening": 2631,
      "Ġreviewers": 2632,
      "Ġnovels": 2633,
      "Ġchall": 2634,
      "Ġtwice": 2635,
      "Ġsun": 2636,
      "Ġappears": 2637,
      "azy": 2638,
      "Ġcountry": 2639,
      "Ġbother": 2640,
      "Ġcrit": 2641,
      "Ġobviously": 2642,
      "Ġbal": 2643,
      "Ġeyes": 2644,
      "Ġtrip": 2645,
      "Ġlanguage": 2646,
      "Ġuseless": 2647,
      "Ġbarely": 2648,
      "bing": 2649,
      "oss": 2650,
      "Ġfloor": 2651,
      "Ġlaw": 2652,
      "aught": 2653,
      "ze": 2654,
      "Ġdownload": 2655,
      "Ġsection": 2656,
      "Ġheat": 2657,
      "Ġanim": 2658,
      "Ġdepth": 2659,
      "more": 2660,
      "Ġhealth": 2661,
      "Ġcontinue": 2662,
      "uce": 2663,
      "Ġsam": 2664,
      "Ġarm": 2665,
      "Ġradio": 2666,
      "Ġrelease": 2667,
      "Ġreplaced": 2668,
      "Ġhigher": 2669,
      "bsp": 2670,
      "Ġplaces": 2671,
      "Ġbackground": 2672,
      "retch": 2673,
      "Ġchoice": 2674,
      "Ġreturning": 2675,
      "Ġaccount": 2676,
      "Ġload": 2677,
      "verage": 2678,
      "Ġstrap": 2679,
      "Ġconv": 2680,
      "Ġking": 2681,
      "Ġhumor": 2682,
      "Ġoption": 2683,
      "Ġhd": 2684,
      "Ġhistorical": 2685,
      "Ġtruth": 2686,
      "by": 2687,
      "Ġmodern": 2688,
      "Ġnbsp": 2689,
      "Ġver": 2690,
      "Ġunique": 2691,
      "Ġadap": 2692,
      "Ġanswer": 2693,
      "Ġimposs": 2694,
      "Ġsatisf": 2695,
      "Ġposition": 2696,
      "Ġfantastic": 2697,
      "Ġreach": 2698,
      "Ġdiscuss": 2699,
      "Ġwaiting": 2700,
      "Ġconstruct": 2701,
      "Ġlower": 2702,
      "Ġsides": 2703,
      "Ġdialog": 2704,
      "Ġmaster": 2705,
      "ned": 2706,
      "Ġframe": 2707,
      "Ġeventually": 2708,
      "Ġheld": 2709,
      "na": 2710,
      "Ġenglish": 2711,
      "Ġperformance": 2712,
      "Ġaspect": 2713,
      "Ġparticularly": 2714,
      "Ġcharging": 2715,
      "Ġprotector": 2716,
      "aly": 2717,
      "Ġru": 2718,
      "aring": 2719,
      "Ġrealize": 2720,
      "Ġhole": 2721,
      "Ġsour": 2722,
      "urch": 2723,
      "Ġcontent": 2724,
      "Ġfeed": 2725,
      "Ġdevelopment": 2726,
      "ians": 2727,
      "Ġtrad": 2728,
      "Ġsurv": 2729,
      "Ġcri": 2730,
      "Ġcred": 2731,
      "Ġsorry": 2732,
      "ension": 2733,
      "Ġideas": 2734,
      "Ġcovers": 2735,
      "ented": 2736,
      "Ġteen": 2737,
      "Ġdrink": 2738,
      "ury": 2739,
      "Ġleaves": 2740,
      "Ġimpossible": 2741,
      "Ġchristian": 2742,
      "Ġinsight": 2743,
      "Ġrate": 2744,
      "Ġstretch": 2745,
      "Ġcompl": 2746,
      "Ġavoid": 2747,
      "Ġguit": 2748,
      "arning": 2749,
      "ama": 2750,
      "Ġrecipes": 2751,
      "Ġhonestly": 2752,
      "Ġguys": 2753,
      "iding": 2754,
      "Ġremind": 2755,
      "Ġpurchasing": 2756,
      "Ġlate": 2757,
      "Ġfi": 2758,
      "Ġpu": 2759,
      "Ġlearned": 2760,
      "Ġplenty": 2761,
      "Ġlid": 2762,
      "Ġgraph": 2763,
      "Ġonto": 2764,
      "Ġcommon": 2765,
      "Ġprem": 2766,
      "Ġpoorly": 2767,
      "Ġbir": 2768,
      "izes": 2769,
      "Ġconstantly": 2770,
      "Ġoccas": 2771,
      "Ġwebsite": 2772,
      "Ġsmart": 2773,
      "con": 2774,
      "iar": 2775,
      "Ġwal": 2776,
      "ube": 2777,
      "Ġtwist": 2778,
      "Ġbatt": 2779,
      "itions": 2780,
      "Ġinsp": 2781,
      "Ġentertaining": 2782,
      "Ġcatch": 2783,
      "atever": 2784,
      "Ġtotal": 2785,
      "asy": 2786,
      "Ġready": 2787,
      "Ġfac": 2788,
      "lished": 2789,
      "Ġimagine": 2790,
      "Ġexist": 2791,
      "Ġfold": 2792,
      "Ġmanual": 2793,
      "Ġeye": 2794,
      "Ġwhatever": 2795,
      "Ġsix": 2796,
      "Ġsurface": 2797,
      "Ġnegative": 2798,
      "Ġstri": 2799,
      "Ġspeaker": 2800,
      "Ġbill": 2801,
      "gest": 2802,
      "Ġbottle": 2803,
      "Ġbecomes": 2804,
      "Ġintrig": 2805,
      "Ġphys": 2806,
      "mer": 2807,
      "Ġcy": 2808,
      "Ġfinding": 2809,
      "Ġattached": 2810,
      "Ġlines": 2811,
      "por": 2812,
      "Ġholds": 2813,
      "Ġtale": 2814,
      "Ġfault": 2815,
      "Ġfilled": 2816,
      "Ġskin": 2817,
      "Ġipad": 2818,
      "Ġseriously": 2819,
      "Ġpackaging": 2820,
      "Ġkeeping": 2821,
      "Ġresol": 2822,
      "Ġagree": 2823,
      "Ġsqu": 2824,
      "Ġenjoyable": 2825,
      "Ġgold": 2826,
      "Ġly": 2827,
      "Ġaverage": 2828,
      "pes": 2829,
      "Ġseat": 2830,
      "Ġconsidering": 2831,
      "asc": 2832,
      "ctions": 2833,
      "Ġtun": 2834,
      "Ġfinal": 2835,
      "Ġstarting": 2836,
      "Ġinde": 2837,
      "Ġlearning": 2838,
      "ma": 2839,
      "ledge": 2840,
      "put": 2841,
      "Ġcards": 2842,
      "Ġshel": 2843,
      "Ġobs": 2844,
      "Ġmat": 2845,
      "Ġten": 2846,
      "Ġunb": 2847,
      "cle": 2848,
      "Ġsister": 2849,
      "Ġclassic": 2850,
      "eth": 2851,
      "Ġident": 2852,
      "Ġtape": 2853,
      "ify": 2854,
      "Ġdan": 2855,
      "Ġroad": 2856,
      "Ġtiny": 2857,
      "acy": 2858,
      "aming": 2859,
      "Ġlad": 2860,
      "min": 2861,
      "Ġscrews": 2862,
      "body": 2863,
      "Ġhelps": 2864,
      "Ġimpressed": 2865,
      "ude": 2866,
      "Ġcases": 2867,
      "Ġflow": 2868,
      "Ġfailed": 2869,
      "Ġability": 2870,
      "Ġspoil": 2871,
      "Ġthanks": 2872,
      "Ġboots": 2873,
      "aft": 2874,
      "Ġunlike": 2875,
      "icated": 2876,
      "Ġcolle": 2877,
      "Ġchoo": 2878,
      "rors": 2879,
      "Ġpred": 2880,
      "right": 2881,
      "Ġdoubt": 2882,
      "Ġknife": 2883,
      "Ġrev": 2884,
      "Ġprovides": 2885,
      "Ġest": 2886,
      "Ġtalking": 2887,
      "Ġtablet": 2888,
      "Ġforg": 2889,
      "Ġwrote": 2890,
      "Ġconnected": 2891,
      "arily": 2892,
      "Ġlink": 2893,
      "Ġassemb": 2894,
      "Ġhy": 2895,
      "erc": 2896,
      "Ġdeg": 2897,
      "Ġwireless": 2898,
      "Ġinternet": 2899,
      "lier": 2900,
      "ray": 2901,
      "Ġgun": 2902,
      "Ġadvice": 2903,
      "Ġindivid": 2904,
      "ency": 2905,
      "Ġzipp": 2906,
      "rid": 2907,
      "Ġbigger": 2908,
      "Ġpros": 2909,
      "Ġkit": 2910,
      "Ġlif": 2911,
      "Ġstate": 2912,
      "Ġskill": 2913,
      "Ġpleased": 2914,
      "aching": 2915,
      "Ġcity": 2916,
      "Ġmessage": 2917,
      "Ġran": 2918,
      "Ġbeat": 2919,
      "Ġton": 2920,
      "Ġdate": 2921,
      "Ġsafe": 2922,
      "Ġlin": 2923,
      "Ġhun": 2924,
      "Ġjourney": 2925,
      "Ġfollowing": 2926,
      "Ġut": 2927,
      "head": 2928,
      "Ġmoment": 2929,
      "Ġfigured": 2930,
      "Ġshape": 2931,
      "Ġclick": 2932,
      "Ġimprove": 2933,
      "Ġpc": 2934,
      "Ġlos": 2935,
      "Ġsequ": 2936,
      "Ġmode": 2937,
      "Ġtells": 2938,
      "resh": 2939,
      "gress": 2940,
      "Ġscience": 2941,
      "pective": 2942,
      "Ġdesk": 2943,
      "Ġnicely": 2944,
      "Ġpill": 2945,
      "Ġcomment": 2946,
      "amed": 2947,
      "Ġtracks": 2948,
      "Ġapparently": 2949,
      "Ġcross": 2950,
      "cent": 2951,
      "Ġspirit": 2952,
      "Ġholding": 2953,
      "ners": 2954,
      "Ġedition": 2955,
      "Ġspot": 2956,
      "Ġdeveloped": 2957,
      "Ġtelling": 2958,
      "ero": 2959,
      "Ġintend": 2960,
      "erv": 2961,
      "Ġrelig": 2962,
      "Ġmill": 2963,
      "Ġsitting": 2964,
      "olog": 2965,
      "Ġpicked": 2966,
      "Ġminor": 2967,
      "Ġoil": 2968,
      "nal": 2969,
      "Ġgrow": 2970,
      "den": 2971,
      "ru": 2972,
      "Ġforget": 2973,
      "Ġcomplaint": 2974,
      "uring": 2975,
      "ified": 2976,
      "Ġunderstanding": 2977,
      "Ġnut": 2978,
      "itter": 2979,
      "Ġspeakers": 2980,
      "Ġguitar": 2981,
      "Ġresults": 2982,
      "Ġbow": 2983,
      "Ġillustr": 2984,
      "Ġliterally": 2985,
      "Ġfinds": 2986,
      "Ġdescribed": 2987,
      "Ġrand": 2988,
      "Ġfly": 2989,
      "rench": 2990,
      "Ġsummer": 2991,
      "ata": 2992,
      "iculous": 2993,
      "ipe": 2994,
      "Ġmedium": 2995,
      "Ġshare": 2996,
      "Ġaccom": 2997,
      "Ġpsy": 2998,
      "Ġrain": 2999,
      "sh": 3000,
      "Ġdisappointment": 3001,
      "aker": 3002,
      "Ġfrequ": 3003,
      "Ġthread": 3004,
      "Ġlistening": 3005,
      "Ġbike": 3006,
      "ering": 3007,
      "Ġeat": 3008,
      "Ġsuspense": 3009,
      "Ġknowledge": 3010,
      "Ġdaily": 3011,
      "Ġasked": 3012,
      "ask": 3013,
      "Ġroll": 3014,
      "Ġmeant": 3015,
      "Ġkitch": 3016,
      "Ġfaith": 3017,
      "Ġodd": 3018,
      "uing": 3019,
      "Ġcrazy": 3020,
      "ged": 3021,
      "Ġphil": 3022,
      "Ġchair": 3023,
      "anced": 3024,
      "Ġsituation": 3025,
      "Ġpsych": 3026,
      "Ġthor": 3027,
      "Ġseal": 3028,
      "Ġlose": 3029,
      "Ġmorning": 3030,
      "uction": 3031,
      "Ġfemale": 3032,
      "Ġemp": 3033,
      "Ġmemory": 3034,
      "row": 3035,
      "Ġsecure": 3036,
      "Ġgotten": 3037,
      "Ġviol": 3038,
      "Ġbluet": 3039,
      "Ġreve": 3040,
      "Ġcreate": 3041,
      "ik": 3042,
      "Ġmanufacturer": 3043,
      "Ġfirm": 3044,
      "Ġuns": 3045,
      "Ġdrop": 3046,
      "Ġcloth": 3047,
      "Ġthrow": 3048,
      "Ġpressure": 3049,
      "Ġbluetooth": 3050,
      "Ġleaving": 3051,
      "Ġslee": 3052,
      "Ġbrought": 3053,
      "Ġcoun": 3054,
      "Ġboot": 3055,
      "Ġupgr": 3056,
      "Ġkitchen": 3057,
      "Ġpublic": 3058,
      "Ġinclude": 3059,
      "ionally": 3060,
      "Ġaltern": 3061,
      "Ġmax": 3062,
      "Ġshut": 3063,
      "uum": 3064,
      "Ġdogs": 3065,
      "Ġshock": 3066,
      "Ġultim": 3067,
      "Ġsets": 3068,
      "Ġbass": 3069,
      "Ġfantasy": 3070,
      "Ġcheaper": 3071,
      "how": 3072,
      "Ġround": 3073,
      "these": 3074,
      "Ġwanting": 3075,
      "Ġoffice": 3076,
      "Ġexplo": 3077,
      "Ġlibr": 3078,
      "etic": 3079,
      "Ġowned": 3080,
      "Ġsex": 3081,
      "Ġmad": 3082,
      "chan": 3083,
      "Ġprev": 3084,
      "Ġearth": 3085,
      "Ġship": 3086,
      "Ġadapter": 3087,
      "uit": 3088,
      "Ġclip": 3089,
      "ogn": 3090,
      "Ġinvolved": 3091,
      "ization": 3092,
      "Ġdust": 3093,
      "Ġrecogn": 3094,
      "Ġmoments": 3095,
      "Ġblade": 3096,
      "Ġask": 3097,
      "Ġshoot": 3098,
      "Ġweb": 3099,
      "Ġdocum": 3100,
      "Ġdeb": 3101,
      "Ġprep": 3102,
      "ivity": 3103,
      "Ġshirt": 3104,
      "Ġsoci": 3105,
      "Ġshot": 3106,
      "Ġchanges": 3107,
      "Ġvoc": 3108,
      "Ġpubl": 3109,
      "Ġappreciate": 3110,
      "Ġvacuum": 3111,
      "Ġpac": 3112,
      "Ġbrown": 3113,
      "Ġfalls": 3114,
      "Ġmeaning": 3115,
      "Ġunf": 3116,
      "Ġsecret": 3117,
      "Ġfresh": 3118,
      "ey": 3119,
      "Ġcovered": 3120,
      "Ġsettings": 3121,
      "ec": 3122,
      "Ġgirls": 3123,
      "box": 3124,
      "Ġminute": 3125,
      "lli": 3126,
      "Ġink": 3127,
      "Ġdevices": 3128,
      "Ġhelped": 3129,
      "Ġpatter": 3130,
      "Ġleak": 3131,
      "Ġdanger": 3132,
      "Ġreasons": 3133,
      "Ġpersonally": 3134,
      "Ġrealized": 3135,
      "ony": 3136,
      "Ġmir": 3137,
      "Ġforce": 3138,
      "Ġbegan": 3139,
      "Ġexperien": 3140,
      "Ġdiv": 3141,
      "Ġadvertised": 3142,
      "Ġrou": 3143,
      "Ġrepair": 3144,
      "Ġlabel": 3145,
      "Ġneck": 3146,
      "Ġpotential": 3147,
      "Ġprotection": 3148,
      "Ġimage": 3149,
      "Ġstrange": 3150,
      "Ġseconds": 3151,
      "Ġaware": 3152,
      "Ġmagic": 3153,
      "Ġinfl": 3154,
      "Ġfasc": 3155,
      "lla": 3156,
      "Ġturning": 3157,
      "Ġstates": 3158,
      "Ġdied": 3159,
      "Ġbiggest": 3160,
      "ton": 3161,
      "Ġintell": 3162,
      "Ġvia": 3163,
      "Ġanymore": 3164,
      "Ġstat": 3165,
      "Ġcontacted": 3166,
      "Ġmechan": 3167,
      "Ġheroine": 3168,
      "Ġnormally": 3169,
      "iring": 3170,
      "Ġearlier": 3171,
      "Ġweird": 3172,
      "Ġtar": 3173,
      "Ġreceive": 3174,
      "Ġdeser": 3175,
      "Ġtemper": 3176,
      "Ġprofessional": 3177,
      "Ġcomplex": 3178,
      "Ġapproach": 3179,
      "Ġabs": 3180,
      "Ġbelt": 3181,
      "Ġconsist": 3182,
      "rit": 3183,
      "Ġridiculous": 3184,
      "Ġindividual": 3185,
      "Ġstren": 3186,
      "Ġjud": 3187,
      "ager": 3188,
      "Ġruns": 3189,
      "Ġinches": 3190,
      "Ġrequired": 3191,
      "Ġdialogue": 3192,
      "oc": 3193,
      "Ġgenre": 3194,
      "Ġlasted": 3195,
      "ental": 3196,
      "Ġcareful": 3197,
      "ening": 3198,
      "Ġchurch": 3199,
      "Ġspl": 3200,
      "Ġstock": 3201,
      "Ġaccurate": 3202,
      "ology": 3203,
      "iso": 3204,
      "Ġign": 3205,
      "ished": 3206,
      "Ġdefective": 3207,
      "Ġdurable": 3208,
      "Ġmotor": 3209,
      "Ġdel": 3210,
      "graphy": 3211,
      "Ġadmit": 3212,
      "Ġvict": 3213,
      "Ġparty": 3214,
      "Ġcollege": 3215,
      "Ġtim": 3216,
      "Ġdish": 3217,
      "Ġstoryline": 3218,
      "Ġevil": 3219,
      "Ġdepend": 3220,
      "Ġrough": 3221,
      "Ġbible": 3222,
      "Ġmatt": 3223,
      "Ġfalling": 3224,
      "Ġdouble": 3225,
      "ffer": 3226,
      "Ġdirectly": 3227,
      "Ġpaint": 3228,
      "Ġerrors": 3229,
      "Ġpowerful": 3230,
      "gth": 3231,
      "Ġfeelings": 3232,
      "rew": 3233,
      "Ġfamiliar": 3234,
      "Ġesc": 3235,
      "Ġtab": 3236,
      "Ġcleaning": 3237,
      "Ġmoved": 3238,
      "Ġtea": 3239,
      "Ġawful": 3240,
      "Ġstrength": 3241,
      "Ġspecific": 3242,
      "Ġaddress": 3243,
      "Ġteach": 3244,
      "ibility": 3245,
      "Ġps": 3246,
      "Ġmur": 3247,
      "Ġmail": 3248,
      "Ġconclus": 3249,
      "Ġdy": 3250,
      "Ġdropped": 3251,
      "Ġmich": 3252,
      "Ġuser": 3253,
      "Ġmonitor": 3254,
      "Ġplugged": 3255,
      "Ġthorough": 3256,
      "Ġwindow": 3257,
      "pod": 3258,
      "Ġapple": 3259,
      "Ġsurprise": 3260,
      "Ġblood": 3261,
      "Ġsolution": 3262,
      "Ġarch": 3263,
      "ened": 3264,
      "awn": 3265,
      "Ġfrustrating": 3266,
      "inating": 3267,
      "Ġprim": 3268,
      "Ġride": 3269,
      "Ġtowards": 3270,
      "Ġexerc": 3271,
      "Ġchem": 3272,
      "Ġsetup": 3273,
      "ock": 3274,
      "omfort": 3275,
      "Ġtypical": 3276,
      "Ġjunk": 3277,
      "Ġrespect": 3278,
      "tle": 3279,
      "Ġengine": 3280,
      "ppy": 3281,
      "Ġterms": 3282,
      "Ġepiso": 3283,
      "Ġdiscount": 3284,
      "Ġtom": 3285,
      "Ġflim": 3286,
      "Ġremain": 3287,
      "itted": 3288,
      "Ġsignific": 3289,
      "dden": 3290,
      "idence": 3291,
      "hood": 3292,
      "Ġsams": 3293,
      "Ġwilling": 3294,
      "Ġwalking": 3295,
      "Ġpath": 3296,
      "Ġhopefully": 3297,
      "Ġlibrary": 3298,
      "Ġsite": 3299,
      "Ġcreated": 3300,
      "Ġtough": 3301,
      "orge": 3302,
      "Ġquiet": 3303,
      "Ġdie": 3304,
      "Ġoptions": 3305,
      "port": 3306,
      "Ġdav": 3307,
      "Ġsteel": 3308,
      "Ġdigital": 3309,
      "iences": 3310,
      "Ġbuilding": 3311,
      "ateg": 3312,
      "Ġhom": 3313,
      "Ġlat": 3314,
      "Ġcompar": 3315,
      "Ġrandom": 3316,
      "Ġapplic": 3317,
      "antic": 3318,
      "Ġstor": 3319,
      "aces": 3320,
      "Ġice": 3321,
      "Ġrob": 3322,
      "Ġkick": 3323,
      "iety": 3324,
      "Ġallows": 3325,
      "com": 3326,
      "Ġdrag": 3327,
      "come": 3328,
      "Ġunre": 3329,
      "Ġreviewer": 3330,
      "ghter": 3331,
      "Ġthoughts": 3332,
      "Ġsudden": 3333,
      "Ġdata": 3334,
      "Ġnature": 3335,
      "Ġfrank": 3336,
      "een": 3337,
      "Ġrecording": 3338,
      "Ġmistake": 3339,
      "Ġtow": 3340,
      "Ġextend": 3341,
      "Ġknowing": 3342,
      "Ġbelow": 3343,
      "Ġincre": 3344,
      "Ġprior": 3345,
      "ered": 3346,
      "Ġperspective": 3347,
      "Ġpin": 3348,
      "Ġimm": 3349,
      "Ġnecessary": 3350,
      "Ġreality": 3351,
      "Ġmale": 3352,
      "Ġteam": 3353,
      "Ġdirections": 3354,
      "Ġindic": 3355,
      "Ġrouter": 3356,
      "Ġfol": 3357,
      "Ġedges": 3358,
      "Ġund": 3359,
      "ading": 3360,
      "Ġther": 3361,
      "Ġtechno": 3362,
      "form": 3363,
      "Ġchina": 3364,
      "Ġremoved": 3365,
      "Ġsuit": 3366,
      "Ġstated": 3367,
      "Ġplaced": 3368,
      "Ġpredict": 3369,
      "Ġworn": 3370,
      "wood": 3371,
      "Ġcell": 3372,
      "Ġlimited": 3373,
      "iving": 3374,
      "Ġadditional": 3375,
      "Ġtools": 3376,
      "Ġsubst": 3377,
      "mi": 3378,
      "Ġgrab": 3379,
      "Ġshame": 3380,
      "Ġflimsy": 3381,
      "Ġamerica": 3382,
      "Ġusual": 3383,
      "verse": 3384,
      "ging": 3385,
      "ients": 3386,
      "Ġamong": 3387,
      "Ġbirth": 3388,
      "ee": 3389,
      "Ġdeterm": 3390,
      "used": 3391,
      "irst": 3392,
      "Ġcaught": 3393,
      "Ġsocial": 3394,
      "Ġareas": 3395,
      "Ġwrites": 3396,
      "Ġarg": 3397,
      "ball": 3398,
      "Ġbrush": 3399,
      "Ġdu": 3400,
      "Ġpattern": 3401,
      "Ġmm": 3402,
      "Ġeduc": 3403,
      "Ġnews": 3404,
      "Ġsouth": 3405,
      "Ġexamples": 3406,
      "Ġreference": 3407,
      "Ġloss": 3408,
      "Ġspray": 3409,
      "Ġadventure": 3410,
      "Ġslide": 3411,
      "Ġbreat": 3412,
      "Ġassum": 3413,
      "pri": 3414,
      "Ġsamsung": 3415,
      "Ġris": 3416,
      "Ġlu": 3417,
      "Ġeffective": 3418,
      "Ġce": 3419,
      "Ġpractice": 3420,
      "Ġrelative": 3421,
      "Ġforced": 3422,
      "Ġexplan": 3423,
      "Ġpublished": 3424,
      "Ġjum": 3425,
      "Ġdescriptions": 3426,
      "Ġenv": 3427,
      "Ġbags": 3428,
      "val": 3429,
      "Ġmetho": 3430,
      "agr": 3431,
      "Ġaccident": 3432,
      "Ġconvers": 3433,
      "Ġstudy": 3434,
      "Ġoffers": 3435,
      "ipped": 3436,
      "Ġchoose": 3437,
      "Ġreleased": 3438,
      "Ġcartrid": 3439,
      "Ġpulled": 3440,
      "Ġgrip": 3441,
      "Ġwheel": 3442,
      "Ġdamage": 3443,
      "Ġjew": 3444,
      "Ġkeys": 3445,
      "Ġthus": 3446,
      "while": 3447,
      "Ġreport": 3448,
      "onse": 3449,
      "Ġiron": 3450,
      "Ġnatural": 3451,
      "Ġbattle": 3452,
      "Ġformat": 3453,
      "Ġrespons": 3454,
      "Ġlegs": 3455,
      "Ġmer": 3456,
      "Ġreads": 3457,
      "Ġing": 3458,
      "Ġfollowed": 3459,
      "Ġcand": 3460,
      "Ġdetailed": 3461,
      "Ġincredibly": 3462,
      "Ġemotional": 3463,
      "Ġwild": 3464,
      "Ġtrick": 3465,
      "Ġpump": 3466,
      "Ġtradition": 3467,
      "isher": 3468,
      "Ġprogress": 3469,
      "Ġstraps": 3470,
      "Ġbunch": 3471,
      "Ġinstallation": 3472,
      "Ġanywhere": 3473,
      "Ġintended": 3474,
      "Ġjes": 3475,
      "Ġpants": 3476,
      "Ġsuffer": 3477,
      "Ġgoo": 3478,
      "omb": 3479,
      "Ġcondition": 3480,
      "Ġshowing": 3481,
      "Ġforever": 3482,
      "Ġminim": 3483,
      "Ġtries": 3484,
      "Ġsomehow": 3485,
      "Ġmc": 3486,
      "Ġfield": 3487,
      "Ġpolitical": 3488,
      "Ġchann": 3489,
      "Ġmoves": 3490,
      "well": 3491,
      "Ġden": 3492,
      "Ġlikes": 3493,
      "Ġpark": 3494,
      "Ġfort": 3495,
      "Ġincludes": 3496,
      "nam": 3497,
      "Ġju": 3498,
      "Ġsony": 3499,
      "Ġresponse": 3500,
      "Ġchalleng": 3501,
      "Ġexpectations": 3502,
      "ining": 3503,
      "fl": 3504,
      "ike": 3505,
      "Ġtransl": 3506,
      "Ġcalls": 3507,
      "Ġpow": 3508,
      "Ġcamp": 3509,
      "Ġsignal": 3510,
      "Ġaffect": 3511,
      "Ġshown": 3512,
      "Ġcounter": 3513,
      "Ġgrind": 3514,
      "Ġbum": 3515,
      "Ġseparate": 3516,
      "gs": 3517,
      "Ġrole": 3518,
      "Ġneither": 3519,
      "Ġcats": 3520,
      "Ġcry": 3521,
      "Ġreveal": 3522,
      "irty": 3523,
      "Ġspring": 3524,
      "Ġexperienced": 3525,
      "Ġexpress": 3526,
      "rum": 3527,
      "Ġsuspect": 3528,
      "Ġbur": 3529,
      "Ġvamp": 3530,
      "Ġmini": 3531,
      "Ġfinger": 3532,
      "ifi": 3533,
      "Ġbrilli": 3534,
      "Ġtwists": 3535,
      "Ġvill": 3536,
      "Ġselect": 3537,
      "Ġcompe": 3538,
      "gar": 3539,
      "Ġuncomfort": 3540,
      "Ġplays": 3541,
      "Ġmarri": 3542,
      "Ġerror": 3543,
      "Ġfear": 3544,
      "Ġhurt": 3545,
      "Ġclosed": 3546,
      "Ġpossibly": 3547,
      "Ġopt": 3548,
      "Ġrecei": 3549,
      "Ġdirection": 3550,
      "Ġapply": 3551,
      "Ġsized": 3552,
      "Ġnotes": 3553,
      "Ġshipped": 3554,
      "Ġbio": 3555,
      "Ġbuck": 3556,
      "Ġauto": 3557,
      "pond": 3558,
      "Ġdollars": 3559,
      "Ġbegins": 3560,
      "ork": 3561,
      "Ġbenef": 3562,
      "Ġscri": 3563,
      "Ġstain": 3564,
      "Ġacting": 3565,
      "uro": 3566,
      "Ġbud": 3567,
      "Ġhes": 3568,
      "Ġclim": 3569,
      "Ġsadly": 3570,
      "Ġordering": 3571,
      "Ġzero": 3572,
      "Ġheadset": 3573,
      "Ġflavor": 3574,
      "Ġmeets": 3575,
      "Ġbehav": 3576,
      "first": 3577,
      "Ġconstruction": 3578,
      "Ġpremise": 3579,
      "old": 3580,
      "sc": 3581,
      "Ġblock": 3582,
      "Ġmass": 3583,
      "Ġshif": 3584,
      "Ġgenerally": 3585,
      "ii": 3586,
      "Ġcorrectly": 3587,
      "Ġsociety": 3588,
      "Ġach": 3589,
      "Ġcontr": 3590,
      "ipping": 3591,
      "Ġbon": 3592,
      "ring": 3593,
      "Ġconven": 3594,
      "Ġexperiences": 3595,
      "Ġbrief": 3596,
      "Ġwaist": 3597,
      "Ġtur": 3598,
      "Ġaside": 3599,
      "Ġshop": 3600,
      "Ġalbums": 3601,
      "Ġnav": 3602,
      "Ġsurprising": 3603,
      "action": 3604,
      "Ġtall": 3605,
      "Ġaccord": 3606,
      "Ġpleas": 3607,
      "Ġsuppose": 3608,
      "itary": 3609,
      "Ġcode": 3610,
      "bert": 3611,
      "pet": 3612,
      "cer": 3613,
      "Ġbrings": 3614,
      "Ġculture": 3615,
      "Ġdrama": 3616,
      "Ġautom": 3617,
      "Ġobject": 3618,
      "Ġhardware": 3619,
      "Ġwed": 3620,
      "acher": 3621,
      "Ġtank": 3622,
      "Ġcredit": 3623,
      "Ġchanging": 3624,
      "Ġwet": 3625,
      "Ġconfusing": 3626,
      "Ġstorage": 3627,
      "Ġbath": 3628,
      "Ġears": 3629,
      "Ġelements": 3630,
      "Ġcables": 3631,
      "col": 3632,
      "after": 3633,
      "Ġahead": 3634,
      "Ġwhose": 3635,
      "Ġnd": 3636,
      "pack": 3637,
      "Ġhorror": 3638,
      "Ġdiscovered": 3639,
      "Ġbend": 3640,
      "Ġhose": 3641,
      "Ġoffered": 3642,
      "Ġconvin": 3643,
      "Ġlisted": 3644,
      "Ġsmo": 3645,
      "iment": 3646,
      "Ġcareer": 3647,
      "Ġcompet": 3648,
      "illy": 3649,
      "weight": 3650,
      "Ġclock": 3651,
      "Ġstudents": 3652,
      "Ġresist": 3653,
      "Ġcompan": 3654,
      "Ġmissed": 3655,
      "Ġray": 3656,
      "Ġwinter": 3657,
      "Ġtips": 3658,
      "eper": 3659,
      "Ġnarrative": 3660,
      "Ġconsum": 3661,
      "des": 3662,
      "Ġvampire": 3663,
      "Ġcharged": 3664,
      "Ġreli": 3665,
      "Ġangle": 3666,
      "Ġmeasure": 3667,
      "Ġsyn": 3668,
      "Ġreflect": 3669,
      "Ġrelationships": 3670,
      "ses": 3671,
      "ael": 3672,
      "Ġdoct": 3673,
      "Ġcas": 3674,
      "icle": 3675,
      "Ġsource": 3676,
      "amm": 3677,
      "Ġdream": 3678,
      "Ġplain": 3679,
      "Ġcraft": 3680,
      "Ġdamaged": 3681,
      "bage": 3682,
      "Ġcentury": 3683,
      "Ġuncomfortable": 3684,
      "ously": 3685,
      "Ġdon": 3686,
      "Ġediting": 3687,
      "Ġfascinating": 3688,
      "go": 3689,
      "Ġfixed": 3690,
      "Ġdrawn": 3691,
      "Ġscript": 3692,
      "Ġtherefore": 3693,
      "Ġbrit": 3694,
      "Ġappeal": 3695,
      "Ġfacts": 3696,
      "Ġspin": 3697,
      "Ġtypes": 3698,
      "Ġcutting": 3699,
      "Ġgover": 3700,
      "Ġcontains": 3701,
      "Ġvariety": 3702,
      "Ġdecide": 3703,
      "esh": 3704,
      "artment": 3705,
      "Ġhopes": 3706,
      "gle": 3707,
      "Ġpound": 3708,
      "Ġoriginally": 3709,
      "Ġweather": 3710,
      "Ġhund": 3711,
      "Ġentirely": 3712,
      "Ġnames": 3713,
      "Ġhundred": 3714,
      "unt": 3715,
      "Ġrealistic": 3716,
      "Ġunus": 3717,
      "mp": 3718,
      "otes": 3719,
      "Ġmarriage": 3720,
      "Ġboys": 3721,
      "others": 3722,
      "Ġexciting": 3723,
      "Ġpal": 3724,
      "Ġrush": 3725,
      "Ġsatisfied": 3726,
      "Ġelectron": 3727,
      "Ġlbs": 3728,
      "Ġinvestig": 3729,
      "Ġmart": 3730,
      "elie": 3731,
      "when": 3732,
      "orter": 3733,
      "Ġvideos": 3734,
      "Ġsomewhere": 3735,
      "Ġinex": 3736,
      "Ġdestro": 3737,
      "Ġconclusion": 3738,
      "eter": 3739,
      "Ġlyr": 3740,
      "Ġprec": 3741,
      "Ġfoam": 3742,
      "Ġdad": 3743,
      "Ġinfo": 3744,
      "Ġfu": 3745,
      "Ġprotagon": 3746,
      "Ġdiscover": 3747,
      "Ġtraining": 3748,
      "Ġlived": 3749,
      "Ġencoun": 3750,
      "over": 3751,
      "Ġcaused": 3752,
      "Ġmilitary": 3753,
      "Ġforth": 3754,
      "Ġpopular": 3755,
      "Ġjames": 3756,
      "arm": 3757,
      "eds": 3758,
      "Ġtone": 3759,
      "ortun": 3760,
      "Ġproduction": 3761,
      "Ġwarning": 3762,
      "Ġscient": 3763,
      "ilities": 3764,
      "Ġmedia": 3765,
      "Ġchose": 3766,
      "Ġdom": 3767,
      "Ġsoul": 3768,
      "Ġproof": 3769,
      "Ġphones": 3770,
      "Ġstere": 3771,
      "Ġpink": 3772,
      "Ġattack": 3773,
      "Ġtip": 3774,
      "Ġsnow": 3775,
      "Ġjoy": 3776,
      "Ġimages": 3777,
      "Ġpresented": 3778,
      "Ġactiv": 3779,
      "Ġgarbage": 3780,
      "Ġclub": 3781,
      "Ġalex": 3782,
      "Ġoccur": 3783,
      "Ġindeed": 3784,
      "Ġvel": 3785,
      "los": 3786,
      "Ġbucks": 3787,
      "round": 3788,
      "Ġtrash": 3789,
      "Ġopportun": 3790,
      "Ġsexy": 3791,
      "Ġrepet": 3792,
      "iron": 3793,
      "ival": 3794,
      "Ġromantic": 3795,
      "outh": 3796,
      "Ġsituations": 3797,
      "Ġsport": 3798,
      "Ġwashing": 3799,
      "Ġknock": 3800,
      "Ġintellig": 3801,
      "ica": 3802,
      "Ġzipper": 3803,
      "URL": 3804,
      "Ġrequires": 3805,
      "ergy": 3806,
      "bit": 3807,
      "Ġrecent": 3808,
      "Ġwid": 3809,
      "Ġshowed": 3810,
      "Ġgal": 3811,
      "Ġflex": 3812,
      "Ġdisp": 3813,
      "Ġsteps": 3814,
      "Ġelsewhere": 3815,
      "ingly": 3816,
      "Ġpure": 3817,
      "Ġsuff": 3818,
      "Ġglue": 3819,
      "Ġbra": 3820,
      "ral": 3821,
      "Ġbelievable": 3822,
      "Ġmixed": 3823,
      "Ġtrail": 3824,
      "urity": 3825,
      "Ġdut": 3826,
      "Ġjap": 3827,
      "Ġpockets": 3828,
      "Ġintroduction": 3829,
      "raid": 3830,
      "ros": 3831,
      "Ġjesus": 3832,
      "Ġsurround": 3833,
      "Ġstitch": 3834,
      "Ġgovern": 3835,
      "Ġbes": 3836,
      "Ġrot": 3837,
      "Ġtheme": 3838,
      "Ġconcerned": 3839,
      "Ġslowly": 3840,
      "Ġjapan": 3841,
      "Ġcirc": 3842,
      "Ġworkout": 3843,
      "Ġsizes": 3844,
      "une": 3845,
      "Ġcorner": 3846,
      "Ġbreaking": 3847,
      "Ġslip": 3848,
      "Ġhooked": 3849,
      "Ġimpact": 3850,
      "Ġmel": 3851,
      "Ġingred": 3852,
      "Ġnetwork": 3853,
      "iters": 3854,
      "rying": 3855,
      "Ġpreviously": 3856,
      "Ġafraid": 3857,
      "Ġinitially": 3858,
      "Ġdiss": 3859,
      "Ġdavid": 3860,
      "Ġfilms": 3861,
      "Ġgrad": 3862,
      "Ġcooking": 3863,
      "Ġultimately": 3864,
      "Ġneigh": 3865,
      "Ġconstant": 3866,
      "Ġtechni": 3867,
      "Ġkilled": 3868,
      "Ġstudent": 3869,
      "Ġfash": 3870,
      "Ġneighb": 3871,
      "Ġdocument": 3872,
      "Ġheight": 3873,
      "Ġcreative": 3874,
      "Ġenviron": 3875,
      "Ġmattress": 3876,
      "Ġtired": 3877,
      "Ġstruct": 3878,
      "Ġannoy": 3879,
      "Ġhappening": 3880,
      "kward": 3881,
      "Ġrout": 3882,
      "Ġsque": 3883,
      "Ġlacking": 3884,
      "uted": 3885,
      "time": 3886,
      "Ġpillow": 3887,
      "Ġgb": 3888,
      "Ġshelf": 3889,
      "Ġpassion": 3890,
      "Ġmouth": 3891,
      "Ġmiles": 3892,
      "Ġmal": 3893,
      "entially": 3894,
      "Ġyoun": 3895,
      "Ġinner": 3896,
      "Ġrepres": 3897,
      "rets": 3898,
      "here": 3899,
      "Ġempt": 3900,
      "Ġsole": 3901,
      "Ġcurrently": 3902,
      "Ġyounger": 3903,
      "Ġportray": 3904,
      "Ġawkward": 3905,
      "Ġnumer": 3906,
      "Ġwondering": 3907,
      "Ġoffic": 3908,
      "Ġholder": 3909,
      "Ġbulb": 3910,
      "Ġthoroughly": 3911,
      "itty": 3912,
      "Ġdrug": 3913,
      "Ġpublisher": 3914,
      "Ġrelatively": 3915,
      "Ġmagnet": 3916,
      "Ġplayers": 3917,
      "char": 3918,
      "Ġanti": 3919,
      "Ġtechnology": 3920,
      "ands": 3921,
      "Ġtested": 3922,
      "Ġengaging": 3923,
      "Ġbalance": 3924,
      "Ġfashion": 3925,
      "Ġnumbers": 3926,
      "Ġcomments": 3927,
      "ulation": 3928,
      "Ġyellow": 3929,
      "Ġtarget": 3930,
      "rees": 3931,
      "Ġrepeated": 3932,
      "Ġskip": 3933,
      "Ġdelight": 3934,
      "Ġshower": 3935,
      "key": 3936,
      "Ġcompare": 3937,
      "Ġhardly": 3938,
      "Ġeveryday": 3939,
      "rupt": 3940,
      "lls": 3941,
      "host": 3942,
      "orable": 3943,
      "Ġmovement": 3944,
      "Ġwriters": 3945,
      "Ġencour": 3946,
      "Ġunable": 3947,
      "Ġpolice": 3948,
      "Ġram": 3949,
      "Ġprevent": 3950,
      "Ġghost": 3951,
      "lied": 3952,
      "Ġkiller": 3953,
      "onnect": 3954,
      "Ġchecked": 3955,
      "Ġpredictable": 3956,
      "Ġhandy": 3957,
      "Ġrh": 3958,
      "Ġhanging": 3959,
      "Ġeuro": 3960,
      "Ġartist": 3961,
      "Ġaudience": 3962,
      "Ġeffects": 3963,
      "Ġdistract": 3964,
      "friend": 3965,
      "Ġassembly": 3966,
      "Ġspending": 3967,
      "Ġtap": 3968,
      "Ġpace": 3969,
      "Ġpaying": 3970,
      "Ġclaims": 3971,
      "Ġsocks": 3972,
      "Ġsar": 3973,
      "Ġselling": 3974,
      "Ġeditor": 3975,
      "Ġedit": 3976,
      "Ġsending": 3977,
      "Ġfingers": 3978,
      "Ġtor": 3979,
      "Ġsnug": 3980,
      "Ġmagn": 3981,
      "Ġwore": 3982,
      "Ġfiles": 3983,
      "Ġcontinues": 3984,
      "Ġmembers": 3985,
      "ules": 3986,
      "Ġdepress": 3987,
      "Ġworry": 3988,
      "Ġcups": 3989,
      "Ġlady": 3990,
      "Ġarms": 3991,
      "ration": 3992,
      "Ġwasted": 3993,
      "Ġbeautifully": 3994,
      "Ġbulbs": 3995,
      "ements": 3996,
      "Ġanaly": 3997,
      "lict": 3998,
      "Ġgraphics": 3999,
      "Ġcuri": 4000,
      "Ġinflu": 4001,
      "Ġarc": 4002,
      "Ġipod": 4003,
      "Ġnarrow": 4004,
      "Ġdriver": 4005,
      "Ġrespond": 4006,
      "Ġtele": 4007,
      "aded": 4008,
      "Ġchick": 4009,
      "Ġhol": 4010,
      "apping": 4011,
      "Ġrack": 4012,
      "Ġtechnical": 4013,
      "Ġger": 4014,
      "Ġprime": 4015,
      "Ġgrowing": 4016,
      "Ġspecif": 4017,
      "anted": 4018,
      "Ġinterview": 4019,
      "Ġod": 4020,
      "Ġeth": 4021,
      "Ġbrain": 4022,
      "Ġportion": 4023,
      "Ġfrench": 4024,
      "Ġtemperature": 4025,
      "Ġlatest": 4026,
      "oso": 4027,
      "Ġenergy": 4028,
      "Ġscan": 4029,
      "Ġcrime": 4030,
      "Ġunits": 4031,
      "Ġversions": 4032,
      "Ġsale": 4033,
      "Ġupgrade": 4034,
      "Ġtopic": 4035,
      "Ġsilver": 4036,
      "Ġrd": 4037,
      "Ġloving": 4038,
      "Ġfle": 4039,
      "Ġwatched": 4040,
      "Ġthrown": 4041,
      "Ġanswers": 4042,
      "ker": 4043,
      "Ġnumerous": 4044,
      "Ġrated": 4045,
      "Ġincredible": 4046,
      "Ġthinks": 4047,
      "Ġconsidered": 4048,
      "Ġbeach": 4049,
      "Ġemotions": 4050,
      "Ġregret": 4051,
      "Ġpriv": 4052,
      "mble": 4053,
      "Ġsight": 4054,
      "zen": 4055,
      "Ġmaterials": 4056,
      "Ġtraditional": 4057,
      "Ġunivers": 4058,
      "Ġformer": 4059,
      "Ġfaster": 4060,
      "Ġmichael": 4061,
      "Ġmarried": 4062,
      "Ġgard": 4063,
      "Ġdriving": 4064,
      "Ġjam": 4065,
      "rific": 4066,
      "Ġtour": 4067,
      "Ġwifi": 4068,
      "priate": 4069,
      "yal": 4070,
      "Ġeating": 4071,
      "Ġprinted": 4072,
      "ague": 4073,
      "inary": 4074,
      "Ġallowed": 4075,
      "Ġtruck": 4076,
      "Ġsuddenly": 4077,
      "Ġinno": 4078,
      "Ġban": 4079,
      "Ġtag": 4080,
      "Ġexec": 4081,
      "cil": 4082,
      "lessly": 4083,
      "Ġdecision": 4084,
      "Ġclar": 4085,
      "istry": 4086,
      "Ġgain": 4087,
      "sp": 4088,
      "Ġcompelling": 4089,
      "Ġsections": 4090,
      "ards": 4091,
      "Ġvan": 4092,
      "Ġwow": 4093,
      "Ġelectric": 4094,
      "Ġblend": 4095,
      "Ġconflict": 4096,
      "Ġincor": 4097,
      "Ġbrilliant": 4098,
      "Ġresour": 4099,
      "ula": 4100,
      "Ġpacked": 4101,
      "Ġjump": 4102,
      "Ġpractical": 4103,
      "Ġheads": 4104,
      "Ġtension": 4105,
      "Ġsnap": 4106,
      "ded": 4107,
      "ushing": 4108,
      "Ġtransfer": 4109,
      "cro": 4110,
      "Ġlevels": 4111,
      "Ġcamer": 4112,
      "Ġstreet": 4113,
      "itude": 4114,
      "Ġleads": 4115,
      "Ġdefe": 4116,
      "Ġplate": 4117,
      "Ġdiet": 4118,
      "Ġstruggle": 4119,
      "Ġphysical": 4120,
      "Ġveh": 4121,
      "Ġvs": 4122,
      "Ġnove": 4123,
      "ett": 4124,
      "Ġlovely": 4125,
      "Ġdin": 4126,
      "Ġfolks": 4127,
      "Ġaspects": 4128,
      "Ġadding": 4129,
      "Ġbull": 4130,
      "Ġped": 4131,
      "Ġhat": 4132,
      "Ġactions": 4133,
      "Ġciv": 4134,
      "Ġny": 4135,
      "Ġur": 4136,
      "Ġsuccessful": 4137,
      "Ġindust": 4138,
      "umin": 4139,
      "Ġyork": 4140,
      "Ġbackpack": 4141,
      "Ġnorth": 4142,
      "Ġpuzz": 4143,
      "Ġhi": 4144,
      "loy": 4145,
      "Ġcontroller": 4146,
      "Ġrisk": 4147,
      "Ġfactory": 4148,
      "Ġgreatest": 4149,
      "mes": 4150,
      "Ġbent": 4151,
      "Ġsequel": 4152,
      "Ġpool": 4153,
      "enge": 4154,
      "Ġbeware": 4155,
      "Ġsaved": 4156,
      "Ġcomplaints": 4157,
      "Ġwes": 4158,
      "Ġreferences": 4159,
      "ana": 4160,
      "Ġenvironment": 4161,
      "Ġhp": 4162,
      "Ġsink": 4163,
      "Ġdealing": 4164,
      "conom": 4165,
      "iece": 4166,
      "Ġphiloso": 4167,
      "Ġdirty": 4168,
      "Ġdesire": 4169,
      "Ġmodels": 4170,
      "Ġirrit": 4171,
      "Ġbands": 4172,
      "Ġcloser": 4173,
      "order": 4174,
      "Ġsaf": 4175,
      "Ġq": 4176,
      "appy": 4177,
      "Ġgramm": 4178,
      "Ġlightweight": 4179,
      "Ġdimens": 4180,
      "Ġclothes": 4181,
      "Ġskills": 4182,
      "Ġdull": 4183,
      "Ġeurope": 4184,
      "ails": 4185,
      "Ġrac": 4186,
      "Ġbrands": 4187,
      "Ġbreath": 4188,
      "Ġhearing": 4189,
      "Ġfrequently": 4190,
      "Ġhass": 4191,
      "Ġmainly": 4192,
      "Ġfish": 4193,
      "Ġstays": 4194,
      "Ġfro": 4195,
      "Ġachie": 4196,
      "wards": 4197,
      "Ġtree": 4198,
      "Ġeverywhere": 4199,
      "cr": 4200,
      "Ġnic": 4201,
      "idden": 4202,
      "atives": 4203,
      "Ġregarding": 4204,
      "Ġwhom": 4205,
      "Ġchoices": 4206,
      "edy": 4207,
      "ato": 4208,
      "Ġexplained": 4209,
      "Ġwest": 4210,
      "Ġvirt": 4211,
      "Ġhea": 4212,
      "Ġfighting": 4213,
      "Ġhoped": 4214,
      "olution": 4215,
      "Ġvib": 4216,
      "Ġgovernment": 4217,
      "Ġmp": 4218,
      "00": 4219,
      "Ġintriguing": 4220,
      "Ġeconom": 4221,
      "Ġmanner": 4222,
      "ively": 4223,
      "Ġinstrum": 4224,
      "Ġinitial": 4225,
      "Ġboyfriend": 4226,
      "Ġrear": 4227,
      "Ġtube": 4228,
      "Ġsimpl": 4229,
      "Ġfal": 4230,
      "Ġded": 4231,
      "Ġterm": 4232,
      "Ġputs": 4233,
      "Ġharder": 4234,
      "str": 4235,
      "Ġvelcro": 4236,
      "bes": 4237,
      "Ġnamed": 4238,
      "Ġreset": 4239,
      "Ġgrade": 4240,
      "Ġlyrics": 4241,
      "sequ": 4242,
      "asp": 4243,
      "Ġlift": 4244,
      "Ġzo": 4245,
      "Ġlou": 4246,
      "Ġanten": 4247,
      "Ġdelic": 4248,
      "Ġcontrols": 4249,
      "Ġcarefully": 4250,
      "Ġske": 4251,
      "Ġcontem": 4252,
      "Ġsick": 4253,
      "Ġdescribe": 4254,
      "Ġwise": 4255,
      "Ġdelivery": 4256,
      "ius": 4257,
      "Ġrelated": 4258,
      "Ġera": 4259,
      "Ġfile": 4260,
      "Ġpun": 4261,
      "idge": 4262,
      "Ġstation": 4263,
      "Ġunex": 4264,
      "Ġadults": 4265,
      "Ġdestroy": 4266,
      "Ġhits": 4267,
      "Ġdemon": 4268,
      "Ġprotagonist": 4269,
      "Ġjacket": 4270,
      "Ġbeauty": 4271,
      "Ġcore": 4272,
      "Ġups": 4273,
      "Ġopportunity": 4274,
      "inese": 4275,
      "Ġbroad": 4276,
      "Ġopinions": 4277,
      "Ġconfused": 4278,
      "Ġstiff": 4279,
      "Ġshall": 4280,
      "Ġment": 4281,
      "Ġaccording": 4282,
      "Ġchinese": 4283,
      "Ġsecrets": 4284,
      "lection": 4285,
      "Ġasking": 4286,
      "Ġequip": 4287,
      "Ġsteam": 4288,
      "Ġpolic": 4289,
      "Ġmanaged": 4290,
      "Ġgloves": 4291,
      "egr": 4292,
      "Ġdangerous": 4293,
      "Ġspecifically": 4294,
      "Ġreasonable": 4295,
      "Ġdrives": 4296,
      "Ġteacher": 4297,
      "Ġshap": 4298,
      "Ġflip": 4299,
      "Ġemb": 4300,
      "Ġlitter": 4301,
      "Ġcollar": 4302,
      "Ġsecurity": 4303,
      "Ġphilosoph": 4304,
      "icles": 4305,
      "Ġpaced": 4306,
      "Ġresolution": 4307,
      "Ġmeas": 4308,
      "ev": 4309,
      "Ġbecoming": 4310,
      "Ġcompat": 4311,
      "ternal": 4312,
      "Ġsupply": 4313,
      "sis": 4314,
      "Ġsilly": 4315,
      "Ġglasses": 4316,
      "Ġlol": 4317,
      "Ġarr": 4318,
      "Ġtheory": 4319,
      "ribly": 4320,
      "Ġadds": 4321,
      "Ġingredients": 4322,
      "Ġflaws": 4323,
      "atically": 4324,
      "Ġreplacing": 4325,
      "Ġcommunic": 4326,
      "ok": 4327,
      "Ġgrace": 4328,
      "Ġrelate": 4329,
      "Ġcreating": 4330,
      "Ġjul": 4331,
      "Ġted": 4332,
      "Ġcracked": 4333,
      "Ġrein": 4334,
      "Ġunbelie": 4335,
      "Ġmold": 4336,
      "Ġwashed": 4337,
      "Ġoppos": 4338,
      "ief": 4339,
      "Ġhassle": 4340,
      "Ġduty": 4341,
      "Ġdrum": 4342,
      "Ġdelivered": 4343,
      "Ġspark": 4344,
      "ga": 4345,
      "Ġbreaks": 4346,
      "Ġslim": 4347,
      "iling": 4348,
      "Ġbear": 4349,
      "Ġanimals": 4350,
      "Ġafford": 4351,
      "Ġmounting": 4352,
      "Ġyeah": 4353,
      "lock": 4354,
      "rif": 4355,
      "enn": 4356,
      "Ġisland": 4357,
      "Ġangel": 4358,
      "Ġsearching": 4359,
      "Ġstands": 4360,
      "Ġreceiver": 4361,
      "Ġoutput": 4362,
      "Ġsounded": 4363,
      "Ġblank": 4364,
      "Ġcomparison": 4365,
      "Ġelement": 4366,
      "Ġtroub": 4367,
      "Ġprop": 4368,
      "Ġreligious": 4369,
      "Ġillustrations": 4370,
      "Ġbesides": 4371,
      "Ġcanon": 4372,
      "Ġgoogle": 4373,
      "Ġcris": 4374,
      "Ġinput": 4375,
      "wr": 4376,
      "Ġfails": 4377,
      "Ġrecipe": 4378,
      "Ġworried": 4379,
      "Ġinsert": 4380,
      "ointed": 4381,
      "oted": 4382,
      "Ġequipment": 4383,
      "standing": 4384,
      "Ġblur": 4385,
      "hes": 4386,
      "Ġhous": 4387,
      "Ġfool": 4388,
      "Ġencounter": 4389,
      "Ġdegree": 4390,
      "Ġteaching": 4391,
      "Ġalternative": 4392,
      "Ġpeel": 4393,
      "Ġcivil": 4394,
      "Ġexplanation": 4395,
      "Ġlosing": 4396,
      "Ġade": 4397,
      "pensive": 4398,
      "Ġclever": 4399,
      "Ġpaul": 4400,
      "Ġfriendly": 4401,
      "Ġbored": 4402,
      "Ġsheet": 4403,
      "Ġcommunity": 4404,
      "agraph": 4405,
      "Ġbadly": 4406,
      "Ġstress": 4407,
      "Ġthriller": 4408,
      "Ġattractive": 4409,
      "vant": 4410,
      "Ġfitting": 4411,
      "Ġbat": 4412,
      "Ġlucky": 4413,
      "Ġlord": 4414,
      "Ġparagraph": 4415,
      "Ġmotiv": 4416,
      "Ġgrew": 4417,
      "Ġdistance": 4418,
      "Ġham": 4419,
      "Ġbehavior": 4420,
      "Ġwires": 4421,
      "Ġinexpensive": 4422,
      "ston": 4423,
      "Ġboxes": 4424,
      "aves": 4425,
      "Ġdiam": 4426,
      "Ġharm": 4427,
      "Ġmath": 4428,
      "Ġbelief": 4429,
      "Ġwrap": 4430,
      "Ġdirt": 4431,
      "Ġoutdo": 4432,
      "Ġbrothers": 4433,
      "Ġpray": 4434,
      "Ġrequest": 4435,
      "Ġsignificant": 4436,
      "Ġmap": 4437,
      "Ġvisit": 4438,
      "ha": 4439,
      "Ġbrack": 4440,
      "Ġtear": 4441,
      "ancy": 4442,
      "Ġdece": 4443,
      "Ġcritic": 4444,
      "Ġgent": 4445,
      "ux": 4446,
      "alth": 4447,
      "dom": 4448,
      "Ġextended": 4449,
      "proof": 4450,
      "Ġcars": 4451,
      "Ġtopics": 4452,
      "Ġjan": 4453,
      "ca": 4454,
      "Ġplanning": 4455,
      "Ġprepared": 4456,
      "Ġsheets": 4457,
      "Ġsensitive": 4458,
      "Ġattempts": 4459,
      "Ġwallet": 4460,
      "Ġcausing": 4461,
      "Ġintroduced": 4462,
      "Ġviolence": 4463,
      "pected": 4464,
      "Ġspan": 4465,
      "Ġtoys": 4466,
      "Ġempty": 4467,
      "Ġassume": 4468,
      "Ġbonus": 4469,
      "Ġbirthday": 4470,
      "Ġstring": 4471,
      "Ġtrilogy": 4472,
      "Ġtalent": 4473,
      "Ġapplication": 4474,
      "Ġcush": 4475,
      "Ġcorners": 4476,
      "Ġcrash": 4477,
      "ibl": 4478,
      "Ġbowl": 4479,
      "ques": 4480,
      "Ġdance": 4481,
      "azz": 4482,
      "Ġenem": 4483,
      "Ġmaintain": 4484,
      "Ġwit": 4485,
      "Ġdoctor": 4486,
      "Ġhdmi": 4487,
      "Ġstone": 4488,
      "Ġinternal": 4489,
      "tr": 4490,
      "Ġtub": 4491,
      "Ġfrustrated": 4492,
      "Ġwedding": 4493,
      "ai": 4494,
      "Ġwheels": 4495,
      "Ġrarely": 4496,
      "gy": 4497,
      "Ġcauses": 4498,
      "yle": 4499,
      "Ġcustomers": 4500,
      "Ġsafety": 4501,
      "Ġdegrees": 4502,
      "Ġoverly": 4503,
      "porary": 4504,
      "Ġprose": 4505,
      "Ġlighter": 4506,
      "Ġdrain": 4507,
      "Ġcomplicated": 4508,
      "Ġsquare": 4509,
      "Ġmusical": 4510,
      "Ġpeace": 4511,
      "wing": 4512,
      "Ġletters": 4513,
      "Ġmaker": 4514,
      "Ġappropriate": 4515,
      "cl": 4516,
      "Ġgas": 4517,
      "Ġhint": 4518,
      "Ġchart": 4519,
      "sing": 4520,
      "Ġbits": 4521,
      "Ġcabin": 4522,
      "Ġvictim": 4523,
      "Ġcarrying": 4524,
      "erson": 4525,
      "Ġadvanced": 4526,
      "Ġpulling": 4527,
      "isters": 4528,
      "Ġthom": 4529,
      "Ġchildhood": 4530,
      "oting": 4531,
      "Ġfamous": 4532,
      "Ġfollows": 4533,
      "Ġbritish": 4534,
      "lin": 4535,
      "Ġsky": 4536,
      "Ġlocation": 4537,
      "Ġot": 4538,
      "Ġfunctions": 4539,
      "Ġegg": 4540,
      "Ġdisappe": 4541,
      "Ġhealthy": 4542,
      "Ġshorter": 4543,
      "Ġimpression": 4544,
      "Ġchallenge": 4545,
      "Ġmary": 4546,
      "Ġproduced": 4547,
      "Ġapps": 4548,
      "Ġantenna": 4549,
      "Ġspots": 4550,
      "Ġsolve": 4551,
      "aving": 4552,
      "bble": 4553,
      "Ġabuse": 4554,
      "Ġlamp": 4555,
      "Ġshad": 4556,
      "Ġupset": 4557,
      "rest": 4558,
      "Ġwrist": 4559,
      "ems": 4560,
      "Ġoccasionally": 4561,
      "Ġhesit": 4562,
      "Ġstage": 4563,
      "Ġdetect": 4564,
      "Ġjournal": 4565,
      "Ġalive": 4566,
      "Ġsugar": 4567,
      "Ġmotion": 4568,
      "Ġchain": 4569,
      "Ġcircum": 4570,
      "Ġregardless": 4571,
      "Ġletter": 4572,
      "Ġcosts": 4573,
      "Ġrust": 4574,
      "Ġmethod": 4575,
      "Ġmistakes": 4576,
      "icient": 4577,
      "ological": 4578,
      "Ġnoted": 4579,
      "Ġhandles": 4580,
      "Ġupper": 4581,
      "Ġzomb": 4582,
      "Ġaccompl": 4583,
      "there": 4584,
      "Ġlesson": 4585,
      "Ġpriced": 4586,
      "bud": 4587,
      "Ġcarpet": 4588,
      "Ġmeat": 4589,
      "Ġcameras": 4590,
      "agement": 4591,
      "kend": 4592,
      "Ġdeeper": 4593,
      "Ġunne": 4594,
      "oses": 4595,
      "Ġsticks": 4596,
      "Ġscale": 4597,
      "Ġord": 4598,
      "la": 4599,
      "Ġtong": 4600,
      "Ġintense": 4601,
      "Ġfif": 4602,
      "Ġstores": 4603,
      "Ġvisual": 4604,
      "Ġthrew": 4605,
      "Ġantic": 4606,
      "Ġseam": 4607,
      "Ġgenu": 4608,
      "Ġtoe": 4609,
      "lored": 4610,
      "Ġtie": 4611,
      "Ġfriendship": 4612,
      "Ġweekend": 4613,
      "Ġcott": 4614,
      "Ġspeaking": 4615,
      "icing": 4616,
      "Ġevidence": 4617,
      "Ġstrateg": 4618,
      "bought": 4619,
      "alley": 4620,
      "Ġescape": 4621,
      "Ġpersonality": 4622,
      "look": 4623,
      "aur": 4624,
      "Ġfailure": 4625,
      "Ġpassed": 4626,
      "arsh": 4627,
      "Ġcompon": 4628,
      "Ġappeared": 4629,
      "Ġii": 4630,
      "Ġmurder": 4631,
      "Ġhidden": 4632,
      "Ġgenuine": 4633,
      "Ġinstalling": 4634,
      "Ġcontinu": 4635,
      "oring": 4636,
      "Ġparan": 4637,
      "roid": 4638,
      "Ġpanel": 4639,
      "aries": 4640,
      "Ġry": 4641,
      "Ġcompact": 4642,
      "Ġlam": 4643,
      "bal": 4644,
      "Ġsac": 4645,
      "Ġbutter": 4646,
      "Ġholly": 4647,
      "Ġwestern": 4648,
      "Ġflu": 4649,
      "Ġstanding": 4650,
      "Ġmechanism": 4651,
      "uces": 4652,
      "Ġconcepts": 4653,
      "Ġthreat": 4654,
      "Ġliterature": 4655,
      "ext": 4656,
      "Ġqual": 4657,
      "Ġresc": 4658,
      "Ġcru": 4659,
      "Ġmisle": 4660,
      "Ġpads": 4661,
      "Ġoz": 4662,
      "Ġexception": 4663,
      "Ġstainless": 4664,
      "Ġinteract": 4665,
      "xic": 4666,
      "ino": 4667,
      "Ġplant": 4668,
      "Ġconvenient": 4669,
      "Ġhighlight": 4670,
      "ators": 4671,
      "ander": 4672,
      "Ġtent": 4673,
      "Ġprinting": 4674,
      "isions": 4675,
      "Ġmyth": 4676,
      "Ġsd": 4677,
      "Ġcontainer": 4678,
      "Ġease": 4679,
      "Ġmere": 4680,
      "cious": 4681,
      "Ġbread": 4682,
      "Ġspiritual": 4683,
      "Ġprompt": 4684,
      "miss": 4685,
      "Ġbol": 4686,
      "kin": 4687,
      "Ġgear": 4688,
      "Ġalot": 4689,
      "Ġsentence": 4690,
      "Ġmagaz": 4691,
      "Ġepisode": 4692,
      "Ġrare": 4693,
      "iven": 4694,
      "Ġsilic": 4695,
      "Ġchannel": 4696,
      "bbles": 4697,
      "Ġconnector": 4698,
      "Ġassist": 4699,
      "Ġreviewed": 4700,
      "Ġreliable": 4701,
      "Ġbudget": 4702,
      "Ġens": 4703,
      "Ġwrapped": 4704,
      "Ġneat": 4705,
      "Ġrose": 4706,
      "Ġraw": 4707,
      "Ġchemistry": 4708,
      "Ġsensor": 4709,
      "Ġcombination": 4710,
      "Ġminimal": 4711,
      "Ġrace": 4712,
      "inct": 4713,
      "Ġinser": 4714,
      "Ġyout": 4715,
      "Ġgrill": 4716,
      "Ġhill": 4717,
      "aff": 4718,
      "ashing": 4719,
      "Ġsan": 4720,
      "Ġbenefit": 4721,
      "Ġdepending": 4722,
      "Ġken": 4723,
      "Ġimprovement": 4724,
      "Ġappearance": 4725,
      "Ġdisconnect": 4726,
      "Ġripped": 4727,
      "Ġremoving": 4728,
      "Ġcardboard": 4729,
      "uable": 4730,
      "Ġunbi": 4731,
      "Ġrent": 4732,
      "Ġgy": 4733,
      "Ġports": 4734,
      "bre": 4735,
      "Ġunnecess": 4736,
      "Ġdram": 4737,
      "Ġpackaged": 4738,
      "Ġearbud": 4739,
      "Ġscore": 4740,
      "Ġscratches": 4741,
      "whel": 4742,
      "Ġadequ": 4743,
      "Ġvent": 4744,
      "Ġexternal": 4745,
      "reh": 4746,
      "Ġunbiased": 4747,
      "Ġhung": 4748,
      "cast": 4749,
      "Ġbond": 4750,
      "Ġpencil": 4751,
      "Ġrip": 4752,
      "Ġcliff": 4753,
      "Ġalarm": 4754,
      "ches": 4755,
      "iers": 4756,
      "Ġquit": 4757,
      "Ġnowhere": 4758,
      "Ġdesper": 4759,
      "Ġliqu": 4760,
      "Ġsuggested": 4761,
      "Ġmysterious": 4762,
      "Ġbulky": 4763,
      "Ġborn": 4764,
      "Ġgraphic": 4765,
      "Ġmelo": 4766,
      "Ġnick": 4767,
      "Ġyoutube": 4768,
      "Ġdeliver": 4769,
      "Ġsoap": 4770,
      "Ġdreams": 4771,
      "Ġintegr": 4772,
      "Ġash": 4773,
      "izz": 4774,
      "Ġfalse": 4775,
      "Ġsoph": 4776,
      "Ġexercise": 4777,
      "Ġrechar": 4778,
      "Ġunexpected": 4779,
      "Ġnoticeable": 4780,
      "Ġgeorge": 4781,
      "Ġraised": 4782,
      "Ġcalling": 4783,
      "Ġluckily": 4784,
      "Ġheel": 4785,
      "Ġpromise": 4786,
      "Ġruss": 4787,
      "Ġjer": 4788,
      "Ġpairs": 4789,
      "Ġleading": 4790,
      "Ġmission": 4791,
      "aser": 4792,
      "Ġjoke": 4793,
      "Ġrings": 4794,
      "Ġshoulder": 4795,
      "Ġmb": 4796,
      "Ġunpl": 4797,
      "Ġstayed": 4798,
      "Ġsock": 4799,
      "Ġadjustable": 4800,
      "Ġfunctional": 4801,
      "Ġguard": 4802,
      "Ġlistened": 4803,
      "utions": 4804,
      "Ġya": 4805,
      "Ġunderst": 4806,
      "essed": 4807,
      "iday": 4808,
      "ification": 4809,
      "neath": 4810,
      "Ġcro": 4811,
      "Ġsweat": 4812,
      "Ġvend": 4813,
      "Ġskim": 4814,
      "Ġalph": 4815,
      "Ġtoss": 4816,
      "Ġcharl": 4817,
      "Ġunderneath": 4818,
      "Ġwilli": 4819,
      "Ġgarage": 4820,
      "pret": 4821,
      "Ġbars": 4822,
      "Ġclips": 4823,
      "Ġcontinued": 4824,
      "olic": 4825,
      "Ġwaited": 4826,
      "Ġft": 4827,
      "od": 4828,
      "Ġqueen": 4829,
      "Ġessential": 4830,
      "Ġdeck": 4831,
      "Ġweigh": 4832,
      "Ġactors": 4833,
      "Ġmob": 4834,
      "Ġsizing": 4835,
      "Ġreligion": 4836,
      "Ġanticip": 4837,
      "top": 4838,
      "Ġandroid": 4839,
      "Ġhelping": 4840,
      "Ġrules": 4841,
      "Ġremark": 4842,
      "mark": 4843,
      "Ġfran": 4844,
      "Ġabsor": 4845,
      "Ġrecognize": 4846,
      "Ġupdated": 4847,
      "Ġanimal": 4848,
      "Ġpregn": 4849,
      "Ġtray": 4850,
      "Ġargum": 4851,
      "Ġjapanese": 4852,
      "Ġdrivers": 4853,
      "Ġthru": 4854,
      "Ġreceiving": 4855,
      "Ġdiscussion": 4856,
      "Ġserve": 4857,
      "Ġrepetitive": 4858,
      "Ġdetective": 4859,
      "Ġphotograph": 4860,
      "Ġrap": 4861,
      "Ġessentially": 4862,
      "Ġthous": 4863,
      "Ġdollar": 4864,
      "Ġyog": 4865,
      "Ġdescribes": 4866,
      "Ġcontext": 4867,
      "Ġsees": 4868,
      "Ġgentle": 4869,
      "cre": 4870,
      "Ġdefect": 4871,
      "Ġphr": 4872,
      "Ġpictured": 4873,
      "Ġcompanies": 4874,
      "Ġgerman": 4875,
      "point": 4876,
      "Ġgrey": 4877,
      "Ġeight": 4878,
      "ids": 4879,
      "Ġlies": 4880,
      "Ġlacks": 4881,
      "Ġcartridge": 4882,
      "Ġexpand": 4883,
      "Ġsteph": 4884,
      "Ġchest": 4885,
      "Ġcream": 4886,
      "Ġlit": 4887,
      "Ġyester": 4888,
      "Ġlimit": 4889,
      "Ġstops": 4890,
      "Ġweap": 4891,
      "Ġblind": 4892,
      "Ġchocol": 4893,
      "Ġmajority": 4894,
      "Ġboo": 4895,
      "Ġchron": 4896,
      "Ġdar": 4897,
      "Ġproduce": 4898,
      "Ġhub": 4899,
      "Ġpunch": 4900,
      "Ġsleeping": 4901,
      "cient": 4902,
      "Ġsaving": 4903,
      "Ġfund": 4904,
      "Ġtransform": 4905,
      "Ġswim": 4906,
      "Ġfed": 4907,
      "Ġbask": 4908,
      "Ġcritical": 4909,
      "Ġdisg": 4910,
      "Ġideal": 4911,
      "Ġmounted": 4912,
      "Ġimagination": 4913,
      "Ġgrown": 4914,
      "Ġrecorded": 4915,
      "Ġcontrib": 4916,
      "stal": 4917,
      "Ġstronger": 4918,
      "Ġportable": 4919,
      "Ġstrongly": 4920,
      "Ġindepend": 4921,
      "Ġdistur": 4922,
      "Ġgeneration": 4923,
      "Ġfake": 4924,
      "Ġsuperior": 4925,
      "Ġslo": 4926,
      "Ġlighting": 4927,
      "Ġgam": 4928,
      "Ġwaterproof": 4929,
      "Ġstruggles": 4930,
      "Ġexplains": 4931,
      "Ġpil": 4932,
      "Ġlessons": 4933,
      "Ġcuts": 4934,
      "Ġmanage": 4935,
      "Ġspread": 4936,
      "Ġworthy": 4937,
      "Ġcurious": 4938,
      "Ġimproved": 4939,
      "othing": 4940,
      "night": 4941,
      "Ġsco": 4942,
      "Ġenth": 4943,
      "Ġrepresent": 4944,
      "yer": 4945,
      "acity": 4946,
      "Ġbasis": 4947,
      "Ġjustice": 4948,
      "Ġdetermined": 4949,
      "Ġgps": 4950,
      "Ġpitch": 4951,
      "Ġplanet": 4952,
      "oying": 4953,
      "Ġsurvive": 4954,
      "ule": 4955,
      "Ġliber": 4956,
      "Ġbedroom": 4957,
      "Ġwidth": 4958,
      "Ġfocused": 4959,
      "Ġdrill": 4960,
      "ceed": 4961,
      "Ġamb": 4962,
      "Ġmirror": 4963,
      "Ġpour": 4964,
      "Ġvehicle": 4965,
      "Ġgall": 4966,
      "Ġthicker": 4967,
      "Ġrobert": 4968,
      "Ġvocals": 4969,
      "Ġque": 4970,
      "Ġnewer": 4971,
      "Ġorange": 4972,
      "Ġtill": 4973,
      "Ġimpressive": 4974,
      "alog": 4975,
      "Ġlee": 4976,
      "Ġdecides": 4977,
      "Ġleaders": 4978,
      "Ġcasual": 4979,
      "ios": 4980,
      "gged": 4981,
      "uary": 4982,
      "Ġblades": 4983,
      "Ġfactor": 4984,
      "Ġstudio": 4985,
      "Ġexpert": 4986,
      "Ġmedical": 4987,
      "Ġhumans": 4988,
      "Ġcolored": 4989,
      "rs": 4990,
      "ession": 4991,
      "Ġpicking": 4992,
      "Ġmisleading": 4993,
      "Ġwitch": 4994,
      "Ġwhenever": 4995,
      "Ġsuction": 4996,
      "mos": 4997,
      "uses": 4998,
      "Ġpainful": 4999,
      "Ġstructure": 5000,
      "Ġcircumst": 5001,
      "Ġgorge": 5002,
      "iest": 5003,
      "Ġenjoying": 5004,
      "Ġyesterday": 5005,
      "Ġspare": 5006,
      "Ġowner": 5007,
      "Ġboss": 5008,
      "Ġincom": 5009,
      "Ġemploy": 5010,
      "Ġharry": 5011,
      "Ġado": 5012,
      "hile": 5013,
      "airs": 5014,
      "Ġreturns": 5015,
      "inated": 5016,
      "Ġawhile": 5017,
      "umes": 5018,
      "Ġmember": 5019,
      "Ġhood": 5020,
      "Ġgalax": 5021,
      "aked": 5022,
      "Ġslipp": 5023,
      "aint": 5024,
      "Ġepisodes": 5025,
      "Ġgray": 5026,
      "Ġtechniques": 5027,
      "Ġtax": 5028,
      "irts": 5029,
      "Ġjeans": 5030,
      "Ġcotton": 5031,
      "Ġunbelievable": 5032,
      "Ġsalt": 5033,
      "Ġyard": 5034,
      "Ġjim": 5035,
      "Ġtreatment": 5036,
      "oon": 5037,
      "Ġhated": 5038,
      "akers": 5039,
      "Ġfurn": 5040,
      "Ġkilling": 5041,
      "Ġcath": 5042,
      "Ġmild": 5043,
      "Ġcompatible": 5044,
      "ucing": 5045,
      "Ġexcess": 5046,
      "Ġbathroom": 5047,
      "Ġmaps": 5048,
      "Ġfau": 5049,
      "Ġadvant": 5050,
      "Ġfamilies": 5051,
      "Ġpolicy": 5052,
      "Ġfirmware": 5053,
      "Ġshr": 5054,
      "Ġoven": 5055,
      "mpath": 5056,
      "Ġsatisfying": 5057,
      "Ġinstance": 5058,
      "Ġreb": 5059,
      "Ġlie": 5060,
      "ament": 5061,
      "Ġgro": 5062,
      "Ġos": 5063,
      "Ġneighbor": 5064,
      "Ġseven": 5065,
      "Ġshots": 5066,
      "Ġflight": 5067,
      "Ġshooting": 5068,
      "Ġrefres": 5069,
      "Ġoutstanding": 5070,
      "Ġmood": 5071,
      "Ġcourt": 5072,
      "Ġtrigg": 5073,
      "Ġappreciated": 5074,
      "Ġcash": 5075,
      "Ġouter": 5076,
      "Ġfreez": 5077,
      "Ġgarden": 5078,
      "Ġafric": 5079,
      "Ġinstallment": 5080,
      "Ġcreep": 5081,
      "Ġpowers": 5082,
      "Ġsits": 5083,
      "Ġgaming": 5084,
      "Ġblow": 5085,
      "oop": 5086,
      "Ġamp": 5087,
      "Ġdeserves": 5088,
      "vin": 5089,
      "Ġthreads": 5090,
      "piece": 5091,
      "Ġdeeply": 5092,
      "Ġhey": 5093,
      "Ġdecor": 5094,
      "Ġast": 5095,
      "Ġsurprisingly": 5096,
      "Ġchocolate": 5097,
      "Ġdrops": 5098,
      "Ġrod": 5099,
      "Ġpresident": 5100,
      "Ġsucks": 5101,
      "Ġgalaxy": 5102,
      "Ġcheaply": 5103,
      "Ġjane": 5104,
      "Ġsplit": 5105,
      "Ġengland": 5106,
      "Ġgorgeous": 5107,
      "Ġclich": 5108,
      "Ġwealth": 5109,
      "rom": 5110,
      "Ġcomic": 5111,
      "Ġscott": 5112,
      "Ġmarks": 5113,
      "Ġjoe": 5114,
      "Ġcateg": 5115,
      "Ġsystems": 5116,
      "Ġca": 5117,
      "Ġfrankly": 5118,
      "Ġmeeting": 5119,
      "Ġtypically": 5120,
      "lan": 5121,
      "Ġintern": 5122,
      "Ġscar": 5123,
      "pan": 5124,
      "Ġprotective": 5125,
      "Ġslot": 5126,
      "Ġinstruction": 5127,
      "Ġuniverse": 5128,
      "Ġopposite": 5129,
      "aire": 5130,
      "Ġpleasure": 5131,
      "Ġnavig": 5132,
      "Ġsports": 5133,
      "Ġnur": 5134,
      "Ġgirlf": 5135,
      "Ġwars": 5136,
      "ormal": 5137,
      "Ġrushed": 5138,
      "Ġcookbook": 5139,
      "Ġdirector": 5140,
      "Ġmoon": 5141,
      "Ġcow": 5142,
      "Ġgirlfriend": 5143,
      "Ġapplied": 5144,
      "soft": 5145,
      "Ġcin": 5146,
      "Ġfilters": 5147,
      "Ġbound": 5148,
      "Ġbolts": 5149,
      "Ġvision": 5150,
      "Ġusa": 5151,
      "rie": 5152,
      "hesive": 5153,
      "Ġcoat": 5154,
      "Ġconfig": 5155,
      "rical": 5156,
      "print": 5157,
      "Ġsquee": 5158,
      "Ġcartridges": 5159,
      "Ġwake": 5160,
      "Ġblog": 5161,
      "Ġlayer": 5162,
      "Ġsinging": 5163,
      "Ġhen": 5164,
      "Ġtick": 5165,
      "Ġliterary": 5166,
      "Ġcompreh": 5167,
      "Ġacad": 5168,
      "Ġdisk": 5169,
      "Ġtesting": 5170,
      "Ġcompress": 5171,
      "Ġrow": 5172,
      "Ġxl": 5173,
      "Ġremains": 5174,
      "ulate": 5175,
      "ara": 5176,
      "Ġprimary": 5177,
      "Ġages": 5178,
      "Ġflick": 5179,
      "Ġwis": 5180,
      "Ġpian": 5181,
      "Ġresearched": 5182,
      "Ġbind": 5183,
      "fill": 5184,
      "Ġsales": 5185,
      "ulated": 5186,
      "bi": 5187,
      "Ġtrade": 5188,
      "Ġangry": 5189,
      "was": 5190,
      "Ġhide": 5191,
      "Ġkiss": 5192,
      "Ġmemories": 5193,
      "Ġheadphone": 5194,
      "Ġsolo": 5195,
      "Ġindustry": 5196,
      "Ġww": 5197,
      "Ġdecisions": 5198,
      "Ġnuts": 5199,
      "Ġguessing": 5200,
      "Ġsuperb": 5201,
      "Ġtalks": 5202,
      "zy": 5203,
      "imate": 5204,
      "soci": 5205,
      "Ġsurf": 5206,
      "Ġbottles": 5207,
      "inge": 5208,
      "Ġpolitics": 5209,
      "anged": 5210,
      "Ġconnections": 5211,
      "Ġtears": 5212,
      "gend": 5213,
      "Ġbank": 5214,
      "Ġpresents": 5215,
      "ka": 5216,
      "Ġpounds": 5217,
      "ein": 5218,
      "Ġshopping": 5219,
      "Ġassemble": 5220,
      "Ġlb": 5221,
      "ov": 5222,
      "Ġsample": 5223,
      "Ġanth": 5224,
      "Ġacadem": 5225,
      "Ġpushed": 5226,
      "date": 5227,
      "Ġsentences": 5228,
      "Ġproviding": 5229,
      "Ġspect": 5230,
      "Ġtighten": 5231,
      "Ġartists": 5232,
      "Ġallowing": 5233,
      "Ġelastic": 5234,
      "Ġusage": 5235,
      "Ġreminds": 5236,
      "Ġdifficulty": 5237,
      "Ġsleeve": 5238,
      "otic": 5239,
      "Ġtales": 5240,
      "met": 5241,
      "Ġrhy": 5242,
      "Ġsummary": 5243,
      "Ġanalysis": 5244,
      "Ġstereo": 5245,
      "Ġannoyed": 5246,
      "Ġpadding": 5247,
      "Ġsources": 5248,
      "Ġalign": 5249,
      "Ġtex": 5250,
      "Ġthumb": 5251,
      "roll": 5252,
      "icted": 5253,
      "Ġemotion": 5254,
      "Ġhorse": 5255,
      "vision": 5256,
      "Ġpleasant": 5257,
      "Ġschol": 5258,
      "Ġchemical": 5259,
      "Ġcommer": 5260,
      "Ġintelligent": 5261,
      "Ġhall": 5262,
      "unate": 5263,
      "arant": 5264,
      "Ġcontemporary": 5265,
      "Ġinterface": 5266,
      "Ġinspir": 5267,
      "Ġlegend": 5268,
      "Ġmilk": 5269,
      "Ġcompartment": 5270,
      "Ġgloss": 5271,
      "Ġjazz": 5272,
      "Ġthemes": 5273,
      "Ġpoet": 5274,
      "Ġdynam": 5275,
      "Ġreminded": 5276,
      "Ġpeter": 5277,
      "Ġflashlight": 5278,
      "Ġunnecessary": 5279,
      "Ġauthent": 5280,
      "Ġtouching": 5281,
      "Ġthomas": 5282,
      "Ġcostume": 5283,
      "Ġsea": 5284,
      "Ġinformative": 5285,
      "Ġsympath": 5286,
      "Ġcance": 5287,
      "Ġvari": 5288,
      "Ġposted": 5289,
      "Ġmas": 5290,
      "Ġcause": 5291,
      "Ġtalented": 5292,
      "Ġloop": 5293,
      "Ġscary": 5294,
      "Ġlover": 5295,
      "Ġassoci": 5296,
      "Ġhols": 5297,
      "Ġcleaned": 5298,
      "etime": 5299,
      "sey": 5300,
      "Ġheaven": 5301,
      "Ġstorm": 5302,
      "Ġstitching": 5303,
      "ndon": 5304,
      "Ġcushion": 5305,
      "Ġheck": 5306,
      "dr": 5307,
      "Ġcomedy": 5308,
      "Ġtreated": 5309,
      "Ġsticky": 5310,
      "Ġzoom": 5311,
      "Ġloos": 5312,
      "Ġoverwhel": 5313,
      "unction": 5314,
      "cd": 5315,
      "Ġrice": 5316,
      "Ġconfir": 5317,
      "Ġcentral": 5318,
      "Ġcontrast": 5319,
      "Ġune": 5320,
      "Ġbubbles": 5321,
      "Ġriding": 5322,
      "ads": 5323,
      "Ġacceptable": 5324,
      "Ġheavier": 5325,
      "Ġtail": 5326,
      "Ġgig": 5327,
      "Ġletting": 5328,
      "kn": 5329,
      "Ġshallow": 5330,
      "Ġhilar": 5331,
      "Ġrepeat": 5332,
      "Ġestab": 5333,
      "rel": 5334,
      "Ġpurse": 5335,
      "Ġbasket": 5336,
      "Ġancient": 5337,
      "Ġdrinking": 5338,
      "Ġdash": 5339,
      "Ġutter": 5340,
      "stall": 5341,
      "Ġarrive": 5342,
      "house": 5343,
      "Ġconversation": 5344,
      "Ġcovering": 5345,
      "ault": 5346,
      "Ġcrow": 5347,
      "Ġadventures": 5348,
      "Ġdock": 5349,
      "Ġtang": 5350,
      "Ġfunctionality": 5351,
      "Ġrefreshing": 5352,
      "Ġtask": 5353,
      "Ġrig": 5354,
      "Ġparanormal": 5355,
      "using": 5356,
      "Ġprojects": 5357,
      "Ġconstructed": 5358,
      "Ġpatch": 5359,
      "Ġtexture": 5360,
      "Ġsci": 5361,
      "Ġvivid": 5362,
      "cies": 5363,
      "dies": 5364,
      "Ġpushing": 5365,
      "Ġviewing": 5366,
      "Ġtort": 5367,
      "Ġunh": 5368,
      "Ġlasts": 5369,
      "Ġkinds": 5370,
      "Ġgreatly": 5371,
      "Ġfrustration": 5372,
      "Ġfreed": 5373,
      "Ġruined": 5374,
      "Ġspill": 5375,
      "Ġvacation": 5376,
      "Ġliquid": 5377,
      "Ġtodd": 5378,
      "Ġcreates": 5379,
      "Ġincorrect": 5380,
      "Ġentertainment": 5381,
      "iveness": 5382,
      "Ġreact": 5383,
      "Ġdum": 5384,
      "ado": 5385,
      "Ġluc": 5386,
      "Ġmarketing": 5387,
      "Ġapprox": 5388,
      "Ġaim": 5389,
      "Ġcontents": 5390,
      "Ġarmy": 5391,
      "Ġflying": 5392,
      "Ġboat": 5393,
      "Ġplans": 5394,
      "Ġpurple": 5395,
      "ees": 5396,
      "Ġconsistent": 5397,
      "ache": 5398,
      "Ġvaluable": 5399,
      "Ġearn": 5400,
      "Ġteeth": 5401,
      "Ġcycle": 5402,
      "Ġimpl": 5403,
      "Ġauthentic": 5404,
      "Ġmemo": 5405,
      "Ġviews": 5406,
      "Ġank": 5407,
      "Ġfortunately": 5408,
      "Ġsmith": 5409,
      "Ġguarant": 5410,
      "Ġdumb": 5411,
      "Ġexercises": 5412,
      "Ġusers": 5413,
      "Ġfavorites": 5414,
      "Ġunusual": 5415,
      "Ġscientific": 5416,
      "Ġactive": 5417,
      "Ġbothered": 5418,
      "Ġcompos": 5419,
      "Ġunfold": 5420,
      "etch": 5421,
      "Ġachieve": 5422,
      "Ġtedious": 5423,
      "Ġearbuds": 5424,
      "Ġgap": 5425,
      "Ġpurposes": 5426,
      "Ġcircumstances": 5427,
      "esy": 5428,
      "Ġvir": 5429,
      "Ġbuyer": 5430,
      "Ġbackup": 5431,
      "Ġfrag": 5432,
      "Ġrevealed": 5433,
      "Ġtack": 5434,
      "Ġemph": 5435,
      "ugging": 5436,
      "Ġmonster": 5437,
      "Ġgoal": 5438,
      "Ġmental": 5439,
      "Ġgreater": 5440,
      "Ġballs": 5441,
      "Ġprove": 5442,
      "Ġsupposedly": 5443,
      "Ġpouch": 5444,
      "Ġtorn": 5445,
      "Ġalien": 5446,
      "izer": 5447,
      "Ġcass": 5448,
      "Ġfoods": 5449,
      "Ġsilicone": 5450,
      "Ġchicken": 5451,
      "Ġexposed": 5452,
      "Ġtoes": 5453,
      "Ġstrings": 5454,
      "Ġmysteries": 5455,
      "Ġchew": 5456,
      "Ġstun": 5457,
      "anda": 5458,
      "Ġalumin": 5459,
      "Ġlondon": 5460,
      "nda": 5461,
      "ita": 5462,
      "Ġfinan": 5463,
      "Ġguest": 5464,
      "Ġprison": 5465,
      "Ġquir": 5466,
      "Ġanx": 5467,
      "Ġcele": 5468,
      "Ġhost": 5469,
      "Ġhollywood": 5470,
      "Ġmenu": 5471,
      "nat": 5472,
      "Ġattachment": 5473,
      "ns": 5474,
      "Ġmagazine": 5475,
      "vy": 5476,
      "Ġworthless": 5477,
      "Ġexpos": 5478,
      "Ġwel": 5479,
      "Ġretail": 5480,
      "Ġbibl": 5481,
      "vey": 5482,
      "Ġinterpret": 5483,
      "Ġprimarily": 5484,
      "Ġeliz": 5485,
      "Ġstream": 5486,
      "Ġbelong": 5487,
      "Ġnarrator": 5488,
      "Ġadjustment": 5489,
      "Ġtraveling": 5490,
      "ob": 5491,
      "Ġshocked": 5492,
      "Ġinj": 5493,
      "Ġcaut": 5494,
      "gl": 5495,
      "Ġsecondary": 5496,
      "iture": 5497,
      "Ġcapacity": 5498,
      "Ġspoilers": 5499,
      "isy": 5500,
      "Ġcapable": 5501,
      "Ġpainting": 5502,
      "Ġquar": 5503,
      "bell": 5504,
      "Ġplat": 5505,
      "Ġmi": 5506,
      "Ġfellow": 5507,
      "ene": 5508,
      "inter": 5509,
      "Ġgym": 5510,
      "Ġvisible": 5511,
      "ald": 5512,
      "Ġbusy": 5513,
      "Ġedited": 5514,
      "Ġjar": 5515,
      "rier": 5516,
      "Ġdurability": 5517,
      "Ġopens": 5518,
      "Ġchecking": 5519,
      "Ġconditions": 5520,
      "Ġdozen": 5521,
      "Ġfigures": 5522,
      "Ġorganized": 5523,
      "hol": 5524,
      "Ġdies": 5525,
      "ada": 5526,
      "lon": 5527,
      "Ġlifetime": 5528,
      "acle": 5529,
      "Ġconnecting": 5530,
      "lim": 5531,
      "Ġmicrosoft": 5532,
      "Ġloaded": 5533,
      "Ġtroubles": 5534,
      "Ġselection": 5535,
      "imp": 5536,
      "ables": 5537,
      "off": 5538,
      "Ġelectronic": 5539,
      "Ġautomatically": 5540,
      "Ġwrench": 5541,
      "Ġhilarious": 5542,
      "reg": 5543,
      "Ġsticking": 5544,
      "abeth": 5545,
      "iel": 5546,
      "Ġwine": 5547,
      "under": 5548,
      "oty": 5549,
      "Ġoutlet": 5550,
      "Ġsupporting": 5551,
      "Ġuncle": 5552,
      "Ġthrowing": 5553,
      "Ġgrammar": 5554,
      "Ġcomputers": 5555,
      "Ġcelebr": 5556,
      "Ġserial": 5557,
      "Ġnecessarily": 5558,
      "Ġserv": 5559,
      "Ġformula": 5560,
      "Ġflexible": 5561,
      "Ġwolf": 5562,
      "Ġpowered": 5563,
      "Ġhalfway": 5564,
      "Ġlinks": 5565,
      "Ġignore": 5566,
      "Ġholster": 5567,
      "Ġreasonably": 5568,
      "Ġhooks": 5569,
      "Ġadequate": 5570,
      "Ġfallen": 5571,
      "Ġstandards": 5572,
      "Ġrichard": 5573,
      "Ġnik": 5574,
      "Ġrede": 5575,
      "otten": 5576,
      "Ġmatters": 5577,
      "Ġterror": 5578,
      "Ġsubs": 5579,
      "mmer": 5580,
      "Ġzip": 5581,
      "Ġstruggling": 5582,
      "Ġcapture": 5583,
      "Ġwalls": 5584,
      "Ġdragon": 5585,
      "Ġdeals": 5586,
      "great": 5587,
      "sole": 5588,
      "Ġemerg": 5589,
      "Ġmemoir": 5590,
      "Ġemphas": 5591,
      "ras": 5592,
      "Ġdying": 5593,
      "Ġeast": 5594,
      "Ġpurs": 5595,
      "Ġbell": 5596,
      "Ġexplaining": 5597,
      "Ġalco": 5598,
      "Ġchallenging": 5599,
      "Ġneedless": 5600,
      "ora": 5601,
      "Ġaluminum": 5602,
      "Ġhip": 5603,
      "iments": 5604,
      "Ġhaw": 5605,
      "Ġfourth": 5606,
      "Ġfurniture": 5607,
      "Ġmesh": 5608,
      "Ġforces": 5609,
      "ille": 5610,
      "Ġperman": 5611,
      "Ġmountain": 5612,
      "Ġinspired": 5613,
      "Ġtires": 5614,
      "Ġlaid": 5615,
      "Ġspoiler": 5616,
      "inate": 5617,
      "Ġloyal": 5618,
      "Ġbree": 5619,
      "Ġol": 5620,
      "Ġmedio": 5621,
      "Ġtimer": 5622,
      "Ġeager": 5623,
      "Ġcleaner": 5624,
      "Ġwider": 5625,
      "Ġdesired": 5626,
      "Ġaccidentally": 5627,
      "Ġblame": 5628,
      "Ġber": 5629,
      "Ġmillion": 5630,
      "Ġjewel": 5631,
      "Ġthrilled": 5632,
      "Ġdownloaded": 5633,
      "Ġnu": 5634,
      "Ġdebut": 5635,
      "Ġseemingly": 5636,
      "Ġtastes": 5637,
      "Ġtends": 5638,
      "ek": 5639,
      "Ġswitched": 5640,
      "alian": 5641,
      "lines": 5642,
      "Ġdistort": 5643,
      "Ġadvantage": 5644,
      "mart": 5645,
      "Ġdoors": 5646,
      "Ġtelevision": 5647,
      "Ġbolt": 5648,
      "Ġdual": 5649,
      "Ġhappily": 5650,
      "Ġunreal": 5651,
      "Ġrug": 5652,
      "atis": 5653,
      "iles": 5654,
      "Ġindo": 5655,
      "Ġeducation": 5656,
      "Ġburned": 5657,
      "Ġserved": 5658,
      "Ġtemp": 5659,
      "Ġchannels": 5660,
      "Ġinsights": 5661,
      "itech": 5662,
      "hold": 5663,
      "Ġrecommendation": 5664,
      "kable": 5665,
      "Ġinstantly": 5666,
      "Ġtwenty": 5667,
      "Ġsisters": 5668,
      "Ġpublishing": 5669,
      "Ġgenius": 5670,
      "Ġinstant": 5671,
      "Ġmicrophone": 5672,
      "Ġstable": 5673,
      "Ġbird": 5674,
      "Ġhumid": 5675,
      "Ġattitude": 5676,
      "Ġvendor": 5677,
      "Ġkat": 5678,
      "asty": 5679,
      "Ġattraction": 5680,
      "Ġprivate": 5681,
      "urally": 5682,
      "Ġadvance": 5683,
      "Ġlenses": 5684,
      "Ġterribly": 5685,
      "Ġcalif": 5686,
      "Ġsubtle": 5687,
      "Ġvert": 5688,
      "Ġbringing": 5689,
      "Ġoccasional": 5690,
      "Ġapartment": 5691,
      "Ġdepartment": 5692,
      "Ġrolling": 5693,
      "Ġknives": 5694,
      "Ġrelax": 5695,
      "Ġtune": 5696,
      "cur": 5697,
      "down": 5698,
      "Ġhosp": 5699,
      "Ġepic": 5700,
      "Ġcaptiv": 5701,
      "Ġkate": 5702,
      "Ġtons": 5703,
      "Ġbeginner": 5704,
      "Ġnightm": 5705,
      "Ġesp": 5706,
      "Ġassembled": 5707,
      "Ġpicks": 5708,
      "Ġthankfully": 5709,
      "Ġmile": 5710,
      "Ġmagical": 5711,
      "mon": 5712,
      "illa": 5713,
      "Ġcit": 5714,
      "fo": 5715,
      "ena": 5716,
      "Ġbulk": 5717,
      "Ġequally": 5718,
      "Ġdescribing": 5719,
      "Ġprograms": 5720,
      "Ġxbox": 5721,
      "Ġintention": 5722,
      "Ġell": 5723,
      "Ġfreedom": 5724,
      "Ġoem": 5725,
      "Ġlogitech": 5726,
      "Ġtowel": 5727,
      "Ġdarker": 5728,
      "Ġcommercial": 5729,
      "Ġgerm": 5730,
      "Ġrecords": 5731,
      "Ġtan": 5732,
      "Ġshaped": 5733,
      "iled": 5734,
      "Ġnose": 5735,
      "Ġbrew": 5736,
      "Ġboun": 5737,
      "Ġfinishing": 5738,
      "Ġincons": 5739,
      "Ġcaliforn": 5740,
      "Ġadhesive": 5741,
      "Ġlean": 5742,
      "Ġtact": 5743,
      "raft": 5744,
      "Ġcharges": 5745,
      "Ġclothing": 5746,
      "Ġviny": 5747,
      "Ġtro": 5748,
      "Ġsof": 5749,
      "Ġchallenges": 5750,
      "bby": 5751,
      "aced": 5752,
      "Ġfict": 5753,
      "ulting": 5754,
      "Ġskept": 5755,
      "Ġincrease": 5756,
      "oooo": 5757,
      "Ġpatterns": 5758,
      "Ġwon": 5759,
      "Ġveget": 5760,
      "Ġfeedback": 5761,
      "Ġlunch": 5762,
      "Ġultimate": 5763,
      "Ġreput": 5764,
      "Ġbang": 5765,
      "Ġsolved": 5766,
      "Ġpublish": 5767,
      "Ġfairy": 5768,
      "Ġtrips": 5769,
      "Ġbracket": 5770,
      "Ġconsequ": 5771,
      "Ġlovers": 5772,
      "Ġsurely": 5773,
      "Ġyoga": 5774,
      "Ġpens": 5775,
      "gging": 5776,
      "Ġaug": 5777,
      "Ġdele": 5778,
      "Ġcharm": 5779,
      "Ġadapt": 5780,
      "Ġinterior": 5781,
      "oration": 5782,
      "Ġhence": 5783,
      "Ġunkn": 5784,
      "Ġvictor": 5785,
      "Ġhundreds": 5786,
      "Ġsinger": 5787,
      "ford": 5788,
      "Ġrely": 5789,
      "Ġpic": 5790,
      "Ġunderstood": 5791,
      "Ġsag": 5792,
      "eral": 5793,
      "Ġsticker": 5794,
      "Ġburning": 5795,
      "Ġrecordings": 5796,
      "Ġtire": 5797,
      "Ġgranted": 5798,
      "Ġhousing": 5799,
      "Ġmedic": 5800,
      "arian": 5801,
      "ifying": 5802,
      "Ġwears": 5803,
      "Ġvocal": 5804,
      "ban": 5805,
      "Ġlem": 5806,
      "lor": 5807,
      "Ġcarb": 5808,
      "Ġattempted": 5809,
      "Ġbare": 5810,
      "enced": 5811,
      "Ġpiano": 5812,
      "Ġalpha": 5813,
      "Ġdisgust": 5814,
      "Ġdriven": 5815,
      "Ġaa": 5816,
      "Ġelim": 5817,
      "Ġfav": 5818,
      "Ġba": 5819,
      "Ġcriticism": 5820,
      "Ġoutdoor": 5821,
      "Ġjon": 5822,
      "Ġtranslation": 5823,
      "Ġnightmare": 5824,
      "Ġwhatso": 5825,
      "Ġnail": 5826,
      "Ġconcer": 5827,
      "Ġdrawing": 5828,
      "Ġchos": 5829,
      "Ġdinner": 5830,
      "Ġgrowth": 5831,
      "Ġgau": 5832,
      "Ġregister": 5833,
      "Ġprotected": 5834,
      "Ġcrisp": 5835,
      "Ġvinyl": 5836,
      "Ġscope": 5837,
      "Ġoct": 5838,
      "Ġtraged": 5839,
      "outs": 5840,
      "Ġrecharge": 5841,
      "Ġelizabeth": 5842,
      "Ġwonderfully": 5843,
      "Ġprinci": 5844,
      "Ġsubstant": 5845,
      "Ġwhatsoever": 5846,
      "Ġcommand": 5847,
      "rated": 5848,
      "lies": 5849,
      "Ġbatch": 5850,
      "cover": 5851,
      "Ġcalifornia": 5852,
      "ship": 5853,
      "Ġrecall": 5854,
      "Ġpra": 5855,
      "Ġdesktop": 5856,
      "coming": 5857,
      "Ġresource": 5858,
      "Ġdropping": 5859,
      "Ġintrigued": 5860,
      "Ġsne": 5861,
      "Ġsevere": 5862,
      "Ġgrain": 5863,
      "Ġcooler": 5864,
      "Ġamericans": 5865,
      "Ġfacing": 5866,
      "Ġtaught": 5867,
      "Ġvalve": 5868,
      "Ġassign": 5869,
      "Ġinvestment": 5870,
      "gie": 5871,
      "Ġreco": 5872,
      "Ġnational": 5873,
      "Ġchosen": 5874,
      "Ġadditionally": 5875,
      "Ġful": 5876,
      "Ġtransm": 5877,
      "Ġpulls": 5878,
      "Ġswing": 5879,
      "uous": 5880,
      "Ġsounding": 5881,
      "now": 5882,
      "Ġplane": 5883,
      "Ġcake": 5884,
      "Ġner": 5885,
      "Ġextensive": 5886,
      "Ġpresentation": 5887,
      "Ġcompass": 5888,
      "itation": 5889,
      "Ġactivities": 5890,
      "ener": 5891,
      "Ġpor": 5892,
      "Ġmanagement": 5893,
      "Ġnobody": 5894,
      "Ġpartner": 5895,
      "case": 5896,
      "Ġbuff": 5897,
      "Ġbubble": 5898,
      "Ġnative": 5899,
      "Ġidi": 5900,
      "Ġextension": 5901,
      "Ġassumed": 5902,
      "Ġheroes": 5903,
      "Ġpromised": 5904,
      "sm": 5905,
      "Ġlisting": 5906,
      "Ġmarch": 5907,
      "Ġshirts": 5908,
      "Ġfruit": 5909,
      "cet": 5910,
      "Ġdecades": 5911,
      "Ġconcert": 5912,
      "Ġequal": 5913,
      "books": 5914,
      "Ġefforts": 5915,
      "Ġmoist": 5916,
      "Ġunited": 5917,
      "Ġfluff": 5918,
      "gant": 5919,
      "Ġflav": 5920,
      "Ġoperation": 5921,
      "Ġvirtually": 5922,
      "Ġagent": 5923,
      "Ġcontained": 5924,
      "Ġcub": 5925,
      "cend": 5926,
      "Ġbeats": 5927,
      "Ġinconsist": 5928,
      "Ġcamping": 5929,
      "iently": 5930,
      "Ġtrim": 5931,
      "Ġstatic": 5932,
      "Ġmediocre": 5933,
      "Ġmoral": 5934,
      "Ġmartin": 5935,
      "teen": 5936,
      "Ġsher": 5937,
      "Ġteenage": 5938,
      "Ġupside": 5939,
      "Ġaid": 5940,
      "Ġdelicious": 5941,
      "Ġwound": 5942,
      "Ġjoint": 5943,
      "Ġgroups": 5944,
      "track": 5945,
      "Ġoffering": 5946,
      "word": 5947,
      "Ġtransport": 5948,
      "cho": 5949,
      "Ġnovella": 5950,
      "losure": 5951,
      "Ġfabulous": 5952,
      "Ġpuzzle": 5953,
      "Ġtooth": 5954,
      "Ġkr": 5955,
      "Ġblues": 5956,
      "Ġhunter": 5957,
      "natural": 5958,
      "Ġtrial": 5959,
      "Ġelectronics": 5960,
      "Ġconver": 5961,
      "Ġmanages": 5962,
      "Ġtoler": 5963,
      "Ġreached": 5964,
      "Ġplots": 5965,
      "Ġsen": 5966,
      "Ġresolved": 5967,
      "Ġhaun": 5968,
      "Ġattend": 5969,
      "Ġterrific": 5970,
      "Ġshred": 5971,
      "Ġinspect": 5972,
      "Ġcrush": 5973,
      "Ġsarah": 5974,
      "Ġsmoothly": 5975,
      "Ġrise": 5976,
      "Ġinse": 5977,
      "pson": 5978,
      "Ġacqu": 5979,
      "olves": 5980,
      "Ġorch": 5981,
      "Ġharr": 5982,
      "Ġder": 5983,
      "Ġdifferences": 5984,
      "Ġconsistently": 5985,
      "ette": 5986,
      "Ġplants": 5987,
      "Ġdrawer": 5988,
      "Ġrevolution": 5989,
      "Ġmanip": 5990,
      "Ġshorts": 5991,
      "Ġheavily": 5992,
      "Ġwat": 5993,
      "Ġwitness": 5994,
      "Ġroller": 5995,
      "ura": 5996,
      "Ġcheese": 5997,
      "Ġtitles": 5998,
      "Ġprofessor": 5999,
      "Ġcage": 6000,
      "Ġdemonstr": 6001,
      "Ġdiscs": 6002,
      "Ġenh": 6003,
      "Ġembarr": 6004,
      "Ġpowder": 6005,
      "Ġsatisfact": 6006,
      "Ġdislike": 6007,
      "Ġpoly": 6008,
      "llers": 6009,
      "Ġsuggestions": 6010,
      "Ġwired": 6011,
      "Ġbrut": 6012,
      "Ġadvertising": 6013,
      "Ġgrass": 6014,
      "Ġscratched": 6015,
      "Ġdistracting": 6016,
      "Ġriver": 6017,
      "Ġdvds": 6018,
      "Ġdownside": 6019,
      "Ġunw": 6020,
      "Ġacts": 6021,
      "Ġrender": 6022,
      "Ġintent": 6023,
      "Ġsleeves": 6024,
      "Ġirritating": 6025,
      "dri": 6026,
      "Ġplugs": 6027,
      "Ġidentical": 6028,
      "Ġchip": 6029,
      "Ġcoverage": 6030,
      "Ġcorpor": 6031,
      "Ġleader": 6032,
      "Ġphilosophy": 6033,
      "Ġbump": 6034,
      "reek": 6035,
      "Ġprogramming": 6036,
      "Ġcharming": 6037,
      "Ġmerely": 6038,
      "uality": 6039,
      "Ġlocked": 6040,
      "Ġsubt": 6041,
      "ptive": 6042,
      "Ġwarned": 6043,
      "atical": 6044,
      "Ġdimensional": 6045,
      "Ġmanually": 6046,
      "ta": 6047,
      "Ġflesh": 6048,
      "Ġcopies": 6049,
      "Ġescap": 6050,
      "Ġconvinced": 6051,
      "Ġcds": 6052,
      "Ġgiant": 6053,
      "Ġstead": 6054,
      "Ġhandled": 6055,
      "Ġcabinet": 6056,
      "Ġstyles": 6057,
      "Ġowners": 6058,
      "Ġrule": 6059,
      "Ġmacbook": 6060,
      "Ġsouthern": 6061,
      "uation": 6062,
      "Ġdesigns": 6063,
      "Ġna": 6064,
      "Ġbin": 6065,
      "bl": 6066,
      "Ġstom": 6067,
      "Ġpointed": 6068,
      "Ġfarm": 6069,
      "Ġgang": 6070,
      "Ġportrayed": 6071,
      "Ġlg": 6072,
      "Ġlatch": 6073,
      "Ġdisturbing": 6074,
      "Ġpul": 6075,
      "Ġregularly": 6076,
      "Ġredeem": 6077,
      "usi": 6078,
      "Ġgab": 6079,
      "Ġharsh": 6080,
      "Ġpreferred": 6081,
      "Ġmature": 6082,
      "Ġkidn": 6083,
      "Ġshake": 6084,
      "Ġsignificantly": 6085,
      "laim": 6086,
      "Ġfinancial": 6087,
      "Ġseams": 6088,
      "Ġconfidence": 6089,
      "Ġgut": 6090,
      "Ġsteal": 6091,
      "craft": 6092,
      "Ġtalked": 6093,
      "Ġindian": 6094,
      "Ġcoating": 6095,
      "Ġconfident": 6096,
      "apers": 6097,
      "Ġthinner": 6098,
      "Ġstereoty": 6099,
      "Ġglued": 6100,
      "Ġcrew": 6101,
      "Ġscenar": 6102,
      "Ġevening": 6103,
      "uate": 6104,
      "Ġhanded": 6105,
      "Ġperformed": 6106,
      "Ġgeneric": 6107,
      "Ġdemo": 6108,
      "Ġteens": 6109,
      "Ġvoices": 6110,
      "Ġvast": 6111,
      "Ġbust": 6112,
      "Ġaccessories": 6113,
      "Ġsecurely": 6114,
      "Ġstack": 6115,
      "Ġcommentary": 6116,
      "aks": 6117,
      "Ġopposed": 6118,
      "Ġsliding": 6119,
      "Ġpacks": 6120,
      "Ġimportantly": 6121,
      "Ġserving": 6122,
      "Ġwalked": 6123,
      "Ġbiography": 6124,
      "galley": 6125,
      "Ġdramatic": 6126,
      "Ġstaying": 6127,
      "Ġtherm": 6128,
      "Ġjuice": 6129,
      "Ġreadable": 6130,
      "Ġquotes": 6131,
      "Ġovercome": 6132,
      "enom": 6133,
      "Ġrepeatedly": 6134,
      "Ġjudge": 6135,
      "Ġdrawback": 6136,
      "ference": 6137,
      "Ġenthusi": 6138,
      "Ġangst": 6139,
      "Ġpole": 6140,
      "Ġslides": 6141,
      "aughters": 6142,
      "Ġoperate": 6143,
      "Ġembarrass": 6144,
      "rain": 6145,
      "Ġturner": 6146,
      "stic": 6147,
      "Ġfilling": 6148,
      "Ġtreats": 6149,
      "Ġstudies": 6150,
      "usive": 6151,
      "Ġpressed": 6152,
      "Ġstoryte": 6153,
      "Ġunusable": 6154,
      "Ġmethods": 6155,
      "Ġflap": 6156,
      "Ġtied": 6157,
      "attered": 6158,
      "Ġpainted": 6159,
      "nday": 6160,
      "Ġds": 6161,
      "Ġwig": 6162,
      "Ġnetgalley": 6163,
      "Ġshared": 6164,
      "Ġwisdom": 6165,
      "Ġotter": 6166,
      "Ġperformances": 6167,
      "ola": 6168,
      "Ġentry": 6169,
      "Ġlearns": 6170,
      "Ġyouth": 6171,
      "Ġmessages": 6172,
      "Ġbacking": 6173,
      "Ġfictional": 6174,
      "Ġlip": 6175,
      "Ġneeding": 6176,
      "itors": 6177,
      "Ġrandomly": 6178,
      "mother": 6179,
      "Ġunknown": 6180,
      "Ġaband": 6181,
      "Ġsuffering": 6182,
      "Ġcomponents": 6183,
      "Ġjobs": 6184,
      "da": 6185,
      "Ġcomfortably": 6186,
      "asonic": 6187,
      "Ġvolt": 6188,
      "Ġclarity": 6189,
      "Ġforgotten": 6190,
      "achel": 6191,
      "Ġrelevant": 6192,
      "Ġprotectors": 6193,
      "Ġamazed": 6194,
      "Ġelectrical": 6195,
      "Ġliking": 6196,
      "Ġfocuses": 6197,
      "Ġintu": 6198,
      "Ġzombie": 6199,
      "Ġexcit": 6200,
      "Ġgh": 6201,
      "Ġcompliment": 6202,
      "Ġspanish": 6203,
      "Ġindex": 6204,
      "Ġwil": 6205,
      "Ġsealed": 6206,
      "Ġliner": 6207,
      "Ġrescue": 6208,
      "Ġdisney": 6209,
      "Ġsnapped": 6210,
      "Ġouts": 6211,
      "Ġcolorful": 6212,
      "Ġrevel": 6213,
      "Ġdedicated": 6214,
      "Ġreven": 6215,
      "Ġsubstance": 6216,
      "Ġswitching": 6217,
      "Ġharn": 6218,
      "washer": 6219,
      "agers": 6220,
      "Ġmobile": 6221,
      "Ġchic": 6222,
      "Ġali": 6223,
      "Ġmcc": 6224,
      "Ġsmells": 6225,
      "Ġlaughing": 6226,
      "Ġwatches": 6227,
      "Ġcourage": 6228,
      "Ġmexic": 6229,
      "Ġshift": 6230,
      "Ġcircle": 6231,
      "Ġpopped": 6232,
      "Ġtouched": 6233,
      "Ġbalanced": 6234,
      "Ġhighest": 6235,
      "Ġsharing": 6236,
      "Ġplanned": 6237,
      "Ġrestaur": 6238,
      "Ġbugs": 6239,
      "Ġsoundtrack": 6240,
      "Ġlcd": 6241,
      "Ġhospital": 6242,
      "icy": 6243,
      "Ġfulfill": 6244,
      "Ġlifest": 6245,
      "Ġinfer": 6246,
      "angle": 6247,
      "xture": 6248,
      "Ġdried": 6249,
      "ano": 6250,
      "minal": 6251,
      "Ġom": 6252,
      "ril": 6253,
      "Ġdishwasher": 6254,
      "Ġhenry": 6255,
      "Ġreaction": 6256,
      "Ġmanufacturing": 6257,
      "encies": 6258,
      "Ġjess": 6259,
      "Ġsupple": 6260,
      "Ġtexas": 6261,
      "Ġss": 6262,
      "Ġmemorable": 6263,
      "Ġcaps": 6264,
      "Ġdisag": 6265,
      "Ġmaxim": 6266,
      "pro": 6267,
      "Ġaust": 6268,
      "Ġsett": 6269,
      "Ġtoile": 6270,
      "Ġwooden": 6271,
      "Ġtad": 6272,
      "Ġdeveloping": 6273,
      "Ġdise": 6274,
      "Ġodor": 6275,
      "eg": 6276,
      "ida": 6277,
      "Ġactivity": 6278,
      "Ġpractically": 6279,
      "fy": 6280,
      "Ġhonor": 6281,
      "Ġhoney": 6282,
      "Ġobserv": 6283,
      "Ġremaining": 6284,
      "Ġsubm": 6285,
      "Ġborder": 6286,
      "Ġsym": 6287,
      "Ġax": 6288,
      "Ġflawed": 6289,
      "Ġnaturally": 6290,
      "Ġengaged": 6291,
      "Ġsmile": 6292,
      "kins": 6293,
      "Ġchase": 6294,
      "Ġshield": 6295,
      "Ġtherap": 6296,
      "imately": 6297,
      "Ġjackson": 6298,
      "Ġprovo": 6299,
      "Ġcombined": 6300,
      "ront": 6301,
      "Ġinfluence": 6302,
      "ago": 6303,
      "Ġtrigger": 6304,
      "Ġhoriz": 6305,
      "Ġalert": 6306,
      "Ġofficial": 6307,
      "Ġtrag": 6308,
      "Ġlic": 6309,
      "Ġcoloring": 6310,
      "Ġattempting": 6311,
      "field": 6312,
      "Ġraz": 6313,
      "unky": 6314,
      "Ġsync": 6315,
      "Ġexcitement": 6316,
      "Ġdell": 6317,
      "Ġharness": 6318,
      "Ġshadow": 6319,
      "Ġhandling": 6320,
      "Ġprecise": 6321,
      "Ġexisting": 6322,
      "Ġdiscounted": 6323,
      "Ġbelieves": 6324,
      "cul": 6325,
      "Ġatmos": 6326,
      "Ġprincess": 6327,
      "Ġidentify": 6328,
      "Ġlag": 6329,
      "Ġack": 6330,
      "Ġorganization": 6331,
      "Ġenemy": 6332,
      "Ġpleasantly": 6333,
      "Ġvague": 6334,
      "ech": 6335,
      "Ġforgot": 6336,
      "Ġstylus": 6337,
      "Ġindependent": 6338,
      "Ġleaking": 6339,
      "Ġbridge": 6340,
      "Ġaccomplish": 6341,
      "Ġath": 6342,
      "Ġsemi": 6343,
      "Ġhitting": 6344,
      "ilation": 6345,
      "Ġcale": 6346,
      "Ġuniversal": 6347,
      "Ġcandy": 6348,
      "Ġstrain": 6349,
      "Ġprince": 6350,
      "Ġsurvival": 6351,
      "Ġemotionally": 6352,
      "Ġgolden": 6353,
      "Ġunfortunate": 6354,
      "Ġgifts": 6355,
      "Ġdemand": 6356,
      "Ġdimensions": 6357,
      "Ġlatter": 6358,
      "Ġtightly": 6359,
      "Ġresources": 6360,
      "Ġseek": 6361,
      "Ġloses": 6362,
      "Ġordinary": 6363,
      "Ġstraw": 6364,
      "Ġbrace": 6365,
      "Ġaccessible": 6366,
      "Ġmagnetic": 6367,
      "Ġjones": 6368,
      "Ġincon": 6369,
      "Ġupdates": 6370,
      "Ġrefill": 6371,
      "Ġcombat": 6372,
      "Ġbarb": 6373,
      "Ġcontract": 6374,
      "Ġabandon": 6375,
      "Ġseeking": 6376,
      "loved": 6377,
      "works": 6378,
      "Ġinspiring": 6379,
      "Ġtragedy": 6380,
      "Ġexperiment": 6381,
      "Ġtripod": 6382,
      "Ġlogo": 6383,
      "Ġflor": 6384,
      "Ġcrystal": 6385,
      "Ġindividuals": 6386,
      "Ġlining": 6387,
      "ashed": 6388,
      "Ġlegal": 6389,
      "Ġchrome": 6390,
      "Ġvillain": 6391,
      "Ġgather": 6392,
      "Ġexplanations": 6393,
      "Ġoptim": 6394,
      "Ġhappiness": 6395,
      "Ġraise": 6396,
      "Ġaccounts": 6397,
      "Ġdaughters": 6398,
      "Ġpoetry": 6399,
      "Ġjeff": 6400,
      "haust": 6401,
      "Ġasus": 6402,
      "Ġcole": 6403,
      "Ġprices": 6404,
      "iously": 6405,
      "Ġusable": 6406,
      "Ġnotch": 6407,
      "Ġdeserve": 6408,
      "Ġmike": 6409,
      "rate": 6410,
      "nes": 6411,
      "Ġsolar": 6412,
      "Ġspends": 6413,
      "Ġlists": 6414,
      "Ġcorn": 6415,
      "Ġdivor": 6416,
      "Ġdisaster": 6417,
      "Ġfate": 6418,
      "Ġprofile": 6419,
      "Ġfancy": 6420,
      "Ġze": 6421,
      "ham": 6422,
      "Ġagre": 6423,
      "Ġhunt": 6424,
      "Ġtypos": 6425,
      "Ġbirds": 6426,
      "Ġfaucet": 6427,
      "Ġresistance": 6428,
      "Ġwink": 6429,
      "Ġheater": 6430,
      "Ġappealing": 6431,
      "Ġbrows": 6432,
      "Ġglove": 6433,
      "Ġbattles": 6434,
      "Ġpov": 6435,
      "Ġexhaust": 6436,
      "Ġcloset": 6437,
      "Ġgarmin": 6438,
      "Ġforeign": 6439,
      "Ġbay": 6440,
      "Ġunrealistic": 6441,
      "Ġpregnant": 6442,
      "Ġcancer": 6443,
      "Ġmort": 6444,
      "Ġgel": 6445,
      "Ġdc": 6446,
      "Ġtrap": 6447,
      "atory": 6448,
      "Ġcoin": 6449,
      "Ġadorable": 6450,
      "Ġgauge": 6451,
      "Ġintrigue": 6452,
      "Ġbush": 6453,
      "Ġcatholic": 6454,
      "afe": 6455,
      "Ġsigns": 6456,
      "Ġinformed": 6457,
      "Ġpatience": 6458,
      "Ġcords": 6459,
      "Ġcave": 6460,
      "Ġresid": 6461,
      "Ġcous": 6462,
      "Ġdestroyed": 6463,
      "Ġpacking": 6464,
      "uri": 6465,
      "ester": 6466,
      "Ġfat": 6467,
      "Ġmicrow": 6468,
      "Ġlandsc": 6469,
      "Ġexplore": 6470,
      "Ġblown": 6471,
      "inger": 6472,
      "Ġbasics": 6473,
      "Ġintellect": 6474,
      "Ġadvise": 6475,
      "Ġadjusted": 6476,
      "Ġsubjects": 6477,
      "Ġimportance": 6478,
      "Ġwick": 6479,
      "Ġserves": 6480,
      "atable": 6481,
      "ifier": 6482,
      "Ġrebo": 6483,
      "Ġgross": 6484,
      "Ġanybody": 6485,
      "Ġpuppy": 6486,
      "Ġarrang": 6487,
      "Ġcarried": 6488,
      "Ġemailed": 6489,
      "function": 6490,
      "ils": 6491,
      "Ġclosely": 6492,
      "Ġconversations": 6493,
      "Ġmask": 6494,
      "Ġoverlook": 6495,
      "Ġslots": 6496,
      "Ġleaks": 6497,
      "Ġhealing": 6498,
      "bits": 6499,
      "Ġlaser": 6500,
      "Ġactor": 6501,
      "Ġsword": 6502,
      "Ġshade": 6503,
      "Ġbob": 6504,
      "Ġalter": 6505,
      "Ġcultural": 6506,
      "Ġkay": 6507,
      "Ġflag": 6508,
      "Ġrab": 6509,
      "Ġwalks": 6510,
      "Ġlikable": 6511,
      "Ġaugust": 6512,
      "Ġmeal": 6513,
      "Ġsteve": 6514,
      "Ġmarry": 6515,
      "nders": 6516,
      "Ġjumping": 6517,
      "Ġvalues": 6518,
      "Ġcher": 6519,
      "Ġnope": 6520,
      "Ġlau": 6521,
      "Ġdifferently": 6522,
      "Ġholy": 6523,
      "Ġsmoke": 6524,
      "Ġdrugs": 6525,
      "Ġadam": 6526,
      "Ġworthwhile": 6527,
      "Ġanne": 6528,
      "Ġdistinct": 6529,
      "Ġsites": 6530,
      "Ġstap": 6531,
      "Ġreduced": 6532,
      "Ġhiking": 6533,
      "Ġcentered": 6534,
      "boy": 6535,
      "ums": 6536,
      "Ġcreepy": 6537,
      "Ġtempt": 6538,
      "Ġclosing": 6539,
      "Ġanyways": 6540,
      "Ġbrightness": 6541,
      "Ġprepare": 6542,
      "Ġyr": 6543,
      "Ġfaulty": 6544,
      "Ġprepar": 6545,
      "Ġbitter": 6546,
      "Ġtuck": 6547,
      "Ġdelightful": 6548,
      "Ġbrook": 6549,
      "Ġmarvel": 6550,
      "Ġskeptical": 6551,
      "Ġholiday": 6552,
      "Ġsuitable": 6553,
      "Ġfaces": 6554,
      "Ġgrinder": 6555,
      "Ġchristians": 6556,
      "lets": 6557,
      "Ġinstrument": 6558,
      "Ġmassive": 6559,
      "Ġconscious": 6560,
      "Ġbudd": 6561,
      "men": 6562,
      "Ġcaptured": 6563,
      "Ġclue": 6564,
      "Ġinterviews": 6565,
      "Ġgem": 6566,
      "Ġuk": 6567,
      "Ġmug": 6568,
      "Ġorchest": 6569,
      "urb": 6570,
      "Ġassuming": 6571,
      "Ġconsumer": 6572,
      "ooper": 6573,
      "Ġsurrounding": 6574,
      "Ġpanasonic": 6575,
      "Ġconcent": 6576,
      "Ġwitty": 6577,
      "Ġcaring": 6578,
      "Ġintelligence": 6579,
      "ceived": 6580,
      "Ġquarter": 6581,
      "Ġdrew": 6582,
      "force": 6583,
      "Ġhumorous": 6584,
      "Ġtwisted": 6585,
      "Ġstatus": 6586,
      "Ġchuck": 6587,
      "Ġphotography": 6588,
      "die": 6589,
      "Ġsorts": 6590,
      "Ġreception": 6591,
      "Ġbiz": 6592,
      "Ġproduc": 6593,
      "Ġinternational": 6594,
      "ders": 6595,
      "Ġchips": 6596,
      "Ġeverybody": 6597,
      "Ġluke": 6598,
      "Ġquant": 6599,
      "Ġresponsible": 6600,
      "Ġtheater": 6601,
      "Ġmate": 6602,
      "Ġlan": 6603,
      "Ġhotel": 6604,
      "itz": 6605,
      "Ġrat": 6606,
      "Ġvampires": 6607,
      "Ġlocks": 6608,
      "Ġuneven": 6609,
      "theless": 6610,
      "istics": 6611,
      "wo": 6612,
      "Ġtoilet": 6613,
      "atisf": 6614,
      "Ġties": 6615,
      "Ġjen": 6616,
      "Ġnasty": 6617,
      "Ġalcohol": 6618,
      "Ġbiblical": 6619,
      "Ġruin": 6620,
      "Ġisol": 6621,
      "Ġphenom": 6622,
      "Ġnons": 6623,
      "Ġjune": 6624,
      "Ġthickness": 6625,
      "Ġlocking": 6626,
      "Ġpins": 6627,
      "sters": 6628,
      "Ġapplications": 6629,
      "Ġmarked": 6630,
      "Ġtrend": 6631,
      "Ġflush": 6632,
      "Ġlazy": 6633,
      "vis": 6634,
      "fall": 6635,
      "lined": 6636,
      "Ġenjoys": 6637,
      "Ġevolution": 6638,
      "Ġborrow": 6639,
      "Ġsymb": 6640,
      "Ġclasses": 6641,
      "Ġunhappy": 6642,
      "Ġrussian": 6643,
      "Ġexcuse": 6644,
      "athers": 6645,
      "Ġladies": 6646,
      "Ġbene": 6647,
      "Ġidentity": 6648,
      "Ġpassing": 6649,
      "Ġpi": 6650,
      "Ġshelves": 6651,
      "zzy": 6652,
      "Ġstatement": 6653,
      "Ġspy": 6654,
      "Ġcarol": 6655,
      "rete": 6656,
      "Ġrestart": 6657,
      "Ġlifestyle": 6658,
      "Ġpix": 6659,
      "Ġbuds": 6660,
      "Ġobl": 6661,
      "Ġbun": 6662,
      "Ġcurtain": 6663,
      "Ġshiny": 6664,
      "Ġsched": 6665,
      "icide": 6666,
      "Ġnevertheless": 6667,
      "vent": 6668,
      "Ġconcerns": 6669,
      "Ġhappier": 6670,
      "Ġchris": 6671,
      "Ġpressing": 6672,
      "Ġrevenge": 6673,
      "list": 6674,
      "Ġacknow": 6675,
      "Ġteenager": 6676,
      "Ġapril": 6677,
      "berry": 6678,
      "Ġie": 6679,
      "Ġfaced": 6680,
      "Ġfragile": 6681,
      "Ġhay": 6682,
      "Ġdestruct": 6683,
      "Ġmachines": 6684,
      "Ġhumanity": 6685,
      "Ġtyping": 6686,
      "Ġreviewing": 6687,
      "Ġwelcome": 6688,
      "elle": 6689,
      "utor": 6690,
      "Ġsupernatural": 6691,
      "Ġdelivers": 6692,
      "spe": 6693,
      "Ġdys": 6694,
      "Ġtops": 6695,
      "agger": 6696,
      "Ġfloors": 6697,
      "Ġovernight": 6698,
      "Ġwilliam": 6699,
      "Ġpig": 6700,
      "Ġdistrib": 6701,
      "Ġthousands": 6702,
      "Ġscrew": 6703,
      "Ġpepper": 6704,
      "Ġgrate": 6705,
      "Ġdissap": 6706,
      "vi": 6707,
      "ateur": 6708,
      "Ġlame": 6709,
      "ole": 6710,
      "Ġstephen": 6711,
      "Ġultra": 6712,
      "Ġpassages": 6713,
      "Ġbeliefs": 6714,
      "Ġconserv": 6715,
      "Ġplatform": 6716,
      "icit": 6717,
      "eness": 6718,
      "Ġbrad": 6719,
      "Ġtabs": 6720,
      "Ġuniversity": 6721,
      "Ġrocks": 6722,
      "Ġroman": 6723,
      "Ġscared": 6724,
      "Ġdescriptive": 6725,
      "Ġsung": 6726,
      "Ġdiameter": 6727,
      "Ġmut": 6728,
      "Ġsore": 6729,
      "Ġopera": 6730,
      "Ġsurprises": 6731,
      "Ġstro": 6732,
      "ki": 6733,
      "Ġwiring": 6734,
      "Ġcliffh": 6735,
      "Ġdecember": 6736,
      "Ġlastly": 6737,
      "pa": 6738,
      "Ġdryer": 6739,
      "Ġinac": 6740,
      "asses": 6741,
      "Ġspoke": 6742,
      "Ġanger": 6743,
      "Ġtunes": 6744,
      "Ġgoodness": 6745,
      "inist": 6746,
      "Ġblocks": 6747,
      "Ġviolent": 6748,
      "Ġdiamond": 6749,
      "Ġencourage": 6750,
      "Ġinvolving": 6751,
      "Ġwalmart": 6752,
      "Ġtin": 6753,
      "Ġbetray": 6754,
      "rived": 6755,
      "oms": 6756,
      "Ġendless": 6757,
      "Ġguns": 6758,
      "Ġratings": 6759,
      "Ġensure": 6760,
      "Ġguid": 6761,
      "rep": 6762,
      "fit": 6763,
      "Ġlum": 6764,
      "Ġgroo": 6765,
      "Ġcommit": 6766,
      "Ġlocations": 6767,
      "Ġwasher": 6768,
      "Ġbrick": 6769,
      "Ġblink": 6770,
      "Ġamateur": 6771,
      "Ġitalian": 6772,
      "Ġseg": 6773,
      "Ġunlock": 6774,
      "Ġinconven": 6775,
      "Ġpaperback": 6776,
      "Ġshoulders": 6777,
      "Ġasks": 6778,
      "Ġcategory": 6779,
      "Ġfolded": 6780,
      "Ġsolutions": 6781,
      "Ġcomprehensive": 6782,
      "Ġinnocent": 6783,
      "Ġdun": 6784,
      "Ġwand": 6785,
      "Ġimper": 6786,
      "Ġcares": 6787,
      "Ġstink": 6788,
      "Ġlabels": 6789,
      "Ġstruggled": 6790,
      "Ġgrandmother": 6791,
      "lers": 6792,
      "Ġpum": 6793,
      "Ġshine": 6794,
      "Ġjewish": 6795,
      "Ġeld": 6796,
      "Ġtechnique": 6797,
      "Ġhallow": 6798,
      "Ġcrappy": 6799,
      "Ġnine": 6800,
      "asse": 6801,
      "angers": 6802,
      "Ġnights": 6803,
      "Ġvolumes": 6804,
      "Ġstomach": 6805,
      "Ġroutine": 6806,
      "oster": 6807,
      "Ġphotographs": 6808,
      "Ġjudg": 6809,
      "Ġpersonalities": 6810,
      "Ġsuggests": 6811,
      "Ġcaptain": 6812,
      "Ġsomebody": 6813,
      "Ġstove": 6814,
      "Ġtragic": 6815,
      "Ġblah": 6816,
      "Ġworlds": 6817,
      "Ġow": 6818,
      "Ġlind": 6819,
      "Ġpit": 6820,
      "Ġaccuracy": 6821,
      "Ġresistant": 6822,
      "Ġartwork": 6823,
      "Ġsum": 6824,
      "lyn": 6825,
      "Ġankle": 6826,
      "Ġcaution": 6827,
      "Ġstickers": 6828,
      "acing": 6829,
      "Ġreleases": 6830,
      "Ġnation": 6831,
      "Ġpremium": 6832,
      "isa": 6833,
      "Ġguides": 6834,
      "Ġanalog": 6835,
      "rick": 6836,
      "Ġorganic": 6837,
      "Ġincreasing": 6838,
      "Ġryan": 6839,
      "Ġforms": 6840,
      "Ġdishes": 6841,
      "Ġtwin": 6842,
      "Ġko": 6843,
      "Ġtoast": 6844,
      "Ġclamp": 6845,
      "Ġwoods": 6846,
      "Ġjos": 6847,
      "Ġoverview": 6848,
      "Ġattracted": 6849,
      "Ġlikeable": 6850,
      "Ġfiller": 6851,
      "Ġadjusting": 6852,
      "Ġsubscri": 6853,
      "che": 6854,
      "Ġdelay": 6855,
      "Ġphysically": 6856,
      "Ġboom": 6857,
      "Ġavid": 6858,
      "Ġobst": 6859,
      "Ġlemon": 6860,
      "Ġlabeled": 6861,
      "lam": 6862,
      "born": 6863,
      "gu": 6864,
      "athan": 6865,
      "Ġswitches": 6866,
      "Ġfee": 6867,
      "Ġbuzz": 6868,
      "Ġreserv": 6869,
      "Ġpatient": 6870,
      "Ġsuffered": 6871,
      "ops": 6872,
      "Ġseparately": 6873,
      "Ġende": 6874,
      "nie": 6875,
      "Ġinvestigation": 6876,
      "gain": 6877,
      "Ġlocated": 6878,
      "Ġspeaks": 6879,
      "ometer": 6880,
      "Ġinher": 6881,
      "Ġenjoyment": 6882,
      "Ġsilent": 6883,
      "Ġtwe": 6884,
      "Ġaccompan": 6885,
      "rop": 6886,
      "place": 6887,
      "you": 6888,
      "Ġrive": 6889,
      "Ġheating": 6890,
      "Ġhearts": 6891,
      "Ġslower": 6892,
      "Ġsupported": 6893,
      "Ġpercent": 6894,
      "Ġroyal": 6895,
      "Ġstations": 6896,
      "Ġhunting": 6897,
      "Ġprovoking": 6898,
      "Ġquote": 6899,
      "Ġencountered": 6900,
      "Ġlogic": 6901,
      "Ġbreeze": 6902,
      "Ġalto": 6903,
      "Ġsynth": 6904,
      "Ġoperating": 6905,
      "pir": 6906,
      "Ġeggs": 6907,
      "Ġoverwhelming": 6908,
      "aign": 6909,
      "Ġwipe": 6910,
      "Ġintuitive": 6911,
      "Ġconduct": 6912,
      "Ġrounded": 6913,
      "phere": 6914,
      "vation": 6915,
      "Ġweapons": 6916,
      "Ġari": 6917,
      "Ġeffectively": 6918,
      "Ġknight": 6919,
      "Ġparis": 6920,
      "Ġjuly": 6921,
      "ficial": 6922,
      "Ġaffordable": 6923,
      "Ġsuggestion": 6924,
      "Ġfuel": 6925,
      "Ġwarri": 6926,
      "Ġtests": 6927,
      "Ġstunning": 6928,
      "Ġprints": 6929,
      "thy": 6930,
      "Ġexecution": 6931,
      "Ġfid": 6932,
      "Ġcapital": 6933,
      "Ġconnects": 6934,
      "Ġpenny": 6935,
      "flix": 6936,
      "Ġclosure": 6937,
      "Ġpear": 6938,
      "Ġsucceed": 6939,
      "Ġemma": 6940,
      "Ġcyc": 6941,
      "Ġawa": 6942,
      "Ġmicrowave": 6943,
      "Ġenlight": 6944,
      "Ġdetach": 6945,
      "Ġjumps": 6946,
      "Ġcountries": 6947,
      "Ġrecognized": 6948,
      "Ġdarkness": 6949,
      "Ġrail": 6950,
      "Ġlayers": 6951,
      "Ġlone": 6952,
      "Ġremarkable": 6953,
      "Ġcampaign": 6954,
      "Ġautomatic": 6955,
      "Ġcreatures": 6956,
      "Ġtouches": 6957,
      "ba": 6958,
      "anship": 6959,
      "gun": 6960,
      "Ġroute": 6961,
      "Ġnetflix": 6962,
      "Ġreputation": 6963,
      "Ġsnaps": 6964,
      "Ġbeep": 6965,
      "Ġwhis": 6966,
      "Ġimple": 6967,
      "Ġbland": 6968,
      "Ġjoin": 6969,
      "ires": 6970,
      "Ġrefused": 6971,
      "Ġlayout": 6972,
      "Ġabrupt": 6973,
      "Ġhitch": 6974,
      "Ġnavy": 6975,
      "Ġtrees": 6976,
      "Ġspeeds": 6977,
      "Ġutterly": 6978,
      "Ġcreation": 6979,
      "Ġoverpr": 6980,
      "Ġarth": 6981,
      "Ġhype": 6982,
      "Ġchill": 6983,
      "Ġproud": 6984,
      "Ġlasting": 6985,
      "Ġfeeder": 6986,
      "Ġvertical": 6987,
      "Ġbone": 6988,
      "Ġsab": 6989,
      "Ġafterno": 6990,
      "Ġcircuit": 6991,
      "Ġdocumentary": 6992,
      "Ġlaunch": 6993,
      "Ġarticles": 6994,
      "bow": 6995,
      "yn": 6996,
      "Ġwrink": 6997,
      "Ġguarantee": 6998,
      "acles": 6999,
      "Ġwondered": 7000,
      "Ġsant": 7001,
      "Ġmusicians": 7002,
      "Ġsuccessfully": 7003,
      "Ġinsane": 7004,
      "Ġargument": 7005,
      "Ġbelieved": 7006,
      "Ġparall": 7007,
      "Ġemails": 7008,
      "Ġnicer": 7009,
      "Ġourselves": 7010,
      "Ġpans": 7011,
      "Ġminds": 7012,
      "Ġportra": 7013,
      "Ġadopt": 7014,
      "Ġnoneth": 7015,
      "Ġcheesy": 7016,
      "Ġinsightful": 7017,
      "Ġmeasurements": 7018,
      "stick": 7019,
      "Ġhelmet": 7020,
      "Ġzone": 7021,
      "Ġeve": 7022,
      "Ġnonetheless": 7023,
      "aved": 7024,
      "asm": 7025,
      "Ġrapid": 7026,
      "pu": 7027,
      "Ġdemons": 7028,
      "Ġdetermine": 7029,
      "Ġincident": 7030,
      "Ġlargely": 7031,
      "Ġcompleted": 7032,
      "Ġblanket": 7033,
      "Ġutil": 7034,
      "Ġbuyers": 7035,
      "Ġresolve": 7036,
      "Ġarrival": 7037,
      "Ġdarn": 7038,
      "Ġaunt": 7039,
      "Ġenvelo": 7040,
      "arts": 7041,
      "Ġapproximately": 7042,
      "ecd": 7043,
      "urd": 7044,
      "Ġcouch": 7045,
      "Ġhack": 7046,
      "Ġcinem": 7047,
      "Ġanecd": 7048,
      "Ġjake": 7049,
      "Ġbeast": 7050,
      "Ġmentions": 7051,
      "Ġtransition": 7052,
      "Ġbenefits": 7053,
      "Ġrights": 7054,
      "Ġpromptly": 7055,
      "Ġcompens": 7056,
      "Ġtextbook": 7057,
      "annah": 7058,
      "Ġwasting": 7059,
      "berg": 7060,
      "Ġbargain": 7061,
      "Ġcharlie": 7062,
      "Ġtraff": 7063,
      "Ġbreaker": 7064,
      "usion": 7065,
      "Ġaffair": 7066,
      "Ġhomes": 7067,
      "Ġwished": 7068,
      "Ġdirected": 7069,
      "Ġchamp": 7070,
      "Ġcoast": 7071,
      "Ġstrategy": 7072,
      "isco": 7073,
      "Ġinvested": 7074,
      "oured": 7075,
      "Ġopener": 7076,
      "Ġumb": 7077,
      "Ġtay": 7078,
      "Ġconnectors": 7079,
      "Ġstood": 7080,
      "Ġpresence": 7081,
      "Ġox": 7082,
      "Ġfrequent": 7083,
      "Ġpolar": 7084,
      "Ġdepressing": 7085,
      "Ġcloud": 7086,
      "Ġscreens": 7087,
      "mond": 7088,
      "Ġseasons": 7089,
      "Ġnoisy": 7090,
      "Ġspelling": 7091,
      "ensity": 7092,
      "Ġroot": 7093,
      "gon": 7094,
      "Ġtremend": 7095,
      "Ġlabor": 7096,
      "Ġcomparing": 7097,
      "Ġmuff": 7098,
      "Ġassass": 7099,
      "Ġscrewdri": 7100,
      "Ġheartbre": 7101,
      "Ġunac": 7102,
      "Ġdiscovery": 7103,
      "Ġcompanion": 7104,
      "Ġqualities": 7105,
      "Ġdesperate": 7106,
      "Ġfm": 7107,
      "Ġjumped": 7108,
      "Ġexpressed": 7109,
      "Ġindia": 7110,
      "Ġgripping": 7111,
      "Ġstrips": 7112,
      "Ġdisease": 7113,
      "Ġextraord": 7114,
      "Ġsupplied": 7115,
      "ieved": 7116,
      "Ġsupports": 7117,
      "Ġcrafted": 7118,
      "Ġdevoted": 7119,
      "Ġmud": 7120,
      "Ġreduce": 7121,
      "Ġinspiration": 7122,
      "Ġeric": 7123,
      "Ġwing": 7124,
      "Ġgods": 7125,
      "Ġbark": 7126,
      "Ġbeans": 7127,
      "Ġhammer": 7128,
      "Ġsept": 7129,
      "Ġstones": 7130,
      "Ġquirky": 7131,
      "Ġcha": 7132,
      "sion": 7133,
      "Ġbones": 7134,
      "Ġstylish": 7135,
      "Ġplates": 7136,
      "Ġviet": 7137,
      "Ġscanner": 7138,
      "Ġservices": 7139,
      "Ġdocuments": 7140,
      "Ġupgraded": 7141,
      "aren": 7142,
      "Ġsufficient": 7143,
      "Ġvet": 7144,
      "esth": 7145,
      "Ġanswered": 7146,
      "jo": 7147,
      "Ġshortly": 7148,
      "Ġtheat": 7149,
      "Ġstab": 7150,
      "Ġpacing": 7151,
      "Ġblender": 7152,
      "arre": 7153,
      "Ġrere": 7154,
      "Ġbold": 7155,
      "iders": 7156,
      "Ġamusing": 7157,
      "Ġbaseball": 7158,
      "Ġimplement": 7159,
      "Ġparagraphs": 7160,
      "Ġsocket": 7161,
      "Ġperiods": 7162,
      "Ġselected": 7163,
      "aws": 7164,
      "Ġrefurb": 7165,
      "Ġadmir": 7166,
      "Ġsoldiers": 7167,
      "ching": 7168,
      "Ġpod": 7169,
      "attering": 7170,
      "ores": 7171,
      "osity": 7172,
      "10": 7173,
      "Ġdated": 7174,
      "Ġabilities": 7175,
      "Ġeuropean": 7176,
      "Ġotterbox": 7177,
      "agn": 7178,
      "Ġcharles": 7179,
      "Ġafternoon": 7180,
      "Ġalas": 7181,
      "Ġket": 7182,
      "Ġinvent": 7183,
      "Ġnails": 7184,
      "Ġinaccur": 7185,
      "Ġdisagree": 7186,
      "urchased": 7187,
      "Ġdealt": 7188,
      "Ġeb": 7189,
      "Ġnin": 7190,
      "Ġmrs": 7191,
      "Ġsubsequ": 7192,
      "Ġfoundation": 7193,
      "Ġumbre": 7194,
      "Ġunlikely": 7195,
      "Ġobsc": 7196,
      "Ġsi": 7197,
      "Ġdefault": 7198,
      "Ġproced": 7199,
      "ville": 7200,
      "rey": 7201,
      "Ġpops": 7202,
      "Ġsatur": 7203,
      "Ġdetract": 7204,
      "paper": 7205,
      "Ġhandsome": 7206,
      "table": 7207,
      "Ġadmitted": 7208,
      "Ġanna": 7209,
      "Ġspell": 7210,
      "Ġshrink": 7211,
      "Ġaccommo": 7212,
      "Ġhop": 7213,
      "Ġevol": 7214,
      "Ġconclud": 7215,
      "Ġpretend": 7216,
      "stein": 7217,
      "Ġjanuary": 7218,
      "Ġdread": 7219,
      "Ġsake": 7220,
      "Ġhalloween": 7221,
      "Ġtracking": 7222,
      "ales": 7223,
      "Ġpointless": 7224,
      "Ġplacing": 7225,
      "Ġoccurred": 7226,
      "Ġbose": 7227,
      "Ġskipping": 7228,
      "Ġmurdered": 7229,
      "Ġlacked": 7230,
      "Ġstretched": 7231,
      "can": 7232,
      "Ġfox": 7233,
      "Ġvalid": 7234,
      "Ġprinciples": 7235,
      "Ġchairs": 7236,
      "Ġles": 7237,
      "Ġjac": 7238,
      "Ġmasterpiece": 7239,
      "Ġhaz": 7240,
      "Ġenemies": 7241,
      "ini": 7242,
      "Ġbug": 7243,
      "Ġversus": 7244,
      "Ġspite": 7245,
      "Ġlap": 7246,
      "Ġhiding": 7247,
      "Ġhoo": 7248,
      "Ġalright": 7249,
      "Ġish": 7250,
      "Ġgrasp": 7251,
      "Ġlaying": 7252,
      "Ġexistence": 7253,
      "Ġclaimed": 7254,
      "Ġincorpor": 7255,
      "Ġnikon": 7256,
      "Ġwi": 7257,
      "parent": 7258,
      "Ġfootball": 7259,
      "Ġceiling": 7260,
      "Ġrelief": 7261,
      "Ġwinner": 7262,
      "Ġchristianity": 7263,
      "Ġseparated": 7264,
      "Ġwarn": 7265,
      "Ġdevil": 7266,
      "evit": 7267,
      "izations": 7268,
      "Ġsubstantial": 7269,
      "Ġpets": 7270,
      "Ġsymbol": 7271,
      "Ġdispens": 7272,
      "Ġrhyth": 7273,
      "essions": 7274,
      "Ġinevit": 7275,
      "Ġrolled": 7276,
      "Ġchicago": 7277,
      "nis": 7278,
      "Ġdub": 7279,
      "Ġtrailer": 7280,
      "Ġdiscovers": 7281,
      "ream": 7282,
      "Ġweakness": 7283,
      "Ġros": 7284,
      "Ġrachel": 7285,
      "Ġcomfy": 7286,
      "Ġlake": 7287,
      "Ġblast": 7288,
      "Ġzippers": 7289,
      "icious": 7290,
      "Ġdaniel": 7291,
      "Ġunplug": 7292,
      "Ġfrozen": 7293,
      "umbs": 7294,
      "ibilities": 7295,
      "Ġtoddler": 7296,
      "Ġmoo": 7297,
      "purchased": 7298,
      "Ġaqu": 7299,
      "Ġsqueeze": 7300,
      "Ġpics": 7301,
      "Ġecho": 7302,
      "Ġmatches": 7303,
      "Ġalice": 7304,
      "Ġconfigur": 7305,
      "Ġconcerning": 7306,
      "bur": 7307,
      "rael": 7308,
      "Ġsubstit": 7309,
      "Ġcommunication": 7310,
      "Ġratt": 7311,
      "Ġconcrete": 7312,
      "Ġaltogether": 7313,
      "Ġpurchases": 7314,
      "Ġsons": 7315,
      "Ġwatt": 7316,
      "Ġreward": 7317,
      "Ġbb": 7318,
      "Ġalternate": 7319,
      "Ġmanager": 7320,
      "Ġsteady": 7321,
      "anie": 7322,
      "Ġbench": 7323,
      "hib": 7324,
      "inder": 7325,
      "Ġsecondly": 7326,
      "Ġspeech": 7327,
      "Ġsleek": 7328,
      "Ġlaughed": 7329,
      "Ġimagin": 7330,
      "Ġcham": 7331,
      "Ġserver": 7332,
      "Ġcitiz": 7333,
      "Ġreluct": 7334,
      "Ġpadded": 7335,
      "Ġknee": 7336,
      "Ġfrance": 7337,
      "Ġprofound": 7338,
      "Ġnylon": 7339,
      "Ġshares": 7340,
      "Ġwave": 7341,
      "Ġpraise": 7342,
      "Ġconfusion": 7343,
      "although": 7344,
      "ummy": 7345,
      "urance": 7346,
      "Ġbaking": 7347,
      "Ġgameplay": 7348,
      "aid": 7349,
      "Ġeval": 7350,
      "plete": 7351,
      "Ġdating": 7352,
      "Ġcompliments": 7353,
      "Ġpsychological": 7354,
      "Ġht": 7355,
      "Ġpicky": 7356,
      "Ġteachers": 7357,
      "Ġanch": 7358,
      "Ġseeds": 7359,
      "Ġscroll": 7360,
      "Ġbizarre": 7361,
      "Ġremovable": 7362,
      "Ġdecade": 7363,
      "mission": 7364,
      "Ġsheer": 7365,
      "Ġcomplained": 7366,
      "Ġoverpriced": 7367,
      "Ġgate": 7368,
      "Ġclum": 7369,
      "Ġshaft": 7370,
      "Ġvin": 7371,
      "Ġminus": 7372,
      "gers": 7373,
      "Ġunaccept": 7374,
      "Ġroof": 7375,
      "Ġdraws": 7376,
      "resso": 7377,
      "Ġdefense": 7378,
      "Ġpalm": 7379,
      "Ġfence": 7380,
      "Ġmechanical": 7381,
      "Ġbrave": 7382,
      "Ġacademic": 7383,
      "Ġpile": 7384,
      "Ġaustr": 7385,
      "Ġminimum": 7386,
      "Ġbeginners": 7387,
      "Ġdispos": 7388,
      "Ġcombo": 7389,
      "Ġkno": 7390,
      "Ġsurviv": 7391,
      "Ġtraum": 7392,
      "fect": 7393,
      "alous": 7394,
      "Ġpedal": 7395,
      "Ġdynamic": 7396,
      "Ġovers": 7397,
      "update": 7398,
      "ili": 7399,
      "aud": 7400,
      "iser": 7401,
      "Ġsewn": 7402,
      "Ġjason": 7403,
      "owed": 7404,
      "Ġlaure": 7405,
      "Ġhers": 7406,
      "Ġoce": 7407,
      "wear": 7408,
      "Ġmanufacturers": 7409,
      "Ġlace": 7410,
      "Ġconvincing": 7411,
      "Ġgermany": 7412,
      "cery": 7413,
      "Ġpale": 7414,
      "Ġabsurd": 7415,
      "Ġcliffhanger": 7416,
      "Ġcontinuing": 7417,
      "Ġsided": 7418,
      "Ġsed": 7419,
      "Ġinteraction": 7420,
      "Ġpotter": 7421,
      "Ġcans": 7422,
      "Ġtread": 7423,
      "ups": 7424,
      "Ġkar": 7425,
      "iana": 7426,
      "Ġatl": 7427,
      "pros": 7428,
      "utter": 7429,
      "fast": 7430,
      "uts": 7431,
      "Ġwax": 7432,
      "Ġweld": 7433,
      "ota": 7434,
      "inn": 7435,
      "Ġmah": 7436,
      "Ġprayer": 7437,
      "Ġdiscussed": 7438,
      "Ġisrael": 7439,
      "Ġatmosphere": 7440,
      "Ġrealizes": 7441,
      "Ġmeasured": 7442,
      "Ġscrap": 7443,
      "Ġhorizont": 7444,
      "Ġengineering": 7445,
      "Ġemergency": 7446,
      "Ġtas": 7447,
      "Ġglobal": 7448,
      "esting": 7449,
      "Ġunp": 7450,
      "Ġstreaming": 7451,
      "Ġfer": 7452,
      "Ġamazingly": 7453,
      "Ġcrank": 7454,
      "ausible": 7455,
      "Ġaccepted": 7456,
      "Ġcad": 7457,
      "pher": 7458,
      "Ġexpense": 7459,
      "Ġurban": 7460,
      "Ġbomb": 7461,
      "Ġroughly": 7462,
      "aze": 7463,
      "Ġtaylor": 7464,
      "Ġcomplaining": 7465,
      "anna": 7466,
      "bor": 7467,
      "Ġchat": 7468,
      "Ġexceptional": 7469,
      "Ġstrict": 7470,
      "Ġwhereas": 7471,
      "Ġgreek": 7472,
      "Ġscrub": 7473,
      "Ġparticip": 7474,
      "Ġobjects": 7475,
      "nel": 7476,
      "ggy": 7477,
      "Ġinvolve": 7478,
      "Ġfolk": 7479,
      "Ġthoughtful": 7480,
      "ilton": 7481,
      "Ġaffected": 7482,
      "Ġillness": 7483,
      "Ġlying": 7484,
      "Ġmargin": 7485,
      "Ġindicated": 7486,
      "Ġcompassion": 7487,
      "Ġfailing": 7488,
      "Ġpron": 7489,
      "Ġsooner": 7490,
      "udes": 7491,
      "Ġapplying": 7492,
      "Ġblew": 7493,
      "Ġobser": 7494,
      "Ġpilot": 7495,
      "Ġsurfaces": 7496,
      "Ġec": 7497,
      "away": 7498,
      "Ġsail": 7499,
      "Ġafrican": 7500,
      "Ġsensit": 7501,
      "ilty": 7502,
      "Ġbleed": 7503,
      "Ġscripture": 7504,
      "zzle": 7505,
      "Ġdelicate": 7506,
      "Ġhousehold": 7507,
      "Ġreported": 7508,
      "Ġtreasure": 7509,
      "Ġshakes": 7510,
      "Ġgospe": 7511,
      "Ġphenomen": 7512,
      "uster": 7513,
      "Ġstating": 7514,
      "Ġdepression": 7515,
      "Ġlew": 7516,
      "Ġextent": 7517,
      "Ġteaches": 7518,
      "Ġbeef": 7519,
      "Ġlaws": 7520,
      "Ġbeloved": 7521,
      "Ġbite": 7522,
      "ifer": 7523,
      "Ġflorida": 7524,
      "Ġunacceptable": 7525,
      "Ġfavour": 7526,
      "father": 7527,
      "Ġwashington": 7528,
      "Ġdiction": 7529,
      "Ġskipped": 7530,
      "Ġpromising": 7531,
      "Ġclassical": 7532,
      "Ġclues": 7533,
      "Ġstaff": 7534,
      "Ġbabies": 7535,
      "Ġsuited": 7536,
      "Ġeducational": 7537,
      "Ġtables": 7538,
      "Ġreject": 7539,
      "Ġdomin": 7540,
      "Ġpir": 7541,
      "Ġcruel": 7542,
      "Ġah": 7543,
      "abilities": 7544,
      "Ġinserted": 7545,
      "Ġclam": 7546,
      "Ġcarrier": 7547,
      "Ġstored": 7548,
      "Ġempire": 7549,
      "Ġtrek": 7550,
      "Ġlandscape": 7551,
      "Ġware": 7552,
      "Ġprofession": 7553,
      "Ġclasp": 7554,
      "Ġbran": 7555,
      "Ġfranc": 7556,
      "Ġjewelry": 7557,
      "Ġlined": 7558,
      "Ġbuckle": 7559,
      "Ġleash": 7560,
      "Ġroles": 7561,
      "Ġcurve": 7562,
      "war": 7563,
      "Ġarrives": 7564,
      "Ġoutcome": 7565,
      "Ġpunct": 7566,
      "Ġupright": 7567,
      "Ġgrammatical": 7568,
      "Ġapoc": 7569,
      "Ġgrief": 7570,
      "Ġclimax": 7571,
      "Ġarts": 7572,
      "ivalent": 7573,
      "Ġnonsense": 7574,
      "Ġslick": 7575,
      "Ġlowest": 7576,
      "Ġselfish": 7577,
      "Ġmand": 7578,
      "Ġextras": 7579,
      "Ġflowers": 7580,
      "Ġaddict": 7581,
      "Ġwii": 7582,
      "grap": 7583,
      "Ġtil": 7584,
      "Ġrang": 7585,
      "Ġvul": 7586,
      "aret": 7587,
      "Ġobtain": 7588,
      "Ġhabit": 7589,
      "Ġdare": 7590,
      "Ġbackst": 7591,
      "Ġarguments": 7592,
      "Ġvocab": 7593,
      "Ġexclus": 7594,
      "Ġjose": 7595,
      "Ġsofter": 7596,
      "Ġbless": 7597,
      "Ġgifted": 7598,
      "Ġheels": 7599,
      "Ġslippery": 7600,
      "Ġclay": 7601,
      "Ġignored": 7602,
      "Ġdefinition": 7603,
      "Ġleadership": 7604,
      "entional": 7605,
      "ober": 7606,
      "Ġrecy": 7607,
      "Ġprotecting": 7608,
      "Ġpaired": 7609,
      "Ġfeatured": 7610,
      "Ġindicator": 7611,
      "Ġsells": 7612,
      "Ġwinning": 7613,
      "Ġdisappear": 7614,
      "mate": 7615,
      "ingu": 7616,
      "Ġtroublesho": 7617,
      "Ġpotato": 7618,
      "plic": 7619,
      "Ġgripe": 7620,
      "Ġspecs": 7621,
      "Ġmont": 7622,
      "Ġreply": 7623,
      "Ġresort": 7624,
      "Ġcert": 7625,
      "Ġmodem": 7626,
      "Ġvillage": 7627,
      "Ġskirt": 7628,
      "Ġjustify": 7629,
      "Ġinferior": 7630,
      "aired": 7631,
      "Ġfeaturing": 7632,
      "Ġmall": 7633,
      "Ġintro": 7634,
      "Ġsettle": 7635,
      "Ġtitled": 7636,
      "Ġaliens": 7637,
      "Ġsellers": 7638,
      "Ġoctober": 7639,
      "Ġsuffers": 7640,
      "otion": 7641,
      "ighter": 7642,
      "Ġoun": 7643,
      "Ġstorytelling": 7644,
      "Ġbackwards": 7645,
      "got": 7646,
      "Ġcomparable": 7647,
      "Ġliberal": 7648,
      "Ġofficer": 7649,
      "Ġdisci": 7650,
      "Ġebook": 7651,
      "ulary": 7652,
      "Ġstir": 7653,
      "Ġmetaph": 7654,
      "Ġretain": 7655,
      "Ġwwii": 7656,
      "Ġnex": 7657,
      "Ġconsequences": 7658,
      "Ġadjustments": 7659,
      "Ġunin": 7660,
      "amb": 7661,
      "Ġflower": 7662,
      "Ġscratching": 7663,
      "Ġneckl": 7664,
      "ista": 7665,
      "Ġvictims": 7666,
      "Ġscent": 7667,
      "Ġangels": 7668,
      "Ġnich": 7669,
      "Ġarticle": 7670,
      "cher": 7671,
      "Ġdot": 7672,
      "Ġeconomic": 7673,
      "Ġcracks": 7674,
      "Ġneighbors": 7675,
      "Ġjay": 7676,
      "Ġmagnets": 7677,
      "Ġsuspenseful": 7678,
      "ku": 7679,
      "Ġgrows": 7680,
      "wow": 7681,
      "Ġfears": 7682,
      "Ġmoisture": 7683,
      "Ġmiser": 7684,
      "Ġaesth": 7685,
      "Ġhandful": 7686,
      "Ġdeter": 7687,
      "Ġbullet": 7688,
      "Ġscrewdriver": 7689,
      "Ġfond": 7690,
      "Ġchances": 7691,
      "llo": 7692,
      "Ġpartially": 7693,
      "Ġpossibility": 7694,
      "Ġdisli": 7695,
      "Ġinteractions": 7696,
      "Ġglitch": 7697,
      "Ġumbrella": 7698,
      "Ġclassics": 7699,
      "Ġtoaster": 7700,
      "Ġconsole": 7701,
      "otted": 7702,
      "water": 7703,
      "Ġkettle": 7704,
      "Ġstarter": 7705,
      "Ġconcise": 7706,
      "Ġsupplement": 7707,
      "Ġalbe": 7708,
      "Ġbrighter": 7709,
      "Ġboards": 7710,
      "Ġmaximum": 7711,
      "Ġtowels": 7712,
      "Ġlogical": 7713,
      "Ġgenerous": 7714,
      "uits": 7715,
      "Ġsuicide": 7716,
      "Ġempath": 7717,
      "Ġreveals": 7718,
      "aky": 7719,
      "pass": 7720,
      "Ġhonesty": 7721,
      "Ġron": 7722,
      "oma": 7723,
      "love": 7724,
      "Ġowning": 7725,
      "Ġdragged": 7726,
      "Ġford": 7727,
      "Ġdowns": 7728,
      "Ġoccup": 7729,
      "Ġveter": 7730,
      "ician": 7731,
      "Ġbodies": 7732,
      "Ġhorribly": 7733,
      "Ġpanels": 7734,
      "Ġgolf": 7735,
      "Ġrope": 7736,
      "Ġgrips": 7737,
      "Ġmessed": 7738,
      "Ġpricey": 7739,
      "ersome": 7740,
      "Ġmurders": 7741,
      "Ġhinge": 7742,
      "acular": 7743,
      "Ġnovember": 7744,
      "Ġalbeit": 7745,
      "Ġtomor": 7746,
      "Ġcooper": 7747,
      "Ġlen": 7748,
      "Ġconclusions": 7749,
      "aver": 7750,
      "Ġphrases": 7751,
      "Ġfiber": 7752,
      "Ġsloppy": 7753,
      "Ġaccurately": 7754,
      "Ġsew": 7755,
      "Ġrepub": 7756,
      "Ġcousin": 7757,
      "Ġresponsive": 7758,
      "Ġoccasions": 7759,
      "Ġcalib": 7760,
      "Ġjun": 7761,
      "Ġexter": 7762,
      "Ġglimp": 7763,
      "Ġlucy": 7764,
      "Ġphysics": 7765,
      "forward": 7766,
      "vas": 7767,
      "Ġpipe": 7768,
      "Ġcharts": 7769,
      "Ġessays": 7770,
      "va": 7771,
      "Ġamy": 7772,
      "Ġglimpse": 7773,
      "ties": 7774,
      "Ġzombies": 7775,
      "Ġlately": 7776,
      "Ġapocaly": 7777,
      "Ġpoems": 7778,
      "ogue": 7779,
      "Ġpopping": 7780,
      "Ġfocusing": 7781,
      "Ġdecept": 7782,
      "Ġtricky": 7783,
      "Ġreceipt": 7784,
      "Ġwiz": 7785,
      "Ġtrib": 7786,
      "Ġpathetic": 7787,
      "Ġversat": 7788,
      "Ġdisclaim": 7789,
      "Ġupload": 7790,
      "Ġamounts": 7791,
      "Ġromances": 7792,
      "Ġpermanent": 7793,
      "Ġsnack": 7794,
      "Ġplacement": 7795,
      "Ġweapon": 7796,
      "Ġrp": 7797,
      "isk": 7798,
      "Ġsaves": 7799,
      "Ġconvenience": 7800,
      "Ġpencils": 7801,
      "Ġguilty": 7802,
      "Ġindicate": 7803,
      "Ġfirmly": 7804,
      "uries": 7805,
      "Ġtomorrow": 7806,
      "rition": 7807,
      "abor": 7808,
      "Ġdispl": 7809,
      "Ġirre": 7810,
      "Ġbeth": 7811,
      "Ġcooker": 7812,
      "abled": 7813,
      "Ġroots": 7814,
      "Ġsoup": 7815,
      "Ġcommitted": 7816,
      "Ġdiagr": 7817,
      "Ġrestr": 7818,
      "Ġcel": 7819,
      "Ġexperiencing": 7820,
      "Ġillustrated": 7821,
      "Ġemily": 7822,
      "Ġvibrant": 7823,
      "istan": 7824,
      "Ġrick": 7825,
      "Ġsensitivity": 7826,
      "Ġcontrived": 7827,
      "rial": 7828,
      "Ġcared": 7829,
      "Ġmanufactured": 7830,
      "Ġsauce": 7831,
      "Ġpractices": 7832,
      "Ġphill": 7833,
      "Ġleds": 7834,
      "aches": 7835,
      "Ġpride": 7836,
      "Ġgrocery": 7837,
      "Ġcaptivating": 7838,
      "with": 7839,
      "Ġreplacements": 7840,
      "Ġgrant": 7841,
      "Ġbelly": 7842,
      "Ġscot": 7843,
      "Ġcooked": 7844,
      "rene": 7845,
      "Ġaward": 7846,
      "Ġstudying": 7847,
      "Ġbatman": 7848,
      "Ġsandals": 7849,
      "Ġrooms": 7850,
      "Ġtower": 7851,
      "atures": 7852,
      "Ġcraw": 7853,
      "Ġsewing": 7854,
      "Ġproven": 7855,
      "Ġdisplayed": 7856,
      "Ġflour": 7857,
      "Ġpublication": 7858,
      "Ġtransmitter": 7859,
      "ppers": 7860,
      "gia": 7861,
      "Ġrecover": 7862,
      "Ġleaked": 7863,
      "Ġrestaurant": 7864,
      "Ġgod": 7865,
      "Ġmonsters": 7866,
      "Ġcomprom": 7867,
      "Ġteenagers": 7868,
      "Ġreports": 7869,
      "Ġproph": 7870,
      "reen": 7871,
      "Ġagreed": 7872,
      "Ġmessy": 7873,
      "Ġgore": 7874,
      "Ġwilliams": 7875,
      "Ġslipping": 7876,
      "Ġstumb": 7877,
      "Ġresulting": 7878,
      "Ġconvince": 7879,
      "Ġfreeze": 7880,
      "iped": 7881,
      "Ġestate": 7882,
      "Ġtongue": 7883,
      "Ġproved": 7884,
      "Ġtraffic": 7885,
      "hop": 7886,
      "Ġshades": 7887,
      "Ġembr": 7888,
      "Ġbrian": 7889,
      "Ġflawlessly": 7890,
      "Ġcul": 7891,
      "Ġtermin": 7892,
      "Ġassociated": 7893,
      "Ġward": 7894,
      "Ġskinny": 7895,
      "Ġstraightforward": 7896,
      "cript": 7897,
      "Ġhesitant": 7898,
      "Ġglor": 7899,
      "Ġinvolves": 7900,
      "Ġcompilation": 7901,
      "Ġsurvived": 7902,
      "Ġcriminal": 7903,
      "Ġneighborhood": 7904,
      "Ġreh": 7905,
      "logical": 7906,
      "Ġresponsibility": 7907,
      "Ġjokes": 7908,
      "Ġdear": 7909,
      "grapher": 7910,
      "Ġdeserved": 7911,
      "idents": 7912,
      "stream": 7913,
      "Ġshy": 7914,
      "Ġbasement": 7915,
      "Ġthrows": 7916,
      "Ġcolon": 7917,
      "Ġfeeding": 7918,
      "Ġrene": 7919,
      "Ġrefurbished": 7920,
      "inis": 7921,
      "Ġindoor": 7922,
      "Ġvocabulary": 7923,
      "Ġampl": 7924,
      "Ġlawyer": 7925,
      "Ġcalcul": 7926,
      "Ġbuilds": 7927,
      "Ġirish": 7928,
      "enger": 7929,
      "Ġpillows": 7930,
      "Ġtravels": 7931,
      "Ġnutrition": 7932,
      "Ġcooling": 7933,
      "Ġheadache": 7934,
      "Ġregion": 7935,
      "Ġhal": 7936,
      "Ġsearched": 7937,
      "Ġfount": 7938,
      "Ġmeg": 7939,
      "Ġfitted": 7940,
      "Ġwealthy": 7941,
      "Ġrolls": 7942,
      "Ġunst": 7943,
      "Ġinh": 7944,
      "Ġlimits": 7945,
      "Ġheaded": 7946,
      "Ġcontainers": 7947,
      "Ġignor": 7948,
      "Ġgad": 7949,
      "Ġspoiled": 7950,
      "Ġsprink": 7951,
      "Ġengage": 7952,
      "Ġmixing": 7953,
      "arted": 7954,
      "inished": 7955,
      "Ġpositions": 7956,
      "Ġintellectual": 7957,
      "Ġtony": 7958,
      "Ġfont": 7959,
      "Ġcarbon": 7960,
      "Ġcomplimentary": 7961,
      "good": 7962,
      "stop": 7963,
      "Ġsubtit": 7964,
      "Ġsequence": 7965,
      "Ġequivalent": 7966,
      "Ġemphasis": 7967,
      "Ġocean": 7968,
      "Ġthigh": 7969,
      "Ġsoooo": 7970,
      "Ġven": 7971,
      "Ġacou": 7972,
      "ooked": 7973,
      "Ġpublishers": 7974,
      "Ġgoals": 7975,
      "Ġminded": 7976,
      "Ġstreets": 7977,
      "Ġdrinks": 7978,
      "Ġobsessed": 7979,
      "Ġconspir": 7980,
      "Ġpd": 7981,
      "Ġsyno": 7982,
      "Ġfoster": 7983,
      "ifications": 7984,
      "Ġunsc": 7985,
      "Ġangles": 7986,
      "beat": 7987,
      "Ġnarration": 7988,
      "Ġentertained": 7989,
      "Ġcorporate": 7990,
      "Ġrif": 7991,
      "Ġreverse": 7992,
      "Ġdisclaimer": 7993,
      "Ġgrateful": 7994,
      "Ġine": 7995,
      "Ġevident": 7996,
      "Ġshocking": 7997,
      "Ġreminis": 7998,
      "Ġbrutal": 7999,
      "Ġearned": 8000,
      "Ġaggress": 8001,
      "Ġvine": 8002,
      "Ġbrass": 8003,
      "Ġknees": 8004,
      "Ġmounts": 8005,
      "Ġallen": 8006,
      "Ġcalend": 8007,
      "Ġearphones": 8008,
      "Ġpause": 8009,
      "Ġdave": 8010,
      "Ġcomponent": 8011,
      "Ġhints": 8012,
      "Ġlouder": 8013,
      "atherine": 8014,
      "Ġelegant": 8015,
      "tha": 8016,
      "Ġframes": 8017,
      "Ġfridge": 8018,
      "Ġseed": 8019,
      "Ġstub": 8020,
      "Ġexpans": 8021,
      "Ġmeals": 8022,
      "Ġboost": 8023,
      "Ġdrawings": 8024,
      "core": 8025,
      "Ġscare": 8026,
      "Ġpapers": 8027,
      "cs": 8028,
      "Ġmonitors": 8029,
      "Ġnerv": 8030,
      "Ġgently": 8031,
      "Ġsup": 8032,
      "issa": 8033,
      "Ġgallon": 8034,
      "Ġthousand": 8035,
      "Ġsketch": 8036,
      "Ġridiculously": 8037,
      "Ġregards": 8038,
      "inations": 8039,
      "Ġfishing": 8040,
      "Ġflashback": 8041,
      "Ġrigid": 8042,
      "rings": 8043,
      "Ġsimon": 8044,
      "Ġaccomplished": 8045,
      "Ġtrained": 8046,
      "urt": 8047,
      "Ġforest": 8048,
      "Ġcontrad": 8049,
      "ifies": 8050,
      "Ġlex": 8051,
      "Ġchord": 8052,
      "Ġpuzzles": 8053,
      "Ġoutdoors": 8054,
      "Ġdocumentation": 8055,
      "Ġneut": 8056,
      "Ġafrica": 8057,
      "Ġoccasion": 8058,
      "Ġhearted": 8059,
      "Ġcrowd": 8060,
      "Ġcarries": 8061,
      "Ġconvey": 8062,
      "Ġroast": 8063,
      "leep": 8064,
      "Ġcatchy": 8065,
      "Ġhighlights": 8066,
      "Ġfootage": 8067,
      "Ġswive": 8068,
      "Ġphrase": 8069,
      "Ġicon": 8070,
      "Ġcram": 8071,
      "Ġguilt": 8072,
      "Ġsoldier": 8073,
      "Ġislam": 8074,
      "Ġlever": 8075,
      "vet": 8076,
      "Ġalike": 8077,
      "Ġbooklet": 8078,
      "agan": 8079,
      "Ġcaptures": 8080,
      "Ġportrait": 8081,
      "Ġflavors": 8082,
      "Ġconfirm": 8083,
      "Ġlewis": 8084,
      "Ġairport": 8085,
      "Ġbinding": 8086,
      "Ġrequested": 8087,
      "Ġprocessor": 8088,
      "Ġapolog": 8089,
      "lying": 8090,
      "Ġjenn": 8091,
      "dated": 8092,
      "Ġiv": 8093,
      "Ġmodes": 8094,
      "Ġhips": 8095,
      "Ġrepublic": 8096,
      "icity": 8097,
      "Ġinsult": 8098,
      "Ġrugged": 8099,
      "Ġcutter": 8100,
      "Ġactress": 8101,
      "Ġjean": 8102,
      "Ġreprod": 8103,
      "Ġprojector": 8104,
      "Ġcreativity": 8105,
      "Ġfluid": 8106,
      "Ġcuis": 8107,
      "Ġwhist": 8108,
      "cere": 8109,
      "Ġpy": 8110,
      "Ġsolely": 8111,
      "Ġcents": 8112,
      "tv": 8113,
      "Ġpolish": 8114,
      "Ġruth": 8115,
      "Ġattrib": 8116,
      "Ġfurthermore": 8117,
      "Ġfbi": 8118,
      "Ġsunday": 8119,
      "inity": 8120,
      "Ġpunk": 8121,
      "Ġgeor": 8122,
      "Ġreaching": 8123,
      "Ġimmediate": 8124,
      "Ġthirty": 8125,
      "orses": 8126,
      "bling": 8127,
      "Ġtid": 8128,
      "Ġexceed": 8129,
      "ris": 8130,
      "Ġbund": 8131,
      "Ġmos": 8132,
      "Ġbarrel": 8133,
      "Ġcartoon": 8134,
      "Ġspaces": 8135,
      "Ġblowing": 8136,
      "Ġdancing": 8137,
      "bar": 8138,
      "Ġjosh": 8139,
      "Ġplugging": 8140,
      "Ġtheories": 8141,
      "Ġnap": 8142,
      "Ġtilt": 8143,
      "Ġproves": 8144,
      "Ġmice": 8145,
      "Ġlas": 8146,
      "Ġencounters": 8147,
      "Ġpromises": 8148,
      "Ġkore": 8149,
      "sell": 8150,
      "amental": 8151,
      "Ġstrike": 8152,
      "Ġnavigate": 8153,
      "Ġaddressed": 8154,
      "Ġsust": 8155,
      "Ġfiguring": 8156,
      "Ġbrackets": 8157,
      "Ġtossed": 8158,
      "Ġlp": 8159,
      "Ġunderstandable": 8160,
      "Ġmeter": 8161,
      "Ġpotentially": 8162,
      "Ġcock": 8163,
      "Ġscholars": 8164,
      "Ġtubes": 8165,
      "inal": 8166,
      "Ġappli": 8167,
      "Ġlawn": 8168,
      "Ġtender": 8169,
      "ember": 8170,
      "Ġclicking": 8171,
      "Ġinstruments": 8172,
      "Ġasleep": 8173,
      "Ġaccent": 8174,
      "Ġremotely": 8175,
      "gery": 8176,
      "Ġstol": 8177,
      "Ġinterpretation": 8178,
      "Ġengineer": 8179,
      "Ġcrying": 8180,
      "Ġdefend": 8181,
      "power": 8182,
      "Ġnervous": 8183,
      "Ġfunctioning": 8184,
      "Ġextraordinary": 8185,
      "Ġbom": 8186,
      "Ġmedicine": 8187,
      "Ġreflection": 8188,
      "Ġdecl": 8189,
      "Ġmisunder": 8190,
      "Ġmotorcy": 8191,
      "Ġgrabbed": 8192,
      "Ġstruck": 8193,
      "iber": 8194,
      "onic": 8195,
      "Ġrefuses": 8196,
      "Ġclark": 8197,
      "hs": 8198,
      "Ġdoz": 8199,
      "Ġerr": 8200,
      "iography": 8201,
      "Ġcompetition": 8202,
      "Ġepil": 8203,
      "Ġfright": 8204,
      "Ġrecon": 8205,
      "Ġstranger": 8206,
      "Ġchef": 8207,
      "Ġimmense": 8208,
      "Ġgrat": 8209,
      "Ġneedle": 8210,
      "Ġgadget": 8211,
      "Ġspecies": 8212,
      "Ġmeaningful": 8213,
      "Ġchief": 8214,
      "Ġexcessive": 8215,
      "Ġcomics": 8216,
      "Ġgaps": 8217,
      "Ġacted": 8218,
      "Ġchoosing": 8219,
      "orse": 8220,
      "Ġcookie": 8221,
      "Ġdefined": 8222,
      "Ġwhoever": 8223,
      "Ġspinning": 8224,
      "Ġkim": 8225,
      "Ġestablished": 8226,
      "ique": 8227,
      "Ġships": 8228,
      "Ġelder": 8229,
      "Ġkills": 8230,
      "Ġpean": 8231,
      "Ġdisclosure": 8232,
      "jud": 8233,
      "Ġwrest": 8234,
      "Ġparker": 8235,
      "Ġhind": 8236,
      "Ġnewly": 8237,
      "Ġprecious": 8238,
      "Ġworkouts": 8239,
      "having": 8240,
      "Ġdrove": 8241,
      "umble": 8242,
      "cons": 8243,
      "Ġdates": 8244,
      "Ġmoderate": 8245,
      "Ġproceed": 8246,
      "Ġpriest": 8247,
      "Ġtechnically": 8248,
      "Ġpassionate": 8249,
      "Ġmovements": 8250,
      "Ġpant": 8251,
      "Ġfifth": 8252,
      "Ġmexico": 8253,
      "Ġcontinually": 8254,
      "ordan": 8255,
      "Ġposts": 8256,
      "Ġkingdom": 8257,
      "Ġwoven": 8258,
      "Ġmatching": 8259,
      "ravel": 8260,
      "Ġdiagn": 8261,
      "pical": 8262,
      "Ġdism": 8263,
      "Ġsincere": 8264,
      "Ġviewpoint": 8265,
      "Ġshark": 8266,
      "Ġimagined": 8267,
      "Ġvit": 8268,
      "Ġgospel": 8269,
      "Ġvest": 8270,
      "Ġbracelet": 8271,
      "Ġrhythm": 8272,
      "Ġwre": 8273,
      "Ġlily": 8274,
      "Ġinsist": 8275,
      "asant": 8276,
      "Ġefficient": 8277,
      "Ġarab": 8278,
      "Ġoutr": 8279,
      "aste": 8280,
      "ayed": 8281,
      "ndry": 8282,
      "Ġdesert": 8283,
      "Ġpreference": 8284,
      "Ġdivorce": 8285,
      "Ġtestament": 8286,
      "ulations": 8287,
      "Ġcolour": 8288,
      "Ġincreased": 8289,
      "Ġresearching": 8290,
      "Ġsimplistic": 8291,
      "Ġspout": 8292,
      "Ġmins": 8293,
      "Ġracing": 8294,
      "Ġdiary": 8295,
      "Ġlux": 8296,
      "gear": 8297,
      "itect": 8298,
      "Ġhesitate": 8299,
      "Ġtile": 8300,
      "Ġbumper": 8301,
      "Ġcrisis": 8302,
      "Ġarchitect": 8303,
      "ordered": 8304,
      "Ġinconsistent": 8305,
      "Ġshipment": 8306,
      "Ġtrapped": 8307,
      "Ġdictionary": 8308,
      "Ġmathem": 8309,
      "Ġengross": 8310,
      "Ġtighter": 8311,
      "Ġconfront": 8312,
      "Ġexplicit": 8313,
      "Ġcountless": 8314,
      "Ġgrav": 8315,
      "Ġcoinc": 8316,
      "Ġfights": 8317,
      "Ġoverhe": 8318,
      "Ġrecommendations": 8319,
      "Ġproduces": 8320,
      "Ġgask": 8321,
      "unks": 8322,
      "atisfied": 8323,
      "Ġlicense": 8324,
      "Ġsupplies": 8325,
      "Ġsturd": 8326,
      "esis": 8327,
      "lasses": 8328,
      "Ġmakers": 8329,
      "Ġaged": 8330,
      "Ġproperty": 8331,
      "Ġswimming": 8332,
      "Ġlect": 8333,
      "ige": 8334,
      "uten": 8335,
      "Ġredeeming": 8336,
      "Ġdealer": 8337,
      "ione": 8338,
      "Ġvietnam": 8339,
      "Ġlightly": 8340,
      "Ġmuse": 8341,
      "stone": 8342,
      "Ġmarsh": 8343,
      "Ġreel": 8344,
      "pled": 8345,
      "Ġdp": 8346,
      "Ġsuck": 8347,
      "Ġcookies": 8348,
      "Ġknocked": 8349,
      "Ġcorrupt": 8350,
      "Ġstatements": 8351,
      "nn": 8352,
      "Ġresponded": 8353,
      "Ġyo": 8354,
      "Ġnecklace": 8355,
      "Ġreinstall": 8356,
      "Ġbreakfast": 8357,
      "iation": 8358,
      "Ġstan": 8359,
      "Ġintroduces": 8360,
      "Ġbarn": 8361,
      "Ġexists": 8362,
      "Ġfriday": 8363,
      "Ġstolen": 8364,
      "Ġpist": 8365,
      "Ġnexus": 8366,
      "Ġspectacular": 8367,
      "Ġinterm": 8368,
      "Ġforgive": 8369,
      "Ġunravel": 8370,
      "Ġpier": 8371,
      "Ġwings": 8372,
      "Ġremembered": 8373,
      "Ġlonely": 8374,
      "Ġvulner": 8375,
      "ugs": 8376,
      "Ġdepends": 8377,
      "Ġflood": 8378,
      "Ġrul": 8379,
      "Ġviewer": 8380,
      "Ġkelly": 8381,
      "Ġfountain": 8382,
      "Ġhopeful": 8383,
      "Ġconservative": 8384,
      "via": 8385,
      "going": 8386,
      "Ġou": 8387,
      "Ġsaga": 8388,
      "Ġhorses": 8389,
      "Ġraising": 8390,
      "Ġclients": 8391,
      "gas": 8392,
      "Ġrides": 8393,
      "Ġreform": 8394,
      "Ġremained": 8395,
      "Ġconfiguration": 8396,
      "Ġsatisfaction": 8397,
      "Ġsquir": 8398,
      "Ġvoltage": 8399,
      "Ġours": 8400,
      "Ġcozy": 8401,
      "Ġdisj": 8402,
      "icer": 8403,
      "Ġjohnson": 8404,
      "Ġjulia": 8405,
      "Ġexecuted": 8406,
      "Ġwhim": 8407,
      "kind": 8408,
      "Ġhollow": 8409,
      "Ġglow": 8410,
      "ontin": 8411,
      "Ġcastle": 8412,
      "Ġtexts": 8413,
      "Ġcontacting": 8414,
      "Ġhrs": 8415,
      "Ġjealous": 8416,
      "Ġinstit": 8417,
      "Ġdissapointed": 8418,
      "Ġhing": 8419,
      "Ġparties": 8420,
      "ulating": 8421,
      "Ġebay": 8422,
      "Ġbelieving": 8423,
      "Ġepson": 8424,
      "Ġseptember": 8425,
      "win": 8426,
      "Ġadapters": 8427,
      "Ġrepaired": 8428,
      "alia": 8429,
      "ched": 8430,
      "Ġanecdotes": 8431,
      "Ġprofit": 8432,
      "Ġstripped": 8433,
      "Ġclassroom": 8434,
      "Ġtam": 8435,
      "Ġleaf": 8436,
      "Ġsimil": 8437,
      "Ġprotects": 8438,
      "Ġtendency": 8439,
      "Ġsynops": 8440,
      "Ġneph": 8441,
      "iate": 8442,
      "Ġdevast": 8443,
      "Ġepilogue": 8444,
      "Ġseats": 8445,
      "corn": 8446,
      "Ġsoles": 8447,
      "Ġintric": 8448,
      "Ġtablets": 8449,
      "Ġidiot": 8450,
      "Ġabusive": 8451,
      "Ġvary": 8452,
      "Ġcapability": 8453,
      "isc": 8454,
      "Ġdemocr": 8455,
      "Ġnotebook": 8456,
      "Ġexterior": 8457,
      "Ġfrequency": 8458,
      "Ġdor": 8459,
      "Ġwritings": 8460,
      "overall": 8461,
      "Ġinserts": 8462,
      "Ġaccommodate": 8463,
      "Ġintensity": 8464,
      "Ġoddly": 8465,
      "fr": 8466,
      "Ġlightning": 8467,
      "Ġportrayal": 8468,
      "don": 8469,
      "Ġfortune": 8470,
      "Ġslightest": 8471,
      "Ġinfluenced": 8472,
      "Ġcarp": 8473,
      "urs": 8474,
      "gypt": 8475,
      "Ġreread": 8476,
      "gen": 8477,
      "Ġtorture": 8478,
      "Ġbilly": 8479,
      "Ġarro": 8480,
      "Ġtightened": 8481,
      "za": 8482,
      "Ġabsorb": 8483,
      "Ġmarkers": 8484,
      "udge": 8485,
      "Ġcandle": 8486,
      "Ġsustain": 8487,
      "Ġunple": 8488,
      "iors": 8489,
      "Ġclaire": 8490,
      "Ġgrease": 8491,
      "Ġegypt": 8492,
      "Ġloosen": 8493,
      "Ġrotate": 8494,
      "Ġdive": 8495,
      "Ġweights": 8496,
      "Ġnozzle": 8497,
      "Ġreconnect": 8498,
      "Ġstopping": 8499,
      "Ġlegit": 8500,
      "Ġcommunicate": 8501,
      "Ġdozens": 8502,
      "Ġdent": 8503,
      "Ġbreed": 8504,
      "Ġabused": 8505,
      "Ġincomplete": 8506,
      "Ġworkers": 8507,
      "fers": 8508,
      "Ġandre": 8509,
      "Ġtoner": 8510,
      "Ġdisplays": 8511,
      "Ġpreach": 8512,
      "Ġaka": 8513,
      "Ġdisjointed": 8514,
      "Ġbeer": 8515,
      "Ġchargers": 8516,
      "Ġkitty": 8517,
      "Ġmiller": 8518,
      "iform": 8519,
      "Ġmerc": 8520,
      "Ġstem": 8521,
      "Ġitaly": 8522,
      "Ġtutor": 8523,
      "Ġren": 8524,
      "Ġtriangle": 8525,
      "udos": 8526,
      "ava": 8527,
      "Ġsession": 8528,
      "Ġlint": 8529,
      "Ġdiscour": 8530,
      "Ġlaundry": 8531,
      "Ġreferred": 8532,
      "Ġnaive": 8533,
      "Ġgreg": 8534,
      "Ġdisgusting": 8535,
      "Ġcere": 8536,
      "ante": 8537,
      "Ġgrounds": 8538,
      "Ġobservations": 8539,
      "Ġjoseph": 8540,
      "Ġautob": 8541,
      "Ġtricks": 8542,
      "Ġpairing": 8543,
      "Ġpizz": 8544,
      "Ġsettled": 8545,
      "Ġyarn": 8546,
      "rifying": 8547,
      "ials": 8548,
      "Ġnegatives": 8549,
      "Ġhouses": 8550,
      "Ġflows": 8551,
      "Ġmats": 8552,
      "Ġscenario": 8553,
      "Ġhanger": 8554,
      "Ġloading": 8555,
      "Ġfaded": 8556,
      "Ġcities": 8557,
      "ptic": 8558,
      "Ġobjective": 8559,
      "ona": 8560,
      "Ġunders": 8561,
      "Ġtwel": 8562,
      "Ġrefuse": 8563,
      "Ġrect": 8564,
      "Ġmeasuring": 8565,
      "irl": 8566,
      "Ġwilson": 8567,
      "Ġcatching": 8568,
      "Ġugh": 8569,
      "inent": 8570,
      "Ġlesser": 8571,
      "Ġcopper": 8572,
      "Ġbeings": 8573,
      "Ġimmers": 8574,
      "Ġdevelops": 8575,
      "Ġschools": 8576,
      "Ġreun": 8577,
      "Ġsusan": 8578,
      "Ġrealizing": 8579,
      "Ġrim": 8580,
      "Ġclient": 8581,
      "Ġaddiction": 8582,
      "Ġrecovery": 8583,
      "Ġsubsequent": 8584,
      "Ġuniform": 8585,
      "Ġafterwards": 8586,
      "Ġorders": 8587,
      "alled": 8588,
      "store": 8589,
      "Ġreson": 8590,
      "Ġvolunt": 8591,
      "Ġcure": 8592,
      "Ġoverl": 8593,
      "Ġdepot": 8594,
      "Ġsuspend": 8595,
      "Ġboston": 8596,
      "Ġpsychology": 8597,
      "riger": 8598,
      "Ġdrying": 8599,
      "Ġpopulation": 8600,
      "belie": 8601,
      "Ġmeanwhile": 8602,
      "Ġfashioned": 8603,
      "hy": 8604,
      "ission": 8605,
      "Ġathlet": 8606,
      "rian": 8607,
      "amic": 8608,
      "Ġdisconnected": 8609,
      "Ġexposure": 8610,
      "umn": 8611,
      "Ġstam": 8612,
      "Ġdrums": 8613,
      "Ġparallel": 8614,
      "Ġoptical": 8615,
      "Ġira": 8616,
      "Ġmainten": 8617,
      "Ġrechargeable": 8618,
      "Ġsciss": 8619,
      "Ġcontrolled": 8620,
      "Ġfederal": 8621,
      "Ġcalendar": 8622,
      "Ġoblig": 8623,
      "Ġbrake": 8624,
      "Ġwishing": 8625,
      "vo": 8626,
      "rence": 8627,
      "Ġlids": 8628,
      "Ġgritty": 8629,
      "Ġperfection": 8630,
      "Ġreadings": 8631,
      "Ġcrimes": 8632,
      "chool": 8633,
      "Ġprotein": 8634,
      "Ġdj": 8635,
      "Ġbriefly": 8636,
      "Ġdesperately": 8637,
      "Ġgrinding": 8638,
      "Ġvirgin": 8639,
      "Ġsynopsis": 8640,
      "Ġhighs": 8641,
      "Ġwonders": 8642,
      "Ġblake": 8643,
      "tes": 8644,
      "Ġperforms": 8645,
      "Ġconsuming": 8646,
      "Ġpregnancy": 8647,
      "aine": 8648,
      "Ġartific": 8649,
      "Ġalt": 8650,
      "Ġconvert": 8651,
      "Ġmotherboard": 8652,
      "Ġdisappeared": 8653,
      "Ġroku": 8654,
      "Ġcurs": 8655,
      "Ġprone": 8656,
      "Ġanticipated": 8657,
      "Ġghz": 8658,
      "Ġnest": 8659,
      "Ġchor": 8660,
      "Ġmelt": 8661,
      "Ġquestionable": 8662,
      "Ġthumbs": 8663,
      "Ġpeeling": 8664,
      "Ġhangs": 8665,
      "Ġmaintenance": 8666,
      "Ġcalories": 8667,
      "Ġadmire": 8668,
      "screen": 8669,
      "Ġgrandson": 8670,
      "Ġresemb": 8671,
      "Ġcruc": 8672,
      "Ġip": 8673,
      "Ġoliv": 8674,
      "Ġsacrif": 8675,
      "Ġbucket": 8676,
      "ja": 8677,
      "Ġconce": 8678,
      "yard": 8679,
      "Ġcollector": 8680,
      "Ġilleg": 8681,
      "oul": 8682,
      "Ġnewest": 8683,
      "Ġlisa": 8684,
      "Ġdump": 8685,
      "Ġholders": 8686,
      "Ġsacrifice": 8687,
      "Ġdawn": 8688,
      "chant": 8689,
      "Ġallerg": 8690,
      "Ġsophistic": 8691,
      "Ġrefriger": 8692,
      "bu": 8693,
      "imm": 8694,
      "Ġgeo": 8695,
      "Ġrazor": 8696,
      "Ġrome": 8697,
      "Ġreboot": 8698,
      "Ġasp": 8699,
      "Ġbride": 8700,
      "Ġedward": 8701,
      "Ġtasted": 8702,
      "Ġlouis": 8703,
      "Ġcrown": 8704,
      "Ġmatched": 8705,
      "Ġacknowled": 8706,
      "Ġstrategies": 8707,
      "Ġcliche": 8708,
      "Ġpassword": 8709,
      "omy": 8710,
      "Ġabandoned": 8711,
      "Ġtrave": 8712,
      "otional": 8713,
      "Ġfundamental": 8714,
      "Ġdeciding": 8715,
      "Ġstairs": 8716,
      "Ġmower": 8717,
      "Ġretired": 8718,
      "Ġbending": 8719,
      "Ġvillains": 8720,
      "Ġclunky": 8721,
      "Ġmoore": 8722,
      "Ġprinters": 8723,
      "Ġpity": 8724,
      "Ġspider": 8725,
      "Ġinnov": 8726,
      "Ġmanufacture": 8727,
      "Ġcarr": 8728,
      "Ġwicked": 8729,
      "Ġguitars": 8730,
      "Ġyours": 8731,
      "Ġbeating": 8732,
      "Ġcos": 8733,
      "Ġelev": 8734,
      "artments": 8735,
      "Ġcanvas": 8736,
      "Ġgenerations": 8737,
      "Ġfacebook": 8738,
      "Ġcuriosity": 8739,
      "Ġster": 8740,
      "Ġwarrior": 8741,
      "Ġcm": 8742,
      "Ġvisiting": 8743,
      "Ġfolding": 8744,
      "Ġpm": 8745,
      "Ġeducated": 8746,
      "Ġmetall": 8747,
      "Ġfreak": 8748,
      "angel": 8749,
      "Ġinjury": 8750,
      "Ġflee": 8751,
      "Ġrin": 8752,
      "Ġtimely": 8753,
      "Ġbruce": 8754,
      "Ġblurb": 8755,
      "lif": 8756,
      "Ġjordan": 8757,
      "rous": 8758,
      "Ġloosely": 8759,
      "Ġcapabilities": 8760,
      "Ġmason": 8761,
      "Ġattacks": 8762,
      "Ġsouls": 8763,
      "Ġnephew": 8764,
      "Ġglance": 8765,
      "Ġgran": 8766,
      "Ġfest": 8767,
      "unes": 8768,
      "Ġbreast": 8769,
      "Ġmatte": 8770,
      "Ġcowboy": 8771,
      "Ġlaces": 8772,
      "Ġdud": 8773,
      "Ġloops": 8774,
      "Ġlargest": 8775,
      "zed": 8776,
      "Ġhr": 8777,
      "Ġcharacterization": 8778,
      "Ġsigh": 8779,
      "Ġholmes": 8780,
      "Ġtherapy": 8781,
      "hill": 8782,
      "Ġnovice": 8783,
      "wall": 8784,
      "Ġbern": 8785,
      "Ġhurts": 8786,
      "Ġtasks": 8787,
      "Ġenorm": 8788,
      "Ġsprings": 8789,
      "gent": 8790,
      "Ġintroduce": 8791,
      "Ġcocon": 8792,
      "Ġindustrial": 8793,
      "Ġmothers": 8794,
      "Ġanytime": 8795,
      "Ġdylan": 8796,
      "Ġdough": 8797,
      "Ġevenly": 8798,
      "Ġnewspaper": 8799,
      "ipher": 8800,
      "Ġprotagonists": 8801,
      "Ġhaunting": 8802,
      "Ġrobin": 8803,
      "escent": 8804,
      "Ġestablish": 8805,
      "Ġguests": 8806,
      "Ġrobot": 8807,
      "Ġodds": 8808,
      "Ġscoop": 8809,
      "shield": 8810,
      "Ġkeen": 8811,
      "plate": 8812,
      "Ġpackages": 8813,
      "Ġchalk": 8814,
      "some": 8815,
      "Ġdean": 8816,
      "Ġvehicles": 8817,
      "Ġgrandfather": 8818,
      "Ġsuperficial": 8819,
      "Ġdrilled": 8820,
      "Ġfolds": 8821,
      "Ġacoustic": 8822,
      "Ġaddresses": 8823,
      "Ġsteven": 8824,
      "Ġunscrew": 8825,
      "Ġsmelled": 8826,
      "hh": 8827,
      "omet": 8828,
      "Ġlend": 8829,
      "Ġrubbing": 8830,
      "Ġexploring": 8831,
      "Ġguidance": 8832,
      "lson": 8833,
      "Ġenvelope": 8834,
      "bro": 8835,
      "Ġssd": 8836,
      "Ġaccessory": 8837,
      "Ġcoach": 8838,
      "Ġriff": 8839,
      "Ġtremendous": 8840,
      "Ġdesigner": 8841,
      "Ġsympathetic": 8842,
      "Ġhates": 8843,
      "Ġrevealing": 8844,
      "Ġprejud": 8845,
      "Ġunsure": 8846,
      "Ġoutfit": 8847,
      "Ġbacks": 8848,
      "Ġflashing": 8849,
      "Ġspoken": 8850,
      "lle": 8851,
      "Ġosc": 8852,
      "Ġcontacts": 8853,
      "Ġtwelve": 8854,
      "Ġsurgery": 8855,
      "Ġjet": 8856,
      "Ġduck": 8857,
      "oph": 8858,
      "iful": 8859,
      "Ġsenior": 8860,
      "Ġlegacy": 8861,
      "Ġthro": 8862,
      "Ġsparks": 8863,
      "Ġinterests": 8864,
      "Ġglowing": 8865,
      "Ġvibr": 8866,
      "Ġpreview": 8867,
      "Ġfixture": 8868,
      "Ġkir": 8869,
      "Ġdestruction": 8870,
      "Ġfreezing": 8871,
      "Ġespresso": 8872,
      "Ġelite": 8873,
      "ernet": 8874,
      "Ġoffensive": 8875,
      "ressed": 8876,
      "pectives": 8877,
      "Ġattaches": 8878,
      "Ġlengthy": 8879,
      "Ġunpleasant": 8880,
      "Ġdigest": 8881,
      "idently": 8882,
      "Ġbikes": 8883,
      "ggings": 8884,
      "Ġformed": 8885,
      "Ġcontrovers": 8886,
      "Ġintermitt": 8887,
      "Ġintim": 8888,
      "Ġrank": 8889,
      "Ġretract": 8890,
      "Ġleague": 8891,
      "Ġneutral": 8892,
      "Ġmainstream": 8893,
      "Ġwatts": 8894,
      "cence": 8895,
      "Ġpolished": 8896,
      "Ġbrushes": 8897,
      "Ġadmittedly": 8898,
      "Ġdownright": 8899,
      "bruary": 8900,
      "Ġaggr": 8901,
      "Ġmaggie": 8902,
      "Ġchore": 8903,
      "Ġdiscusses": 8904,
      "eu": 8905,
      "Ġhyper": 8906,
      "Ġsnag": 8907,
      "Ġsunglasses": 8908,
      "Ġinaccurate": 8909,
      "Ġhan": 8910,
      "omic": 8911,
      "dge": 8912,
      "Ġadvised": 8913,
      "Ġta": 8914,
      "Ġpoison": 8915,
      "Ġbrid": 8916,
      "Ġmotivation": 8917,
      "Ġdense": 8918,
      "Ġmillions": 8919,
      "Ġrecieved": 8920,
      "Ġhyp": 8921,
      "Ġslipped": 8922,
      "arse": 8923,
      "Ġcumb": 8924,
      "zer": 8925,
      "Ġquicken": 8926,
      "Ġconsideration": 8927,
      "Ġillumin": 8928,
      "Ġexagger": 8929,
      "Ġvint": 8930,
      "Ġextract": 8931,
      "Ġfebruary": 8932,
      "Ġsolving": 8933,
      "Ġresidue": 8934,
      "Ġtrav": 8935,
      "Ġessence": 8936,
      "Ġperspectives": 8937,
      "Ġhorizontal": 8938,
      "Ġcheer": 8939,
      "aneously": 8940,
      "hand": 8941,
      "Ġkin": 8942,
      "Ġbummer": 8943,
      "Ġintact": 8944,
      "Ġschedule": 8945,
      "Ġyrs": 8946,
      "ication": 8947,
      "Ġghosts": 8948,
      "Ġasian": 8949,
      "Ġcried": 8950,
      "otte": 8951,
      "Ġapo": 8952,
      "Ġburied": 8953,
      "Ġtrusted": 8954,
      "inite": 8955,
      "Ġfought": 8956,
      "Ġconspiracy": 8957,
      "Ġate": 8958,
      "Ġethernet": 8959,
      "Ġhannah": 8960,
      "abet": 8961,
      "ceeds": 8962,
      "Ġpresum": 8963,
      "Ġeastern": 8964,
      "Ġloads": 8965,
      "yl": 8966,
      "Ġcondens": 8967,
      "Ġsanta": 8968,
      "icky": 8969,
      "inging": 8970,
      "Ġpoign": 8971,
      "Ġlaura": 8972,
      "Ġconsistency": 8973,
      "Ġfaint": 8974,
      "Ġnoises": 8975,
      "Ġsweep": 8976,
      "Ġoffend": 8977,
      "Ġcoconut": 8978,
      "Ġbiased": 8979,
      "Ġcheapest": 8980,
      "Ġkenned": 8981,
      "Ġorchestra": 8982,
      "Ġsafely": 8983,
      "Ġdivers": 8984,
      "Ġcarafe": 8985,
      "Ġfitness": 8986,
      "Ġstuffed": 8987,
      "Ġkudos": 8988,
      "Ġhumidity": 8989,
      "elf": 8990,
      "Ġpoles": 8991,
      "stairs": 8992,
      "Ġdiscontin": 8993,
      "Ġian": 8994,
[...]
