{"<s>":0,"<pad>":1,"</s>":2,"<unk>":3,"<mask>":4,"[EMAIL]":5,"[URL]":6,"[XML]":7,"[PATH]":8,"[NUMBER]":9,"[CUR]":10,"[BAD]":11,"[UNKNOWN]":12,"<user>":13,"<url>":14,"!":15,"\"":16,"#":17,"$":18,"%":19,"&":20,"'":21,"(":22,")":23,"*":24,"+":25,",":26,"-":27,".":28,"/":29,"0":30,"1":31,"2":32,"3":33,"4":34,"5":35,"6":36,"7":37,"8":38,"9":39,":":40,";":41,"<":42,"=":43,">":44,"?":45,"@":46,"A":47,"B":48,"C":49,"D":50,"E":51,"F":52,"G":53,"H":54,"I":55,"J":56,"K":57,"L":58,"M":59,"N":60,"O":61,"P":62,"Q":63,"R":64,"S":65,"T":66,"U":67,"V":68,"W":69,"X":70,"Y":71,"Z":72,"[":73,"\\":74,"]":75,"^":76,"_":77,"`":78,"a":79,"b":80,"c":81,"d":82,"e":83,"f":84,"g":85,"h":86,"i":87,"j":88,"k":89,"l":90,"m":91,"n":92,"o":93,"p":94,"q":95,"r":96,"s":97,"t":98,"u":99,"v":100,"w":101,"x":102,"y":103,"z":104,"{":105,"|":106,"}":107,"~":108,"¡":109,"¢":110,"£":111,"¤":112,"¥":113,"¦":114,"§":115,"¨":116,"©":117,"ª":118,"«":119,"¬":120,"®":121,"¯":122,"°":123,"±":124,"²":125,"³":126,"´":127,"µ":128,"¶":129,"·":130,"¸":131,"¹":132,"º":133,"»":134,"¼":135,"½":136,"¾":137,"¿":138,"À":139,"Á":140,"Â":141,"Ã":142,"Ä":143,"Å":144,"Æ":145,"Ç":146,"È":147,"É":148,"Ê":149,"Ë":150,"Ì":151,"Í":152,"Î":153,"Ï":154,"Ð":155,"Ñ":156,"Ò":157,"Ó":158,"Ô":159,"Õ":160,"Ö":161,"×":162,"Ø":163,"Ù":164,"Ú":165,"Û":166,"Ü":167,"Ý":168,"Þ":169,"ß":170,"à":171,"á":172,"â":173,"ã":174,"ä":175,"å":176,"æ":177,"ç":178,"è":179,"é":180,"ê":181,"ë":182,"ì":183,"í":184,"î":185,"ï":186,"ð":187,"ñ":188,"ò":189,"ó":190,"ô":191,"õ":192,"ö":193,"÷":194,"ø":195,"ù":196,"ú":197,"û":198,"ü":199,"ý":200,"þ":201,"ÿ":202,"Ā":203,"ā":204,"Ă":205,"ă":206,"Ą":207,"ą":208,"Ć":209,"ć":210,"Ĉ":211,"ĉ":212,"Ċ":213,"ċ":214,"Č":215,"č":216,"Ď":217,"ď":218,"Đ":219,"đ":220,"Ē":221,"ē":222,"Ĕ":223,"ĕ":224,"Ė":225,"ė":226,"Ę":227,"ę":228,"Ě":229,"ě":230,"Ĝ":231,"ĝ":232,"Ğ":233,"ğ":234,"Ġ":235,"ġ":236,"Ģ":237,"ģ":238,"Ĥ":239,"ĥ":240,"Ħ":241,"ħ":242,"Ĩ":243,"ĩ":244,"Ī":245,"ī":246,"Ĭ":247,"ĭ":248,"Į":249,"į":250,"İ":251,"ı":252,"Ĳ":253,"ĳ":254,"Ĵ":255,"ĵ":256,"Ķ":257,"ķ":258,"ĸ":259,"Ĺ":260,"ĺ":261,"Ļ":262,"ļ":263,"Ľ":264,"ľ":265,"Ŀ":266,"ŀ":267,"Ł":268,"ł":269,"Ń":270,"Ġt":271,"Ġa":272,"Ġi":273,"Ġth":274,"Ġ.":275,"Ġw":276,"Ġs":277,"er":278,"Ġthe":279,"Ġb":280,"re":281,"Ġo":282,"in":283,"nd":284,"Ġf":285,"Ġc":286,"Ġm":287,"or":288,"Ġp":289,"Ġh":290,"ed":291,"Ġn":292,"Ġit":293,"ou":294,"ot":295,"Ġl":296,"Ġto":297,"at":298,"Ġd":299,"as":300,"ing":301,"ll":302,"Ġand":303,"it":304,"is":305,"es":306,"Ġ,":307,"Ġg":308,"en":309,"on":310,"ar":311,"Ġnot":312,"Ġis":313,"ut":314,"Ġre":315,"oo":316,"Ġ[":317,"an":318,"le":319,"Ġin":320,"ve":321,"Ġof":322,"Ġon":323,"ic":324,"us":325,"ver":326,"th":327,"Ġe":328,"om":329,"Ġha":330,"Ġfor":331,"Ġthis":332,"ct":333,"gh":334,"ly":335,"Ġwas":336,"Ġbe":337,"Ġst":338,"BE":339,"MBE":340,"NU":341,"MBER":342,"NUMBER":343,"ld":344,"ad":345,"Ġy":346,"Ġbut":347,"ke":348,"al":349,"Ġmy":350,"ook":351,"ow":352,"all":353,"Ġwh":354,"ch":355,"ter":356,"id":357,"ay":358,"ro":359,"ith":360,"very":361,"et":362,"Ġ!":363,"me":364,"Ġyou":365,"Ġwith":366,"ur":367,"ght":368,"Ġdo":369,"Ġhave":370,"Ġli":371,"Ġwe":372,"ould":373,"Ġsh":374,"Ġthat":375,"ri":376,"se":377,"ac":378,"ent":379,"pp":380,"Ġwor":381,"Ġso":382,"ion":383,"st":384,"Ġare":385,"Ġu":386,"Ġch":387,"ill":388,"Ġas":389,"Ġvery":390,"Ġan":391,"Ġus":392,"ble":393,"Ġj":394,"reat":395,"Ġbook":396,"Ġthey":397,"Ġse":398,"ir":399,"ood":400,"ere":401,"ce":402,"ust":403,"Ġmo":404,"Ġlo":405,"Ġpro":406,"Ġne":407,"ect":408,"ice":409,"Ġwork":410,"ally":411,"ra":412,"Ġone":413,"Ġwould":414,"Ġex":415,"Ġlike":416,"qu":417,"Ġgreat":418,"one":419,"ge":420,"Ġor":421,"Ġgood":422,"Ġam":423,"Ġcom":424,"el":425,"Ġco":426,"Ġti":427,"KN":428,"NKN":429,"OW":430,"UNKN":431,"OWN":432,"UNKNOWN":433,"Ġwill":434,"ack":435,"Ġall":436,"Ġr":437,"Ġat":438,"Ġread":439,"Ġal":440,"..":441,"ul":442,"Ġthem":443,"Ġ...":444,"if":445,"ast":446,"Ġjust":447,"Ġqu":448,"em":449,"ome":450,"uct":451,"Ġout":452,"Ġlook":453,"Ġcan":454,"Ġpl":455,"Ġget":456,"Ġhad":457,"Ġsu":458,"Ġtoo":459,"Ġk":460,"ap":461,"ted":462,"Ġsi":463,"Ġhe":464,"ers":465,"Ġup":466,"this":467,"able":468,"ain":469,"Ġdid":470,"Ġbu":471,"Ġme":472,"ie":473,"Ġfr":474,"Ġpr":475,"Ġde":476,"Ġthan":477,"Ġfit":478,"ought":479,"un":480,"Ġthese":481,"ough":482,"Ġwell":483,"the":484,"out":485,"Ġno":486,"duct":487,"ard":488,"il":489,"ort":490,"ess":491,"ved":492,"Ġfe":493,"ity":494,"itt":495,"Ġproduct":496,"Ġmore":497,"Ġif":498,"Ġen":499,"Ġuse":500,"est":501,"Ġdoes":502,"ak":503,"Ġab":504,"Ġcon":505,"Ġwhat":506,"ure":507,"Ġfrom":508,"ong":509,"Ġdis":510,"ase":511,"am":512,"Ġwhen":513,"urn":514,"Ġsm":515,"Ġsome":516,"Ġlove":517,"ant":518,"ther":519,"art":520,"ame":521,"ive":522,"Ġtime":523,"Ġonly":524,"Ġrec":525,"Ġreally":526,"lo":527,"ig":528,"Ġho":529,"ound":530,"Ġsiz":531,"Ġbuy":532,"Ġun":533,"ag":534,"ind":535,"Ġhas":536,"ven":537,"Ġwere":538,"act":539,"Ġany":540,"Ġle":541,"fter":542,"Ġsp":543,"Ġexp":544,"ality":545,"oth":546,"ick":547,"ite":548,"Ġpo":549,"der":550,"ine":551,"Ġsmall":552,"ck":553,"Ġtr":554,"Ġoff":555,"ate":556,"Ġabout":557,"Ġquality":558,"erf":559,"Ġmu":560,"ist":561,"ittle":562,"ory":563,"Ġv":564,"Ġafter":565,"Ġeas":566,"not":567,"so":568,"Ġlittle":569,"Ġbec":570,"Ġhow":571,"Ġgo":572,"Ġpre":573,"and":574,"ies":575,"aus":576,"Ġchar":577,"Ġad":578,"Ġmuch":579,"Ġcomp":580,"ide":581,"Ġke":582,"Ġsize":583,"Ġother":584,"Ġar":585,"ppo":586,"ade":587,"Ġpur":588,"ear":589,"Ġyour":590,"li":591,"mend":592,"um":593,"ause":594,"ore":595,"Ġrecom":596,"Ġorder":597,"Ġrecommend":598,"Ġcould":599,"ake":600,"Ġbecause":601,"Ġret":602,"ep":603,"Ġback":604,"Ġeven":605,"ation":606,"Ġbought":607,"Ġnice":608,"Ġneed":609,"pt":610,"Ġbo":611,"Ġthere":612,"ish":613,"ays":614,"Ġbet":615,"Ġreturn":616,"Ġover":617,"ab":618,"Ġag":619,"Ġtw":620,"Ġstory":621,"Ġgot":622,"Ġsc":623,"Ġwr":624,"Ġprice":625,"Ġche":626,"ppoin":627,"appoin":628,"ater":629,"Ġph":630,"Ġmade":631,"own":632,"ting":633,"Ġpurch":634,"ink":635,"are":636,"ss":637,"te":638,"Ġperf":639,"irst":640,"ue":641,"Ġdisappoin":642,"thing":643,"age":644,"ves":645,"Ġfirst":646,"ight":647,"oy":648,"Ġput":649,"Ġkn":650,"lor":651,"Ġway":652,"iff":653,"Ġhi":654,"Ġbetter":655,"Ġexpect":656,"Ġevery":657,"ple":658,"Ġyear":659,"Ġmon":660,"Ġeasy":661,"Ġperfect":662,"Ġdes":663,"Ġshe":664,"Ġlong":665,"Ġcannot":666,"Ġbl":667,"vie":668,"oney":669,"ict":670,"Ġstar":671,"Ġri":672,"fort":673,"Ġmoney":674,"atch":675,"Ġcase":676,"Ġcolor":677,"Ġnow":678,"Ġhapp":679,"AD":680,"BAD":681,"ace":682,"Ġman":683,"pe":684,"Ġinst":685,"Ġused":686,"to":687,"Ġdiff":688,"Ġby":689,"Ġagain":690,"Ġalso":691,"Ġmonth":692,"Ġwear":693,"ich":694,"Ġstill":695,"Ġher":696,"Ġworks":697,"joy":698,"Ġsho":699,"Ġlight":700,"ps":701,"ased":702,"Ġtwo":703,"Ġte":704,"Ġcheap":705,"av":706,"ach":707,"lf":708,"ute":709,"ks":710,"Ġkeep":711,"pl":712,"Ġwho":713,"ty":714,"ment":715,"Ġbig":716,"Ġenjoy":717,"Ġits":718,"Ġbro":719,"Ġend":720,"Ġser":721,"Ġbeen":722,"ire":723,"Ġold":724,"ous":725,"Ġaw":726,"Ġdisappointed":727,"ond":728,"other":729,"Ġhard":730,"ial":731,"per":732,"Ġdown":733,"ff":734,"Ġphone":735,"Ġseem":736,"ry":737,"ull":738,"Ġwhich":739,"ens":740,"Ġthr":741,"Ġthing":742,"Ġsa":743,"our":744,"Ġlot":745,"Ġnew":746,"Ġfl":747,"Ġlooks":748,"icture":749,"pped":750,"Ġlast":751,"Ġpicture":752,"az":753,"atter":754,"Ġim":755,"ts":756,"ile":757,"we":758,"Ġordered":759,"Ġthen":760,"Ġpart":761,"les":762,"ger":763,"ass":764,"Ġact":765,"Ġrece":766,"Ġhold":767,"Ġbit":768,"Ġinter":769,"Ġlar":770,"Ġitem":771,"Ġcharact":772,"au":773,"ily":774,"ese":775,"Ġworth":776,"Ġcl":777,"Ġshould":778,"Ġthink":779,"Ġtri":780,"Ġhigh":781,"ions":782,"Ġmake":783,"Ġfeel":784,"Ġsee":785,"Ġdef":786,"Ġcame":787,"Ġlooking":788,"Ġwant":789,"Ġinto":790,"Ġhappy":791,"ever":792,"Ġright":793,"ving":794,"Ġknow":795,"Ġfun":796,"Ġset":797,"ath":798,"tty":799,"orm":800,"Ġdiffer":801,"Ġfo":802,"Ġwee":803,"air":804,"Ġcont":805,"akes":806,"Ġamaz":807,"Ġcle":808,"Ġfew":809,"ail":810,"ft":811,"Ġhand":812,"astic":813,"Ġnever":814,"Ġthought":815,"Ġhis":816,"these":817,"Ġexpected":818,"fortable":819,"Ġbooks":820,"Ġapp":821,"im":822,"rand":823,"ived":824,"ful":825,"Ġ?":826,"Ġgl":827,"Ġreading":828,"Ġday":829,"ree":830,"Ġenough":831,"Ġpack":832,"Ġpretty":833,"Ġfind":834,"xt":835,"pen":836,"Ġbr":837,"Ġbad":838,"mo":839,"fore":840,"Ġthrough":841,"Ġthough":842,"be":843,"ated":844,"ph":845,"Ġmonths":846,"Ġour":847,"great":848,"Ġcover":849,"ress":850,"Ġgu":851,"Ġloved":852,"Ġanother":853,"nder":854,"ud":855,"Ġsame":856,"ghter":857,"ked":858,"Ġhowever":859,"Ġmany":860,"ually":861,"my":862,"Ġspe":863,"ult":864,"Ġpe":865,"Ġdifferent":866,"wh":867,"Ġwa":868,"view":869,"Ġhel":870,"Ġbefore":871,"read":872,"Ġcar":873,"Ġreceived":874,"ug":875,"ms":876,"Ġtry":877,"ise":878,"Ġpurchase":879,"oun":880,"Ġmay":881,"Ġrepl":882,"Ġbroke":883,"Ġins":884,"Ġcharacters":885,"Ġgoing":886,"ave":887,"Ġbox":888,"Ġreview":889,"Ġbest":890,"Ġproble":891,"Ġsure":892,"Ġwaste":893,"Ġseries":894,"Ġaut":895,"Ġdefin":896,"Ġcomfortable":897,"Ġsec":898,"Ġac":899,"Ġplay":900,"Ġfine":901,"aterial":902,"Ġpie":903,"hing":904,"Ġusing":905,"Ġcor":906,"Ġgr":907,"ott":908,"Ġsto":909,"Ġaround":910,"Ġworked":911,"cri":912,"Ġpurchased":913,"Ġmaterial":914,"Ġro":915,"Ġwish":916,"reen":917,"Ġmost":918,"Ġtim":919,"Ġfar":920,"ool":921,"hor":922,"Ġfits":923,"Ġbatter":924,"Ġlarge":925,"ip":926,"vel":927,"ious":928,"Ġunder":929,"itely":930,"Ġwatch":931,"Ġreal":932,"Ġturn":933,"Ġmin":934,"Ġwhile":935,"Ġjo":936,"ans":937,"ber":938,"UR":939,"Ġopen":940,"aughter":941,"fe":942,"Ġarri":943,"Ġext":944,"Ġplastic":945,"Ġcute":946,"Ġfin":947,"Ġsomething":948,"Ġtop":949,"Ġbag":950,"Ġshow":951,"Ġsl":952,"Ġtheir":953,"Ġdescri":954,"ang":955,"Ġdefinitely":956,"ance":957,"gin":958,"Ġshort":959,"Ġstr":960,"Ġsound":961,"Ġquick":962,"Ġkind":963,"Ġcr":964,"Ġgif":965,"Ġexce":966,"Ġtimes":967,"Ġworking":968,"dy":969,"CUR":970,"Ġprot":971,"ub":972,"ild":973,"Ġfound":974,"Ġhelp":975,"Ġwater":976,"Ġgive":977,"Ġclo":978,"Ġyears":979,"Ġsay":980,"Ġtried":981,"Ġmovie":982,"Ġinterest":983,"anted":984,"Ġnext":985,"aut":986,"self":987,"ning":988,"iz":989,"Ġpoor":990,"ition":991,"Ġwithout":992,"Ġmakes":993,"Ġcome":994,"Ġenjoyed":995,"pping":996,"Ġimp":997,"Ġshoes":998,"Ġauthor":999,"ign":1000,"Ġrun":1001,"Ġprotect":1002,"aking":1003,"rible":1004,"Ġwar":1005,"rie":1006,"ical":1007,"Ġinstall":1008,"Ġloves":1009,"de":1010,"ince":1011,"ather":1012,"wn":1013,"Ġless":1014,"Ġdog":1015,"Ġadd":1016,"iting":1017,"Ġdays":1018,"Ġbott":1019,"int":1020,"Ġhead":1021,"Ġever":1022,"ating":1023,"Ġok":1024,"Ġseems":1025,"ence":1026,"Ġgift":1027,"wor":1028,"Ġwanted":1029,"Ġatt":1030,"ible":1031,"Ġson":1032,"ways":1033,"do":1034,"Ġstars":1035,"Ġamazon":1036,"llent":1037,"autif":1038,"ason":1039,"ately":1040,"Ġdaughter":1041,"Ġinf":1042,"Ġinc":1043,"Ġref":1044,"Ġear":1045,"Ġsince":1046,"Ġarrived":1047,"irt":1048,"ol":1049,"Ġbel":1050,"Ġtake":1051,"ption":1052,"Ġstick":1053,"itten":1054,"Ġcomple":1055,"Ġmis":1056,"Ġsim":1057,"less":1058,"riend":1059,"ose":1060,"Ġsli":1061,"avor":1062,"ised":1063,"Ġboth":1064,"Ġneeded":1065,"ash":1066,"Ġsecond":1067,"Ġwhere":1068,"ket":1069,"Ġaway":1070,"Ġfall":1071,"Ġnothing":1072,"Ġsn":1073,"Ġwritten":1074,"ready":1075,"Ġalways":1076,"Ġscreen":1077,"ange":1078,"Ġside":1079,"Ġple":1080,"ces":1081,"Ġgi":1082,"Ġdesign":1083,"Ġalready":1084,"Ġsuper":1085,"Ġthin":1086,"Ġreplac":1087,"vers":1088,"Ġtight":1089,"Ġlife":1090,"Ġdec":1091,"oom":1092,"uck":1093,"Ġsur":1094,"Ġel":1095,"Ġcut":1096,"Ġliked":1097,"Ġeasily":1098,"Ġbeing":1099,"love":1100,"ark":1101,"Ġpair":1102,"tain":1103,"Ġkid":1104,"red":1105,"Ġproblem":1106,"gether":1107,"ower":1108,"ings":1109,"ual":1110,"Ġdur":1111,"Ġap":1112,"nect":1113,"ci":1114,"Ġreturned":1115,"Ġstay":1116,"autiful":1117,"Ġres":1118,"Ġdel":1119,"Ġed":1120,"day":1121,"Ġacc":1122,"Ġstra":1123,"Ġfast":1124,"ric":1125,"ruct":1126,"Ġgetting":1127,"Ġtogether":1128,"llow":1129,"bo":1130,"ably":1131,"itch":1132,"Ġable":1133,"most":1134,"Ġonce":1135,"Ġiss":1136,"Ġclean":1137,"Ġperfectly":1138,"Ġshi":1139,"Ġcou":1140,"Ġpeo":1141,"bs":1142,"Ġinteresting":1143,"Ġsoft":1144,"Ġstarted":1145,"Ġbrand":1146,"Ġx":1147,"Ġpeople":1148,"ward":1149,"sh":1150,"vice":1151,"Ġbre":1152,"Ġcomplete":1153,"ary":1154,"Ġtook":1155,"Ġsty":1156,"Ġchr":1157,"Ġpers":1158,"io":1159,"Ġz":1160,"Ġbattery":1161,"Ġactually":1162,"Ġfull":1163,"Ġfriend":1164,"Ġexact":1165,"Ġweeks":1166,"ken":1167,"Ġweek":1168,"Ġjob":1169,"Ġanything":1170,"sol":1171,"Ġblack":1172,"ount":1173,"Ġconnect":1174,"Ġown":1175,"just":1176,"Ġstand":1177,"Ġanyone":1178,"Ġwait":1179,"Ġdri":1180,"Ġhalf":1181,"Ġsk":1182,"Ġsmaller":1183,"its":1184,"Ġpiece":1185,"Ġstart":1186,"ush":1187,"Ġwond":1188,"Ġeverything":1189,"Ġhour":1190,"sed":1191,"edi":1192,"Ġalmost":1193,"Ġapart":1194,"uff":1195,"ors":1196,"ead":1197,"Ġfinish":1198,"Ġquite":1199,"Ġcard":1200,"Ġyet":1201,"Ġbuying":1202,"Ġcost":1203,"cks":1204,"Ġsever":1205,"ren":1206,"ots":1207,"Ġsaid":1208,"Ġhighly":1209,"Ġra":1210,"Ġter":1211,"vert":1212,"ix":1213,"Ġbroken":1214,"Ġdra":1215,"Ġgave":1216,"ds":1217,"Ġpay":1218,"pr":1219,"ement":1220,"Ġtra":1221,"Ġcam":1222,"Ġsupp":1223,"ouse":1224,"Ġshoe":1225,"Ġlonger":1226,"Ġchrist":1227,"Ġheav":1228,"Ġseveral":1229,"Ġcouple":1230,"up":1231,"Ġbeautiful":1232,"ied":1233,"Ġty":1234,"ller":1235,"Ġexcellent":1236,"Ġmust":1237,"gg":1238,"esome":1239,"Ġori":1240,"Ġwash":1241,"Ġstore":1242,"Ġreg":1243,"good":1244,"Ġsad":1245,"Ġthings":1246,"Ġperson":1247,"Ġshirt":1248,"ensive":1249,"Ġreason":1250,"Ġeach":1251,"Ġclear":1252,"Ġchild":1253,"Ġinside":1254,"ations":1255,"Ġwent":1256,"ton":1257,"Ġloo":1258,"ction":1259,"Ġfan":1260,"Ġes":1261,"Ġplace":1262,"Ġtast":1263,"ier":1264,"Ġwhy":1265,"Ġfil":1266,"Ġreviews":1267,"Ġcharge":1268,"mm":1269,"erful":1270,"ex":1271,"Ġmaybe":1272,"Ġkept":1273,"ner":1274,"Ġorigin":1275,"Ġexactly":1276,"Ġsw":1277,"Ġdiffic":1278,"Ġstur":1279,"ular":1280,"os":1281,"Ġadvert":1282,"Ġones":1283,"Ġhope":1284,"band":1285,"Ġkids":1286,"Ġcare":1287,"Ġunt":1288,"Ġwithin":1289,"Ġline":1290,"Ġcolors":1291,"Ġquickly":1292,"Ġgame":1293,"ents":1294,"Ġguess":1295,"Ġbottom":1296,"Ġcoll":1297,"ages":1298,"mas":1299,"lain":1300,"solute":1301,"Ġoverall":1302,"Ġthree":1303,"Ġfavor":1304,"Ġhim":1305,"Ġlooked":1306,"Ġhaving":1307,"Ġpain":1308,"ys":1309,"Ġstor":1310,"Ġbri":1311,"Ġdifficult":1312,"Ġlet":1313,"ee":1314,"Ġuntil":1315,"Ġprob":1316,"Ġper":1317,"Ġmus":1318,"ters":1319,"Ġinform":1320,"Ġsturdy":1321,"ten":1322,"ape":1323,"ides":1324,"ont":1325,"thers":1326,"they":1327,"Ġide":1328,"stand":1329,"Ġothers":1330,"Ġelse":1331,"Ġstrong":1332,"Ġwrong":1333,"Ġinstead":1334,"Ġfli":1335,"Ġdet":1336,"Ġheavy":1337,"alk":1338,"reme":1339,"bought":1340,"pper":1341,"Ġtot":1342,"Ġamazing":1343,"Ġhop":1344,"Ġprobably":1345,"Ġgrand":1346,"Ġfam":1347,"Ġsme":1348,"Ġsuch":1349,"aw":1350,"sing":1351,"iv":1352,"ats":1353,"Ġem":1354,"Ġfab":1355,"ife":1356,"ny":1357,"Ġsent":1358,"ments":1359,"Ġfeet":1360,"Ġoriginal":1361,"Ġtrying":1362,"arn":1363,"Ġcomes":1364,"rew":1365,"Ġwhite":1366,"Ġhere":1367,"Ġthose":1368,"Ġhus":1369,"Ġsol":1370,"Ġhor":1371,"Ġdress":1372,"Ġstopped":1373,"Ġsend":1374,"Ġchristmas":1375,"Ġsmell":1376,"Ġdone":1377,"Ġvers":1378,"unk":1379,"Ġbutton":1380,"Ġroom":1381,"Ġawesome":1382,"ret":1383,"Ġwriting":1384,"Ġlow":1385,"Ġbreak":1386,"ues":1387,"Ġstyle":1388,"Ġfree":1389,"Ġwhole":1390,"Ġcharg":1391,"Ġhusband":1392,"und":1393,"ract":1394,"solutely":1395,"Ġfact":1396,"Ġbul":1397,"Ġshipping":1398,"Ġmar":1399,"ls":1400,"elt":1401,"ative":1402,"Ġlarger":1403,"Ġreplacement":1404,"bed":1405,"ither":1406,"Ġcool":1407,"Ġpa":1408,"Ġweight":1409,"Ġdescription":1410,"Ġsays":1411,"Ġwind":1412,"Ġphot":1413,"Ġplot":1414,"remely":1415,"ne":1416,"Ġcons":1417,"Ġcompletely":1418,"aper":1419,"Ġplug":1420,"Ġdeli":1421,"Ġtell":1422,"Ġglass":1423,"Ġhot":1424,"Ġconst":1425,"Ġstuff":1426,"Ġmusic":1427,"Ġbelie":1428,"Ġrel":1429,"Ġinstruct":1430,"Ġkeeps":1431,"Ġfell":1432,"Ġmight":1433,"Ġpower":1434,"Ġdeal":1435,"line":1436,"Ġbas":1437,"Ġleft":1438,"Ġgets":1439,"Ġwall":1440,"Ġdisc":1441,"Ġpackage":1442,"utes":1443,"Ġtrue":1444,"Ġthank":1445,"Ġmet":1446,"Ġextra":1447,"Ġclose":1448,"cially":1449,"ones":1450,"Ġsle":1451,"ets":1452,"phone":1453,"Ġtable":1454,"Ġthick":1455,"Ġneeds":1456,"Ġfabric":1457,"Ġadvertised":1458,"els":1459,"Ġsong":1460,"Ġsupport":1461,"Ġminutes":1462,"Ġexc":1463,"Ġhours":1464,"fortun":1465,"Ġfollow":1466,"Ġprin":1467,"ully":1468,"though":1469,"any":1470,"Ġnorm":1471,"Ġlist":1472,"Ġdro":1473,"Ġrem":1474,"ouch":1475,"Ġfavorite":1476,"ature":1477,"ib":1478,"Ġclass":1479,"Ġespe":1480,"aged":1481,"Ġhome":1482,"Ġnight":1483,"Ġincl":1484,"Ġreturning":1485,"Ġscr":1486,"Ġespecially":1487,"Ġcrack":1488,"gn":1489,"led":1490,"Ġval":1491,"Ġwonderful":1492,"Ġred":1493,"ord":1494,"Ġsuppo":1495,"wise":1496,"Ġforward":1497,"ited":1498,"Ġwarm":1499,"Ġpieces":1500,"Ġextremely":1501,"Ġremo":1502,"Ġrub":1503,"Ġpull":1504,"Ġswe":1505,"iny":1506,"era":1507,"ird":1508,"vious":1509,"Ġind":1510,"Ġloose":1511,"Ġfront":1512,"Ġinclud":1513,"rect":1514,"Ġotherwise":1515,"Ġcomplain":1516,"Ġbigger":1517,"ume":1518,"Ġfelt":1519,"Ġfamily":1520,"ows":1521,"works":1522,"Ġsurpr":1523,"fortunately":1524,"Ġpaper":1525,"Ġprov":1526,"Ġgen":1527,"Ġexpensive":1528,"nice":1529,"Ġcap":1530,"eng":1531,"com":1532,"ale":1533,"ective":1534,"Ġsomeone":1535,"Ġcli":1536,"Ġair":1537,"ants":1538,"Ġhist":1539,"Ġcur":1540,"Ġbright":1541,"Ġcharacter":1542,"Ġcd":1543,"Ġsat":1544,"Ġrep":1545,"Ġsoon":1546,"ider":1547,"ared":1548,"Ġwearing":1549,"did":1550,"cess":1551,"Ġinformation":1552,"Ġmag":1553,"ew":1554,"Ġleast":1555,"Ġband":1556,"eless":1557,"Ġbed":1558,"lic":1559,"Ġdetail":1560,"ention":1561,"Ġseller":1562,"Ġsy":1563,"ics":1564,"where":1565,"Ġabsolutely":1566,"Ġeither":1567,"ware":1568,"Ġunderstand":1569,"Ġmaking":1570,"ically":1571,"Ġfeels":1572,"Ġdisappointing":1573,"als":1574,"Ġstories":1575,"Ġav":1576,"Ġglad":1577,"Ġblue":1578,"Ġended":1579,"Ġpoc":1580,"Ġfoot":1581,"Ġpick":1582,"Ġhouse":1583,"side":1584,"Ġpast":1585,"isf":1586,"Ġpleased":1587,"Ġhappen":1588,"Ġthanks":1589,"Ġproblems":1590,"what":1591,"Ġinstructions":1592,"Ġpictures":1593,"Ġproper":1594,"Ġnovel":1595,"Ġport":1596,"Ġkey":1597,"Ġago":1598,"Ġpoint":1599,"Ġinch":1600,"Ġcond":1601,"Ġmod":1602,"Ġcable":1603,"Ġslow":1604,"ates":1605,"Ġrest":1606,"msy":1607,"arr":1608,"Ġmedi":1609,"Ġlots":1610,"Ġterrible":1611,"Ġgra":1612,"Ġscratch":1613,"Ġdam":1614,"velo":1615,"Ġbegin":1616,"Ġcra":1617,"Ġversion":1618,"Ġfra":1619,"Ġfig":1620,"Ġdark":1621,"Ġmine":1622,"vent":1623,"Ġrefund":1624,"ween":1625,"Ġdurable":1626,"Ġdry":1627,"Ġgir":1628,"Ġbor":1629,"Ġlasted":1630,"Ġpages":1631,"Ġsub":1632,"ooth":1633,"Ġbetween":1634,"Ġflo":1635,"Ġcamera":1636,"Ġcorrect":1637,"ster":1638,"po":1639,"Ġreplace":1640,"Ġdire":1641,"Ġball":1642,"Ġpaid":1643,"Ġissue":1644,"Ġdescribed":1645,"Ġtaste":1646,"Ġwom":1647,"ested":1648,"Ġdr":1649,"Ġadjust":1650,"Ġcall":1651,"Ġcoff":1652,"Ġpad":1653,"Ġmain":1654,"Ġwire":1655,"Ġste":1656,"ject":1657,"Ġunit":1658,"Ġflimsy":1659,"Ġgar":1660,"Ġending":1661,"Ġrecommended":1662,"Ġidea":1663,"Ġplan":1664,"Ġspr":1665,"Ġleg":1666,"Ġhandle":1667,"Ġsch":1668,"Ġmess":1669,"Ġtouch":1670,"Ġplus":1671,"Ġint":1672,"ided":1673,"Ġpres":1674,"Ġgri":1675,"Ġeng":1676,"Ġparts":1677,"eri":1678,"board":1679,"Ġcook":1680,"Ġhum":1681,"Ġitself":1682,"Ġent":1683,"Ġspec":1684,"Ġcho":1685,"Ġcompany":1686,"Ġattach":1687,"Ġcoffee":1688,"iter":1689,"Ġissues":1690,"Ġlost":1691,"Ġmyself":1692,"Ġfigure":1693,"Ġbatteries":1694,"Ġcoming":1695,"ons":1696,"Ġcontro":1697,"Ġmetal":1698,"aging":1699,"Ġsimple":1700,"Ġmedium":1701,"Ġmissing":1702,"ian":1703,"kes":1704,"Ġtv":1705,"lish":1706,"Ġunfortunately":1707,"Ġbar":1708,"does":1709,"ump":1710,"Ġhu":1711,"Ġlearn":1712,"Ġtoy":1713,"Ġgoes":1714,"ia":1715,"Ġseemed":1716,"Ġwide":1717,"ams":1718,"Ġfood":1719,"ax":1720,"velop":1721,"Ġhang":1722,"ng":1723,"Ġtype":1724,"Ġve":1725,"Ġmatch":1726,"Ġele":1727,"Ġtakes":1728,"Ġlights":1729,"antly":1730,"Ġcontin":1731,"fer":1732,"ced":1733,"Ġservice":1734,"Ġspeak":1735,"Ġhuge":1736,"Ġrequ":1737,"omet":1738,"ssible":1739,"Ġusually":1740,"Ġfill":1741,"Ġalthough":1742,"Ġpage":1743,"Ġholds":1744,"Ġwalk":1745,"Ġuseless":1746,"Ġphoto":1747,"Ġdv":1748,"ength":1749,"no":1750,"way":1751,"ppy":1752,"ges":1753,"Ġslight":1754,"Ġregular":1755,"Ġcharger":1756,"Ġlength":1757,"Ġshar":1758,"Ġkindle":1759,"Ġenter":1760,"Ġhoping":1761,"book":1762,"Ġsupposed":1763,"Ġchange":1764,"Ġexpecting":1765,"Ġbelieve":1766,"Ġlin":1767,"ize":1768,"Ġfix":1769,"Ġcomput":1770,"Ġrather":1771,"Ġwife":1772,"Ġjunk":1773,"Ġdi":1774,"gra":1775,"Ġtrans":1776,"Ġsatisf":1777,"Ġdoll":1778,"co":1779,"Ġexperi":1780,"mmer":1781,"Ġbare":1782,"Ġworld":1783,"Ġhorrible":1784,"ustom":1785,"Ġdirect":1786,"Ġproperly":1787,"Ġproducts":1788,"Ġnear":1789,"Ġappear":1790,"ness":1791,"ently":1792,"Ġ%":1793,"Ġdevelop":1794,"Ġduring":1795,"Ġann":1796,"Ġrom":1797,"ross":1798,"pro":1799,"Ġnum":1800,"Ġopened":1801,"Ġcat":1802,"Ġimpress":1803,"imes":1804,"Ġstud":1805,"ling":1806,"Ġpen":1807,"att":1808,"ank":1809,"bb":1810,"Ġsomet":1811,"ired":1812,"Ġtwist":1813,"Ġcup":1814,"Ġcustom":1815,"Ġiphone":1816,"Ġhook":1817,"Ġcondition":1818,"ins":1819,"gr":1820,"Ġleather":1821,"gy":1822,"cept":1823,"Ġvol":1824,"Ġboots":1825,"Ġmove":1826,"Ġplac":1827,"Ġbir":1828,"Ġtotally":1829,"Ġcollect":1830,"Ġart":1831,"ged":1832,"Ġseen":1833,"Ġdue":1834,"Ġeveryone":1835,"Ġcord":1836,"Ġbra":1837,"Ġleak":1838,"Ġmid":1839,"Ġhear":1840,"Ġrubber":1841,"Ġfriends":1842,"ense":1843,"Ġloc":1844,"Ġfour":1845,"dd":1846,"Ġpants":1847,"Ġboring":1848,"ouble":1849,"Ġvalue":1850,"Ġimm":1851,"Ġarea":1852,"Ġspend":1853,"set":1854,"Ġfail":1855,"ized":1856,"gan":1857,"Ġfre":1858,"Ġvide":1859,"ustr":1860,"ility":1861,"Ġnarr":1862,"Ġcarry":1863,"iced":1864,"Ġentire":1865,"retch":1866,"bum":1867,"Ġtoday":1868,"Ġsave":1869,"Ġring":1870,"Ġsizes":1871,"Ġstop":1872,"arch":1873,"Ġfunny":1874,"Ġzi":1875,"Ġentertain":1876,"Ġshows":1877,"Ġpress":1878,"Ġstretch":1879,"Ġconf":1880,"Ġfunction":1881,"Ġpoorly":1882,"Ġcomputer":1883,"Ġsometimes":1884,"sem":1885,"Ġalbum":1886,"amp":1887,"Ġschool":1888,"for":1889,"Ġbarely":1890,"Ġlisten":1891,"Ġsolid":1892,"Ġfair":1893,"Ġhands":1894,"oud":1895,"Ġform":1896,"Ġdevice":1897,"Ġer":1898,"Ġcer":1899,"Ġsing":1900,"Ġprint":1901,"Ġcheck":1902,"Ġholes":1903,"Ġprom":1904,"Ġcheaply":1905,"Ġworn":1906,"ote":1907,"Ġfant":1908,"Ġalong":1909,"Ġchang":1910,"Ġsit":1911,"king":1912,"Ġflat":1913,"Ġpill":1914,"Ġnicely":1915,"ky":1916,"Ġdep":1917,"kets":1918,"pad":1919,"Ġwore":1920,"Ġaction":1921,"Ġoutside":1922,"top":1923,"Ġlive":1924,"asing":1925,"fully":1926,"Ġdvd":1927,"apter":1928,"was":1929,"Ġneck":1930,"Ġpri":1931,"Ġgiven":1932,"Ġmic":1933,"Ġsqu":1934,"Ġmom":1935,"ient":1936,"Ġhistory":1937,"Ġhole":1938,"lling":1939,"Ġey":1940,"Ġitems":1941,"ices":1942,"tc":1943,"Ġlater":1944,"Ġstrap":1945,"Ġswitch":1946,"son":1947,"Ġwhe":1948,"Ġcloth":1949,"Ġflavor":1950,"Ġstuck":1951,"net":1952,"Ġprevious":1953,"order":1954,"ding":1955,"Ġwood":1956,"Ġob":1957,"Ġpass":1958,"ames":1959,"Ġgreen":1960,"Ġrid":1961,"Ġmem":1962,"aps":1963,"Ġchildren":1964,"Ġunless":1965,"Ġcreat":1966,"Ġsign":1967,"Ġmind":1968,"Ġcop":1969,"Ġcontain":1970,"Ġsaw":1971,"Ġspace":1972,"inter":1973,"Ġdraw":1974,"dle":1975,"exce":1976,"Ġuses":1977,"Ġcards":1978,"get":1979,"Ġje":1980,"cy":1981,"comfortable":1982,"Ġaddition":1983,"cer":1984,"Ġtwice":1985,"Ġchin":1986,"Ġdoor":1987,"Ġordering":1988,"ilar":1989,"Ġbab":1990,"Ġannoy":1991,"Ġtiny":1992,"Ġsmooth":1993,"Ġheart":1994,"Ġmyster":1995,"Ġlap":1996,"Ġshape":1997,"Ġwaist":1998,"Ġfa":1999,"Ġburn":2000,"Ġfalling":2001,"Ġeff":2002,"tend":2003,"Ġgener":2004,"Ġgives":2005,"Ġdecent":2006,"Ġtyp":2007,"Ġokay":2008,"Ġtext":2009,"really":2010,"ases":2011,"Ġconsider":2012,"Ġnormal":2013,"Ġturned":2014,"look":2015,"Ġlab":2016,"Ġinstalled":2017,"light":2018,"Ġdogs":2019,"Ġsand":2020,"vered":2021,"Ġpos":2022,"Ġsugg":2023,"Ġpresent":2024,"let":2025,"Ġuseful":2026,"aster":2027,"Ġetc":2028,"Ġbi":2029,"Ġcracked":2030,"after":2031,"Ġsus":2032,"Ġipad":2033,"Ġplease":2034,"Ġpurp":2035,"Ġmix":2036,"itive":2037,"excellent":2038,"ilt":2039,"Ġsocks":2040,"Ġir":2041,"Ġimmedi":2042,"Ġwords":2043,"Ġhair":2044,"pect":2045,"Ġbelt":2046,"Ġsatisfied":2047,"ars":2048,"Ġmult":2049,"Ġworst":2050,"stem":2051,"Ġpackaging":2052,"orry":2053,"zy":2054,"Ġfeature":2055,"Ġbirth":2056,"ung":2057,"Ġlock":2058,"ific":2059,"Ġconstruct":2060,"Ġmatter":2061,"oof":2062,"Ġmot":2063,"Ġhelpful":2064,"Ġsystem":2065,"iet":2066,"Ġmach":2067,"Ġdoing":2068,"Ġassem":2069,"Ġmodel":2070,"Ġinv":2071,"Ġface":2072,"Ġslightly":2073,"ading":2074,"Ġcold":2075,"Ġlau":2076,"Ġputting":2077,"Ġtravel":2078,"Ġop":2079,"Ġamount":2080,"Ġusb":2081,"Ġexcept":2082,"Ġthinking":2083,"Ġlikes":2084,"Ġvis":2085,"Ġsetting":2086,"Ġincluded":2087,"Ġlid":2088,"asure":2089,"aren":2090,"res":2091,"Ġexcited":2092,"Ġcharging":2093,"Ġcart":2094,"Ġdisappoint":2095,"Ġperform":2096,"Ġhon":2097,"Ġprotector":2098,"Ġfinally":2099,"Ġcertain":2100,"Ġpocket":2101,"Ġcheaper":2102,"Ġimmediately":2103,"Ġeasier":2104,"Ġpictured":2105,"Ġthrow":2106,"Ġbottle":2107,"Ġnon":2108,"used":2109,"more":2110,"Ġwrite":2111,"got":2112,"Ġimpressed":2113,"uly":2114,"Ġtool":2115,"Ġripped":2116,"Ġfive":2117,"Ġsongs":2118,"Ġbuild":2119,"Ġrecip":2120,"bage":2121,"Ġvideo":2122,"Ġmulti":2123,"Ġpract":2124,"Ġreplaced":2125,"Ġavail":2126,"Ġrunning":2127,"Ġdist":2128,"Ġremove":2129,"Ġcomm":2130,"Ġdelivery":2131,"Ġcustomer":2132,"Ġvar":2133,"Ġruns":2134,"Ġvie":2135,"Ġskin":2136,"Ġpan":2137,"Ġcab":2138,"Ġsnug":2139,"Ġxl":2140,"Ġview":2141,"Ġonline":2142,"asy":2143,"Ġgiving":2144,"Ġheld":2145,"Ġbirthday":2146,"Ġactual":2147,"rant":2148,"urch":2149,"Ġuncomfortable":2150,"man":2151,"phones":2152,"par":2153,"Ġyoung":2154,"su":2155,"Ġloud":2156,"Ġtape":2157,"ional":2158,"Ġoften":2159,"Ġturns":2160,"Ġluck":2161,"Ġcontact":2162,"Ġpink":2163,"Ġpu":2164,"Ġsil":2165,"Ġzipper":2166,"Ġclip":2167,"Ġhat":2168,"Ġble":2169,"well":2170,"Ġbaby":2171,"Ġev":2172,"Ġlaptop":2173,"Ġsleep":2174,"Ġdamaged":2175,"aded":2176,"Ġtem":2177,"Ġenjoyable":2178,"Ġpost":2179,"Ġstep":2180,"Ġfing":2181,"Ġslee":2182,"Ġplaying":2183,"Ġromance":2184,"Ġcal":2185,"Ġill":2186,"Ġfut":2187,"Ġtea":2188,"br":2189,"Ġbeginning":2190,"acket":2191,"Ġcour":2192,"product":2193,"mber":2194,"Ġye":2195,"ah":2196,"Ġcu":2197,"Ġbus":2198,"igh":2199,"Ġprotection":2200,"Ġnarrow":2201,"Ġinterested":2202,"Ġstandard":2203,"Ġsharp":2204,"Ġsweet":2205,"Ġstraight":2206,"Ġfantastic":2207,"Ġseason":2208,"ror":2209,"Ġsurprised":2210,"Ġvolume":2211,"play":2212,"Ġlevel":2213,"Ġvo":2214,"Ġscrew":2215,"Ġsecure":2216,"Ġpurpose":2217,"Ġfinished":2218,"Ġshipped":2219,"Ġmiddle":2220,"Ġweak":2221,"like":2222,"Ġtablet":2223,"Ġbuttons":2224,"Ġattention":2225,"Ġedge":2226,"Ġyes":2227,"Ġlay":2228,"ined":2229,"Ġsimilar":2230,"Ġroll":2231,"Ġbase":2232,"Ġupd":2233,"Ġaccur":2234,"Ġboy":2235,"Ġavailable":2236,"Ġseat":2237,"ler":2238,"Ġfire":2239,"Ġentertaining":2240,"when":2241,"Ġsuggest":2242,"Ġsorry":2243,"Ġsides":2244,"worked":2245,"Ġglo":2246,"Ġshown":2247,"Ġtold":2248,"Ġink":2249,"Ġboard":2250,"Ġfilm":2251,"Ġfle":2252,"Ġmachine":2253,"Ġfilter":2254,"fit":2255,"Ġtech":2256,"Ġbuilt":2257,"Ġmov":2258,"Ġhonest":2259,"Ġpurchasing":2260,"Ġprefer":2261,"Ġexperience":2262,"Ġhur":2263,"Ġframe":2264,"Ġvac":2265,"Ġawful":2266,"Ġsummer":2267,"Ġbags":2268,"Ġlack":2269,"Ġreader":2270,"Ġlens":2271,"Ġcontrol":2272,"que":2273,"Ġpop":2274,"Ġfuture":2275,"Ġgarbage":2276,"Ġpaint":2277,"umb":2278,"Ġmystery":2279,"ream":2280,"Ġreceive":2281,"Ġsun":2282,"Ġdeep":2283,"Ġcollection":2284,"Ġgold":2285,"Ġwra":2286,"room":2287,"Ġmovies":2288,"eds":2289,"iness":2290,"cc":2291,"there":2292,"ulous":2293,"ime":2294,"Ġtotal":2295,"Ġgirl":2296,"Ġcomplaint":2297,"Ġda":2298,"Ġdrive":2299,"Ġfold":2300,"Ġlaugh":2301,"Ġass":2302,"Ġhit":2303,"ply":2304,"Ġcovers":2305,"itting":2306,"Ġtear":2307,"Ġwomen":2308,"perf":2309,"Ġwashed":2310,"Ġboot":2311,"Ġbased":2312,"ults":2313,"Ġstain":2314,"Ġtaking":2315,"Ġfore":2316,"Ġcompli":2317,"Ġrecipes":2318,"rid":2319,"tern":2320,"gle":2321,"Ġaccess":2322,"ried":2323,"Ġscen":2324,"Ġanymore":2325,"eric":2326,"Ġdrink":2327,"Ġtrack":2328,"uf":2329,"Ġcopy":2330,"Ġdead":2331,"Ġleave":2332,"Ġbody":2333,"loved":2334,"og":2335,"Ġhate":2336,"fy":2337,"zz":2338,"Ġcompared":2339,"Ġaud":2340,"Ġfloor":2341,"Ġallow":2342,"Ġdropped":2343,"Ġtrip":2344,"Ġkeyboard":2345,"Ġchair":2346,"Ġolder":2347,"Ġbow":2348,"Ġprof":2349,"Ġknew":2350,"Ġproject":2351,"ufact":2352,"Ġnormally":2353,"Ġname":2354,"Ġholding":2355,"Ġsepar":2356,"vable":2357,"Ġhappened":2358,"Ġcourse":2359,"too":2360,"Ġimag":2361,"ising":2362,"Ġstraps":2363,"ering":2364,"Ġdifference":2365,"isted":2366,"Ġwatching":2367,"Ġmoun":2368,"Ġmil":2369,"Ġresp":2370,"Ġquest":2371,"che":2372,"Ġannoying":2373,"Ġtruly":2374,"Ġseal":2375,"Ġliter":2376,"Ġbath":2377,"Ġtest":2378,"Ġthird":2379,"Ġmanufact":2380,"Ġdefective":2381,"Ġheat":2382,"Ġprinter":2383,"Ġnoise":2384,"Ġdelivered":2385,"Ġsimply":2386,"Ġtrash":2387,"Ġimpro":2388,"ister":2389,"Ġdecided":2390,"Ġameric":2391,"Ġmultiple":2392,"Ġscrews":2393,"ero":2394,"Ġpar":2395,"Ġsurf":2396,"ued":2397,"Ġwaiting":2398,"Ġedges":2399,"Ġuni":2400,"aves":2401,"orn":2402,"Ġcaus":2403,"Ġparty":2404,"Ġlegs":2405,"Ġgre":2406,"Ġsingle":2407,"Ġarm":2408,"Ġspent":2409,"Ġcount":2410,"Ġteach":2411,"Ġcand":2412,"Ġflow":2413,"Ġpillow":2414,"ordered":2415,"Ġsal":2416,"weight":2417,"Ġsized":2418,"Ġdim":2419,"Ġheal":2420,"Ġpred":2421,"he":2422,"Ġweird":2423,"Ġimpo":2424,"you":2425,"Ġbrown":2426,"Ġpartic":2427,"Ġtrouble":2428,"Ġheadphones":2429,"enty":2430,"Ġcomfort":2431,"Ġmouse":2432,"Ġce":2433,"looks":2434,"Ġknife":2435,"Ġinches":2436,"Ġnumber":2437,"perfect":2438,"Ġmean":2439,"Ġkitch":2440,"had":2441,"Ġpatter":2442,"Ġhelps":2443,"Ġopening":2444,"Ġsomewhat":2445,"Ġbother":2446,"Ġimpossible":2447,"Ġsens":2448,"Ġmor":2449,"Ġpush":2450,"Ġglue":2451,"Ġbeat":2452,"Ġkitchen":2453,"Ġlbs":2454,"ites":2455,"Ġsounds":2456,"Ġgotten":2457,"Ġchina":2458,"pense":2459,"unch":2460,"Ġbent":2461,"Ġbeh":2462,"Ġnone":2463,"Ġrad":2464,"Ġconnection":2465,"istic":2466,"Ġmat":2467,"Ġmeasure":2468,"Ġwindow":2469,"Ġnote":2470,"Ġserious":2471,"cle":2472,"ners":2473,"Ġeat":2474,"Ġrating":2475,"Ġmist":2476,"Ġsuit":2477,"Ġconstantly":2478,"Ġelect":2479,"Ġstiff":2480,"Ġopin":2481,"Ġwashing":2482,"Ġthri":2483,"Ġimport":2484,"ned":2485,"Ġpow":2486,"Ġgrow":2487,"Ġblo":2488,"Ġgone":2489,"Ġthread":2490,"Ġflash":2491,"Ġtreat":2492,"Ġid":2493,"ator":2494,"Ġholder":2495,"ming":2496,"iction":2497,"ze":2498,"Ġblu":2499,"Ġkeeping":2500,"fits":2501,"Ġglasses":2502,"Ġdisappointment":2503,"Ġremote":2504,"Ġspecial":2505,"Ġpeel":2506,"Ġtit":2507,"Ġpump":2508,"Ġla":2509,"Ġmen":2510,"Ġthrew":2511,"Ġtall":2512,"Ġorgan":2513,"Ġkit":2514,"Ġdev":2515,"bly":2516,"Ġcareful":2517,"Ġcompliments":2518,"Ġfairly":2519,"ptions":2520,"Ġsense":2521,"Ġtwists":2522,"Ġaccurate":2523,"Ġcats":2524,"Ġoil":2525,"aving":2526,"Ġself":2527,"ictable":2528,"Ġlocal":2529,"Ġbike":2530,"Ġnor":2531,"Ġdaily":2532,"Ġheard":2533,"Ġtow":2534,"Ġappears":2535,"Ġgrandson":2536,"Ġchain":2537,"Ġwears":2538,"Ġsuspense":2539,"Ġbasic":2540,"Ġdisplay":2541,"Ġgames":2542,"Ġmark":2543,"Ġlate":2544,"Ġcartrid":2545,"Ġsizing":2546,"Ġguy":2547,"Ġnotice":2548,"Ġprogra":2549,"Ġmount":2550,"lit":2551,"Ġfrustr":2552,"Ġappro":2553,"daughter":2554,"ution":2555,"Ġwal":2556,"Ġplaces":2557,"Ġdate":2558,"Ġdownlo":2559,"Ġconcept":2560,"Ġcomfy":2561,"ades":2562,"Ġstitch":2563,"Ġcostume":2564,"Ġrese":2565,"Ġstated":2566,"du":2567,"Ġsold":2568,"Ġshower":2569,"Ġwoman":2570,"Ġyellow":2571,"Ġmac":2572,"Ġopinion":2573,"Ġdig":2574,"Ġphotos":2575,"Ġpockets":2576,"Ġfailed":2577,"Ġrefer":2578,"ma":2579,"Ġreme":2580,"Ġant":2581,"Ġprocess":2582,"Ġobvious":2583,"go":2584,"ered":2585,"Ġfalls":2586,"ior":2587,"Ġdiss":2588,"Ġyourself":2589,"Ġsafe":2590,"ips":2591,"enter":2592,"Ġperio":2593,"Ġrele":2594,"Ġchew":2595,"Ġbun":2596,"Ġdirections":2597,"Ġwarrant":2598,"Ġrecord":2599,"Ġfitting":2600,"Ġma":2601,"Ġspray":2602,"tended":2603,"inted":2604,"Ġattached":2605,"Ġdish":2606,"Ġwasted":2607,"Ġmail":2608,"Ġinsight":2609,"irts":2610,"Ġword":2611,"Ġleaves":2612,"Ġsou":2613,"Ġjeans":2614,"ying":2615,"Ġclearly":2616,"Ġdied":2617,"Ġtalk":2618,"Ġstock":2619,"Ġcorrectly":2620,"Ġocc":2621,"Ġspeaker":2622,"Ġrealize":2623,"iss":2624,"Ġremember":2625,"Ġmention":2626,"Ġyr":2627,"Ġwalking":2628,"Ġmoving":2629,"Ġbulky":2630,"orable":2631,"Ġran":2632,"Ġaff":2633,"Ġconstruction":2634,"Ġmiss":2635,"Ġadded":2636,"Ġbend":2637,"Ġmother":2638,"Ġplenty":2639,"pack":2640,"Ġparticular":2641,"Ġlightweight":2642,"ibly":2643,"Ġjacket":2644,"Ġpossible":2645,"logy":2646,"Ġsending":2647,"purch":2648,"Ġpredictable":2649,"Ġappre":2650,"Ġhelped":2651,"have":2652,"Ġupdate":2653,"cheap":2654,"ane":2655,"ining":2656,"Ġpattern":2657,"ield":2658,"Ġexpectations":2659,"Ġslip":2660,"Ġsell":2661,"Ġrecei":2662,"Ġship":2663,"ppers":2664,"Ġcontinue":2665,"Ġeveryday":2666,"Ġdetails":2667,"Ġgranddaughter":2668,"using":2669,"Ġwinter":2670,"lt":2671,"Ġwarranty":2672,"Ġbrush":2673,"Ġlead":2674,"Ġrange":2675,"Ġsams":2676,"Ġappreci":2677,"box":2678,"Ġmed":2679,"Ġplayer":2680,"Ġrough":2681,"Ġcases":2682,"ert":2683,"Ġmicro":2684,"Ġstoryline":2685,"Ġhistor":2686,"ience":2687,"rent":2688,"Ġfresh":2689,"Ġmagnet":2690,"Ġclassic":2691,"Ġgrip":2692,"easy":2693,"Ġled":2694,"lled":2695,"ha":2696,"Ġsheets":2697,"Ġhar":2698,"Ġradio":2699,"Ġoper":2700,"ube":2701,"Ġincred":2702,"Ġpet":2703,"purchased":2704,"Ġreach":2705,"Ġearly":2706,"Ġfi":2707,"Ġends":2708,"Ġresearch":2709,"Ġcertainly":2710,"aces":2711,"Ġchance":2712,"Ġrust":2713,"Ġcenter":2714,"Ġchanged":2715,"Ġbusiness":2716,"Ġhigher":2717,"ock":2718,"Ġdesk":2719,"Ġwanting":2720,"Ġcrazy":2721,"atic":2722,"Ġcharged":2723,"Ġinsp":2724,"Ġwriter":2725,"Ġpriced":2726,"irty":2727,"Ġacross":2728,"Ġaudio":2729,"Ġfeeling":2730,"iece":2731,"Ġsamsung":2732,"ures":2733,"arent":2734,"Ġshel":2735,"Ġplugged":2736,"gs":2737,"Ġnd":2738,"Ġhd":2739,"verage":2740,"Ġevent":2741,"Ġoption":2742,"Ġmini":2743,"Ġexam":2744,"Ġdesigned":2745,"ives":2746,"Ġadapter":2747,"ination":2748,"Ġadult":2749,"Ġbulbs":2750,"mp":2751,"Ġhumor":2752,"Ġcups":2753,"Ġhandy":2754,"ho":2755,"Ġsilver":2756,"use":2757,"Ġage":2758,"ities":2759,"Ġground":2760,"Ġstarting":2761,"while":2762,"back":2763,"Ġsurface":2764,"Ġadvent":2765,"Ġready":2766,"Ġpin":2767,"Ġpub":2768,"Ġexch":2769,"pre":2770,"Ġagainst":2771,"Ġoffice":2772,"Ġspeed":2773,"Ġnearly":2774,"Ġwallet":2775,"Ġinfo":2776,"Ġgloves":2777,"Ġmanufactur":2778,"Ġjack":2779,"Ġlabel":2780,"Ġrip":2781,"Ġadv":2782,"Ġcott":2783,"Ġwed":2784,"oub":2785,"Ġplayed":2786,"Ġrock":2787,"Ġru":2788,"Ġfault":2789,"een":2790,"Ġwet":2791,"aken":2792,"ney":2793,"sw":2794,"arning":2795,"Ġsort":2796,"Ġpersonal":2797,"Ġusual":2798,"Ġgun":2799,"cent":2800,"Ġdrop":2801,"iculous":2802,"Ġsearch":2803,"Ġcoun":2804,"ability":2805,"Ġice":2806,"Ġgal":2807,"Ġfully":2808,"Ġstri":2809,"Ġwindows":2810,"Ġhero":2811,"ism":2812,"Ġspot":2813,"Ġpackaged":2814,"Ġfish":2815,"Ġhealth":2816,"cute":2817,"ints":2818,"Ġbulb":2819,"only":2820,"Ġtal":2821,"Ġlol":2822,"land":2823,"Ġslide":2824,"rived":2825,"Ġrequire":2826,"Ġoh":2827,"Ġbecome":2828,"Ġguide":2829,"Ġperiod":2830,"Ġtoe":2831,"Ġmotor":2832,"Ġworse":2833,"ident":2834,"Ġears":2835,"Ġbeware":2836,"Ġwants":2837,"Ġquit":2838,"Ġchapter":2839,"Ġconcer":2840,"Ġblade":2841,"Ġweather":2842,"uts":2843,"Ġanyway":2844,"Ġliterally":2845,"ences":2846,"Ġknown":2847,"Ġchoice":2848,"Ġbasically":2849,"beautiful":2850,"Ġimportant":2851,"Ġdan":2852,"Ġsitting":2853,"aced":2854,"mb":2855,"Ġcotton":2856,"ses":2857,"Ġstorage":2858,"Ġdevelopment":2859,"Ġhose":2860,"Ġbehind":2861,"Ġlower":2862,"Ġwrist":2863,"Ġequ":2864,"pensive":2865,"Ġnoticed":2866,"Ġdust":2867,"Ġcatch":2868,"aker":2869,"Ġeverywhere":2870,"Ġattract":2871,"Ġtruck":2872,"bro":2873,"Ġcables":2874,"Ġunable":2875,"ines":2876,"Ġfur":2877,"Ġforever":2878,"Ġstays":2879,"Ġclosed":2880,"Ġzero":2881,"Ġeye":2882,"Ġmatt":2883,"Ġbecame":2884,"ored":2885,"Ġfilled":2886,"Ġton":2887,"gar":2888,"Ġlose":2889,"Ġcurrent":2890,"Ġpressure":2891,"graph":2892,"Ġmostly":2893,"Ġvel":2894,"Ġdirty":2895,"orough":2896,"ann":2897,"Ġimage":2898,"Ġshirts":2899,"oid":2900,"Ġlines":2901,"itor":2902,"Ġansw":2903,"apters":2904,"ises":2905,"Ġowned":2906,"Ġhopefully":2907,"Ġhoped":2908,"Ġtitle":2909,"Ġlang":2910,"Ġideas":2911,"Ġnet":2912,"poor":2913,"Ġaf":2914,"Ġthroughout":2915,"itter":2916,"Ġrain":2917,"Ġdeveloped":2918,"con":2919,"ceived":2920,"Ġshr":2921,"Ġdecor":2922,"Ġps":2923,"rig":2924,"apo":2925,"ivid":2926,"Ġfeed":2927,"Ġprofess":2928,"Ġpat":2929,"Ġsteel":2930,"ories":2931,"erc":2932,"Ġgraph":2933,"Ġdut":2934,"Ġtab":2935,"Ġround":2936,"Ġeyes":2937,"Ġvoice":2938,"Ġheel":2939,"Ġaverage":2940,"Ġpot":2941,"Ġcontent":2942,"Ġstores":2943,"Ġonto":2944,"Ġsix":2945,"Ġconven":2946,"Ġcleaning":2947,"Ġrug":2948,"over":2949,"Ġunus":2950,"Ġlearned":2951,"Ġapple":2952,"Ġrate":2953,"iring":2954,"Ġexplain":2955,"Ġlangu":2956,"Ġinex":2957,"Ġsucks":2958,"Ġtips":2959,"Ġlearning":2960,"lect":2961,"work":2962,"Ġtend":2963,"Ġpairs":2964,"Ġlovely":2965,"Ġcapt":2966,"Ġpool":2967,"Ġcalled":2968,"ove":2969,"lly":2970,"aught":2971,"Ġmel":2972,"Ġflaw":2973,"Ġcred":2974,"terrible":2975,"Ġmir":2976,"super":2977,"Ġridiculous":2978,"Ġterri":2979,"Ġattem":2980,"Ġef":2981,"Ġanim":2982,"min":2983,"Ġtough":2984,"Ġpound":2985,"right":2986,"Ġcush":2987,"Ġacting":2988,"Ġupon":2989,"Ġscratches":2990,"bbles":2991,"apped":2992,"bers":2993,"Ġguys":2994,"Ġiron":2995,"Ġprovide":2996,"Ġlim":2997,"Ġten":2998,"Ġpurse":2999,"Ġhanging":3000,"Ġmorning":3001,"jor":3002,"aim":3003,"haps":3004,"Ġlif":3005,"Ġcomplaints":3006,"Ġlisted":3007,"Ġsnap":3008,"Ġcomb":3009,"ugg":3010,"Ġsticks":3011,"Ġdouble":3012,"Ġremind":3013,"Ġapply":3014,"Ġclothes":3015,"Ġwo":3016,"Ġeffort":3017,"leading":3018,"Ġthorough":3019,"Ġeffect":3020,"Ġdollars":3021,"ially":3022,"Ġbring":3023,"Ġlanguage":3024,"Ġfinger":3025,"Ġadorable":3026,"pod":3027,"Ġbal":3028,"Ġtrick":3029,"Ġfly":3030,"Ġtools":3031,"Ġcamp":3032,"ural":3033,"can":3034,"etooth":3035,"Ġshor":3036,"irm":3037,"Ġduty":3038,"Ġfoam":3039,"val":3040,"Ġassemble":3041,"Ġdamage":3042,"Ġtank":3043,"Ġcovered":3044,"Ġdelic":3045,"cro":3046,"Ġrelation":3047,"Ġneg":3048,"Ġflex":3049,"Ġinexpensive":3050,"ems":3051,"Ġtaken":3052,"Ġcir":3053,"Ġep":3054,"Ġdial":3055,"Ġank":3056,"od":3057,"Ġhurt":3058,"pretty":3059,"Ġtun":3060,"Ġfiction":3061,"autifully":3062,"Ġarms":3063,"Ġsuppose":3064,"Ġspeakers":3065,"Ġunique":3066,"received":3067,"Ġjew":3068,"Ġsubject":3069,"Ġteen":3070,"cing":3071,"Ġsets":3072,"Ġanywhere":3073,"Ġearr":3074,"Ġlaw":3075,"Ġcell":3076,"Ġlives":3077,"Ġhappens":3078,"Ġtre":3079,"Ġkeys":3080,"Ġben":3081,"Ġamerican":3082,"Ġabove":3083,"awesome":3084,"Ġalot":3085,"Ġcast":3086,"Ġbluetooth":3087,"by":3088,"ational":3089,"arrived":3090,"Ġinstallation":3091,"Ġwid":3092,"Ġprovides":3093,"Ġstarts":3094,"ills":3095,"Ġmattress":3096,"Ġclock":3097,"asp":3098,"Ġspring":3099,"lier":3100,"Ġclos":3101,"lus":3102,"Ġsequ":3103,"mi":3104,"Ġmajor":3105,"Ġbrought":3106,"Ġride":3107,"Ġarch":3108,"Ġupset":3109,"Ġemot":3110,"col":3111,"Ġsister":3112,"ented":3113,"Ġgirls":3114,"Ġtag":3115,"sle":3116,"Ġpurple":3117,"Ġadh":3118,"Ġintrig":3119,"Ġvelcro":3120,"Ġseam":3121,"Ġimprove":3122,"Ġrelationsh":3123,"Ġsweat":3124,"Ġliving":3125,"uum":3126,"Ġrepe":3127,"body":3128,"Ġrequired":3129,"Ġenc":3130,"Ġperhaps":3131,"Ġscenes":3132,"iety":3133,"Ġavoid":3134,"Ġmisleading":3135,"Ġdull":3136,"axy":3137,"Ġshorts":3138,"Ġwin":3139,"ipe":3140,"Ġtip":3141,"Ġreco":3142,"Ġinformative":3143,"Ġgalaxy":3144,"Ġask":3145,"Ġbunch":3146,"Ġscratched":3147,"item":3148,"Ġbucks":3149,"Ġlad":3150,"ured":3151,"Ġprompt":3152,"Ġdepth":3153,"Ġexchange":3154,"Ġhardly":3155,"Ġillustr":3156,"first":3157,"rors":3158,"ground":3159,"Ġthicker":3160,"Ġappe":3161,"row":3162,"na":3163,"Ġvacuum":3164,"Ġsole":3165,"horrible":3166,"Ġmeet":3167,"char":3168,"Ġconnected":3169,"Ġfake":3170,"Ġwedding":3171,"Ġbrace":3172,"ital":3173,"Ġconsidering":3174,"ads":3175,"Ġbreaking":3176,"Ġfeatures":3177,"Ġsmart":3178,"Ġstitching":3179,"Ġprovided":3180,"Ġpulled":3181,"Ġprodu":3182,"Ġhistorical":3183,"Ġknock":3184,"cil":3185,"Ġfoc":3186,"esting":3187,"Ġshut":3188,"Ġchem":3189,"Ġresults":3190,"Ġexciting":3191,"Ġwebs":3192,"Ġjour":3193,"Ġposition":3194,"ron":3195,"Ġenglish":3196,"Ġbeach":3197,"Ġprogram":3198,"ipped":3199,"Ġindic":3200,"Ġsmells":3201,"Ġvib":3202,"Ġfinding":3203,"Ġbackpack":3204,"Ġshowed":3205,"Ġbrands":3206,"Ġwheel":3207,"Ġmistake":3208,"Ġmoder":3209,"sc":3210,"sel":3211,"Ġclaim":3212,"Ġfans":3213,"Ġphones":3214,"Ġmeans":3215,"pite":3216,"Ġoccas":3217,"Ġcutting":3218,"Ġminute":3219,"Ġtoes":3220,"Ġprinted":3221,"Ġspo":3222,"Ġseeing":3223,"Ġperformance":3224,"Ġdest":3225,"ples":3226,"Ġchall":3227,"Ġauthors":3228,"dis":3229,"Ġapplic":3230,"Ġquestions":3231,"Ġhooked":3232,"Ġbuck":3233,"Ġcountry":3234,"Ġthru":3235,"Ġsoftware":3236,"Ġdoub":3237,"Ġmaterials":3238,"Ġmemory":3239,"Ġchapters":3240,"ctions":3241,"Ġmr":3242,"Ġnegative":3243,"Ġsurprise":3244,"Ġnovels":3245,"Ġhassle":3246,"Ġintro":3247,"Ġpc":3248,"some":3249,"Ġrepair":3250,"Ġsticker":3251,"ask":3252,"Ġneckl":3253,"Ġcry":3254,"uction":3255,"Ġelastic":3256,"time":3257,"Ġorange":3258,"Ġturning":3259,"Ġbeautifully":3260,"Ġcorner":3261,"Ġodd":3262,"ball":3263,"Ġballs":3264,"Ġgrou":3265,"Ġbubbles":3266,"Ġtoys":3267,"ging":3268,"Ġcorners":3269,"Ġsnow":3270,"Ġwidth":3271,"orge":3272,"Ġshorter":3273,"Ġcross":3274,"Ġsaying":3275,"Ġtighten":3276,"put":3277,"Ġtemper":3278,"wards":3279,"cessary":3280,"xy":3281,"Ġbible":3282,"Ġbrother":3283,"Ġund":3284,"Ġedition":3285,"Ġfunctional":3286,"Ġsitu":3287,"Ġleaks":3288,"although":3289,"Ġalone":3290,"Ġther":3291,"Ġchart":3292,"Ġtie":3293,"Ġconc":3294,"lored":3295,"Ġtrust":3296,"Ġmessage":3297,"Ġvariety":3298,"Ġseconds":3299,"Ġreasonable":3300,"Ġsoc":3301,"Ġfem":3302,"Ġquiet":3303,"Ġfrustrating":3304,"Ġobviously":3305,"Ġwatched":3306,"Ġsheet":3307,"uc":3308,"even":3309,"Ġbackground":3310,"Ġattractive":3311,"Ġdownload":3312,"Ġbey":3313,"lla":3314,"Ġsuc":3315,"Ġfollowed":3316,"iding":3317,"Ġslim":3318,"Ġdollar":3319,"Ġlamp":3320,"hn":3321,"icle":3322,"Ġkick":3323,"Ġintended":3324,"ished":3325,"Ġswim":3326,"Ġconsist":3327,"Ġcredit":3328,"ource":3329,"Ġseams":3330,"Ġlasts":3331,"would":3332,"every":3333,"ension":3334,"Ġcompat":3335,"Ġplaced":3336,"Ġsignal":3337,"Ġpacked":3338,"chan":3339,"Ġbill":3340,"fin":3341,"Ġconvenient":3342,"Ġtechn":3343,"Ġpens":3344,"Ġshame":3345,"Ġlighter":3346,"fun":3347,"Ġgrey":3348,"Ġwonder":3349,"how":3350,"Ġcollar":3351,"Ġtree":3352,"Ġrecently":3353,"Ġeffective":3354,"Ġmagn":3355,"Ġhuman":3356,"Ġplain":3357,"ances":3358,"Ġmold":3359,"Ġshop":3360,"ential":3361,"cum":3362,"omend":3363,"Ġmanufacturer":3364,"Ġconfusing":3365,"Ġattempt":3366,"Ġcurtain":3367,"Ġsleeves":3368,"Ġgrind":3369,"Ġmechan":3370,"Ġsticky":3371,"Ġking":3372,"Ġwebsite":3373,"ify":3374,"uit":3375,"asc":3376,"apointed":3377,"Ġbeyond":3378,"Ġsmo":3379,"ency":3380,"Ġunb":3381,"Ġbelievable":3382,"rench":3383,"Ġdevices":3384,"Ġlb":3385,"Ġdon":3386,"Ġremoved":3387,"Ġcompact":3388,"Ġthoroughly":3389,"Ġcushion":3390,"Ġsubst":3391,"Ġdetailed":3392,"ries":3393,"happy":3394,"hip":3395,"kward":3396,"Ġpleas":3397,"Ġlink":3398,"Ġboxes":3399,"Ġdeg":3400,"Ġoem":3401,"Ġspir":3402,"ley":3403,"Ġgas":3404,"Ġproof":3405,"Ġbottles":3406,"Ġguit":3407,"Ġpicked":3408,"Ġreli":3409,"Ġrack":3410,"Ġmm":3411,"Ġjump":3412,"Ġearrings":3413,"Ġnat":3414,"Ġinternet":3415,"Ġtodd":3416,"Ġfigured":3417,"oose":3418,"ded":3419,"Ġpencil":3420,"Ġkill":3421,"uss":3422,"Ġot":3423,"op":3424,"Ġhardware":3425,"Ġcontainer":3426,"Ġoptions":3427,"Ġclips":3428,"Ġbreat":3429,"Ġrich":3430,"Ġoutdo":3431,"Ġways":3432,"Ġarrive":3433,"Ġcre":3434,"head":3435,"Ġadventure":3436,"Ġstylish":3437,"Ġsnapped":3438,"Ġregard":3439,"Ġstates":3440,"oooo":3441,"port":3442,"Ġemail":3443,"Ġver":3444,"Ġcoat":3445,"Ġcas":3446,"ified":3447,"Ġfingers":3448,"Ġfaded":3449,"Ġwireless":3450,"Ġfirm":3451,"Ġhandles":3452,"Ġworthless":3453,"proof":3454,"Ġrd":3455,"Ġbathroom":3456,"Ġtee":3457,"Ġadjustable":3458,"Ġnecklace":3459,"Ġbreaks":3460,"Ġheight":3461,"Ġmanual":3462,"Ġsew":3463,"Ġasked":3464,"Ġrecogn":3465,"Ġclick":3466,"selves":3467,"Ġcaught":3468,"Ġmoved":3469,"Ġchocol":3470,"Ġjohn":3471,"Ġcounter":3472,"Ġappreciate":3473,"Ġawkward":3474,"uing":3475,"Ġstring":3476,"Ġspots":3477,"Ġminim":3478,"Ġcy":3479,"Ġfaster":3480,"Ġtastes":3481,"Ġsplit":3482,"Ġdespite":3483,"Ġnic":3484,"absolutely":3485,"pend":3486,"med":3487,"Ġfixed":3488,"Ġworkout":3489,"Ġdisco":3490,"Ġactiv":3491,"Ġtur":3492,"Ġveh":3493,"app":3494,"rit":3495,"Ġstrange":3496,"Ġpads":3497,"Ġgeneral":3498,"Ġpowerful":3499,"Ġger":3500,"Ġshelf":3501,"Ġtill":3502,"Ġsuction":3503,"could":3504,"bing":3505,"Ġabs":3506,"Ġblan":3507,"Ġgifts":3508,"Ġtar":3509,"Ġroad":3510,"Ġbegan":3511,"Ġpositive":3512,"Ġplate":3513,"Ġrings":3514,"Ġseriously":3515,"Ġregret":3516,"Ġgroup":3517,"Ġenjoying":3518,"Ġblock":3519,"Ġlistening":3520,"nam":3521,"lass":3522,"Ġtub":3523,"Ġcartridge":3524,"Ġmissed":3525,"Ġwires":3526,"Ġlibr":3527,"Ġapparent":3528,"Ġmeant":3529,"Ġearlier":3530,"Ġvi":3531,"Ġpic":3532,"Ġtypical":3533,"erg":3534,"zzle":3535,"Ġsurv":3536,"Ġrand":3537,"Ġsuccess":3538,"Ġaware":3539,"Ġsite":3540,"Ġtom":3541,"Ġstudy":3542,"Ġpractical":3543,"Ġprofessional":3544,"Ġhy":3545,"Ġareas":3546,"Ġreference":3547,"pet":3548,"Ġeventually":3549,"Ġerrors":3550,"Ġinvol":3551,"Ġgard":3552,"Ġformat":3553,"Ġexerc":3554,"disappoin":3555,"Ġtube":3556,"Ġreads":3557,"Ġsaved":3558,"Ġge":3559,"Ġcol":3560,"Ġmonitor":3561,"Ġcompatible":3562,"Ġoverp":3563,"Ġdad":3564,"Ġshoot":3565,"Ġboys":3566,"Ġaltern":3567,"fl":3568,"Ġaccept":3569,"Ġpractice":3570,"Ġallows":3571,"Ġmarket":3572,"Ġconstructed":3573,"Ġyard":3574,"raid":3575,"another":3576,"case":3577,"uth":3578,"Ġod":3579,"itions":3580,"Ġbecom":3581,"came":3582,"Ġest":3583,"Ġguitar":3584,"interesting":3585,"Ġadvice":3586,"Ġtexture":3587,"Ġhonestly":3588,"Ġtherefore":3589,"Ġbowl":3590,"Ġfu":3591,"Ġwheels":3592,"Ġwrink":3593,"Ġsink":3594,"Ġelsewhere":3595,"Ġprep":3596,"Ġpuppy":3597,"Ġwrites":3598,"Ġafraid":3599,"Ġjewel":3600,"Ġleaving":3601,"fo":3602,"Ġoffer":3603,"Ġreaders":3604,"Ġprime":3605,"Ġgray":3606,"Ġplays":3607,"Ġflip":3608,"Ġcolle":3609,"Ġess":3610,"Ġinvest":3611,"Ġju":3612,"Ġwrap":3613,"Ġshock":3614,"Ġlibrary":3615,"Ġbur":3616,"Ġinit":3617,"Ġtale":3618,"Ġnail":3619,"Ġchocolate":3620,"Ġgrill":3621,"Ġing":3622,"Ġhun":3623,"Ġhood":3624,"Ġrecie":3625,"Ġut":3626,"Ġunhappy":3627,"Ġcharges":3628,"Ġtap":3629,"Ġbutter":3630,"tle":3631,"Ġincredibly":3632,"Ġresist":3633,"Ġafford":3634,"friend":3635,"Ġnav":3636,"ped":3637,"outh":3638,"Ġipod":3639,"Ġcooking":3640,"Ġpromised":3641,"ety":3642,"Ġbracelet":3643,"pri":3644,"Ġsexy":3645,"Ġlikely":3646,"Ġmoves":3647,"Ġupgr":3648,"Ġflag":3649,"Ġunusable":3650,"Ġseparate":3651,"Ġchest":3652,"Ġpublish":3653,"eak":3654,"Ġfash":3655,"Ġhallow":3656,"Ġsetup":3657,"Ġadults":3658,"esive":3659,"Ġforget":3660,"pective":3661,"Ġimagine":3662,"Ġdestro":3663,"bble":3664,"Ġpoints":3665,"Ġadditional":3666,"Ġtore":3667,"Ġmouth":3668,"key":3669,"Ġcomment":3670,"ii":3671,"Ġsport":3672,"Ġstickers":3673,"Ġclub":3674,"illy":3675,"orted":3676,"met":3677,"Ġrot":3678,"Ġblend":3679,"Ġmax":3680,"arm":3681,"Ġprotects":3682,"Ġfashion":3683,"Ġrealized":3684,"Ġpadding":3685,"Ġfather":3686,"Ġbust":3687,"Ġcharm":3688,"Ġdelight":3689,"orgeous":3690,"Ġerror":3691,"Ġleaked":3692,"Ġhol":3693,"ok":3694,"Ġfactory":3695,"Ġstre":3696,"hile":3697,"Ġawhile":3698,"Ġposs":3699,"Ġhalloween":3700,"Ġwaterproof":3701,"Ġthinner":3702,"Ġrandom":3703,"Ġwhatever":3704,"Ġincluding":3705,"Ġpaced":3706,"ifi":3707,"best":3708,"mer":3709,"Ġtimely":3710,"Ġwrote":3711,"Ġtrail":3712,"Ġsam":3713,"Ġindivid":3714,"Ġuser":3715,"ulty":3716,"Ġchann":3717,"aly":3718,"Ġknows":3719,"ids":3720,"Ġfro":3721,"Ġchose":3722,"Ġfamil":3723,"Ġempt":3724,"cannot":3725,"Ġft":3726,"Ġdialog":3727,"Ġblow":3728,"Ġtemperature":3729,"Ġfrequ":3730,"Ġmaster":3731,"Ġevents":3732,"Ġvend":3733,"Ġvarious":3734,"Ġheadset":3735,"riced":3736,"Ġclasp":3737,"Ġlogo":3738,"Ġexception":3739,"ym":3740,"Ġdece":3741,"Ġcraf":3742,"Ġplant":3743,"Ġbass":3744,"Ġcolored":3745,"Ġstayed":3746,"Ġgarden":3747,"Ġshot":3748,"Ġworry":3749,"Ġresol":3750,"Ġslipper":3751,"Ġchoose":3752,"Ġstone":3753,"Ġmer":3754,"Ġdoubt":3755,"Ġdaughters":3756,"Ġmodern":3757,"Ġheavier":3758,"Ġmentioned":3759,"atisf":3760,"gged":3761,"Ġsale":3762,"Ġartist":3763,"Ġcabin":3764,"Ġboyfriend":3765,"Ġmirror":3766,"Ġcro":3767,"wash":3768,"Ġload":3769,"amaz":3770,"mart":3771,"gest":3772,"Ġsugar":3773,"Ġfal":3774,"inating":3775,"lls":3776,"Ġnumbers":3777,"lied":3778,"Ġdried":3779,"Ġdirt":3780,"elie":3781,"Ġfemale":3782,"Ġcollege":3783,"Ġident":3784,"Ġspin":3785,"Ġsuff":3786,"Ġunlike":3787,"Ġstate":3788,"Ġsandals":3789,"Ġegg":3790,"Ġreplacing":3791,"Ġepis":3792,"Ġprotective":3793,"Ġinfl":3794,"Ġanten":3795,"Ġfight":3796,"Ġfocus":3797,"Ġsequel":3798,"Ġthemselves":3799,"Ġcream":3800,"Ġpaying":3801,"Ġrelease":3802,"Ġgarage":3803,"Ġdimens":3804,"Ġliqu":3805,"Ġglove":3806,"Ġtorn":3807,"onse":3808,"arents":3809,"Ġadhesive":3810,"anced":3811,"Ġauto":3812,"lan":3813,"unfortunately":3814,"Ġbadly":3815,"ision":3816,"fic":3817,"Ġshrink":3818,"Ġsadly":3819,"Ġcuts":3820,"Ġuns":3821,"Ġcode":3822,"Ġrealistic":3823,"tr":3824,"pected":3825,"mmed":3826,"Ġperspective":3827,"ata":3828,"Ġskirt":3829,"Ġsection":3830,"inst":3831,"Ġneither":3832,"Ġresponse":3833,"Ġstudents":3834,"itty":3835,"Ġinclude":3836,"Ġcartridges":3837,"Ġlimited":3838,"Ġdigital":3839,"ison":3840,"Ġoz":3841,"Ġturner":3842,"Ġdy":3843,"Ġleaking":3844,"Ġcompar":3845,"Ġhols":3846,"acy":3847,"Ġcardboard":3848,"Ġtrad":3849,"Ġbelow":3850,"Ġtired":3851,"standing":3852,"Ġhooks":3853,"Ġms":3854,"mit":3855,"Ġsurprising":3856,"Ġremain":3857,"Ġland":3858,"Ġaccom":3859,"Ġguessing":3860,"Ġbear":3861,"uring":3862,"Ġbon":3863,"Ġseeds":3864,"Ġangle":3865,"Ġantic":3866,"Ġjoke":3867,"Ġengaging":3868,"Ġstainless":3869,"Ġshap":3870,"Ġflexible":3871,"ery":3872,"Ġaccount":3873,"Ġarrival":3874,"Ġcarpet":3875,"Ġportion":3876,"Ġunderstanding":3877,"Ġblades":3878,"Ġletters":3879,"Ġrelationship":3880,"form":3881,"Ġscience":3882,"Ġfurther":3883,"Ġsoap":3884,"Ġspecific":3885,"Ġinsert":3886,"Ġdisp":3887,"wow":3888,"Ġchristian":3889,"Ġcri":3890,"gth":3891,"Ġsleeve":3892,"exact":3893,"Ġeating":3894,"Ġgrab":3895,"Ġassembly":3896,"Ġwider":3897,"Ġdem":3898,"Ġbud":3899,"Ġgrade":3900,"Ġillustrations":3901,"Ġcontroller":3902,"Ġapparently":3903,"Ġtowel":3904,"Ġbands":3905,"Ġneat":3906,"Ġfilters":3907,"Ġfasc":3908,"Ġrear":3909,"Ġengine":3910,"Ġshowing":3911,"lli":3912,"Ġray":3913,"Ġniece":3914,"Ġrare":3915,"uce":3916,"ledge":3917,"Ġwashes":3918,"Ġoverpriced":3919,"Ġglued":3920,"Ġmiles":3921,"Ġbes":3922,"Ġdarker":3923,"enjoy":3924,"Ġbind":3925,"Ġexist":3926,"nal":3927,"etic":3928,"Ġforce":3929,"Ġrepet":3930,"Ġtoddler":3931,"Ġnecessary":3932,"Ġpromptly":3933,"fast":3934,"will":3935,"Ġchick":3936,"Ġrated":3937,"Ġtelling":3938,"Ġchanging":3939,"ients":3940,"Ġtruth":3941,"Ġnut":3942,"Ġstren":3943,"Ġconnector":3944,"mes":3945,"Ġingred":3946,"Ġruined":3947,"Ġnatural":3948,"ike":3949,"Ġshoulder":3950,"Ġjam":3951,"Ġblur":3952,"Ġdu":3953,"Ġchemical":3954,"Ġreliable":3955,"Ġcontacted":3956,"Ġspirit":3957,"Ġgear":3958,"Ġdrag":3959,"Ġdelicious":3960,"Ġang":3961,"Ġsyn":3962,"Ġcommon":3963,"Ġlunch":3964,"Ġult":3965,"Ġchinese":3966,"neath":3967,"Ġunderneath":3968,"Ġsharpen":3969,"Ġgoo":3970,"Ġanticip":3971,"ushed":3972,"Ġmounting":3973,"Ġfrag":3974,"Ġdestroy":3975,"esh":3976,"Ġsalt":3977,"Ġholster":3978,"Ġjourney":3979,"Ġtalking":3980,"Ġmad":3981,"Ġprevent":3982,"Ġankle":3983,"Ġbuyer":3984,"Ġantenna":3985,"Ġgorgeous":3986,"Ġvehicle":3987,"Ġsettings":3988,"Ġdin":3989,"Ġquestion":3990,"Ġsolution":3991,"Ġtells":3992,"Ġprotected":3993,"Ġblanket":3994,"Ġability":3995,"Ġparents":3996,"Ġfalse":3997,"Ġhp":3998,"sp":3999,"Ġbalance":4000,"Ġmoment":4001,"phew":4002,"Ġtown":4003,"Ġelectric":4004,"Ġbars":4005,"Ġtraining":4006,"Ġpeeling":4007,"Ġdepend":4008,"Ġempty":4009,"Ġcent":4010,"Ġcarrying":4011,"Ġprior":4012,"Ġzip":4013,"Ġaccord":4014,"zen":4015,"Ġweb":4016,"Ġunre":4017,"Ġnephew":4018,"Ġque":4019,"Ġburned":4020,"izing":4021,"Ġpreviously":4022,"Ġtoss":4023,"log":4024,"Ġusa":4025,"Ġtemp":4026,"Ġstrings":4027,"Ġgym":4028,"Ġaccident":4029,"exactly":4030,"Ġcaused":4031,"Ġstrength":4032,"antic":4033,"action":4034,"Ġdrama":4035,"Ġchalleng":4036,"Ġscra":4037,"Ġreceiving":4038,"bor":4039,"Ġholid":4040,"Ġotter":4041,"Ġtail":4042,"Ġhealthy":4043,"piece":4044,"attering":4045,"Ġspark":4046,"Ġprinting":4047,"Ġcompart":4048,"Ġagree":4049,"Ġdie":4050,"Ġsteam":4051,"Ġpounds":4052,"Ġpricey":4053,"Ġcasual":4054,"af":4055,"Ġsquare":4056,"Ġdirectly":4057,"Ġwow":4058,"Ġworried":4059,"Ġcult":4060,"Ġrelax":4061,"Ġreviewers":4062,"onnect":4063,"Ġmarks":4064,"Ġbreath":4065,"Ġyog":4066,"Ġloss":4067,"Ġtor":4068,"Ġincor":4069,"Ġshiny":4070,"Ġdocum":4071,"Ġresult":4072,"Ġchecked":4073,"Ġvendor":4074,"Ġdriving":4075,"umin":4076,"wear":4077,"Ġthreads":4078,"Ġknowledge":4079,"Ġinvolved":4080,"Ġbrings":4081,"Ġapplication":4082,"Ġvideos":4083,"Ġpol":4084,"anger":4085,"Ġfreez":4086,"Ġcirc":4087,"broke":4088,"lection":4089,"Ġwrapped":4090,"Ġny":4091,"Ġcandy":4092,"Ġroo":4093,"Ġcamping":4094,"kend":4095,"Ġpulling":4096,"Ġxx":4097,"disappointed":4098,"Ġbored":4099,"Ġcomplic":4100,"Ġrechar":4101,"Ġshare":4102,"ude":4103,"Ġmanner":4104,"Ġfollowing":4105,"Ġthus":4106,"Ġtypes":4107,"Ġwalmart":4108,"Ġcars":4109,"ux":4110,"Ġtad":4111,"othing":4112,"Ġfriendly":4113,"Ġsilic":4114,"Ġparticularly":4115,"acing":4116,"des":4117,"Ġrecieved":4118,"Ġweigh":4119,"Ġskip":4120,"Ġjewelry":4121,"iving":4122,"Ġappropri":4123,"Ġinstalling":4124,"Ġunbelie":4125,"Ġchanges":4126,"ipping":4127,"ened":4128,"Ġvacation":4129,"Ġrequires":4130,"wood":4131,"Ġease":4132,"Ġphotograph":4133,"Ġthrilled":4134,"Ġdeter":4135,"Ġgraphics":4136,"Ġcords":4137,"Ġsomewhere":4138,"Ġminor":4139,"atisfied":4140,"Ġfitted":4141,"Ġpolit":4142,"wond":4143,"Ġscar":4144,"Ġinner":4145,"Ġdescriptions":4146,"Ġfacts":4147,"Ġviol":4148,"Ġpersonally":4149,"Ġoutfit":4150,"washer":4151,"Ġwise":4152,"Ġpor":4153,"Ġhated":4154,"Ġcommun":4155,"Ġgramm":4156,"Ġsupply":4157,"Ġfantasy":4158,"ik":4159,"Ġabsor":4160,"Ġdata":4161,"Ġfragile":4162,"Ġvibrant":4163,"Ġspl":4164,"eded":4165,"Ġoutdoor":4166,"Ġprem":4167,"Ġdissapointed":4168,"Ġenjoys":4169,"iling":4170,"Ġslides":4171,"Ġsquee":4172,"Ġmaker":4173,"Ġdishwasher":4174,"Ġharder":4175,"iar":4176,"Ġbread":4177,"Ġtested":4178,"Ġtops":4179,"Ġrespond":4180,"Ġpopped":4181,"Ġsensitive":4182,"Ġaspect":4183,"Ġsight":4184,"Ġloving":4185,"Ġbasket":4186,"Ġwifi":4187,"Ġstops":4188,"Ġinte":4189,"Ġwhether":4190,"Ġmug":4191,"Ġsweater":4192,"Ġweekend":4193,"Ġdefect":4194,"Ġstrugg":4195,"Ġloos":4196,"Ġdryer":4197,"Ġannoyed":4198,"aste":4199,"Ġreflect":4200,"Ġanswer":4201,"Ġodor":4202,"arily":4203,"omb":4204,"Ġrecomend":4205,"Ġhdmi":4206,"Ġsits":4207,"Ġpure":4208,"Ġtransfer":4209,"ato":4210,"Ġliquid":4211,"Ġages":4212,"Ġdeath":4213,"Ġoffers":4214,"sm":4215,"Ġstronger":4216,"URL":4217,"Ġusage":4218,"Ġlegg":4219,"Ġindividual":4220,"seems":4221,"Ġflick":4222,"Ġknives":4223,"attered":4224,"Ġdrill":4225,"Ġequip":4226,"Ġtowels":4227,"ru":4228,"verse":4229,"amazing":4230,"Ġwig":4231,"Ġhung":4232,"lock":4233,"Ġshif":4234,"Ġlog":4235,"Ġthrown":4236,"Ġpouch":4237,"Ġminimal":4238,"ionally":4239,"Ġdeser":4240,"enced":4241,"Ġhopes":4242,"Ġhes":4243,"idge":4244,"Ġvan":4245,"Ġincredible":4246,"Ġlining":4247,"Ġinser":4248,"Ġcake":4249,"Ġgrad":4250,"expected":4251,"Ġrob":4252,"Ġaffordable":4253,"Ġcausing":4254,"Ġbene":4255,"Ġlam":4256,"isk":4257,"Ġfunctions":4258,"Ġlenses":4259,"Ġlitter":4260,"Ġbutt":4261,"rage":4262,"Ġclar":4263,"ening":4264,"Ġtrain":4265,"Ġwaited":4266,"mans":4267,"Ġsony":4268,"Ġmode":4269,"Ġadds":4270,"Ġmale":4271,"Ġtheme":4272,"Ġdrain":4273,"Ġcoloring":4274,"Ġlighting":4275,"Ġfau":4276,"Ġchurch":4277,"Ġdurability":4278,"Ġwine":4279,"Ġelectron":4280,"erfully":4281,"Ġhub":4282,"isters":4283,"Ġmeaning":4284,"Ġjun":4285,"Ġimages":4286,"Ġmagic":4287,"Ġly":4288,"ager":4289,"Ġclothing":4290,"Ġdeck":4291,"Ġstones":4292,"Ġcomplicated":4293,"Ġsilly":4294,"allow":4295,"Ġgam":4296,"Ġgrowing":4297,"Ġoffered":4298,"Ġletter":4299,"Ġren":4300,"oop":4301,"but":4302,"Ġfaith":4303,"rief":4304,"Ġnicer":4305,"Ġequipment":4306,"uch":4307,"Ġmask":4308,"Ġviny":4309,"Ġscri":4310,"Ġnose":4311,"Ġalternative":4312,"Ġgau":4313,"Ġsaf":4314,"Ġthrowing":4315,"Ġpacks":4316,"Ġheads":4317,"Ġportable":4318,"Ġplugs":4319,"Ġyoun":4320,"ayed":4321,"Ġactors":4322,"thought":4323,"Ġyounger":4324,"Ġbedroom":4325,"Ġslippery":4326,"Ġrelative":4327,"Ġcreate":4328,"Ġeduc":4329,"Ġteeth":4330,"Ġusable":4331,"Ġreality":4332,"Ġscent":4333,"Ġcomments":4334,"Ġboat":4335,"Ġplants":4336,"Ġstylus":4337,"Ġshade":4338,"Ġrod":4339,"umps":4340,"Ġrou":4341,"wr":4342,"Ġcomfortably":4343,"Ġbesides":4344,"Ġexplan":4345,"Ġspare":4346,"Ġyester":4347,"Ġaccording":4348,"Ġflashlight":4349,"Ġdimensions":4350,"Ġcreative":4351,"Ġtradition":4352,"Ġcompare":4353,"Ġdrawer":4354,"Ġshred":4355,"Ġcontinues":4356,"Ġdriver":4357,"ury":4358,"ring":4359,"Ġvinyl":4360,"Ġtooth":4361,"Ġappeared":4362,"Ġmacbook":4363,"Ġahead":4364,"lasses":4365,"Ġnuts":4366,"Ġske":4367,"Ġbuilding":4368,"Ġfascinating":4369,"Ġselling":4370,"Ġingredients":4371,"Ġdirection":4372,"Ġbum":4373,"bu":4374,"Ġpins":4375,"Ġcolorful":4376,"wonderful":4377,"Ġmill":4378,"Ġconv":4379,"Ġcale":4380,"Ġmelted":4381,"Ġdialogue":4382,"oc":4383,"Ġnur":4384,"Ġmixed":4385,"ium":4386,"uro":4387,"Ġdownside":4388,"Ġleggings":4389,"Ġsteps":4390,"Ġtray":4391,"Ġmal":4392,"Ġspill":4393,"manship":4394,"Ġcalls":4395,"Ġsignific":4396,"ergy":4397,"Ġknowing":4398,"Ġprojects":4399,"Ġlesson":4400,"Ġtears":4401,"Ġjoy":4402,"Ġbol":4403,"Ġhing":4404,"Ġautom":4405,"Ġyesterday":4406,"quality":4407,"erv":4408,"Ġoriginally":4409,"Ġbummer":4410,"Ġboo":4411,"Ġincre":4412,"Ġsick":4413,"Ġobs":4414,"Ġsung":4415,"Ġoutstanding":4416,"Ġfavorites":4417,"Ġban":4418,"Ġcomplex":4419,"Ġmich":4420,"Ġdrops":4421,"Ġcloser":4422,"Ġplanning":4423,"Ġorganized":4424,"Ġfurn":4425,"Ġintriguing":4426,"Ġenv":4427,"Ġwondering":4428,"bit":4429,"Ġassum":4430,"Ġgb":4431,"aling":4432,"Ġesc":4433,"ker":4434,"come":4435,"Ġconvers":4436,"Ġslot":4437,"Ġsource":4438,"Ġgenre":4439,"Ġtransl":4440,"Ġpatch":4441,"Ġports":4442,"Ġstretched":4443,"asted":4444,"Ġlit":4445,"hood":4446,"Ġpace":4447,"Ġgro":4448,"Ġphys":4449,"Ġbull":4450,"Ġediting":4451,"Ġstable":4452,"Ġstatic":4453,"Ġluckily":4454,"Ġteam":4455,"Ġbrilli":4456,"Ġdiet":4457,"Ġrh":4458,"ibility":4459,"Ġputs":4460,"Ġskinny":4461,"Ġlacking":4462,"Ġglow":4463,"Ġsensor":4464,"Ġlift":4465,"Ġthigh":4466,"Ġselect":4467,"Ġcosts":4468,"Ġhr":4469,"Ġsecurely":4470,"Ġgreatest":4471,"Ġmagnetic":4472,"Ġtrilogy":4473,"install":4474,"Ġromantic":4475,"Ġtraveling":4476,"Ġoven":4477,"den":4478,"Ġpark":4479,"Ġcontains":4480,"Ġbonus":4481,"Ġmeasurements":4482,"icient":4483,"Ġchips":4484,"Ġcompe":4485,"Ġprec":4486,"Ġappropriate":4487,"Ġouter":4488,"Ġadvertising":4489,"Ġreset":4490,"Ġtarget":4491,"Ġirrit":4492,"Ġanimals":4493,"Ġnotes":4494,"Ġmoist":4495,"aa":4496,"gress":4497,"Ġdisconnect":4498,"Ġriding":4499,"lets":4500,"ashed":4501,"Ġstation":4502,"Ġauth":4503,"isy":4504,"Ġcarefully":4505,"color":4506,"Ġpowder":4507,"Ġrecording":4508,"Ġspending":4509,"Ġdrawn":4510,"Ġpainted":4511,"Ġexamples":4512,"Ġimprovement":4513,"mon":4514,"Ġlived":4515,"Ġtreats":4516,"Ġcontinu":4517,"Ġslowly":4518,"Ġbeginner":4519,"Ġinspir":4520,"Ġbuckle":4521,"cho":4522,"Ġfol":4523,"Ġfluff":4524,"Ġscript":4525,"Ġfruit":4526,"here":4527,"Ġrev":4528,"Ġdepress":4529,"Ġsleeping":4530,"Ġsomehow":4531,"Ġalarm":4532,"Ġbecomes":4533,"Ġmechanism":4534,"Ġbubble":4535,"Ġsticking":4536,"Ġunbelievable":4537,"Ġcryst":4538,"Ġtire":4539,"Ġlatch":4540,"Ġstream":4541,"Ġscale":4542,"Ġpuzzle":4543,"with":4544,"Ġsewn":4545,"Ġadding":4546,"Ġpublic":4547,"Ġlas":4548,"Ġnoticeable":4549,"Ġpolic":4550,"Ġspan":4551,"Ġcloset":4552,"Ġrelate":4553,"Ġtan":4554,"Ġincorrect":4555,"Ġsco":4556,"Ġyoga":4557,"Ġtasted":4558,"Ġcleaner":4559,"Ġjer":4560,"Ġwonderfully":4561,"ees":4562,"Ġyout":4563,"Ġabsolute":4564,"Ġfabulous":4565,"Ġups":4566,"tw":4567,"Ġcity":4568,"Ġupgrade":4569,"Ġwished":4570,"ackets":4571,"Ġgraphic":4572,"Ġpunch":4573,"plete":4574,"Ġamerica":4575,"Ġcompress":4576,"duction":4577,"small":4578,"lfriend":4579,"Ġreception":4580,"Ġdanger":4581,"Ġfield":4582,"Ġfallen":4583,"Ġhits":4584,"uary":4585,"ey":4586,"Ġchipped":4587,"Ġhom":4588,"Ġjan":4589,"Ġassemb":4590,"Ġcalend":4591,"lex":4592,"Ġmounted":4593,"Ġstat":4594,"Ġrouter":4595,"Ġspecif":4596,"Ġbird":4597,"Ġfinal":4598,"Ġchip":4599,"Ġtone":4600,"Ġpour":4601,"Ġexample":4602,"ec":4603,"attle":4604,"Ġsafety":4605,"Ġbacking":4606,"Ġsons":4607,"Ġsliding":4608,"Ġpassed":4609,"edy":4610,"Ġpremise":4611,"rees":4612,"Ġgrew":4613,"Ġfool":4614,"Ġunexpected":4615,"Ġvisible":4616,"Ġcurrently":4617,"Ġyoutube":4618,"Ġtong":4619,"Ġthriller":4620,"return":4621,"urb":4622,"Ġped":4623,"Ġsnack":4624,"nda":4625,"Ġgirlfriend":4626,"Ġbulk":4627,"izer":4628,"Ġlady":4629,"Ġfrench":4630,"Ġcrit":4631,"Ġdistance":4632,"cl":4633,"Ġstands":4634,"Ġmagaz":4635,"Ġstink":4636,"Ġanti":4637,"nothing":4638,"Ġhelmet":4639,"Ġbottoms":4640,"ivity":4641,"Ġsilicone":4642,"Ġvent":4643,"Ġhesit":4644,"Ġteacher":4645,"Ġbolts":4646,"gant":4647,"Ġexpand":4648,"Ġcoating":4649,"Ġflattering":4650,"cription":4651,"Ġconstant":4652,"enjoyed":4653,"Ġcookbook":4654,"Ġbump":4655,"Ġshopping":4656,"Ġbits":4657,"Ġbeads":4658,"Ġselection":4659,"Ġmagnets":4660,"Ġemb":4661,"Ġxxl":4662,"Ġmesh":4663,"Ġearth":4664,"shirt":4665,"Ġcauses":4666,"Ġremoving":4667,"Ġsealed":4668,"Ġindo":4669,"Ġbrighter":4670,"ext":4671,"entic":4672,"Ġneigh":4673,"Ġchairs":4674,"Ġshoulders":4675,"Ġcooler":4676,"Ġade":4677,"Ġflowers":4678,"Ġslippers":4679,"Ġpillows":4680,"Ġsituation":4681,"Ġgolf":4682,"Ġrepetitive":4683,"Ġupper":4684,"Ġbiggest":4685,"Ġmeat":4686,"Ġpolish":4687,"plug":4688,"Ġjar":4689,"iture":4690,"Ġbrew":4691,"Ġshipment":4692,"Ġpossibly":4693,"Ġlosing":4694,"Ġmart":4695,"Ġdesigns":4696,"Ġmovement":4697,"Ġpolicy":4698,"ula":4699,"Ġsoooo":4700,"Ġlayer":4701,"Ġcanon":4702,"Ġlids":4703,"Ġhappier":4704,"Ġpal":4705,"Ġloop":4706,"Ġlg":4707,"Ġknee":4708,"Ġoutlet":4709,"Ġmanage":4710,"Ġwarning":4711,"Ġstudent":4712,"much":4713,"Ġappearance":4714,"Ġpotential":4715,"Ġmilk":4716,"took":4717,"defin":4718,"Ġcleaned":4719,"aked":4720,"Ġprotectors":4721,"Ġhearing":4722,"dden":4723,"Ġdash":4724,"Ġfrequently":4725,"bud":4726,"Ġcombination":4727,"Ġbirds":4728,"rum":4729,"ches":4730,"Ġvia":4731,"Ġpath":4732,"Ġpacking":4733,"mine":4734,"Ġgel":4735,"hard":4736,"Ġgent":4737,"icing":4738,"Ġzippers":4739,"Ġmoments":4740,"Ġstretchy":4741,"Ġcandle":4742,"Ġconcerned":4743,"Ġscary":4744,"Ġpenny":4745,"Ġfurniture":4746,"Ġrecipe":4747,"Ġterrific":4748,"Ġsudden":4749,"Ġbrief":4750,"quate":4751,"Ġauthentic":4752,"Ġsimpl":4753,"Ġinspiring":4754,"unt":4755,"Ġharn":4756,"Ġden":4757,"Ġscrub":4758,"Ġslots":4759,"Ġguest":4760,"Ġtang":4761,"ival":4762,"mbre":4763,"Ġcabinet":4764,"bl":4765,"Ġinstruction":4766,"Ġtracks":4767,"icy":4768,"Ġblew":4769,"Ġeuro":4770,"Ġmatches":4771,"Ġaccessories":4772,"Ġforth":4773,"Ġtons":4774,"Ġdestroyed":4775,"aur":4776,"Ġwild":4777,"Ġposter":4778,"everything":4779,"never":4780,"Ġba":4781,"Ġharness":4782,"Ġsd":4783,"Ġpoly":4784,"Ġumbre":4785,"end":4786,"Ġhimself":4787,"Ġeffects":4788,"Ġlat":4789,"Ġnumer":4790,"Ġenergy":4791,"Ġtires":4792,"Ġlistened":4793,"Ġunits":4794,"Ġopener":4795,"Ġcris":4796,"ica":4797,"Ġfamiliar":4798,"Ġtowards":4799,"Ġdegrees":4800,"Ġinitially":4801,"Ġcompelling":4802,"Ġted":4803,"Ġextended":4804,"others":4805,"Ġsunglasses":4806,"iest":4807,"ooked":4808,"ously":4809,"Ġrecognize":4810,"vy":4811,"Ġrelig":4812,"Ġvalve":4813,"Ġlace":4814,"Ġlou":4815,"Ġcans":4816,"Ġanticipated":4817,"Ġflu":4818,"Ġpulls":4819,"Ġtrips":4820,"Ġencou":4821,"Ġsituations":4822,"Ġign":4823,"Ġstap":4824,"sole":4825,"jo":4826,"Ġhous":4827,"ians":4828,"Ġtrim":4829,"Ġcash":4830,"Ġdance":4831,"Ġblood":4832,"Ġsmelled":4833,"itary":4834,"Ġxbox":4835,"Ġoperate":4836,"Ġearbud":4837,"Ġanimal":4838,"Ġtraditional":4839,"Ġtin":4840,"Ġshattered":4841,"Ġsock":4842,"Ġterribly":4843,"ulation":4844,"Ġexplo":4845,"Ġapproach":4846,"Ġapplied":4847,"Ġrose":4848,"Ġreve":4849,"pes":4850,"Ġexperienced":4851,"Ġcreated":4852,"del":4853,"Ġscan":4854,"Ġlucky":4855,"overall":4856,"kin":4857,"Ġentirely":4858,"Ġalumin":4859,"Ġaddress":4860,"Ġcru":4861,"Ġreasonably":4862,"Ġtouching":4863,"Ġreceiver":4864,"Ġnavy":4865,"Ġspecifically":4866,"Ġdrives":4867,"Ġscene":4868,"Ġstere":4869,"Ġjames":4870,"Ġnoisy":4871,"Ġmodels":4872,"Ġpole":4873,"Ġopt":4874,"definitely":4875,"Ġq":4876,"Ġpant":4877,"Ġnove":4878,"Ġoppo":4879,"Ġstraw":4880,"Ġbat":4881,"Ġfort":4882,"Ġmeth":4883,"ctor":4884,"Ġcoverage":4885,"Ġliner":4886,"Ġhips":4887,"Ġeli":4888,"Ġreorder":4889,"icles":4890,"Ġrecharge":4891,"umbs":4892,"Ġww":4893,"Ġbummed":4894,"Ġcaps":4895,"Ġelegant":4896,"Ġguard":4897,"extremely":4898,"Ġtoile":4899,"Ġpops":4900,"Ġcalendar":4901,"Ġfolded":4902,"Ġcarb":4903,"Ġamp":4904,"Ġcaptiv":4905,"illa":4906,"Ġrepeated":4907,"Ġgentle":4908,"may":4909,"Ġchrome":4910,"Ġrice":4911,"Ġversions":4912,"otes":4913,"made":4914,"uine":4915,"Ġwasher":4916,"Ġpatterns":4917,"eed":4918,"Ġtimer":4919,"Ġbrilliant":4920,"Ġaffect":4921,"Ġvoc":4922,"Ġgenerally":4923,"Ġrepres":4924,"Ġdav":4925,"ils":4926,"Ġembarr":4927,"Ġimpact":4928,"Ġallowed":4929,"Ġchicken":4930,"inc":4931,"chy":4932,"Ġadjustment":4933,"Ġstains":4934,"soft":4935,"Ġsmoothly":4936,"Ġmap":4937,"Ġserves":4938,"ummy":4939,"imately":4940,"ester":4941,"Ġhumid":4942,"Ġdisg":4943,"ga":4944,"icks":4945,"Ġmass":4946,"Ġcontainers":4947,"Ġsports":4948,"Ġexercise":4949,"Ġnumerous":4950,"Ġbree":4951,"lessly":4952,"Ġow":4953,"Ġmild":4954,"yy":4955,"ushing":4956,"Ġgauge":4957,"tot":4958,"Ġforg":4959,"Ġreturns":4960,"Ġsoles":4961,"Ġstanding":4962,"Ġmicrophone":4963,"child":4964,"Ġrelatively":4965,"Ġord":4966,"Ġbusy":4967,"Ġsuitable":4968,"Ġslo":4969,"pted":4970,"Ġvs":4971,"Ġpleasant":4972,"Ġconcern":4973,"ilarious":4974,"uggle":4975,"Ġprovo":4976,"Ġfauc":4977,"worst":4978,"Ġdream":4979,"Ġdisk":4980,"Ġheadphone":4981,"Ġsuggested":4982,"ched":4983,"Ġdoors":4984,"Ġpitch":4985,"Ġcovering":4986,"Ġpencils":4987,"Ġheels":4988,"Ġaluminum":4989,"sim":4990,"Ġmemories":4991,"Ġboun":4992,"Ġpleasantly":4993,"Ġgenuine":4994,"Ġpainful":4995,"Ġcub":4996,"Ġimagination":4997,"Ġbang":4998,"Ġattachment":4999,"Ġshaped":5000,"Ġpanel":5001,"Ġsearching":5002,"Ġprop":5003,"Ġcrappy":5004,"Ġbaggy":5005,"Ġembarrass":5006,"Ġdelicate":5007,"Ġsag":5008,"Ġtex":5009,"fr":5010,"Ġleash":5011,"Ġtent":5012,"Ġmp":5013,"Ġcheese":5014,"Ġsooner":5015,"Ġpresented":5016,"Ġcrafts":5017,"Ġumbrella":5018,"ork":5019,"asty":5020,"Ġmeets":5021,"Ġbatch":5022,"Ġeurope":5023,"ization":5024,"Ġpics":5025,"Ġmicrow":5026,"Ġbio":5027,"Ġcolour":5028,"Ġgall":5029,"Ġfancy":5030,"Ġmilitary":5031,"Ġalright":5032,"Ġcandles":5033,"urity":5034,"Ġgps":5035,"Ġplayers":5036,"Ġclever":5037,"Ġterms":5038,"Ġrig":5039,"Ġportr":5040,"lon":5041,"Ġnames":5042,"Ġuneven":5043,"Ġblurry":5044,"ado":5045,"Ġreminds":5046,"Ġtoilet":5047,"Ġserve":5048,"Ġcance":5049,"Ġhappening":5050,"Ġdocument":5051,"Ġflor":5052,"Ġrope":5053,"Ġresistant":5054,"Ġlasting":5055,"Ġthickness":5056,"Ġcompan":5057,"esy":5058,"her":5059,"Ġoverly":5060,"rel":5061,"Ġwhatso":5062,"Ġseparated":5063,"Ġincludes":5064,"Ġarr":5065,"gl":5066,"Ġtighter":5067,"Ġalign":5068,"Ġsounded":5069,"Ġheroine":5070,"Ġdiscovered":5071,"oon":5072,"Ġcompet":5073,"Ġherself":5074,"Ġpray":5075,"Ġapps":5076,"Ġstruggle":5077,"Ġoutput":5078,"ida":5079,"Ġwhenever":5080,"Ġprints":5081,"Ġresource":5082,"Ġprovoking":5083,"Ġcontrols":5084,"Ġwhatsoever":5085,"rical":5086,"Ġtopic":5087,"Ġflavors":5088,"Ġties":5089,"Ġhelping":5090,"osed":5091,"Ġpainting":5092,"xic":5093,"Ġgrass":5094,"apan":5095,"Ġdissatisfied":5096,"Ġchannels":5097,"Ġcontents":5098,"Ġmysteries":5099,"Ġrecent":5100,"Ġcracks":5101,"Ġtack":5102,"Ġrolls":5103,"Ġdetect":5104,"Ġhorri":5105,"Ġfiles":5106,"Ġrespons":5107,"Ġjes":5108,"Ġgap":5109,"Ġjapan":5110,"Ġasking":5111,"roid":5112,"Ġsuspenseful":5113,"Ġlem":5114,"Ġwatches":5115,"Ġham":5116,"ina":5117,"apt":5118,"Ġtabs":5119,"Ġconsum":5120,"Ġclaims":5121,"returned":5122,"sho":5123,"Ġgross":5124,"Ġwooden":5125,"oses":5126,"Ġcomfor":5127,"Ġanswers":5128,"Ġslipping":5129,"Ġyo":5130,"Ġthumb":5131,"Ġcow":5132,"ental":5133,"Ġmarkers":5134,"Ġenvir":5135,"Ġholiday":5136,"Ġprim":5137,"Ġeggs":5138,"ai":5139,"Ġjud":5140,"Ġgrocer":5141,"Ġactive":5142,"Ġsci":5143,"Ġtherm":5144,"sto":5145,"Ġreport":5146,"has":5147,"Ġtightly":5148,"Ġmessed":5149,"Ġclamp":5150,"Ġmob":5151,"Ġdisney":5152,"Ġcapac":5153,"Ġextend":5154,"liked":5155,"Ġchoices":5156,"Ġnewer":5157,"ration":5158,"Ġliking":5159,"agra":5160,"Ġmaintain":5161,"Ġdiame":5162,"Ġproduction":5163,"Ġbracket":5164,"Ġstruct":5165,"aff":5166,"Ġgoogle":5167,"Ġunivers":5168,"Ġslips":5169,"Ġholders":5170,"Ġthoughts":5171,"Ġhiking":5172,"Ġfile":5173,"berry":5174,"Ġbolt":5175,"Ġdownloaded":5176,"ana":5177,"Ġgrandchild":5178,"Ġemp":5179,"agon":5180,"Ġskim":5181,"Ġnature":5182,"Ġrocks":5183,"Ġdumb":5184,"Ġcamer":5185,"Ġtechno":5186,"Ġfolks":5187,"Ġsofter":5188,"Ġwes":5189,"Ġpans":5190,"Ġtries":5191,"Ġemotions":5192,"junk":5193,"reshing":5194,"Ġhilarious":5195,"Ġappreciated":5196,"Ġmagazine":5197,"Ġpicks":5198,"Ġadmit":5199,"fant":5200,"Ġhorror":5201,"Ġphil":5202,"Ġideal":5203,"Ġfortun":5204,"Ġdefe":5205,"Ġtechnical":5206,"theless":5207,"Ġenviron":5208,"uted":5209,"Ġandroid":5210,"Ġshallow":5211,"Ġproduce":5212,"Ġlisting":5213,"Ġsoul":5214,"Ġnowhere":5215,"Ġfrustrated":5216,"Ġpsy":5217,"Ġotterbox":5218,"hold":5219,"Ġlaces":5220,"Ġpit":5221,"Ġdiameter":5222,"Ġwarped":5223,"Ġsneak":5224,"Ġsewing":5225,"fli":5226,"Ġstress":5227,"Ġresearched":5228,"Ġlabeled":5229,"Ġlic":5230,"Ġsurprisingly":5231,"Ġcookies":5232,"Ġdisgust":5233,"Ġforced":5234,"istry":5235,"Ġdrinking":5236,"Ġrarely":5237,"eps":5238,"wish":5239,"Ġtends":5240,"Ġscarf":5241,"ternal":5242,"fantastic":5243,"Ġburning":5244,"Ġsleek":5245,"Ġprepared":5246,"tense":5247,"Ġintrodu":5248,"Ġpublished":5249,"Ġdescribe":5250,"Ġroomy":5251,"Ġteaching":5252,"Ġcrooked":5253,"Ġflight":5254,"Ġblocks":5255,"Ġclosure":5256,"inary":5257,"Ġpepper":5258,"Ġdrivers":5259,"Ġfaucet":5260,"Ġmins":5261,"Ġram":5262,"Ġdegree":5263,"Ġrelationships":5264,"Ġsnaps":5265,"Ġneeding":5266,"Ġconnections":5267,"Ġsouth":5268,"Ġcompartment":5269,"rupt":5270,"Ġstom":5271,"Ġdeliver":5272,"Ġshield":5273,"por":5274,"Ġdies":5275,"arted":5276,"essed":5277,"lers":5278,"Ġstove":5279,"sey":5280,"Ġqueen":5281,"Ġintense":5282,"Ġbackup":5283,"unky":5284,"Ġtechni":5285,"Ġrefreshing":5286,"Ġspread":5287,"Ġmicrowave":5288,"ode":5289,"Ġsturd":5290,"Ġmainly":5291,"Ġcrisp":5292,"Ġexposed":5293,"Ġalex":5294,"Ġvest":5295,"Ġemotional":5296,"iled":5297,"Ġretail":5298,"Ġimproved":5299,"Ġken":5300,"ship":5301,"Ġculture":5302,"Ġlocation":5303,"Ġelement":5304,"Ġunra":5305,"Ġfaulty":5306,"Ġmotion":5307,"Ġsecurity":5308,"Ġrober":5309,"Ġposted":5310,"undred":5311,"Ġcomedy":5312,"Ġtasty":5313,"str":5314,"Ġconclus":5315,"Ġmats":5316,"Ġfloors":5317,"Ġhundred":5318,"Ġplates":5319,"odes":5320,"Ġadequate":5321,"Ġfear":5322,"Ġfilling":5323,"Ġera":5324,"Ġpun":5325,"Ġcouch":5326,"acc":5327,"Ġroller":5328,"Ġcomforter":5329,"Ġhide":5330,"pres":5331,"Ġwrit":5332,"Ġinstallment":5333,"Ġhea":5334,"Ġversat":5335,"Ġpriv":5336,"Ġchallenging":5337,"ta":5338,"xious":5339,"Ġya":5340,"Ġshine":5341,"Ġextension":5342,"ael":5343,"Ġconnecting":5344,"gging":5345,"Ġassembled":5346,"icted":5347,"Ġlocks":5348,"Ġdiv":5349,"Ġwrench":5350,"ache":5351,"Ġbreeze":5352,"Ġmountain":5353,"Ġgerman":5354,"sorry":5355,"Ġundone":5356,"Ġdetach":5357,"Ġentertainment":5358,"Ġstack":5359,"Ġash":5360,"Ġinterior":5361,"Ġsoo":5362,"Ġmarked":5363,"mar":5364,"Ġmuff":5365,"Ġlabels":5366,"Ġpeace":5367,"Ġlaughed":5368,"Ġflower":5369,"Ġalbums":5370,"Ġlame":5371,"Ġlessons":5372,"Ġconnectors":5373,"Ġinstrum":5374,"Ġtasting":5375,"Ġlip":5376,"Ġcurtains":5377,"Ġconfused":5378,"Ġshades":5379,"kind":5380,"Ġpleasure":5381,"Ġessential":5382,"night":5383,"rest":5384,"Ġdistract":5385,"Ġthinks":5386,"Ġterm":5387,"Ġjuice":5388,"Ġcage":5389,"Ġburnt":5390,"Ġdispens":5391,"Ġwax":5392,"Ġdock":5393,"Ġstarter":5394,"Ġcameras":5395,"batter":5396,"Ġhid":5397,"she":5398,"Ġraw":5399,"ums":5400,"such":5401,"Ġinvestment":5402,"ancy":5403,"Ġchalk":5404,"Ġunusual":5405,"vet":5406,"amond":5407,"Ġepisodes":5408,"Ġwiring":5409,"host":5410,"Ġnails":5411,"ule":5412,"once":5413,"Ġwest":5414,"Ġlover":5415,"Ġflap":5416,"Ġbeginners":5417,"Ġsurprises":5418,"Ġghost":5419,"ology":5420,"Ġunne":5421,"Ġsandal":5422,"Ġframes":5423,"Ġepisode":5424,"Ġexperiences":5425,"Ġconsistent":5426,"Ġdangerous":5427,"cd":5428,"Ġexternal":5429,"Ġwalls":5430,"Ġdrawback":5431,"Ġweld":5432,"Ġacceptable":5433,"Ġdelightful":5434,"Ġtension":5435,"Ġtypically":5436,"Ġlevels":5437,"Ġwink":5438,"Ġdifficulty":5439,"Ġwestern":5440,"Ġtedious":5441,"Ġintroduction":5442,"ules":5443,"Ġscratchy":5444,"Ġresolution":5445,"Ġprices":5446,"Ġpear":5447,"mming":5448,"Ġdropping":5449,"Ġstreet":5450,"Ġdiamond":5451,"Ġcheesy":5452,"round":5453,"Ġbuff":5454,"Ġglitter":5455,"Ġange":5456,"ifier":5457,"Ġsolar":5458,"gain":5459,"Ġrefill":5460,"Ġprogress":5461,"Ġmessy":5462,"off":5463,"Ġincom":5464,"Ġgrips":5465,"corn":5466,"Ġbin":5467,"Ġdecal":5468,"Ġintell":5469,"Ġunplug":5470,"Ġsmoke":5471,"idence":5472,"aks":5473,"Ġrisk":5474,"Ġtele":5475,"uable":5476,"Ġzomb":5477,"Ġswitched":5478,"sure":5479,"Ġindicated":5480,"Ġsuperb":5481,"Ġvisual":5482,"Ġscope":5483,"Ġbrain":5484,"Ġpetite":5485,"Ġrout":5486,"Ġgrown":5487,"Ġcalf":5488,"Ġpreferred":5489,"Ġpend":5490,"Ġdishes":5491,"Ġenvironment":5492,"Ġhem":5493,"Ġbelly":5494,"Ġjesus":5495,"Ġquar":5496,"Ġserved":5497,"Ġsaving":5498,"Ġpurposes":5499,"Ġgain":5500,"Ġcliff":5501,"Ġcapacity":5502,"Ġchewed":5503,"Ġbudget":5504,"Ġunravel":5505,"bad":5506,"Ġheater":5507,"graphy":5508,"two":5509,"vas":5510,"Ġbell":5511,"Ġoccasionally":5512,"Ġrandomly":5513,"Ġchannel":5514,"Ġmi":5515,"Ġdeeper":5516,"Ġchallen":5517,"Ġdozen":5518,"Ġknees":5519,"Ġgeneric":5520,"Ġmembers":5521,"Ġtrailer":5522,"tried":5523,"Ġwip":5524,"Ġfif":5525,"Ġfinishing":5526,"cs":5527,"gave":5528,"yer":5529,"Ġkinds":5530,"sl":5531,"Ġcin":5532,"Ġsha":5533,"Ġalive":5534,"Ġbargain":5535,"Ġabuse":5536,"Ġchargers":5537,"vo":5538,"Ġstamp":5539,"Ġstrongly":5540,"Ġlyric":5541,"Ġrolled":5542,"Ġhorse":5543,"Ġvisit":5544,"Ġinsightful":5545,"Ġbrit":5546,"Ġmatching":5547,"Ġford":5548,"Ġbuds":5549,"atable":5550,"Ġsqueak":5551,"yes":5552,"Ġclassy":5553,"Ġfridge":5554,"ien":5555,"Ġcore":5556,"Ġstomach":5557,"Ġbugs":5558,"Ġoffic":5559,"Ġvamp":5560,"awful":5561,"Ġadjusted":5562,"Ġadvise":5563,"ires":5564,"Ġgrammar":5565,"Ġlemon":5566,"Ġevil":5567,"ca":5568,"Ġgreatly":5569,"amps":5570,"Ġaccidentally":5571,"Ġunderwear":5572,"bow":5573,"Ġhrs":5574,"Ġopp":5575,"Ġcompon":5576,"Ġreviewer":5577,"Ġexec":5578,"Ġjuly":5579,"Ġcopies":5580,"Ġstrips":5581,"Ġdele":5582,"Ġbras":5583,"Ġdvds":5584,"Ġdrinks":5585,"Ġabsorb":5586,"zzles":5587,"Ġvict":5588,"xture":5589,"Ġsurround":5590,"Ġgrocery":5591,"bre":5592,"Ġwilling":5593,"maybe":5594,"Ġcraft":5595,"Ġdavid":5596,"Ġwriters":5597,"aint":5598,"Ġharry":5599,"Ġsocket":5600,"Ġconditions":5601,"Ġbeats":5602,"Ġoct":5603,"Ġtypos":5604,"Ġskills":5605,"imate":5606,"Ġbee":5607,"Ġcrystal":5608,"Ġviewing":5609,"Ġcozy":5610,"ague":5611,"Ġdesired":5612,"ota":5613,"Ġbowls":5614,"ara":5615,"Ġmanaged":5616,"Ġadventures":5617,"Ġfolds":5618,"Ġreleased":5619,"lots":5620,"Ġexcess":5621,"tered":5622,"Ġyrs":5623,"Ġlee":5624,"Ġfoods":5625,"ras":5626,"Ġregarding":5627,"Ġflops":5628,"Ġlacks":5629,"arts":5630,"Ġaside":5631,"Ġelements":5632,"dri":5633,"Ġjustice":5634,"Ġpean":5635,"Ġinterm":5636,"Ġjeep":5637,"Ġchallenge":5638,"Ġaug":5639,"Ġsubstance":5640,"Ġlinks":5641,"decent":5642,"Ġsav":5643,"Ġbeaut":5644,"Ġnetwork":5645,"comend":5646,"Ġhoney":5647,"Ġevening":5648,"Ġsqueeze":5649,"Ġupside":5650,"Ġfails":5651,"Ġdepressing":5652,"cket":5653,"Ġthumbs":5654,"ification":5655,"Ġupdated":5656,"Ġhonda":5657,"Ġrefunded":5658,"Ġladies":5659,"atically":5660,"Ġanybody":5661,"Ġinternal":5662,"rier":5663,"Ġreccomend":5664,"Ġstale":5665,"Ġflying":5666,"Ġrolling":5667,"ief":5668,"Ġsour":5669,"ino":5670,"uses":5671,"ilities":5672,"Ġdiscuss":5673,"Ġmotorcy":5674,"ometer":5675,"Ġopens":5676,"ral":5677,"airs":5678,"Ġsections":5679,"Ġmas":5680,"Ġadvertis":5681,"umes":5682,"Ġii":5683,"Ġunst":5684,"Ġcontinued":5685,"etime":5686,"Ġinstantly":5687,"Ġstyles":5688,"looked":5689,"Ġciv":5690,"Ġprotecting":5691,"Ġsample":5692,"sound":5693,"Ġcompre":5694,"Ġloaded":5695,"Ġexpress":5696,"Ġdresses":5697,"Ġunreal":5698,"Ġshelves":5699,"installed":5700,"Ġapprox":5701,"Ġmedia":5702,"Ġregardless":5703,"Ġhousing":5704,"Ġearbuds":5705,"Ġgrinder":5706,"Ġemerg":5707,"Ġmarch":5708,"yal":5709,"apers":5710,"function":5711,"Ġlovers":5712,"Ġdinner":5713,"Ġlocking":5714,"Ġsubstant":5715,"Ġmotiv":5716,"why":5717,"Ġresid":5718,"Ġseasons":5719,"Ġware":5720,"Ġexpired":5721,"Ġtextbook":5722,"Ġskill":5723,"Ġsnag":5724,"Ġtil":5725,"Ġadapt":5726,"Ġmeasured":5727,"shield":5728,"Ġstereo":5729,"zzy":5730,"ables":5731,"Ġlie":5732,"Ġreferences":5733,"Ġtied":5734,"Ġreasons":5735,"Ġrow":5736,"Ġsmile":5737,"Ġclim":5738,"amed":5739,"Ġsecret":5740,"Ġshooting":5741,"Ġvivid":5742,"Ġhalfway":5743,"Ġmath":5744,"Ġdecide":5745,"size":5746,"Ġpolitical":5747,"Ġbaking":5748,"Ġpackages":5749,"Ġlil":5750,"Ġcorn":5751,"Ġlocally":5752,"stopped":5753,"Ġcommunic":5754,"Ġcanvas":5755,"nday":5756,"Ġtalent":5757,"rated":5758,"Ġyork":5759,"cheaply":5760,"Ġvolt":5761,"oh":5762,"Ġdell":5763,"Ġperman":5764,"Ġintrigue":5765,"Ġbeauty":5766,"Ġthighs":5767,"cra":5768,"Ġhanger":5769,"Ġtechnology":5770,"ios":5771,"Ġadvanced":5772,"llers":5773,"Ġry":5774,"Ġnews":5775,"Ġdeceiving":5776,"house":5777,"lasted":5778,"vant":5779,"Ġrequested":5780,"ama":5781,"Ġrusted":5782,"Ġpurchases":5783,"Ġhangs":5784,"Ġstripped":5785,"kids":5786,"Ġnik":5787,"Ġcds":5788,"ards":5789,"Ġdepending":5790,"Ġimpression":5791,"Ġyarn":5792,"Ġseven":5793,"Ġpopping":5794,"Ġcleans":5795,"Ġpadded":5796,"Ġber":5797,"Ġbitter":5798,"Ġgaming":5799,"Ġlyrics":5800,"Ġcustomers":5801,"Ġmile":5802,"Ġsumm":5803,"Ġtour":5804,"Ġsided":5805,"rets":5806,"Ġsciss":5807,"Ġlos":5808,"Ġstaying":5809,"Ġhurts":5810,"Ġfeeder":5811,"Ġrepeat":5812,"Ġenth":5813,"Ġinsights":5814,"Ġsoci":5815,"Ġveget":5816,"Ġrent":5817,"Ġredu":5818,"Ġsteph":5819,"Ġtwisted":5820,"Ġrequest":5821,"Ġlocked":5822,"Ġlaughing":5823,"Ġdiscount":5824,"Ġblank":5825,"Ġwindshield":5826,"Ġrushed":5827,"Ġfrank":5828,"Ġsolve":5829,"Ġgig":5830,"Ġpicky":5831,"Ġadvertisement":5832,"da":5833,"Ġrender":5834,"athers":5835,"Ġdefinately":5836,"Ġregularly":5837,"ores":5838,"poorly":5839,"Ġswimming":5840,"Ġyeah":5841,"Ġconsistently":5842,"Ġsauce":5843,"ril":5844,"Ġorganic":5845,"Ġconcepts":5846,"Ġindust":5847,"Ġvision":5848,"Ġblah":5849,"Ġfilms":5850,"Ġpopular":5851,"Ġgrandchildren":5852,"ists":5853,"Ġpopcorn":5854,"Ġmoisture":5855,"Ġtaller":5856,"Ġmur":5857,"Ġsubs":5858,"Ġpolyester":5859,"ortun":5860,"Ġtripod":5861,"Ġbattle":5862,"Ġeight":5863,"Ġindeed":5864,"Ġlined":5865,"Ġshrunk":5866,"Ġwake":5867,"Ġinstant":5868,"Ġlifetime":5869,"Ġbinding":5870,"Ġvert":5871,"Ġviolence":5872,"nis":5873,"Ġconnects":5874,"Ġbasis":5875,"Ġimpressive":5876,"Ġjune":5877,"oons":5878,"Ġwasting":5879,"Ġswing":5880,"iers":5881,"Ġtoner":5882,"Ġripping":5883,"lights":5884,"Ġpig":5885,"Ġhats":5886,"Ġtags":5887,"Ġtossed":5888,"Ġsneakers":5889,"bes":5890,"whel":5891,"Ġrap":5892,"Ġchildhood":5893,"Ġfishing":5894,"Ġtricky":5895,"Ġblind":5896,"bag":5897,"Ġdoctor":5898,"Ġfunctionality":5899,"Ġtoast":5900,"Ġgiant":5901,"Ġpicking":5902,"Ġtile":5903,"Ġrubbed":5904,"vi":5905,"Ġunlock":5906,"Ġmichael":5907,"Ġugh":5908,"Ġgeneration":5909,"onge":5910,"Ġsheer":5911,"conom":5912,"Ġdecember":5913,"Ġdrying":5914,"Ġbroad":5915,"Ġsolved":5916,"Ġcontained":5917,"Ġproduced":5918,"Ġbrothers":5919,"Ġtransp":5920,"Ġconsidered":5921,"Ġplots":5922,"Ġversatile":5923,"ongs":5924,"Ġcomputers":5925,"Ġrespect":5926,"aled":5927,"Ġpregn":5928,"Ġlint":5929,"Ġconclusion":5930,"Ġjournal":5931,"ein":5932,"word":5933,"Ġassume":5934,"Ġsocial":5935,"Ġrelated":5936,"Ġkilled":5937,"many":5938,"Ġdisapp":5939,"Ġmobile":5940,"Ġdented":5941,"itation":5942,"Ġsatisfying":5943,"Ġrides":5944,"Ġdrug":5945,"Ġpushed":5946,"Ġmatched":5947,"Ġindoor":5948,"Ġseparately":5949,"Ġapril":5950,"Ġpassion":5951,"Ġlaser":5952,"ashing":5953,"ston":5954,"Ġlaund":5955,"Ġopportun":5956,"Ġpowered":5957,"Ġcomparison":5958,"Ġcracking":5959,"Ġtouched":5960,"Ġexplained":5961,"Ġforgot":5962,"ener":5963,"Ġbean":5964,"Ġexplanation":5965,"Ġneighbor":5966,"Ġinse":5967,"Ġclassroom":5968,"Ġtune":5969,"Ġamazed":5970,"Ġxmas":5971,"Ġdiscs":5972,"Ġbrake":5973,"Ġentertained":5974,"ett":5975,"Ġcombo":5976,"Ġhip":5977,"Ġtalented":5978,"Ġsaves":5979,"Ġcutter":5980,"Ġshocked":5981,"Ġrefurb":5982,"ptical":5983,"Ġsky":5984,"Ġpix":5985,"Ġate":5986,"Ġbb":5987,"Ġeconom":5988,"Ġinserts":5989,"Ġnylon":5990,"Ġseed":5991,"Ġraz":5992,"gger":5993,"Ġstun":5994,"Ġexercises":5995,"Ġplush":5996,"Ġflorida":5997,"Ġgloss":5998,"Ġlatest":5999,"Ġcomic":6000,"ptive":6001,"Ġbrushes":6002,"Ġnights":6003,"Ġhey":6004,"Ġmeal":6005,"Ġsuddenly":6006,"Ġfigures":6007,"Ġobject":6008,"cre":6009,"izz":6010,"Ġsuperior":6011,"Ġelectrical":6012,"Ġmedical":6013,"Ġwobb":6014,"Ġbecoming":6015,"Ġinitial":6016,"accur":6017,"Ġnasty":6018,"Ġbusted":6019,"Ġmistakes":6020,"Ġreadable":6021,"Ġshortly":6022,"Ġescape":6023,"Ġspanish":6024,"Ġinterf":6025,"Ġnarrative":6026,"fold":6027,"Ġtuck":6028,"Ġheating":6029,"ateg":6030,"Ġtransform":6031,"Ġca":6032,"high":6033,"Ġworkmanship":6034,"Ġquant":6035,"cast":6036,"Ġamong":6037,"Ġkiller":6038,"Ġscam":6039,"Ġsan":6040,"Ġfitbit":6041,"Ġhaw":6042,"stick":6043,"Ġsched":6044,"Ġnotebook":6045,"Ġseats":6046,"Ġribb":6047,"Ġextreme":6048,"Ġgolden":6049,"hu":6050,"Ġornam":6051,"Ġfeelings":6052,"Ġreminded":6053,"Ġsen":6054,"ius":6055,"rup":6056,"Ġach":6057,"len":6058,"Ġchemistry":6059,"Ġwalked":6060,"Ġshake":6061,"nel":6062,"Ġhammer":6063,"Ġdisgusting":6064,"Ġfade":6065,"ques":6066,"plic":6067,"Ġsinging":6068,"both":6069,"Ġdealing":6070,"Ġchecking":6071,"Ġsuspect":6072,"Ġolds":6073,"Ġbumper":6074,"Ġnoted":6075,"Ġeverytime":6076,"complete":6077,"Ġtransm":6078,"Ġpresentation":6079,"Ġrive":6080,"Ġscuff":6081,"Ġvet":6082,"Ġsuggestions":6083,"Ġstuffed":6084,"00":6085,"Ġreplacements":6086,"Ġexplains":6087,"mos":6088,"Ġperformed":6089,"Ġhandling":6090,"Ġwarmer":6091,"Ġwars":6092,"Ġcrime":6093,"Ġafterno":6094,"dom":6095,"Ġankles":6096,"Ġcreep":6097,"Ġunnecessary":6098,"Ġmotorcycle":6099,"hol":6100,"Ġitchy":6101,"lies":6102,"Ġbabies":6103,"Ġcaptivating":6104,"Ġlaundry":6105,"Ġsturdier":6106,"pa":6107,"xus":6108,"Ġbuzz":6109,"Ġwarned":6110,"Ġlaz":6111,"vis":6112,"Ġchuck":6113,"Ġgoodness":6114,"Ġaugust":6115,"Ġscissors":6116,"Ġpeeled":6117,"ulated":6118,"Ġsync":6119,"Ġlugg":6120,"llo":6121,"Ġinput":6122,"Ġnope":6123,"Ġallerg":6124,"yle":6125,"Ġyouth":6126,"Ġbrightness":6127,"Ġmember":6128,"watch":6129,"Ġfrozen":6130,"battery":6131,"Ġcrushed":6132,"Ġscre":6133,"Ġserving":6134,"Ġslick":6135,"Ġhinge":6136,"Ġsigns":6137,"Ġwipe":6138,"Ġhidden":6139,"Ġwi":6140,"Ġdent":6141,"Ġswive":6142,"Ġmuy":6143,"Ġcontr":6144,"Ġdecoration":6145,"Ġrole":6146,"velope":6147,"Ġoutdoors":6148,"Ġbond":6149,"Ġtransport":6150,"Ġwrinkles":6151,"Ġgripping":6152,"now":6153,"Ġnavig":6154,"Ġheck":6155,"Ġstandards":6156,"Ġidentical":6157,"Ġsea":6158,"Ġfamilies":6159,"Ġleads":6160,"Ġfee":6161,"Ġbrass":6162,"Ġexcit":6163,"Ġconversation":6164,"Ġelectronic":6165,"Ġassumed":6166,"Ġapartment":6167,"Ġrugged":6168,"Ġcause":6169,"Ġcycle":6170,"Ġmos":6171,"Ġstorm":6172,"Ġgallon":6173,"Ġkitty":6174,"Ġspout":6175,"Ġneedless":6176,"Ġtroub":6177,"Ġsoup":6178,"iocre":6179,"Ġstained":6180,"atives":6181,"ony":6182,"Ġevenly":6183,"Ġadjusting":6184,"Ġpuzzles":6185,"date":6186,"Ġmarke":6187,"Ġcreating":6188,"Ġath":6189,"Ġdiscover":6190,"Ġafternoon":6191,"waste":6192,"uns":6193,"Ġclarity":6194,"Ġwalks":6195,"Ġket":6196,"Ġbeans":6197,"Ġlean":6198,"Ġregister":6199,"Ġuniversal":6200,"Ġpil":6201,"started":6202,"onsist":6203,"Ġskipped":6204,"Ġpotato":6205,"Ġlu":6206,"Ġnotch":6207,"Ġblown":6208,"Ġdragged":6209,"Ġaqu":6210,"ora":6211,"Ġtoaster":6212,"Ġquarter":6213,"iner":6214,"azz":6215,"Ġeditor":6216,"Ġtrap":6217,"Ġhorribly":6218,"Ġblink":6219,"Ġwrinkled":6220,"Ġworthy":6221,"Ġpolar":6222,"Ġrelaxing":6223,"atical":6224,"Ġaccessory":6225,"Ġsurvive":6226,"Ġgum":6227,"oma":6228,"Ġplane":6229,"Ġfuel":6230,"Ġspect":6231,"Ġcentury":6232,"Ġfeedback":6233,"Ġjanuary":6234,"ada":6235,"entially":6236,"Ġdisapointed":6237,"Ġsaver":6238,"Ġraised":6239,"erior":6240,"rete":6241,"Ġqual":6242,"Ġtearing":6243,"Ġvaluable":6244,"coming":6245,"sent":6246,"riger":6247,"Ġrim":6248,"Ġemergency":6249,"Ġshots":6250,"Ġresidue":6251,"Ġhaz":6252,"Ġclosing":6253,"screen":6254,"Ġtopics":6255,"suit":6256,"Ġmc":6257,"alian":6258,"Ġbleed":6259,"Ġdislike":6260,"fill":6261,"Ġcocon":6262,"anged":6263,"anta":6264,"Ġflush":6265,"Ġglare":6266,"Ġformula":6267,"reg":6268,"Ġartwork":6269,"ige":6270,"Ġrefriger":6271,"Ġdrawers":6272,"arant":6273,"Ġtoward":6274,"Ġsept":6275,"Ġbasics":6276,"Ġactivities":6277,"Ġnikon":6278,"Ġcopper":6279,"Ġintellig":6280,"umbers":6281,"Ġenvelope":6282,"Ġdrum":6283,"Ġsubstantial":6284,"Ġcuff":6285,"Ġfighting":6286,"bet":6287,"Ġbrittle":6288,"Ġaspects":6289,"Ġexcitement":6290,"Ġpets":6291,"Ġroot":6292,"Ġincrease":6293,"Ġsloppy":6294,"Ġdescriptive":6295,"iently":6296,"Ġloses":6297,"Ġstructure":6298,"Ġwat":6299,"Ġbib":6300,"iven":6301,"Ġthankfully":6302,"Ġscared":6303,"Ġcookie":6304,"stood":6305,"Ġbone":6306,"Ġdarn":6307,"Ġedited":6308,"cover":6309,"Ġmaps":6310,"Ġstations":6311,"Ġguarant":6312,"Ġsore":6313,"ounts":6314,"Ġgrease":6315,"ano":6316,"kable":6317,"Ġtennis":6318,"Ġskeptical":6319,"Ġspiritual":6320,"Ġlord":6321,"Ġalph":6322,"Ġtheory":6323,"thy":6324,"Ġincon":6325,"Ġluggage":6326,"Ġstead":6327,"Ġsurfaces":6328,"lar":6329,"Ġwii":6330,"ords":6331,"lle":6332,"Ġleading":6333,"ercial":6334,"Ġmood":6335,"Ġowner":6336,"Ġspelling":6337,"Ġphysical":6338,"cr":6339,"Ġovernight":6340,"Ġexisting":6341,"ka":6342,"Ġarc":6343,"Ġloosen":6344,"gie":6345,"Ġintact":6346,"Ġcoconut":6347,"Ġmb":6348,"Ġnorth":6349,"Ġuk":6350,"Ġlawn":6351,"Ġsmallest":6352,"Ġboards":6353,"Ġmethod":6354,"Ġneedle":6355,"Ġelectronics":6356,"Ġbenefit":6357,"Ġwit":6358,"Ġunfortun":6359,"Ġbarb":6360,"Ġsquir":6361,"Ġdated":6362,"Ġisland":6363,"Ġintern":6364,"Ġjoe":6365,"Ġengaged":6366,"Ġconver":6367,"Ġquir":6368,"Ġcarrier":6369,"Ġwon":6370,"Ġfinds":6371,"Ġchamp":6372,"Ġteenage":6373,"thern":6374,"Ġvirt":6375,"Ġdepot":6376,"Ġhill":6377,"ola":6378,"Ġeducational":6379,"Ġpushing":6380,"itors":6381,"Ġrecipient":6382,"Ġfuzzy":6383,"Ġdrawing":6384,"Ġknot":6385,"Ġspar":6386,"Ġinferior":6387,"dro":6388,"Ġrobe":6389,"Ġinaccur":6390,"Ġscratching":6391,"Ġhangers":6392,"Ġfiber":6393,"Ġinspirational":6394,"Ġelimin":6395,"Ġlicense":6396,"Ġmusical":6397,"Ġovers":6398,"ifying":6399,"Ġpressed":6400,"Ġsignificant":6401,"dated":6402,"Ġdealer":6403,"Ġceiling":6404,"Ġmeas":6405,"Ġassist":6406,"Ġdispenser":6407,"Ġos":6408,"ingly":6409,"Ġstocking":6410,"Ġvill":6411,"Ġscoop":6412,"rate":6413,"Ġsmud":6414,"Ġrefurbished":6415,"Ġsharing":6416,"Ġunrealistic":6417,"Ġdual":6418,"Ġdepart":6419,"Ġprofile":6420,"Ġfray":6421,"Ġsket":6422,"Ġcrash":6423,"Ġcompartments":6424,"Ġded":6425,"Ġhunting":6426,"Ġcos":6427,"Ġinteract":6428,"Ġfairy":6429,"Ġbank":6430,"Ġcents":6431,"Ġbless":6432,"Ġcheapest":6433,"Ġfloat":6434,"Ġwis":6435,"Ġcried":6436,"Ġhence":6437,"Ġnin":6438,"Ġdom":6439,"Ġmediocre":6440,"ountain":6441,"amic":6442,"Ġteens":6443,"Ġjapanese":6444,"Ġrac":6445,"Ġcreates":6446,"Ġfav":6447,"Ġcass":6448,"Ġpractically":6449,"Ġfourth":6450,"Ġdistur":6451,"Ġsevere":6452,"Ġborder":6453,"Ġbench":6454,"Ġaccommo":6455,"eaker":6456,"Ġwand":6457,"Ġzoom":6458,"Ġsignificantly":6459,"Ġblender":6460,"Ġgad":6461,"Ġtubes":6462,"Ġheats":6463,"Ġpros":6464,"Ġrv":6465,"Ġtechniques":6466,"Ġmary":6467,"Ġdelivers":6468,"Ġwinner":6469,"Ġsupple":6470,"Ġwhist":6471,"Ġabrupt":6472,"Ġopportunity":6473,"Ġbold":6474,"Ġpinch":6475,"Ġtorso":6476,"Ġnozzle":6477,"Ġdye":6478,"Ġwool":6479,"Ġplat":6480,"Ġstored":6481,"Ġoppos":6482,"Ġflawlessly":6483,"hensive":6484,"print":6485,"Ġfailure":6486,"Ġinconven":6487,"Ġwatt":6488,"Ġlouder":6489,"Ġsteal":6490,"Ġbackwards":6491,"Ġtrigger":6492,"Ġpendant":6493,"Ġfountain":6494,"Ġblisters":6495,"Ġbreast":6496,"Ġoccur":6497,"Ġduck":6498,"Ġultra":6499,"water":6500,"anc":6501,"Ġnursing":6502,"fall":6503,"Ġreviewed":6504,"track":6505,"Ġdragon":6506,"Ġcooker":6507,"Ġrecommendation":6508,"Ġpatio":6509,"Ġstro":6510,"Ġwobbly":6511,"Ġdre":6512,"Ġbritish":6513,"Ġattempts":6514,"Ġanxious":6515,"Ġlazy":6516,"kins":6517,"Ġbends":6518,"Ġcher":6519,"ament":6520,"Ġbound":6521,"Ġsmashed":6522,"Ġinconsist":6523,"Ġupright":6524,"ette":6525,"Ġunfold":6526,"Ġdisplayed":6527,"hand":6528,"hel":6529,"inated":6530,"Ġjars":6531,"bell":6532,"Ġours":6533,"Ġanyways":6534,"Ġhubby":6535,"Ġtexas":6536,"Ġsociety":6537,"big":6538,"Ġcupc":6539,"Ġcircle":6540,"aws":6541,"Ġperforms":6542,"Ġmedic":6543,"Ġamazingly":6544,"Ġstem":6545,"Ġletting":6546,"Ġpaperback":6547,"Ġautomatically":6548,"Ġkay":6549,"Ġbehav":6550,"Ġrace":6551,"Ġhighest":6552,"otten":6553,"bby":6554,"Ġliterature":6555,"Ġtread":6556,"Ġscreens":6557,"Ġgogg":6558,"Ġscrewdri":6559,"Ġmonster":6560,"Ġenclo":6561,"Ġconcise":6562,"Ġmud":6563,"Ġoperation":6564,"usion":6565,"Ġpara":6566,"born":6567,"Ġdud":6568,"Ġgrate":6569,"Ġloops":6570,"Ġallowing":6571,"Ġlaid":6572,"Ġlibro":6573,"Ġeverybody":6574,"Ġbalanced":6575,"Ġexceptional":6576,"Ġscient":6577,"Ġkno":6578,"Ġweights":6579,"Ġtranslation":6580,"Ġtwin":6581,"Ġwick":6582,"Ġdispos":6583,"Ġbite":6584,"Ġbark":6585,"Ġmarker":6586,"Ġnexus":6587,"please":6588,"Ġremovable":6589,"Ġarth":6590,"Ġflee":6591,"Ġridiculously":6592,"Ġrigid":6593,"material":6594,"chool":6595,"should":6596,"Ġplanned":6597,"Ġapplications":6598,"Ġleds":6599,"thank":6600,"still":6601,"ontin":6602,"Ġslipped":6603,"Ġheadache":6604,"lif":6605,"vision":6606,"Ġanch":6607,"ob":6608,"Ġcareer":6609,"Ġcaut":6610,"Ġpup":6611,"inger":6612,"Ġwitch":6613,"Ġthemed":6614,"Ġconcrete":6615,"Ġtrees":6616,"Ġholidays":6617,"Ġoccasional":6618,"Ġcubes":6619,"ober":6620,"picture":6621,"Ġclosely":6622,"Ġrubbing":6623,"riage":6624,"Ġfog":6625,"Ġoctober":6626,"Ġbuen":6627,"Ġshaft":6628,"Ġcrafted":6629,"ulate":6630,"Ġtights":6631,"Ġoun":6632,"Ġchi":6633,"Ġretract":6634,"Ġgrammatical":6635,"ousy":6636,"pros":6637,"Ġrif":6638,"Ġpolice":6639,"needed":6640,"clear":6641,"Ġclut":6642,"Ġpresents":6643,"Ġefficient":6644,"Ġcommercial":6645,"Ġzombie":6646,"Ġtact":6647,"Ġbacks":6648,"inting":6649,"Ġmanufacturing":6650,"Ġchemicals":6651,"...":6652,"Ġfet":6653,"Ġpots":6654,"Ġpian":6655,"Ġreligious":6656,"Ġwound":6657,"Ġoverwhel":6658,"vity":6659,"Ġdistracting":6660,"Ġstudio":6661,"Ġaccompl":6662,"Ġfluffy":6663,"Ġmeasuring":6664,"Ġdesktop":6665,"solid":6666,"Ġrabb":6667,"Ġxs":6668,"Ġcurious":6669,"Ġpotter":6670,"roll":6671,"Ġcollap":6672,"Ġclasses":6673,"itude":6674,"la":6675,"ears":6676,"isham":6677,"place":6678,"Ġgrace":6679,"Ġsellers":6680,"Ġencoura":6681,"Ġdot":6682,"Ġwired":6683,"Ġcompression":6684,"Ġapplying":6685,"Ġhoodie":6686,"Ġbeer":6687,"Ġfootball":6688,"Ġnine":6689,"Ġsupportive":6690,"Ġpapers":6691,"Ġbrackets":6692,"Ġfortunately":6693,"Ġreceipt":6694,"Ġavid":6695,"Ġpointless":6696,"Ġfer":6697,"Ġoverhe":6698,"Ġrestaur":6699,"Ġlaying":6700,"outs":6701,"Ġintermitt":6702,"Ġpostage":6703,"Ġbaseball":6704,"Ġrepresent":6705,"Ġmelt":6706,"Ġpaul":6707,"Ġkettle":6708,"mis":6709,"Ġrecy":6710,"Ġexceeded":6711,"Ġnonetheless":6712,"Ġpipe":6713,"Ġdump":6714,"ference":6715,"boy":6716,"Ġrein":6717,"Ġkickstand":6718,"Ġvari":6719,"Ġnovember":6720,"angle":6721,"Ġprotagon":6722,"Ġattempted":6723,"Ġbug":6724,"Ġhitting":6725,"loy":6726,"Ġjobs":6727,"Ġtax":6728,"Ġsales":6729,"Ġchic":6730,"Ġenh":6731,"Ġstool":6732,"Ġoverview":6733,"Ġthom":6734,"quick":6735,"Ġbland":6736,"Ġdetective":6737,"Ġheaven":6738,"having":6739,"accept":6740,"Ġadm":6741,"Ġcalif":6742,"erson":6743,"Ġcomparable":6744,"gets":6745,"old":6746,"Ġmounts":6747,"cles":6748,"Ġpret":6749,"Ġmint":6750,"Ġtoyota":6751,"Ġcancer":6752,"Ġcheep":6753,"Ġlacked":6754,"Ġartists":6755,"Ġjim":6756,"Ġdifferently":6757,"Ġteenager":6758,"lim":6759,"Ġactivity":6760,"Ġcarried":6761,"Ġfactor":6762,"Ġgem":6763,"Ġencoun":6764,"Ġheadband":6765,"Ġrecognized":6766,"Ġangry":6767,"Ġvanilla":6768,"Ġhitch":6769,"Ġembarrassed":6770,"Ġpist":6771,"garbage":6772,"uation":6773,"Ġstuffing":6774,"Ġdolls":6775,"Ġcuz":6776,"Ġribbon":6777,"Ġsar":6778,"Ġinterview":6779,"Ġstruggles":6780,"Ġmatte":6781,"Ġsnugly":6782,"urig":6783,"Ġpercent":6784,"Ġprecise":6785,"Ġopposite":6786,"Ġfleas":6787,"unks":6788,"Ġflav":6789,"Ġsoundtrack":6790,"Ġcompass":6791,"Ġretain":6792,"via":6793,"always":6794,"Ġshift":6795,"Ġdecorative":6796,"Ġlite":6797,"Ġirritating":6798,"Ġcous":6799,"Ġadjustments":6800,"Ġunders":6801,"akers":6802,"va":6803,"Ġphotography":6804,"leep":6805,"ampoo":6806,"gun":6807,"Ġlan":6808,"Ġdeserve":6809,"Ġasleep":6810,"Ġrere":6811,"intage":6812,"Ġwwii":6813,"Ġfleece":6814,"Ġcircum":6815,"Ġhype":6816,"Ġachie":6817,"mond":6818,"Ġprev":6819,"Ġlayers":6820,"Ġsooo":6821,"Ġcamper":6822,"fa":6823,"Ġshampoo":6824,"Ġprepare":6825,"Ġtaped":6826,"Ġfac":6827,"Ġfrayed":6828,"Ġcompliment":6829,"Ġpeanut":6830,"Ġcalling":6831,"ping":6832,"Ġspeeds":6833,"Ġhandled":6834,"Ġborrow":6835,"simple":6836,"aired":6837,"Ġnecess":6838,"Ġwhose":6839,"Ġsubstit":6840,"ede":6841,"Ġengland":6842,"Ġcruise":6843,"Ġstunning":6844,"Ġven":6845,"Ġinno":6846,"Ġunaccept":6847,"Ġgrisham":6848,"Ġcalves":6849,"Ġflaws":6850,"Ġskipping":6851,"Ġhumorous":6852,"Ġcaliforn":6853,"Ġpoet":6854,"shoes":6855,"vin":6856,"Ġdc":6857,"Ġfreeze":6858,"Ġrounded":6859,"Ġspoon":6860,"placed":6861,"Ġconcert":6862,"Ġdeserves":6863,"Ġspice":6864,"Ġpod":6865,"soph":6866,"afe":6867,"Ġcasing":6868,"Ġsoph":6869,"Ġunw":6870,"Ġpromise":6871,"Ġrelevant":6872,"smaller":6873,"Ġthermometer":6874,"ser":6875,"Ġdevot":6876,"Ġhall":6877,"Ġsemi":6878,"Ġswitching":6879,"Ġspoil":6880,"Ġbam":6881,"Ġkilling":6882,"ateur":6883,"abe":6884,"Ġstage":6885,"oir":6886,"iform":6887,"Ġtables":6888,"Ġlego":6889,"Ġimagined":6890,"Ġbuyers":6891,"Ġhorn":6892,"Ġafric":6893,"Ġlamps":6894,"Ġhers":6895,"Ġcommand":6896,"agraph":6897,"orrow":6898,"Ġpalm":6899,"from":6900,"umbersome":6901,"Ġdar":6902,"Ġuniform":6903,"bal":6904,"under":6905,"Ġparagraph":6906,"aid":6907,"Ġhoriz":6908,"Ġgarmin":6909,"deli":6910,"Ġoutlets":6911,"Ġanytime":6912,"Ġvintage":6913,"Ġfreezer":6914,"Ġcube":6915,"Ġjumping":6916,"Ġkeurig":6917,"cool":6918,"Ġdefinite":6919,"Ġquicker":6920,"Ġceramic":6921,"Ġtyping":6922,"Ġadapters":6923,"Ġslower":6924,"totally":6925,"Ġmexic":6926,"runs":6927,"Ġmoon":6928,"Ġrefused":6929,"Ġpsycho":6930,"presso":6931,"Ġcivil":6932,"Ġevol":6933,"Ġarg":6934,"Ġborn":6935,"ulator":6936,"Ġsupports":6937,"Ġlimit":6938,"Ġinaccurate":6939,"Ġcalifornia":6940,"Ġmanually":6941,"Ġsupplier":6942,"Ġbending":6943,"Ġinspired":6944,"Ġunfortunate":6945,"thetic":6946,"Ġgover":6947,"Ġdecision":6948,"Ġguns":6949,"Ġathlet":6950,"Ġunacceptable":6951,"Ġdd":6952,"Ġaid":6953,"quit":6954,"Ġresistance":6955,"Ġanaly":6956,"Ġsanta":6957,"Ġbarrel":6958,"Ġsunlight":6959,"ita":6960,"Ġdeb":6961,"war":6962,"Ġconfig":6963,"Ġmanufactured":6964,"sad":6965,"Ġss":6966,"ership":6967,"Ġcontem":6968,"Ġslightest":6969,"Ġgasket":6970,"Ġsisters":6971,"Ġcompleted":6972,"Ġflies":6973,"Ġsteady":6974,"Ġtongue":6975,"Ġpatterson":6976,"onest":6977,"Ġmicrosoft":6978,"Ġemotion":6979,"Ġtransparent":6980,"Ġswivel":6981,"Ġlag":6982,"Ġdram":6983,"makes":6984,"Ġcumbersome":6985,"Ġvegg":6986,"Ġsubtle":6987,"apping":6988,"Ġbund":6989,"actory":6990,"acle":6991,"Ġcompanies":6992,"Ġgoggles":6993,"Ġwel":6994,"Ġshuts":6995,"Ġpale":6996,"Ġds":6997,"Ġshad":6998,"hh":6999,"Ġsuccessful":7000,"Ġpanels":7001,"sec":7002,"Ġquantity":7003,"story":7004,"Ġperiods":7005,"Ġfond":7006,"Ġproud":7007,"Ġnu":7008,"Ġnobody":7009,"Ġbothered":7010,"Ġtroubles":7011,"Ġwil":7012,"Ġsin":7013,"Ġsurger":7014,"Ġjumps":7015,"ilation":7016,"Ġworkouts":7017,"Ġreinfor":7018,"diff":7019,"Ġfooled":7020,"Ġcomprehensive":7021,"Ġballoons":7022,"Ġmessages":7023,"Ġamateur":7024,"Ġtales":7025,"Ġeast":7026,"chain":7027,"Ġsunday":7028,"Ġroast":7029,"Ġexplanations":7030,"Ġpaired":7031,"seem":7032,"Ġblowing":7033,"Ġbelts":7034,"Ġpizz":7035,"Ġebook":7036,"Ġnap":7037,"Ġcentered":7038,"Ġoccasion":7039,"Ġencourage":7040,"Ġlikeable":7041,"Ġpremi":7042,"Ġsells":7043,"Ġfixture":7044,"Ġrendering":7045,"omen":7046,"Ġresc":7047,"Ġcomponents":7048,"Ġrefrigerator":7049,"Ġparent":7050,"Ġleaf":7051,"Ġsweatshirt":7052,"Ġclich":7053,"bec":7054,"Ġclaimed":7055,"Ġhinges":7056,"Ġjazz":7057,"cohol":7058,"Ġdying":7059,"alog":7060,"Ġcharming":7061,"Ġmush":7062,"Ġsmith":7063,"Ġbay":7064,"Ġreacher":7065,"logical":7066,"Ġshared":7067,"Ġgrandkids":7068,"Ġtesting":7069,"Ġhesitate":7070,"down":7071,"py":7072,"Ġax":7073,"Ġgovern":7074,"Ġbones":7075,"Ġlaughs":7076,"Ġwitty":7077,"Ġlikable":7078,"Ġsentence":7079,"Ġmarriage":7080,"Ġtablets":7081,"ba":7082,"Ġoutdated":7083,"Ġprincess":7084,"beware":7085,"Ġtreatment":7086,"Ġshep":7087,"ively":7088,"Ġteas":7089,"Ġsurely":7090,"Ġtangled":7091,"Ġmower":7092,"Ġpupp":7093,"Ġdisturbing":7094,"Ġpile":7095,"Ġearphones":7096,"Ġfunctioning":7097,"Ġquirky":7098,"Ġlen":7099,"Ġreel":7100,"Ġbrick":7101,"Ġreduce":7102,"Ġcooked":7103,"finally":7104,"Ġcm":7105,"Ġlum":7106,"Ġblast":7107,"Ġcrunch":7108,"Ġfiller":7109,"Ġemailed":7110,"Ġpiano":7111,"jointed":7112,"Ġadvance":7113,"Ġcarbon":7114,"ormal":7115,"Ġalcohol":7116,"Ġappeal":7117,"Ġsharpener":7118,"Ġinspiration":7119,"Ġfolding":7120,"Ġtort":7121,"Ġbasement":7122,"Ġstretches":7123,"Ġtherap":7124,"better":7125,"Ġquil":7126,"Ġenlight":7127,"Ġminus":7128,"Ġdepartment":7129,"Ġrunner":7130,"Ġdries":7131,"Ġrubs":7132,"Ġtelevision":7133,"Ġvampire":7134,"Ġbeige":7135,"Ġlcd":7136,"Ġgroo":7137,"bruary":7138,"Ġhurry":7139,"Ġultimately":7140,"Ġdots":7141,"Ġree":7142,"Ġchewing":7143,"Ġexpert":7144,"Ġstoryte":7145,"Ġporch":7146,"Ġfebruary":7147,"Ġprotein":7148,"Ġmatters":7149,"Ġbucket":7150,"Ġknit":7151,"lines":7152,"Ġfont":7153,"Ġpoo":7154,"Ġjul":7155,"osoph":7156,"chers":7157,"oodle":7158,"Ġawa":7159,"Ġtouches":7160,"Ġrise":7161,"Ġexpos":7162,"Ġcraftsmanship":7163,"Ġgran":7164,"Ġtreasure":7165,"Ġstinks":7166,"full":7167,"soles":7168,"Ġgrowth":7169,"Ġtacky":7170,"Ġsuited":7171,"icky":7172,"ggy":7173,"Ġphilosoph":7174,"Ġbose":7175,"Ġattaches":7176,"Ġoutcome":7177,"Ġcollector":7178,"Ġparan":7179,"Ġidentify":7180,"Ġjudge":7181,"tit":7182,"Ġol":7183,"ators":7184,"Ġexpectation":7185,"anda":7186,"Ġclunky":7187,"Ġinspect":7188,"Ġscott":7189,"Ġhan":7190,"Ġlargest":7191,"Ġsinger":7192,"Ġguests":7193,"icer":7194,"Ġintend":7195,"Ġpaj":7196,"Ġplacing":7197,"Ġdiscontin":7198,"Ġjumped":7199,"Ġtro":7200,"Ġbreakfast":7201,"mare":7202,"nat":7203,"Ġworthwhile":7204,"Ġfocused":7205,"Ġinserted":7206,"screw":7207,"been":7208,"Ġguid":7209,"Ġearring":7210,"Ġharsh":7211,"Ġrips":7212,"Ġtermin":7213,"Ġentry":7214,"Ġlocations":7215,"Ġfacing":7216,"Ġrede":7217,"Ġwrapping":7218,"Ġdirected":7219,"Ġcert":7220,"Ġbron":7221,"since":7222,"Ġnons":7223,"Ġrin":7224,"Ġbinder":7225,"nie":7226,"Ġsprink":7227,"Ġdelighted":7228,"fi":7229,"Ġwashings":7230,"Ġorders":7231,"Ġcreepy":7232,"Ġcit":7233,"Ġcere":7234,"Ġcalc":7235,"lder":7236,"Ġsounding":7237,"Ġsupplies":7238,"Ġwoods":7239,"Ġsystems":7240,"Ġconvin":7241,"Ġtaught":7242,"Ġwings":7243,"Ġcooling":7244,"Ġburns":7245,"Ġappealing":7246,"Ġpremium":7247,"sis":7248,"Ġusers":7249,"Ġconfirm":7250,"Ġsearched":7251,"Ġroof":7252,"Ġrules":7253,"earing":7254,"Ġextras":7255,"Ġsurgery":7256,"Ġweap":7257,"Ġcarries":7258,"Ġtightened":7259,"Ġincomplete":7260,"Ġmice":7261,"Ġexplor":7262,"Ġruin":7263,"Ġunstable":7264,"Ġtarn":7265,"Ġliber":7266,"Ġseals":7267,"Ġdefl":7268,"Ġposts":7269,"total":7270,"Ġresponsive":7271,"mark":7272,"Ġresul":7273,"Ġowning":7274,"Ġholly":7275,"Ġvary":7276,"Ġaccent":7277,"umbled":7278,"Ġlifting":7279,"Ġmoderate":7280,"Ġfreezing":7281,"Ġaccurately":7282,"craft":7283,"Ġnike":7284,"Ġcurve":7285,"Ġcrocs":7286,"Ġlettering":7287,"Ġjen":7288,"Ġster":7289,"flix":7290,"assem":7291,"Ġstoring":7292,"Ġgenius":7293,"Ġsprayed":7294,"Ġgaps":7295,"Ġdisjointed":7296,"inder":7297,"Ġneedles":7298,"Ġbelief":7299,"Ġnightmare":7300,"Ġhint":7301,"Ġmerch":7302,"Ġrazor":7303,"Ġratt":7304,"Ġsprings":7305,"Ġnetflix":7306,"boo":7307,"Ġprojector":7308,"bul":7309,"Ġtick":7310,"uten":7311,"Ġjane":7312,"otic":7313,"Ġmixing":7314,"Ġcapture":7315,"Ġsurvived":7316,"Ġinstrument":7317,"Ġvertical":7318,"pical":7319,"Ġhoo":7320,"Ġmetall":7321,"Ġclimb":7322,"Ġerase":7323,"Ġdynam":7324,"Ġtrunk":7325,"Ġdocumentary":7326,"Ġcrate":7327,"Ġrobert":7328,"Ġclamps":7329,"Ġoccasions":7330,"keeps":7331,"Ġuna":7332,"iously":7333,"Ġremains":7334,"Ġconsole":7335,"Ġswitches":7336,"Ġintegr":7337,"Ġcad":7338,"Ġchipping":7339,"Ġspaces":7340,"Ġintrigued":7341,"Ġcommunity":7342,"Ġbob":7343,"Ġimagin":7344,"Ġtoler":7345,"Ġpolitics":7346,"Ġuplif":7347,"Ġpoles":7348,"Ġfasten":7349,"Ġsilk":7350,"Ġconvenience":7351,"Ġscrewdriver":7352,"iel":7353,"Ġrat":7354,"ieces":7355,"Ġtwenty":7356,"Ġtremend":7357,"Ġoversized":7358,"Ġouts":7359,"Ġapproximately":7360,"Ġartific":7361,"Ġpermanent":7362,"Ġduct":7363,"iration":7364,"Ġquilt":7365,"Ġwarmth":7366,"Ġintroduced":7367,"Ġscore":7368,"kn":7369,"Ġhanded":7370,"Ġrail":7371,"Ġoriginals":7372,"ona":7373,"Ġglitch":7374,"Ġmajority":7375,"okay":7376,"Ġpunct":7377,"Ġsurvival":7378,"Ġordinary":7379,"Ġboss":7380,"Ġrecorded":7381,"Ġhorizont":7382,"Ġstatement":7383,"Ġspecs":7384,"Ġmall":7385,"table":7386,"worth":7387,"sequ":7388,"urdy":7389,"Ġblows":7390,"Ġcostco":7391,"Ġcatching":7392,"same":7393,"oul":7394,"utions":7395,"Ġarmy":7396,"Ġjammed":7397,"Ġdefeats":7398,"Ġrifle":7399,"Ġphr":7400,"Ġbehavior":7401,"Ġmeals":7402,"Ġsomebody":7403,"pson":7404,"Ġbikes":7405,"disappointing":7406,"Ġsometime":7407,"found":7408,"Ġpam":7409,"Ġpref":7410,"Ġbathing":7411,"Ġcray":7412,"Ġsufficient":7413,"lent":7414,"Ġcole":7415,"Ġedit":7416,"Ġdang":7417,"Ġindex":7418,"Ġmarketing":7419,"Ġtiss":7420,"dge":7421,"ching":7422,"Ġspac":7423,"Ġjersey":7424,"Ġcrew":7425,"Ġslid":7426,"Ġbreathable":7427,"Ġaccommodate":7428,"Ġhappily":7429,"Ġfraction":7430,"Ġhumidity":7431,"Ġitalian":7432,"Ġlayout":7433,"Ġbringing":7434,"Ġregion":7435,"Ġduplic":7436,"Ġsac":7437,"Ġlies":7438,"Ġcrow":7439,"Ġbracelets":7440,"Ġruss":7441,"Ġprotagonist":7442,"rels":7443,"Ġvirtually":7444,"of":7445,"Ġstrand":7446,"Ġpersonality":7447,"Ġaccuracy":7448,"Ġdiscussion":7449,"Ġjoint":7450,"Ġcig":7451,"teen":7452,"Ġwisdom":7453,"Ġremark":7454,"Ġrhy":7455,"inest":7456,"Ġrelief":7457,"Ġcalib":7458,"Ġfreezes":7459,"Ġriver":7460,"Ġhighlight":7461,"Ġthoughtful":7462,"Ġchallenges":7463,"Ġsess":7464,"Ġattachments":7465,"Ġplatform":7466,"Ġplum":7467,"Ġtheater":7468,"Ġflour":7469,"Ġautomatic":7470,"Ġhosp":7471,"Ġmillion":7472,"Ġaustr":7473,"Ġdrawings":7474,"Ġmarried":7475,"Ġvehicles":7476,"lovely":7477,"Ġdancing":7478,"Ġrapid":7479,"iveness":7480,"Ġdeals":7481,"Ġprose":7482,"Ġsupported":7483,"Ġequal":7484,"Ġcombined":7485,"Ġtunes":7486,"Ġindustry":7487,"pu":7488,"ceptive":7489,"Ġtomorrow":7490,"Ġgeorge":7491,"Ġaux":7492,"inct":7493,"Ġlousy":7494,"Ġsentences":7495,"Ġjean":7496,"Ġofficial":7497,"gu":7498,"Ġweighs":7499,"Ġfading":7500,"Ġtut":7501,"Ġconfidence":7502,"Ġhonor":7503,"Ġinflated":7504,"Ġarrange":7505,"Ġcourage":7506,"Ġcock":7507,"Ġalmond":7508,"Ġacted":7509,"Ġrainy":7510,"Ġpi":7511,"Ġdice":7512,"Ġsteering":7513,"Ġdesire":7514,"rist":7515,"Ġtrade":7516,"Ġwaistband":7517,"Ġepic":7518,"Ġhates":7519,"usi":7520,"Ġproviding":7521,"Ġengage":7522,"Ġoils":7523,"haust":7524,"Ġobsessed":7525,"Ġrevol":7526,"Ġartificial":7527,"Ġdough":7528,"Ġspeaking":7529,"Ġmaxim":7530,"Ġdeterm":7531,"ups":7532,"Ġiv":7533,"Ġkeeper":7534,"Ġcrank":7535,"Ġathletic":7536,"fab":7537,"Ġwarming":7538,"Ġportray":7539,"Ġinterface":7540,"Ġfm":7541,"rib":7542,"Ġsilent":7543,"Ġsouthern":7544,"gic":7545,"Ġtint":7546,"oured":7547,"Ġsatur":7548,"Ġenthusi":7549,"Ġthomas":7550,"Ġgovernment":7551,"Ġpliers":7552,"Ġtalks":7553,"Ġdistorted":7554,"Ġaudience":7555,"Ġdose":7556,"sturdy":7557,"ember":7558,"Ġmugs":7559,"oting":7560,"Ġdissappoin":7561,"Ġgluten":7562,"asonic":7563,"Ġteaches":7564,"Ġwoven":7565,"Ġeb":7566,"Ġchron":7567,"Ġillustrated":7568,"Ġadhere":7569,"Ġmixer":7570,"Ġseptember":7571,"Ġmakeup":7572,"Ġessentially":7573,"Ġrepaired":7574,"gers":7575,"Ġboom":7576,"Ġze":7577,"Ġsecured":7578,"Ġreminder":7579,"Ġresolved":7580,"Ġbod":7581,"Ġdepicted":7582,"Ġdistort":7583,"Ġtoddlers":7584,"Ġhazard":7585,"Ġasus":7586,"Ġconsistency":7587,"Ġplans":7588,"Ġfarm":7589,"Ġshapes":7590,"Ġmono":7591,"Ġbridge":7592,"Ġwrists":7593,"Ġalto":7594,"dog":7595,"Ġpasta":7596,"Ġexhaust":7597,"new":7598,"Ġpizza":7599,"Ġfluid":7600,"ooper":7601,"Ġkong":7602,"Ġreached":7603,"Ġrooms":7604,"Ġrhinest":7605,"Ġparanormal":7606,"Ġaa":7607,"pleas":7608,"Ġaccessible":7609,"Ġredeem":7610,"Ġbatt":7611,"Ġful":7612,"Ġfaces":7613,"Ġvir":7614,"Ġappli":7615,"Ġpatience":7616,"save":7617,"Ġnoises":7618,"Ġlever":7619,"10":7620,"Ġembro":7621,"ura":7622,"Ġscot":7623,"Ġmetallic":7624,"Ġsolo":7625,"Ġpell":7626,"Ġpregnant":7627,"Ġec":7628,"Ġdetached":7629,"Ġeager":7630,"Ġactions":7631,"lict":7632,"Ġshakes":7633,"Ġblues":7634,"Ġactor":7635,"wich":7636,"Ġorganizer":7637,"aries":7638,"Ġment":7639,"Ġchef":7640,"Ġmarvel":7641,"than":7642,"Ġjokes":7643,"Ġengross":7644,"boring":7645,"Ġcloud":7646,"Ġbrist":7647,"Ġorganize":7648,"Ġknockoff":7649,"Ġbran":7650,"Ġconfident":7651,"Ġconflict":7652,"Ġboost":7653,"Ġwordy":7654,"Ġplacement":7655,"Ġdraws":7656,"Ġsqueez":7657,"Ġmalfunction":7658,"Ġbounce":7659,"Ġecho":7660,"Ġpedal":7661,"Ġhors":7662,"load":7663,"ugs":7664,"Ġadvertise":7665,"Ġchains":7666,"Ġstruggling":7667,"Ġnerv":7668,"acks":7669,"Ġimportantly":7670,"Ġnervous":7671,"ua":7672,"comp":7673,"Ġdeleted":7674,"Ġpoetry":7675,"open":7676,"Ġish":7677,"Ġmyth":7678,"Ġlowest":7679,"Ġfragr":7680,"Ġfashioned":7681,"low":7682,"Ġlake":7683,"Ġcaptured":7684,"cling":7685,"Ġinj":7686,"Ġsupporting":7687,"ooms":7688,"Ġoperating":7689,"Ġlandsc":7690,"Ġfaint":7691,"Ġpra":7692,"ousand":7693,"Ġpartially":7694,"buy":7695,"Ġneighb":7696,"Ġpier":7697,"Ġbreaker":7698,"Ġadvant":7699,"Ġbumps":7700,"honest":7701,"Ġfed":7702,"Ġrods":7703,"point":7704,"Ġeras":7705,"ission":7706,"Ġasian":7707,"Ġloosely":7708,"Ġembroider":7709,"Ġwhom":7710,"Ġtomato":7711,"cloth":7712,"mother":7713,"Ġprepar":7714,"who":7715,"Ġthousand":7716,"Ġmeter":7717,"Ġpointed":7718,"Ġunderstood":7719,"Ġramb":7720,"Ġgrandma":7721,"Ġarthrit":7722,"Ġflows":7723,"Ġfamous":7724,"cious":7725,"Ġhay":7726,"pan":7727,"Ġsofa":7728,"Ġsupplied":7729,"Ġinsole":7730,"itech":7731,"Ġswimsuit":7732,"Ġcoach":7733,"Ġspy":7734,"Ġhardwood":7735,"Ġknobs":7736,"enc":7737,"Ġroyal":7738,"Ġprogramming":7739,"Ġstitched":7740,"Ġcushioning":7741,"Ġbeef":7742,"Ġner":7743,"enomen":7744,"Ġupgraded":7745,"Ġidi":7746,"Ġexplaining":7747,"Ġreligion":7748,"Ġcoated":7749,"Ġcomplained":7750,"Ġfills":7751,"Ġreduced":7752,"Ġsecrets":7753,"Ġsandwich":7754,"Ġstood":7755,"Ġhandful":7756,"Ġstolen":7757,"izes":7758,"Ġinconsistent":7759,"Ġflavored":7760,"hs":7761,"Ġstir":7762,"Ġstretching":7763,"Ġsyrup":7764,"Ġsnacks":7765,"Ġreread":7766,"acular":7767,"Ġsites":7768,"Ġwrinkle":7769,"bably":7770,"Ġgarment":7771,"Ġclue":7772,"Ġkeychain":7773,"Ġfence":7774,"Ġtrays":7775,"finished":7776,"Ġrotate":7777,"Ġspell":7778,"Ġsoccer":7779,"because":7780,"Ġeats":7781,"Ġmeasurement":7782,"Ġsaga":7783,"Ġornament":7784,"kel":7785,"Ġunscrew":7786,"Ġangel":7787,"ene":7788,"Ġvague":7789,"Ġhusbands":7790,"Ġwithstand":7791,"Ġgifted":7792,"Ġvoltage":7793,"list":7794,"ford":7795,"Ġuniverse":7796,"Ġstruggled":7797,"Ġbooklet":7798,"Ġdrilled":7799,"Ġplanet":7800,"Ġsuggestion":7801,"Ġindoors":7802,"Ġrush":7803,"brush":7804,"Ġhealing":7805,"mbol":7806,"inte":7807,"Ġhunter":7808,"ku":7809,"yard":7810,"Ġeaster":7811,"Ġutter":7812,"Ġuplifting":7813,"Ġyummy":7814,"Ġalike":7815,"agers":7816,"Ġreadings":7817,"Ġsymbol":7818,"izon":7819,"Ġhousehold":7820,"umpy":7821,"Ġdescribes":7822,"lin":7823,"Ġsoaked":7824,"Ġwilli":7825,"Ġreact":7826,"Ġschedule":7827,"bas":7828,"Ġmachines":7829,"Ġtightening":7830,"raction":7831,"Ġhopeful":7832,"Ġreply":7833,"Ġlogitech":7834,"Ġvocals":7835,"Ġeuropean":7836,"igible":7837,"Ġinvestig":7838,"Ġexecution":7839,"Ġcoats":7840,"Ġflop":7841,"Ġpistol":7842,"Ġhorses":7843,"kee":7844,"Ġvine":7845,"ausible":7846,"Ġstephen":7847,"Ġdents":7848,"Ġlevi":7849,"probably":7850,"Ġratings":7851,"commend":7852,"taste":7853,"Ġolive":7854,"Ġsoil":7855,"Ġsheath":7856,"Ġdiscontinued":7857,"Ġgadget":7858,"ek":7859,"Ġunread":7860,"cope":7861,"Ġimmense":7862,"Ġvoices":7863,"Ġinflu":7864,"Ġlightning":7865,"Ġscenar":7866,"Ġcaptures":7867,"Ġski":7868,"Ġarticle":7869,"Ġhesitant":7870,"market":7871,"Ġsources":7872,"Ġdick":7873,"Ġdrip":7874,"Ġcurved":7875,"Ġmanufacture":7876,"Ġfetched":7877,"natural":7878,"Ġindian":7879,"absolute":7880,"Ġminimum":7881,"Ġstaples":7882,"honestly":7883,"Ġloun":7884,"Ġplanted":7885,"Ġclou":7886,"Ġjet":7887,"Ġassort":7888,"cons":7889,"Ġcath":7890,"Ġeve":7891,"Ġyuck":7892,"Ġrecall":7893,"Ġforgotten":7894,"Ġcousin":7895,"felt":7896,"Ġstab":7897,"Ġpressing":7898,"Ġgreater":7899,"Ġskull":7900,"Ġgrain":7901,"long":7902,"gend":7903,"Ġrepeatedly":7904,"Ġoutfits":7905,"Ġthrilling":7906,"Ġtreated":7907,"Ġhammo":7908,"Ġchill":7909,"Ġexter":7910,"Ġreflective":7911,"ribut":7912,"Ġmeeting":7913,"within":7914,"Ġhtc":7915,"Ġgate":7916,"Ġverizon":7917,"Ġneighbors":7918,"Ġsilky":7919,"Ġprograms":7920,"Ġbreathe":7921,"Ġloads":7922,"Ġteal":7923,"Ġdeeply":7924,"Ġprivacy":7925,"Ġfuse":7926,"Ġhaha":7927,"ucks":7928,"Ġhotel":7929,"Ġdimensional":7930,"Ġselected":7931,"Ġrechargeable":7932,"Ġbamboo":7933,"Ġmah":7934,"Ġnick":7935,"Ġemails":7936,"Ġutens":7937,"Ġtask":7938,"Ġsuits":7939,"aret":7940,"Ġmetho":7941,"flimsy":7942,"text":7943,"Ġbling":7944,"Ġalpha":7945,"Ġsubstitute":7946,"Ġprongs":7947,"epend":7948,"Ġviews":7949,"gon":7950,"Ġward":7951,"yi":7952,"rec":7953,"Ġcontinuing":7954,"Ġgather":7955,"icult":7956,"Ġelder":7957,"Ġlegal":7958,"Ġassortment":7959,"Ġgag":7960,"Ġmodify":7961,"Ġdeveloping":7962,"giving":7963,"Ġine":7964,"Ġpods":7965,"Ġbeam":7966,"Ġlegend":7967,"Ġtraps":7968,"Ġcliffh":7969,"Ġcateg":7970,"Ġoffering":7971,"Ġparties":7972,"Ġdemon":7973,"Ġstreaming":7974,"Ġserial":7975,"Ġstudying":7976,"Ġprayer":7977,"Ġari":7978,"Ġexpiration":7979,"Ġsparkle":7980,"Ġvictor":7981,"uits":7982,"Ġheated":7983,"Ġpresident":7984,"Ġrelatable":7985,"Ġlantern":7986,"Ġproduces":7987,"Ġhunt":7988,"that":7989,"Ġsoda":7990,"Ġfrustration":7991,"Ġgrinding":7992,"Ġoverse":7993,"Ġcompanion":7994,"wire":7995,"Ġdimmer":7996,"Ġsimplistic":7997,"Ġhollywood":7998,"50":7999,"Ġbullet":8000,"lical":8001,"Ġdys":8002,"Ġdinos":8003,"Ġroberts":8004,"Ġwast":8005,"Ġquotes":8006,"Ġfeathers":8007,"Ġenvelop":8008,"Ġdisposable":8009,"Ġprimary":8010,"Ġveggies":8011,"sons":8012,"amas":8013,"Ġrecords":8014,"Ġfoil":8015,"Ġsafely":8016,"Ġintelligent":8017,"Ġsher":8018,"Ġplanner":8019,"Ġcooks":8020,"Ġpowers":8021,"ille":8022,"Ġinternational":8023,"Ġcircumst":8024,"Ġgoodwill":8025,"bi":8026,"iday":8027,"ounted":8028,"Ġwolf":8029,"Ġunsatisfied":8030,"Ġcaution":8031,"Ġprevents":8032,"Ġdissapo":8033,"Ġsprayer":8034,"Ġdreams":8035,"Ġoverwhelming":8036,"Ġtrial":8037,"Ġironing":8038,"Ġfemin":8039,"Ġhospital":8040,"ago":8041,"Ġcatches":8042,"Ġaltogether":8043,"Ġpricing":8044,"Ġcontacting":8045,"Ġjackson":8046,"Ġcompos":8047,"liable":8048,"feels":8049,"Ġvegetables":8050,"Ġaust":8051,"Ġdrew":8052,"urt":8053,"Ġdeceptive":8054,"Ġdisaster":8055,"Ġbeds":8056,"Ġinflate":8057,"Ġshredded":8058,"kept":8059,"Ġhollow":8060,"Ġfund":8061,"Ġensure":8062,"Ġraise":8063,"resp":8064,"Ġwing":8065,"fell":8066,"Ġvalues":8067,"Ġmodem":8068,"Ġorganization":8069,"Ġexchanged":8070,"Ġsynthetic":8071,"Ġspilled":8072,"Ġsuede":8073,"Ġformer":8074,"Ġcabinets":8075,"Ġcontrast":8076,"Ġcoin":8077,"Ġclay":8078,"Ġhomem":8079,"Ġblower":8080,"Ġowners":8081,"Ġtransaction":8082,"Ġpublisher":8083,"quite":8084,"Ġbubb":8085,"Ġtracking":8086,"Ġlifest":8087,"Ġknocked":8088,"Ġindividually":8089,"Ġopposed":8090,"Ġwraps":8091,"Ġflawed":8092,"Ġsummary":8093,"gent":8094,"Ġinvent":8095,"igan":8096,"Ġsmelling":8097,"Ġvolunt":8098,"Ġscrubs":8099,"Ġcushions":8100,"beat":8101,"Ġcrown":8102,"Ġcrystals":8103,"Ġsupplement":8104,"acon":8105,"Ġinsane":8106,"Ġeffectively":8107,"Ġangles":8108,"Ġpul":8109,"Ġstairs":8110,"Ġlightly":8111,"Ġcondens":8112,"Ġhundreds":8113,"wrong":8114,"sme":8115,"Ġoce":8116,"Ġdiction":8117,"Ġpoke":8118,"Ġcollecting":8119,"Ġstitches":8120,"bra":8121,"Ġsword":8122,"Ġarrives":8123,"Ġfriendship":8124,"iser":8125,"tops":8126,"Ġenjoyment":8127,"Ġairport":8128,"Ġsensit":8129,"Ġamusing":8130,"Ġskips":8131,"Ġversus":8132,"Ġhomemade":8133,"Ġespresso":8134,"Ġplugging":8135,"Ġspecified":8136,"Ġanswered":8137,"Ġfrost":8138,"Ġstopping":8139,"Ġcloses":8140,"Ġstuds":8141,"Ġfeeding":8142,"Ġportrayed":8143,"Ġphenomen":8144,"perate":8145,"ims":8146,"Ġopenings":8147,"Ġburner":8148,"Ġutil":8149,"Ġriveting":8150,"Ġado":8151,"Ġrabbit":8152,"Ġreverse":8153,"ift":8154,"enger":8155,"Ġpanasonic":8156,"Ġmirrors":8157,"Ġclums":8158,"cient":8159,"Ġattempting":8160,"Ġpir":8161,"Ġtraction":8162,"Ġrusting":8163,"uate":8164,"Ġnative":8165,"Ġitaly":8166,"avy":8167,"Ġgarlic":8168,"Ġnovella":8169,"Ġvalent":8170,"price":8171,"Ġsalad":8172,"Ġaddict":8173,"Ġpreference":8174,"description":8175,"short":8176,"Ġcircuit":8177,"Ġrect":8178,"Ġmartin":8179,"Ġinconvenient":8180,"Ġtilt":8181,"Ġcontinuation":8182,"Ġthreaded":8183,"Ġhomes":8184,"Ġunreadable":8185,"Ġcoins":8186,"ifer":8187,"Ġrugs":8188,"Ġspinning":8189,"slow":8190,"Ġreaction":8191,"Ġoverseas":8192,"Ġtopper":8193,"Ġchevy":8194,"Ġbreed":8195,"Ġtempered":8196,"Ġscrap":8197,"Ġalter":8198,"Ġspills":8199,"Ġcling":8200,"Ġindicator":8201,"Ġdeer":8202,"Ġsmoking":8203,"Ġburst":8204,"Ġdisconnected":8205,"Ġincorrectly":8206,"Ġbronze":8207,"press":8208,"Ġgrandmother":8209,"Ġarticles":8210,"Ġtas":8211,"Ġrestaurant":8212,"Ġhammock":8213,"Ġfellow":8214,"Ġcork":8215,"Ġrestart":8216,"Ġdiab":8217,"Ġheavily":8218,"Ġmenu":8219,"Ġebay":8220,"Ġrebo":8221,"Ġacad":8222,"Ġshepher":8223,"package":8224,"cam":8225,"nn":8226,"Ġneon":8227,"eping":8228,"Ġcraw":8229,"Ġscanner":8230,"Ġpilot":8231,"Ġding":8232,"Ġcares":8233,"Ġmagical":8234,"Ġcritical":8235,"Ġestim":8236,"Ġtransmitter":8237,"Ġnonsense":8238,"wanted":8239,"poff":8240,"Ġsuck":8241,"plastic":8242,"Ġslice":8243,"difficult":8244,"Ġdinosaur":8245,"Ġchos":8246,"Ġassuming":8247,"Ġexterior":8248,"ham":8249,"Ġneut":8250,"Ġbundle":8251,"fair":8252,"lie":8253,"Ġbush":8254,"resh":8255,"Ġpreview":8256,"Ġspoons":8257,"inge":8258,"Ġresem":8259,"Ġsom":8260,"stop":8261,"Ġmane":8262,"bar":8263,"Ġgopro":8264,"Ġsteve":8265,"Ġfreed":8266,"Ġindicate":8267,"Ġmosquit":8268,"prints":8269,"Ġimmensely":8270,"aver":8271,"Ġreordered":8272,"Ġwaff":8273,"Ġspectacular":8274,"Ġachieve":8275,"emy":8276,"Ġjoints":8277,"Ġcontrollers":8278,"Ġet":8279,"Ġampl":8280,"Ġtote":8281,"Ġholy":8282,"Ġsenior":8283,"vation":8284,"Ġshark":8285,"Ġserv":8286,"Ġcritic":8287,"Ġtoxic":8288,"usive":8289,"Ġconcent":8290,"Ġkitt":8291,"Ġscare":8292,"Ġmature":8293,"Ġrepro":8294,"Ġelementary":8295,"Ġoak":8296,"Ġpuff":8297,"Ġlux":8298,"Ġpathetic":8299,"Ġbristles":8300,"Ġtumb":8301,"Ġfriday":8302,"Ġultimate":8303,"Ġprimarily":8304,"Ġchosen":8305,"ye":8306,"Ġfid":8307,"huah":8308,"Ġadvantage":8309,"Ġfuss":8310,"Ġfyi":8311,"Ġintu":8312,"Ġfirmly":8313,"Ġmexico":8314,"Ġadore":8315,"Ġdecals":8316,"Ġhumans":8317,"reek":8318,"Ġattaching":8319,"inate":8320,"Ġeleph":8321,"Ġperformances":8322,"Ġchihuah":8323,"second":8324,"adorable":8325,"sell":8326,"Ġdownfall":8327,"Ġfunky":8328,"pleasant":8329,"Ġconvert":8330,"Ġgrows":8331,"Ġsquirrels":8332,"Ġfulfill":8333,"Ġeasiest":8334,"Ġretro":8335,"Ġcowboy":8336,"Ġtrek":8337,"Ġnavigate":8338,"actually":8339,"Ġgripe":8340,"Ġeducation":8341,"Ġast":8342,"Ġloading":8343,"Ġunfinished":8344,"Ġbackyard":8345,"Ġremembered":8346,"oe":8347,"Ġripoff":8348,"Ġwiggle":8349,"uk":8350,"thin":8351,"erely":8352,"Ġsalty":8353,"Ġmassive":8354,"Ġuv":8355,"Ġmonitors":8356,"Ġclassics":8357,"Ġmike":8358,"Ġkitten":8359,"Ġnovice":8360,"Ġseparating":8361,"Ġoptim":8362,"Ġbegins":8363,"Ġmethods":8364,"Ġcartoon":8365,"Ġcontempor":8366,"Ġpine":8367,"Ġpanc":8368,"Ġequally":8369,"flow":8370,"Ġsensitivity":8371,"Ġinteraction":8372,"warming":8373,"Ġmental":8374,"Ġflame":8375,"uffle":8376,"Ġprinci":8377,"Ġcommentary":8378,"known":8379,"Ġblame":8380,"Ġdelay":8381,"Ġremaining":8382,"Ġlonge":8383,"aky":8384,"Ġhurting":8385,"Ġclicking":8386,"Ġvoluntarily":8387,"Ġpreach":8388,"Ġhearts":8389,"Ġpearl":8390,"uster":8391,"Ġsmoothies":8392,"Ġtic":8393,"Ġvhs":8394,"oline":8395,"Ġmanagement":8396,"nt":8397,"ris":8398,"stic":8399,"Ġdowns":8400,"Ġforeign":8401,"Ġclumsy":8402,"Ġlany":8403,"anie":8404,"Ġuseable":8405,"Ġsuitcase":8406,"Ġpumps":8407,"Ġasics":8408,"Ġteachers":8409,"Ġheroes":8410,"dr":8411,"Ġox":8412,"Ġglossy":8413,"Ġdedic":8414,"Ġanalysis":8415,"Ġlime":8416,"Ġflashing":8417,"Ġstudies":8418,"Ġflicker":8419,"Ġrescue":8420,"Ġbrad":8421,"Ġtempor":8422,"Ġbiblical":8423,"Ġscientific":8424,"bur":8425,"user":8426,"Ġexplic":8427,"Ġgoal":8428,"Ġwearable":8429,"Ġsau":8430,"shipping":8431,"Ġwindy":8432,"Ġvillain":8433,"Ġlongevity":8434,"oise":8435,"alt":8436,"Ġcham":8437,"Ġcele":8438,"inal":8439,"Ġcollars":8440,"Ġocean":8441,"fly":8442,"isions":8443,"Ġimaginative":8444,"Ġgrandsons":8445,"Ġbald":8446,"Ġsupposedly":8447,"Ġgems":8448,"Ġairpl":8449,"Ġpaste":8450,"Ġupdates":8451,"Ġfest":8452,"Ġtalked":8453,"Ġcontinuously":8454,"seemed":8455,"Ġfir":8456,"Ġgrasp":8457,"Ġactivate":8458,"Ġdocuments":8459,"Ġfixing":8460,"Ġsparkly":8461,"Ġgoods":8462,"Ġupcoming":8463,"Ġflew":8464,"Ġrecordings":8465,"Ġjerky":8466,"anging":8467,"Ġflatten":8468,"Ġduvet":8469,"Ġroutine":8470,"Ġguarantee":8471,"Ġbills":8472,"Ġreput":8473,"Ġbicy":8474,"Ġsees":8475,"Ġinsulated":8476,"Ġpand":8477,"Ġkink":8478,"Ġhappiness":8479,"Ġkidding":8480,"Ġgrom":8481,"Ġliners":8482,"Ġharmon":8483,"Ġtoothp":8484,"pic":8485,"urance":8486,"ensity":8487,"Ġsubtit":8488,"Ġpatches":8489,"Ġaim":8490,"Ġkore":8491,"Ġspeaks":8492,"Ġmission":8493,"Ġdun":8494,"aze":8495,"Ġcourt":8496,"Ġtubing":8497,"Ġbedtime":8498,"Ġdenim":8499,"ja":8500,"Ġbarn":8501,"Ġginger":8502,"Ġalien":8503,"Ġcontrived":8504,"Ġsolutions":8505,"Ġtapes":8506,"Ġpitcher":8507,"Ġspices":8508,"Ġcalories":8509,"Ġdiscolored":8510,"soci":8511,"Ġpeter":8512,"Ġchoppy":8513,"Ġresolve":8514,"Ġfloppy":8515,"Ġpreschool":8516,"Ġfrankly":8517,"Ġwhistle":8518,"Ġthemes":8519,"Ġexpans":8520,"Ġrend":8521,"Ġcontext":8522,"Ġrubbery":8523,"Ġgermany":8524,"Ġfuzz":8525,"Ġdictionary":8526,"ndo":8527,"Ġsponge":8528,"Ġlists":8529,"Ġcomplaining":8530,"Ġhearted":8531,"Ġgrabbed":8532,"Ġdemand":8533,"Ġbenefits":8534,"sadly":8535,"Ġcontemporary":8536,"Ġunknown":8537,"Ġescap":8538,"init":8539,"Ġreh":8540,"Ġstripes":8541,"Ġladder":8542,"Ġpond":8543,"Ġassign":8544,"Ġrecommending":8545,"Ġvibration":8546,"Ġbudd":8547,"Ġblouse":8548,"Ġwashable":8549,"Ġequival":8550,"Ġspa":8551,"ails":8552,"Ġgrateful":8553,"ikes":8554,"Ġanne":8555,"Ġacce":8556,"Ġindepend":8557,"Ġsatisfactory":8558,"Ġenlightening":8559,"Ġenvelopes":8560,"iors":8561,"rition":8562,"stone":8563,"Ġchase":8564,"Ġassoci":8565,"Ġgenerous":8566,"Ġcelebr":8567,"Ġinsoles":8568,"Ġafterwards":8569,"Ġlifestyle":8570,"Ġbead":8571,"Ġclark":8572,"Ġfrequent":8573,"Ġbbq":8574,"Ġrhinestones":8575,"went":8576,"Ġbacon":8577,"Ġkate":8578,"plays":8579,"almost":8580,"Ġexpense":8581,"Ġflats":8582,"Ġunreliable":8583,"Ġelderly":8584,"blem":8585,"Ġsneaker":8586,"Ġcorro":8587,"Ġfollows":8588,"Ġopera":8589,"Ġdramatic":8590,"Ġbake":8591,"Ġmort":8592,"Ġchunks":8593,"Ġscroll":8594,"Ġwarn":8595,"Ġtower":8596,"Ġnutrition":8597,"Ġmens":8598,"acute":8599,"Ġunpleasant":8600,"Ġextensive":8601,"Ġheartbre":8602,"Ġcreases":8603,"Ġviolent":8604,"Ġbait":8605,"nes":8606,"part":8607,"Ġfict":8608,"Ġspicy":8609,"Ġnewborn":8610,"Ġdiaper":8611,"Ġabsorbent":8612,"Ġconverter":8613,"Ġaccomplish":8614,"pred":8615,"athy":8616,"Ġteenagers":8617,"encing":8618,"ili":8619,"Ġwritings":8620,"orial":8621,"Ġjams":8622,"Ġtricks":8623,"ales":8624,"Ġuninteresting":8625,"pher":8626,"Ġrefills":8627,"Ġlegit":8628,"Ġgrounds":8629,"Ġsewed":8630,"Ġrental":8631,"Ġpixel":8632,"Ġdissappointed":8633,"Ġguides":8634,"Ġinseam":8635,"Ġmand":8636,"tender":8637,"Ġnevertheless":8638,"Ġvocab":8639,"integr":8640,"Ġcircumstances":8641,"Ġweekly":8642,"Ġtraff":8643,"Ġspoiled":8644,"bles":8645,"Ġirish":8646,"Ġspins":8647,"Ġhike":8648,"Ġdescribing":8649,"Ġcontinually":8650,"Ġexplicit":8651,"Ġjig":8652,"Ġcoaster":8653,"Ġcave":8654,"Ġrely":8655,"Ġmanip":8656,"Ġflexibility":8657,"Ġrobust":8658,"Ġbatman":8659,"Ġbiography":8660,"Ġmanufacturers":8661,"Ġfaux":8662,"Ġembarrassing":8663,"Ġdefects":8664,"Ġfoul":8665,"Ġanth":8666,"Ġviet":8667,"Ġmeasures":8668,"urally":8669,"Ġcodes":8670,"Ġcomplements":8671,"Ġcurl":8672,"Ġchoo":8673,"Ġcompilation":8674,"Ġdiscus":8675,"Ġfloating":8676,"Ġvisor":8677,"Ġtrucks":8678,"Ġdiamonds":8679,"Ġpac":8680,"Ġsheds":8681,"Ġrounds":8682,"Ġovercome":8683,"Ġseeking":8684,"Ġnora":8685,"Ġbasketball":8686,"Ġaes":8687,"Ġlately":8688,"Ġder":8689,"Ġanker":8690,"zer":8691,"Ġko":8692,"Ġcharms":8693,"Ġfox":8694,"Ġcapable":8695,"coal":8696,"Ġpositions":8697,"Ġmolded":8698,"Ġcupcakes":8699,"Ġpoems":8700,"Ġturkey":8701,"Ġremarkable":8702,"encies":8703,"Ġdoa":8704,"Ġdefi":8705,"Ġengra":8706,"Ġcherry":8707,"little":8708,"sur":8709,"arium":8710,"Ġmechanical":8711,"Ġwipes":8712,"Ġdos":8713,"Ġsuperf":8714,"despite":8715,"Ġconsuming":8716,"Ġtitles":8717,"Ġtrend":8718,"Ġcereal":8719,"Ġdisks":8720,"Ġdisintegr":8721,"Ġcharcoal":8722,"Ġscream":8723,"Ġmeh":8724,"Ġtraged":8725,"Ġchop":8726,"Ġemploy":8727,"Ġsterling":8728,"Ġshepherd":8729,"Ġequivalent":8730,"Ġgently":8731,"Ġboxer":8732,"Ġroku":8733,"Ġeste":8734,"Ġunsure":8735,"Ġpaints":8736,"Ġrainbow":8737,"Ġresponded":8738,"rom":8739,"Ġlave":8740,"Ġdise":8741,"Ġfiance":8742,"Ġgroups":8743,"Ġrepresented":8744,"Ġlays":8745,"aches":8746,"Ġflesh":8747,"Ġzone":8748,"Ġdiagra":8749,"namon":8750,"opened":8751,"Ġgut":8752,"oodles":8753,"unit":8754,"umble":8755,"Ġgranted":8756,"Ġjeff":8757,"Ġremotely":8758,"Ġdigest":8759,"Ġashamed":8760,"amazon":8761,"Ġgrader":8762,"Ġhorizontal":8763,"pass":8764,"ndon":8765,"Ġhumming":8766,"Ġfailing":8767,"Ġpolished":8768,"Ġneutral":8769,"Ġdining":8770,"Ġspider":8771,"Ġnarrower":8772,"ivers":8773,"Ġbrook":8774,"Ġacid":8775,"Ġscripture":8776,"Ġprivate":8777,"Ġwelcome":8778,"Ġancient":8779,"venile":8780,"Ġscenery":8781,"Ġtay":8782,"Ġgh":8783,"Ġunim":8784,"reading":8785,"Ġcommunication":8786,"Ġles":8787,"Ġalittle":8788,"ulary":8789,"Ġdressy":8790,"Ġoddly":8791,"Ġpantry":8792,"Ġfreedom":8793,"Ġtam":8794,"Ġdonated":8795,"pret":8796,"Ġtac":8797,"Ġspiral":8798,"ini":8799,"Ġcliffhanger":8800,"Ġsnugg":8801,"Ġgli":8802,"Ġsque":8803,"Ġtemps":8804,"Ġdecorations":8805,"Ġturtle":8806,"Ġcinnamon":8807,"Ġwarehouse":8808,"Ġpamph":8809,"chet":8810,"Ġnurse":8811,"Ġlind":8812,"Ġdecades":8813,"Ġballoon":8814,"Ġdetermine":8815,"arms":8816,"see":8817,"Ġtests":8818,"Ġneatly":8819,"Ġstaple":8820,"Ġfragrance":8821,"Ġmate":8822,"isc":8823,"Ġreserv":8824,"Ġindia":8825,"Ġanchor":8826,"Ġpip":8827,"stal":8828,"Ġintuitive":8829,"Ġfri":8830,"pled":8831,"Ġmaneu":8832,"Ġmemorable":8833,"Ġgranddaughters":8834,"Ġpero":8835,"maid":8836,"sa":8837,"Ġgreasy":8838,"Ġoccup":8839,"Ġexperiment":8840,"Ġexcessive":8841,"Ġimple":8842,"Ġvibr":8843,"Ġresour":8844,"Ġpajamas":8845,"Ġmainten":8846,"Ġcommit":8847,"mets":8848,"iciently":8849,"Ġtransition":8850,"Ġmemoir":8851,"Ġphotographs":8852,"Ġsparks":8853,"Ġmedicine":8854,"usable":8855,"Ġproved":8856,"Ġeligible":8857,"Ġremoval":8858,"aha":8859,"Ġjunior":8860,"Ġmaximum":8861,"lab":8862,"Ġaggress":8863,"Ġinsulation":8864,"Ġinformed":8865,"Ġblends":8866,"bits":8867,"Ġlis":8868,"Ġgust":8869,"Ġharm":8870,"Ġrevealed":8871,"puts":8872,"Ġshall":8873,"vested":8874,"Ġcamo":8875,"Ġrusty":8876,"Ġbanana":8877,"Ġdonate":8878,"Ġunc":8879,"Ġbelong":8880,"Ġpouring":8881,"non":8882,"sch":8883,"sters":8884,"takes":8885,"Ġacqu":8886,"somet":8887,"Ġyours":8888,"Ġthrows":8889,"bbing":8890,"Ġroughly":8891,"everyone":8892,"Ġchihuahua":8893,"Ġclogged":8894,"Ġfittings":8895,"Ġkits":8896,"working":8897,"Ġattack":8898,"Ġnovelty":8899,"Ġresources":8900,"aii":8901,"Ġseverely":8902,"Ġmaintenance":8903,"alf":8904,"etly":8905,"Ġhoses":8906,"olic":8907,"Ġur":8908,"Ġaaa":8909,"Ġjones":8910,"pleased":8911,"Ġpatient":8912,"Ġindicates":8913,"paper":8914,"Ġextender":8915,"Ġrefresh":8916,"Ġprett":8917,"Ġdates":8918,"Ġrus":8919,"Ġconce":8920,"ashes":8921,"Ġsubscription":8922,"Ġbeast":8923,"Ġquart":8924,"Ġblister":8925,"Ġaudible":8926,"Ġadaptor":8927,"abeth":8928,"predictable":8929,"Ġpron":8930,"Ġintention":8931,"Ġrasp":8932,"Ġtiming":8933,"Ġthermos":8934,"Ġfavour":8935,"Ġvinegar":8936,"Ġtaylor":8937,"Ġbomb":8938,"iles":8939,"Ġflaps":8940,"Ġvolumes":8941,"Ġspat":8942,"Ġbuckles":8943,"Ġjuvenile":8944,"Ġspool":8945,"Ġflawless":8946,"Ġshorted":8947,"Ġvocabulary":8948,"Ġnamed":8949,"Ġprone":8950,"Ġacts":8951,"Ġallergic":8952,"Ġintermittently":8953,"Ġants":8954,"rylic":8955,"Ġchicago":8956,"Ġdefiantly":8957,"vey":8958,"owing":8959,"Ġelbow":8960,"Ġdownloading":8961,"Ġgears":8962,"Ġpamphlet":8963,"Ġcostumes":8964,"bris":8965,"Ġll":8966,"Ġslept":8967,"Ġtummy":8968,"Ġesp":8969,"Ġphenomenal":8970,"Ġamounts":8971,"Ġcarr":8972,"Ġgrid":8973,"Ġturqu":8974,"Ġwhis":8975,"Ġlondon":8976,"Ġdebris":8977,"Ġyards":8978,"sometimes":8979,"alia":8980,"Ġhanes":8981,"Ġstability":8982,"Ġalert":8983,"amel":8984,"Ġdisappoints":8985,"taining":8986,"fiber":8987,"Ġlavender":8988,"men":8989,"Ġclas":8990,"Ġssd":8991,"Ġburg":8992,"rell":8993,"Ġloyal":8994,"Ġexcuse":8995,"Ġlocate":8996,"Ġtanks":8997,"simply":8998,"Ġhawaii":8999,"Ġpj":9000,"oted":9001,"Ġtravels":9002,"Ġaligned":9003,"agle":9004,"Ġacrylic":9005,"Ġdrags":9006,"Ġgrainy":9007,"follow":9008,"Ġfifth":9009,"Ġimplement":9010,"arian":9011,"ico":9012,"Ġseg":9013,"Ġker":9014,"Ġvents":9015,"Ġheartwarming":9016,"completely":9017,"Ġnecessarily":9018,"Ġarthritis":9019,"wall":9020,"Ġdou":9021,"stra":9022,"Ġremotes":9023,"Ġregards":9024,"Ġscoot":9025,"Ġcancel":9026,"gia":9027,"Ġaunt":9028,"Ġcakes":9029,"undant":9030,"Ġbarbie":9031,"Ġcassette":9032,"Ġawaiting":9033,"Ġtissue":9034,"Ġtiles":9035,"Ġhobby":9036,"andex":9037,"Ġcordless":9038,"Ġgm":9039,"Ġthankful":9040,"broken":9041,"incred":9042,"Ġnook":9043,"Ġswap":9044,"Ġdusty":9045,"Ġfroze":9046,"glass":9047,"Ġmitt":9048,"Ġfran":9049,"Ġtender":9050,"Ġcloudy":9051,"asters":9052,"Ġbeating":9053,"Ġanalog":9054,"Ġuncom":9055,"being":9056,"udos":9057,"Ġpills":9058,"Ġbearings":9059,"Ġturquoise":9060,"Ġdifferences":9061,"Ġmoral":9062,"Ġchews":9063,"Ġcyl":9064,"real":9065,"Ġmoth":9066,"anity":9067,"Ġkeen":9068,"Ġpleasing":9069,"rene":9070,"Ġlocated":9071,"Ġparis":9072,"Ġconversations":9073,"ech":9074,"Ġpom":9075,"Ġsupernatural":9076,"Ġsoften":9077,"Ġliterary":9078,"Ġpushes":9079,"hi":9080,"oty":9081,"Ġepson":9082,"Ġwrang":9083,"Ġryan":9084,"Ġworries":9085,"Ġwave":9086,"Ġrefuses":9087,"Ġchris":9088,"Ġrelaxed":9089,"Ġorth":9090,"Ġcoast":9091,"Ġdisplays":9092,"Ġobst":9093,"Ġrichard":9094,"repres":9095,"Ġpud":9096,"Ġfunn":9097,"glued":9098,"Ġpuppies":9099,"attract":9100,"Ġfades":9101,"Ġpacket":9102,"Ġbells":9103,"atchet":9104,"Ġdecisions":9105,"shipped":9106,"Ġmotorola":9107,"Ġsubjects":9108,"Ġallergies":9109,"Ġcigaret":9110,"Ġreb":9111,"Ġdeform":9112,"Ġdroid":9113,"Ġdrone":9114,"Ġinvested":9115,"Ġendings":9116,"Ġpartner":9117,"Ġmarsh":9118,"Ġfictional":9119,"Ġspine":9120,"Ġreported":9121,"Ġmicrofiber":9122,"Ġstorytelling":9123,"ald":9124,"Ġorch":9125,"Ġreflection":9126,"Ġcurves":9127,"Ġadditionally":9128,"urban":9129,"Ġbuzzing":9130,"Ġfraying":9131,"ckey":9132,"zel":9133,"Ġbs":9134,"Ġfreaking":9135,"Ġturbo":9136,"Ġeliz":9137,"Ġdodge":9138,"irl":9139,"Ġspandex":9140,"erfect":9141,"Ġimperfect":9142,"Ġmasterpiece":9143,"Ġlanyard":9144,"Ġfried":9145,"Ġnational":9146,"Ġclients":9147,"Ġterrier":9148,"Ġpotatoes":9149,"Ġwashers":9150,"Ġportra":9151,"Ġprecious":9152,"large":9153,"Ġlandscape":9154,"Ġestimated":9155,"Ġmechanic":9156,"Ġcentral":9157,"Ġracing":9158,"Ġhost":9159,"ander":9160,"Ġgritty":9161,"Ġclearer":9162,"Ġveg":9163,"Ġcharts":9164,"Ġobjects":9165,"Ġabruptly":9166,"Ġcheated":9167,"Ġpellets":9168,"ders":9169,"Ġlect":9170,"Ġalask":9171,"Ġunderstandable":9172,"Ġvegan":9173,"bled":9174,"Ġweber":9175,"Ġbrave":9176,"Ġdense":9177,"Ġarts":9178,"Ġfashionable":9179,"Ġtid":9180,"Ġsoak":9181,"Ġbearing":9182,"Ġfeminine":9183,"Ġtheat":9184,"Ġtheses":9185,"Ġtraffic":9186,"Ġpackets":9187,"edding":9188,"advert":9189,"acles":9190,"Ġrepurch":9191,"Ġfluke":9192,"gee":9193,"Ġconverse":9194,"Ġcargo":9195,"Ġcircles":9196,"ell":9197,"Ġmailed":9198,"Ġmaneuver":9199,"Ġshin":9200,"Ġprove":9201,"Ġproport":9202,"issa":9203,"Ġflickering":9204,"eared":9205,"grand":9206,"rem":9207,"Ġhen":9208,"Ġships":9209,"Ġminiature":9210,"Ġcrying":9211,"ole":9212,"Ġkat":9213,"agger":9214,"Ġscuffed":9215,"idently":9216,"Ġspecially":9217,"Ġcaring":9218,"Ġclasps":9219,"eer":9220,"Ġrp":9221,"Ġlaptops":9222,"Ġpersonalities":9223,"Ġproced":9224,"Ġunited":9225,"Ġwhoever":9226,"Ġstaff":9227,"Ġapoc":9228,"Ġsharpening":9229,"Ġdread":9230,"Ġcrochet":9231,"Ġclarks":9232,"Ġbicycle":9233,"wore":9234,"weet":9235,"Ġpassing":9236,"Ġdiscolor":9237,"Ġhack":9238,"wearable":9239,"colors":9240,"Ġpandora":9241,"Ġfat":9242,"Ġswallow":9243,"Ġtendency":9244,"Ġtug":9245,"Ġkinderg":9246,"Ġreturnable":9247,"Ġbedding":9248,"Ġcatchy":9249,"Ġhumidifier":9250,"Ġbiz":9251,"Ġoily":9252,"Ġjum":9253,"Ġsex":9254,"Ġtrimmer":9255,"Ġcomplet":9256,"Ġsacri":9257,"thanks":9258,"Ġie":9259,"Ġmcc":9260,"Ġproven":9261,"Ġalas":9262,"Ġsquish":9263,"Ġcombat":9264,"Ġsurrounding":9265,"attractive":9266,"thet":9267,"Ġangst":9268,"Ġcompressor":9269,"delivered":9270,"Ġhaun":9271,"Ġschol":9272,"Ġdiag":9273,"Ġsteamer":9274,"written":9275,"Ġbm":9276,"need":9277,"Ġworker":9278,"Ġgroom":9279,"Ġvietnam":9280,"iment":9281,"Ġwishing":9282,"Ġwinds":9283,"Ġsorts":9284,"Ġboil":9285,"Ġinterpret":9286,"Ġtherapy":9287,"Ġbrid":9288,"Ġgrabs":9289,"Ġbuilds":9290,"Ġamericans":9291,"Ġlooser":9292,"Ġairplane":9293,"Ġquad":9294,"Ġsmh":9295,"Ġimpl":9296,"Ġtriple":9297,"Ġlifes":9298,"Ġincorpor":9299,"Ġpy":9300,"Ġboston":9301,"Ġflowed":9302,"Ġcomponent":9303,"Ġmerchand":9304,"Ġseek":9305,"Ġbrakes":9306,"Ġcrock":9307,"Ġbuddy":9308,"Ġsooooo":9309,"iversary":9310,"Ġmater":9311,"Ġdum":9312,"Ġpayed":9313,"Ġmotherboard":9314,"Ġsockets":9315,"Ġconfigur":9316,"idas":9317,"Ġstrain":9318,"Ġmarkings":9319,"Ġike":9320,"cher":9321,"Ġjon":9322,"rall":9323,"Ġpride":9324,"Ġrelie":9325,"Ġjelly":9326,"Ġbleach":9327,"Ġmrs":9328,"Ġtorque":9329,"Ġspilling":9330,"Ġpaw":9331,"uled":9332,"Ġattitude":9333,"Ġintric":9334,"Ġapocaly":9335,"Ġcontract":9336,"Ġmarine":9337,"Ġformed":9338,"Ġtempl":9339,"Ġbrushed":9340,"ugging":9341,"Ġwhit":9342,"Ġsaturday":9343,"aque":9344,"Ġris":9345,"Ġbosch":9346,"Ġsurge":9347,"Ġmargin":9348,"Ġwomens":9349,"Ġfifty":9350,"Ġphilosophy":9351,"ns":9352,"Ġcooper":9353,"Ġdear":9354,"Ġendless":9355,"Ġcrush":9356,"Ġchewer":9357,"Ġpedals":9358,"sever":9359,"Ġsideways":9360,"Ġextraord":9361,"mpse":9362,"Ġadvised":9363,"Ġaddicted":9364,"Ġcostly":9365,"Ġdiscom":9366,"Ġpearls":9367,"Ġsavings":9368,"Ġeliminate":9369,"Ġglimpse":9370,"Ġkindergart":9371,"Ġoutrage":9372,"Ġdew":9373,"Ġunwearable":9374,"Ġprocessor":9375,"strong":9376,"uality":9377,"Ġemph":9378,"Ġgermin":9379,"rooms":9380,"imm":9381,"Ġharr":9382,"atory":9383,"Ġdorm":9384,"Ġrca":9385,"amaged":9386,"Ġperfection":9387,"Ġbrut":9388,"Ġstrateg":9389,"Ġdeterior":9390,"Ġshredder":9391,"Ġutensils":9392,"ko":9393,"robe":9394,"Ġcoil":9395,"Ġstopper":9396,"Ġanniversary":9397,"Ġsuspend":9398,"Ġtrainer":9399,"missing":9400,"comes":9401,"Ġtragedy":9402,"Ġtimeless":9403,"Ġdressed":9404,"Ġspraying":9405,"Ġaroma":9406,"Ġtwins":9407,"Ġcalm":9408,"Ġflowing":9409,"Ġprinciples":9410,"Ġforms":9411,"Ġflare":9412,"Ġinfant":9413,"Ġwondered":9414,"Ġtarnished":9415,"urs":9416,"Ġearned":9417,"Ġskirts":9418,"Ġillumin":9419,"Ġfib":9420,"Ġweave":9421,"Ġmisrepres":9422,"Ġsatin":9423,"Ġenclosed":9424,"Ġrinse":9425,"pants":9426,"Ġdive":9427,"Ġcanister":9428,"Ġdefined":9429,"Ġbunny":9430,"Ġsilicon":9431,"Ġemphas":9432,"make":9433,"Ġhug":9434,"Ġkh":9435,"Ġcontacts":9436,"Ġtechnique":9437,"Ġflood":9438,"Ġfolders":9439,"Ġpsych":9440,"Ġsubtitles":9441,"wa":9442,"iders":9443,"uma":9444,"Ġwayyy":9445,"Ġros":9446,"Ġmisspe":9447,"Ġmeaningful":9448,"aire":9449,"Ġcud":9450,"Ġounce":9451,"Ġatl":9452,"Ġincreased":9453,"Ġaquarium":9454,"Ġdiscomfort":9455,"hart":9456,"Ġsett":9457,"Ġcreativity":9458,"Ġsuccessfully":9459,"Ġstreaks":9460,"Ġunplugged":9461,"Ġmerchandise":9462,"Ġglor":9463,"Ġallen":9464,"Ġaged":9465,"Ġbrim":9466,"Ġpassenger":9467,"Ġvisiting":9468,"Ġexecuted":9469,"Ġneighborhood":9470,"bott":9471,"ddy":9472,"eg":9473,"tv":9474,"Ġlying":9475,"Ġnostal":9476,"abilities":9477,"attach":9478,"Ġprofessor":9479,"Ġhumanity":9480,"Ġgore":9481,"Ġfingerprints":9482,"Ġgee":9483,"meh":9484,"Ġrefuse":9485,"Ġdashboard":9486,"Ġluc":9487,"Ġpickup":9488,"Ġmurder":9489,"Ġunlocked":9490,"Ġvit":9491,"Ġaggra":9492,"Ġourselves":9493,"zu":9494,"Ġflea":9495,"Ġarmor":9496,"Ġsweaty":9497,"Ġshadow":9498,"gen":9499,"vc":9500,"Ġnest":9501,"icial":9502,"Ġether":9503,"Ġbout":9504,"outed":9505,"Ġrevers":9506,"Ġcollects":9507,"Ġpsi":9508,"Ġaggressive":9509,"Ġfrance":9510,"Ġemblem":9511,"Ġtitan":9512,"highly":9513,"outstanding":9514,"Ġswear":9515,"Ġdigit":9516,"Ġmelod":9517,"Ġdressing":9518,"Ġnarrator":9519,"Ġharley":9520,"Ġtuner":9521,"Ġdecently":9522,"Ġrattle":9523,"Ġkle":9524,"Ġminds":9525,"Ġwedge":9526,"Ġpermanently":9527,"Ġrussian":9528,"rict":9529,"Ġoffs":9530,"Ġsafer":9531,"Ġextract":9532,"Ġwatering":9533,"Ġeaten":9534,"Ġsuffering":9535,"Ġounces":9536,"care":9537,"Ġkiddo":9538,"Ġclutch":9539,"Ġencouraging":9540,"surpr":9541,"Ġclogs":9542,"Ġmolds":9543,"Ġcrease":9544,"Ġtinny":9545,"Ġstamped":9546,"Ġbarking":9547,"Ġcatholic":9548,"Ġcone":9549,"ibilities":9550,"Ġfolder":9551,"Ġtemperatures":9552,"Ġcontinuous":9553,"Ġredeeming":9554,"Ġniss":9555,"Ġretired":9556,"Ġreviewing":9557,"foot":9558,"Ġbriefs":9559,"Ġpretend":9560,"Ġcountries":9561,"funny":9562,"Ġboiling":9563,"Ġdesert":9564,"Ġseemingly":9565,"Ġfoundation":9566,"Ġblankets":9567,"Ġbrewing":9568,"dly":9569,"erts":9570,"Ġreject":9571,"Ġphill":9572,"beautifully":9573,"Ġmixes":9574,"Ġgardening":9575,"enjoyable":9576,"Ġmothers":9577,"Ġshoddy":9578,"undy":9579,"Ġdiscounted":9580,"oops":9581,"Ġblog":9582,"Ġcarol":9583,"Ġsuffer":9584,"Ġnissan":9585,"icity":9586,"string":9587,"Ġinterference":9588,"Ġsolder":9589,"Ġborrowed":9590,"Ġelizabeth":9591,"oring":9592,"Ġstub":9593,"Ġfeather":9594,"Ġdresser":9595,"Ġfiguring":9596,"iana":9597,"shoe":9598,"Ġclimate":9599,"Ġtroublesho":9600,"Ġwonders":9601,"Ġhomework":9602,"Ġveter":9603,"Ġthreading":9604,"Ġnickel":9605,"Ġsubscri":9606,"replaced":9607,"Ġali":9608,"ante":9609,"Ġrecommendations":9610,"Ġserver":9611,"Ġdamp":9612,"Ġconditioner":9613,"Ġnecklaces":9614,"buyer":9615,"Ġstephanie":9616,"Ġenthusiast":9617,"Ġengineering":9618,"Ġtoothbrush":9619,"Ġignored":9620,"Ġunglued":9621,"Ġhighs":9622,"Ġdecorate":9623,"Ġestab":9624,"Ġunraveled":9625,"Ġirritated":9626,"Ġjackets":9627,"Ġspig":9628,"Ġherbs":9629,"Ġhandsome":9630,"Ġpredict":9631,"Ġingredient":9632,"Ġweapon":9633,"rad":9634,"Ġbaked":9635,"orig":9636,"Ġhello":9637,"Ġunclear":9638,"Ġbothers":9639,"Ġobsc":9640,"Ġresulting":9641,"rr":9642,"Ġsteep":9643,"ifications":9644,"Ġnaturally":9645,"Ġbattles":9646,"Ġmason":9647,"Ġloom":9648,"iful":9649,"again":9650,"Ġrule":9651,"Ġignore":9652,"Ġmixture":9653,"abled":9654,"Ġstabil":9655,"wife":9656,"Ġgrat":9657,"Ġdecre":9658,"Ġruins":9659,"Ġtuning":9660,"Ġcertified":9661,"car":9662,"Ġaftermarket":9663,"atched":9664,"Ġconnectivity":9665,"Ġafrica":9666,"fabric":9667,"Ġweal":9668,"Ġtragic":9669,"Ġwheat":9670,"Ġpregnancy":9671,"Ġaustralia":9672,"belie":9673,"Ġwatts":9674,"Ġburgundy":9675,"Ġdivid":9676,"Ġwaaa":9677,"Ġcollapse":9678,"Ġleno":9679,"die":9680,"Ġbore":9681,"Ġhal":9682,"idents":9683,"Ġrash":9684,"Ġsecondary":9685,"Ġdistinct":9686,"Ġsuggests":9687,"Ġsunny":9688,"last":9689,"Ġwd":9690,"Ġgown":9691,"Ġshines":9692,"Ġknitting":9693,"away":9694,"gypt":9695,"Ġhealthier":9696,"Ġblocking":9697,"Ġenthrall":9698,"limited":9699,"Ġreconnect":9700,"Ġsubmit":9701,"Ġrepairs":9702,"Ġexpansion":9703,"lap":9704,"erve":9705,"Ġgosp":9706,"epr":9707,"Ġhonesty":9708,"Ġskechers":9709,"Ġmonthly":9710,"Ġexcelent":9711,"Ġcapability":9712,"Ġprofound":9713,"Ġgoof":9714,"anges":9715,"held":9716,"Ġindividuals":9717,"Ġpublication":9718,"Ġdisease":9719,"terri":9720,"Ġugg":9721,"Ġflipping":9722,"forward":9723,"Ġtrashed":9724,"Ġmeditation":9725,"Ġexplore":9726,"holds":9727,"Ġdelete":9728,"Ġencountered":9729,"Ġworkbook":9730,"Ġactress":9731,"Ġexploded":9732,"Ġluke":9733,"seriously":9734,"Ġcategory":9735,"vably":9736,"Ġmakers":9737,"ava":9738,"Ġcutest":9739,"nicely":9740,"Ġevidence":9741,"Ġcinem":9742,"Ġtrump":9743,"Ġloosing":9744,"Ġtextured":9745,"ancial":9746,"Ġadidas":9747,"Ġconsiderably":9748,"aay":9749,"Ġoat":9750,"Ġegypt":9751,"Ġstating":9752,"Ġshedding":9753,"Ġcellphone":9754,"Ġexceptionally":9755,"Ġbeside":9756,"Ġconsumer":9757,"Ġoutline":9758,"Ġcrashed":9759,"Ġstuffer":9760,"Ġdiscard":9761,"Ġsmartphone":9762,"Ġstereoty":9763,"fire":9764,"omic":9765,"Ġcuis":9766,"Ġcomparing":9767,"Ġjess":9768,"Ġpaddle":9769,"Ġmagnifying":9770,"Ġvampires":9771,"dles":9772,"Ġgor":9773,"owed":9774,"Ġchunky":9775,"Ġdisliked":9776,"Ġdrains":9777,"Ġpromising":9778,"Ġyorkie":9779,"Ġfactual":9780,"Ġrestock":9781,"Ġaffected":9782,"Ġcrunchy":9783,"cut":9784,"lined":9785,"zi":9786,"Ġcel":9787,"Ġshaking":9788,"stock":9789,"Ġpoin":9790,"Ġhandbag":9791,"Ġlug":9792,"Ġgang":9793,"Ġspeedy":9794,"Ġlaunch":9795,"Ġmildew":9796,"saw":9797,"Ġearpiece":9798,"Ġdriven":9799,"Ġnoticeably":9800,"Ġwobble":9801,"bish":9802,"arse":9803,"icting":9804,"Ġcollaps":9805,"Ġdamaging":9806,"Ġnoodles":9807,"Ġsten":9808,"Ġsoy":9809,"Ġuncle":9810,"Ġdrove":9811,"smells":9812,"Ġscooter":9813,"Ġcared":9814,"Ġbackpacking":9815,"Ġroute":9816,"Ġfinancial":9817,"Ġraspberry":9818,"Ġaftertaste":9819,"Ġtrave":9820,"Ġcorrected":9821,"Ġdj":9822,"rial":9823,"Ġshovel":9824,"Ġthermost":9825,"uous":9826,"Ġcape":9827,"Ġtrite":9828,"Ġbelieved":9829,"Ġlengths":9830,"Ġrequirements":9831,"Ġexpanded":9832,"Ġdip":9833,"Ġcomo":9834,"Ġsling":9835,"Ġprofessionally":9836,"ategy":9837,"Ġrubberized":9838,"coln":9839,"Ġsmoker":9840,"Ġutility":9841,"Ġzombies":9842,"Ġbmw":9843,"Ġpaws":9844,"Ġcoarse":9845,"heavy":9846,"Ġwashington":9847,"Ġsights":9848,"Ġrented":9849,"Ġfry":9850,"Ġdevelo":9851,"Ġfitness":9852,"unless":9853,"Ġpegs":9854,"Ġcarp":9855,"Ġarmband":9856,"Ġservices":9857,"Ġtemporary":9858,"tom":9859,"Ġblinking":9860,"Ġwrangler":9861,"Ġdisassem":9862,"Ġspite":9863,"Ġstrategy":9864,"Ġdisconnects":9865,"functional":9866,"Ġcalculator":9867,"ties":9868,"Ġtel":9869,"Ġprison":9870,"Ġteller":9871,"ailed":9872,"Ġcoral":9873,"Ġapo":9874,"half":9875,"alo":9876,"stairs":9877,"Ġattend":9878,"Ġkudos":9879,"Ġsigh":9880,"Ġredundant":9881,"Ġsolidly":9882,"Ġlabor":9883,"Ġleader":9884,"Ġcaptivated":9885,"Ġconcerns":9886,"Ġparagraphs":9887,"Ġconvinced":9888,"Ġrevolution":9889,"eral":9890,"Ġmoo":9891,"Ġergon":9892,"Ġiphones":9893,"Ġbows":9894,"Ġsoothing":9895,"ulating":9896,"Ġroots":9897,"Ġalternate":9898,"Ġrecieve":9899,"Ġthermal":9900,"class":9901,"Ġsupr":9902,"Ġpeach":9903,"Ġincense":9904,"Ġsensors":9905,"Ġenhance":9906,"Ġphrases":9907,"Ġelephant":9908,"sizing":9909,"Ġmph":9910,"Ġbears":9911,"meal":9912,"Ġcoco":9913,"Ġdiary":9914,"Ġdisappeared":9915,"Ġmosquito":9916,"llen":9917,"Ġmysterious":9918,"going":9919,"Ġracks":9920,"Ġcycling":9921,"Ġengrossing":9922,"Ġchore":9923,"Ġprince":9924,"Ġconsequ":9925,"Ġunpack":9926,"Ġdirector":9927,"Ġmistaken":9928,"Ġeconomical":9929,"Ġsarah":9930,"Ġgab":9931,"Ġcomics":9932,"Ġoffensive":9933,"Ġsymp":9934,"Ġdecorating":9935,"pieces":9936,"Ġaero":9937,"about":9938,"Ġdaylight":9939,"Ġtrusted":9940,"Ġquestionable":9941,"Ġrevealing":9942,"ody":9943,"Ġworkers":9944,"Ġboxed":9945,"Ġsmoother":9946,"Ġcolumb":9947,"Ġcrashes":9948,"Ġnit":9949,"Ġhardcover":9950,"Ġreaching":9951,"Ġhunger":9952,"ray":9953,"Ġratchet":9954,"Ġpry":9955,"Ġagre":9956,"Ġaccounts":9957,"mma":9958,"Ġbaskets":9959,"Ġcurvy":9960,"Ġbravo":9961,"Ġtonight":9962,"Ġestablish":9963,"cases":9964,"Ġhalo":9965,"Ġbye":9966,"Ġsatisfaction":9967,"Ġformal":9968,"Ġdigging":9969,"words":9970,"Ġdime":9971,"Ġoperated":9972,"Ġmuffled":9973,"Ġimitation":9974,"Ġgameplay":9975,"Ġlincoln":9976,"Ġstraightforward":9977,"Ġfirmware":9978,"Ġikea":9979,"arre":9980,"Ġreward":9981,"Ġdesigner":9982,"Ġstyling":9983,"Ġmickey":9984,"Ġbeanie":9985,"Ġreusable":9986,"istics":9987,"Ġgods":9988,"Ġassembling":9989,"Ġtablecloth":9990,"Ġcounting":9991,"Ġportrayal":9992,"Ġcigarette":9993,"Ġanime":9994,"Ġwherever":9995,"Ġfireplace":9996,"Ġprofession":9997,"Ġtarp":9998,"Ġoptical":9999,"rick":10000,"Ġlense":10001,"entation":10002,"Ġspoke":10003,"Ġrevel":10004,"Ġintertw":10005,"Ġmiracle":10006,"Ġalaska":10007,"reck":10008,"Ġjustify":10009,"iendo":10010,"Ġpairing":10011,"ships":10012,"Ġchristians":10013,"Ġsqueaker":10014,"Ġbutterfly":10015,"Ġexistent":10016,"Ġunraveling":10017,"Ġsmudges":10018,"Ġoli":10019,"elve":10020,"Ġmusicians":10021,"Ġintent":10022,"Ġjewish":10023,"drop":10024,"Ġtb":10025,"Ġeth":10026,"aki":10027,"Ġdetract":10028,"Ġportions":10029,"Ġcali":10030,"Ġivory":10031,"Ġatmos":10032,"Ġarrow":10033,"Ġglobe":10034,"Ġelectricity":10035,"Ġreports":10036,"Ġstil":10037,"Ġawe":10038,"Ġawsome":10039,"Ġabsur":10040,"spe":10041,"Ġrecover":10042,"Ġshoots":10043,"Ġupsetting":10044,"Ġcrayons":10045,"Ġsacrif":10046,"Ġwrest":10047,"Ġdsl":10048,"Ġcrumb":10049,"Ġwarri":10050,"Ġprimer":10051,"Ġthrillers":10052,"Ġcrimp":10053,"warning":10054,"Ġacou":10055,"owering":10056,"tendo":10057,"Ġsimplicity":10058,"Ġskimmed":10059,"Ġutterly":10060,"Ġhoop":10061,"Ġdiy":10062,"Ġcloths":10063,"Ġfavourite":10064,"Ġfork":10065,"Ġbegun":10066,"Ġjr":10067,"Ġworlds":10068,"Ġshifter":10069,"Ġlouis":10070,"Ġguidance":10071,"Ġasks":10072,"Ġkills":10073,"Ġbride":10074,"Ġreleases":10075,"somewhat":10076,"flies":10077,"Ġphysically":10078,"Ġcutters":10079,"Ġterry":10080,"Ġsaddle":10081,"Ġrussell":10082,"Ġ3":10083,"Ġnewest":10084,"Ġdefinetly":10085,"Ġefforts":10086,"Ġcasting":10087,"Ġrotating":10088,"Ġdividers":10089,"gorgeous":10090,"Ġosc":10091,"Ġspeech":10092,"Ġmuscle":10093,"Ġmessing":10094,"Ġrequiring":10095,"Ġargum":10096,"Ġcitiz":10097,"mies":10098,"Ġsinc":10099,"atly":10100,"ami":10101,"Ġtheirs":10102,"glad":10103,"Ġornaments":10104,"ilight":10105,"Ġtrimming":10106,"Ġsatisfy":10107,"Ġsignals":10108,"Ġliquids":10109,"Ġalignment":10110,"Ġprettier":10111,"bie":10112,"aring":10113,"Ġwording":10114,"lip":10115,"foam":10116,"Ġpeanuts":10117,"Ġcompassion":10118,"Ġpoign":10119,"Ġlogic":10120,"Ġforces":10121,"Ġcanada":10122,"ista":10123,"Ġpartial":10124,"Ġwobbles":10125,"Ġsplitting":10126,"Ġqualities":10127,"xtures":10128,"Ġranger":10129,"Ġdragons":10130,"Ġnintendo":10131,"writing":10132,"Ġinterviews":10133,"Ġdistortion":10134,"Ġplausible":10135,"udes":10136,"Ġfinest":10137,"Ġembroidery":10138,"Ġoly":10139,"Ġretire":10140,"Ġapron":10141,"Ġmoto":10142,"Ġpublishing":10143,"Ġdepends":10144,"Ġgospel":10145,"Ġfaced":10146,"Ġwaisted":10147,"Ġpumping":10148,"Ġunsatisf":10149,"Ġabused":10150,"Ġnewsp":10151,"Ġethernet":10152,"Ġpm":10153,"Ġyay":10154,"Ġvga":10155,"Ġnewly":10156,"Ġcupcake":10157,"Ġpolo":10158,"Ġdrawstring":10159,"Ġdependable":10160,"Ġshave":10161,"Ġkim":10162,"oluted":10163,"noxious":10164,"Ġpouches":10165,"Ġdickies":10166,"ault":10167,"Ġdefinition":10168,"Ġcrad":10169,"Ġfavors":10170,"Ġmelissa":10171,"Ġdrugs":10172,"Ġmanages":10173,"Ġskate":10174,"Ġmodes":10175,"attoo":10176,"Ġperforming":10177,"Ġaccepted":10178,"Ġdess":10179,"Ġgf":10180,"riever":10181,"emic":10182,"Ġpeels":10183,"Ġsnake":10184,"Ġvalid":10185,"Ġthanksgiving":10186,"Ġfigur":10187,"Ġdriveway":10188,"hill":10189,"Ġna":10190,"Ġstamps":10191,"Ġretriever":10192,"Ġpassport":10193,"Ġindustrial":10194,"Ġire":10195,"ooo":10196,"Ġunlikely":10197,"fty":10198,"Ġbizarre":10199,"Ġtones":10200,"Ġinstruments":10201,"Ġanx":10202,"Ġenorm":10203,"Ġdispleased":10204,"Ġtwilight":10205,"Ġbrow":10206,"Ġforgiveness":10207,"Ġtattoo":10208,"Ġmonday":10209,"Ġcorny":10210,"Ġmiser":10211,"Ġzipped":10212,"Ġcompetition":10213,"Ġom":10214,"Ġshim":10215,"Ġfreak":10216,"Ġobnoxious":10217,"Ġshocking":10218,"Ġcommented":10219,"Ġcriticism":10220,"Ġvitam":10221,"Ġclassical":10222,"Ġyogurt":10223,"Ġchunk":10224,"ieter":10225,"Ġmonkey":10226,"Ġrave":10227,"Ġfacebook":10228,"Ġrepeats":10229,"Ġamish":10230,"Ġimportance":10231,"Ġpumpkin":10232,"rupted":10233,"Ġreinforce":10234,"Ġpraise":10235,"Ġtrials":10236,"Ġdrips":10237,"lander":10238,"Ġjewels":10239,"Ġsplitter":10240,"Ġireland":10241,"xl":10242,"Ġtshirt":10243,"Ġsed":10244,"oofer":10245,"Ġprinters":10246,"Ġrubbish":10247,"Ġanimation":10248,"Ġcultural":10249,"affe":10250,"Ġangels":10251,"Ġafrican":10252,"gi":10253,"Ġpity":10254,"Ġinstructed":10255,"Ġpractices":10256,"build":10257,"Ġhouses":10258,"Ġsuperficial":10259,"eness":10260,"Ġshrank":10261,"Ġremained":10262,"Ġcirculation":10263,"Ġnyc":10264,"Ġwiper":10265,"Ġatmosph":10266,"df":10267,"Ġstew":10268,"Ġreveal":10269,"Ġeraser":10270,"Ġthermostat":10271,"says":10272,"Ġnation":10273,"useless":10274,"Ġtwelve":10275,"answ":10276,"Ġrails":10277,"Ġtractor":10278,"Ġcuffs":10279,"Ġsup":10280,"Ġprecision":10281,"Ġdynamic":10282,"isco":10283,"Ġvul":10284,"Ġheaded":10285,"Ġregrets":10286,"Ġentre":10287,"Ġsusan":10288,"Ġundamaged":10289,"Ġflags":10290,"Ġcolours":10291,"Ġsab":10292,"Ġkar":10293,"ructions":10294,"Ġradi":10295,"Ġdaniel":10296,"Ġcushioned":10297,"Ġconvention":10298,"Ġtoms":10299,"Ġquieter":10300,"Ġunfl":10301,"Ġrecomiendo":10302,"Ġperspect":10303,"Ġcaptain":10304,"Ġhungry":10305,"Ġdeflated":10306,"Ġwardrobe":10307,"Ġthirty":10308,"Ġreccommend":10309,"angers":10310,"Ġframed":10311,"Ġsprays":10312,"Ġpossibilities":10313,"Ġrepetition":10314,"Ġwilliams":10315,"cled":10316,"Ġ4":10317,"Ġgreek":10318,"Ġchord":10319,"Ġwatered":10320,"Ġpersons":10321,"Ġobtain":10322,"Ġinspection":10323,"initially":10324,"Ġoatmeal":10325,"Ġdarts":10326,"Ġhaul":10327,"Ġmont":10328,"Ġslices":10329,"Ġearphone":10330,"Ġdimension":10331,"must":10332,"ido":10333,"Ġchances":10334,"Ġglance":10335,"prot":10336,"Ġopinions":10337,"Ġheadsets":10338,"Ġlowes":10339,"Ġpassages":10340,"Ġparall":10341,"Ġmailbox":10342,"Ġrecovery":10343,"Ġlone":10344,"Ġchildish":10345,"Ġweighted":10346,"Ġintensity":10347,"Ġbiased":10348,"Ġbloom":10349,"Ġartic":10350,"Ġlaure":10351,"Ġvocal":10352,"Ġlisa":10353,"Ġvegas":10354,"Ġolymp":10355,"Ġnano":10356,"erokee":10357,"Ġcliche":10358,"Ġidiot":10359,"Ġknight":10360,"Ġbites":10361,"Ġvisually":10362,"Ġtremendous":10363,"Ġanxiety":10364,"Ġperspectives":10365,"leg":10366,"Ġbees":10367,"Ġinspire":10368,"Ġruining":10369,"Ġportrait":10370,"Ġoutrageous":10371,"iable":10372,"rain":10373,"Ġunlimited":10374,"Ġcarhart":10375,"Ġcrackers":10376,"Ġrepack":10377,"Ġwinters":10378,"Ġgeo":10379,"Ġscholar":10380,"Ġthro":10381,"Ġni":10382,"Ġcharles":10383,"Ġinterfer":10384,"Ġlimits":10385,"Ġjenn":10386,"Ġnes":10387,"Ġdoc":10388,"Ġbuys":10389,"Ġhairs":10390,"huge":10391,"Ġguaranteed":10392,"ique":10393,"mill":10394,"west":10395,"Ġtosh":10396,"Ġclump":10397,"Ġtwisting":10398,"Ġfixtures":10399,"Ġbeliefs":10400,"Ġdetermined":10401,"Ġheartbreaking":10402,"mr":10403,"Ġlick":10404,"Ġdare":10405,"Ġvast":10406,"Ġroses":10407,"Ġfreely":10408,"Ġgenerations":10409,"appro":10410,"Ġvanity":10411,"Ġtucked":10412,"nut":10413,"Ġnich":10414,"Ġanec":10415,"Ġlotion":10416,"Ġfolk":10417,"Ġrhyth":10418,"Ġdedicated":10419,"Ġintricate":10420,"Ġanecd":10421,"Ġstems":10422,"Ġcouples":10423,"Ġrach":10424,"Ġromances":10425,"Ġzippered":10426,"Ġsucce":10427,"jective":10428,"wo":10429,"requ":10430,"Ġhints":10431,"Ġconvoluted":10432,"Ġdisappear":10433,"Ġclimbing":10434,"ki":10435,"Ġblessed":10436,"Ġvisited":10437,"Ġgeared":10438,"Ġretractable":10439,"Ġpoignant":10440,"gles":10441,"Ġblackberry":10442,"Ġclipped":10443,"Ġbranches":10444,"Ġextraordinary":10445,"eproof":10446,"Ġworship":10447,"Ġhighway":10448,"Ġsnor":10449,"Ġimmediate":10450,"Ġgraduation":10451,"Ġtutorial":10452,"field":10453,"Ġwalker":10454,"norm":10455,"Ġcpu":10456,"icious":10457,"oms":10458,"Ġapples":10459,"Ġtrapped":10460,"Ġflipped":10461,"Ġcapabilities":10462,"Ġstatus":10463,"Ġenclosure":10464,"Ġexposure":10465,"Ġvalentine":10466,"agree":10467,"Ġinstructor":10468,"iba":10469,"Ġbarley":10470,"Ġmoldy":10471,"Ġdemonstr":10472,"van":10473,"Ġply":10474,"Ġamb":10475,"Ġplun":10476,"Ġtwee":10477,"igned":10478,"Ġcarafe":10479,"Ġcran":10480,"Ġevo":10481,"Ġdevil":10482,"Ġmagazines":10483,"Ġfranc":10484,"Ġsettle":10485,"feit":10486,"insp":10487,"Ġguards":10488,"fish":10489,"Ġdp":10490,"Ġclin":10491,"Ġsalmon":10492,"Ġtransformer":10493,"Ġhue":10494,"Ġlaughter":10495,"Ġgs":10496,"Ġinstep":10497,"Ġlifeproof":10498,"Ġtunnel":10499,"Ġalexa":10500,"Ġsnags":10501,"Ġsack":10502,"inations":10503,"Ġsoaking":10504,"Ġfruits":10505,"Ġcamel":10506,"answered":10507,"Ġtaper":10508,"Ġsuffered":10509,"Ġsharpened":10510,"Ġwelded":10511,"Ġintermittent":10512,"Ġboxy":10513,"Ġheartfelt":10514,"Ġleadership":10515,"Ġreflects":10516,"Ġlogical":10517,"Ġselections":10518,"Ġlp":10519,"Ġjason":10520,"Ġcanop":10521,"Ġcrumbs":10522,"Ġreson":10523,"Ġlegos":10524,"Ġarrows":10525,"Ġsucker":10526,"Ġtumbler":10527,"bird":10528,"Ġcure":10529,"Ġlub":10530,"Ġdub":10531,"ifes":10532,"ptic":10533,"typical":10534,"Ġslicer":10535,"Ġfraud":10536,"Ġstraighten":10537,"Ġclicks":10538,"Ġclimax":10539,"followed":10540,"Ġplated":10541,"loaded":10542,"Ġunf":10543,"Ġmans":10544,"Ġlesser":10545,"Ġviewed":10546,"Ġseasoning":10547,"Ġcrimin":10548,"Ġaesthet":10549,"Ġcylinder":10550,"Ġterror":10551,"Ġchewy":10552,"Ġlaws":10553,"ended":10554,"Ġsnuggly":10555,"Ġlenovo":10556,"Ġsod":10557,"Ġcherokee":10558,"Ġbadge":10559,"Ġsleeps":10560,"Ġtoshiba":10561,"Ġgrandaughter":10562,"Ġsandisk":10563,"Ġlifted":10564,"Ġsession":10565,"Ġconfortable":10566,"abor":10567,"Ġvelvet":10568,"Ġpion":10569,"Ġweeds":10570,"ffective":10571,"Ġaddictive":10572,"Ġtoothpaste":10573,"Ġicon":10574,"Ġdragging":10575,"Ġdarkness":10576,"Ġimagery":10577,"Ġkindergarten":10578,"appropri":10579,"Ġrecl":10580,"Ġgained":10581,"Ġrul":10582,"Ġrepeating":10583,"gate":10584,"jun":10585,"sery":10586,"Ġisol":10587,"Ġalice":10588,"berries":10589,"Ġrag":10590,"Ġviolin":10591,"Ġdeserved":10592,"Ġnursery":10593,"Ġaqua":10594,"Ġassistance":10595,"Ġbeep":10596,"Ġkiss":10597,"unes":10598,"Ġcrude":10599,"llar":10600,"Ġcoup":10601,"Ġdealt":10602,"Ġsprout":10603,"Ġdistribut":10604,"Ġparker":10605,"Ġprefers":10606,"Ġcoasters":10607,"astes":10608,"Ġfortune":10609,"Ġreboot":10610,"Ġreputation":10611,"dra":10612,"Ġurban":10613,"Ġbever":10614,"Ġlips":10615,"store":10616,"Ġamy":10617,"Ġcuter":10618,"Ġsoftness":10619,"Ġpaperwork":10620,"Ġnarration":10621,"Ġneckline":10622,"Ġgrooves":10623,"Ġtremendously":10624,"Ġsessions":10625,"power":10626,"Ġdoct":10627,"irds":10628,"Ġunanswered":10629,"Ġinvis":10630,"Ġillness":10631,"Ġparticles":10632,"Ġconcerning":10633,"Ġsweaters":10634,"Ġsings":10635,"Ġcastle":10636,"Ġformatting":10637,"Ġintroduce":10638,"normally":10639,"Ġsate":10640,"Ġcoord":10641,"Ġstrict":10642,"classic":10643,"looking":10644,"Ġcandies":10645,"inity":10646,"Ġdome":10647,"usually":10648,"Ġrecorder":10649,"athan":10650,"Ġinfect":10651,"Ġmop":10652,"Ġmoms":10653,"Ġmicros":10654,"Ġindication":10655,"Ġdaddy":10656,"Ġdecker":10657,"Ġguidel":10658,"Ġspacious":10659,"Ġpirate":10660,"umn":10661,"Ġstarb":10662,"Ġsail":10663,"Ġfins":10664,"Ġstiffer":10665,"Ġpancakes":10666,"Ġhams":10667,"station":10668,"Ġrealizing":10669,"Ġrobot":10670,"Ġgrommets":10671,"gue":10672,"inart":10673,"Ġmute":10674,"acci":10675,"sticks":10676,"Ġhighlights":10677,"Ġhusky":10678,"Ġcircular":10679,"nip":10680,"nels":10681,"Ġhabit":10682,"Ġyam":10683,"Ġjaw":10684,"Ġsuv":10685,"Ġtriangle":10686,"Ġsparkles":10687,"Ġconfiguration":10688,"adequate":10689,"Ġinval":10690,"isticated":10691,"Ġrequirement":10692,"Ġblocked":10693,"Ġcommunicate":10694,"Ġpolarized":10695,"Ġoccurred":10696,"Ġoo":10697,"Ġmt":10698,"Ġfrequency":10699,"Ġowl":10700,"Ġrepurchase":10701,"hus":10702,"ipp":10703,"nies":10704,"pat":10705,"Ġthreat":10706,"Ġalt":10707,"Ġpricy":10708,"Ġfender":10709,"aby":10710,"Ġcopied":10711,"Ġshutting":10712,"Ġrobin":10713,"Ġdefender":10714,"Ġdewalt":10715,"Ġfibers":10716,"hy":10717,"Ġbaker":10718,"Ġsweep":10719,"Ġflashes":10720,"Ġactivated":10721,"Ġsurviv":10722,"Ġclubs":10723,"Ġdeformed":10724,"bone":10725,"life":10726,"Ġpacing":10727,"Ġtony":10728,"Ġhalog":10729,"lyn":10730,"entertaining":10731,"Ġcompetitive":10732,"Ġrambling":10733,"Ġspatula":10734,"Ġpk":10735,"Ġrf":10736,"Ġenemy":10737,"Ġlew":10738,"Ġwoke":10739,"Ġsequence":10740,"Ġcanopy":10741,"nic":10742,"Ġfel":10743,"ifies":10744,"Ġgoals":10745,"Ġjoin":10746,"Ġfootage":10747,"Ġsquares":10748,"Ġteles":10749,"Ġinvisible":10750,"Ġtt":10751,"Ġkin":10752,"Ġtasks":10753,"Ġmf":10754,"Ġbacked":10755,"Ġunbear":10756,"ocular":10757,"Ġpreparing":10758,"Ġcolumbia":10759,"Ġunflattering":10760,"Ġchat":10761,"Ġshells":10762,"Ġmisunder":10763,"Ġstrainer":10764,"Ġantique":10765,"Ġknots":10766,"Ġarrangements":10767,"far":10768,"Ġdesperate":10769,"Ġflakes":10770,"Ġlinux":10771,"Ġuniversity":10772,"Ġcrowd":10773,"husband":10774,"ician":10775,"Ġamber":10776,"eled":10777,"ilty":10778,"Ġmonsters":10779,"Ġheading":10780,"Ġproperty":10781,"isingly":10782,"Ġprogrammed":10783,"Ġhistoria":10784,"Ġdiagrams":10785,"Ġcc":10786,"Ġstan":10787,"quately":10788,"Ġquote":10789,"Ġviv":10790,"Ġtying":10791,"Ġjuicer":10792,"Ġtossing":10793,"Ġta":10794,"ilog":10795,"Ġdownhill":10796,"Ġscheduled":10797,"burn":10798,"Ġml":10799,"Ġpony":10800,"Ġflann":10801,"Ġdecaf":10802,"Ġeval":10803,"Ġpcs":10804,"Ġlatches":10805,"bio":10806,"Ġthunder":10807,"Ġemotionally":10808,"Ġcradle":10809,"days":10810,"each":10811,"urable":10812,"Ġfoll":10813,"berg":10814,"Ġarmp":10815,"Ġmelting":10816,"Ġscenarios":10817,"je":10818,"Ġtodo":10819,"Ġshaker":10820,"Ġamps":10821,"Ġfewer":10822,"bert":10823,"Ġdrilling":10824,"Ġdepict":10825,"Ġprize":10826,"Ġbiking":10827,"Ġshares":10828,"Ġinsect":10829,"Ġchoosing":10830,"bare":10831,"Ġsust":10832,"Ġinappropri":10833,"think":10834,"ubby":10835,"Ġintake":10836,"Ġcounterfeit":10837,"Ġchamber":10838,"gled":10839,"none":10840,"Ġsteer":10841,"dress":10842,"inn":10843,"Ġstich":10844,"Ġaltered":10845,"Ġfisher":10846,"Ġepilog":10847,"Ġundersh":10848,"Ġstrategies":10849,"fra":10850,"turn":10851,"Ġcharity":10852,"Ġexperiencing":10853,"Ġilleg":10854,"Ġmisses":10855,"Ġmelts":10856,"Ġlounge":10857,"Ġdissapointing":10858,"Ġphillips":10859,"Ġdslr":10860,"Ġenormous":10861,"mate":10862,"ville":10863,"Ġdude":10864,"Ġholo":10865,"def":10866,"Ġaccomplished":10867,"idad":10868,"Ġreadily":10869,"Ġheadlights":10870,"Ġsprouted":10871,"Ġcatnip":10872,"Ġabsurd":10873,"protect":10874,"Ġyamaha":10875,"Ġhiding":10876,"Ġcanned":10877,"Ġleague":10878,"Ġpeice":10879,"Ġaddiction":10880,"Ġdivers":10881,"Ġsamples":10882,"Ġphotographer":10883,"Ġdocumentation":10884,"Ġlitt":10885,"Ġweaves":10886,"une":10887,"andes":10888,"Ġcomprom":10889,"Ġretrie":10890,"Ġshifts":10891,"Ġcement":10892,"Ġpoodle":10893,"Ġcharlie":10894,"Ġcounts":10895,"pany":10896,"tastes":10897,"Ġfinicky":10898,"Ġcrink":10899,"Ġclog":10900,"Ġslender":10901,"Ġtvs":10902,"Ġcollectors":10903,"Ġglock":10904,"annah":10905,"Ġguitars":10906,"Ġholmes":10907,"Ġaccompany":10908,"Ġrestocking":10909,"mag":10910,"rey":10911,"Ġprong":10912,"Ġunused":10913,"Ġagent":10914,"Ġincandes":10915,"Ġclearance":10916,"Ġstepped":10917,"hey":10918,"Ġbom":10919,"Ġdevotional":10920,"Ġbikin":10921,"Ġcolder":10922,"advertised":10923,"inform":10924,"rael":10925,"Ġchilds":10926,"zipper":10927,"Ġcolorado":10928,"Ġwholes":10929,"Ġorganizing":10930,"Ġattracted":10931,"Ġmildly":10932,"Ġstrands":10933,"Ġticket":10934,"Ġmerely":10935,"Ġfeb":10936,"Ġgrac":10937,"Ġslacks":10938,"Ġconscious":10939,"Ġleaders":10940,"Ġarches":10941,"delivery":10942,"Ġflannel":10943,"bling":10944,"Ġvista":10945,"Ġads":10946,"sounds":10947,"Ġinteractions":10948,"Ġrapidly":10949,"Ġsustain":10950,"Ġsake":10951,"Ġexclus":10952,"Ġflavorful":10953,"anna":10954,"Ġbutterflies":10955,"Ġobserv":10956,"Ġsimpler":10957,"Ġintermedi":10958,"Ġindependent":10959,"Ġisrael":10960,"gear":10961,"phy":10962,"whe":10963,"Ġbelongs":10964,"Ġconduct":10965,"Ġpracticing":10966,"Ġawkwardly":10967,"Ġcycles":10968,"regular":10969,"vit":10970,"Ġfitment":10971,"white":10972,"Ġsteak":10973,"Ġsequels":10974,"Ġgorilla":10975,"Ġdelux":10976,"Ġmuffin":10977,"Ġkayak":10978,"Ġandrew":10979,"Ġons":10980,"Ġunderwater":10981,"Ġverses":10982,"Ġroman":10983,"Ġforest":10984,"Ġstockings":10985,"Ġpositioned":10986,"Ġskillet":10987,"Ġtactical":10988,"Ġpoured":10989,"Ġhockey":10990,"needs":10991,"Ġmusician":10992,"Ġirre":10993,"Ġsealing":10994,"Ġreliably":10995,"Ġcollapsed":10996,"Ġunwra":10997,"Ġcuisinart":10998,"Ġstarbucks":10999,"wind":11000,"Ġkelly":11001,"cribed":11002,"Ġbagg":11003,"Ġsweating":11004,"Ġscrape":11005,"Ġdeduct":11006,"Ġlumpy":11007,"Ġperfume":11008,"Ġcruel":11009,"Ġgt":11010,"ram":11011,"Ġsig":11012,"Ġadam":11013,"Ġbookshel":11014,"author":11015,"Ġmovements":11016,"Ġappropriately":11017,"Ġnewspaper":11018,"aign":11019,"uish":11020,"least":11021,"Ġamd":11022,"Ġprofanity":11023,"Ġapproved":11024,"Ġreaches":11025,"Ġrotation":11026,"etti":11027,"Ġhind":11028,"Ġample":11029,"ilton":11030,"Ġimac":11031,"Ġissued":11032,"Ġdripping":11033,"Ġdestruct":11034,"Ġadequately":11035,"Ġaliens":11036,"belt":11037,"Ġcheer":11038,"Ġseasoned":11039,"Ġsoldiers":11040,"Ġcivic":11041,"Ġblessing":11042,"Ġstools":11043,"Ġbaldacci":11044,"Ġah":11045,"Ġinh":11046,"Ġproves":11047,"ulations":11048,"Ġtrading":11049,"Ġtrimmed":11050,"Ġcomplement":11051,"Ġfabrics":11052,"Ġunbelievably":11053,"omy":11054,"lio":11055,"Ġshipper":11056,"Ġsolving":11057,"Ġshreds":11058,"Ġreinforced":11059,"Ġfasteners":11060,"eme":11061,"Ġgrief":11062,"Ġrick":11063,"Ġsadness":11064,"ordan":11065,"Ġscheme":11066,"Ġopted":11067,"Ġmountains":11068,"Ġalphab":11069,"cend":11070,"Ġrc":11071,"Ġrestrict":11072,"Ġconfusion":11073,"Ġdigs":11074,"Ġhistoric":11075,"Ġsomed":11076,"Ġepilogue":11077,"Ġdave":11078,"Ġfoster":11079,"Ġraising":11080,"Ġmodest":11081,"Ġelev":11082,"Ġposters":11083,"odd":11084,"Ġappet":11085,"Ġbru":11086,"Ġramp":11087,"Ġredem":11088,"Ġnetting":11089,"Ġmagnific":11090,"Ġmoistur":11091,"Ġdevelops":11092,"Ġfob":11093,"Ġspends":11094,"Ġsilverado":11095,"Ġpatri":11096,"Ġkicks":11097,"Ġspecifications":11098,"Ġphysics":11099,"Ġdetector":11100,"Ġtomatoes":11101,"Ġmaz":11102,"enta":11103,"Ġmario":11104,"Ġformatted":11105,"Ġtransmission":11106,"Ġconfirmed":11107,"alley":11108,"venge":11109,"ensions":11110,"Ġinsurance":11111,"intment":11112,"Ġbulkier":11113,"Ġscotch":11114,"pressed":11115,"rend":11116,"Ġling":11117,"Ġshocks":11118,"Ġroads":11119,"books":11120,"Ġmailing":11121,"Ġnephews":11122,"Ġeagerly":11123,"Ġinjury":11124,"Ġausten":11125,"Ġleap":11126,"Ġhardest":11127,"Ġguessed":11128,"Ġbien":11129,"Ġmuddy":11130,"Ġevolution":11131,"Ġdeluxe":11132,"cable":11133,"oned":11134,"Ġatro":11135,"Ġjose":11136,"Ġimmature":11137,"Ġopaque":11138,"Ġillum":11139,"Ġweapons":11140,"Ġdean":11141,"Ġdissol":11142,"Ġposting":11143,"Ġcampaign":11144,"Ġbleeding":11145,"Ġcosplay":11146,"Ġinnov":11147,"Ġjennifer":11148,"Ġintermediate":11149,"zona":11150,"Ġrenew":11151,"Ġhabits":11152,"Ġcreatures":11153,"Ġtrails":11154,"Ġcreamy":11155,"Ġwiped":11156,"Ġinterfere":11157,"Ġarizona":11158,"Ġpiv":11159,"Ġjay":11160,"Ġtransmit":11161,"Ġturt":11162,"Ġvertically":11163,"Ġtorture":11164,"Ġpointy":11165,"Ġdoz":11166,"orders":11167,"lightweight":11168,"Ġpitched":11169,"Ġwaffle":11170,"Ġacoustic":11171,"tail":11172,"Ġpon":11173,"Ġcutouts":11174,"Ġpromot":11175,"Ġfright":11176,"Ġpause":11177,"Ġitunes":11178,"thorough":11179,"Ġemma":11180,"Ġprequ":11181,"andy":11182,"Ġglide":11183,"Ġcrust":11184,"Ġstyro":11185,"anyone":11186,"Ġjohnny":11187,"Ġclutter":11188,"Ġrecycled":11189,"Ġpunctuation":11190,"Ġbf":11191,"Ġjake":11192,"umph":11193,"Ġendearing":11194,"olves":11195,"Ġreuse":11196,"Ġrealy":11197,"Ġkrist":11198,"Ġdegr":11199,"Ġamplifier":11200,"Ġassociated":11201,"Ġhenry":11202,"lead":11203,"ffin":11204,"Ġcaramel":11205,"atherine":11206,"Ġanna":11207,"Ġvibrate":11208,"Ġtranslated":11209,"quet":11210,"Ġroles":11211,"Ġspecify":11212,"Ġdeadline":11213,"Ġsomeday":11214,"Ġswiss":11215,"Ġpinky":11216,"Ġwebsites":11217,"Ġcosmet":11218,"Ġlewis":11219,"Ġinappropriate":11220,"cat":11221,"eas":11222,"Ġmuted":11223,"Ġdil":11224,"tha":11225,"Ġbeloved":11226,"Ġasp":11227,"Ġaging":11228,"Ġreluct":11229,"Ġprovider":11230,"Ġlinen":11231,"Ġstrike":11232,"Ġalternatives":11233,"Ġreservoir":11234,"hot":11235,"Ġthong":11236,"Ġfathers":11237,"anas":11238,"istan":11239,"Ġaward":11240,"athetic":11241,"Ġsmelly":11242,"Ġloosened":11243,"Ġmbps":11244,"Ġthousands":11245,"cont":11246,"di":11247,"Ġthor":11248,"Ġtriumph":11249,"Ġbases":11250,"Ġhurric":11251,"Ġpsychological":11252,"Ġresulted":11253,"Ġjumbo":11254,"gus":11255,"Ġspikes":11256,"Ġstole":11257,"Ġremin":11258,"Ġchoking":11259,"Ġsoldering":11260,"Ġpossibility":11261,"Ġfascinated":11262,"Ġsophisticated":11263,"Ġrattling":11264,"150":11265,"sweet":11266,"Ġdebut":11267,"Ġproducto":11268,"Ġpatients":11269,"Ġretailer":11270,"Ġliberal":11271,"jud":11272,"Ġnerf":11273,"Ġflips":11274,"Ġlengthy":11275,"Ġparticip":11276,"instructions":11277,"Ġprayers":11278,"Ġninja":11279,"Ġappliance":11280,"Ġpixelated":11281,"Ġstall":11282,"Ġcha":11283,"aming":11284,"Ġunpredictable":11285,"Ġbackdrop":11286,"Ġpilling":11287,"Ġstyrofoam":11288,"Ġgimm":11289,"Ġbeverage":11290,"Ġlex":11291,"Ġspit":11292,"Ġpeg":11293,"Ġheadlight":11294,"Ġsingers":11295,"Ġrollers":11296,"Ġlifts":11297,"Ġtechnically":11298,"Ġgallons":11299,"Ġwrenching":11300,"Ġtreadmill":11301,"Ġcarhartt":11302,"Ġmasc":11303,"Ġchlor":11304,"tedly":11305,"Ġmodified":11306,"Ġwreck":11307,"Ġnieces":11308,"three":11309,"perhaps":11310,"Ġyeti":11311,"Ġconserv":11312,"Ġgirly":11313,"Ġballet":11314,"Ġsleeper":11315,"Ġintellect":11316,"quis":11317,"Ġbrides":11318,"Ġremodel":11319,"Ġpassword":11320,"Ġgn":11321,"Ġhotter":11322,"Ġclosest":11323,"Ġcrossed":11324,"respond":11325,"Ġatmosphere":11326,"might":11327,"Ġhatch":11328,"Ġdug":11329,"Ġunz":11330,"Ġrode":11331,"Ġgladly":11332,"Ġdvr":11333,"Ġdiver":11334,"Ġtransit":11335,"Ġerr":11336,"Ġlaunder":11337,"Ġhistorically":11338,"Ġtravelling":11339,"Ġpest":11340,"itis":11341,"keep":11342,"Ġloaf":11343,"Ġtipped":11344,"Ġclancy":11345,"Ġprocessed":11346,"Ġflynn":11347,"Ġabsorbed":11348,"Ġsqueaky":11349,"Ġbrooks":11350,"Ġrachel":11351,"Ġfeat":11352,"Ġcorpor":11353,"Ġaccents":11354,"Ġbranded":11355,"Ġrepresentation":11356,"bey":11357,"Ġguilty":11358,"Ġcorrespond":11359,"angular":11360,"Ġconvincing":11361,"Ġmuscles":11362,"Ġpastor":11363,"Ġdiscovery":11364,"Ġodors":11365,"Ġbloody":11366,"Ġbinocular":11367,"Ġtroubleshooting":11368,"Ġtu":11369,"Ġexercising":11370,"Ġvegetable":11371,"Ġincandescent":11372,"Ġprops":11373,"Ġfriction":11374,"Ġdistress":11375,"Ġstinky":11376,"Ġskimming":11377,"Ġkittens":11378,"game":11379,"Ġbach":11380,"Ġstakes":11381,"ldom":11382,"rence":11383,"Ġstevia":11384,"Ġassorted":11385,"Ġesta":11386,"Ġgoofy":11387,"Ġou":11388,"Ġdl":11389,"Ġlongest":11390,"Ġrocket":11391,"Ġthrill":11392,"Ġautobio":11393,"Ġshrinkage":11394,"Ġfloats":11395,"truly":11396,"Ġreef":11397,"Ġdynamics":11398,"gling":11399,"Ġligh":11400,"beit":11401,"Ġmisplaced":11402,"Ġperry":11403,"Ġclient":11404,"Ġjohnson":11405,"Ġbulldog":11406,"Ġpropag":11407,"Ġpsychology":11408,"Ġquilting":11409,"Ġalphabet":11410,"Ġredemption":11411,"based":11412,"Ġwiz":11413,"Ġbt":11414,"Ġgp":11415,"road":11416,"Ġatleast":11417,"Ġslimmer":11418,"Ġsteven":11419,"Ġhumour":11420,"Ġrattles":11421,"Ġwealth":11422,"Ġrevenge":11423,"Ġrights":11424,"edia":11425,"Ġremake":11426,"Ġcreation":11427,"Ġintelligence":11428,"Ġamateurish":11429,"Ġmarvelous":11430,"Ġbikini":11431,"Ġhdd":11432,"oto":11433,"Ġremas":11434,"Ġbeard":11435,"Ġpoison":11436,"aud":11437,"aware":11438,"Ġengineer":11439,"Ġnapkins":11440,"Ġscenario":11441,"ost":11442,"Ġfired":11443,"Ġhex":11444,"Ġupbeat":11445,"Ġpurses":11446,"Ġscattered":11447,"Ġstrobe":11448,"Ġdinosaurs":11449,"Ġdozens":11450,"fal":11451,"ghan":11452,"Ġallot":11453,"Ġdiscription":11454,"Ġdecade":11455,"Ġoverpowering":11456,"Ġinconvenience":11457,"Ġagreed":11458,"Ġnud":11459,"Ġinputs":11460,"Ġscout":11461,"Ġcric":11462,"Ġcrumbled":11463,"Ġpromises":11464,"Ġflaking":11465,"Ġdefense":11466,"Ġattraction":11467,"olas":11468,"eria":11469,"force":11470,"Ġtraveled":11471,"Ġsharpie":11472,"Ġcombine":11473,"Ġdefected":11474,"Ġrecomended":11475,"Ġaggrav":11476,"ancing":11477,"Ġmoss":11478,"Ġtiger":11479,"ession":11480,"Ġfarther":11481,"Ġadvertized":11482,"Ġfeatured":11483,"Ġinadequate":11484,"Ġshri":11485,"Ġproce":11486,"Ġalbeit":11487,"Ġclues":11488,"Ġrains":11489,"Ġinvesting":11490,"Ġironed":11491,"Ġcancelled":11492,"fairly":11493,"barely":11494,"Ġcul":11495,"Ġlane":11496,"Ġviz":11497,"ishing":11498,"Ġunderwire":11499,"Ġdepression":11500,"Ġflights":11501,"Ġinfluence":11502,"Ġbrutal":11503,"Ġstencil":11504,"Ġbookshelf":11505,"inent":11506,"Ġnb":11507,"Ġawake":11508,"Ġpainfully":11509,"Ġsends":11510,"Ġvaried":11511,"Ġdoubled":11512,"Ġcondensation":11513,"Ġ2":11514,"alous":11515,"Ġlef":11516,"Ġclown":11517,"ounting":11518,"Ġminded":11519,"Ġgrinds":11520,"Ġessays":11521,"Ġchallenged":11522,"Ġcraftsman":11523,"hate":11524,"Ġvice":11525,"Ġunsafe":11526,"Ġstapler":11527,"oric":11528,"Ġaband":11529,"Ġspoiler":11530,"Ġlubric":11531,"rich":11532,"Ġdisapo":11533,"Ġcleared":11534,"Ġcorset":11535,"Ġgene":11536,"Ġcurios":11537,"Ġdrums":11538,"Ġproducing":11539,"Ġshrinks":11540,"Ġanchors":11541,"Ġhoover":11542,"Ġguidelines":11543,"Ġios":11544,"Ġkaren":11545,"Ġcoupl":11546,"osition":11547,"12":11548,"Ġsq":11549,"Ġmut":11550,"Ġmarath":11551,"Ġmemor":11552,"Ġgreg":11553,"Ġfloral":11554,"basically":11555,"thoroughly":11556,"Ġreminis":11557,"fasc":11558,"Ġwins":11559,"Ġreadjust":11560,"Ġcurls":11561,"Ġspouse":11562,"Ġboxers":11563,"Ġwinning":11564,"Ġunderside":11565,"Ġbodies":11566,"Ġthroat":11567,"ias":11568,"ological":11569,"Ġhides":11570,"already":11571,"seller":11572,"star":11573,"Ġseldom":11574,"Ġstorylines":11575,"Ġresort":11576,"Ġmustard":11577,"Ġcurling":11578,"Ġgeor":11579,"Ġparking":11580,"Ġduplicate":11581,"Ġpreparation":11582,"Ġacademic":11583,"Ġrhythm":11584,"Ġiced":11585,"Ġoval":11586,"ros":11587,"Ġbackside":11588,"Ġsuperman":11589,"Ġdrained":11590,"Ġbrian":11591,"Ġfootbed":11592,"Ġillustration":11593,"Ġinvolving":11594,"Ġsnagged":11595,"respons":11596,"mers":11597,"Ġtrib":11598,"Ġbreathing":11599,"fascinating":11600,"cha":11601,"Ġprobe":11602,"Ġtestament":11603,"Ġkorean":11604,"liter":11605,"Ġmitch":11606,"Ġslouch":11607,"Ġschools":11608,"Ġbumped":11609,"Ġwicked":11610,"bri":11611,"rus":11612,"Ġrats":11613,"Ġblad":11614,"connect":11615,"Ġstubborn":11616,"Ġexagger":11617,"Ġgrippy":11618,"Ġcookbooks":11619,"Ġfps":11620,"Ġhav":11621,"Ġpups":11622,"Ġmarking":11623,"Ġsplash":11624,"Ġlaminate":11625,"Ġcompens":11626,"Ġkevin":11627,"ontz":11628,"hello":11629,"Ġmotivation":11630,"Ġtexts":11631,"Ġwilson":11632,"Ġhaunting":11633,"Ġstilted":11634,"Ġdor":11635,"Ġbacklight":11636,"Ġhikes":11637,"Ġslit":11638,"Ġtrains":11639,"upid":11640,"Ġpacific":11641,"Ġunbearable":11642,"Ġhmm":11643,"aned":11644,"Ġunattractive":11645,"Ġpasses":11646,"Ġjacks":11647,"Ġtruths":11648,"Ġcaddy":11649,"Ġfist":11650,"ington":11651,"Ġirregular":11652,"Ġvisibility":11653,"Ġstroller":11654,"Ġglitches":11655,"Ġclingy":11656,"Ġdoug":11657,"Ġimperfections":11658,"Ġcind":11659,"Ġshy":11660,"Ġupload":11661,"Ġclippers":11662,"Ġsubw":11663,"Ġsubsequ":11664,"Ġdepiction":11665,"Ġgamer":11666,"Ġmant":11667,"Ġhorrific":11668,"Ġinnocent":11669,"Ġsatell":11670,"Ġlefto":11671,"acked":11672,"Ġcannon":11673,"Ġexped":11674,"Ġtouchscreen":11675,"Ġcommut":11676,"Ġtangle":11677,"Ġpunk":11678,"Ġchee":11679,"Ġwatery":11680,"Ġgrandp":11681,"Ġdoubts":11682,"Ġreliability":11683,"true":11684,"Ġresponsible":11685,"Ġbueno":11686,"ribution":11687,"Ġplaystation":11688,"Ġlooses":11689,"Ġcupboard":11690,"Ġessence":11691,"Ġmassage":11692,"Ġpioneer":11693,"Ġgrant":11694,"Ġdealership":11695,"Ġcomplains":11696,"Ġconform":11697,"Ġweaker":11698,"Ġprocessing":11699,"Ġsinks":11700,"Ġflashlights":11701,"Ġinteractive":11702,"Ġforcing":11703,"Ġstim":11704,"Ġbrushing":11705,"Ġzen":11706,"Ġcramp":11707,"Ġcontrolled":11708,"Ġsusp":11709,"Ġresearching":11710,"Ġstrawberry":11711,"Ġrooting":11712,"Ġhurricane":11713,"Ġtp":11714,"Ġron":11715,"Ġvase":11716,"Ġcutout":11717,"Ġbraided":11718,"Ġfunctioned":11719,"Ġlawyer":11720,"Ġglowing":11721,"Ġtemplate":11722,"unlike":11723,"Ġtypo":11724,"Ġfilthy":11725,"Ġhorrid":11726,"Ġratio":11727,"done":11728,"Ġwhim":11729,"Ġblake":11730,"Ġwinded":11731,"Ġchoke":11732,"Ġtuned":11733,"Ġspinner":11734,"Ġsmudge":11735,"Ġwhistles":11736,"zed":11737,"Ġwreat":11738,"ours":11739,"Ġsliced":11740,"Ġelvis":11741,"Ġcleanly":11742,"update":11743,"remel":11744,"Ġstellar":11745,"Ġyea":11746,"Ġdemons":11747,"Ġdocking":11748,"Ġrestaurants":11749,"worthless":11750,"Ġdyson":11751,"Ġklein":11752,"eve":11753,"Ġjag":11754,"Ġbruce":11755,"Ġhorrend":11756,"Ġefficiently":11757,"Ġwrapper":11758,"hea":11759,"Ġclicked":11760,"Ġmalt":11761,"Ġmushy":11762,"Ġfleshed":11763,"slight":11764,"Ġga":11765,"Ġspeck":11766,"ibble":11767,"Ġsata":11768,"Ġhooking":11769,"Ġproofread":11770,"yeah":11771,"Ġavery":11772,"Ġmes":11773,"Ġeject":11774,"Ġwishes":11775,"Ġdiscou":11776,"Ġmechanics":11777,"Ġanxiously":11778,"Ġhalogen":11779,"Ġtester":11780,"llas":11781,"Ġshuffle":11782,"Ġunse":11783,"Ġcarter":11784,"Ġacer":11785,"Ġentr":11786,"Ġlocker":11787,"Ġsoups":11788,"charact":11789,"Ġvictim":11790,"Ġstoryteller":11791,"Ġack":11792,"Ġdremel":11793,"Ġrelo":11794,"Ġeco":11795,"Ġdawn":11796,"Ġgraders":11797,"Ġemphasis":11798,"utter":11799,"ainty":11800,"Ġtimex":11801,"Ġscents":11802,"Ġbiting":11803,"Ġgrit":11804,"Ġcamc":11805,"bbie":11806,"Ġleakage":11807,"Ġassass":11808,"Ġexchanging":11809,"cony":11810,"Ġsquirrel":11811,"Ġsketchers":11812,"Ġdiabetic":11813,"Ġpronoun":11814,"Ġbelkin":11815,"Ġgrape":11816,"Ġradios":11817,"Ġplantar":11818,"Ġtempted":11819,"Ġappoin":11820,"Ġcartoons":11821,"Ġfocuses":11822,"front":11823,"Ġadmire":11824,"Ġdisintegrated":11825,"Ġorchest":11826,"Ġmish":11827,"anne":11828,"keys":11829,"Ġshatter":11830,"Ġblaz":11831,"Ġskid":11832,"Ġbunched":11833,"Ġhybr":11834,"Ġpork":11835,"Ġbanter":11836,"Ġwitness":11837,"Ġlumens":11838,"Ġmagnificent":11839,"za":11840,"Ġdeciding":11841,"Ġsym":11842,"Ġcushy":11843,"balls":11844,"incredibly":11845,"Ġcuriosity":11846,"Ġseper":11847,"apen":11848,"una":11849,"Ġcultures":11850,"itious":11851,"Ġunderst":11852,"Ġipads":11853,"Ġstreets":11854,"Ġchristianity":11855,"Ġpt":11856,"Ġinn":11857,"Ġchili":11858,"Ġcoinc":11859,"Ġbled":11860,"Ġfreight":11861,"Ġlatex":11862,"gri":11863,"sn":11864,"Ġpvc":11865,"Ġwhims":11866,"Ġunbe":11867,"Ġoccupied":11868,"Ġinterpretation":11869,"tub":11870,"your":11871,"Ġtheories":11872,"Ġdong":11873,"ieved":11874,"Ġpov":11875,"Ġreplaces":11876,"Ġmodification":11877,"Ġyellowish":11878,"Ġshelter":11879,"Ġinserting":11880,"Ġmichigan":11881,"Ġdisconnecting":11882,"batteries":11883,"Ġpokemon":11884,"Ġum":11885,"Ġdischar":11886,"Ġvw":11887,"Ġslap":11888,"yster":11889,"Ġmesses":11890,"Ġmaple":11891,"Ġrecycle":11892,"surprisingly":11893,"Ġprequel":11894,"father":11895,"ji":11896,"rough":11897,"Ġdainty":11898,"cia":11899,"Ġlegacy":11900,"Ġsanding":11901,"Ġharbor":11902,"Ġwelding":11903,"Ġofficer":11904,"Ġineffective":11905,"Ġcuss":11906,"Ġeh":11907,"rol":11908,"Ġcane":11909,"pless":11910,"Ġslam":11911,"Ġapplicable":11912,"mester":11913,"Ġabsorbing":11914,"Ġwilliam":11915,"iased":11916,"ugh":11917,"Ġtimber":11918,"Ġcruc":11919,"Ġimmers":11920,"Ġunbiased":11921,"Ġfrog":11922,"Ġvendors":11923,"Ġgadgets":11924,"Ġprefect":11925,"Ġmythology":11926,"Ġcocoa":11927,"Ġbou":11928,"Ġtogg":11929,"Ġeater":11930,"urious":11931,"Ġunsu":11932,"Ġevident":11933,"Ġverify":11934,"Ġjanet":11935,"Ġreordering":11936,"Ġchalkboard":11937,"Ġlinda":11938,"Ġrib":11939,"Ġdetailing":11940,"Ġdrown":11941,"Ġsalv":11942,"Ġagenda":11943,"Ġdisgusted":11944,"Ġbuena":11945,"Ġmoths":11946,"Ġspigen":11947,"Ġconventional":11948,"Ġbot":11949,"Ġkod":11950,"Ġrepub":11951,"Ġeric":11952,"Ġessay":11953,"Ġbluray":11954,"Ġanticipation":11955,"Ġrevis":11956,"Ġaustralian":11957,"Ġsqueezed":11958,"failed":11959,"mination":11960,"nest":11961,"Ġthou":11962,"Ġbisc":11963,"Ġnov":11964,"Ġeditions":11965,"Ġsubar":11966,"Ġrequesting":11967,"Ġposes":11968,"Ġdiesel":11969,"Ġleaning":11970,"several":11971,"Ġstupid":11972,"Ġshack":11973,"Ġguine":11974,"ucky":11975,"Ġbraz":11976,"Ġmotors":11977,"fying":11978,"Ġcompatibility":11979,"Ġessentials":11980,"lot":11981,"lamp":11982,"Ġgory":11983,"Ġsham":11984,"Ġasia":11985,"Ġexceed":11986,"Ġheadboard":11987,"Ġgrilling":11988,"Ġfingerprint":11989,"Ġduplicates":11990,"Ġsubscribe":11991,"kers":11992,"Ġdach":11993,"Ġkir":11994,"Ġkoh":11995,"Ġreplica":11996,"Ġrained":11997,"Ġremover":11998,"Ġsmoothie":11999,"Ġblending":12000,"Ġworrying":12001,"Ġaccompan":12002,"Ġsplinter":12003,"Ġgroove":12004,"defective":12005,"Ġchlorine":12006,"core":12007,"ept":12008,"Ġflims":12009,"Ġvalves":12010,"Ġlaminated":12011,"Ġpropaganda":12012,"false":12013,"lying":12014,"Ġsue":12015,"estruct":12016,"Ġspor":12017,"Ġincident":12018,"Ġsunsh":12019,"Ġdivider":12020,"Ġmarketed":12021,"Ġgerminated":12022,"Ġiii":12023,"Ġwim":12024,"Ġsaus":12025,"Ġpdf":12026,"left":12027,"chair":12028,"Ġmega":12029,"Ġexcell":12030,"Ġdelayed":12031,"ixed":12032,"Ġappreciation":12033,"Ġstripe":12034,"Ġteeny":12035,"Ġdol":12036,"Ġchickens":12037,"Ġaccordingly":12038,"Ġmiller":12039,"Ġmotivated":12040,"Ġrivets":12041,"Ġencounter":12042,"Ġintegrity":12043,"Ġanecdotes":12044,"Ġstrictly":12045,"Ġhamster":12046,"standard":12047,"oprene":12048,"Ġsubaru":12049,"priced":12050,"Ġbezel":12051,"Ġchime":12052,"Ġabilities":12053,"Ġlend":12054,"Ġbobb":12055,"fortably":12056,"izations":12057,"Ġsigned":12058,"Ġmileage":12059,"Ġutilize":12060,"ckets":12061,"pill":12062,"Ġkings":12063,"Ġdisci":12064,"Ġdefault":12065,"Ġmarble":12066,"Ġdiving":12067,"Ġpreventing":12068,"Ġtorch":12069,"Ġrendered":12070,"Ġenthralled":12071,"fers":12072,"warm":12073,"Ġara":12074,"Ġreduction":12075,"Ġbully":12076,"Ġconne":12077,"Ġvizio":12078,"nity":12079,"pos":12080,"sion":12081,"aco":12082,"Ġbogged":12083,"Ġslider":12084,"Ġsonic":12085,"Ġelite":12086,"Ġbelieving":12087,"Ġyoungest":12088,"Ġmornings":12089,"Ġkicked":12090,"Ġbrazil":12091,"edge":12092,"Ġanat":12093,"Ġcoh":12094,"Ġfrying":12095,"Ġdism":12096,"Ġscro":12097,"Ġclaw":12098,"reads":12099,"Ġgrams":12100,"Ġconversion":12101,"literally":12102,"Ġjordan":12103,"Ġrotten":12104,"Ġcardigan":12105,"Ġblem":12106,"Ġinvolve":12107,"Ġexposing":12108,"Ġanger":12109,"weak":12110,"Ġwarp":12111,"Ġcleanup":12112,"Ġtrained":12113,"tons":12114,"Ġentering":12115,"certain":12116,"Ġadventur":12117,"Ġestate":12118,"Ġflickers":12119,"Ġrenting":12120,"Ġdomin":12121,"Ġvirus":12122,"Ġdiscoloration":12123,"Ġtribute":12124,"Ġonion":12125,"ulas":12126,"Ġsum":12127,"Ġpaperweight":12128,"Ġslowed":12129,"Ġcollected":12130,"Ġsoldier":12131,"Ġhydro":12132,"Ġtongs":12133,"card":12134,"hero":12135,"mint":12136,"recommend":12137,"Ġweaving":12138,"Ġneoprene":12139,"Ġmellow":12140,"Ġleer":12141,"Ġpoetic":12142,"Ġadj":12143,"Ġshops":12144,"Ġendure":12145,"Ġoldest":12146,"Ġsappy":12147,"Ġverb":12148,"Ġincreasing":12149,"Ġdarling":12150,"Ġtolerate":12151,"Ġcoleman":12152,"Ġdiagno":12153,"Ġruler":12154,"Ġhorrendous":12155,"hib":12156,"iac":12157,"Ġole":12158,"Ġea":12159,"Ġallergy":12160,"brought":12161,"Ġnorthern":12162,"Ġpropane":12163,"Ġhamilton":12164,"Ġvariation":12165,"Ġengrossed":12166,"Ġdiscussed":12167,"Ġegyptian":12168,"Ġintertwined":12169,"clo":12170,"Ġfas":12171,"icop":12172,"Ġprofit":12173,"Ġdefinit":12174,"Ġindestruct":12175,"arrhea":12176,"Ġflashy":12177,"Ġbrainer":12178,"Ġfian":12179,"itations":12180,"ari":12181,"Ġruff":12182,"shund":12183,"Ġbeliever":12184,"Ġmetric":12185,"Ġaudi":12186,"Ġodds":12187,"orant":12188,"orker":12189,"Ġrome":12190,"Ġsucc":12191,"Ġhobb":12192,"ishes":12193,"bee":12194,"before":12195,"Ġoriented":12196,"Ġdiarrhea":12197,"Ġpiercing":12198,"Ġsacrifice":12199,"Ġinnovative":12200,"Ġdachshund":12201,"ML":12202,"XML":12203,"asm":12204,"Ġgoose":12205,"thes":12206,"actic":12207,"Ġgod":12208,"Ġadvertises":12209,"veloped":12210,"Ġdeploy":12211,"Ġglobal":12212,"Ġbooties":12213,"Ġtitled":12214,"Ġblended":12215,"ficial":12216,"Ġpaintings":12217,"Ġsqueaking":12218,"Ġsf":12219,"Ġbry":12220,"otive":12221,"Ġsandra":12222,"Ġfeeders":12223,"Ġtunic":12224,"Ġangled":12225,"Ġmoore":12226,"Ġergonomic":12227,"Ġbinoculars":12228,"Ġguinea":12229,"ulk":12230,"Ġspacing":12231,"Ġmucho":12232,"Ġclumps":12233,"Ġbunches":12234,"Ġverse":12235,"Ġstrangely":12236,"Ġscriptures":12237,"Ġbins":12238,"Ġoreg":12239,"Ġrude":12240,"Ġrecomm":12241,"Ġmanager":12242,"Ġsquished":12243,"Ġanticipate":12244,"Ġhesitation":12245,"Ġstraws":12246,"Ġmurders":12247,"Ġskype":12248,"Ġbarbara":12249,"Ġunfolded":12250,"Ġarrangement":12251,"Ġoregon":12252,"Ġbookstore":12253,"iliar":12254,"Ġperfor":12255,"Ġknuck":12256,"Ġhandheld":12257,"Ġmissh":12258,"Ġfilmed":12259,"Ġarmour":12260,"Ġchewers":12261,"Ġkicking":12262,"fabulous":12263,"Ġhomeschool":12264,"Ġlauren":12265,"Ġcamcorder":12266,"eh":12267,"kill":12268,"Ġpuck":12269,"Ġcongr":12270,"Ġhelicop":12271,"izable":12272,"Ġdifficulties":12273,"Ġbreakage":12274,"Ġremoves":12275,"Ġbushing":12276,"Ġpillowcase":12277,"Ġchromebook":12278,"bright":12279,"Ġpliable":12280,"ila":12281,"Ġlevis":12282,"lighter":12283,"Ġinterch":12284,"Ġedible":12285,"Ġartistic":12286,"Ġimproper":12287,"Ġfights":12288,"Ġpunches":12289,"Ġalmonds":12290,"Ġghz":12291,"erra":12292,"Ġgummy":12293,"Ġreinstall":12294,"Ġsheen":12295,"Ġgru":12296,"Ġdraft":12297,"Ġavi":12298,"posed":12299,"Ġfixes":12300,"Ġcatalog":12301,"Ġmerrell":12302,"Ġoverheating":12303,"Ġkoontz":12304,"Ġsubwoofer":12305,"Ġprotr":12306,"boots":12307,"Ġchopping":12308,"Ġbeatles":12309,"Ġsmoked":12310,"Ġbooster":12311,"Ġkenned":12312,"Ġlucy":12313,"Ġmazda":12314,"Ġbladder":12315,"itect":12316,"enn":12317,"Ġseperate":12318,"Ġrecon":12319,"returning":12320,"delicious":12321,"Ġsarc":12322,"Ġkhaki":12323,"Ġcollapses":12324,"person":12325,"Ġlion":12326,"isex":12327,"apple":12328,"washed":12329,"Ġbeneath":12330,"Ġstatue":12331,"Ġbouncing":12332,"Ġwaffles":12333,"Ġproportion":12334,"Ġsporad":12335,"taking":12336,"Ġlatter":12337,"Ġreed":12338,"Ġchasing":12339,"Ġconjun":12340,"Ġpoem":12341,"Ġcrashing":12342,"Ġdimin":12343,"Ġarchitect":12344,"Ġdongle":12345,"pse":12346,"Ġreattach":12347,"Ġprope":12348,"Ġboiled":12349,"Ġsnapping":12350,"Ġresin":12351,"Ġmuse":12352,"Ġcharacterization":12353,"Ġgrabbing":12354,"Ġridge":12355,"Ġdistances":12356,"Ġdistraction":12357,"Ġfighter":12358,"Ġplanting":12359,"Ġsherlock":12360,"fil":12361,"Ġsignature":12362,"Ġbeneficial":12363,"Ġoptics":12364,"Ġberry":12365,"oke":12366,"try":12367,"Ġdating":12368,"Ġinqu":12369,"Ġyan":12370,"Ġphase":12371,"Ġpresence":12372,"Ġsorta":12373,"Ġpigs":12374,"Ġchampion":12375,"Ġspoilers":12376,"camera":12377,"Ġcorroded":12378,"Ġpipes":12379,"Ġsquishy":12380,"Ġshining":12381,"Ġalarms":12382,"Ġnightstand":12383,"Ġpresses":12384,"Ġcalming":12385,"graphical":12386,"Ġnetgear":12387,"help":12388,"Ġpreachy":12389,"ya":12390,"onts":12391,"Ġfears":12392,"augh":12393,"Ġministry":12394,"Ġstepping":12395,"Ġgender":12396,"Ġtherapist":12397,"Ġuncomfortably":12398,"Ġfunniest":12399,"Ġjessica":12400,"bot":12401,"Ġlac":12402,"Ġlent":12403,"Ġproph":12404,"Ġreform":12405,"Ġmodifications":12406,"Ġgenerator":12407,"Ġcancelling":12408,"Ġcriminal":12409,"Ġbeverages":12410,"AI":12411,"EM":12412,"ben":12413,"bows":12414,"christ":12415,"Ġflake":12416,"Ġimpr":12417,"Ġreplaceable":12418,"Ġballast":12419,"Ġbathtub":12420,"AIL":12421,"EMAIL":12422,"Ġsor":12423,"Ġdans":12424,"Ġell":12425,"Ġunfor":12426,"Ġadams":12427,"Ġribs":12428,"Ġpeoples":12429,"Ġdrastic":12430,"Ġcaller":12431,"Ġpeeler":12432,"Ġmaid":12433,"Ġtougher":12434,"Ġmisrepresented":12435,"original":12436,"Ġhybrid":12437,"Ġconjunction":12438,"dling":12439,"vest":12440,"Ġpug":12441,"tech":12442,"Ġextent":12443,"Ġfilament":12444,"Ġreveals":12445,"Ġplunger":12446,"Ġrecliner":12447,"Ġconnelly":12448,"Ġicing":12449,"Ġinstance":12450,"Ġlighted":12451,"Ġaffects":12452,"Ġhemmed":12453,"Ġappliances":12454,"Ġvulner":12455,"pot":12456,"Ġaer":12457,"Ġdamages":12458,"Ġbias":12459,"Ġtargets":12460,"Ġaddressed":12461,"glue":12462,"Ġreduces":12463,"Ġxt":12464,"Ġpas":12465,"Ġrider":12466,"Ġdispense":12467,"cking":12468,"Ġtrace":12469,"Ġdrivel":12470,"Ġprescription":12471,"excelent":12472,"Ġspotty":12473,"opard":12474,"Ġcontinuity":12475,"Ġspectrum":12476,"Ġcautious":12477,"ople":12478,"Ġnancy":12479,"orton":12480,"Ġphant":12481,"tinguish":12482,"Ġinsul":12483,"Ġjosh":12484,"exc":12485,"Ġgraduate":12486,"Ġbanged":12487,"Ġghosts":12488,"Ġjulia":12489,"Ġttl":12490,"win":12491,"Ġshaw":12492,"Ġaloud":12493,"Ġadmin":12494,"Ġrelatives":12495,"poon":12496,"Ġviewer":12497,"Ġdestroying":12498,"Ġkorea":12499,"mic":12500,"Ġbough":12501,"Ġfare":12502,"Ġtees":12503,"Ġturntable":12504,"Ġaddicting":12505,"Ġinfuser":12506,"Ġrocky":12507,"Ġkiddos":12508,"Ġmarathon":12509,"Ġrepublic":12510,"his":12511,"hum":12512,"ipher":12513,"Ġkara":12514,"Ġdiffuser":12515,"Ġmommy":12516,"Ġassess":12517,"Ġskimpy":12518,"Ġkennel":12519,"Ġblinds":12520,"Ġscrapbook":12521,"Ġkitties":12522,"gift":12523,"Ġmig":12524,"lley":12525,"Ġbarefoot":12526,"Ġdoorbell":12527,"ieties":12528,"Ġmagnification":12529,"Ġlatin":12530,"Ġmisspelled":12531,"orie":12532,"othy":12533,"Ġcleaners":12534,"shirts":12535,"Ġsmeared":12536,"Ġsyno":12537,"something":12538,"Ġdocumented":12539,"Ġrecharging":12540,"Ġnavigation":12541,"pir":12542,"Ġinject":12543,"Ġrims":12544,"Ġembo":12545,"Ġcapital":12546,"Ġsharper":12547,"Ġnearby":12548,"Ġcountless":12549,"Ġbungee":12550,"aneously":12551,"Ġoperates":12552,"Ġcreased":12553,"Ġshredding":12554,"Ġexploring":12555,"Ġreminiscent":12556,"tight":12557,"Ġts":12558,"Ġdow":12559,"Ġyuk":12560,"Ġdisagree":12561,"Ġvin":12562,"Ġdesper":12563,"Ġdiverse":12564,"cop":12565,"Ġobama":12566,"lette":12567,"const":12568,"Ġbilly":12569,"Ġstationary":12570,"Ġdumped":12571,"Ġpajama":12572,"Ġhoops":12573,"labeled":12574,"Ġmaternity":12575,"cers":12576,"Ġsir":12577,"erent":12578,"Ġcosting":12579,"ggers":12580,"Ġdisclo":12581,"Ġspecies":12582,"Ġcontaining":12583,"Ġimproving":12584,"Ġreferred":12585,"Ġgathering":12586,"Ġpivot":12587,"Ġfuses":12588,"Ġchested":12589,"Ġsears":12590,"Ġsweats":12591,"Ġflowy":12592,"Ġanswering":12593,"Ġdetachable":12594,"Ġeconomy":12595,"Ġvariations":12596,"Ġpaleo":12597,"Ġskiing":12598,"terrific":12599,"responsive":12600,"Ġreun":12601,"Ġrebuild":12602,"ader":12603,"Ġrural":12604,"Ġunopened":12605,"Ġrecommends":12606,"Ġroasted":12607,"Ġsouls":12608,"Ġdonating":12609,"Ġvibe":12610,"Ġhyper":12611,"Ġdingy":12612,"Ġdoctors":12613,"Ġsatellite":12614,"Ġticks":12615,"Ġdosent":12616,"Ġchess":12617,"Ġgluing":12618,"Ġresident":12619,"holes":12620,"Ġfocusing":12621,"Ġmasters":12622,"Ġsandwiches":12623,"slightly":12624,"Ġkennedy":12625,"bars":12626,"hose":12627,"Ġnib":12628,"Ġapplies":12629,"Ġlabeling":12630,"Ġversatility":12631,"Ġflattened":12632,"Ġrendition":12633,"Ġfranch":12634,"kia":12635,"tes":12636,"arge":12637,"estry":12638,"Ġfuller":12639,"Ġplanes":12640,"Ġromp":12641,"Ġvolts":12642,"Ġpotentially":12643,"Ġpodcast":12644,"Ġdetermination":12645,"Ġluxurious":12646,"Ġengraving":12647,"Ġaven":12648,"ala":12649,"Ġalle":12650,"Ġmanga":12651,"Ġdraining":12652,"Ġcookware":12653,"Ġlively":12654,"Ġseamless":12655,"Ġxxxl":12656,"Ġstructured":12657,"Ġmanipulate":12658,"Ġunimpressed":12659,"Ġsettled":12660,"Ġfought":12661,"icable":12662,"irable":12663,"Ġdecks":12664,"Ġcleats":12665,"movie":12666,"oscope":12667,"Ġcurly":12668,"Ġadjusts":12669,"Ġsweetness":12670,"Ġmolding":12671,"Ġgaskets":12672,"Ġaddresses":12673,"Ġtelephone":12674,"Ġimplausible":12675,"Ġsuspenders":12676,"Ġfianc":12677,"Ġaz":12678,"Ġcaffe":12679,"ima":12680,"Ġglory":12681,"ractical":12682,"Ġscarves":12683,"Ġscanning":12684,"Ġnotebooks":12685,"Ġhazel":12686,"Ġapocalyptic":12687,"quer":12688,"amental":12689,"Ġprejud":12690,"abby":12691,"Ġheadaches":12692,"Ġskates":12693,"Ġcraving":12694,"Ġsalads":12695,"Ġanimated":12696,"Ġawareness":12697,"Ġencouragement":12698,"compared":12699,"Ġcrawl":12700,"Ġparallel":12701,"Ġstanley":12702,"hat":12703,"Ġtense":12704,"Ġhart":12705,"Ġjung":12706,"unable":12707,"Ġunisex":12708,"Ġunresponsive":12709,"Ġflask":12710,"Ġdiapers":12711,"Ġcalorie":12712,"Ġrustic":12713,"graphic":12714,"Ġengineered":12715,"Ġformulaic":12716,"Ġmerc":12717,"otics":12718,"Ġbeagle":12719,"Ġleon":12720,"Ġdvi":12721,"Ġelasticity":12722,"herent":12723,"Ġjoseph":12724,"Ġindestructible":12725,"Ġnause":12726,"Ġbroom":12727,"Ġinstructional":12728,"Ġrests":12729,"Ġsprint":12730,"Ġkeyboards":12731,"Ġmelody":12732,"Ġimprovements":12733,"Ġencouraged":12734,"andel":12735,"Ġinstal":12736,"Ġjogging":12737,"Ġshorten":12738,"Ġsurpass":12739,"comfy":12740,"logies":12741,"Ġcompressed":12742,"Ġmasks":12743,"Ġacknow":12744,"gives":12745,"nas":12746,"pool":12747,"Ġparr":12748,"Ġky":12749,"ouses":12750,"bean":12751,"Ġwarren":12752,"Ġparticle":12753,"Ġlinked":12754,"Ġdemo":12755,"Ġblurred":12756,"black":12757,"Ġbroadcast":12758,"Ġdummies":12759,"Ġphantom":12760,"Ġaka":12761,"Ġfred":12762,"Ġnada":12763,"Ġvalley":12764,"people":12765,"assy":12766,"Ġcrum":12767,"dogs":12768,"Ġwhereas":12769,"Ġperiodically":12770,"built":12771,"Ġempire":12772,"Ġpassionate":12773,"Ġvillage":12774,"Ġsprinkler":12775,"Ġreluctant":12776,"home":12777,"Ġbarr":12778,"Ġbeck":12779,"Ġchords":12780,"Ġjug":12781,"Ġammo":12782,"inex":12783,"Ġscul":12784,"Ġpeak":12785,"Ġrelay":12786,"Ġkeypad":12787,"Ġfiltered":12788,"arently":12789,"orkers":12790,"Ġharmony":12791,"Ġmurderer":12792,"bid":12793,"Ġace":12794,"Ġredo":12795,"Ġepo":12796,"Ġdisabled":12797,"Ġflair":12798,"Ġarriving":12799,"Ġtasteless":12800,"Ġgrandfather":12801,"Ġemily":12802,"Ġcrapped":12803,"Ġconsideration":12804,"Ġsweetener":12805,"Ġcatcher":12806,"Ġengagement":12807,"Ġtacoma":12808,"frame":12809,"Ġsuspension":12810,"cus":12811,"Ġtart":12812,"Ġbour":12813,"Ġshears":12814,"thew":12815,"Ġnokia":12816,"Ġremedy":12817,"Ġverified":12818,"Ġcrimes":12819,"Ġdepressed":12820,"Ġpunched":12821,"Ġcoworkers":12822,"Ġextends":12823,"Ġconclusions":12824,"ribute":12825,"Ġdysfunctional":12826,"Ġgrandparents":12827,"Ġfranchise":12828,"died":12829,"sive":12830,"Ġrite":12831,"psided":12832,"Ġjealous":12833,"Ġafghan":12834,"Ġshifting":12835,"Ġcomplexity":12836,"Ġmartial":12837,"Ġquarters":12838,"Ġexploration":12839,"Ġfate":12840,"Ġfrig":12841,"Ġlle":12842,"Ġguts":12843,"Ġinks":12844,"Ġchilly":12845,"Ġoffset":12846,"Ġslicing":12847,"expensive":12848,"Ġvarieties":12849,"check":12850,"Ġqc":12851,"Ġphrase":12852,"Ġoakley":12853,"Ġcaffeine":12854,"Ġbage":12855,"Ġddd":12856,"Ġreapp":12857,"Ġcomed":12858,"Ġmaroon":12859,"Ġminecraft":12860,"Ġtreating":12861,"Ġrotors":12862,"Ġsodium":12863,"tiny":12864,"Ġfax":12865,"Ġez":12866,"Ġpriceless":12867,"Ġplayback":12868,"Ġcorks":12869,"Ġblackout":12870,"Ġcollections":12871,"Ġparks":12872,"Ġcountertop":12873,"Ġresetting":12874,"Ġirritation":12875,"Ġstacked":12876,"Ġtextbooks":12877,"Ġwitches":12878,"Ġcalibrate":12879,"Ġplumber":12880,"Ġlounging":12881,"Ġengraved":12882,"Ġundershirt":12883,"Ġgou":12884,"Ġjas":12885,"Ġneil":12886,"Ġcoax":12887,"ainted":12888,"Ġscifi":12889,"uitous":12890,"Ġweighing":12891,"Ġlanterns":12892,"Ġcarpets":12893,"rather":12894,"walk":12895,"Ġip":12896,"Ġcities":12897,"orous":12898,"Ġpap":12899,"Ġupstairs":12900,"Ġindul":12901,"Ġmediums":12902,"Ġdimm":12903,"Ġmorgan":12904,"Ġdisplaying":12905,"Ġpatrick":12906,"flon":12907,"Ġcrop":12908,"Ġportrays":12909,"Ġmexican":12910,"Ġaustin":12911,"Ġinsanely":12912,"Ġrectangular":12913,"Ġemployees":12914,"Ġprofessionals":12915,"inexpensive":12916,"cular":12917,"cards":12918,"lings":12919,"Ġtha":12920,"Ġsage":12921,"Ġlopsided":12922,"Ġcones":12923,"Ġcarbs":12924,"Ġowns":12925,"Ġfanatic":12926,"Ġswapped":12927,"Ġcoffees":12928,"Ġsequins":12929,"Ġchocolates":12930,"Ġjamie":12931,"Ġelectrician":12932,"Ġhamper":12933,"Ġprecisely":12934,"Ġsincerely":12935,"xx":12936,"Ġpuma":12937,"step":12938,"Ġans":12939,"Ġconvey":12940,"Ġspaced":12941,"Ġunderwhel":12942,"Ġattic":12943,"umba":12944,"Ġincompat":12945,"Ġscuffs":12946,"Ġarthur":12947,"avery":12948,"birds":12949,"zero":12950,"Ġtah":12951,"Ġandy":12952,"Ġeagle":12953,"Ġlovable":12954,"apor":12955,"Ġhefty":12956,"Ġmeg":12957,"Ġench":12958,"Ġdefinitive":12959,"Ġdrinker":12960,"Ġtailored":12961,"Ġmanageable":12962,"Ġticking":12963,"Ġturtles":12964,"Ġonions":12965,"Ġcomcast":12966,"Ġadop":12967,"Ġcontribut":12968,"Ġpeek":12969,"Ġcurled":12970,"Ġupdating":12971,"Ġmoderately":12972,"Ġanticipating":12973,"Ġresponding":12974,"Ġphilips":12975,"anov":12976,"Ġexplorer":12977,"Ġluxury":12978,"Ġinvaluable":12979,"stream":12980,"Ġseattle":12981,"Ġbuggy":12982,"Ġpeppers":12983,"ubs":12984,"Ġedc":12985,"Ġcoffe":12986,"Ġstriped":12987,"Ġmiche":12988,"Ġirritate":12989,"Ġenhanced":12990,"Ġwarrior":12991,"Ġced":12992,"orice":12993,"ulum":12994,"Ġwayne":12995,"Ġwallets":12996,"Ġcombinations":12997,"Ġmerchant":12998,"Ġretirement":12999,"Ġtapered":13000,"jet":13001,"Ġpays":13002,"Ġexisted":13003,"Ġredes":13004,"Ġpastel":13005,"hop":13006,"Ġexists":13007,"Ġweighed":13008,"Ġdivor":13009,"bulb":13010,"Ġobscure":13011,"Ġmiserable":13012,"Ġdownward":13013,"Ġimho":13014,"Ġfiling":13015,"Ġchopped":13016,"Ġmidnight":13017,"Ġflavoring":13018,"player":13019,"Ġranch":13020,"Ġspoken":13021,"Ġcasio":13022,"Ġrabbits":13023,"Ġnecessity":13024,"Ġnostalgia":13025,"Ġwreath":13026,"Ġitch":13027,"Ġoverhead":13028,"Ġregulator":13029,"Ġconspir":13030,"Ġpowering":13031,"Ġheartbeat":13032,"Ġpinched":13033,"Ġjeweler":13034,"Ġwiping":13035,"caust":13036,"Ġnicholas":13037,"Ġholocaust":13038,"Ġretrieve":13039,"cur":13040,"Ġshaving":13041,"Ġcheek":13042,"Ġteflon":13043,"Ġflashback":13044,"Ġselfie":13045,"Ġlunches":13046,"logist":13047,"Ġbounces":13048,"misleading":13049,"Ġhighlighted":13050,"fine":13051,"mates":13052,"uated":13053,"enna":13054,"Ġcustomize":13055,"Ġforgiving":13056,"Ġinevit":13057,"Ġscreaming":13058,"mat":13059,"Ġwaking":13060,"Ġwagon":13061,"rian":13062,"ripped":13063,"lost":13064,"Ġwatercolor":13065,"Ġnonstick":13066,"Ġobstacles":13067,"Ġore":13068,"Ġcf":13069,"Ġnt":13070,"leans":13071,"Ġoutlook":13072,"Ġrecived":13073,"Ġfoggy":13074,"Ġsuperhero":13075,"Ġintimate":13076,"Ġhugh":13077,"Ġdutch":13078,"overpriced":13079,"Ġcells":13080,"Ġvacuuming":13081,"Ġdetected":13082,"Ġresemble":13083,"Ġpuffy":13084,"vs":13085,"Ġelli":13086,"Ġyum":13087,"Ġwhirl":13088,"Ġsemester":13089,"Ġrecept":13090,"Ġshih":13091,"Ġbulge":13092,"Ġrocking":13093,"Ġjamming":13094,"Ġventilation":13095,"Ġauthenticity":13096,"Ġmuffins":13097,"Ġoverheat":13098,"Ġjimmy":13099,"recieved":13100,"Ġbis":13101,"Ġmund":13102,"atha":13103,"coat":13104,"Ġpurely":13105,"Ġinstrumental":13106,"Ġfrills":13107,"haw":13108,"Ġaired":13109,"Ġthier":13110,"organ":13111,"inding":13112,"Ġadores":13113,"Ġmislead":13114,"viously":13115,"engu":13116,"Ġhumble":13117,"Ġmacro":13118,"Ġintroduct":13119,"Ġvictoria":13120,"Ġdessert":13121,"20":13122,"Ġreim":13123,"Ġbeeping":13124,"ela":13125,"aph":13126,"estic":13127,"Ġtimeline":13128,"Ġuninsp":13129,"lips":13130,"Ġheadrest":13131,"Ġreposition":13132,"Ġplanter":13133,"Ġviewpoint":13134,"Ġindicating":13135,"Ġbrilliantly":13136,"Ġreproduction":13137,"Ġsucceed":13138,"Ġadventurous":13139,"ban":13140,"Ġwy":13141,"Ġect":13142,"upon":13143,"Ġgravel":13144,"Ġstudied":13145,"Ġupgrading":13146,"Ġzebra":13147,"Ġvillains":13148,"Ġsausage":13149,"igning":13150,"Ġrunners":13151,"Ġcamry":13152,"Ġcontrolling":13153,"Ġknowledgeable":13154,"Ġvisuals":13155,"Ġunfolds":13156,"brand":13157,"Ġome":13158,"otica":13159,"Ġorleans":13160,"Ġunav":13161,"Ġoverl":13162,"Ġfunnel":13163,"Ġsentiment":13164,"Ġinvict":13165,"Ġtransferred":13166,"Ġjerry":13167,"Ġfoolish":13168,"Ġbridal":13169,"easily":13170,"Ġconservative":13171,"allas":13172,"Ġwhip":13173,"Ġsmash":13174,"Ġknifes":13175,"Ġteva":13176,"izers":13177,"Ġpersona":13178,"Ġcredible":13179,"Ġdoubles":13180,"apparently":13181,"Ġidentity":13182,"Ġcondensed":13183,"Ġoxo":13184,"Ġmortar":13185,"Ġtidy":13186,"Ġuggs":13187,"Ġanatomy":13188,"Ġdiana":13189,"mel":13190,"Ġlily":13191,"Ġworms":13192,"Ġsean":13193,"Ġsple":13194,"Ġvoy":13195,"Ġcheers":13196,"Ġchecks":13197,"Ġwaves":13198,"Ġcorrupt":13199,"Ġtimers":13200,"Ġinstalls":13201,"Ġembr":13202,"Ġdrywall":13203,"Ġmermaid":13204,"Ġfaithful":13205,"Ġexclusively":13206,"helpful":13207,"oult":13208,"Ġpointer":13209,"Ġpointing":13210,"note":13211,"Ġsmear":13212,"Ġmaggie":13213,"Ġlearns":13214,"Ġtuna":13215,"john":13216,"Ġunevenly":13217,"Ġcaveat":13218,"parts":13219,"nde":13220,"Ġcs":13221,"itz":13222,"Ġforks":13223,"Ġleopard":13224,"Ġshoel":13225,"Ġclint":13226,"Ġcardio":13227,"Ġerotica":13228,"Ġcounty":13229,"Ġtommy":13230,"Ġmercy":13231,"Ġmaintaining":13232,"Ġdevotion":13233,"Ġvalentines":13234,"Ġrehash":13235,"Ġfasci":13236,"Ġpengu":13237,"Ġyield":13238,"Ġcomical":13239,"anting":13240,"peare":13241,"Ġmustang":13242,"Ġmaine":13243,"flower":13244,"Ġcommands":13245,"Ġaxe":13246,"Ġscotland":13247,"durable":13248,"Ġstumbled":13249,"Ġliz":13250,"Ġrank":13251,"Ġdiscer":13252,"Ġgravity":13253,"Ġringer":13254,"Ġobjective":13255,"Ġmatthew":13256,"Ġlicorice":13257,"Ġoverheated":13258,"Ġsauces":13259,"Ġkernels":13260,"Ġaesthetically":13261,"Ġappoint":13262,"Ġtoggle":13263,"Ġinterchange":13264,"Ġhast":13265,"ulu":13266,"Ġoverlooked":13267,"Ġzumba":13268,"Ġinvo":13269,"Ġcourses":13270,"ridiculous":13271,"iko":13272,"Ġcontempl":13273,"fia":13274,"iw":13275,"rous":13276,"Ġstu":13277,"Ġwhisk":13278,"Ġcoz":13279,"Ġglows":13280,"Ġsecuring":13281,"Ġtramp":13282,"Ġannoun":13283,"Ġselfish":13284,"packaging":13285,"ocr":13286,"Ġbananas":13287,"Ġradiator":13288,"Ġgruesome":13289,"Ġcedar":13290,"Ġenforce":13291,"icked":13292,"Ġsoooooo":13293,"Ġscrubbing":13294,"Ġmash":13295,"Ġhills":13296,"Ġdallas":13297,"Ġtwe":13298,"Ġdiscre":13299,"Ġantennas":13300,"Ġfifteen":13301,"Ġberries":13302,"Ġapocalypse":13303,"Ġcosmetic":13304,"Ġtoasty":13305,"Ġseag":13306,"Ġrates":13307,"Ġdebbie":13308,"Ġspind":13309,"Ġhandset":13310,"Ġfiner":13311,"Ġfinishes":13312,"Ġsuspic":13313,"Ġcircumference":13314,"Ġwizard":13315,"Ġarab":13316,"ran":13317,"zers":13318,"Ġdup":13319,"Ġpoking":13320,"Ġeastern":13321,"Ġadap":13322,"Ġexceeds":13323,"Ġdelta":13324,"Ġgamble":13325,"Ġbanks":13326,"Ġvirgin":13327,"Ġsqueezing":13328,"Ġbubbled":13329,"Ġpjs":13330,"Ġnostalgic":13331,"Ġdiscarded":13332,"30":13333,"Ġdings":13334,"aron":13335,"ican":13336,"Ġshams":13337,"Ġquinn":13338,"Ġfinder":13339,"Ġsimon":13340,"Ġswings":13341,"Ġsteth":13342,"Ġsprung":13343,"Ġbooty":13344,"Ġpillowcases":13345,"Ġhyd":13346,"Ġshakespeare":13347,"characters":13348,"Ġparen":13349,"Ġht":13350,"uries":13351,"Ġteams":13352,"Ġflatter":13353,"Ġslows":13354,"Ġquicken":13355,"Ġsadd":13356,"Ġhopeless":13357,"Ġprinc":13358,"pods":13359,"Ġlayering":13360,"Ġabsorbs":13361,"Ġwelds":13362,"Ġbranch":13363,"strap":13364,"Ġgmc":13365,"Ġgratuitous":13366,"Ġsuprised":13367,"ox":13368,"erved":13369,"Ġdental":13370,"Ġkra":13371,"Ġthrott":13372,"weird":13373,"Ġswipe":13374,"Ġsolves":13375,"lson":13376,"Ġsyl":13377,"Ġhdtv":13378,"Ġpicnic":13379,"Ġbumpy":13380,"Ġdistracted":13381,"Ġprogressed":13382,"Ġukule":13383,"Ġjulie":13384,"Ġembroidered":13385,"Ġadopted":13386,"hist":13387,"Ġnoticing":13388,"igo":13389,"Ġteap":13390,"Ġplastics":13391,"Ġmarie":13392,"Ġcommute":13393,"Ġcros":13394,"Ġdiscovering":13395,"Ġaxle":13396,"Ġpulp":13397,"Ġcitizen":13398,"bol":13399,"Ġmama":13400,"Ġrecessed":13401,"Ġscented":13402,"Ġcools":13403,"Ġsubpar":13404,"Ġtracker":13405,"Ġpumped":13406,"Ġrocker":13407,"Ġknocking":13408,"Ġfirmer":13409,"Ġinflatable":13410,"Ġunsatisfactory":13411,"Ġunbeatable":13412,"100":13413,"hated":13414,"lest":13415,"uel":13416,"Ġaids":13417,"Ġcav":13418,"Ġhannah":13419,"Ġsender":13420,"Ġvince":13421,"Ġendured":13422,"airy":13423,"Ġautism":13424,"Ġavo":13425,"Ġgriffin":13426,"Ġeleven":13427,"Ġdissip":13428,"Ġburied":13429,"gae":13430,"onald":13431,"Ġolympus":13432,"Ġautobiography":13433,"glasses":13434,"Ġache":13435,"Ġpbs":13436,"Ġwhine":13437,"Ġalgae":13438,"Ġdidn":13439,"Ġdex":13440,"thearted":13441,"Ġcheat":13442,"Ġhighlighter":13443,"Ġbeaten":13444,"Ġdownloads":13445,"Ġmattresses":13446,"Ġsolely":13447,"Ġsufficiently":13448,"Ġsorely":13449,"Ġrecycling":13450,"Ġmentions":13451,"Ġcuddly":13452,"Ġatrocious":13453,"Ġillumination":13454,"Ġitching":13455,"erella":13456,"Ġinsides":13457,"Ġshowers":13458,"Ġwary":13459,"Ġmighty":13460,"Ġgrains":13461,"Ġcraig":13462,"Ġrotates":13463,"Ġlunchbox":13464,"Ġscraping":13465,"Ġjuniors":13466,"Ġhideous":13467,"Ġtilted":13468,"Ġregistered":13469,"Ġstatements":13470,"Ġmalfunctioning":13471,"Ġcaliber":13472,"Ġbrowsing":13473,"Ġtink":13474,"Ġcen":13475,"Ġanderson":13476,"Ġgary":13477,"Ġanc":13478,"Ġseating":13479,"Ġcanad":13480,"istration":13481,"Ġhardy":13482,"Ġspelled":13483,"Ġdecides":13484,"solut":13485,"nold":13486,"Ġridges":13487,"Ġseparation":13488,"Ġbendable":13489,"Ġcreamer":13490,"atography":13491,"Ġbriefly":13492,"Ġcarrots":13493,"four":13494,"Ġion":13495,"Ġheather":13496,"Ġprd":13497,"Ġconve":13498,"Ġunl":13499,"Ġunaware":13500,"Ġhire":13501,"Ġmonot":13502,"Ġfastened":13503,"Ġmarry":13504,"Ġclipping":13505,"hend":13506,"Ġlaura":13507,"Ġhdx":13508,"Ġwristband":13509,"Ġsuffers":13510,"Ġprevented":13511,"design":13512,"Ġpineapple":13513,"Ġlucas":13514,"Ġcrucial":13515,"Ġreimbur":13516,"Ġfasciitis":13517,"hl":13518,"Ġhugs":13519,"Ġino":13520,"quin":13521,"Ġexpose":13522,"Ġbetray":13523,"Ġropes":13524,"Ġremix":13525,"Ġcapris":13526,"Ġrecharged":13527,"Ġscanned":13528,"handle":13529,"Ġconceal":13530,"incredible":13531,"Ġfeaturing":13532,"Ġemboss":13533,"Ġmundane":13534,"Ġpitt":13535,"Ġdairy":13536,"enix":13537,"Ġshabby":13538,"Ġcoils":13539,"Ġraces":13540,"Ġfringe":13541,"Ġva":13542,"aupe":13543,"Ġswift":13544,"Ġbleeds":13545,"Ġbootleg":13546,"ronics":13547,"Ġundo":13548,"Ġunexpectedly":13549,"Ġsqueaks":13550,"Ġsummers":13551,"Ġmarshm":13552,"Ġcorporate":13553,"anovich":13554,"Ġtinted":13555,"Ġcough":13556,"Ġsip":13557,"Ġconference":13558,"Ġmanif":13559,"Ġhardcore":13560,"Ġrobb":13561,"Ġslavery":13562,"Ġcostum":13563,"Ġdrape":13564,"Ġmagenta":13565,"Ġtransfers":13566,"Ġforehead":13567,"Ġattracts":13568,"Ġcalendars":13569,"Ġalexander":13570,"Ġryp":13571,"Ġstorms":13572,"Ġfussy":13573,"Ġtrampoline":13574,"clock":13575,"Ġscal":13576,"Ġmisal":13577,"Ġerrand":13578,"Ġsandpaper":13579,"Ġmultiplayer":13580,"Ġtailgate":13581,"Ġdiabet":13582,"Ġsurvivor":13583,"Ġhelicopter":13584,"11":13585,"apper":13586,"opher":13587,"Ġcus":13588,"Ġhyster":13589,"Ġnc":13590,"aser":13591,"lee":13592,"acord":13593,"Ġmeats":13594,"Ġdescent":13595,"Ġhardback":13596,"Ġwarms":13597,"prof":13598,"Ġsurfing":13599,"Ġburlap":13600,"Ġpolka":13601,"Ġtackle":13602,"Ġcomprehend":13603,"Ġgigantic":13604,"Ġdreadful":13605,"Ġdisassemble":13606,"Ġfrightening":13607,"Ġepoxy":13608,"Ġincompatible":13609,"Ġnas":13610,"esis":13611,"Ġrays":13612,"Ġenable":13613,"Ġrecreat":13614,"Ġpartly":13615,"Ġshooter":13616,"Ġconfigure":13617,"Ġsymbols":13618,"cup":13619,"rub":13620,"Ġtaupe":13621,"Ġlith":13622,"Ġtol":13623,"Ġinver":13624,"Ġchai":13625,"Ġponder":13626,"Ġpopper":13627,"ffee":13628,"mob":13629,"photo":13630,"Ġcorrupted":13631,"Ġslats":13632,"alsa":13633,"cedes":13634,"Ġbirken":13635,"Ġkingdom":13636,"Ġlanded":13637,"Ġtransferring":13638,"Ġgradually":13639,"ettes":13640,"Ġdigitizer":13641,"Ġtimberland":13642,"Ġtheology":13643,"icide":13644,"Ġunpl":13645,"Ġmars":13646,"Ġfootprint":13647,"Ġdevast":13648,"Ġantics":13649,"Ġcoworker":13650,"Ġpixels":13651,"Ġwattage":13652,"Ġterminals":13653,"Ġwaaaay":13654,"Ġcinematography":13655,"Ġconsequences":13656,"Ġcinderella":13657,"sy":13658,"Ġdb":13659,"Ġbella":13660,"Ġsierra":13661,"Ġheft":13662,"istent":13663,"Ġdaycare":13664,"ipes":13665,"Ġamazons":13666,"shop":13667,"osis":13668,"arned":13669,"Ġweekends":13670,"Ġexpandable":13671,"Ġdavis":13672,"Ġwaters":13673,"Ġfulfilled":13674,"Ġkinks":13675,"Ġtrendy":13676,"Ġharris":13677,"Ġtitanium":13678,"Ġveteran":13679,"Ġought":13680,"Ġavoided":13681,"aved":13682,"hem":13683,"ucent":13684,"Ġnar":13685,"Ġsibl":13686,"Ġfiled":13687,"Ġpaperwhite":13688,"Ġsilence":13689,"Ġduo":13690,"Ġcompares":13691,"Ġtiresome":13692,"Ġexcelente":13693,"Ġthrottle":13694,"Ġsiblings":13695,"Ġsr":13696,"Ġabras":13697,"itched":13698,"Ġkitchenaid":13699,"Ġcounse":13700,"Ġjuicy":13701,"ocative":13702,"Ġbrewed":13703,"Ġsavvy":13704,"Ġinvestigation":13705,"Ġrevelation":13706,"Ġdepicts":13707,"Ġsynops":13708,"page":13709,"spr":13710,"Ġborders":13711,"acies":13712,"Ġjaws":13713,"Ġsmiling":13714,"Ġsnoo":13715,"Ġevanovich":13716,"imeter":13717,"Ġtranslucent":13718,"Ġwipers":13719,"Ġtissues":13720,"Ġchronicles":13721,"Ġwrestling":13722,"Ġinvicta":13723,"Ġseated":13724,"unte":13725,"Ġscales":13726,"Ġinterests":13727,"dead":13728,"Ġsupermarket":13729,"Ġproblematic":13730,"iolet":13731,"Ġparacord":13732,"Ġshutter":13733,"Ġtapestry":13734,"Ġtarnish":13735,"Ġarguments":13736,"Ġconspiracy":13737,"flo":13738,"Ġdifer":13739,"Ġleans":13740,"Ġpose":13741,"Ġretina":13742,"Ġboats":13743,"ondition":13744,"Ġaccidents":13745,"Ġcami":13746,"Ġperm":13747,"Ġvolunte":13748,"Ġteachings":13749,"Ġsoldered":13750,"Ġdestination":13751,"Ġpancake":13752,"Ġassignment":13753,"Ġrebel":13754,"Ġrpm":13755,"Ġsill":13756,"Ġuh":13757,"Ġkite":13758,"Ġcors":13759,"Ġrealism":13760,"Ġraven":13761,"Ġweakness":13762,"Ġmeetings":13763,"Ġcrafting":13764,"Ġdiscussions":13765,"Ġquilts":13766,"Ġsculpt":13767,"Ġwack":13768,"Ġvcr":13769,"Ġstarters":13770,"Ġclaire":13771,"Ġextensions":13772,
[...]
