{"<s>":0,"<pad>":1,"</s>":2,"<unk>":3,"<mask>":4,"[EMAIL]":5,"[URL]":6,"[XML]":7,"[PATH]":8,"[NUMBER]":9,"[CUR]":10,"[BAD]":11,"[UNKNOWN]":12,"!":13,"\"":14,"#":15,"$":16,"%":17,"&":18,"'":19,"(":20,")":21,"*":22,"+":23,",":24,"-":25,".":26,"/":27,"0":28,"1":29,"2":30,"3":31,"4":32,"5":33,"6":34,"7":35,"8":36,"9":37,":":38,";":39,"<":40,"=":41,">":42,"?":43,"@":44,"A":45,"B":46,"C":47,"D":48,"E":49,"F":50,"G":51,"H":52,"I":53,"J":54,"K":55,"L":56,"M":57,"N":58,"O":59,"P":60,"Q":61,"R":62,"S":63,"T":64,"U":65,"V":66,"W":67,"X":68,"Y":69,"Z":70,"[":71,"\\":72,"]":73,"^":74,"_":75,"`":76,"a":77,"b":78,"c":79,"d":80,"e":81,"f":82,"g":83,"h":84,"i":85,"j":86,"k":87,"l":88,"m":89,"n":90,"o":91,"p":92,"q":93,"r":94,"s":95,"t":96,"u":97,"v":98,"w":99,"x":100,"y":101,"z":102,"{":103,"|":104,"}":105,"~":106,"¡":107,"¢":108,"£":109,"¤":110,"¥":111,"¦":112,"§":113,"¨":114,"©":115,"ª":116,"«":117,"¬":118,"®":119,"¯":120,"°":121,"±":122,"²":123,"³":124,"´":125,"µ":126,"¶":127,"·":128,"¸":129,"¹":130,"º":131,"»":132,"¼":133,"½":134,"¾":135,"¿":136,"À":137,"Á":138,"Â":139,"Ã":140,"Ä":141,"Å":142,"Æ":143,"Ç":144,"È":145,"É":146,"Ê":147,"Ë":148,"Ì":149,"Í":150,"Î":151,"Ï":152,"Ð":153,"Ñ":154,"Ò":155,"Ó":156,"Ô":157,"Õ":158,"Ö":159,"×":160,"Ø":161,"Ù":162,"Ú":163,"Û":164,"Ü":165,"Ý":166,"Þ":167,"ß":168,"à":169,"á":170,"â":171,"ã":172,"ä":173,"å":174,"æ":175,"ç":176,"è":177,"é":178,"ê":179,"ë":180,"ì":181,"í":182,"î":183,"ï":184,"ð":185,"ñ":186,"ò":187,"ó":188,"ô":189,"õ":190,"ö":191,"÷":192,"ø":193,"ù":194,"ú":195,"û":196,"ü":197,"ý":198,"þ":199,"ÿ":200,"Ā":201,"ā":202,"Ă":203,"ă":204,"Ą":205,"ą":206,"Ć":207,"ć":208,"Ĉ":209,"ĉ":210,"Ċ":211,"ċ":212,"Č":213,"č":214,"Ď":215,"ď":216,"Đ":217,"đ":218,"Ē":219,"ē":220,"Ĕ":221,"ĕ":222,"Ė":223,"ė":224,"Ę":225,"ę":226,"Ě":227,"ě":228,"Ĝ":229,"ĝ":230,"Ğ":231,"ğ":232,"Ġ":233,"ġ":234,"Ģ":235,"ģ":236,"Ĥ":237,"ĥ":238,"Ħ":239,"ħ":240,"Ĩ":241,"ĩ":242,"Ī":243,"ī":244,"Ĭ":245,"ĭ":246,"Į":247,"į":248,"İ":249,"ı":250,"Ĳ":251,"ĳ":252,"Ĵ":253,"ĵ":254,"Ķ":255,"ķ":256,"ĸ":257,"Ĺ":258,"ĺ":259,"Ļ":260,"ļ":261,"Ľ":262,"ľ":263,"Ŀ":264,"ŀ":265,"Ł":266,"ł":267,"Ń":268,"Ġt":269,"Ġa":270,"Ġth":271,"Ġi":272,"Ġthe":273,"Ġs":274,"Ġw":275,"er":276,"Ġ.":277,"Ġo":278,"in":279,"re":280,"Ġb":281,"nd":282,"Ġh":283,"Ġc":284,"Ġf":285,"Ġm":286,"Ġ,":287,"ou":288,"at":289,"Ġp":290,"ing":291,"or":292,"Ġto":293,"ed":294,"es":295,"Ġd":296,"en":297,"on":298,"Ġand":299,"Ġn":300,"is":301,"Ġl":302,"ll":303,"it":304,"ot":305,"as":306,"ar":307,"Ġit":308,"Ġof":309,"an":310,"Ġin":311,"Ġis":312,"Ġg":313,"Ġre":314,"om":315,"ut":316,"le":317,"ve":318,"Ġe":319,"ic":320,"Ġ[":321,"us":322,"Ġon":323,"Ġbe":324,"Ġnot":325,"Ġha":326,"oo":327,"ly":328,"Ġthis":329,"Ġwh":330,"Ġy":331,"ac":332,"ver":333,"Ġthat":334,"Ġst":335,"al":336,"Ġfor":337,"et":338,"BE":339,"MBE":340,"NU":341,"MBER":342,"NUMBER":343,"gh":344,"ow":345,"ld":346,"ion":347,"ad":348,"ter":349,"Ġyou":350,"ith":351,"Ġwas":352,"id":353,"ay":354,"Ġwith":355,"ent":356,"ro":357,"ook":358,"ct":359,"all":360,"Ġbut":361,"ke":362,"st":363,"Ġu":364,"Ġhave":365,"ch":366,"th":367,"Ġan":368,"se":369,"ri":370,"Ġsh":371,"Ġmy":372,"Ġas":373,"Ġli":374,"Ġdo":375,"ur":376,"me":377,"ould":378,"Ġare":379,"ir":380,"Ġch":381,"Ġso":382,"ill":383,"Ġse":384,"ght":385,"Ġj":386,"Ġbook":387,"ce":388,"Ġmo":389,"Ġhe":390,"Ġwe":391,"pp":392,"ble":393,"Ġr":394,"ally":395,"ust":396,"Ġne":397,"Ġal":398,"Ġpro":399,"Ġus":400,"Ġex":401,"Ġor":402,"Ġwor":403,"Ġde":404,"il":405,"Ġcom":406,"very":407,"Ġam":408,"Ġat":409,"ag":410,"Ġthey":411,"ie":412,"Ġme":413,"Ġfr":414,"Ġone":415,"Ġk":416,"pe":417,"am":418,"Ġcon":419,"out":420,"im":421,"Ġsu":422,"Ġwould":423,"ain":424,"Ġsom":425,"Ġall":426,"ack":427,"ere":428,"ul":429,"Ġwill":430,"ess":431,"est":432,"qu":433,"ers":434,"ant":435,"Ġab":436,"Ġif":437,"Ġout":438,"Ġpl":439,"Ġread":440,"Ġlike":441,"Ġup":442,"el":443,"Ġfrom":444,"Ġcan":445,"em":446,"one":447,"Ġjust":448,"Ġtr":449,"art":450,"ap":451,"Ġco":452,"ough":453,"Ġlo":454,"Ġv":455,"ist":456,"Ġno":457,"ate":458,"Ġher":459,"Ġ!":460,"ood":461,"Ġget":462,"ation":463,"un":464,"Ġun":465,"if":466,"ive":467,"ast":468,"ard":469,"her":470,"ak":471,"ice":472,"Ġthere":473,"Ġabout":474,"Ġfe":475,"Ġvery":476,"Ġhad":477,"ound":478,"and":479,"Ġle":480,"Ġwhen":481,"Ġsome":482,"ind":483,"Ġmore":484,"ure":485,"um":486,"ort":487,"Ġhas":488,"Ġti":489,"Ġpo":490,"Ġwork":491,"Ġen":492,"Ġthem":493,"ig":494,"ect":495,"ong":496,"Ġwhat":497,"Ġqu":498,"ple":499,"KN":500,"NKN":501,"OW":502,"UNKN":503,"OWN":504,"UNKNOWN":505,"Ġoth":506,"Ġbec":507,"Ġhow":508,"able":509,"ven":510,"ory":511,"Ġdid":512,"reat":513,"ame":514,"ies":515,"Ġshe":516,"Ġany":517,"lo":518,"Ġby":519,"Ġgo":520,"so":521,"Ġgood":522,"ge":523,"Ġpr":524,"ck":525,"Ġpre":526,"ity":527,"aus":528,"ich":529,"Ġhis":530,"itt":531,"Ġwho":532,"Ġad":533,"Ġint":534,"ake":535,"ine":536,"are":537,"Ġtime":538,"Ġthan":539,"ite":540,"..":541,"ight":542,"Ġ...":543,"Ġchar":544,"ide":545,"Ġother":546,"ause":547,"Ġman":548,"uct":549,"Ġtoo":550,"Ġdis":551,"Ġaf":552,"Ġonly":553,"vie":554,"Ġthese":555,"Ġbecause":556,"Ġyour":557,"Ġreally":558,"Ġdoes":559,"pt":560,"ars":561,"Ġover":562,"Ġbu":563,"Ġwr":564,"ous":565,"Ġwell":566,"pl":567,"act":568,"Ġkn":569,"Ġwhich":570,"Ġlook":571,"ss":572,"Ġwere":573,"ab":574,"Ġar":575,"ick":576,"Ġgreat":577,"Ġsc":578,"Ġmu":579,"Ġho":580,"ase":581,"Ġstory":582,"ore":583,"int":584,"Ġte":585,"ink":586,"Ġoff":587,"ought":588,"Ġfir":589,"Ġeven":590,"Ġafter":591,"Ġrec":592,"Ġmuch":593,"hing":594,"Ġalso":595,"Ġuse":596,"Ġback":597,"iv":598,"Ġfirst":599,"Ġtw":600,"lf":601,"iz":602,"AD":603,"BAD":604,"Ġcould":605,"age":606,"Ġwant":607,"ue":608,"ire":609,"Ġbet":610,"Ġbo":611,"Ġtheir":612,"own":613,"urn":614,"ach":615,"per":616,"our":617,"Ġsp":618,"Ġprod":619,"view":620,"Ġag":621,"Ġke":622,"Ġbr":623,"Ġway":624,"ions":625,"ep":626,"Ġbeen":627,"Ġim":628,"Ġ?":629,"Ġye":630,"ment":631,"nder":632,"Ġinto":633,"av":634,"acter":635,"ud":636,"Ġreview":637,"Ġcharacter":638,"Ġthing":639,"Ġgr":640,"ile":641,"Ġevery":642,"Ġproduct":643,"ace":644,"Ġthen":645,"fer":646,"Ġcl":647,"Ġneed":648,"Ġthr":649,"ish":650,"Ġper":651,"Ġdes":652,"ays":653,"nt":654,"Ġser":655,"ade":656,"Ġcont":657,"Ġbl":658,"Ġknow":659,"Ġph":660,"Ġthink":661,"ip":662,"ittle":663,"Ġlove":664,"Ġend":665,"other":666,"Ġlittle":667,"Ġact":668,"Ġnew":669,"Ġtwo":670,"Ġpart":671,"Ġcomp":672,"Ġro":673,"ting":674,"fe":675,"Ġinst":676,"Ġsm":677,"Ġfl":678,"Ġinter":679,"Ġnow":680,"ail":681,"Ġapp":682,"ens":683,"Ġsee":684,"Ġseem":685,"ater":686,"Ġpur":687,"Ġaut":688,"Ġdif":689,"ull":690,"ying":691,"Ġstr":692,"Ġpe":693,"ial":694,"az":695,"Ġthrough":696,"Ġsa":697,"ved":698,"Ġeas":699,"Ġmost":700,"ious":701,"Ġmake":702,"Ġfind":703,"ass":704,"pect":705,"Ġstill":706,"oth":707,"ult":708,"der":709,"ence":710,"Ġset":711,"Ġfeel":712,"ol":713,"Ġri":714,"Ġbetter":715,"ree":716,"ated":717,"Ġac":718,"Ġsomet":719,"ry":720,"Ġmany":721,"Ġdown":722,"ance":723,"Ġspe":724,"ful":725,"vel":726,"ict":727,"Ġauth":728,"igh":729,"Ġgot":730,"ily":731,"Ġmay":732,"Ġlong":733,"ality":734,"ans":735,"te":736,"not":737,"orm":738,"os":739,"Ġsl":740,"Ġauthor":741,"wn":742,"ical":743,"Ġits":744,"ving":745,"Ġput":746,"self":747,"Ġhapp":748,"Ġwhile":749,"Ġmade":750,"ft":751,"we":752,"co":753,"atch":754,"ose":755,"Ġtri":756,"ually":757,"Ġfo":758,"Ġagain":759,"Ġgu":760,"akes":761,"app":762,"ased":763,"Ġcannot":764,"ff":765,"ang":766,"Ġpurch":767,"Ġshould":768,"Ġaw":769,"ever":770,"Ġstart":771,"blem":772,"ome":773,"les":774,"Ġproblem":775,"Ġlot":776,"mo":777,"oy":778,"Ġinc":779,"mend":780,"Ġnever":781,"Ġcharacters":782,"Ġsay":783,"fore":784,"Ġunder":785,"Ġcr":786,"atter":787,"Ġfew":788,"Ġhigh":789,"ber":790,"thing":791,"Ġbought":792,"Ġpeo":793,"ves":794,"Ġused":795,"Ġhard":796,"imes":797,"Ġpeople":798,"Ġrecom":799,"Ġlife":800,"Ġmon":801,"ty":802,"Ġbuy":803,"Ġrecommend":804,"Ġold":805,"Ġche":806,"Ġhand":807,"Ġdiffer":808,"Ġcase":809,"Ġbeing":810,"Ġsame":811,"ary":812,"Ġwhere":813,"Ġplay":814,"Ġdr":815,"Ġgoing":816,"Ġanother":817,"ount":818,"Ġhowever":819,"Ġbit":820,"Ġbooks":821,"ations":822,"Ġhim":823,"Ġcle":824,"Ġamaz":825,"ub":826,"Ġhel":827,"Ġfit":828,"ating":829,"vers":830,"Ġbefore":831,"Ġreading":832,"ign":833,"ps":834,"gin":835,"Ġquality":836,"Ġfound":837,"Ġsmall":838,"Ġsomething":839,"Ġlight":840,"ize":841,"air":842,"Ġres":843,"ild":844,"Ġkeep":845,"Ġimp":846,"Ġreal":847,"Ġfin":848,"ark":849,"Ġret":850,"Ġop":851,"ress":852,"xt":853,"ise":854,"Ġsin":855,"Ġright":856,"ning":857,"Ġyears":858,"Ġperf":859,"Ġenj":860,"Ġown":861,"Ġorder":862,"Ġsim":863,"Ġenough":864,"Ġdec":865,"Ġatt":866,"ci":867,"Ġlast":868,"oint":869,"gg":870,"Ġthought":871,"ph":872,"ces":873,"Ġins":874,"end":875,"ather":876,"iting":877,"Ġsound":878,"Ġadd":879,"Ġenjoy":880,"this":881,"Ġnice":882,"Ġpers":883,"Ġthough":884,"Ġsince":885,"ower":886,"ord":887,"Ġsupp":888,"Ġaround":889,"Ġturn":890,"Ġinterest":891,"Ġbad":892,"aking":893,"ors":894,"Ġfun":895,"de":896,"get":897,"Ġour":898,"Ġdifferent":899,"Ġrel":900,"Ġbig":901,"Ġdef":902,"Ġcar":903,"ition":904,"be":905,"Ġseries":906,"UR":907,"Ġjo":908,"gr":909,"Ġbel":910,"Ġmin":911,"Ġhelp":912,"cess":913,"Ġthose":914,"Ġgive":915,"Ġbest":916,"ents":917,"Ġday":918,"Ġdisapp":919,"ason":920,"Ġthings":921,"Ġsure":922,"Ġtake":923,"Ġboth":924,"Ġem":925,"Ġiss":926,"ave":927,"io":928,"fort":929,"less":930,"Ġprice":931,"ual":932,"Ġwithout":933,"Ġexpect":934,"Ġreturn":935,"Ġsho":936,"Ġeasy":937,"Ġphone":938,"Ġrece":939,"Ġwar":940,"Ġusing":941,"Ġed":942,"Ġlooking":943,"Ġeach":944,"Ġcons":945,"CUR":946,"Ġsur":947,"ible":948,"ange":949,"red":950,"Ġdisappoint":951,"Ġpret":952,"ately":953,"Ġhead":954,"aw":955,"ably":956,"Ġperson":957,"ks":958,"Ġpoint":959,"au":960,"Ġmonth":961,"Ġtimes":962,"Ġpretty":963,"Ġwhy":964,"Ġgl":965,"vice":966,"Ġrepl":967,"ath":968,"Ġext":969,"Ġfar":970,"riend":971,"bs":972,"Ġshow":973,"Ġamazon":974,"ix":975,"cond":976,"Ġkind":977,"wh":978,"ool":979,"Ġsecond":980,"Ġcol":981,"Ġcomple":982,"Ġinf":983,"ott":984,"Ġhere":985,"Ġfil":986,"Ġscre":987,"Ġtop":988,"ings":989,"Ġstars":990,"Ġsize":991,"Ġhold":992,"read":993,"ia":994,"astic":995,"Ġseems":996,"Ġyear":997,"oney":998,"tain":999,"Ġel":1000,"Ġmakes":1001,"Ġworks":1002,"arly":1003,"Ġactually":1004,"iss":1005,"ger":1006,"Ġcome":1007,"Ġclo":1008,"Ġdet":1009,"Ġperfect":1010,"Ġsuch":1011,"Ġfact":1012,"ures":1013,"nect":1014,"Ġless":1015,"Ġrun":1016,"Ġfam":1017,"Ġdri":1018,"Ġmoney":1019,"ages":1020,"ute":1021,"Ġev":1022,"li":1023,"bo":1024,"Ġmus":1025,"ways":1026,"ked":1027,"cept":1028,"Ġcover":1029,"ward":1030,"ipp":1031,"Ġwee":1032,"ra":1033,"cri":1034,"Ġopen":1035,"Ġnovel":1036,"Ġwater":1037,"Ġworth":1038,"Ġlet":1039,"Ġreviews":1040,"ead":1041,"Ġbox":1042,"Ġworld":1043,"Ġpict":1044,"Ġfriend":1045,"Ġcall":1046,"Ġbatter":1047,"Ġgen":1048,"Ġside":1049,"Ġwatch":1050,"Ġacc":1051,"Ġpack":1052,"Ġexp":1053,"Ġfull":1054,"Ġcam":1055,"Ġcou":1056,"ues":1057,"Ġlar":1058,"Ġind":1059,"lud":1060,"Ġlist":1061,"ne":1062,"Ġever":1063,"Ġexper":1064,"Ġreason":1065,"ian":1066,"Ġes":1067,"ters":1068,"op":1069,"Ġwo":1070,"Ġaway":1071,"ween":1072,"Ġsaid":1073,"Ġnext":1074,"Ġpie":1075,"Ġdefin":1076,"Ġtry":1077,"Ġconnect":1078,"Ġcame":1079,"Ġalways":1080,"llow":1081,"Ġbetween":1082,"ys":1083,"ons":1084,"Ġquite":1085,"ics":1086,"Ġonce":1087,"most":1088,"Ġty":1089,"ction":1090,"Ġhaving":1091,"ived":1092,"Ġgame":1093,"ash":1094,"Ġprot":1095,"itch":1096,"Ġstand":1097,"itten":1098,"Ġtried":1099,"Ġmight":1100,"Ġnothing":1101,"Ġable":1102,"Ġbelie":1103,"dy":1104,"Ġtell":1105,"Ġshort":1106,"Ġsy":1107,"Ġcare":1108,"Ġmovie":1109,"stand":1110,"ience":1111,"Ġpower":1112,"Ġpurchased":1113,"Ġinclud":1114,"Ġwanted":1115,"Ġgetting":1116,"ced":1117,"Ġchild":1118,"ouse":1119,"Ġmain":1120,"ts":1121,"ense":1122,"uck":1123,"the":1124,"Ġz":1125,"gether":1126,"ically":1127,"Ġdescri":1128,"Ġsk":1129,"Ġunit":1130,"Ġwritten":1131,"ren":1132,"Ġcomplete":1133,"Ġrem":1134,"Ġwa":1135,"arn":1136,"Ġwriting":1137,"Ġprob":1138,"ative":1139,"Ġalmost":1140,"Ġanything":1141,"ib":1142,"Ġsever":1143,"Ġsw":1144,"Ġunt":1145,"Ġtogether":1146,"Ġprobably":1147,"led":1148,"Ġdesign":1149,"Ġplace":1150,"vious":1151,"Ġcheap":1152,"Ġcor":1153,"Ġreg":1154,"Ġinteresting":1155,"Ġdisc":1156,"Ġreceived":1157,"Ġquick":1158,"Ġfine":1159,"Ġthree":1160,"Ġori":1161,"pr":1162,"Ġbott":1163,"Ġstar":1164,"ention":1165,"Ġtrying":1166,"ds":1167,"Ġitem":1168,"Ġleft":1169,"Ġeverything":1170,"aps":1171,"Ġter":1172,"Ġbre":1173,"Ġscreen":1174,"Ġsub":1175,"ush":1176,"Ġmaybe":1177,"Ġma":1178,"ided":1179,"Ġsong":1180,"Ġide":1181,"Ġmonths":1182,"Ġwear":1183,"ories":1184,"Ġoverall":1185,"Ġdefinite":1186,"Ġinstall":1187,"Ġhour":1188,"Ġtook":1189,"Ġuntil":1190,"alk":1191,"Ġseveral":1192,"Ġrep":1193,"Ġwom":1194,"ten":1195,"elt":1196,"ug":1197,"ither":1198,"Ġdisappointed":1199,"Ġcoll":1200,"ner":1201,"Ġdays":1202,"Ġplastic":1203,"Ġvers":1204,"Ġmusic":1205,"Ġref":1206,"ement":1207,"ruct":1208,"Ġhappen":1209,"Ġbag":1210,"Ġalb":1211,"Ġhappy":1212,"Ġdefinitely":1213,"Ġchr":1214,"Ġorigin":1215,"Ġplot":1216,"Ġsol":1217,"Ġmet":1218,"Ġreplac":1219,"Ġunderstand":1220,"Ġprov":1221,"ets":1222,"Ġalbum":1223,"Ġhome":1224,"Ġhist":1225,"Ġyet":1226,"Ġfelt":1227,"plain":1228,"Ġcomes":1229,"Ġent":1230,"hip":1231,"Ġwonder":1232,"fic":1233,"Ġdur":1234,"Ġinstead":1235,"ates":1236,"Ġhum":1237,"Ġlooks":1238,"Ġinv":1239,"ness":1240,"Ġbas":1241,"Ġmar":1242,"Ġbro":1243,"Ġloved":1244,"up":1245,"Ġothers":1246,"als":1247,"ider":1248,"Ġfamily":1249,"Ġcolor":1250,"Ġsty":1251,"Ġleast":1252,"Ġmust":1253,"ature":1254,"Ġear":1255,"ides":1256,"Ġprotect":1257,"log":1258,"Ġhon":1259,"augh":1260,"Ġdone":1261,"Ġbegin":1262,"no":1263,"ited":1264,"Ġhalf":1265,"Ġhope":1266,"Ġfree":1267,"Ġmiss":1268,"Ġfan":1269,"Ġcut":1270,"Ġfall":1271,"Ġwent":1272,"Ġple":1273,"ject":1274,"ption":1275,"ular":1276,"Ġstarted":1277,"Ġsomeone":1278,"cially":1279,"Ġfollow":1280,"Ġanyone":1281,"Ġfilm":1282,"Ġcomm":1283,"Ġconf":1284,"aut":1285,"Ġob":1286,"Ġpurchase":1287,"Ġgiv":1288,"ier":1289,"Ġcouple":1290,"Ġpast":1291,"ont":1292,"Ġeff":1293,"Ġok":1294,"ows":1295,"Ġpres":1296,"avor":1297,"Ġordered":1298,"Ġclean":1299,"Ġinform":1300,"era":1301,"day":1302,"sol":1303,"though":1304,"Ġsupport":1305,"Ġbattery":1306,"Ġblack":1307,"Ġespe":1308,"Ġworked":1309,"Ġwhole":1310,"Ġsuper":1311,"arch":1312,"Ġespecially":1313,"Ġjob":1314,"ied":1315,"Ġrather":1316,"Ġav":1317,"iter":1318,"Ġworking":1319,"Ġbutt":1320,"Ġeither":1321,"ready":1322,"Ġkid":1323,"Ġline":1324,"Ġalready":1325,"Ġissue":1326,"ility":1327,"ale":1328,"Ġappe":1329,"Ġelse":1330,"Ġsch":1331,"Ġeasily":1332,"Ġhonest":1333,"Ġmater":1334,"Ġeng":1335,"Ġbri":1336,"Ġcard":1337,"Ġdire":1338,"ware":1339,"Ġform":1340,"Ġlarge":1341,"Ġspec":1342,"Ġpick":1343,"Ġmod":1344,"aph":1345,"Ġdeal":1346,"ls":1347,"Ġmaterial":1348,"pped":1349,"Ġalthough":1350,"uff":1351,"Ġliked":1352,"Ġrom":1353,"Ġpain":1354,"Ġpicture":1355,"ised":1356,"ng":1357,"ized":1358,"Ġcontro":1359,"Ġsn":1360,"Ġdetail":1361,"Ġpoor":1362,"Ġreader":1363,"Ġport":1364,"Ġlearn":1365,"any":1366,"Ġwish":1367,"Ġmind":1368,"Ġcer":1369,"Ġconc":1370,"Ġpages":1371,"Ġele":1372,"Ġcap":1373,"Ġchap":1374,"Ġrest":1375,"ently":1376,"ones":1377,"Ġcour":1378,"ully":1379,"Ġmaking":1380,"Ġsoft":1381,"Ġgi":1382,"Ġissues":1383,"Ġchrist":1384,"Ġnum":1385,"its":1386,"velo":1387,"res":1388,"ling":1389,"ugg":1390,"Ġstrong":1391,"Ġet":1392,"Ġgir":1393,"Ġnight":1394,"ficult":1395,"Ġfig":1396,"Ġste":1397,"ared":1398,"ments":1399,"Ġhor":1400,"Ġdifficult":1401,"og":1402,"Ġstories":1403,"Ġgets":1404,"Ġsto":1405,"Ġmyself":1406,"Ġbeaut":1407,"Ġenjoyed":1408,"Ġart":1409,"ping":1410,"line":1411,"Ġcompletely":1412,"Ġsell":1413,"Ġbelieve":1414,"ret":1415,"Ġversion":1416,"Ġscen":1417,"Ġcost":1418,"Ġneeded":1419,"Ġcomfort":1420,"ustom":1421,"Ġgener":1422,"Ġoriginal":1423,"Ġitself":1424,"Ġtrans":1425,"Ġwrong":1426,"Ġproblems":1427,"Ġfinish":1428,"Ġbottom":1429,"Ġstick":1430,"Ġdog":1431,"ots":1432,"ster":1433,"Ġcamera":1434,"Ġkey":1435,"Ġphot":1436,"Ġinside":1437,"Ġsing":1438,"Ġson":1439,"Ġmag":1440,"Ġsec":1441,"Ġexc":1442,"Ġmark":1443,"Ġcustom":1444,"Ġpri":1445,"utes":1446,"Ġtakes":1447,"Ġetc":1448,"arent":1449,"Ġstud":1450,"Ġwind":1451,"Ġroom":1452,"Ġcertain":1453,"ines":1454,"unately":1455,"ames":1456,"Ġpage":1457,"Ġpiece":1458,"Ġmed":1459,"Ġstyle":1460,"Ġheart":1461,"Ġap":1462,"Ġconsider":1463,"Ġtrue":1464,"ife":1465,"Ġgave":1466,"Ġplan":1467,"Ġdevelo":1468,"Ġhouse":1469,"Ġclass":1470,"Ġinformation":1471,"Ġfinally":1472,"att":1473,"Ġbrand":1474,"Ġexam":1475,"ouch":1476,"lic":1477,"Ġexce":1478,"Ġcur":1479,"Ġhours":1480,"Ġfavor":1481,"Ġupd":1482,"Ġtech":1483,"ensive":1484,"Ġconst":1485,"Ġpay":1486,"Ġalong":1487,"Ġsurpr":1488,"Ġremo":1489,"med":1490,"ny":1491,"ional":1492,"Ġquest":1493,"ank":1494,"ific":1495,"Ġpos":1496,"Ġpull":1497,"arr":1498,"ross":1499,"Ġcontin":1500,"ird":1501,"Ġunfort":1502,"lish":1503,"Ġhu":1504,"Ġpair":1505,"Ġred":1506,"man":1507,"Ġadv":1508,"ired":1509,"Ġclear":1510,"Ġvo":1511,"Ġpass":1512,"Ġguess":1513,"els":1514,"osed":1515,"Ġmid":1516,"Ġexperience":1517,"Ġgiven":1518,"Ġass":1519,"Ġlow":1520,"ote":1521,"Ġseemed":1522,"Ġgoes":1523,"Ġvide":1524,"stem":1525,"eric":1526,"Ġlive":1527,"ric":1528,"Ġminutes":1529,"Ġx":1530,"Ġdep":1531,"Ġgre":1532,"Ġstore":1533,"Ġband":1534,"ew":1535,"Ġheav":1536,"Ġsystem":1537,"ats":1538,"Ġbreak":1539,"Ġcop":1540,"Ġspeak":1541,"Ġbuying":1542,"Ġsit":1543,"ape":1544,"Ġduring":1545,"Ġlonger":1546,"Ġpub":1547,"Ġhot":1548,"ume":1549,"Ġsent":1550,"Ġfriends":1551,"Ġidea":1552,"Ġstay":1553,"Ġposs":1554,"Ġchang":1555,"reme":1556,"Ġdist":1557,"Ġfair":1558,"Ġdirect":1559,"Ġinstruct":1560,"Ġlisten":1561,"cc":1562,"Ġentire":1563,"Ġvie":1564,"Ġago":1565,"Ġbeautif":1566,"Ġcompany":1567,"fully":1568,"ustr":1569,"Ġvol":1570,"Ġview":1571,"Ġcreat":1572,"Ġtrack":1573,"Ġmean":1574,"Ġrequ":1575,"Ġfigure":1576,"Ġyoung":1577,"Ġtest":1578,"Ġlater":1579,"Ġtot":1580,"Ġones":1581,"Ġyes":1582,"Ġpartic":1583,"Ġoften":1584,"Ġclose":1585,"Ġexcell":1586,"Ġfail":1587,"Ġmove":1588,"ams":1589,"Ġmom":1590,"mm":1591,"cks":1592,"cy":1593,"itive":1594,"Ġcd":1595,"ted":1596,"Ġfront":1597,"Ġcomput":1598,"board":1599,"Ġexact":1600,"ped":1601,"Ġunfortunately":1602,"Ġdevice":1603,"Ġneeds":1604,"Ġhighly":1605,"ah":1606,"Ġweek":1607,"ices":1608,"rible":1609,"Ġlack":1610,"Ġchange":1611,"gan":1612,"dd":1613,"ract":1614,"Ġdoing":1615,"Ġair":1616,"Ġtv":1617,"Ġfast":1618,"ply":1619,"Ġsometimes":1620,"Ġdro":1621,"Ġlead":1622,"ism":1623,"Ġlevel":1624,"Ġval":1625,"Ġsetting":1626,"Ġservice":1627,"Ġmem":1628,"Ġparts":1629,"Ġexcellent":1630,"Ġhistory":1631,"side":1632,"Ġextreme":1633,"Ġloc":1634,"Ġer":1635,"iet":1636,"que":1637,"Ġrecord":1638,"Ġmess":1639,"Ġameric":1640,"Ġcourse":1641,"Ġdark":1642,"Ġsimply":1643,"Ġcho":1644,"Ġtight":1645,"aper":1646,"iness":1647,"Ġbeh":1648,"Ġrelations":1649,"Ġloo":1650,"Ġimport":1651,"aster":1652,"ists":1653,"Ġarri":1654,"Ġdecided":1655,"Ġsle":1656,"Ġcheck":1657,"Ġprevious":1658,"Ġfour":1659,"Ġcre":1660,"Ġgri":1661,"Ġvar":1662,"way":1663,"Ġrele":1664,"Ġswe":1665,"ell":1666,"Ġtouch":1667,"Ġpress":1668,"Ġdv":1669,"eng":1670,"Ġmention":1671,"just":1672,"Ġmount":1673,"Ġsad":1674,"Ġpa":1675,"Ġtype":1676,"antly":1677,"Ġwhite":1678,"Ġstuff":1679,"Ġwithin":1680,"Ġnorm":1681,"where":1682,"Ġquickly":1683,"Ġprint":1684,"Ġrelationship":1685,"Ġexpected":1686,"Ġtold":1687,"ences":1688,"Ġfill":1689,"Ġweeks":1690,"Ġsign":1691,"aged":1692,"Ġaud":1693,"Ġ%":1694,"Ġopin":1695,"Ġextra":1696,"Ġshipp":1697,"solute":1698,"ities":1699,"Ġhero":1700,"Ġreplacement":1701,"Ġkept":1702,"iced":1703,"Ġseen":1704,"ient":1705,"aughter":1706,"Ġhear":1707,"Ġcount":1708,"Ġschool":1709,"Ġey":1710,"Ġspend":1711,"Ġsongs":1712,"Ġabsolute":1713,"Ġchildren":1714,"Ġmyster":1715,"Ġsimple":1716,"Ġdue":1717,"Ġlost":1718,"ution":1719,"Ġpar":1720,"band":1721,"Ġamazing":1722,"Ġexcept":1723,"Ġvis":1724,"Ġslow":1725,"Ġbased":1726,"Ġfood":1727,"Ġwall":1728,"po":1729,"Ġkids":1730,"Ġcomputer":1731,"Ġve":1732,"rect":1733,"Ġbuild":1734,"Ġprof":1735,"Ġfa":1736,"Ġtable":1737,"Ġperform":1738,"Ġenter":1739,"Ġcomfortable":1740,"Ġtra":1741,"Ġstep":1742,"king":1743,"Ġcook":1744,"Ġtext":1745,"Ġwire":1746,"Ġsat":1747,"Ġwoman":1748,"Ġmatter":1749,"Ġplac":1750,"Ġsus":1751,"Ġeveryone":1752,"Ġbus":1753,"Ġang":1754,"Ġcool":1755,"uc":1756,"ms":1757,"Ġsense":1758,"Ġupdate":1759,"ilar":1760,"Ġpol":1761,"Ġwrite":1762,"ooth":1763,"Ġforward":1764,"Ġprin":1765,"Ġbor":1766,"Ġrese":1767,"br":1768,"Ġdou":1769,"Ġmach":1770,"ho":1771,"Ġsaw":1772,"Ġvideo":1773,"Ġcustomer":1774,"Ġslight":1775,"Ġcomplain":1776,"Ġbeautiful":1777,"Ġir":1778,"Ġnon":1779,"Ġheavy":1780,"Ġfix":1781,"cus":1782,"amp":1783,"Ġromance":1784,"Ġweight":1785,"Ġextremely":1786,"Ġfavorite":1787,"dle":1788,"phone":1789,"Ġswitch":1790,"Ġmen":1791,"ins":1792,"Ġsays":1793,"Ġbar":1794,"Ġcharg":1795,"light":1796,"Ġcollect":1797,"Ġcalled":1798,"Ġwait":1799,"Ġfeels":1800,"Ġaction":1801,"Ġsugg":1802,"Ġsuggest":1803,"Ġsend":1804,"Ġself":1805,"lling":1806,"Ġpaper":1807,"Ġserious":1808,"irt":1809,"Ġtit":1810,"Ġclos":1811,"Ġlooked":1812,"Ġaddition":1813,"Ġpresent":1814,"Ġfant":1815,"Ġending":1816,"Ġthinking":1817,"Ġshoes":1818,"Ġdev":1819,"tern":1820,"ern":1821,"Ġcharge":1822,"Ġattach":1823,"book":1824,"Ġcopy":1825,"Ġcable":1826,"Ġbutton":1827,"und":1828,"Ġsoon":1829,"empt":1830,"Ġmot":1831,"Ġhus":1832,"Ġflo":1833,"Ġadjust":1834,"Ġinstructions":1835,"Ġdaughter":1836,"logy":1837,"Ġnumber":1838,"aging":1839,"Ġthin":1840,"iction":1841,"uly":1842,"Ġcontact":1843,"Ġdi":1844,"Ġbed":1845,"Ġobvious":1846,"Ġapart":1847,"Ġhuge":1848,"Ġsupposed":1849,"Ġill":1850,"Ġresult":1851,"Ġdvd":1852,"Ġeffect":1853,"Ġpop":1854,"Ġtalk":1855,"Ġhappened":1856,"Ġrub":1857,"Ġuni":1858,"ken":1859,"Ġwords":1860,"Ġplus":1861,"fact":1862,"Ġpieces":1863,"Ġname":1864,"Ġtoday":1865,"sy":1866,"my":1867,"ane":1868,"ined":1869,"Ġproper":1870,"Ġhusband":1871,"ffe":1872,"Ġdrive":1873,"itting":1874,"apt":1875,"haps":1876,"Ġwaste":1877,"Ġtyp":1878,"Ġwomen":1879,"Ġprom":1880,"Ġgirl":1881,"ilt":1882,"ror":1883,"Ġimpress":1884,"Ġimag":1885,"Ġmic":1886,"mber":1887,"Ġcoming":1888,"Ġabsolutely":1889,"Ġperhaps":1890,"ases":1891,"Ġhands":1892,"Ġmaj":1893,"Ġscr":1894,"Ġspr":1895,"vert":1896,"Ġleav":1897,"Ġusually":1898,"Ġmother":1899,"Ġexactly":1900,"Ġmetal":1901,"istic":1902,"ump":1903,"Ġgif":1904,"Ġallow":1905,"Ġwonderful":1906,"ains":1907,"Ġnarr":1908,"Ġchapter":1909,"Ġstop":1910,"Ġmodel":1911,"Ġbeginning":1912,"Ġpictures":1913,"Ġcorrect":1914,"wor":1915,"Ġge":1916,"Ġopinion":1917,"Ġnote":1918,"Ġtal":1919,"Ġresearch":1920,"Ġocc":1921,"mb":1922,"Ġmult":1923,"Ġfut":1924,"Ġleg":1925,"rant":1926,"Ġbecome":1927,"Ġfeet":1928,"Ġjack":1929,"Ġcontrol":1930,"Ġproducts":1931,"Ġpersonal":1932,"Ġwalk":1933,"Ġsingle":1934,"Ġgiving":1935,"lt":1936,"Ġrunning":1937,"Ġtast":1938,"Ġcoffe":1939,"Ġmajor":1940,"Ġamount":1941,"Ġbul":1942,"eless":1943,"Ġappro":1944,"Ġfoot":1945,"Ġimportant":1946,"Ġreplace":1947,"Ġagainst":1948,"Ġhandle":1949,"rod":1950,"Ġpract":1951,"Ġinch":1952,"Ġshows":1953,"Ġoffer":1954,"Ġmor":1955,"asing":1956,"Ġmine":1957,"Ġprogr":1958,"Ġwife":1959,"Ġfre":1960,"bed":1961,"Ġgives":1962,"Ġleave":1963,"Ġprocess":1964,"ident":1965,"Ġrid":1966,"Ġsimilar":1967,"Ġtaking":1968,"Ġface":1969,"Ġmix":1970,"Ġexplain":1971,"Ġincluded":1972,"Ġunless":1973,"Ġboy":1974,"Ġsort":1975,"Ġfunction":1976,"Ġturned":1977,"Ġreaders":1978,"Ġusb":1979,"Ġsave":1980,"Ġfocus":1981,"Ġpost":1982,"Ġemot":1983,"ming":1984,"ior":1985,"oud":1986,"Ġcoffee":1987,"Ġavail":1988,"Ġglass":1989,"Ġtruly":1990,"Ġdescription":1991,"what":1992,"Ġid":1993,"Ġliter":1994,"Ġphoto":1995,"Ġsou":1996,"net":1997,"unch":1998,"Ġpad":1999,"rent":2000,"Ġvolume":2001,"ef":2002,"Ġperfectly":2003,"Ġattempt":2004,"Ġfits":2005,"Ġpock":2006,"Ġpan":2007,"Ġdraw":2008,"Ġsolid":2009,"Ġkill":2010,"Ġarea":2011,"Ġrefer":2012,"Ġadm":2013,"Ġmis":2014,"Ġwin":2015,"Ġguy":2016,"aken":2017,"ator":2018,"Ġmachine":2019,"medi":2020,"Ġfive":2021,"Ġmil":2022,"Ġdecent":2023,"Ġfuture":2024,"Ġoutside":2025,"Ġended":2026,"Ġexpensive":2027,"sel":2028,"Ġarrived":2029,"Ġspace":2030,"Ġcertainly":2031,"to":2032,"Ġsuc":2033,"play":2034,"Ġdam":2035,"Ġknew":2036,"Ġmiddle":2037,"Ġdisco":2038,"Ġnor":2039,"Ġrating":2040,"uss":2041,"ives":2042,"Ġblue":2043,"Ġluck":2044,"aim":2045,"Ġnet":2046,"iny":2047,"Ġword":2048,"unk":2049,"Ġplaying":2050,"pping":2051,"Ġtem":2052,"Ġrock":2053,"phones":2054,"Ġwants":2055,"ances":2056,"ney":2057,"Ġdead":2058,"Ġbi":2059,"ax":2060,"Ġtrou":2061,"Ġshipping":2062,"ML":2063,"XML":2064,"par":2065,"ister":2066,"Ġthick":2067,"land":2068,"sw":2069,"Ġmeans":2070,"Ġexample":2071,"Ġmanu":2072,"Ġbusiness":2073,"ried":2074,"ese":2075,"wise":2076,"Ġdeli":2077,"Ġgar":2078,"Ġhuman":2079,"Ġmr":2080,"Ġimmedi":2081,"ium":2082,"Ġthird":2083,"Ġfore":2084,"ising":2085,"Ġball":2086,"Ġaff":2087,"Ġmulti":2088,"Ġfeat":2089,"Ġcat":2090,"Ġmanufact":2091,"Ġlives":2092,"ex":2093,"Ġsoftware":2094,"Ġdeep":2095,"Ġfather":2096,"Ġevent":2097,"Ġheard":2098,"Ġpen":2099,"Ġtravel":2100,"Ġcord":2101,"Ġhar":2102,"Ġentertain":2103,"Ġbroke":2104,"Ġyourself":2105,"ann":2106,"Ġsme":2107,"Ġreme":2108,"Ġavailable":2109,"Ġfeature":2110,"Ġhoping":2111,"Ġimpro":2112,"Ġflat":2113,"Ġcal":2114,"ptions":2115,"Ġscenes":2116,"Ġben":2117,"graph":2118,"Ġansw":2119,"ges":2120,"Ġshar":2121,"Ġfrustr":2122,"Ġstandard":2123,"Ġbody":2124,"Ġmystery":2125,"ants":2126,"Ġbatteries":2127,"Ġcond":2128,"Ġglad":2129,"Ġbehind":2130,"ips":2131,"ien":2132,"Ġdevelop":2133,"atic":2134,"arely":2135,"ller":2136,"Ġkeyboard":2137,"Ġthroughout":2138,"Ġparent":2139,"Ġdesp":2140,"Ġenc":2141,"Ġsens":2142,"Ġplease":2143,"Ġbroken":2144,"Ġkindle":2145,"Ġlab":2146,"Ġla":2147,"Ġprogram":2148,"ung":2149,"ured":2150,"Ġelect":2151,"Ġsmaller":2152,"Ġwarrant":2153,"Ġplug":2154,"Ġsil":2155,"Ġanno":2156,"Ġhook":2157,"Ġloose":2158,"Ġfeeling":2159,"Ġannoying":2160,"Ġage":2161,"Ġlay":2162,"Ġhang":2163,"Ġheal":2164,"Ġdeath":2165,"lect":2166,"ites":2167,"Ġexch":2168,"let":2169,"Ġtotally":2170,"Ġrad":2171,"Ġmist":2172,"Ġslightly":2173,"Ġpurp":2174,"Ġsumm":2175,"Ġbright":2176,"Ġtreat":2177,"Ġmissing":2178,"Ġspo":2179,"selves":2180,"Ġpaid":2181,"Ġdoor":2182,"ength":2183,"Ġearly":2184,"kes":2185,"Ġremember":2186,"Ġseller":2187,"Ġactual":2188,"Ġsounds":2189,"Ġauthors":2190,"Ġaccess":2191,"Ġacross":2192,"Ġdry":2193,"Ġlength":2194,"Ġcurrent":2195,"ural":2196,"Ġunc":2197,"Ġstra":2198,"umb":2199,"Ġnoticed":2200,"Ġpossible":2201,"Ġdig":2202,"Ġfab":2203,"Ġspent":2204,"owing":2205,"Ġfur":2206,"Ġotherwise":2207,"Ġintrod":2208,"Ġsitu":2209,"Ġreturned":2210,"ina":2211,"Ġlots":2212,"Ġamerican":2213,"Ġinterested":2214,"Ġsearch":2215,"Ġwood":2216,"itor":2217,"ert":2218,"ially":2219,"Ġgrou":2220,"Ġfire":2221,"Ġlapt":2222,"Ġequ":2223,"Ġincluding":2224,"Ġcaus":2225,"load":2226,"ibly":2227,"Ġlarger":2228,"lus":2229,"Ġopp":2230,"bb":2231,"Ġspecial":2232,"Ġsav":2233,"Ġaudio":2234,"Ġgift":2235,"Ġhit":2236,"ued":2237,"Ġbecom":2238,"Ġbab":2239,"Ġonline":2240,"Ġimmediately":2241,"ield":2242,"Ġthank":2243,"Ġsubject":2244,"Ġtitle":2245,"oof":2246,"Ġep":2247,"Ġstraight":2248,"ime":2249,"Ġplayer":2250,"Ġinvest":2251,"face":2252,"Ġjour":2253,"like":2254,"mas":2255,"Ġfairly":2256,"Ġpot":2257,"Ġoh":2258,"ler":2259,"Ġpush":2260,"Ġsmell":2261,"Ġlock":2262,"ination":2263,"Ġneg":2264,"Ġbase":2265,"Ġhistor":2266,"Ġturns":2267,"Ġdoll":2268,"pend":2269,"Ġlim":2270,"Ġflaw":2271,"Ġant":2272,"Ġconnection":2273,"Ġanyway":2274,"Ġvoice":2275,"Ġgames":2276,"Ġappre":2277,"Ġsuccess":2278,"Ġdre":2279,"set":2280,"Ġwash":2281,"Ġputting":2282,"Ġprofess":2283,"Ġnear":2284,"Ġsomewhat":2285,"Ġresp":2286,"Ġchance":2287,"Ġvac":2288,"Ġtaken":2289,"Ġinvol":2290,"Ġglo":2291,"Ġsaying":2292,"Ġshoe":2293,"ential":2294,"Ġnormal":2295,"Ġdial":2296,"Ġpackage":2297,"zz":2298,"Ġheadphones":2299,"ond":2300,"Ġliving":2301,"ther":2302,"Ġclearly":2303,"Ġfeatures":2304,"Ġeffort":2305,"Ġprefer":2306,"Ġwarranty":2307,"Ġann":2308,"Ġappreci":2309,"ital":2310,"Ġmostly":2311,"Ġknown":2312,"hn":2313,"Ġexchange":2314,"Ġbring":2315,"Ġworst":2316,"Ġburn":2317,"Ġterrible":2318,"Ġtechn":2319,"esome":2320,"Ġdespite":2321,"Ġexcited":2322,"Ġda":2323,"Ġstrugg":2324,"Ġokay":2325,"Ġconfus":2326,"Ġcu":2327,"Ġmatch":2328,"Ġstopped":2329,"Ġfiction":2330,"Ġuses":2331,"ky":2332,"Ġblo":2333,"Ġstur":2334,"Ġsweet":2335,"Ġlaptop":2336,"Ġconcept":2337,"Ġtre":2338,"Ġadvert":2339,"Ġolder":2340,"Ġabo":2341,"Ġsleep":2342,"Ġnotice":2343,"Ġinstalled":2344,"Ġalone":2345,"Ġperio":2346,"Ġwriter":2347,"Ġuseful":2348,"Ġled":2349,"enty":2350,"Ġstre":2351,"Ġadult":2352,"ularly":2353,"Ġmouse":2354,"Ġhappens":2355,"Ġawesome":2356,"Ġrecommended":2357,"Ġra":2358,"Ġcen":2359,"Ġrubber":2360,"Ġgone":2361,"Ġsatis":2362,"Ġlights":2363,"Ġoper":2364,"uth":2365,"ison":2366,"ether":2367,"Ġfans":2368,"Ġremove":2369,"Ġfunny":2370,"Ġcute":2371,"Ġchristmas":2372,"ability":2373,"anger":2374,"Ġcup":2375,"Ġmoder":2376,"Ġhimself":2377,"ivid":2378,"Ġcollection":2379,"ples":2380,"Ġquestions":2381,"Ġspeed":2382,"Ġscratch":2383,"Ġbasically":2384,"Ġclaim":2385,"Ġabove":2386,"Ġfight":2387,"erg":2388,"Ġstarts":2389,"Ġflash":2390,"Ġdetails":2391,"Ġwarm":2392,"Ġchapters":2393,"Ġgrand":2394,"Ġcir":2395,"cial":2396,"Ġupon":2397,"Ġtrain":2398,"Ġregard":2399,"Ġwide":2400,"Ġfing":2401,"Ġpet":2402,"Ġsal":2403,"cum":2404,"Ġlang":2405,"Ġthemselves":2406,"Ġsmooth":2407,"Ġmanufactur":2408,"gn":2409,"Ġhate":2410,"Ġlocal":2411,"Ġblu":2412,"Ġmarket":2413,"Ġjohn":2414,"back":2415,"Ġtoward":2416,"Ġloves":2417,"oid":2418,"Ġble":2419,"rib":2420,"Ġdifference":2421,"Ġappear":2422,"Ġasse":2423,"Ġattention":2424,"Ġpat":2425,"lex":2426,"Ġmac":2427,"Ġboard":2428,"Ġknows":2429,"Ġhelpful":2430,"Ġmov":2431,"Ġremote":2432,"Ġbasic":2433,"Ġworse":2434,"Ġregular":2435,"Ġbuilt":2436,"Ġsold":2437,"Ġcomb":2438,"Ġsepar":2439,"ground":2440,"Ġtown":2441,"Ġmeet":2442,"Ġwhe":2443,"Ġstuck":2444,"pad":2445,"Ġsurprised":2446,"Ġwhether":2447,"ulous":2448,"Ġkeeps":2449,"oun":2450,"Ġquestion":2451,"Ġgreen":2452,"Ġrequire":2453,"orn":2454,"ational":2455,"ises":2456,"Ġrange":2457,"Ġnone":2458,"Ġcolors":2459,"Ġnearly":2460,"Ġphotos":2461,"Ġcrack":2462,"vered":2463,"ective":2464,"Ġdress":2465,"Ġfinished":2466,"Ġsor":2467,"Ġcart":2468,"Ġweak":2469,"Ġmovies":2470,"Ġways":2471,"Ġpoints":2472,"Ġitems":2473,"Ġedge":2474,"Ġherself":2475,"Ġcold":2476,"Ġcent":2477,"Ġends":2478,"Ġcontain":2479,"Ġlangu":2480,"Ġincred":2481,"ding":2482,"Ġmentioned":2483,"Ġloud":2484,"Ġexpl":2485,"Ġplayed":2486,"Ġproperly":2487,"apped":2488,"Ġproject":2489,"Ġcab":2490,"lly":2491,"ision":2492,"Ġrich":2493,"Ġdoub":2494,"vable":2495,"Ġapparent":2496,"Ġlens":2497,"Ġfell":2498,"Ġeasier":2499,"Ġpolit":2500,"Ġparticular":2501,"Ġaccept":2502,"ws":2503,"Ġcenter":2504,"tend":2505,"af":2506,"lled":2507,"rig":2508,"Ġdem":2509,"Ġlaugh":2510,"Ġwatching":2511,"Ġpositive":2512,"ley":2513,"Ġvalue":2514,"Ġtrouble":2515,"Ġwearing":2516,"Ġcapt":2517,"pper":2518,"Ġsturdy":2519,"Ġwindows":2520,"Ġthri":2521,"Ġbuttons":2522,"Ġspir":2523,"work":2524,"Ġground":2525,"Ġtaste":2526,"Ġfurther":2527,"Ġprovide":2528,"Ġrefund":2529,"Ġadded":2530,"Ġvarious":2531,"Ġgroup":2532,"bers":2533,"Ġfully":2534,"Ġcult":2535,"Ġsharp":2536,"Ġboring":2537,"Ġprovided":2538,"Ġaccur":2539,"ron":2540,"Ġhur":2541,"Ġess":2542,"Ġguide":2543,"Ġpocket":2544,"Ġwebs":2545,"Ġholes":2546,"Ġbecame":2547,"son":2548,"ipes":2549,"uced":2550,"Ġgeneral":2551,"Ġvi":2552,"Ġdim":2553,"Ġchanged":2554,"Ġcompared":2555,"ery":2556,"Ġtoy":2557,"Ġfamil":2558,"ades":2559,"Ġmicro":2560,"Ġdisplay":2561,"for":2562,"Ġmultiple":2563,"Ġsusp":2564,"Ġseason":2565,"ety":2566,"cing":2567,"Ġperiod":2568,"Ġnat":2569,"Ġpurpose":2570,"asure":2571,"Ġbey":2572,"Ġult":2573,"agon":2574,"Ġemail":2575,"Ġrepe":2576,"Ġms":2577,"Ġlog":2578,"izing":2579,"Ġadvent":2580,"Ġhair":2581,"Ġprinter":2582,"Ġnoise":2583,"Ġmoving":2584,"Ġbrother":2585,"Ġcharger":2586,"Ġfem":2587,"Ġiphone":2588,"Ġtrust":2589,"do":2590,"Ġevents":2591,"Ġrecently":2592,"Ġscene":2593,"he":2594,"ored":2595,"Ġparents":2596,"Ġnecess":2597,"Ġbaby":2598,"Ġinit":2599,"Ġorgan":2600,"ries":2601,"erm":2602,"Ġleather":2603,"Ġfilter":2604,"room":2605,"Ġlikely":2606,"Ġdest":2607,"Ġexpecting":2608,"Ġtool":2609,"iff":2610,"ugged":2611,"Ġseeing":2612,"Ġopened":2613,"Ġhorrible":2614,"Ġje":2615,"Ġconcern":2616,"Ġfabric":2617,"Ġring":2618,"ishing":2619,"Ġland":2620,"Ġcarry":2621,"use":2622,"Ġdisappointing":2623,"Ġdesigned":2624,"Ġcommun":2625,"Ġtend":2626,"Ġattract":2627,"Ġsand":2628,"Ġbeyond":2629,"Ġcast":2630,"Ġopening":2631,"Ġreviewers":2632,"Ġnovels":2633,"Ġchall":2634,"Ġtwice":2635,"Ġsun":2636,"Ġappears":2637,"azy":2638,"Ġcountry":2639,"Ġbother":2640,"Ġcrit":2641,"Ġobviously":2642,"Ġbal":2643,"Ġeyes":2644,"Ġtrip":2645,"Ġlanguage":2646,"Ġuseless":2647,"Ġbarely":2648,"bing":2649,"oss":2650,"Ġfloor":2651,"Ġlaw":2652,"aught":2653,"ze":2654,"Ġdownload":2655,"Ġsection":2656,"Ġheat":2657,"Ġanim":2658,"Ġdepth":2659,"more":2660,"Ġhealth":2661,"Ġcontinue":2662,"uce":2663,"Ġsam":2664,"Ġarm":2665,"Ġradio":2666,"Ġrelease":2667,"Ġreplaced":2668,"Ġhigher":2669,"bsp":2670,"Ġplaces":2671,"Ġbackground":2672,"retch":2673,"Ġchoice":2674,"Ġreturning":2675,"Ġaccount":2676,"Ġload":2677,"verage":2678,"Ġstrap":2679,"Ġconv":2680,"Ġking":2681,"Ġhumor":2682,"Ġoption":2683,"Ġhd":2684,"Ġhistorical":2685,"Ġtruth":2686,"by":2687,"Ġmodern":2688,"Ġnbsp":2689,"Ġver":2690,"Ġunique":2691,"Ġadap":2692,"Ġanswer":2693,"Ġimposs":2694,"Ġsatisf":2695,"Ġposition":2696,"Ġfantastic":2697,"Ġreach":2698,"Ġdiscuss":2699,"Ġwaiting":2700,"Ġconstruct":2701,"Ġlower":2702,"Ġsides":2703,"Ġdialog":2704,"Ġmaster":2705,"ned":2706,"Ġframe":2707,"Ġeventually":2708,"Ġheld":2709,"na":2710,"Ġenglish":2711,"Ġperformance":2712,"Ġaspect":2713,"Ġparticularly":2714,"Ġcharging":2715,"Ġprotector":2716,"aly":2717,"Ġru":2718,"aring":2719,"Ġrealize":2720,"Ġhole":2721,"Ġsour":2722,"urch":2723,"Ġcontent":2724,"Ġfeed":2725,"Ġdevelopment":2726,"ians":2727,"Ġtrad":2728,"Ġsurv":2729,"Ġcri":2730,"Ġcred":2731,"Ġsorry":2732,"ension":2733,"Ġideas":2734,"Ġcovers":2735,"ented":2736,"Ġteen":2737,"Ġdrink":2738,"ury":2739,"Ġleaves":2740,"Ġimpossible":2741,"Ġchristian":2742,"Ġinsight":2743,"Ġrate":2744,"Ġstretch":2745,"Ġcompl":2746,"Ġavoid":2747,"Ġguit":2748,"arning":2749,"ama":2750,"Ġrecipes":2751,"Ġhonestly":2752,"Ġguys":2753,"iding":2754,"Ġremind":2755,"Ġpurchasing":2756,"Ġlate":2757,"Ġfi":2758,"Ġpu":2759,"Ġlearned":2760,"Ġplenty":2761,"Ġlid":2762,"Ġgraph":2763,"Ġonto":2764,"Ġcommon":2765,"Ġprem":2766,"Ġpoorly":2767,"Ġbir":2768,"izes":2769,"Ġconstantly":2770,"Ġoccas":2771,"Ġwebsite":2772,"Ġsmart":2773,"con":2774,"iar":2775,"Ġwal":2776,"ube":2777,"Ġtwist":2778,"Ġbatt":2779,"itions":2780,"Ġinsp":2781,"Ġentertaining":2782,"Ġcatch":2783,"atever":2784,"Ġtotal":2785,"asy":2786,"Ġready":2787,"Ġfac":2788,"lished":2789,"Ġimagine":2790,"Ġexist":2791,"Ġfold":2792,"Ġmanual":2793,"Ġeye":2794,"Ġwhatever":2795,"Ġsix":2796,"Ġsurface":2797,"Ġnegative":2798,"Ġstri":2799,"Ġspeaker":2800,"Ġbill":2801,"gest":2802,"Ġbottle":2803,"Ġbecomes":2804,"Ġintrig":2805,"Ġphys":2806,"mer":2807,"Ġcy":2808,"Ġfinding":2809,"Ġattached":2810,"Ġlines":2811,"por":2812,"Ġholds":2813,"Ġtale":2814,"Ġfault":2815,"Ġfilled":2816,"Ġskin":2817,"Ġipad":2818,"Ġseriously":2819,"Ġpackaging":2820,"Ġkeeping":2821,"Ġresol":2822,"Ġagree":2823,"Ġsqu":2824,"Ġenjoyable":2825,"Ġgold":2826,"Ġly":2827,"Ġaverage":2828,"pes":2829,"Ġseat":2830,"Ġconsidering":2831,"asc":2832,"ctions":2833,"Ġtun":2834,"Ġfinal":2835,"Ġstarting":2836,"Ġinde":2837,"Ġlearning":2838,"ma":2839,"ledge":2840,"put":2841,"Ġcards":2842,"Ġshel":2843,"Ġobs":2844,"Ġmat":2845,"Ġten":2846,"Ġunb":2847,"cle":2848,"Ġsister":2849,"Ġclassic":2850,"eth":2851,"Ġident":2852,"Ġtape":2853,"ify":2854,"Ġdan":2855,"Ġroad":2856,"Ġtiny":2857,"acy":2858,"aming":2859,"Ġlad":2860,"min":2861,"Ġscrews":2862,"body":2863,"Ġhelps":2864,"Ġimpressed":2865,"ude":2866,"Ġcases":2867,"Ġflow":2868,"Ġfailed":2869,"Ġability":2870,"Ġspoil":2871,"Ġthanks":2872,"Ġboots":2873,"aft":2874,"Ġunlike":2875,"icated":2876,"Ġcolle":2877,"Ġchoo":2878,"rors":2879,"Ġpred":2880,"right":2881,"Ġdoubt":2882,"Ġknife":2883,"Ġrev":2884,"Ġprovides":2885,"Ġest":2886,"Ġtalking":2887,"Ġtablet":2888,"Ġforg":2889,"Ġwrote":2890,"Ġconnected":2891,"arily":2892,"Ġlink":2893,"Ġassemb":2894,"Ġhy":2895,"erc":2896,"Ġdeg":2897,"Ġwireless":2898,"Ġinternet":2899,"lier":2900,"ray":2901,"Ġgun":2902,"Ġadvice":2903,"Ġindivid":2904,"ency":2905,"Ġzipp":2906,"rid":2907,"Ġbigger":2908,"Ġpros":2909,"Ġkit":2910,"Ġlif":2911,"Ġstate":2912,"Ġskill":2913,"Ġpleased":2914,"aching":2915,"Ġcity":2916,"Ġmessage":2917,"Ġran":2918,"Ġbeat":2919,"Ġton":2920,"Ġdate":2921,"Ġsafe":2922,"Ġlin":2923,"Ġhun":2924,"Ġjourney":2925,"Ġfollowing":2926,"Ġut":2927,"head":2928,"Ġmoment":2929,"Ġfigured":2930,"Ġshape":2931,"Ġclick":2932,"Ġimprove":2933,"Ġpc":2934,"Ġlos":2935,"Ġsequ":2936,"Ġmode":2937,"Ġtells":2938,"resh":2939,"gress":2940,"Ġscience":2941,"pective":2942,"Ġdesk":2943,"Ġnicely":2944,"Ġpill":2945,"Ġcomment":2946,"amed":2947,"Ġtracks":2948,"Ġapparently":2949,"Ġcross":2950,"cent":2951,"Ġspirit":2952,"Ġholding":2953,"ners":2954,"Ġedition":2955,"Ġspot":2956,"Ġdeveloped":2957,"Ġtelling":2958,"ero":2959,"Ġintend":2960,"erv":2961,"Ġrelig":2962,"Ġmill":2963,"Ġsitting":2964,"olog":2965,"Ġpicked":2966,"Ġminor":2967,"Ġoil":2968,"nal":2969,"Ġgrow":2970,"den":2971,"ru":2972,"Ġforget":2973,"Ġcomplaint":2974,"uring":2975,"ified":2976,"Ġunderstanding":2977,"Ġnut":2978,"itter":2979,"Ġspeakers":2980,"Ġguitar":2981,"Ġresults":2982,"Ġbow":2983,"Ġillustr":2984,"Ġliterally":2985,"Ġfinds":2986,"Ġdescribed":2987,"Ġrand":2988,"Ġfly":2989,"rench":2990,"Ġsummer":2991,"ata":2992,"iculous":2993,"ipe":2994,"Ġmedium":2995,"Ġshare":2996,"Ġaccom":2997,"Ġpsy":2998,"Ġrain":2999,"sh":3000,"Ġdisappointment":3001,"aker":3002,"Ġfrequ":3003,"Ġthread":3004,"Ġlistening":3005,"Ġbike":3006,"ering":3007,"Ġeat":3008,"Ġsuspense":3009,"Ġknowledge":3010,"Ġdaily":3011,"Ġasked":3012,"ask":3013,"Ġroll":3014,"Ġmeant":3015,"Ġkitch":3016,"Ġfaith":3017,"Ġodd":3018,"uing":3019,"Ġcrazy":3020,"ged":3021,"Ġphil":3022,"Ġchair":3023,"anced":3024,"Ġsituation":3025,"Ġpsych":3026,"Ġthor":3027,"Ġseal":3028,"Ġlose":3029,"Ġmorning":3030,"uction":3031,"Ġfemale":3032,"Ġemp":3033,"Ġmemory":3034,"row":3035,"Ġsecure":3036,"Ġgotten":3037,"Ġviol":3038,"Ġbluet":3039,"Ġreve":3040,"Ġcreate":3041,"ik":3042,"Ġmanufacturer":3043,"Ġfirm":3044,"Ġuns":3045,"Ġdrop":3046,"Ġcloth":3047,"Ġthrow":3048,"Ġpressure":3049,"Ġbluetooth":3050,"Ġleaving":3051,"Ġslee":3052,"Ġbrought":3053,"Ġcoun":3054,"Ġboot":3055,"Ġupgr":3056,"Ġkitchen":3057,"Ġpublic":3058,"Ġinclude":3059,"ionally":3060,"Ġaltern":3061,"Ġmax":3062,"Ġshut":3063,"uum":3064,"Ġdogs":3065,"Ġshock":3066,"Ġultim":3067,"Ġsets":3068,"Ġbass":3069,"Ġfantasy":3070,"Ġcheaper":3071,"how":3072,"Ġround":3073,"these":3074,"Ġwanting":3075,"Ġoffice":3076,"Ġexplo":3077,"Ġlibr":3078,"etic":3079,"Ġowned":3080,"Ġsex":3081,"Ġmad":3082,"chan":3083,"Ġprev":3084,"Ġearth":3085,"Ġship":3086,"Ġadapter":3087,"uit":3088,"Ġclip":3089,"ogn":3090,"Ġinvolved":3091,"ization":3092,"Ġdust":3093,"Ġrecogn":3094,"Ġmoments":3095,"Ġblade":3096,"Ġask":3097,"Ġshoot":3098,"Ġweb":3099,"Ġdocum":3100,"Ġdeb":3101,"Ġprep":3102,"ivity":3103,"Ġshirt":3104,"Ġsoci":3105,"Ġshot":3106,"Ġchanges":3107,"Ġvoc":3108,"Ġpubl":3109,"Ġappreciate":3110,"Ġvacuum":3111,"Ġpac":3112,"Ġbrown":3113,"Ġfalls":3114,"Ġmeaning":3115,"Ġunf":3116,"Ġsecret":3117,"Ġfresh":3118,"ey":3119,"Ġcovered":3120,"Ġsettings":3121,"ec":3122,"Ġgirls":3123,"box":3124,"Ġminute":3125,"lli":3126,"Ġink":3127,"Ġdevices":3128,"Ġhelped":3129,"Ġpatter":3130,"Ġleak":3131,"Ġdanger":3132,"Ġreasons":3133,"Ġpersonally":3134,"Ġrealized":3135,"ony":3136,"Ġmir":3137,"Ġforce":3138,"Ġbegan":3139,"Ġexperien":3140,"Ġdiv":3141,"Ġadvertised":3142,"Ġrou":3143,"Ġrepair":3144,"Ġlabel":3145,"Ġneck":3146,"Ġpotential":3147,"Ġprotection":3148,"Ġimage":3149,"Ġstrange":3150,"Ġseconds":3151,"Ġaware":3152,"Ġmagic":3153,"Ġinfl":3154,"Ġfasc":3155,"lla":3156,"Ġturning":3157,"Ġstates":3158,"Ġdied":3159,"Ġbiggest":3160,"ton":3161,"Ġintell":3162,"Ġvia":3163,"Ġanymore":3164,"Ġstat":3165,"Ġcontacted":3166,"Ġmechan":3167,"Ġheroine":3168,"Ġnormally":3169,"iring":3170,"Ġearlier":3171,"Ġweird":3172,"Ġtar":3173,"Ġreceive":3174,"Ġdeser":3175,"Ġtemper":3176,"Ġprofessional":3177,"Ġcomplex":3178,"Ġapproach":3179,"Ġabs":3180,"Ġbelt":3181,"Ġconsist":3182,"rit":3183,"Ġridiculous":3184,"Ġindividual":3185,"Ġstren":3186,"Ġjud":3187,"ager":3188,"Ġruns":3189,"Ġinches":3190,"Ġrequired":3191,"Ġdialogue":3192,"oc":3193,"Ġgenre":3194,"Ġlasted":3195,"ental":3196,"Ġcareful":3197,"ening":3198,"Ġchurch":3199,"Ġspl":3200,"Ġstock":3201,"Ġaccurate":3202,"ology":3203,"iso":3204,"Ġign":3205,"ished":3206,"Ġdefective":3207,"Ġdurable":3208,"Ġmotor":3209,"Ġdel":3210,"graphy":3211,"Ġadmit":3212,"Ġvict":3213,"Ġparty":3214,"Ġcollege":3215,"Ġtim":3216,"Ġdish":3217,"Ġstoryline":3218,"Ġevil":3219,"Ġdepend":3220,"Ġrough":3221,"Ġbible":3222,"Ġmatt":3223,"Ġfalling":3224,"Ġdouble":3225,"ffer":3226,"Ġdirectly":3227,"Ġpaint":3228,"Ġerrors":3229,"Ġpowerful":3230,"gth":3231,"Ġfeelings":3232,"rew":3233,"Ġfamiliar":3234,"Ġesc":3235,"Ġtab":3236,"Ġcleaning":3237,"Ġmoved":3238,"Ġtea":3239,"Ġawful":3240,"Ġstrength":3241,"Ġspecific":3242,"Ġaddress":3243,"Ġteach":3244,"ibility":3245,"Ġps":3246,"Ġmur":3247,"Ġmail":3248,"Ġconclus":3249,"Ġdy":3250,"Ġdropped":3251,"Ġmich":3252,"Ġuser":3253,"Ġmonitor":3254,"Ġplugged":3255,"Ġthorough":3256,"Ġwindow":3257,"pod":3258,"Ġapple":3259,"Ġsurprise":3260,"Ġblood":3261,"Ġsolution":3262,"Ġarch":3263,"ened":3264,"awn":3265,"Ġfrustrating":3266,"inating":3267,"Ġprim":3268,"Ġride":3269,"Ġtowards":3270,"Ġexerc":3271,"Ġchem":3272,"Ġsetup":3273,"ock":3274,"omfort":3275,"Ġtypical":3276,"Ġjunk":3277,"Ġrespect":3278,"tle":3279,"Ġengine":3280,"ppy":3281,"Ġterms":3282,"Ġepiso":3283,"Ġdiscount":3284,"Ġtom":3285,"Ġflim":3286,"Ġremain":3287,"itted":3288,"Ġsignific":3289,"dden":3290,"idence":3291,"hood":3292,"Ġsams":3293,"Ġwilling":3294,"Ġwalking":3295,"Ġpath":3296,"Ġhopefully":3297,"Ġlibrary":3298,"Ġsite":3299,"Ġcreated":3300,"Ġtough":3301,"orge":3302,"Ġquiet":3303,"Ġdie":3304,"Ġoptions":3305,"port":3306,"Ġdav":3307,"Ġsteel":3308,"Ġdigital":3309,"iences":3310,"Ġbuilding":3311,"ateg":3312,"Ġhom":3313,"Ġlat":3314,"Ġcompar":3315,"Ġrandom":3316,"Ġapplic":3317,"antic":3318,"Ġstor":3319,"aces":3320,"Ġice":3321,"Ġrob":3322,"Ġkick":3323,"iety":3324,"Ġallows":3325,"com":3326,"Ġdrag":3327,"come":3328,"Ġunre":3329,"Ġreviewer":3330,"ghter":3331,"Ġthoughts":3332,"Ġsudden":3333,"Ġdata":3334,"Ġnature":3335,"Ġfrank":3336,"een":3337,"Ġrecording":3338,"Ġmistake":3339,"Ġtow":3340,"Ġextend":3341,"Ġknowing":3342,"Ġbelow":3343,"Ġincre":3344,"Ġprior":3345,"ered":3346,"Ġperspective":3347,"Ġpin":3348,"Ġimm":3349,"Ġnecessary":3350,"Ġreality":3351,"Ġmale":3352,"Ġteam":3353,"Ġdirections":3354,"Ġindic":3355,"Ġrouter":3356,"Ġfol":3357,"Ġedges":3358,"Ġund":3359,"ading":3360,"Ġther":3361,"Ġtechno":3362,"form":3363,"Ġchina":3364,"Ġremoved":3365,"Ġsuit":3366,"Ġstated":3367,"Ġplaced":3368,"Ġpredict":3369,"Ġworn":3370,"wood":3371,"Ġcell":3372,"Ġlimited":3373,"iving":3374,"Ġadditional":3375,"Ġtools":3376,"Ġsubst":3377,"mi":3378,"Ġgrab":3379,"Ġshame":3380,"Ġflimsy":3381,"Ġamerica":3382,"Ġusual":3383,"verse":3384,"ging":3385,"ients":3386,"Ġamong":3387,"Ġbirth":3388,"ee":3389,"Ġdeterm":3390,"used":3391,"irst":3392,"Ġcaught":3393,"Ġsocial":3394,"Ġareas":3395,"Ġwrites":3396,"Ġarg":3397,"ball":3398,"Ġbrush":3399,"Ġdu":3400,"Ġpattern":3401,"Ġmm":3402,"Ġeduc":3403,"Ġnews":3404,"Ġsouth":3405,"Ġexamples":3406,"Ġreference":3407,"Ġloss":3408,"Ġspray":3409,"Ġadventure":3410,"Ġslide":3411,"Ġbreat":3412,"Ġassum":3413,"pri":3414,"Ġsamsung":3415,"Ġris":3416,"Ġlu":3417,"Ġeffective":3418,"Ġce":3419,"Ġpractice":3420,"Ġrelative":3421,"Ġforced":3422,"Ġexplan":3423,"Ġpublished":3424,"Ġjum":3425,"Ġdescriptions":3426,"Ġenv":3427,"Ġbags":3428,"val":3429,"Ġmetho":3430,"agr":3431,"Ġaccident":3432,"Ġconvers":3433,"Ġstudy":3434,"Ġoffers":3435,"ipped":3436,"Ġchoose":3437,"Ġreleased":3438,"Ġcartrid":3439,"Ġpulled":3440,"Ġgrip":3441,"Ġwheel":3442,"Ġdamage":3443,"Ġjew":3444,"Ġkeys":3445,"Ġthus":3446,"while":3447,"Ġreport":3448,"onse":3449,"Ġiron":3450,"Ġnatural":3451,"Ġbattle":3452,"Ġformat":3453,"Ġrespons":3454,"Ġlegs":3455,"Ġmer":3456,"Ġreads":3457,"Ġing":3458,"Ġfollowed":3459,"Ġcand":3460,"Ġdetailed":3461,"Ġincredibly":3462,"Ġemotional":3463,"Ġwild":3464,"Ġtrick":3465,"Ġpump":3466,"Ġtradition":3467,"isher":3468,"Ġprogress":3469,"Ġstraps":3470,"Ġbunch":3471,"Ġinstallation":3472,"Ġanywhere":3473,"Ġintended":3474,"Ġjes":3475,"Ġpants":3476,"Ġsuffer":3477,"Ġgoo":3478,"omb":3479,"Ġcondition":3480,"Ġshowing":3481,"Ġforever":3482,"Ġminim":3483,"Ġtries":3484,"Ġsomehow":3485,"Ġmc":3486,"Ġfield":3487,"Ġpolitical":3488,"Ġchann":3489,"Ġmoves":3490,"well":3491,"Ġden":3492,"Ġlikes":3493,"Ġpark":3494,"Ġfort":3495,"Ġincludes":3496,"nam":3497,"Ġju":3498,"Ġsony":3499,"Ġresponse":3500,"Ġchalleng":3501,"Ġexpectations":3502,"ining":3503,"fl":3504,"ike":3505,"Ġtransl":3506,"Ġcalls":3507,"Ġpow":3508,"Ġcamp":3509,"Ġsignal":3510,"Ġaffect":3511,"Ġshown":3512,"Ġcounter":3513,"Ġgrind":3514,"Ġbum":3515,"Ġseparate":3516,"gs":3517,"Ġrole":3518,"Ġneither":3519,"Ġcats":3520,"Ġcry":3521,"Ġreveal":3522,"irty":3523,"Ġspring":3524,"Ġexperienced":3525,"Ġexpress":3526,"rum":3527,"Ġsuspect":3528,"Ġbur":3529,"Ġvamp":3530,"Ġmini":3531,"Ġfinger":3532,"ifi":3533,"Ġbrilli":3534,"Ġtwists":3535,"Ġvill":3536,"Ġselect":3537,"Ġcompe":3538,"gar":3539,"Ġuncomfort":3540,"Ġplays":3541,"Ġmarri":3542,"Ġerror":3543,"Ġfear":3544,"Ġhurt":3545,"Ġclosed":3546,"Ġpossibly":3547,"Ġopt":3548,"Ġrecei":3549,"Ġdirection":3550,"Ġapply":3551,"Ġsized":3552,"Ġnotes":3553,"Ġshipped":3554,"Ġbio":3555,"Ġbuck":3556,"Ġauto":3557,"pond":3558,"Ġdollars":3559,"Ġbegins":3560,"ork":3561,"Ġbenef":3562,"Ġscri":3563,"Ġstain":3564,"Ġacting":3565,"uro":3566,"Ġbud":3567,"Ġhes":3568,"Ġclim":3569,"Ġsadly":3570,"Ġordering":3571,"Ġzero":3572,"Ġheadset":3573,"Ġflavor":3574,"Ġmeets":3575,"Ġbehav":3576,"first":3577,"Ġconstruction":3578,"Ġpremise":3579,"old":3580,"sc":3581,"Ġblock":3582,"Ġmass":3583,"Ġshif":3584,"Ġgenerally":3585,"ii":3586,"Ġcorrectly":3587,"Ġsociety":3588,"Ġach":3589,"Ġcontr":3590,"ipping":3591,"Ġbon":3592,"ring":3593,"Ġconven":3594,"Ġexperiences":3595,"Ġbrief":3596,"Ġwaist":3597,"Ġtur":3598,"Ġaside":3599,"Ġshop":3600,"Ġalbums":3601,"Ġnav":3602,"Ġsurprising":3603,"action":3604,"Ġtall":3605,"Ġaccord":3606,"Ġpleas":3607,"Ġsuppose":3608,"itary":3609,"Ġcode":3610,"bert":3611,"pet":3612,"cer":3613,"Ġbrings":3614,"Ġculture":3615,"Ġdrama":3616,"Ġautom":3617,"Ġobject":3618,"Ġhardware":3619,"Ġwed":3620,"acher":3621,"Ġtank":3622,"Ġcredit":3623,"Ġchanging":3624,"Ġwet":3625,"Ġconfusing":3626,"Ġstorage":3627,"Ġbath":3628,"Ġears":3629,"Ġelements":3630,"Ġcables":3631,"col":3632,"after":3633,"Ġahead":3634,"Ġwhose":3635,"Ġnd":3636,"pack":3637,"Ġhorror":3638,"Ġdiscovered":3639,"Ġbend":3640,"Ġhose":3641,"Ġoffered":3642,"Ġconvin":3643,"Ġlisted":3644,"Ġsmo":3645,"iment":3646,"Ġcareer":3647,"Ġcompet":3648,"illy":3649,"weight":3650,"Ġclock":3651,"Ġstudents":3652,"Ġresist":3653,"Ġcompan":3654,"Ġmissed":3655,"Ġray":3656,"Ġwinter":3657,"Ġtips":3658,"eper":3659,"Ġnarrative":3660,"Ġconsum":3661,"des":3662,"Ġvampire":3663,"Ġcharged":3664,"Ġreli":3665,"Ġangle":3666,"Ġmeasure":3667,"Ġsyn":3668,"Ġreflect":3669,"Ġrelationships":3670,"ses":3671,"ael":3672,"Ġdoct":3673,"Ġcas":3674,"icle":3675,"Ġsource":3676,"amm":3677,"Ġdream":3678,"Ġplain":3679,"Ġcraft":3680,"Ġdamaged":3681,"bage":3682,"Ġcentury":3683,"Ġuncomfortable":3684,"ously":3685,"Ġdon":3686,"Ġediting":3687,"Ġfascinating":3688,"go":3689,"Ġfixed":3690,"Ġdrawn":3691,"Ġscript":3692,"Ġtherefore":3693,"Ġbrit":3694,"Ġappeal":3695,"Ġfacts":3696,"Ġspin":3697,"Ġtypes":3698,"Ġcutting":3699,"Ġgover":3700,"Ġcontains":3701,"Ġvariety":3702,"Ġdecide":3703,"esh":3704,"artment":3705,"Ġhopes":3706,"gle":3707,"Ġpound":3708,"Ġoriginally":3709,"Ġweather":3710,"Ġhund":3711,"Ġentirely":3712,"Ġnames":3713,"Ġhundred":3714,"unt":3715,"Ġrealistic":3716,"Ġunus":3717,"mp":3718,"otes":3719,"Ġmarriage":3720,"Ġboys":3721,"others":3722,"Ġexciting":3723,"Ġpal":3724,"Ġrush":3725,"Ġsatisfied":3726,"Ġelectron":3727,"Ġlbs":3728,"Ġinvestig":3729,"Ġmart":3730,"elie":3731,"when":3732,"orter":3733,"Ġvideos":3734,"Ġsomewhere":3735,"Ġinex":3736,"Ġdestro":3737,"Ġconclusion":3738,"eter":3739,"Ġlyr":3740,"Ġprec":3741,"Ġfoam":3742,"Ġdad":3743,"Ġinfo":3744,"Ġfu":3745,"Ġprotagon":3746,"Ġdiscover":3747,"Ġtraining":3748,"Ġlived":3749,"Ġencoun":3750,"over":3751,"Ġcaused":3752,"Ġmilitary":3753,"Ġforth":3754,"Ġpopular":3755,"Ġjames":3756,"arm":3757,"eds":3758,"Ġtone":3759,"ortun":3760,"Ġproduction":3761,"Ġwarning":3762,"Ġscient":3763,"ilities":3764,"Ġmedia":3765,"Ġchose":3766,"Ġdom":3767,"Ġsoul":3768,"Ġproof":3769,"Ġphones":3770,"Ġstere":3771,"Ġpink":3772,"Ġattack":3773,"Ġtip":3774,"Ġsnow":3775,"Ġjoy":3776,"Ġimages":3777,"Ġpresented":3778,"Ġactiv":3779,"Ġgarbage":3780,"Ġclub":3781,"Ġalex":3782,"Ġoccur":3783,"Ġindeed":3784,"Ġvel":3785,"los":3786,"Ġbucks":3787,"round":3788,"Ġtrash":3789,"Ġopportun":3790,"Ġsexy":3791,"Ġrepet":3792,"iron":3793,"ival":3794,"Ġromantic":3795,"outh":3796,"Ġsituations":3797,"Ġsport":3798,"Ġwashing":3799,"Ġknock":3800,"Ġintellig":3801,"ica":3802,"Ġzipper":3803,"URL":3804,"Ġrequires":3805,"ergy":3806,"bit":3807,"Ġrecent":3808,"Ġwid":3809,"Ġshowed":3810,"Ġgal":3811,"Ġflex":3812,"Ġdisp":3813,"Ġsteps":3814,"Ġelsewhere":3815,"ingly":3816,"Ġpure":3817,"Ġsuff":3818,"Ġglue":3819,"Ġbra":3820,"ral":3821,"Ġbelievable":3822,"Ġmixed":3823,"Ġtrail":3824,"urity":3825,"Ġdut":3826,"Ġjap":3827,"Ġpockets":3828,"Ġintroduction":3829,"raid":3830,"ros":3831,"Ġjesus":3832,"Ġsurround":3833,"Ġstitch":3834,"Ġgovern":3835,"Ġbes":3836,"Ġrot":3837,"Ġtheme":3838,"Ġconcerned":3839,"Ġslowly":3840,"Ġjapan":3841,"Ġcirc":3842,"Ġworkout":3843,"Ġsizes":3844,"une":3845,"Ġcorner":3846,"Ġbreaking":3847,"Ġslip":3848,"Ġhooked":3849,"Ġimpact":3850,"Ġmel":3851,"Ġingred":3852,"Ġnetwork":3853,"iters":3854,"rying":3855,"Ġpreviously":3856,"Ġafraid":3857,"Ġinitially":3858,"Ġdiss":3859,"Ġdavid":3860,"Ġfilms":3861,"Ġgrad":3862,"Ġcooking":3863,"Ġultimately":3864,"Ġneigh":3865,"Ġconstant":3866,"Ġtechni":3867,"Ġkilled":3868,"Ġstudent":3869,"Ġfash":3870,"Ġneighb":3871,"Ġdocument":3872,"Ġheight":3873,"Ġcreative":3874,"Ġenviron":3875,"Ġmattress":3876,"Ġtired":3877,"Ġstruct":3878,"Ġannoy":3879,"Ġhappening":3880,"kward":3881,"Ġrout":3882,"Ġsque":3883,"Ġlacking":3884,"uted":3885,"time":3886,"Ġpillow":3887,"Ġgb":3888,"Ġshelf":3889,"Ġpassion":3890,"Ġmouth":3891,"Ġmiles":3892,"Ġmal":3893,"entially":3894,"Ġyoun":3895,"Ġinner":3896,"Ġrepres":3897,"rets":3898,"here":3899,"Ġempt":3900,"Ġsole":3901,"Ġcurrently":3902,"Ġyounger":3903,"Ġportray":3904,"Ġawkward":3905,"Ġnumer":3906,"Ġwondering":3907,"Ġoffic":3908,"Ġholder":3909,"Ġbulb":3910,"Ġthoroughly":3911,"itty":3912,"Ġdrug":3913,"Ġpublisher":3914,"Ġrelatively":3915,"Ġmagnet":3916,"Ġplayers":3917,"char":3918,"Ġanti":3919,"Ġtechnology":3920,"ands":3921,"Ġtested":3922,"Ġengaging":3923,"Ġbalance":3924,"Ġfashion":3925,"Ġnumbers":3926,"Ġcomments":3927,"ulation":3928,"Ġyellow":3929,"Ġtarget":3930,"rees":3931,"Ġrepeated":3932,"Ġskip":3933,"Ġdelight":3934,"Ġshower":3935,"key":3936,"Ġcompare":3937,"Ġhardly":3938,"Ġeveryday":3939,"rupt":3940,"lls":3941,"host":3942,"orable":3943,"Ġmovement":3944,"Ġwriters":3945,"Ġencour":3946,"Ġunable":3947,"Ġpolice":3948,"Ġram":3949,"Ġprevent":3950,"Ġghost":3951,"lied":3952,"Ġkiller":3953,"onnect":3954,"Ġchecked":3955,"Ġpredictable":3956,"Ġhandy":3957,"Ġrh":3958,"Ġhanging":3959,"Ġeuro":3960,"Ġartist":3961,"Ġaudience":3962,"Ġeffects":3963,"Ġdistract":3964,"friend":3965,"Ġassembly":3966,"Ġspending":3967,"Ġtap":3968,"Ġpace":3969,"Ġpaying":3970,"Ġclaims":3971,"Ġsocks":3972,"Ġsar":3973,"Ġselling":3974,"Ġeditor":3975,"Ġedit":3976,"Ġsending":3977,"Ġfingers":3978,"Ġtor":3979,"Ġsnug":3980,"Ġmagn":3981,"Ġwore":3982,"Ġfiles":3983,"Ġcontinues":3984,"Ġmembers":3985,"ules":3986,"Ġdepress":3987,"Ġworry":3988,"Ġcups":3989,"Ġlady":3990,"Ġarms":3991,"ration":3992,"Ġwasted":3993,"Ġbeautifully":3994,"Ġbulbs":3995,"ements":3996,"Ġanaly":3997,"lict":3998,"Ġgraphics":3999,"Ġcuri":4000,"Ġinflu":4001,"Ġarc":4002,"Ġipod":4003,"Ġnarrow":4004,"Ġdriver":4005,"Ġrespond":4006,"Ġtele":4007,"aded":4008,"Ġchick":4009,"Ġhol":4010,"apping":4011,"Ġrack":4012,"Ġtechnical":4013,"Ġger":4014,"Ġprime":4015,"Ġgrowing":4016,"Ġspecif":4017,"anted":4018,"Ġinterview":4019,"Ġod":4020,"Ġeth":4021,"Ġbrain":4022,"Ġportion":4023,"Ġfrench":4024,"Ġtemperature":4025,"Ġlatest":4026,"oso":4027,"Ġenergy":4028,"Ġscan":4029,"Ġcrime":4030,"Ġunits":4031,"Ġversions":4032,"Ġsale":4033,"Ġupgrade":4034,"Ġtopic":4035,"Ġsilver":4036,"Ġrd":4037,"Ġloving":4038,"Ġfle":4039,"Ġwatched":4040,"Ġthrown":4041,"Ġanswers":4042,"ker":4043,"Ġnumerous":4044,"Ġrated":4045,"Ġincredible":4046,"Ġthinks":4047,"Ġconsidered":4048,"Ġbeach":4049,"Ġemotions":4050,"Ġregret":4051,"Ġpriv":4052,"mble":4053,"Ġsight":4054,"zen":4055,"Ġmaterials":4056,"Ġtraditional":4057,"Ġunivers":4058,"Ġformer":4059,"Ġfaster":4060,"Ġmichael":4061,"Ġmarried":4062,"Ġgard":4063,"Ġdriving":4064,"Ġjam":4065,"rific":4066,"Ġtour":4067,"Ġwifi":4068,"priate":4069,"yal":4070,"Ġeating":4071,"Ġprinted":4072,"ague":4073,"inary":4074,"Ġallowed":4075,"Ġtruck":4076,"Ġsuddenly":4077,"Ġinno":4078,"Ġban":4079,"Ġtag":4080,"Ġexec":4081,"cil":4082,"lessly":4083,"Ġdecision":4084,"Ġclar":4085,"istry":4086,"Ġgain":4087,"sp":4088,"Ġcompelling":4089,"Ġsections":4090,"ards":4091,"Ġvan":4092,"Ġwow":4093,"Ġelectric":4094,"Ġblend":4095,"Ġconflict":4096,"Ġincor":4097,"Ġbrilliant":4098,"Ġresour":4099,"ula":4100,"Ġpacked":4101,"Ġjump":4102,"Ġpractical":4103,"Ġheads":4104,"Ġtension":4105,"Ġsnap":4106,"ded":4107,"ushing":4108,"Ġtransfer":4109,"cro":4110,"Ġlevels":4111,"Ġcamer":4112,"Ġstreet":4113,"itude":4114,"Ġleads":4115,"Ġdefe":4116,"Ġplate":4117,"Ġdiet":4118,"Ġstruggle":4119,"Ġphysical":4120,"Ġveh":4121,"Ġvs":4122,"Ġnove":4123,"ett":4124,"Ġlovely":4125,"Ġdin":4126,"Ġfolks":4127,"Ġaspects":4128,"Ġadding":4129,"Ġbull":4130,"Ġped":4131,"Ġhat":4132,"Ġactions":4133,"Ġciv":4134,"Ġny":4135,"Ġur":4136,"Ġsuccessful":4137,"Ġindust":4138,"umin":4139,"Ġyork":4140,"Ġbackpack":4141,"Ġnorth":4142,"Ġpuzz":4143,"Ġhi":4144,"loy":4145,"Ġcontroller":4146,"Ġrisk":4147,"Ġfactory":4148,"Ġgreatest":4149,"mes":4150,"Ġbent":4151,"Ġsequel":4152,"Ġpool":4153,"enge":4154,"Ġbeware":4155,"Ġsaved":4156,"Ġcomplaints":4157,"Ġwes":4158,"Ġreferences":4159,"ana":4160,"Ġenvironment":4161,"Ġhp":4162,"Ġsink":4163,"Ġdealing":4164,"conom":4165,"iece":4166,"Ġphiloso":4167,"Ġdirty":4168,"Ġdesire":4169,"Ġmodels":4170,"Ġirrit":4171,"Ġbands":4172,"Ġcloser":4173,"order":4174,"Ġsaf":4175,"Ġq":4176,"appy":4177,"Ġgramm":4178,"Ġlightweight":4179,"Ġdimens":4180,"Ġclothes":4181,"Ġskills":4182,"Ġdull":4183,"Ġeurope":4184,"ails":4185,"Ġrac":4186,"Ġbrands":4187,"Ġbreath":4188,"Ġhearing":4189,"Ġfrequently":4190,"Ġhass":4191,"Ġmainly":4192,"Ġfish":4193,"Ġstays":4194,"Ġfro":4195,"Ġachie":4196,"wards":4197,"Ġtree":4198,"Ġeverywhere":4199,"cr":4200,"Ġnic":4201,"idden":4202,"atives":4203,"Ġregarding":4204,"Ġwhom":4205,"Ġchoices":4206,"edy":4207,"ato":4208,"Ġexplained":4209,"Ġwest":4210,"Ġvirt":4211,"Ġhea":4212,"Ġfighting":4213,"Ġhoped":4214,"olution":4215,"Ġvib":4216,"Ġgovernment":4217,"Ġmp":4218,"00":4219,"Ġintriguing":4220,"Ġeconom":4221,"Ġmanner":4222,"ively":4223,"Ġinstrum":4224,"Ġinitial":4225,"Ġboyfriend":4226,"Ġrear":4227,"Ġtube":4228,"Ġsimpl":4229,"Ġfal":4230,"Ġded":4231,"Ġterm":4232,"Ġputs":4233,"Ġharder":4234,"str":4235,"Ġvelcro":4236,"bes":4237,"Ġnamed":4238,"Ġreset":4239,"Ġgrade":4240,"Ġlyrics":4241,"sequ":4242,"asp":4243,"Ġlift":4244,"Ġzo":4245,"Ġlou":4246,"Ġanten":4247,"Ġdelic":4248,"Ġcontrols":4249,"Ġcarefully":4250,"Ġske":4251,"Ġcontem":4252,"Ġsick":4253,"Ġdescribe":4254,"Ġwise":4255,"Ġdelivery":4256,"ius":4257,"Ġrelated":4258,"Ġera":4259,"Ġfile":4260,"Ġpun":4261,"idge":4262,"Ġstation":4263,"Ġunex":4264,"Ġadults":4265,"Ġdestroy":4266,"Ġhits":4267,"Ġdemon":4268,"Ġprotagonist":4269,"Ġjacket":4270,"Ġbeauty":4271,"Ġcore":4272,"Ġups":4273,"Ġopportunity":4274,"inese":4275,"Ġbroad":4276,"Ġopinions":4277,"Ġconfused":4278,"Ġstiff":4279,"Ġshall":4280,"Ġment":4281,"Ġaccording":4282,"Ġchinese":4283,"Ġsecrets":4284,"lection":4285,"Ġasking":4286,"Ġequip":4287,"Ġsteam":4288,"Ġpolic":4289,"Ġmanaged":4290,"Ġgloves":4291,"egr":4292,"Ġdangerous":4293,"Ġspecifically":4294,"Ġreasonable":4295,"Ġdrives":4296,"Ġteacher":4297,"Ġshap":4298,"Ġflip":4299,"Ġemb":4300,"Ġlitter":4301,"Ġcollar":4302,"Ġsecurity":4303,"Ġphilosoph":4304,"icles":4305,"Ġpaced":4306,"Ġresolution":4307,"Ġmeas":4308,"ev":4309,"Ġbecoming":4310,"Ġcompat":4311,"ternal":4312,"Ġsupply":4313,"sis":4314,"Ġsilly":4315,"Ġglasses":4316,"Ġlol":4317,"Ġarr":4318,"Ġtheory":4319,"ribly":4320,"Ġadds":4321,"Ġingredients":4322,"Ġflaws":4323,"atically":4324,"Ġreplacing":4325,"Ġcommunic":4326,"ok":4327,"Ġgrace":4328,"Ġrelate":4329,"Ġcreating":4330,"Ġjul":4331,"Ġted":4332,"Ġcracked":4333,"Ġrein":4334,"Ġunbelie":4335,"Ġmold":4336,"Ġwashed":4337,"Ġoppos":4338,"ief":4339,"Ġhassle":4340,"Ġduty":4341,"Ġdrum":4342,"Ġdelivered":4343,"Ġspark":4344,"ga":4345,"Ġbreaks":4346,"Ġslim":4347,"iling":4348,"Ġbear":4349,"Ġanimals":4350,"Ġafford":4351,"Ġmounting":4352,"Ġyeah":4353,"lock":4354,"rif":4355,"enn":4356,"Ġisland":4357,"Ġangel":4358,"Ġsearching":4359,"Ġstands":4360,"Ġreceiver":4361,"Ġoutput":4362,"Ġsounded":4363,"Ġblank":4364,"Ġcomparison":4365,"Ġelement":4366,"Ġtroub":4367,"Ġprop":4368,"Ġreligious":4369,"Ġillustrations":4370,"Ġbesides":4371,"Ġcanon":4372,"Ġgoogle":4373,"Ġcris":4374,"Ġinput":4375,"wr":4376,"Ġfails":4377,"Ġrecipe":4378,"Ġworried":4379,"Ġinsert":4380,"ointed":4381,"oted":4382,"Ġequipment":4383,"standing":4384,"Ġblur":4385,"hes":4386,"Ġhous":4387,"Ġfool":4388,"Ġencounter":4389,"Ġdegree":4390,"Ġteaching":4391,"Ġalternative":4392,"Ġpeel":4393,"Ġcivil":4394,"Ġexplanation":4395,"Ġlosing":4396,"Ġade":4397,"pensive":4398,"Ġclever":4399,"Ġpaul":4400,"Ġfriendly":4401,"Ġbored":4402,"Ġsheet":4403,"Ġcommunity":4404,"agraph":4405,"Ġbadly":4406,"Ġstress":4407,"Ġthriller":4408,"Ġattractive":4409,"vant":4410,"Ġfitting":4411,"Ġbat":4412,"Ġlucky":4413,"Ġlord":4414,"Ġparagraph":4415,"Ġmotiv":4416,"Ġgrew":4417,"Ġdistance":4418,"Ġham":4419,"Ġbehavior":4420,"Ġwires":4421,"Ġinexpensive":4422,"ston":4423,"Ġboxes":4424,"aves":4425,"Ġdiam":4426,"Ġharm":4427,"Ġmath":4428,"Ġbelief":4429,"Ġwrap":4430,"Ġdirt":4431,"Ġoutdo":4432,"Ġbrothers":4433,"Ġpray":4434,"Ġrequest":4435,"Ġsignificant":4436,"Ġmap":4437,"Ġvisit":4438,"ha":4439,"Ġbrack":4440,"Ġtear":4441,"ancy":4442,"Ġdece":4443,"Ġcritic":4444,"Ġgent":4445,"ux":4446,"alth":4447,"dom":4448,"Ġextended":4449,"proof":4450,"Ġcars":4451,"Ġtopics":4452,"Ġjan":4453,"ca":4454,"Ġplanning":4455,"Ġprepared":4456,"Ġsheets":4457,"Ġsensitive":4458,"Ġattempts":4459,"Ġwallet":4460,"Ġcausing":4461,"Ġintroduced":4462,"Ġviolence":4463,"pected":4464,"Ġspan":4465,"Ġtoys":4466,"Ġempty":4467,"Ġassume":4468,"Ġbonus":4469,"Ġbirthday":4470,"Ġstring":4471,"Ġtrilogy":4472,"Ġtalent":4473,"Ġapplication":4474,"Ġcush":4475,"Ġcorners":4476,"Ġcrash":4477,"ibl":4478,"Ġbowl":4479,"ques":4480,"Ġdance":4481,"azz":4482,"Ġenem":4483,"Ġmaintain":4484,"Ġwit":4485,"Ġdoctor":4486,"Ġhdmi":4487,"Ġstone":4488,"Ġinternal":4489,"tr":4490,"Ġtub":4491,"Ġfrustrated":4492,"Ġwedding":4493,"ai":4494,"Ġwheels":4495,"Ġrarely":4496,"gy":4497,"Ġcauses":4498,"yle":4499,"Ġcustomers":4500,"Ġsafety":4501,"Ġdegrees":4502,"Ġoverly":4503,"porary":4504,"Ġprose":4505,"Ġlighter":4506,"Ġdrain":4507,"Ġcomplicated":4508,"Ġsquare":4509,"Ġmusical":4510,"Ġpeace":4511,"wing":4512,"Ġletters":4513,"Ġmaker":4514,"Ġappropriate":4515,"cl":4516,"Ġgas":4517,"Ġhint":4518,"Ġchart":4519,"sing":4520,"Ġbits":4521,"Ġcabin":4522,"Ġvictim":4523,"Ġcarrying":4524,"erson":4525,"Ġadvanced":4526,"Ġpulling":4527,"isters":4528,"Ġthom":4529,"Ġchildhood":4530,"oting":4531,"Ġfamous":4532,"Ġfollows":4533,"Ġbritish":4534,"lin":4535,"Ġsky":4536,"Ġlocation":4537,"Ġot":4538,"Ġfunctions":4539,"Ġegg":4540,"Ġdisappe":4541,"Ġhealthy":4542,"Ġshorter":4543,"Ġimpression":4544,"Ġchallenge":4545,"Ġmary":4546,"Ġproduced":4547,"Ġapps":4548,"Ġantenna":4549,"Ġspots":4550,"Ġsolve":4551,"aving":4552,"bble":4553,"Ġabuse":4554,"Ġlamp":4555,"Ġshad":4556,"Ġupset":4557,"rest":4558,"Ġwrist":4559,"ems":4560,"Ġoccasionally":4561,"Ġhesit":4562,"Ġstage":4563,"Ġdetect":4564,"Ġjournal":4565,"Ġalive":4566,"Ġsugar":4567,"Ġmotion":4568,"Ġchain":4569,"Ġcircum":4570,"Ġregardless":4571,"Ġletter":4572,"Ġcosts":4573,"Ġrust":4574,"Ġmethod":4575,"Ġmistakes":4576,"icient":4577,"ological":4578,"Ġnoted":4579,"Ġhandles":4580,"Ġupper":4581,"Ġzomb":4582,"Ġaccompl":4583,"there":4584,"Ġlesson":4585,"Ġpriced":4586,"bud":4587,"Ġcarpet":4588,"Ġmeat":4589,"Ġcameras":4590,"agement":4591,"kend":4592,"Ġdeeper":4593,"Ġunne":4594,"oses":4595,"Ġsticks":4596,"Ġscale":4597,"Ġord":4598,"la":4599,"Ġtong":4600,"Ġintense":4601,"Ġfif":4602,"Ġstores":4603,"Ġvisual":4604,"Ġthrew":4605,"Ġantic":4606,"Ġseam":4607,"Ġgenu":4608,"Ġtoe":4609,"lored":4610,"Ġtie":4611,"Ġfriendship":4612,"Ġweekend":4613,"Ġcott":4614,"Ġspeaking":4615,"icing":4616,"Ġevidence":4617,"Ġstrateg":4618,"bought":4619,"alley":4620,"Ġescape":4621,"Ġpersonality":4622,"look":4623,"aur":4624,"Ġfailure":4625,"Ġpassed":4626,"arsh":4627,"Ġcompon":4628,"Ġappeared":4629,"Ġii":4630,"Ġmurder":4631,"Ġhidden":4632,"Ġgenuine":4633,"Ġinstalling":4634,"Ġcontinu":4635,"oring":4636,"Ġparan":4637,"roid":4638,"Ġpanel":4639,"aries":4640,"Ġry":4641,"Ġcompact":4642,"Ġlam":4643,"bal":4644,"Ġsac":4645,"Ġbutter":4646,"Ġholly":4647,"Ġwestern":4648,"Ġflu":4649,"Ġstanding":4650,"Ġmechanism":4651,"uces":4652,"Ġconcepts":4653,"Ġthreat":4654,"Ġliterature":4655,"ext":4656,"Ġqual":4657,"Ġresc":4658,"Ġcru":4659,"Ġmisle":4660,"Ġpads":4661,"Ġoz":4662,"Ġexception":4663,"Ġstainless":4664,"Ġinteract":4665,"xic":4666,"ino":4667,"Ġplant":4668,"Ġconvenient":4669,"Ġhighlight":4670,"ators":4671,"ander":4672,"Ġtent":4673,"Ġprinting":4674,"isions":4675,"Ġmyth":4676,"Ġsd":4677,"Ġcontainer":4678,"Ġease":4679,"Ġmere":4680,"cious":4681,"Ġbread":4682,"Ġspiritual":4683,"Ġprompt":4684,"miss":4685,"Ġbol":4686,"kin":4687,"Ġgear":4688,"Ġalot":4689,"Ġsentence":4690,"Ġmagaz":4691,"Ġepisode":4692,"Ġrare":4693,"iven":4694,"Ġsilic":4695,"Ġchannel":4696,"bbles":4697,"Ġconnector":4698,"Ġassist":4699,"Ġreviewed":4700,"Ġreliable":4701,"Ġbudget":4702,"Ġens":4703,"Ġwrapped":4704,"Ġneat":4705,"Ġrose":4706,"Ġraw":4707,"Ġchemistry":4708,"Ġsensor":4709,"Ġcombination":4710,"Ġminimal":4711,"Ġrace":4712,"inct":4713,"Ġinser":4714,"Ġyout":4715,"Ġgrill":4716,"Ġhill":4717,"aff":4718,"ashing":4719,"Ġsan":4720,"Ġbenefit":4721,"Ġdepending":4722,"Ġken":4723,"Ġimprovement":4724,"Ġappearance":4725,"Ġdisconnect":4726,"Ġripped":4727,"Ġremoving":4728,"Ġcardboard":4729,"uable":4730,"Ġunbi":4731,"Ġrent":4732,"Ġgy":4733,"Ġports":4734,"bre":4735,"Ġunnecess":4736,"Ġdram":4737,"Ġpackaged":4738,"Ġearbud":4739,"Ġscore":4740,"Ġscratches":4741,"whel":4742,"Ġadequ":4743,"Ġvent":4744,"Ġexternal":4745,"reh":4746,"Ġunbiased":4747,"Ġhung":4748,"cast":4749,"Ġbond":4750,"Ġpencil":4751,"Ġrip":4752,"Ġcliff":4753,"Ġalarm":4754,"ches":4755,"iers":4756,"Ġquit":4757,"Ġnowhere":4758,"Ġdesper":4759,"Ġliqu":4760,"Ġsuggested":4761,"Ġmysterious":4762,"Ġbulky":4763,"Ġborn":4764,"Ġgraphic":4765,"Ġmelo":4766,"Ġnick":4767,"Ġyoutube":4768,"Ġdeliver":4769,"Ġsoap":4770,"Ġdreams":4771,"Ġintegr":4772,"Ġash":4773,"izz":4774,"Ġfalse":4775,"Ġsoph":4776,"Ġexercise":4777,"Ġrechar":4778,"Ġunexpected":4779,"Ġnoticeable":4780,"Ġgeorge":4781,"Ġraised":4782,"Ġcalling":4783,"Ġluckily":4784,"Ġheel":4785,"Ġpromise":4786,"Ġruss":4787,"Ġjer":4788,"Ġpairs":4789,"Ġleading":4790,"Ġmission":4791,"aser":4792,"Ġjoke":4793,"Ġrings":4794,"Ġshoulder":4795,"Ġmb":4796,"Ġunpl":4797,"Ġstayed":4798,"Ġsock":4799,"Ġadjustable":4800,"Ġfunctional":4801,"Ġguard":4802,"Ġlistened":4803,"utions":4804,"Ġya":4805,"Ġunderst":4806,"essed":4807,"iday":4808,"ification":4809,"neath":4810,"Ġcro":4811,"Ġsweat":4812,"Ġvend":4813,"Ġskim":4814,"Ġalph":4815,"Ġtoss":4816,"Ġcharl":4817,"Ġunderneath":4818,"Ġwilli":4819,"Ġgarage":4820,"pret":4821,"Ġbars":4822,"Ġclips":4823,"Ġcontinued":4824,"olic":4825,"Ġwaited":4826,"Ġft":4827,"od":4828,"Ġqueen":4829,"Ġessential":4830,"Ġdeck":4831,"Ġweigh":4832,"Ġactors":4833,"Ġmob":4834,"Ġsizing":4835,"Ġreligion":4836,"Ġanticip":4837,"top":4838,"Ġandroid":4839,"Ġhelping":4840,"Ġrules":4841,"Ġremark":4842,"mark":4843,"Ġfran":4844,"Ġabsor":4845,"Ġrecognize":4846,"Ġupdated":4847,"Ġanimal":4848,"Ġpregn":4849,"Ġtray":4850,"Ġargum":4851,"Ġjapanese":4852,"Ġdrivers":4853,"Ġthru":4854,"Ġreceiving":4855,"Ġdiscussion":4856,"Ġserve":4857,"Ġrepetitive":4858,"Ġdetective":4859,"Ġphotograph":4860,"Ġrap":4861,"Ġessentially":4862,"Ġthous":4863,"Ġdollar":4864,"Ġyog":4865,"Ġdescribes":4866,"Ġcontext":4867,"Ġsees":4868,"Ġgentle":4869,"cre":4870,"Ġdefect":4871,"Ġphr":4872,"Ġpictured":4873,"Ġcompanies":4874,"Ġgerman":4875,"point":4876,"Ġgrey":4877,"Ġeight":4878,"ids":4879,"Ġlies":4880,"Ġlacks":4881,"Ġcartridge":4882,"Ġexpand":4883,"Ġsteph":4884,"Ġchest":4885,"Ġcream":4886,"Ġlit":4887,"Ġyester":4888,"Ġlimit":4889,"Ġstops":4890,"Ġweap":4891,"Ġblind":4892,"Ġchocol":4893,"Ġmajority":4894,"Ġboo":4895,"Ġchron":4896,"Ġdar":4897,"Ġproduce":4898,"Ġhub":4899,"Ġpunch":4900,"Ġsleeping":4901,"cient":4902,"Ġsaving":4903,"Ġfund":4904,"Ġtransform":4905,"Ġswim":4906,"Ġfed":4907,"Ġbask":4908,"Ġcritical":4909,"Ġdisg":4910,"Ġideal":4911,"Ġmounted":4912,"Ġimagination":4913,"Ġgrown":4914,"Ġrecorded":4915,"Ġcontrib":4916,"stal":4917,"Ġstronger":4918,"Ġportable":4919,"Ġstrongly":4920,"Ġindepend":4921,"Ġdistur":4922,"Ġgeneration":4923,"Ġfake":4924,"Ġsuperior":4925,"Ġslo":4926,"Ġlighting":4927,"Ġgam":4928,"Ġwaterproof":4929,"Ġstruggles":4930,"Ġexplains":4931,"Ġpil":4932,"Ġlessons":4933,"Ġcuts":4934,"Ġmanage":4935,"Ġspread":4936,"Ġworthy":4937,"Ġcurious":4938,"Ġimproved":4939,"othing":4940,"night":4941,"Ġsco":4942,"Ġenth":4943,"Ġrepresent":4944,"yer":4945,"acity":4946,"Ġbasis":4947,"Ġjustice":4948,"Ġdetermined":4949,"Ġgps":4950,"Ġpitch":4951,"Ġplanet":4952,"oying":4953,"Ġsurvive":4954,"ule":4955,"Ġliber":4956,"Ġbedroom":4957,"Ġwidth":4958,"Ġfocused":4959,"Ġdrill":4960,"ceed":4961,"Ġamb":4962,"Ġmirror":4963,"Ġpour":4964,"Ġvehicle":4965,"Ġgall":4966,"Ġthicker":4967,"Ġrobert":4968,"Ġvocals":4969,"Ġque":4970,"Ġnewer":4971,"Ġorange":4972,"Ġtill":4973,"Ġimpressive":4974,"alog":4975,"Ġlee":4976,"Ġdecides":4977,"Ġleaders":4978,"Ġcasual":4979,"ios":4980,"gged":4981,"uary":4982,"Ġblades":4983,"Ġfactor":4984,"Ġstudio":4985,"Ġexpert":4986,"Ġmedical":4987,"Ġhumans":4988,"Ġcolored":4989,"rs":4990,"ession":4991,"Ġpicking":4992,"Ġmisleading":4993,"Ġwitch":4994,"Ġwhenever":4995,"Ġsuction":4996,"mos":4997,"uses":4998,"Ġpainful":4999,"Ġstructure":5000,"Ġcircumst":5001,"Ġgorge":5002,"iest":5003,"Ġenjoying":5004,"Ġyesterday":5005,"Ġspare":5006,"Ġowner":5007,"Ġboss":5008,"Ġincom":5009,"Ġemploy":5010,"Ġharry":5011,"Ġado":5012,"hile":5013,"airs":5014,"Ġreturns":5015,"inated":5016,"Ġawhile":5017,"umes":5018,"Ġmember":5019,"Ġhood":5020,"Ġgalax":5021,"aked":5022,"Ġslipp":5023,"aint":5024,"Ġepisodes":5025,"Ġgray":5026,"Ġtechniques":5027,"Ġtax":5028,"irts":5029,"Ġjeans":5030,"Ġcotton":5031,"Ġunbelievable":5032,"Ġsalt":5033,"Ġyard":5034,"Ġjim":5035,"Ġtreatment":5036,"oon":5037,"Ġhated":5038,"akers":5039,"Ġfurn":5040,"Ġkilling":5041,"Ġcath":5042,"Ġmild":5043,"Ġcompatible":5044,"ucing":5045,"Ġexcess":5046,"Ġbathroom":5047,"Ġmaps":5048,"Ġfau":5049,"Ġadvant":5050,"Ġfamilies":5051,"Ġpolicy":5052,"Ġfirmware":5053,"Ġshr":5054,"Ġoven":5055,"mpath":5056,"Ġsatisfying":5057,"Ġinstance":5058,"Ġreb":5059,"Ġlie":5060,"ament":5061,"Ġgro":5062,"Ġos":5063,"Ġneighbor":5064,"Ġseven":5065,"Ġshots":5066,"Ġflight":5067,"Ġshooting":5068,"Ġrefres":5069,"Ġoutstanding":5070,"Ġmood":5071,"Ġcourt":5072,"Ġtrigg":5073,"Ġappreciated":5074,"Ġcash":5075,"Ġouter":5076,"Ġfreez":5077,"Ġgarden":5078,"Ġafric":5079,"Ġinstallment":5080,"Ġcreep":5081,"Ġpowers":5082,"Ġsits":5083,"Ġgaming":5084,"Ġblow":5085,"oop":5086,"Ġamp":5087,"Ġdeserves":5088,"vin":5089,"Ġthreads":5090,"piece":5091,"Ġdeeply":5092,"Ġhey":5093,"Ġdecor":5094,"Ġast":5095,"Ġsurprisingly":5096,"Ġchocolate":5097,"Ġdrops":5098,"Ġrod":5099,"Ġpresident":5100,"Ġsucks":5101,"Ġgalaxy":5102,"Ġcheaply":5103,"Ġjane":5104,"Ġsplit":5105,"Ġengland":5106,"Ġgorgeous":5107,"Ġclich":5108,"Ġwealth":5109,"rom":5110,"Ġcomic":5111,"Ġscott":5112,"Ġmarks":5113,"Ġjoe":5114,"Ġcateg":5115,"Ġsystems":5116,"Ġca":5117,"Ġfrankly":5118,"Ġmeeting":5119,"Ġtypically":5120,"lan":5121,"Ġintern":5122,"Ġscar":5123,"pan":5124,"Ġprotective":5125,"Ġslot":5126,"Ġinstruction":5127,"Ġuniverse":5128,"Ġopposite":5129,"aire":5130,"Ġpleasure":5131,"Ġnavig":5132,"Ġsports":5133,"Ġnur":5134,"Ġgirlf":5135,"Ġwars":5136,"ormal":5137,"Ġrushed":5138,"Ġcookbook":5139,"Ġdirector":5140,"Ġmoon":5141,"Ġcow":5142,"Ġgirlfriend":5143,"Ġapplied":5144,"soft":5145,"Ġcin":5146,"Ġfilters":5147,"Ġbound":5148,"Ġbolts":5149,"Ġvision":5150,"Ġusa":5151,"rie":5152,"hesive":5153,"Ġcoat":5154,"Ġconfig":5155,"rical":5156,"print":5157,"Ġsquee":5158,"Ġcartridges":5159,"Ġwake":5160,"Ġblog":5161,"Ġlayer":5162,"Ġsinging":5163,"Ġhen":5164,"Ġtick":5165,"Ġliterary":5166,"Ġcompreh":5167,"Ġacad":5168,"Ġdisk":5169,"Ġtesting":5170,"Ġcompress":5171,"Ġrow":5172,"Ġxl":5173,"Ġremains":5174,"ulate":5175,"ara":5176,"Ġprimary":5177,"Ġages":5178,"Ġflick":5179,"Ġwis":5180,"Ġpian":5181,"Ġresearched":5182,"Ġbind":5183,"fill":5184,"Ġsales":5185,"ulated":5186,"bi":5187,"Ġtrade":5188,"Ġangry":5189,"was":5190,"Ġhide":5191,"Ġkiss":5192,"Ġmemories":5193,"Ġheadphone":5194,"Ġsolo":5195,"Ġindustry":5196,"Ġww":5197,"Ġdecisions":5198,"Ġnuts":5199,"Ġguessing":5200,"Ġsuperb":5201,"Ġtalks":5202,"zy":5203,"imate":5204,"soci":5205,"Ġsurf":5206,"Ġbottles":5207,"inge":5208,"Ġpolitics":5209,"anged":5210,"Ġconnections":5211,"Ġtears":5212,"gend":5213,"Ġbank":5214,"Ġpresents":5215,"ka":5216,"Ġpounds":5217,"ein":5218,"Ġshopping":5219,"Ġassemble":5220,"Ġlb":5221,"ov":5222,"Ġsample":5223,"Ġanth":5224,"Ġacadem":5225,"Ġpushed":5226,"date":5227,"Ġsentences":5228,"Ġproviding":5229,"Ġspect":5230,"Ġtighten":5231,"Ġartists":5232,"Ġallowing":5233,"Ġelastic":5234,"Ġusage":5235,"Ġreminds":5236,"Ġdifficulty":5237,"Ġsleeve":5238,"otic":5239,"Ġtales":5240,"met":5241,"Ġrhy":5242,"Ġsummary":5243,"Ġanalysis":5244,"Ġstereo":5245,"Ġannoyed":5246,"Ġpadding":5247,"Ġsources":5248,"Ġalign":5249,"Ġtex":5250,"Ġthumb":5251,"roll":5252,"icted":5253,"Ġemotion":5254,"Ġhorse":5255,"vision":5256,"Ġpleasant":5257,"Ġschol":5258,"Ġchemical":5259,"Ġcommer":5260,"Ġintelligent":5261,"Ġhall":5262,"unate":5263,"arant":5264,"Ġcontemporary":5265,"Ġinterface":5266,"Ġinspir":5267,"Ġlegend":5268,"Ġmilk":5269,"Ġcompartment":5270,"Ġgloss":5271,"Ġjazz":5272,"Ġthemes":5273,"Ġpoet":5274,"Ġdynam":5275,"Ġreminded":5276,"Ġpeter":5277,"Ġflashlight":5278,"Ġunnecessary":5279,"Ġauthent":5280,"Ġtouching":5281,"Ġthomas":5282,"Ġcostume":5283,"Ġsea":5284,"Ġinformative":5285,"Ġsympath":5286,"Ġcance":5287,"Ġvari":5288,"Ġposted":5289,"Ġmas":5290,"Ġcause":5291,"Ġtalented":5292,"Ġloop":5293,"Ġscary":5294,"Ġlover":5295,"Ġassoci":5296,"Ġhols":5297,"Ġcleaned":5298,"etime":5299,"sey":5300,"Ġheaven":5301,"Ġstorm":5302,"Ġstitching":5303,"ndon":5304,"Ġcushion":5305,"Ġheck":5306,"dr":5307,"Ġcomedy":5308,"Ġtreated":5309,"Ġsticky":5310,"Ġzoom":5311,"Ġloos":5312,"Ġoverwhel":5313,"unction":5314,"cd":5315,"Ġrice":5316,"Ġconfir":5317,"Ġcentral":5318,"Ġcontrast":5319,"Ġune":5320,"Ġbubbles":5321,"Ġriding":5322,"ads":5323,"Ġacceptable":5324,"Ġheavier":5325,"Ġtail":5326,"Ġgig":5327,"Ġletting":5328,"kn":5329,"Ġshallow":5330,"Ġhilar":5331,"Ġrepeat":5332,"Ġestab":5333,"rel":5334,"Ġpurse":5335,"Ġbasket":5336,"Ġancient":5337,"Ġdrinking":5338,"Ġdash":5339,"Ġutter":5340,"stall":5341,"Ġarrive":5342,"house":5343,"Ġconversation":5344,"Ġcovering":5345,"ault":5346,"Ġcrow":5347,"Ġadventures":5348,"Ġdock":5349,"Ġtang":5350,"Ġfunctionality":5351,"Ġrefreshing":5352,"Ġtask":5353,"Ġrig":5354,"Ġparanormal":5355,"using":5356,"Ġprojects":5357,"Ġconstructed":5358,"Ġpatch":5359,"Ġtexture":5360,"Ġsci":5361,"Ġvivid":5362,"cies":5363,"dies":5364,"Ġpushing":5365,"Ġviewing":5366,"Ġtort":5367,"Ġunh":5368,"Ġlasts":5369,"Ġkinds":5370,"Ġgreatly":5371,"Ġfrustration":5372,"Ġfreed":5373,"Ġruined":5374,"Ġspill":5375,"Ġvacation":5376,"Ġliquid":5377,"Ġtodd":5378,"Ġcreates":5379,"Ġincorrect":5380,"Ġentertainment":5381,"iveness":5382,"Ġreact":5383,"Ġdum":5384,"ado":5385,"Ġluc":5386,"Ġmarketing":5387,"Ġapprox":5388,"Ġaim":5389,"Ġcontents":5390,"Ġarmy":5391,"Ġflying":5392,"Ġboat":5393,"Ġplans":5394,"Ġpurple":5395,"ees":5396,"Ġconsistent":5397,"ache":5398,"Ġvaluable":5399,"Ġearn":5400,"Ġteeth":5401,"Ġcycle":5402,"Ġimpl":5403,"Ġauthentic":5404,"Ġmemo":5405,"Ġviews":5406,"Ġank":5407,"Ġfortunately":5408,"Ġsmith":5409,"Ġguarant":5410,"Ġdumb":5411,"Ġexercises":5412,"Ġusers":5413,"Ġfavorites":5414,"Ġunusual":5415,"Ġscientific":5416,"Ġactive":5417,"Ġbothered":5418,"Ġcompos":5419,"Ġunfold":5420,"etch":5421,"Ġachieve":5422,"Ġtedious":5423,"Ġearbuds":5424,"Ġgap":5425,"Ġpurposes":5426,"Ġcircumstances":5427,"esy":5428,"Ġvir":5429,"Ġbuyer":5430,"Ġbackup":5431,"Ġfrag":5432,"Ġrevealed":5433,"Ġtack":5434,"Ġemph":5435,"ugging":5436,"Ġmonster":5437,"Ġgoal":5438,"Ġmental":5439,"Ġgreater":5440,"Ġballs":5441,"Ġprove":5442,"Ġsupposedly":5443,"Ġpouch":5444,"Ġtorn":5445,"Ġalien":5446,"izer":5447,"Ġcass":5448,"Ġfoods":5449,"Ġsilicone":5450,"Ġchicken":5451,"Ġexposed":5452,"Ġtoes":5453,"Ġstrings":5454,"Ġmysteries":5455,"Ġchew":5456,"Ġstun":5457,"anda":5458,"Ġalumin":5459,"Ġlondon":5460,"nda":5461,"ita":5462,"Ġfinan":5463,"Ġguest":5464,"Ġprison":5465,"Ġquir":5466,"Ġanx":5467,"Ġcele":5468,"Ġhost":5469,"Ġhollywood":5470,"Ġmenu":5471,"nat":5472,"Ġattachment":5473,"ns":5474,"Ġmagazine":5475,"vy":5476,"Ġworthless":5477,"Ġexpos":5478,"Ġwel":5479,"Ġretail":5480,"Ġbibl":5481,"vey":5482,"Ġinterpret":5483,"Ġprimarily":5484,"Ġeliz":5485,"Ġstream":5486,"Ġbelong":5487,"Ġnarrator":5488,"Ġadjustment":5489,"Ġtraveling":5490,"ob":5491,"Ġshocked":5492,"Ġinj":5493,"Ġcaut":5494,"gl":5495,"Ġsecondary":5496,"iture":5497,"Ġcapacity":5498,"Ġspoilers":5499,"isy":5500,"Ġcapable":5501,"Ġpainting":5502,"Ġquar":5503,"bell":5504,"Ġplat":5505,"Ġmi":5506,"Ġfellow":5507,"ene":5508,"inter":5509,"Ġgym":5510,"Ġvisible":5511,"ald":5512,"Ġbusy":5513,"Ġedited":5514,"Ġjar":5515,"rier":5516,"Ġdurability":5517,"Ġopens":5518,"Ġchecking":5519,"Ġconditions":5520,"Ġdozen":5521,"Ġfigures":5522,"Ġorganized":5523,"hol":5524,"Ġdies":5525,"ada":5526,"lon":5527,"Ġlifetime":5528,"acle":5529,"Ġconnecting":5530,"lim":5531,"Ġmicrosoft":5532,"Ġloaded":5533,"Ġtroubles":5534,"Ġselection":5535,"imp":5536,"ables":5537,"off":5538,"Ġelectronic":5539,"Ġautomatically":5540,"Ġwrench":5541,"Ġhilarious":5542,"reg":5543,"Ġsticking":5544,"abeth":5545,"iel":5546,"Ġwine":5547,"under":5548,"oty":5549,"Ġoutlet":5550,"Ġsupporting":5551,"Ġuncle":5552,"Ġthrowing":5553,"Ġgrammar":5554,"Ġcomputers":5555,"Ġcelebr":5556,"Ġserial":5557,"Ġnecessarily":5558,"Ġserv":5559,"Ġformula":5560,"Ġflexible":5561,"Ġwolf":5562,"Ġpowered":5563,"Ġhalfway":5564,"Ġlinks":5565,"Ġignore":5566,"Ġholster":5567,"Ġreasonably":5568,"Ġhooks":5569,"Ġadequate":5570,"Ġfallen":5571,"Ġstandards":5572,"Ġrichard":5573,"Ġnik":5574,"Ġrede":5575,"otten":5576,"Ġmatters":5577,"Ġterror":5578,"Ġsubs":5579,"mmer":5580,"Ġzip":5581,"Ġstruggling":5582,"Ġcapture":5583,"Ġwalls":5584,"Ġdragon":5585,"Ġdeals":5586,"great":5587,"sole":5588,"Ġemerg":5589,"Ġmemoir":5590,"Ġemphas":5591,"ras":5592,"Ġdying":5593,"Ġeast":5594,"Ġpurs":5595,"Ġbell":5596,"Ġexplaining":5597,"Ġalco":5598,"Ġchallenging":5599,"Ġneedless":5600,"ora":5601,"Ġaluminum":5602,"Ġhip":5603,"iments":5604,"Ġhaw":5605,"Ġfourth":5606,"Ġfurniture":5607,"Ġmesh":5608,"Ġforces":5609,"ille":5610,"Ġperman":5611,"Ġmountain":5612,"Ġinspired":5613,"Ġtires":5614,"Ġlaid":5615,"Ġspoiler":5616,"inate":5617,"Ġloyal":5618,"Ġbree":5619,"Ġol":5620,"Ġmedio":5621,"Ġtimer":5622,"Ġeager":5623,"Ġcleaner":5624,"Ġwider":5625,"Ġdesired":5626,"Ġaccidentally":5627,"Ġblame":5628,"Ġber":5629,"Ġmillion":5630,"Ġjewel":5631,"Ġthrilled":5632,"Ġdownloaded":5633,"Ġnu":5634,"Ġdebut":5635,"Ġseemingly":5636,"Ġtastes":5637,"Ġtends":5638,"ek":5639,"Ġswitched":5640,"alian":5641,"lines":5642,"Ġdistort":5643,"Ġadvantage":5644,"mart":5645,"Ġdoors":5646,"Ġtelevision":5647,"Ġbolt":5648,"Ġdual":5649,"Ġhappily":5650,"Ġunreal":5651,"Ġrug":5652,"atis":5653,"iles":5654,"Ġindo":5655,"Ġeducation":5656,"Ġburned":5657,"Ġserved":5658,"Ġtemp":5659,"Ġchannels":5660,"Ġinsights":5661,"itech":5662,"hold":5663,"Ġrecommendation":5664,"kable":5665,"Ġinstantly":5666,"Ġtwenty":5667,"Ġsisters":5668,"Ġpublishing":5669,"Ġgenius":5670,"Ġinstant":5671,"Ġmicrophone":5672,"Ġstable":5673,"Ġbird":5674,"Ġhumid":5675,"Ġattitude":5676,"Ġvendor":5677,"Ġkat":5678,"asty":5679,"Ġattraction":5680,"Ġprivate":5681,"urally":5682,"Ġadvance":5683,"Ġlenses":5684,"Ġterribly":5685,"Ġcalif":5686,"Ġsubtle":5687,"Ġvert":5688,"Ġbringing":5689,"Ġoccasional":5690,"Ġapartment":5691,"Ġdepartment":5692,"Ġrolling":5693,"Ġknives":5694,"Ġrelax":5695,"Ġtune":5696,"cur":5697,"down":5698,"Ġhosp":5699,"Ġepic":5700,"Ġcaptiv":5701,"Ġkate":5702,"Ġtons":5703,"Ġbeginner":5704,"Ġnightm":5705,"Ġesp":5706,"Ġassembled":5707,"Ġpicks":5708,"Ġthankfully":5709,"Ġmile":5710,"Ġmagical":5711,"mon":5712,"illa":5713,"Ġcit":5714,"fo":5715,"ena":5716,"Ġbulk":5717,"Ġequally":5718,"Ġdescribing":5719,"Ġprograms":5720,"Ġxbox":5721,"Ġintention":5722,"Ġell":5723,"Ġfreedom":5724,"Ġoem":5725,"Ġlogitech":5726,"Ġtowel":5727,"Ġdarker":5728,"Ġcommercial":5729,"Ġgerm":5730,"Ġrecords":5731,"Ġtan":5732,"Ġshaped":5733,"iled":5734,"Ġnose":5735,"Ġbrew":5736,"Ġboun":5737,"Ġfinishing":5738,"Ġincons":5739,"Ġcaliforn":5740,"Ġadhesive":5741,"Ġlean":5742,"Ġtact":5743,"raft":5744,"Ġcharges":5745,"Ġclothing":5746,"Ġviny":5747,"Ġtro":5748,"Ġsof":5749,"Ġchallenges":5750,"bby":5751,"aced":5752,"Ġfict":5753,"ulting":5754,"Ġskept":5755,"Ġincrease":5756,"oooo":5757,"Ġpatterns":5758,"Ġwon":5759,"Ġveget":5760,"Ġfeedback":5761,"Ġlunch":5762,"Ġultimate":5763,"Ġreput":5764,"Ġbang":5765,"Ġsolved":5766,"Ġpublish":5767,"Ġfairy":5768,"Ġtrips":5769,"Ġbracket":5770,"Ġconsequ":5771,"Ġlovers":5772,"Ġsurely":5773,"Ġyoga":5774,"Ġpens":5775,"gging":5776,"Ġaug":5777,"Ġdele":5778,"Ġcharm":5779,"Ġadapt":5780,"Ġinterior":5781,"oration":5782,"Ġhence":5783,"Ġunkn":5784,"Ġvictor":5785,"Ġhundreds":5786,"Ġsinger":5787,"ford":5788,"Ġrely":5789,"Ġpic":5790,"Ġunderstood":5791,"Ġsag":5792,"eral":5793,"Ġsticker":5794,"Ġburning":5795,"Ġrecordings":5796,"Ġtire":5797,"Ġgranted":5798,"Ġhousing":5799,"Ġmedic":5800,"arian":5801,"ifying":5802,"Ġwears":5803,"Ġvocal":5804,"ban":5805,"Ġlem":5806,"lor":5807,"Ġcarb":5808,"Ġattempted":5809,"Ġbare":5810,"enced":5811,"Ġpiano":5812,"Ġalpha":5813,"Ġdisgust":5814,"Ġdriven":5815,"Ġaa":5816,"Ġelim":5817,"Ġfav":5818,"Ġba":5819,"Ġcriticism":5820,"Ġoutdoor":5821,"Ġjon":5822,"Ġtranslation":5823,"Ġnightmare":5824,"Ġwhatso":5825,"Ġnail":5826,"Ġconcer":5827,"Ġdrawing":5828,"Ġchos":5829,"Ġdinner":5830,"Ġgrowth":5831,"Ġgau":5832,"Ġregister":5833,"Ġprotected":5834,"Ġcrisp":5835,"Ġvinyl":5836,"Ġscope":5837,"Ġoct":5838,"Ġtraged":5839,"outs":5840,"Ġrecharge":5841,"Ġelizabeth":5842,"Ġwonderfully":5843,"Ġprinci":5844,"Ġsubstant":5845,"Ġwhatsoever":5846,"Ġcommand":5847,"rated":5848,"lies":5849,"Ġbatch":5850,"cover":5851,"Ġcalifornia":5852,"ship":5853,"Ġrecall":5854,"Ġpra":5855,"Ġdesktop":5856,"coming":5857,"Ġresource":5858,"Ġdropping":5859,"Ġintrigued":5860,"Ġsne":5861,"Ġsevere":5862,"Ġgrain":5863,"Ġcooler":5864,"Ġamericans":5865,"Ġfacing":5866,"Ġtaught":5867,"Ġvalve":5868,"Ġassign":5869,"Ġinvestment":5870,"gie":5871,"Ġreco":5872,"Ġnational":5873,"Ġchosen":5874,"Ġadditionally":5875,"Ġful":5876,"Ġtransm":5877,"Ġpulls":5878,"Ġswing":5879,"uous":5880,"Ġsounding":5881,"now":5882,"Ġplane":5883,"Ġcake":5884,"Ġner":5885,"Ġextensive":5886,"Ġpresentation":5887,"Ġcompass":5888,"itation":5889,"Ġactivities":5890,"ener":5891,"Ġpor":5892,"Ġmanagement":5893,"Ġnobody":5894,"Ġpartner":5895,"case":5896,"Ġbuff":5897,"Ġbubble":5898,"Ġnative":5899,"Ġidi":5900,"Ġextension":5901,"Ġassumed":5902,"Ġheroes":5903,"Ġpromised":5904,"sm":5905,"Ġlisting":5906,"Ġmarch":5907,"Ġshirts":5908,"Ġfruit":5909,"cet":5910,"Ġdecades":5911,"Ġconcert":5912,"Ġequal":5913,"books":5914,"Ġefforts":5915,"Ġmoist":5916,"Ġunited":5917,"Ġfluff":5918,"gant":5919,"Ġflav":5920,"Ġoperation":5921,"Ġvirtually":5922,"Ġagent":5923,"Ġcontained":5924,"Ġcub":5925,"cend":5926,"Ġbeats":5927,"Ġinconsist":5928,"Ġcamping":5929,"iently":5930,"Ġtrim":5931,"Ġstatic":5932,"Ġmediocre":5933,"Ġmoral":5934,"Ġmartin":5935,"teen":5936,"Ġsher":5937,"Ġteenage":5938,"Ġupside":5939,"Ġaid":5940,"Ġdelicious":5941,"Ġwound":5942,"Ġjoint":5943,"Ġgroups":5944,"track":5945,"Ġoffering":5946,"word":5947,"Ġtransport":5948,"cho":5949,"Ġnovella":5950,"losure":5951,"Ġfabulous":5952,"Ġpuzzle":5953,"Ġtooth":5954,"Ġkr":5955,"Ġblues":5956,"Ġhunter":5957,"natural":5958,"Ġtrial":5959,"Ġelectronics":5960,"Ġconver":5961,"Ġmanages":5962,"Ġtoler":5963,"Ġreached":5964,"Ġplots":5965,"Ġsen":5966,"Ġresolved":5967,"Ġhaun":5968,"Ġattend":5969,"Ġterrific":5970,"Ġshred":5971,"Ġinspect":5972,"Ġcrush":5973,"Ġsarah":5974,"Ġsmoothly":5975,"Ġrise":5976,"Ġinse":5977,"pson":5978,"Ġacqu":5979,"olves":5980,"Ġorch":5981,"Ġharr":5982,"Ġder":5983,"Ġdifferences":5984,"Ġconsistently":5985,"ette":5986,"Ġplants":5987,"Ġdrawer":5988,"Ġrevolution":5989,"Ġmanip":5990,"Ġshorts":5991,"Ġheavily":5992,"Ġwat":5993,"Ġwitness":5994,"Ġroller":5995,"ura":5996,"Ġcheese":5997,"Ġtitles":5998,"Ġprofessor":5999,"Ġcage":6000,"Ġdemonstr":6001,"Ġdiscs":6002,"Ġenh":6003,"Ġembarr":6004,"Ġpowder":6005,"Ġsatisfact":6006,"Ġdislike":6007,"Ġpoly":6008,"llers":6009,"Ġsuggestions":6010,"Ġwired":6011,"Ġbrut":6012,"Ġadvertising":6013,"Ġgrass":6014,"Ġscratched":6015,"Ġdistracting":6016,"Ġriver":6017,"Ġdvds":6018,"Ġdownside":6019,"Ġunw":6020,"Ġacts":6021,"Ġrender":6022,"Ġintent":6023,"Ġsleeves":6024,"Ġirritating":6025,"dri":6026,"Ġplugs":6027,"Ġidentical":6028,"Ġchip":6029,"Ġcoverage":6030,"Ġcorpor":6031,"Ġleader":6032,"Ġphilosophy":6033,"Ġbump":6034,"reek":6035,"Ġprogramming":6036,"Ġcharming":6037,"Ġmerely":6038,"uality":6039,"Ġlocked":6040,"Ġsubt":6041,"ptive":6042,"Ġwarned":6043,"atical":6044,"Ġdimensional":6045,"Ġmanually":6046,"ta":6047,"Ġflesh":6048,"Ġcopies":6049,"Ġescap":6050,"Ġconvinced":6051,"Ġcds":6052,"Ġgiant":6053,"Ġstead":6054,"Ġhandled":6055,"Ġcabinet":6056,"Ġstyles":6057,"Ġowners":6058,"Ġrule":6059,"Ġmacbook":6060,"Ġsouthern":6061,"uation":6062,"Ġdesigns":6063,"Ġna":6064,"Ġbin":6065,"bl":6066,"Ġstom":6067,"Ġpointed":6068,"Ġfarm":6069,"Ġgang":6070,"Ġportrayed":6071,"Ġlg":6072,"Ġlatch":6073,"Ġdisturbing":6074,"Ġpul":6075,"Ġregularly":6076,"Ġredeem":6077,"usi":6078,"Ġgab":6079,"Ġharsh":6080,"Ġpreferred":6081,"Ġmature":6082,"Ġkidn":6083,"Ġshake":6084,"Ġsignificantly":6085,"laim":6086,"Ġfinancial":6087,"Ġseams":6088,"Ġconfidence":6089,"Ġgut":6090,"Ġsteal":6091,"craft":6092,"Ġtalked":6093,"Ġindian":6094,"Ġcoating":6095,"Ġconfident":6096,"apers":6097,"Ġthinner":6098,"Ġstereoty":6099,"Ġglued":6100,"Ġcrew":6101,"Ġscenar":6102,"Ġevening":6103,"uate":6104,"Ġhanded":6105,"Ġperformed":6106,"Ġgeneric":6107,"Ġdemo":6108,"Ġteens":6109,"Ġvoices":6110,"Ġvast":6111,"Ġbust":6112,"Ġaccessories":6113,"Ġsecurely":6114,"Ġstack":6115,"Ġcommentary":6116,"aks":6117,"Ġopposed":6118,"Ġsliding":6119,"Ġpacks":6120,"Ġimportantly":6121,"Ġserving":6122,"Ġwalked":6123,"Ġbiography":6124,"galley":6125,"Ġdramatic":6126,"Ġstaying":6127,"Ġtherm":6128,"Ġjuice":6129,"Ġreadable":6130,"Ġquotes":6131,"Ġovercome":6132,"enom":6133,"Ġrepeatedly":6134,"Ġjudge":6135,"Ġdrawback":6136,"ference":6137,"Ġenthusi":6138,"Ġangst":6139,"Ġpole":6140,"Ġslides":6141,"aughters":6142,"Ġoperate":6143,"Ġembarrass":6144,"rain":6145,"Ġturner":6146,"stic":6147,"Ġfilling":6148,"Ġtreats":6149,"Ġstudies":6150,"usive":6151,"Ġpressed":6152,"Ġstoryte":6153,"Ġunusable":6154,"Ġmethods":6155,"Ġflap":6156,"Ġtied":6157,"attered":6158,"Ġpainted":6159,"nday":6160,"Ġds":6161,"Ġwig":6162,"Ġnetgalley":6163,"Ġshared":6164,"Ġwisdom":6165,"Ġotter":6166,"Ġperformances":6167,"ola":6168,"Ġentry":6169,"Ġlearns":6170,"Ġyouth":6171,"Ġmessages":6172,"Ġbacking":6173,"Ġfictional":6174,"Ġlip":6175,"Ġneeding":6176,"itors":6177,"Ġrandomly":6178,"mother":6179,"Ġunknown":6180,"Ġaband":6181,"Ġsuffering":6182,"Ġcomponents":6183,"Ġjobs":6184,"da":6185,"Ġcomfortably":6186,"asonic":6187,"Ġvolt":6188,"Ġclarity":6189,"Ġforgotten":6190,"achel":6191,"Ġrelevant":6192,"Ġprotectors":6193,"Ġamazed":6194,"Ġelectrical":6195,"Ġliking":6196,"Ġfocuses":6197,"Ġintu":6198,"Ġzombie":6199,"Ġexcit":6200,"Ġgh":6201,"Ġcompliment":6202,"Ġspanish":6203,"Ġindex":6204,"Ġwil":6205,"Ġsealed":6206,"Ġliner":6207,"Ġrescue":6208,"Ġdisney":6209,"Ġsnapped":6210,"Ġouts":6211,"Ġcolorful":6212,"Ġrevel":6213,"Ġdedicated":6214,"Ġreven":6215,"Ġsubstance":6216,"Ġswitching":6217,"Ġharn":6218,"washer":6219,"agers":6220,"Ġmobile":6221,"Ġchic":6222,"Ġali":6223,"Ġmcc":6224,"Ġsmells":6225,"Ġlaughing":6226,"Ġwatches":6227,"Ġcourage":6228,"Ġmexic":6229,"Ġshift":6230,"Ġcircle":6231,"Ġpopped":6232,"Ġtouched":6233,"Ġbalanced":6234,"Ġhighest":6235,"Ġsharing":6236,"Ġplanned":6237,"Ġrestaur":6238,"Ġbugs":6239,"Ġsoundtrack":6240,"Ġlcd":6241,"Ġhospital":6242,"icy":6243,"Ġfulfill":6244,"Ġlifest":6245,"Ġinfer":6246,"angle":6247,"xture":6248,"Ġdried":6249,"ano":6250,"minal":6251,"Ġom":6252,"ril":6253,"Ġdishwasher":6254,"Ġhenry":6255,"Ġreaction":6256,"Ġmanufacturing":6257,"encies":6258,"Ġjess":6259,"Ġsupple":6260,"Ġtexas":6261,"Ġss":6262,"Ġmemorable":6263,"Ġcaps":6264,"Ġdisag":6265,"Ġmaxim":6266,"pro":6267,"Ġaust":6268,"Ġsett":6269,"Ġtoile":6270,"Ġwooden":6271,"Ġtad":6272,"Ġdeveloping":6273,"Ġdise":6274,"Ġodor":6275,"eg":6276,"ida":6277,"Ġactivity":6278,"Ġpractically":6279,"fy":6280,"Ġhonor":6281,"Ġhoney":6282,"Ġobserv":6283,"Ġremaining":6284,"Ġsubm":6285,"Ġborder":6286,"Ġsym":6287,"Ġax":6288,"Ġflawed":6289,"Ġnaturally":6290,"Ġengaged":6291,"Ġsmile":6292,"kins":6293,"Ġchase":6294,"Ġshield":6295,"Ġtherap":6296,"imately":6297,"Ġjackson":6298,"Ġprovo":6299,"Ġcombined":6300,"ront":6301,"Ġinfluence":6302,"ago":6303,"Ġtrigger":6304,"Ġhoriz":6305,"Ġalert":6306,"Ġofficial":6307,"Ġtrag":6308,"Ġlic":6309,"Ġcoloring":6310,"Ġattempting":6311,"field":6312,"Ġraz":6313,"unky":6314,"Ġsync":6315,"Ġexcitement":6316,"Ġdell":6317,"Ġharness":6318,"Ġshadow":6319,"Ġhandling":6320,"Ġprecise":6321,"Ġexisting":6322,"Ġdiscounted":6323,"Ġbelieves":6324,"cul":6325,"Ġatmos":6326,"Ġprincess":6327,"Ġidentify":6328,"Ġlag":6329,"Ġack":6330,"Ġorganization":6331,"Ġenemy":6332,"Ġpleasantly":6333,"Ġvague":6334,"ech":6335,"Ġforgot":6336,"Ġstylus":6337,"Ġindependent":6338,"Ġleaking":6339,"Ġbridge":6340,"Ġaccomplish":6341,"Ġath":6342,"Ġsemi":6343,"Ġhitting":6344,"ilation":6345,"Ġcale":6346,"Ġuniversal":6347,"Ġcandy":6348,"Ġstrain":6349,"Ġprince":6350,"Ġsurvival":6351,"Ġemotionally":6352,"Ġgolden":6353,"Ġunfortunate":6354,"Ġgifts":6355,"Ġdemand":6356,"Ġdimensions":6357,"Ġlatter":6358,"Ġtightly":6359,"Ġresources":6360,"Ġseek":6361,"Ġloses":6362,"Ġordinary":6363,"Ġstraw":6364,"Ġbrace":6365,"Ġaccessible":6366,"Ġmagnetic":6367,"Ġjones":6368,"Ġincon":6369,"Ġupdates":6370,"Ġrefill":6371,"Ġcombat":6372,"Ġbarb":6373,"Ġcontract":6374,"Ġabandon":6375,"Ġseeking":6376,"loved":6377,"works":6378,"Ġinspiring":6379,"Ġtragedy":6380,"Ġexperiment":6381,"Ġtripod":6382,"Ġlogo":6383,"Ġflor":6384,"Ġcrystal":6385,"Ġindividuals":6386,"Ġlining":6387,"ashed":6388,"Ġlegal":6389,"Ġchrome":6390,"Ġvillain":6391,"Ġgather":6392,"Ġexplanations":6393,"Ġoptim":6394,"Ġhappiness":6395,"Ġraise":6396,"Ġaccounts":6397,"Ġdaughters":6398,"Ġpoetry":6399,"Ġjeff":6400,"haust":6401,"Ġasus":6402,"Ġcole":6403,"Ġprices":6404,"iously":6405,"Ġusable":6406,"Ġnotch":6407,"Ġdeserve":6408,"Ġmike":6409,"rate":6410,"nes":6411,"Ġsolar":6412,"Ġspends":6413,"Ġlists":6414,"Ġcorn":6415,"Ġdivor":6416,"Ġdisaster":6417,"Ġfate":6418,"Ġprofile":6419,"Ġfancy":6420,"Ġze":6421,"ham":6422,"Ġagre":6423,"Ġhunt":6424,"Ġtypos":6425,"Ġbirds":6426,"Ġfaucet":6427,"Ġresistance":6428,"Ġwink":6429,"Ġheater":6430,"Ġappealing":6431,"Ġbrows":6432,"Ġglove":6433,"Ġbattles":6434,"Ġpov":6435,"Ġexhaust":6436,"Ġcloset":6437,"Ġgarmin":6438,"Ġforeign":6439,"Ġbay":6440,"Ġunrealistic":6441,"Ġpregnant":6442,"Ġcancer":6443,"Ġmort":6444,"Ġgel":6445,"Ġdc":6446,"Ġtrap":6447,"atory":6448,"Ġcoin":6449,"Ġadorable":6450,"Ġgauge":6451,"Ġintrigue":6452,"Ġbush":6453,"Ġcatholic":6454,"afe":6455,"Ġsigns":6456,"Ġinformed":6457,"Ġpatience":6458,"Ġcords":6459,"Ġcave":6460,"Ġresid":6461,"Ġcous":6462,"Ġdestroyed":6463,"Ġpacking":6464,"uri":6465,"ester":6466,"Ġfat":6467,"Ġmicrow":6468,"Ġlandsc":6469,"Ġexplore":6470,"Ġblown":6471,"inger":6472,"Ġbasics":6473,"Ġintellect":6474,"Ġadvise":6475,"Ġadjusted":6476,"Ġsubjects":6477,"Ġimportance":6478,"Ġwick":6479,"Ġserves":6480,"atable":6481,"ifier":6482,"Ġrebo":6483,"Ġgross":6484,"Ġanybody":6485,"Ġpuppy":6486,"Ġarrang":6487,"Ġcarried":6488,"Ġemailed":6489,"function":6490,"ils":6491,"Ġclosely":6492,"Ġconversations":6493,"Ġmask":6494,"Ġoverlook":6495,"Ġslots":6496,"Ġleaks":6497,"Ġhealing":6498,"bits":6499,"Ġlaser":6500,"Ġactor":6501,"Ġsword":6502,"Ġshade":6503,"Ġbob":6504,"Ġalter":6505,"Ġcultural":6506,"Ġkay":6507,"Ġflag":6508,"Ġrab":6509,"Ġwalks":6510,"Ġlikable":6511,"Ġaugust":6512,"Ġmeal":6513,"Ġsteve":6514,"Ġmarry":6515,"nders":6516,"Ġjumping":6517,"Ġvalues":6518,"Ġcher":6519,"Ġnope":6520,"Ġlau":6521,"Ġdifferently":6522,"Ġholy":6523,"Ġsmoke":6524,"Ġdrugs":6525,"Ġadam":6526,"Ġworthwhile":6527,"Ġanne":6528,"Ġdistinct":6529,"Ġsites":6530,"Ġstap":6531,"Ġreduced":6532,"Ġhiking":6533,"Ġcentered":6534,"boy":6535,"ums":6536,"Ġcreepy":6537,"Ġtempt":6538,"Ġclosing":6539,"Ġanyways":6540,"Ġbrightness":6541,"Ġprepare":6542,"Ġyr":6543,"Ġfaulty":6544,"Ġprepar":6545,"Ġbitter":6546,"Ġtuck":6547,"Ġdelightful":6548,"Ġbrook":6549,"Ġmarvel":6550,"Ġskeptical":6551,"Ġholiday":6552,"Ġsuitable":6553,"Ġfaces":6554,"Ġgrinder":6555,"Ġchristians":6556,"lets":6557,"Ġinstrument":6558,"Ġmassive":6559,"Ġconscious":6560,"Ġbudd":6561,"men":6562,"Ġcaptured":6563,"Ġclue":6564,"Ġinterviews":6565,"Ġgem":6566,"Ġuk":6567,"Ġmug":6568,"Ġorchest":6569,"urb":6570,"Ġassuming":6571,"Ġconsumer":6572,"ooper":6573,"Ġsurrounding":6574,"Ġpanasonic":6575,"Ġconcent":6576,"Ġwitty":6577,"Ġcaring":6578,"Ġintelligence":6579,"ceived":6580,"Ġquarter":6581,"Ġdrew":6582,"force":6583,"Ġhumorous":6584,"Ġtwisted":6585,"Ġstatus":6586,"Ġchuck":6587,"Ġphotography":6588,"die":6589,"Ġsorts":6590,"Ġreception":6591,"Ġbiz":6592,"Ġproduc":6593,"Ġinternational":6594,"ders":6595,"Ġchips":6596,"Ġeverybody":6597,"Ġluke":6598,"Ġquant":6599,"Ġresponsible":6600,"Ġtheater":6601,"Ġmate":6602,"Ġlan":6603,"Ġhotel":6604,"itz":6605,"Ġrat":6606,"Ġvampires":6607,"Ġlocks":6608,"Ġuneven":6609,"theless":6610,"istics":6611,"wo":6612,"Ġtoilet":6613,"atisf":6614,"Ġties":6615,"Ġjen":6616,"Ġnasty":6617,"Ġalcohol":6618,"Ġbiblical":6619,"Ġruin":6620,"Ġisol":6621,"Ġphenom":6622,"Ġnons":6623,"Ġjune":6624,"Ġthickness":6625,"Ġlocking":6626,"Ġpins":6627,"sters":6628,"Ġapplications":6629,"Ġmarked":6630,"Ġtrend":6631,"Ġflush":6632,"Ġlazy":6633,"vis":6634,"fall":6635,"lined":6636,"Ġenjoys":6637,"Ġevolution":6638,"Ġborrow":6639,"Ġsymb":6640,"Ġclasses":6641,"Ġunhappy":6642,"Ġrussian":6643,"Ġexcuse":6644,"athers":6645,"Ġladies":6646,"Ġbene":6647,"Ġidentity":6648,"Ġpassing":6649,"Ġpi":6650,"Ġshelves":6651,"zzy":6652,"Ġstatement":6653,"Ġspy":6654,"Ġcarol":6655,"rete":6656,"Ġrestart":6657,"Ġlifestyle":6658,"Ġpix":6659,"Ġbuds":6660,"Ġobl":6661,"Ġbun":6662,"Ġcurtain":6663,"Ġshiny":6664,"Ġsched":6665,"icide":6666,"Ġnevertheless":6667,"vent":6668,"Ġconcerns":6669,"Ġhappier":6670,"Ġchris":6671,"Ġpressing":6672,"Ġrevenge":6673,"list":6674,"Ġacknow":6675,"Ġteenager":6676,"Ġapril":6677,"berry":6678,"Ġie":6679,"Ġfaced":6680,"Ġfragile":6681,"Ġhay":6682,"Ġdestruct":6683,"Ġmachines":6684,"Ġhumanity":6685,"Ġtyping":6686,"Ġreviewing":6687,"Ġwelcome":6688,"elle":6689,"utor":6690,"Ġsupernatural":6691,"Ġdelivers":6692,"spe":6693,"Ġdys":6694,"Ġtops":6695,"agger":6696,"Ġfloors":6697,"Ġovernight":6698,"Ġwilliam":6699,"Ġpig":6700,"Ġdistrib":6701,"Ġthousands":6702,"Ġscrew":6703,"Ġpepper":6704,"Ġgrate":6705,"Ġdissap":6706,"vi":6707,"ateur":6708,"Ġlame":6709,"ole":6710,"Ġstephen":6711,"Ġultra":6712,"Ġpassages":6713,"Ġbeliefs":6714,"Ġconserv":6715,"Ġplatform":6716,"icit":6717,"eness":6718,"Ġbrad":6719,"Ġtabs":6720,"Ġuniversity":6721,"Ġrocks":6722,"Ġroman":6723,"Ġscared":6724,"Ġdescriptive":6725,"Ġsung":6726,"Ġdiameter":6727,"Ġmut":6728,"Ġsore":6729,"Ġopera":6730,"Ġsurprises":6731,"Ġstro":6732,"ki":6733,"Ġwiring":6734,"Ġcliffh":6735,"Ġdecember":6736,"Ġlastly":6737,"pa":6738,"Ġdryer":6739,"Ġinac":6740,"asses":6741,"Ġspoke":6742,"Ġanger":6743,"Ġtunes":6744,"Ġgoodness":6745,"inist":6746,"Ġblocks":6747,"Ġviolent":6748,"Ġdiamond":6749,"Ġencourage":6750,"Ġinvolving":6751,"Ġwalmart":6752,"Ġtin":6753,"Ġbetray":6754,"rived":6755,"oms":6756,"Ġendless":6757,"Ġguns":6758,"Ġratings":6759,"Ġensure":6760,"Ġguid":6761,"rep":6762,"fit":6763,"Ġlum":6764,"Ġgroo":6765,"Ġcommit":6766,"Ġlocations":6767,"Ġwasher":6768,"Ġbrick":6769,"Ġblink":6770,"Ġamateur":6771,"Ġitalian":6772,"Ġseg":6773,"Ġunlock":6774,"Ġinconven":6775,"Ġpaperback":6776,"Ġshoulders":6777,"Ġasks":6778,"Ġcategory":6779,"Ġfolded":6780,"Ġsolutions":6781,"Ġcomprehensive":6782,"Ġinnocent":6783,"Ġdun":6784,"Ġwand":6785,"Ġimper":6786,"Ġcares":6787,"Ġstink":6788,"Ġlabels":6789,"Ġstruggled":6790,"Ġgrandmother":6791,"lers":6792,"Ġpum":6793,"Ġshine":6794,"Ġjewish":6795,"Ġeld":6796,"Ġtechnique":6797,"Ġhallow":6798,"Ġcrappy":6799,"Ġnine":6800,"asse":6801,"angers":6802,"Ġnights":6803,"Ġvolumes":6804,"Ġstomach":6805,"Ġroutine":6806,"oster":6807,"Ġphotographs":6808,"Ġjudg":6809,"Ġpersonalities":6810,"Ġsuggests":6811,"Ġcaptain":6812,"Ġsomebody":6813,"Ġstove":6814,"Ġtragic":6815,"Ġblah":6816,"Ġworlds":6817,"Ġow":6818,"Ġlind":6819,"Ġpit":6820,"Ġaccuracy":6821,"Ġresistant":6822,"Ġartwork":6823,"Ġsum":6824,"lyn":6825,"Ġankle":6826,"Ġcaution":6827,"Ġstickers":6828,"acing":6829,"Ġreleases":6830,"Ġnation":6831,"Ġpremium":6832,"isa":6833,"Ġguides":6834,"Ġanalog":6835,"rick":6836,"Ġorganic":6837,"Ġincreasing":6838,"Ġryan":6839,"Ġforms":6840,"Ġdishes":6841,"Ġtwin":6842,"Ġko":6843,"Ġtoast":6844,"Ġclamp":6845,"Ġwoods":6846,"Ġjos":6847,"Ġoverview":6848,"Ġattracted":6849,"Ġlikeable":6850,"Ġfiller":6851,"Ġadjusting":6852,"Ġsubscri":6853,"che":6854,"Ġdelay":6855,"Ġphysically":6856,"Ġboom":6857,"Ġavid":6858,"Ġobst":6859,"Ġlemon":6860,"Ġlabeled":6861,"lam":6862,"born":6863,"gu":6864,"athan":6865,"Ġswitches":6866,"Ġfee":6867,"Ġbuzz":6868,"Ġreserv":6869,"Ġpatient":6870,"Ġsuffered":6871,"ops":6872,"Ġseparately":6873,"Ġende":6874,"nie":6875,"Ġinvestigation":6876,"gain":6877,"Ġlocated":6878,"Ġspeaks":6879,"ometer":6880,"Ġinher":6881,"Ġenjoyment":6882,"Ġsilent":6883,"Ġtwe":6884,"Ġaccompan":6885,"rop":6886,"place":6887,"you":6888,"Ġrive":6889,"Ġheating":6890,"Ġhearts":6891,"Ġslower":6892,"Ġsupported":6893,"Ġpercent":6894,"Ġroyal":6895,"Ġstations":6896,"Ġhunting":6897,"Ġprovoking":6898,"Ġquote":6899,"Ġencountered":6900,"Ġlogic":6901,"Ġbreeze":6902,"Ġalto":6903,"Ġsynth":6904,"Ġoperating":6905,"pir":6906,"Ġeggs":6907,"Ġoverwhelming":6908,"aign":6909,"Ġwipe":6910,"Ġintuitive":6911,"Ġconduct":6912,"Ġrounded":6913,"phere":6914,"vation":6915,"Ġweapons":6916,"Ġari":6917,"Ġeffectively":6918,"Ġknight":6919,"Ġparis":6920,"Ġjuly":6921,"ficial":6922,"Ġaffordable":6923,"Ġsuggestion":6924,"Ġfuel":6925,"Ġwarri":6926,"Ġtests":6927,"Ġstunning":6928,"Ġprints":6929,"thy":6930,"Ġexecution":6931,"Ġfid":6932,"Ġcapital":6933,"Ġconnects":6934,"Ġpenny":6935,"flix":6936,"Ġclosure":6937,"Ġpear":6938,"Ġsucceed":6939,"Ġemma":6940,"Ġcyc":6941,"Ġawa":6942,"Ġmicrowave":6943,"Ġenlight":6944,"Ġdetach":6945,"Ġjumps":6946,"Ġcountries":6947,"Ġrecognized":6948,"Ġdarkness":6949,"Ġrail":6950,"Ġlayers":6951,"Ġlone":6952,"Ġremarkable":6953,"Ġcampaign":6954,"Ġautomatic":6955,"Ġcreatures":6956,"Ġtouches":6957,"ba":6958,"anship":6959,"gun":6960,"Ġroute":6961,"Ġnetflix":6962,"Ġreputation":6963,"Ġsnaps":6964,"Ġbeep":6965,"Ġwhis":6966,"Ġimple":6967,"Ġbland":6968,"Ġjoin":6969,"ires":6970,"Ġrefused":6971,"Ġlayout":6972,"Ġabrupt":6973,"Ġhitch":6974,"Ġnavy":6975,"Ġtrees":6976,"Ġspeeds":6977,"Ġutterly":6978,"Ġcreation":6979,"Ġoverpr":6980,"Ġarth":6981,"Ġhype":6982,"Ġchill":6983,"Ġproud":6984,"Ġlasting":6985,"Ġfeeder":6986,"Ġvertical":6987,"Ġbone":6988,"Ġsab":6989,"Ġafterno":6990,"Ġcircuit":6991,"Ġdocumentary":6992,"Ġlaunch":6993,"Ġarticles":6994,"bow":6995,"yn":6996,"Ġwrink":6997,"Ġguarantee":6998,"acles":6999,"Ġwondered":7000,"Ġsant":7001,"Ġmusicians":7002,"Ġsuccessfully":7003,"Ġinsane":7004,"Ġargument":7005,"Ġbelieved":7006,"Ġparall":7007,"Ġemails":7008,"Ġnicer":7009,"Ġourselves":7010,"Ġpans":7011,"Ġminds":7012,"Ġportra":7013,"Ġadopt":7014,"Ġnoneth":7015,"Ġcheesy":7016,"Ġinsightful":7017,"Ġmeasurements":7018,"stick":7019,"Ġhelmet":7020,"Ġzone":7021,"Ġeve":7022,"Ġnonetheless":7023,"aved":7024,"asm":7025,"Ġrapid":7026,"pu":7027,"Ġdemons":7028,"Ġdetermine":7029,"Ġincident":7030,"Ġlargely":7031,"Ġcompleted":7032,"Ġblanket":7033,"Ġutil":7034,"Ġbuyers":7035,"Ġresolve":7036,"Ġarrival":7037,"Ġdarn":7038,"Ġaunt":7039,"Ġenvelo":7040,"arts":7041,"Ġapproximately":7042,"ecd":7043,"urd":7044,"Ġcouch":7045,"Ġhack":7046,"Ġcinem":7047,"Ġanecd":7048,"Ġjake":7049,"Ġbeast":7050,"Ġmentions":7051,"Ġtransition":7052,"Ġbenefits":7053,"Ġrights":7054,"Ġpromptly":7055,"Ġcompens":7056,"Ġtextbook":7057,"annah":7058,"Ġwasting":7059,"berg":7060,"Ġbargain":7061,"Ġcharlie":7062,"Ġtraff":7063,"Ġbreaker":7064,"usion":7065,"Ġaffair":7066,"Ġhomes":7067,"Ġwished":7068,"Ġdirected":7069,"Ġchamp":7070,"Ġcoast":7071,"Ġstrategy":7072,"isco":7073,"Ġinvested":7074,"oured":7075,"Ġopener":7076,"Ġumb":7077,"Ġtay":7078,"Ġconnectors":7079,"Ġstood":7080,"Ġpresence":7081,"Ġox":7082,"Ġfrequent":7083,"Ġpolar":7084,"Ġdepressing":7085,"Ġcloud":7086,"Ġscreens":7087,"mond":7088,"Ġseasons":7089,"Ġnoisy":7090,"Ġspelling":7091,"ensity":7092,"Ġroot":7093,"gon":7094,"Ġtremend":7095,"Ġlabor":7096,"Ġcomparing":7097,"Ġmuff":7098,"Ġassass":7099,"Ġscrewdri":7100,"Ġheartbre":7101,"Ġunac":7102,"Ġdiscovery":7103,"Ġcompanion":7104,"Ġqualities":7105,"Ġdesperate":7106,"Ġfm":7107,"Ġjumped":7108,"Ġexpressed":7109,"Ġindia":7110,"Ġgripping":7111,"Ġstrips":7112,"Ġdisease":7113,"Ġextraord":7114,"Ġsupplied":7115,"ieved":7116,"Ġsupports":7117,"Ġcrafted":7118,"Ġdevoted":7119,"Ġmud":7120,"Ġreduce":7121,"Ġinspiration":7122,"Ġeric":7123,"Ġwing":7124,"Ġgods":7125,"Ġbark":7126,"Ġbeans":7127,"Ġhammer":7128,"Ġsept":7129,"Ġstones":7130,"Ġquirky":7131,"Ġcha":7132,"sion":7133,"Ġbones":7134,"Ġstylish":7135,"Ġplates":7136,"Ġviet":7137,"Ġscanner":7138,"Ġservices":7139,"Ġdocuments":7140,"Ġupgraded":7141,"aren":7142,"Ġsufficient":7143,"Ġvet":7144,"esth":7145,"Ġanswered":7146,"jo":7147,"Ġshortly":7148,"Ġtheat":7149,"Ġstab":7150,"Ġpacing":7151,"Ġblender":7152,"arre":7153,"Ġrere":7154,"Ġbold":7155,"iders":7156,"Ġamusing":7157,"Ġbaseball":7158,"Ġimplement":7159,"Ġparagraphs":7160,"Ġsocket":7161,"Ġperiods":7162,"Ġselected":7163,"aws":7164,"Ġrefurb":7165,"Ġadmir":7166,"Ġsoldiers":7167,"ching":7168,"Ġpod":7169,"attering":7170,"ores":7171,"osity":7172,"10":7173,"Ġdated":7174,"Ġabilities":7175,"Ġeuropean":7176,"Ġotterbox":7177,"agn":7178,"Ġcharles":7179,"Ġafternoon":7180,"Ġalas":7181,"Ġket":7182,"Ġinvent":7183,"Ġnails":7184,"Ġinaccur":7185,"Ġdisagree":7186,"urchased":7187,"Ġdealt":7188,"Ġeb":7189,"Ġnin":7190,"Ġmrs":7191,"Ġsubsequ":7192,"Ġfoundation":7193,"Ġumbre":7194,"Ġunlikely":7195,"Ġobsc":7196,"Ġsi":7197,"Ġdefault":7198,"Ġproced":7199,"ville":7200,"rey":7201,"Ġpops":7202,"Ġsatur":7203,"Ġdetract":7204,"paper":7205,"Ġhandsome":7206,"table":7207,"Ġadmitted":7208,"Ġanna":7209,"Ġspell":7210,"Ġshrink":7211,"Ġaccommo":7212,"Ġhop":7213,"Ġevol":7214,"Ġconclud":7215,"Ġpretend":7216,"stein":7217,"Ġjanuary":7218,"Ġdread":7219,"Ġsake":7220,"Ġhalloween":7221,"Ġtracking":7222,"ales":7223,"Ġpointless":7224,"Ġplacing":7225,"Ġoccurred":7226,"Ġbose":7227,"Ġskipping":7228,"Ġmurdered":7229,"Ġlacked":7230,"Ġstretched":7231,"can":7232,"Ġfox":7233,"Ġvalid":7234,"Ġprinciples":7235,"Ġchairs":7236,"Ġles":7237,"Ġjac":7238,"Ġmasterpiece":7239,"Ġhaz":7240,"Ġenemies":7241,"ini":7242,"Ġbug":7243,"Ġversus":7244,"Ġspite":7245,"Ġlap":7246,"Ġhiding":7247,"Ġhoo":7248,"Ġalright":7249,"Ġish":7250,"Ġgrasp":7251,"Ġlaying":7252,"Ġexistence":7253,"Ġclaimed":7254,"Ġincorpor":7255,"Ġnikon":7256,"Ġwi":7257,"parent":7258,"Ġfootball":7259,"Ġceiling":7260,"Ġrelief":7261,"Ġwinner":7262,"Ġchristianity":7263,"Ġseparated":7264,"Ġwarn":7265,"Ġdevil":7266,"evit":7267,"izations":7268,"Ġsubstantial":7269,"Ġpets":7270,"Ġsymbol":7271,"Ġdispens":7272,"Ġrhyth":7273,"essions":7274,"Ġinevit":7275,"Ġrolled":7276,"Ġchicago":7277,"nis":7278,"Ġdub":7279,"Ġtrailer":7280,"Ġdiscovers":7281,"ream":7282,"Ġweakness":7283,"Ġros":7284,"Ġrachel":7285,"Ġcomfy":7286,"Ġlake":7287,"Ġblast":7288,"Ġzippers":7289,"icious":7290,"Ġdaniel":7291,"Ġunplug":7292,"Ġfrozen":7293,"umbs":7294,"ibilities":7295,"Ġtoddler":7296,"Ġmoo":7297,"purchased":7298,"Ġaqu":7299,"Ġsqueeze":7300,"Ġpics":7301,"Ġecho":7302,"Ġmatches":7303,"Ġalice":7304,"Ġconfigur":7305,"Ġconcerning":7306,"bur":7307,"rael":7308,"Ġsubstit":7309,"Ġcommunication":7310,"Ġratt":7311,"Ġconcrete":7312,"Ġaltogether":7313,"Ġpurchases":7314,"Ġsons":7315,"Ġwatt":7316,"Ġreward":7317,"Ġbb":7318,"Ġalternate":7319,"Ġmanager":7320,"Ġsteady":7321,"anie":7322,"Ġbench":7323,"hib":7324,"inder":7325,"Ġsecondly":7326,"Ġspeech":7327,"Ġsleek":7328,"Ġlaughed":7329,"Ġimagin":7330,"Ġcham":7331,"Ġserver":7332,"Ġcitiz":7333,"Ġreluct":7334,"Ġpadded":7335,"Ġknee":7336,"Ġfrance":7337,"Ġprofound":7338,"Ġnylon":7339,"Ġshares":7340,"Ġwave":7341,"Ġpraise":7342,"Ġconfusion":7343,"although":7344,"ummy":7345,"urance":7346,"Ġbaking":7347,"Ġgameplay":7348,"aid":7349,"Ġeval":7350,"plete":7351,"Ġdating":7352,"Ġcompliments":7353,"Ġpsychological":7354,"Ġht":7355,"Ġpicky":7356,"Ġteachers":7357,"Ġanch":7358,"Ġseeds":7359,"Ġscroll":7360,"Ġbizarre":7361,"Ġremovable":7362,"Ġdecade":7363,"mission":7364,"Ġsheer":7365,"Ġcomplained":7366,"Ġoverpriced":7367,"Ġgate":7368,"Ġclum":7369,"Ġshaft":7370,"Ġvin":7371,"Ġminus":7372,"gers":7373,"Ġunaccept":7374,"Ġroof":7375,"Ġdraws":7376,"resso":7377,"Ġdefense":7378,"Ġpalm":7379,"Ġfence":7380,"Ġmechanical":7381,"Ġbrave":7382,"Ġacademic":7383,"Ġpile":7384,"Ġaustr":7385,"Ġminimum":7386,"Ġbeginners":7387,"Ġdispos":7388,"Ġcombo":7389,"Ġkno":7390,"Ġsurviv":7391,"Ġtraum":7392,"fect":7393,"alous":7394,"Ġpedal":7395,"Ġdynamic":7396,"Ġovers":7397,"update":7398,"ili":7399,"aud":7400,"iser":7401,"Ġsewn":7402,"Ġjason":7403,"owed":7404,"Ġlaure":7405,"Ġhers":7406,"Ġoce":7407,"wear":7408,"Ġmanufacturers":7409,"Ġlace":7410,"Ġconvincing":7411,"Ġgermany":7412,"cery":7413,"Ġpale":7414,"Ġabsurd":7415,"Ġcliffhanger":7416,"Ġcontinuing":7417,"Ġsided":7418,"Ġsed":7419,"Ġinteraction":7420,"Ġpotter":7421,"Ġcans":7422,"Ġtread":7423,"ups":7424,"Ġkar":7425,"iana":7426,"Ġatl":7427,"pros":7428,"utter":7429,"fast":7430,"uts":7431,"Ġwax":7432,"Ġweld":7433,"ota":7434,"inn":7435,"Ġmah":7436,"Ġprayer":7437,"Ġdiscussed":7438,"Ġisrael":7439,"Ġatmosphere":7440,"Ġrealizes":7441,"Ġmeasured":7442,"Ġscrap":7443,"Ġhorizont":7444,"Ġengineering":7445,"Ġemergency":7446,"Ġtas":7447,"Ġglobal":7448,"esting":7449,"Ġunp":7450,"Ġstreaming":7451,"Ġfer":7452,"Ġamazingly":7453,"Ġcrank":7454,"ausible":7455,"Ġaccepted":7456,"Ġcad":7457,"pher":7458,"Ġexpense":7459,"Ġurban":7460,"Ġbomb":7461,"Ġroughly":7462,"aze":7463,"Ġtaylor":7464,"Ġcomplaining":7465,"anna":7466,"bor":7467,"Ġchat":7468,"Ġexceptional":7469,"Ġstrict":7470,"Ġwhereas":7471,"Ġgreek":7472,"Ġscrub":7473,"Ġparticip":7474,"Ġobjects":7475,"nel":7476,"ggy":7477,"Ġinvolve":7478,"Ġfolk":7479,"Ġthoughtful":7480,"ilton":7481,"Ġaffected":7482,"Ġillness":7483,"Ġlying":7484,"Ġmargin":7485,"Ġindicated":7486,"Ġcompassion":7487,"Ġfailing":7488,"Ġpron":7489,"Ġsooner":7490,"udes":7491,"Ġapplying":7492,"Ġblew":7493,"Ġobser":7494,"Ġpilot":7495,"Ġsurfaces":7496,"Ġec":7497,"away":7498,"Ġsail":7499,"Ġafrican":7500,"Ġsensit":7501,"ilty":7502,"Ġbleed":7503,"Ġscripture":7504,"zzle":7505,"Ġdelicate":7506,"Ġhousehold":7507,"Ġreported":7508,"Ġtreasure":7509,"Ġshakes":7510,"Ġgospe":7511,"Ġphenomen":7512,"uster":7513,"Ġstating":7514,"Ġdepression":7515,"Ġlew":7516,"Ġextent":7517,"Ġteaches":7518,"Ġbeef":7519,"Ġlaws":7520,"Ġbeloved":7521,"Ġbite":7522,"ifer":7523,"Ġflorida":7524,"Ġunacceptable":7525,"Ġfavour":7526,"father":7527,"Ġwashington":7528,"Ġdiction":7529,"Ġskipped":7530,"Ġpromising":7531,"Ġclassical":7532,"Ġclues":7533,"Ġstaff":7534,"Ġbabies":7535,"Ġsuited":7536,"Ġeducational":7537,"Ġtables":7538,"Ġreject":7539,"Ġdomin":7540,"Ġpir":7541,"Ġcruel":7542,"Ġah":7543,"abilities":7544,"Ġinserted":7545,"Ġclam":7546,"Ġcarrier":7547,"Ġstored":7548,"Ġempire":7549,"Ġtrek":7550,"Ġlandscape":7551,"Ġware":7552,"Ġprofession":7553,"Ġclasp":7554,"Ġbran":7555,"Ġfranc":7556,"Ġjewelry":7557,"Ġlined":7558,"Ġbuckle":7559,"Ġleash":7560,"Ġroles":7561,"Ġcurve":7562,"war":7563,"Ġarrives":7564,"Ġoutcome":7565,"Ġpunct":7566,"Ġupright":7567,"Ġgrammatical":7568,"Ġapoc":7569,"Ġgrief":7570,"Ġclimax":7571,"Ġarts":7572,"ivalent":7573,"Ġnonsense":7574,"Ġslick":7575,"Ġlowest":7576,"Ġselfish":7577,"Ġmand":7578,"Ġextras":7579,"Ġflowers":7580,"Ġaddict":7581,"Ġwii":7582,"grap":7583,"Ġtil":7584,"Ġrang":7585,"Ġvul":7586,"aret":7587,"Ġobtain":7588,"Ġhabit":7589,"Ġdare":7590,"Ġbackst":7591,"Ġarguments":7592,"Ġvocab":7593,"Ġexclus":7594,"Ġjose":7595,"Ġsofter":7596,"Ġbless":7597,"Ġgifted":7598,"Ġheels":7599,"Ġslippery":7600,"Ġclay":7601,"Ġignored":7602,"Ġdefinition":7603,"Ġleadership":7604,"entional":7605,"ober":7606,"Ġrecy":7607,"Ġprotecting":7608,"Ġpaired":7609,"Ġfeatured":7610,"Ġindicator":7611,"Ġsells":7612,"Ġwinning":7613,"Ġdisappear":7614,"mate":7615,"ingu":7616,"Ġtroublesho":7617,"Ġpotato":7618,"plic":7619,"Ġgripe":7620,"Ġspecs":7621,"Ġmont":7622,"Ġreply":7623,"Ġresort":7624,"Ġcert":7625,"Ġmodem":7626,"Ġvillage":7627,"Ġskirt":7628,"Ġjustify":7629,"Ġinferior":7630,"aired":7631,"Ġfeaturing":7632,"Ġmall":7633,"Ġintro":7634,"Ġsettle":7635,"Ġtitled":7636,"Ġaliens":7637,"Ġsellers":7638,"Ġoctober":7639,"Ġsuffers":7640,"otion":7641,"ighter":7642,"Ġoun":7643,"Ġstorytelling":7644,"Ġbackwards":7645,"got":7646,"Ġcomparable":7647,"Ġliberal":7648,"Ġofficer":7649,"Ġdisci":7650,"Ġebook":7651,"ulary":7652,"Ġstir":7653,"Ġmetaph":7654,"Ġretain":7655,"Ġwwii":7656,"Ġnex":7657,"Ġconsequences":7658,"Ġadjustments":7659,"Ġunin":7660,"amb":7661,"Ġflower":7662,"Ġscratching":7663,"Ġneckl":7664,"ista":7665,"Ġvictims":7666,"Ġscent":7667,"Ġangels":7668,"Ġnich":7669,"Ġarticle":7670,"cher":7671,"Ġdot":7672,"Ġeconomic":7673,"Ġcracks":7674,"Ġneighbors":7675,"Ġjay":7676,"Ġmagnets":7677,"Ġsuspenseful":7678,"ku":7679,"Ġgrows":7680,"wow":7681,"Ġfears":7682,"Ġmoisture":7683,"Ġmiser":7684,"Ġaesth":7685,"Ġhandful":7686,"Ġdeter":7687,"Ġbullet":7688,"Ġscrewdriver":7689,"Ġfond":7690,"Ġchances":7691,"llo":7692,"Ġpartially":7693,"Ġpossibility":7694,"Ġdisli":7695,"Ġinteractions":7696,"Ġglitch":7697,"Ġumbrella":7698,"Ġclassics":7699,"Ġtoaster":7700,"Ġconsole":7701,"otted":7702,"water":7703,"Ġkettle":7704,"Ġstarter":7705,"Ġconcise":7706,"Ġsupplement":7707,"Ġalbe":7708,"Ġbrighter":7709,"Ġboards":7710,"Ġmaximum":7711,"Ġtowels":7712,"Ġlogical":7713,"Ġgenerous":7714,"uits":7715,"Ġsuicide":7716,"Ġempath":7717,"Ġreveals":7718,"aky":7719,"pass":7720,"Ġhonesty":7721,"Ġron":7722,"oma":7723,"love":7724,"Ġowning":7725,"Ġdragged":7726,"Ġford":7727,"Ġdowns":7728,"Ġoccup":7729,"Ġveter":7730,"ician":7731,"Ġbodies":7732,"Ġhorribly":7733,"Ġpanels":7734,"Ġgolf":7735,"Ġrope":7736,"Ġgrips":7737,"Ġmessed":7738,"Ġpricey":7739,"ersome":7740,"Ġmurders":7741,"Ġhinge":7742,"acular":7743,"Ġnovember":7744,"Ġalbeit":7745,"Ġtomor":7746,"Ġcooper":7747,"Ġlen":7748,"Ġconclusions":7749,"aver":7750,"Ġphrases":7751,"Ġfiber":7752,"Ġsloppy":7753,"Ġaccurately":7754,"Ġsew":7755,"Ġrepub":7756,"Ġcousin":7757,"Ġresponsive":7758,"Ġoccasions":7759,"Ġcalib":7760,"Ġjun":7761,"Ġexter":7762,"Ġglimp":7763,"Ġlucy":7764,"Ġphysics":7765,"forward":7766,"vas":7767,"Ġpipe":7768,"Ġcharts":7769,"Ġessays":7770,"va":7771,"Ġamy":7772,"Ġglimpse":7773,"ties":7774,"Ġzombies":7775,"Ġlately":7776,"Ġapocaly":7777,"Ġpoems":7778,"ogue":7779,"Ġpopping":7780,"Ġfocusing":7781,"Ġdecept":7782,"Ġtricky":7783,"Ġreceipt":7784,"Ġwiz":7785,"Ġtrib":7786,"Ġpathetic":7787,"Ġversat":7788,"Ġdisclaim":7789,"Ġupload":7790,"Ġamounts":7791,"Ġromances":7792,"Ġpermanent":7793,"Ġsnack":7794,"Ġplacement":7795,"Ġweapon":7796,"Ġrp":7797,"isk":7798,"Ġsaves":7799,"Ġconvenience":7800,"Ġpencils":7801,"Ġguilty":7802,"Ġindicate":7803,"Ġfirmly":7804,"uries":7805,"Ġtomorrow":7806,"rition":7807,"abor":7808,"Ġdispl":7809,"Ġirre":7810,"Ġbeth":7811,"Ġcooker":7812,"abled":7813,"Ġroots":7814,"Ġsoup":7815,"Ġcommitted":7816,"Ġdiagr":7817,"Ġrestr":7818,"Ġcel":7819,"Ġexperiencing":7820,"Ġillustrated":7821,"Ġemily":7822,"Ġvibrant":7823,"istan":7824,"Ġrick":7825,"Ġsensitivity":7826,"Ġcontrived":7827,"rial":7828,"Ġcared":7829,"Ġmanufactured":7830,"Ġsauce":7831,"Ġpractices":7832,"Ġphill":7833,"Ġleds":7834,"aches":7835,"Ġpride":7836,"Ġgrocery":7837,"Ġcaptivating":7838,"with":7839,"Ġreplacements":7840,"Ġgrant":7841,"Ġbelly":7842,"Ġscot":7843,"Ġcooked":7844,"rene":7845,"Ġaward":7846,"Ġstudying":7847,"Ġbatman":7848,"Ġsandals":7849,"Ġrooms":7850,"Ġtower":7851,"atures":7852,"Ġcraw":7853,"Ġsewing":7854,"Ġproven":7855,"Ġdisplayed":7856,"Ġflour":7857,"Ġpublication":7858,"Ġtransmitter":7859,"ppers":7860,"gia":7861,"Ġrecover":7862,"Ġleaked":7863,"Ġrestaurant":7864,"Ġgod":7865,"Ġmonsters":7866,"Ġcomprom":7867,"Ġteenagers":7868,"Ġreports":7869,"Ġproph":7870,"reen":7871,"Ġagreed":7872,"Ġmessy":7873,"Ġgore":7874,"Ġwilliams":7875,"Ġslipping":7876,"Ġstumb":7877,"Ġresulting":7878,"Ġconvince":7879,"Ġfreeze":7880,"iped":7881,"Ġestate":7882,"Ġtongue":7883,"Ġproved":7884,"Ġtraffic":7885,"hop":7886,"Ġshades":7887,"Ġembr":7888,"Ġbrian":7889,"Ġflawlessly":7890,"Ġcul":7891,"Ġtermin":7892,"Ġassociated":7893,"Ġward":7894,"Ġskinny":7895,"Ġstraightforward":7896,"cript":7897,"Ġhesitant":7898,"Ġglor":7899,"Ġinvolves":7900,"Ġcompilation":7901,"Ġsurvived":7902,"Ġcriminal":7903,"Ġneighborhood":7904,"Ġreh":7905,"logical":7906,"Ġresponsibility":7907,"Ġjokes":7908,"Ġdear":7909,"grapher":7910,"Ġdeserved":7911,"idents":7912,"stream":7913,"Ġshy":7914,"Ġbasement":7915,"Ġthrows":7916,"Ġcolon":7917,"Ġfeeding":7918,"Ġrene":7919,"Ġrefurbished":7920,"inis":7921,"Ġindoor":7922,"Ġvocabulary":7923,"Ġampl":7924,"Ġlawyer":7925,"Ġcalcul":7926,"Ġbuilds":7927,"Ġirish":7928,"enger":7929,"Ġpillows":7930,"Ġtravels":7931,"Ġnutrition":7932,"Ġcooling":7933,"Ġheadache":7934,"Ġregion":7935,"Ġhal":7936,"Ġsearched":7937,"Ġfount":7938,"Ġmeg":7939,"Ġfitted":7940,"Ġwealthy":7941,"Ġrolls":7942,"Ġunst":7943,"Ġinh":7944,"Ġlimits":7945,"Ġheaded":7946,"Ġcontainers":7947,"Ġignor":7948,"Ġgad":7949,"Ġspoiled":7950,"Ġsprink":7951,"Ġengage":7952,"Ġmixing":7953,"arted":7954,"inished":7955,"Ġpositions":7956,"Ġintellectual":7957,"Ġtony":7958,"Ġfont":7959,"Ġcarbon":7960,"Ġcomplimentary":7961,"good":7962,"stop":7963,"Ġsubtit":7964,"Ġsequence":7965,"Ġequivalent":7966,"Ġemphasis":7967,"Ġocean":7968,"Ġthigh":7969,"Ġsoooo":7970,"Ġven":7971,"Ġacou":7972,"ooked":7973,"Ġpublishers":7974,"Ġgoals":7975,"Ġminded":7976,"Ġstreets":7977,"Ġdrinks":7978,"Ġobsessed":7979,"Ġconspir":7980,"Ġpd":7981,"Ġsyno":7982,"Ġfoster":7983,"ifications":7984,"Ġunsc":7985,"Ġangles":7986,"beat":7987,"Ġnarration":7988,"Ġentertained":7989,"Ġcorporate":7990,"Ġrif":7991,"Ġreverse":7992,"Ġdisclaimer":7993,"Ġgrateful":7994,"Ġine":7995,"Ġevident":7996,"Ġshocking":7997,"Ġreminis":7998,"Ġbrutal":7999,"Ġearned":8000,"Ġaggress":8001,"Ġvine":8002,"Ġbrass":8003,"Ġknees":8004,"Ġmounts":8005,"Ġallen":8006,"Ġcalend":8007,"Ġearphones":8008,"Ġpause":8009,"Ġdave":8010,"Ġcomponent":8011,"Ġhints":8012,"Ġlouder":8013,"atherine":8014,"Ġelegant":8015,"tha":8016,"Ġframes":8017,"Ġfridge":8018,"Ġseed":8019,"Ġstub":8020,"Ġexpans":8021,"Ġmeals":8022,"Ġboost":8023,"Ġdrawings":8024,"core":8025,"Ġscare":8026,"Ġpapers":8027,"cs":8028,"Ġmonitors":8029,"Ġnerv":8030,"Ġgently":8031,"Ġsup":8032,"issa":8033,"Ġgallon":8034,"Ġthousand":8035,"Ġsketch":8036,"Ġridiculously":8037,"Ġregards":8038,"inations":8039,"Ġfishing":8040,"Ġflashback":8041,"Ġrigid":8042,"rings":8043,"Ġsimon":8044,"Ġaccomplished":8045,"Ġtrained":8046,"urt":8047,"Ġforest":8048,"Ġcontrad":8049,"ifies":8050,"Ġlex":8051,"Ġchord":8052,"Ġpuzzles":8053,"Ġoutdoors":8054,"Ġdocumentation":8055,"Ġneut":8056,"Ġafrica":8057,"Ġoccasion":8058,"Ġhearted":8059,"Ġcrowd":8060,"Ġcarries":8061,"Ġconvey":8062,"Ġroast":8063,"leep":8064,"Ġcatchy":8065,"Ġhighlights":8066,"Ġfootage":8067,"Ġswive":8068,"Ġphrase":8069,"Ġicon":8070,"Ġcram":8071,"Ġguilt":8072,"Ġsoldier":8073,"Ġislam":8074,"Ġlever":8075,"vet":8076,"Ġalike":8077,"Ġbooklet":8078,"agan":8079,"Ġcaptures":8080,"Ġportrait":8081,"Ġflavors":8082,"Ġconfirm":8083,"Ġlewis":8084,"Ġairport":8085,"Ġbinding":8086,"Ġrequested":8087,"Ġprocessor":8088,"Ġapolog":8089,"lying":8090,"Ġjenn":8091,"dated":8092,"Ġiv":8093,"Ġmodes":8094,"Ġhips":8095,"Ġrepublic":8096,"icity":8097,"Ġinsult":8098,"Ġrugged":8099,"Ġcutter":8100,"Ġactress":8101,"Ġjean":8102,"Ġreprod":8103,"Ġprojector":8104,"Ġcreativity":8105,"Ġfluid":8106,"Ġcuis":8107,"Ġwhist":8108,"cere":8109,"Ġpy":8110,"Ġsolely":8111,"Ġcents":8112,"tv":8113,"Ġpolish":8114,"Ġruth":8115,"Ġattrib":8116,"Ġfurthermore":8117,"Ġfbi":8118,"Ġsunday":8119,"inity":8120,"Ġpunk":8121,"Ġgeor":8122,"Ġreaching":8123,"Ġimmediate":8124,"Ġthirty":8125,"orses":8126,"bling":8127,"Ġtid":8128,"Ġexceed":8129,"ris":8130,"Ġbund":8131,"Ġmos":8132,"Ġbarrel":8133,"Ġcartoon":8134,"Ġspaces":8135,"Ġblowing":8136,"Ġdancing":8137,"bar":8138,"Ġjosh":8139,"Ġplugging":8140,"Ġtheories":8141,"Ġnap":8142,"Ġtilt":8143,"Ġproves":8144,"Ġmice":8145,"Ġlas":8146,"Ġencounters":8147,"Ġpromises":8148,"Ġkore":8149,"sell":8150,"amental":8151,"Ġstrike":8152,"Ġnavigate":8153,"Ġaddressed":8154,"Ġsust":8155,"Ġfiguring":8156,"Ġbrackets":8157,"Ġtossed":8158,"Ġlp":8159,"Ġunderstandable":8160,"Ġmeter":8161,"Ġpotentially":8162,"Ġcock":8163,"Ġscholars":8164,"Ġtubes":8165,"inal":8166,"Ġappli":8167,"Ġlawn":8168,"Ġtender":8169,"ember":8170,"Ġclicking":8171,"Ġinstruments":8172,"Ġasleep":8173,"Ġaccent":8174,"Ġremotely":8175,"gery":8176,"Ġstol":8177,"Ġinterpretation":8178,"Ġengineer":8179,"Ġcrying":8180,"Ġdefend":8181,"power":8182,"Ġnervous":8183,"Ġfunctioning":8184,"Ġextraordinary":8185,"Ġbom":8186,"Ġmedicine":8187,"Ġreflection":8188,"Ġdecl":8189,"Ġmisunder":8190,"Ġmotorcy":8191,"Ġgrabbed":8192,"Ġstruck":8193,"iber":8194,"onic":8195,"Ġrefuses":8196,"Ġclark":8197,"hs":8198,"Ġdoz":8199,"Ġerr":8200,"iography":8201,"Ġcompetition":8202,"Ġepil":8203,"Ġfright":8204,"Ġrecon":8205,"Ġstranger":8206,"Ġchef":8207,"Ġimmense":8208,"Ġgrat":8209,"Ġneedle":8210,"Ġgadget":8211,"Ġspecies":8212,"Ġmeaningful":8213,"Ġchief":8214,"Ġexcessive":8215,"Ġcomics":8216,"Ġgaps":8217,"Ġacted":8218,"Ġchoosing":8219,"orse":8220,"Ġcookie":8221,"Ġdefined":8222,"Ġwhoever":8223,"Ġspinning":8224,"Ġkim":8225,"Ġestablished":8226,"ique":8227,"Ġships":8228,"Ġelder":8229,"Ġkills":8230,"Ġpean":8231,"Ġdisclosure":8232,"jud":8233,"Ġwrest":8234,"Ġparker":8235,"Ġhind":8236,"Ġnewly":8237,"Ġprecious":8238,"Ġworkouts":8239,"having":8240,"Ġdrove":8241,"umble":8242,"cons":8243,"Ġdates":8244,"Ġmoderate":8245,"Ġproceed":8246,"Ġpriest":8247,"Ġtechnically":8248,"Ġpassionate":8249,"Ġmovements":8250,"Ġpant":8251,"Ġfifth":8252,"Ġmexico":8253,"Ġcontinually":8254,"ordan":8255,"Ġposts":8256,"Ġkingdom":8257,"Ġwoven":8258,"Ġmatching":8259,"ravel":8260,"Ġdiagn":8261,"pical":8262,"Ġdism":8263,"Ġsincere":8264,"Ġviewpoint":8265,"Ġshark":8266,"Ġimagined":8267,"Ġvit":8268,"Ġgospel":8269,"Ġvest":8270,"Ġbracelet":8271,"Ġrhythm":8272,"Ġwre":8273,"Ġlily":8274,"Ġinsist":8275,"asant":8276,"Ġefficient":8277,"Ġarab":8278,"Ġoutr":8279,"aste":8280,"ayed":8281,"ndry":8282,"Ġdesert":8283,"Ġpreference":8284,"Ġdivorce":8285,"Ġtestament":8286,"ulations":8287,"Ġcolour":8288,"Ġincreased":8289,"Ġresearching":8290,"Ġsimplistic":8291,"Ġspout":8292,"Ġmins":8293,"Ġracing":8294,"Ġdiary":8295,"Ġlux":8296,"gear":8297,"itect":8298,"Ġhesitate":8299,"Ġtile":8300,"Ġbumper":8301,"Ġcrisis":8302,"Ġarchitect":8303,"ordered":8304,"Ġinconsistent":8305,"Ġshipment":8306,"Ġtrapped":8307,"Ġdictionary":8308,"Ġmathem":8309,"Ġengross":8310,"Ġtighter":8311,"Ġconfront":8312,"Ġexplicit":8313,"Ġcountless":8314,"Ġgrav":8315,"Ġcoinc":8316,"Ġfights":8317,"Ġoverhe":8318,"Ġrecommendations":8319,"Ġproduces":8320,"Ġgask":8321,"unks":8322,"atisfied":8323,"Ġlicense":8324,"Ġsupplies":8325,"Ġsturd":8326,"esis":8327,"lasses":8328,"Ġmakers":8329,"Ġaged":8330,"Ġproperty":8331,"Ġswimming":8332,"Ġlect":8333,"ige":8334,"uten":8335,"Ġredeeming":8336,"Ġdealer":8337,"ione":8338,"Ġvietnam":8339,"Ġlightly":8340,"Ġmuse":8341,"stone":8342,"Ġmarsh":8343,"Ġreel":8344,"pled":8345,"Ġdp":8346,"Ġsuck":8347,"Ġcookies":8348,"Ġknocked":8349,"Ġcorrupt":8350,"Ġstatements":8351,"nn":8352,"Ġresponded":8353,"Ġyo":8354,"Ġnecklace":8355,"Ġreinstall":8356,"Ġbreakfast":8357,"iation":8358,"Ġstan":8359,"Ġintroduces":8360,"Ġbarn":8361,"Ġexists":8362,"Ġfriday":8363,"Ġstolen":8364,"Ġpist":8365,"Ġnexus":8366,"Ġspectacular":8367,"Ġinterm":8368,"Ġforgive":8369,"Ġunravel":8370,"Ġpier":8371,"Ġwings":8372,"Ġremembered":8373,"Ġlonely":8374,"Ġvulner":8375,"ugs":8376,"Ġdepends":8377,"Ġflood":8378,"Ġrul":8379,"Ġviewer":8380,"Ġkelly":8381,"Ġfountain":8382,"Ġhopeful":8383,"Ġconservative":8384,"via":8385,"going":8386,"Ġou":8387,"Ġsaga":8388,"Ġhorses":8389,"Ġraising":8390,"Ġclients":8391,"gas":8392,"Ġrides":8393,"Ġreform":8394,"Ġremained":8395,"Ġconfiguration":8396,"Ġsatisfaction":8397,"Ġsquir":8398,"Ġvoltage":8399,"Ġours":8400,"Ġcozy":8401,"Ġdisj":8402,"icer":8403,"Ġjohnson":8404,"Ġjulia":8405,"Ġexecuted":8406,"Ġwhim":8407,"kind":8408,"Ġhollow":8409,"Ġglow":8410,"ontin":8411,"Ġcastle":8412,"Ġtexts":8413,"Ġcontacting":8414,"Ġhrs":8415,"Ġjealous":8416,"Ġinstit":8417,"Ġdissapointed":8418,"Ġhing":8419,"Ġparties":8420,"ulating":8421,"Ġebay":8422,"Ġbelieving":8423,"Ġepson":8424,"Ġseptember":8425,"win":8426,"Ġadapters":8427,"Ġrepaired":8428,"alia":8429,"ched":8430,"Ġanecdotes":8431,"Ġprofit":8432,"Ġstripped":8433,"Ġclassroom":8434,"Ġtam":8435,"Ġleaf":8436,"Ġsimil":8437,"Ġprotects":8438,"Ġtendency":8439,"Ġsynops":8440,"Ġneph":8441,"iate":8442,"Ġdevast":8443,"Ġepilogue":8444,"Ġseats":8445,"corn":8446,"Ġsoles":8447,"Ġintric":8448,"Ġtablets":8449,"Ġidiot":8450,"Ġabusive":8451,"Ġvary":8452,"Ġcapability":8453,"isc":8454,"Ġdemocr":8455,"Ġnotebook":8456,"Ġexterior":8457,"Ġfrequency":8458,"Ġdor":8459,"Ġwritings":8460,"overall":8461,"Ġinserts":8462,"Ġaccommodate":8463,"Ġintensity":8464,"Ġoddly":8465,"fr":8466,"Ġlightning":8467,"Ġportrayal":8468,"don":8469,"Ġfortune":8470,"Ġslightest":8471,"Ġinfluenced":8472,"Ġcarp":8473,"urs":8474,"gypt":8475,"Ġreread":8476,"gen":8477,"Ġtorture":8478,"Ġbilly":8479,"Ġarro":8480,"Ġtightened":8481,"za":8482,"Ġabsorb":8483,"Ġmarkers":8484,"udge":8485,"Ġcandle":8486,"Ġsustain":8487,"Ġunple":8488,"iors":8489,"Ġclaire":8490,"Ġgrease":8491,"Ġegypt":8492,"Ġloosen":8493,"Ġrotate":8494,"Ġdive":8495,"Ġweights":8496,"Ġnozzle":8497,"Ġreconnect":8498,"Ġstopping":8499,"Ġlegit":8500,"Ġcommunicate":8501,"Ġdozens":8502,"Ġdent":8503,"Ġbreed":8504,"Ġabused":8505,"Ġincomplete":8506,"Ġworkers":8507,"fers":8508,"Ġandre":8509,"Ġtoner":8510,"Ġdisplays":8511,"Ġpreach":8512,"Ġaka":8513,"Ġdisjointed":8514,"Ġbeer":8515,"Ġchargers":8516,"Ġkitty":8517,"Ġmiller":8518,"iform":8519,"Ġmerc":8520,"Ġstem":8521,"Ġitaly":8522,"Ġtutor":8523,"Ġren":8524,"Ġtriangle":8525,"udos":8526,"ava":8527,"Ġsession":8528,"Ġlint":8529,"Ġdiscour":8530,"Ġlaundry":8531,"Ġreferred":8532,"Ġnaive":8533,"Ġgreg":8534,"Ġdisgusting":8535,"Ġcere":8536,"ante":8537,"Ġgrounds":8538,"Ġobservations":8539,"Ġjoseph":8540,"Ġautob":8541,"Ġtricks":8542,"Ġpairing":8543,"Ġpizz":8544,"Ġsettled":8545,"Ġyarn":8546,"rifying":8547,"ials":8548,"Ġnegatives":8549,"Ġhouses":8550,"Ġflows":8551,"Ġmats":8552,"Ġscenario":8553,"Ġhanger":8554,"Ġloading":8555,"Ġfaded":8556,"Ġcities":8557,"ptic":8558,"Ġobjective":8559,"ona":8560,"Ġunders":8561,"Ġtwel":8562,"Ġrefuse":8563,"Ġrect":8564,"Ġmeasuring":8565,"irl":8566,"Ġwilson":8567,"Ġcatching":8568,"Ġugh":8569,"inent":8570,"Ġlesser":8571,"Ġcopper":8572,"Ġbeings":8573,"Ġimmers":8574,"Ġdevelops":8575,"Ġschools":8576,"Ġreun":8577,"Ġsusan":8578,"Ġrealizing":8579,"Ġrim":8580,"Ġclient":8581,"Ġaddiction":8582,"Ġrecovery":8583,"Ġsubsequent":8584,"Ġuniform":8585,"Ġafterwards":8586,"Ġorders":8587,"alled":8588,"store":8589,"Ġreson":8590,"Ġvolunt":8591,"Ġcure":8592,"Ġoverl":8593,"Ġdepot":8594,"Ġsuspend":8595,"Ġboston":8596,"Ġpsychology":8597,"riger":8598,"Ġdrying":8599,"Ġpopulation":8600,"belie":8601,"Ġmeanwhile":8602,"Ġfashioned":8603,"hy":8604,"ission":8605,"Ġathlet":8606,"rian":8607,"amic":8608,"Ġdisconnected":8609,"Ġexposure":8610,"umn":8611,"Ġstam":8612,"Ġdrums":8613,"Ġparallel":8614,"Ġoptical":8615,"Ġira":8616,"Ġmainten":8617,"Ġrechargeable":8618,"Ġsciss":8619,"Ġcontrolled":8620,"Ġfederal":8621,"Ġcalendar":8622,"Ġoblig":8623,"Ġbrake":8624,"Ġwishing":8625,"vo":8626,"rence":8627,"Ġlids":8628,"Ġgritty":8629,"Ġperfection":8630,"Ġreadings":8631,"Ġcrimes":8632,"chool":8633,"Ġprotein":8634,"Ġdj":8635,"Ġbriefly":8636,"Ġdesperately":8637,"Ġgrinding":8638,"Ġvirgin":8639,"Ġsynopsis":8640,"Ġhighs":8641,"Ġwonders":8642,"Ġblake":8643,"tes":8644,"Ġperforms":8645,"Ġconsuming":8646,"Ġpregnancy":8647,"aine":8648,"Ġartific":8649,"Ġalt":8650,"Ġconvert":8651,"Ġmotherboard":8652,"Ġdisappeared":8653,"Ġroku":8654,"Ġcurs":8655,"Ġprone":8656,"Ġanticipated":8657,"Ġghz":8658,"Ġnest":8659,"Ġchor":8660,"Ġmelt":8661,"Ġquestionable":8662,"Ġthumbs":8663,"Ġpeeling":8664,"Ġhangs":8665,"Ġmaintenance":8666,"Ġcalories":8667,"Ġadmire":8668,"screen":8669,"Ġgrandson":8670,"Ġresemb":8671,"Ġcruc":8672,"Ġip":8673,"Ġoliv":8674,"Ġsacrif":8675,"Ġbucket":8676,"ja":8677,"Ġconce":8678,"yard":8679,"Ġcollector":8680,"Ġilleg":8681,"oul":8682,"Ġnewest":8683,"Ġlisa":8684,"Ġdump":8685,"Ġholders":8686,"Ġsacrifice":8687,"Ġdawn":8688,"chant":8689,"Ġallerg":8690,"Ġsophistic":8691,"Ġrefriger":8692,"bu":8693,"imm":8694,"Ġgeo":8695,"Ġrazor":8696,"Ġrome":8697,"Ġreboot":8698,"Ġasp":8699,"Ġbride":8700,"Ġedward":8701,"Ġtasted":8702,"Ġlouis":8703,"Ġcrown":8704,"Ġmatched":8705,"Ġacknowled":8706,"Ġstrategies":8707,"Ġcliche":8708,"Ġpassword":8709,"omy":8710,"Ġabandoned":8711,"Ġtrave":8712,"otional":8713,"Ġfundamental":8714,"Ġdeciding":8715,"Ġstairs":8716,"Ġmower":8717,"Ġretired":8718,"Ġbending":8719,"Ġvillains":8720,"Ġclunky":8721,"Ġmoore":8722,"Ġprinters":8723,"Ġpity":8724,"Ġspider":8725,"Ġinnov":8726,"Ġmanufacture":8727,"Ġcarr":8728,"Ġwicked":8729,"Ġguitars":8730,"Ġyours":8731,"Ġbeating":8732,"Ġcos":8733,"Ġelev":8734,"artments":8735,"Ġcanvas":8736,"Ġgenerations":8737,"Ġfacebook":8738,"Ġcuriosity":8739,"Ġster":8740,"Ġwarrior":8741,"Ġcm":8742,"Ġvisiting":8743,"Ġfolding":8744,"Ġpm":8745,"Ġeducated":8746,"Ġmetall":8747,"Ġfreak":8748,"angel":8749,"Ġinjury":8750,"Ġflee":8751,"Ġrin":8752,"Ġtimely":8753,"Ġbruce":8754,"Ġblurb":8755,"lif":8756,"Ġjordan":8757,"rous":8758,"Ġloosely":8759,"Ġcapabilities":8760,"Ġmason":8761,"Ġattacks":8762,"Ġsouls":8763,"Ġnephew":8764,"Ġglance":8765,"Ġgran":8766,"Ġfest":8767,"unes":8768,"Ġbreast":8769,"Ġmatte":8770,"Ġcowboy":8771,"Ġlaces":8772,"Ġdud":8773,"Ġloops":8774,"Ġlargest":8775,"zed":8776,"Ġhr":8777,"Ġcharacterization":8778,"Ġsigh":8779,"Ġholmes":8780,"Ġtherapy":8781,"hill":8782,"Ġnovice":8783,"wall":8784,"Ġbern":8785,"Ġhurts":8786,"Ġtasks":8787,"Ġenorm":8788,"Ġsprings":8789,"gent":8790,"Ġintroduce":8791,"Ġcocon":8792,"Ġindustrial":8793,"Ġmothers":8794,"Ġanytime":8795,"Ġdylan":8796,"Ġdough":8797,"Ġevenly":8798,"Ġnewspaper":8799,"ipher":8800,"Ġprotagonists":8801,"Ġhaunting":8802,"Ġrobin":8803,"escent":8804,"Ġestablish":8805,"Ġguests":8806,"Ġrobot":8807,"Ġodds":8808,"Ġscoop":8809,"shield":8810,"Ġkeen":8811,"plate":8812,"Ġpackages":8813,"Ġchalk":8814,"some":8815,"Ġdean":8816,"Ġvehicles":8817,"Ġgrandfather":8818,"Ġsuperficial":8819,"Ġdrilled":8820,"Ġfolds":8821,"Ġacoustic":8822,"Ġaddresses":8823,"Ġsteven":8824,"Ġunscrew":8825,"Ġsmelled":8826,"hh":8827,"omet":8828,"Ġlend":8829,"Ġrubbing":8830,"Ġexploring":8831,"Ġguidance":8832,"lson":8833,"Ġenvelope":8834,"bro":8835,"Ġssd":8836,"Ġaccessory":8837,"Ġcoach":8838,"Ġriff":8839,"Ġtremendous":8840,"Ġdesigner":8841,"Ġsympathetic":8842,"Ġhates":8843,"Ġrevealing":8844,"Ġprejud":8845,"Ġunsure":8846,"Ġoutfit":8847,"Ġbacks":8848,"Ġflashing":8849,"Ġspoken":8850,"lle":8851,"Ġosc":8852,"Ġcontacts":8853,"Ġtwelve":8854,"Ġsurgery":8855,"Ġjet":8856,"Ġduck":8857,"oph":8858,"iful":8859,"Ġsenior":8860,"Ġlegacy":8861,"Ġthro":8862,"Ġsparks":8863,"Ġinterests":8864,"Ġglowing":8865,"Ġvibr":8866,"Ġpreview":8867,"Ġfixture":8868,"Ġkir":8869,"Ġdestruction":8870,"Ġfreezing":8871,"Ġespresso":8872,"Ġelite":8873,"ernet":8874,"Ġoffensive":8875,"ressed":8876,"pectives":8877,"Ġattaches":8878,"Ġlengthy":8879,"Ġunpleasant":8880,"Ġdigest":8881,"idently":8882,"Ġbikes":8883,"ggings":8884,"Ġformed":8885,"Ġcontrovers":8886,"Ġintermitt":8887,"Ġintim":8888,"Ġrank":8889,"Ġretract":8890,"Ġleague":8891,"Ġneutral":8892,"Ġmainstream":8893,"Ġwatts":8894,"cence":8895,"Ġpolished":8896,"Ġbrushes":8897,"Ġadmittedly":8898,"Ġdownright":8899,"bruary":8900,"Ġaggr":8901,"Ġmaggie":8902,"Ġchore":8903,"Ġdiscusses":8904,"eu":8905,"Ġhyper":8906,"Ġsnag":8907,"Ġsunglasses":8908,"Ġinaccurate":8909,"Ġhan":8910,"omic":8911,"dge":8912,"Ġadvised":8913,"Ġta":8914,"Ġpoison":8915,"Ġbrid":8916,"Ġmotivation":8917,"Ġdense":8918,"Ġmillions":8919,"Ġrecieved":8920,"Ġhyp":8921,"Ġslipped":8922,"arse":8923,"Ġcumb":8924,"zer":8925,"Ġquicken":8926,"Ġconsideration":8927,"Ġillumin":8928,"Ġexagger":8929,"Ġvint":8930,"Ġextract":8931,"Ġfebruary":8932,"Ġsolving":8933,"Ġresidue":8934,"Ġtrav":8935,"Ġessence":8936,"Ġperspectives":8937,"Ġhorizontal":8938,"Ġcheer":8939,"aneously":8940,"hand":8941,"Ġkin":8942,"Ġbummer":8943,"Ġintact":8944,"Ġschedule":8945,"Ġyrs":8946,"ication":8947,"Ġghosts":8948,"Ġasian":8949,"Ġcried":8950,"otte":8951,"Ġapo":8952,"Ġburied":8953,"Ġtrusted":8954,"inite":8955,"Ġfought":8956,"Ġconspiracy":8957,"Ġate":8958,"Ġethernet":8959,"Ġhannah":8960,"abet":8961,"ceeds":8962,"Ġpresum":8963,"Ġeastern":8964,"Ġloads":8965,"yl":8966,"Ġcondens":8967,"Ġsanta":8968,"icky":8969,"inging":8970,"Ġpoign":8971,"Ġlaura":8972,"Ġconsistency":8973,"Ġfaint":8974,"Ġnoises":8975,"Ġsweep":8976,"Ġoffend":8977,"Ġcoconut":8978,"Ġbiased":8979,"Ġcheapest":8980,"Ġkenned":8981,"Ġorchestra":8982,"Ġsafely":8983,"Ġdivers":8984,"Ġcarafe":8985,"Ġfitness":8986,"Ġstuffed":8987,"Ġkudos":8988,"Ġhumidity":8989,"elf":8990,"Ġpoles":8991,"stairs":8992,"Ġdiscontin":8993,"Ġian":8994,"Ġmuslim":8995,"erve":8996,"Ġmotorcycle":8997,"Ġcracking":8998,"Ġcrossed":8999,"Ġoccurs":9000,"Ġtrials":9001,"Ġclosest":9002,"Ġrus":9003,"Ġunion":9004,"Ġresulted":9005,"Ġphotographer":9006,"Ġfavourite":9007,"Ġcompelled":9008,"Ġartistic":9009,"Ġbanter":9010,"Ġfills":9011,"Ġearrings":9012,"Ġmurderer":9013,"interesting":9014,"Ġgrandd":9015,"Ġinn":9016,"Ġairpl":9017,"Ġutility":9018,"Ġthermometer":9019,"Ġlifting":9020,"Ġlane":9021,"Ġanimation":9022,"Ġverb":9023,"Ġjews":9024,"Ġdavis":9025,"Ġattachments":9026,"Ġgabri":9027,"Ġcumbersome":9028,"Ġeagerly":9029,"Ġrevol":9030,"Ġcann":9031,"Ġmorgan":9032,"Ġbias":9033,"Ġwool":9034,"Ġthrilling":9035,"Ġfleshed":9036,"apper":9037,"Ġtense":9038,"Ġphilosophical":9039,"Ġwarming":9040,"Ġsurge":9041,"Ġlucas":9042,"Ġplum":9043,"Ġharris":9044,"Ġsends":9045,"Ġhungry":9046,"Ġtore":9047,"Ġpione":9048,"oops":9049,"ilight":9050,"writing":9051,"iciently":9052,"ami":9053,"Ġscientist":9054,"Ġimmature":9055,"Ġwindshield":9056,"Ġchoppy":9057,"Ġduke":9058,"Ġcalm":9059,"Ġadminist":9060,"Ġpearl":9061,"emption":9062,"Ġsessions":9063,"Ġunbe":9064,"Ġsmallest":9065,"Ġrevelation":9066,"Ġjennifer":9067,"Ġpopcorn":9068,"Ġfel":9069,"ancing":9070,"Ġforgiveness":9071,"Ġtroubleshooting":9072,"Ġdivided":9073,"Ġhorrific":9074,"Ġsometime":9075,"alt":9076,"graphical":9077,"Ġdisbelie":9078,"Ġchemicals":9079,"Ġfame":9080,"Ġpercept":9081,"Ġfuzzy":9082,"Ġunplugged":9083,"Ġbeam":9084,"Ġmelody":9085,"Ġclin":9086,"Ġdistant":9087,"Ġfingerprint":9088,"Ġconfirmed":9089,"Ġshattered":9090,"Ġkeyboards":9091,"Ġsymph":9092,"Ġmelted":9093,"Ġannoun":9094,"Ġseverely":9095,"Ġscand":9096,"50":9097,"Ġlocally":9098,"Ġneglect":9099,"Ġcanada":9100,"Ġinclus":9101,"Ġinvis":9102,"Ġrequiring":9103,"Ġvista":9104,"Ġmatthe":9105,"llar":9106,"Ġdisasse":9107,"Ġbeneath":9108,"Ġvintage":9109,"Ġrever":9110,"nox":9111,"of":9112,"zing":9113,"Ġcarter":9114,"Ġwarped":9115,"Ġmiracle":9116,"Ġcomed":9117,"undant":9118,"Ġstubborn":9119,"Ġstandal":9120,"Ġsate":9121,"Ġpaints":9122,"Ġproducing":9123,"Ġcouples":9124,"Ġintimate":9125,"Ġconqu":9126,"Ġlincol":9127,"Ġsecured":9128,"Ġcultures":9129,"Ġpliers":9130,"Ġlaptops":9131,"Ġglory":9132,"Ġtwilight":9133,"Ġassess":9134,"nic":9135,"Ġsid":9136,"Ġmildly":9137,"Ġblows":9138,"Ġrefers":9139,"wich":9140,"Ġjohnny":9141,"Ġsmoking":9142,"Ġinfect":9143,"sive":9144,"Ġslips":9145,"Ġimagery":9146,"Ġkh":9147,"Ġdang":9148,"fire":9149,"Ġspiral":9150,"Ġleon":9151,"Ġeconomy":9152,"Ġredemption":9153,"Ġcpu":9154,"Ġadopted":9155,"Ġfiance":9156,"Ġtightening":9157,"acies":9158,"Ġattaching":9159,"Ġweekly":9160,"Ġpossess":9161,"ih":9162,"Ġcasing":9163,"Ġleggings":9164,"Ġexploration":9165,"Ġranch":9166,"Ġindicates":9167,"Ġcomplexity":9168,"Ġweighs":9169,"Ġsevent":9170,"Ġinstances":9171,"Ġwishes":9172,"Ġtwins":9173,"Ġtonight":9174,"Ġmistaken":9175,"Ġbottoms":9176,"Ġethan":9177,"Ġoly":9178,"uel":9179,"Ġaux":9180,"ila":9181,"Ġthermost":9182,"Ġunreli":9183,"acious":9184,"Ġdoom":9185,"Ġacid":9186,"Ġbumps":9187,"Ġshines":9188,"Ġamish":9189,"Ġpoetic":9190,"Ġgained":9191,"okay":9192,"Ġoutrage":9193,"Ġchamber":9194,"Ġstains":9195,"Ġwhit":9196,"Ġpasses":9197,"Ġenhance":9198,"Ġwd":9199,"Ġmitch":9200,"Ġkevin":9201,"Ġdiscipl":9202,"Ġoriented":9203,"Ġperforming":9204,"Ġdefinately":9205,"Ġquart":9206,"Ġscissors":9207,"Ġsunlight":9208,"Ġconsiderably":9209,"Ġmissions":9210,"Ġoverd":9211,"Ġpushes":9212,"Ġtaller":9213,"Ġspoon":9214,"Ġcharlotte":9215,"Ġrunner":9216,"mates":9217,"Ġpots":9218,"Ġtoxic":9219,"Ġhorn":9220,"Ġsophie":9221,"Ġdraft":9222,"Ġcleans":9223,"Ġimaginative":9224,"Ġlincoln":9225,"Ġpermanently":9226,"Ġperse":9227,"Ġremix":9228,"Ġkeeper":9229,"oofer":9230,"Ġvegetables":9231,"Ġviewed":9232,"Ġkidding":9233,"Ġarmor":9234,"Ġunderlying":9235,"Ġmasters":9236,"Ġkidnapped":9237,"Ġolivia":9238,"Ġfrost":9239,"Ġindication":9240,"Ġorph":9241,"Ġwebsites":9242,"Ġpointing":9243,"Ġlugg":9244,"Ġwarmer":9245,"ae":9246,"Ġmusician":9247,"itives":9248,"Ġstretchy":9249,"Ġgrid":9250,"Ġoutdated":9251,"Ġfifty":9252,"ader":9253,"Ġtiming":9254,"Ġfade":9255,"asion":9256,"Ġcrooked":9257,"Ġartificial":9258,"inart":9259,"Ġflies":9260,"Ġbackstory":9261,"Ġslap":9262,"Ġartic":9263,"Ġbowls":9264,"Ġbuddy":9265,"Ġterrit":9266,"Ġdresses":9267,"ari":9268,"Ġretire":9269,"Ġcontinuous":9270,"Ġanime":9271,"Ġconnectivity":9272,"Ġobscure":9273,"Ġchaos":9274,"Ġflipping":9275,"Ġceramic":9276,"Ġfathers":9277,"Ġtb":9278,"Ġportions":9279,"Ġfy":9280,"Ġflame":9281,"Ġhardcore":9282,"Ġcheated":9283,"Ġleap":9284,"Ġdrip":9285,"Ġmountains":9286,"Ġtitan":9287,"Ġimmig":9288,"Ġvegg":9289,"Ġcatalog":9290,"Ġunfor":9291,"Ġinspirational":9292,"Ġdice":9293,"Ġovert":9294,"Ġbillion":9295,"Ġstandalone":9296,"acon":9297,"iner":9298,"respond":9299,"Ġstellar":9300,"Ġevo":9301,"Ġcompression":9302,"ua":9303,"Ġscreaming":9304,"Ġpronoun":9305,"Ġcorrespond":9306,"Ġconsiderable":9307,"Ġrepresentative":9308,"Ġswivel":9309,"Ġsimilarly":9310,"Ġburst":9311,"Ġdrown":9312,"Ġgriff":9313,"Ġrifle":9314,"Ġsr":9315,"Ġpleasing":9316,"Ġviv":9317,"Ġexplored":9318,"Ġaudible":9319,"Ġfetch":9320,"Ġolymp":9321,"orders":9322,"Ġjessica":9323,"Ġiii":9324,"Ġmusc":9325,"Ġpastor":9326,"Ġannoyance":9327,"Ġrude":9328,"Ġkennedy":9329,"Ġhired":9330,"Ġrepetition":9331,"Ġintroduct":9332,"Ġremaster":9333,"Ġgender":9334,"Ġluggage":9335,"anity":9336,"Ġwizard":9337,"Ġopted":9338,"Ġshakespe":9339,"Ġslice":9340,"Ġcollaps":9341,"Ġrca":9342,"quis":9343,"Ġcandid":9344,"Ġdeadly":9345,"Ġanxiety":9346,"Ġric":9347,"Ġglaring":9348,"anned":9349,"Ġclimate":9350,"Ġcurse":9351,"Ġeverytime":9352,"Ġforcing":9353,"ghan":9354,"Ġanxious":9355,"Ġsacrific":9356,"Ġexpansion":9357,"Ġbroadcast":9358,"Ġdelete":9359,"Ġrag":9360,"Ġsteep":9361,"Ġdragons":9362,"Ġmarine":9363,"Ġskimming":9364,"Ġtrium":9365,"Ġrecyc":9366,"wart":9367,"Ġexpanded":9368,"Ġbean":9369,"Ġburnt":9370,"Ġbos":9371,"Ġwobb":9372,"Ġversatile":9373,"Ġwins":9374,"Ġvhs":9375,"igan":9376,"Ġhurry":9377,"Ġcommented":9378,"Ġhamilton":9379,"Ġrinse":9380,"ousy":9381,"Ġrendering":9382,"Ġdisbelief":9383,"Ġmotorola":9384,"Ġindul":9385,"Ġvisited":9386,"Ġfred":9387,"Ġrelatable":9388,"Ġsche":9389,"iac":9390,"Ġergon":9391,"Ġstability":9392,"Ġfemin":9393,"Ġmythology":9394,"Ġreminiscent":9395,"20":9396,"Ġconsists":9397,"Ġblurry":9398,"Ġadvertis":9399,"Ġtrading":9400,"Ġdiscovering":9401,"entation":9402,"ictions":9403,"Ġaggrav":9404,"Ġwinds":9405,"Ġdiscussing":9406,"Ġcounting":9407,"Ġrefunded":9408,"Ġpossibilities":9409,"Ġbearing":9410,"Ġinspection":9411,"Ġdolls":9412,"Ġreminder":9413,"zel":9414,"Ġmbps":9415,"Ġindividually":9416,"Ġsheath":9417,"Ġessay":9418,"Ġhyd":9419,"Ġmyst":9420,"Ġfixing":9421,"Ġhabits":9422,"Ġdimension":9423,"Ġrealm":9424,"Ġmemor":9425,"Ġfootnot":9426,"Ġgluten":9427,"oons":9428,"they":9429,"Ġnostal":9430,"Ġniece":9431,"Ġfloating":9432,"Ġexpired":9433,"Ġdismiss":9434,"Ġcontrary":9435,"Ġheated":9436,"Ġthunder":9437,"Ġmisses":9438,"fly":9439,"Ġnas":9440,"uting":9441,"Ġupcoming":9442,"Ġlion":9443,"Ġdownloading":9444,"Ġcig":9445,"Ġthir":9446,"Ġposter":9447,"Ġribb":9448,"Ġshelter":9449,"Ġlinux":9450,"Ġprevents":9451,"Ġreadily":9452,"Ġdistortion":9453,"Ġpizza":9454,"Ġgenuinely":9455,"Ġborrowed":9456,"Ġdelighted":9457,"Ġmia":9458,"Ġvegas":9459,"Ġeliminate":9460,"Ġmagnific":9461,"Ġsupportive":9462,"Ġeditions":9463,"Ġfried":9464,"icks":9465,"Ġagenda":9466,"Ġexplores":9467,"Ġgoth":9468,"Ġdepicted":9469,"Ġfaithful":9470,"Ġfewer":9471,"Ġmaid":9472,"Ġvoluntarily":9473,"Ġnetgear":9474,"wind":9475,"Ġtriple":9476,"Ġadore":9477,"ivers":9478,"Ġcrashes":9479,"Ġvoy":9480,"Ġtapes":9481,"tender":9482,"Ġpam":9483,"estic":9484,"imental":9485,"apse":9486,"Ġtriumph":9487,"mel":9488,"Ġheartbreaking":9489,"oh":9490,"Ġrober":9491,"life":9492,"Ġeste":9493,"Ġdamp":9494,"Ġswall":9495,"Ġmars":9496,"Ġarthur":9497,"Ġlaughs":9498,"Ġunreliable":9499,"Ġmeasures":9500,"iblings":9501,"Ġoutlets":9502,"Ġkath":9503,"Ġramp":9504,"Ġintegrity":9505,"Ġcuisinart":9506,"Ġiraq":9507,"Ġrave":9508,"Ġspong":9509,"Ġsweater":9510,"Ġatro":9511,"Ġlays":9512,"Ġpdf":9513,"Ġscream":9514,"Ġswear":9515,"Ġfreezer":9516,"Ġsequences":9517,"Ġsiblings":9518,"Ġgoods":9519,"Ġbeatles":9520,"Ġshapes":9521,"Ġstrikes":9522,"Ġexisted":9523,"Ġcherry":9524,"aa":9525,"cam":9526,"Ġfired":9527,"Ġworker":9528,"Ġremoval":9529,"Ġashamed":9530,"kel":9531,"Ġscuff":9532,"Ġtestim":9533,"Ġreluctant":9534,"Ġpoo":9535,"Ġalexander":9536,"Ġstalk":9537,"Ġshakespeare":9538,"Ġcanister":9539,"Ġstretching":9540,"orted":9541,"Ġfinest":9542,"oir":9543,"Ġshadows":9544,"Ġappreciation":9545,"Ġsaturday":9546,"Ġphillips":9547,"Ġspice":9548,"Ġpend":9549,"Ġentit":9550,"Ġreactions":9551,"iba":9552,"Ġcube":9553,"Ġburner":9554,"Ġtranslated":9555,"manship":9556,"Ġsurre":9557,"Ġdoubts":9558,"Ġbeads":9559,"Ġgradually":9560,"Ġeditors":9561,"Ġtheology":9562,"Ġproducer":9563,"Ġwarmth":9564,"Ġdifficulties":9565,"pons":9566,"Ġcatches":9567,"Ġrequirements":9568,"Ġstudied":9569,"Ġpiv":9570,"Ġbookstore":9571,"attle":9572,"Ġdisliked":9573,"Ġsean":9574,"Ġentries":9575,"Ġvisually":9576,"Ġreaches":9577,"Ġinvestigate":9578,"Ġimperfect":9579,"Ġlogan":9580,"Ġconventional":9581,"Ġnit":9582,"Ġsubstitute":9583,"Ġuninstall":9584,"Ġdecre":9585,"Ġpenn":9586,"Ġcors":9587,"Ġwreck":9588,"working":9589,"Ġeg":9590,"Ġverse":9591,"Ġglossy":9592,"Ġabsorbed":9593,"Ġtosh":9594,"Ġdrawers":9595,"Ġausten":9596,"Ġfier":9597,"ishes":9598,"oe":9599,"Ġeco":9600,"Ġtraps":9601,"Ġinterference":9602,"Ġandrew":9603,"Ġmechanics":9604,"Ġfooled":9605,"Ġaimed":9606,"Ġdil":9607,"Ġcorrected":9608,"Ġthreaded":9609,"Ġkits":9610,"Ġsnugly":9611,"atics":9612,"Ġrealism":9613,"Ġorth":9614,"Ġscenarios":9615,"Ġgasket":9616,"Ġvegan":9617,"iah":9618,"Ġsandwich":9619,"Ġworship":9620,"Ġpassage":9621,"Ġpand":9622,"Ġzen":9623,"Ġbreathe":9624,"Ġcontinuously":9625,"world":9626,"Ġcodes":9627,"Ġflawless":9628,"Ġfyi":9629,"Ġquinn":9630,"Ġobnox":9631,"Ġforb":9632,"Ġsilence":9633,"Ġnearby":9634,"bie":9635,"Ġcoated":9636,"Ġhobby":9637,"Ġbloody":9638,"Ġlatin":9639,"Ġheft":9640,"Ġargue":9641,"Ġglare":9642,"Ġphenomenal":9643,"losed":9644,"Ġhazard":9645,"Ġobstacles":9646,"Ġheading":9647,"Ġladder":9648,"Ġsatisfy":9649,"Ġfog":9650,"Ġrabbit":9651,"Ġgems":9652,"Ġsimult":9653,"Ġwalker":9654,"Ġprong":9655,"Ġscientists":9656,"Ġlousy":9657,"Ġpatrick":9658,"Ġgum":9659,"Ġcircles":9660,"Ġcompartments":9661,"Ġreflects":9662,"Ġdeleted":9663,"Ġscheme":9664,"Ġtomato":9665,"Ġdeaths":9666,"Ġinterf":9667,"Ġmaneu":9668,"Ġexistent":9669,"Ġbrewing":9670,"Ġvibration":9671,"Ġbetrayal":9672,"Ġkings":9673,"Ġjamie":9674,"Ġcoaster":9675,"Ġcrucial":9676,"Ġforums":9677,"Ġplausible":9678,"Ġego":9679,"Ġunderground":9680,"Ġstrictly":9681,"Ġexhib":9682,"Ġobsession":9683,"amil":9684,"Ġlimitations":9685,"Ġoverse":9686,"Ġnursing":9687,"dling":9688,"Ġheadsets":9689,"Ġharmon":9690,"Ġmixture":9691,"rix":9692,"Ġhinges":9693,"Ġweaves":9694,"arms":9695,"Ġmixer":9696,"Ġperpet":9697,"Ġhomework":9698,"cell":9699,"Ġlocate":9700,"Ġgeared":9701,"Ġrum":9702,"Ġconflicts":9703,"Ġsatell":9704,"Ġvice":9705,"Ġtess":9706,"Ġdynamics":9707,"Ġmalfunction":9708,"arring":9709,"icians":9710,"Ġmund":9711,"Ġjaw":9712,"Ġsophisticated":9713,"Ġconj":9714,"Ġextender":9715,"Ġsummar":9716,"Ġtint":9717,"Ġannie":9718,"Ġrobust":9719,"Ġswap":9720,"Ġcritics":9721,"Ġmentally":9722,"osis":9723,"Ġcolumb":9724,"Ġpinch":9725,"star":9726,"Ġtuner":9727,"ilted":9728,"Ġfactual":9729,"aling":9730,"Ġdigging":9731,"Ġrival":9732,"Ġtalents":9733,"Ġjr":9734,"Ġquicker":9735,"Ġtearing":9736,"Ġspectrum":9737,"Ġtags":9738,"etically":9739,"Ġassistance":9740,"Ġsoil":9741,"Ġfluke":9742,"tw":9743,"Ġnorthern":9744,"Ġhmm":9745,"Ġexpectation":9746,"Ġrising":9747,"ioned":9748,"Ġsubpl":9749,"erts":9750,"Ġinspire":9751,"Ġjung":9752,"Ġextr":9753,"Ġtempted":9754,"Ġcruise":9755,"Ġaggressive":9756,"idays":9757,"intend":9758,"Ġbounce":9759,"Ġdick":9760,"amin":9761,"Ġsoo":9762,"Ġsubscription":9763,"Ġdegr":9764,"Ġtruths":9765,"Ġfare":9766,"Ġcrate":9767,"Ġinvisible":9768,"bris":9769,"Ġreferring":9770,"Ġduct":9771,"ift":9772,"Ġdispenser":9773,"Ġauthority":9774,"Ġrecommending":9775,"Ġjoints":9776,"Ġtheirs":9777,"Ġrend":9778,"uated":9779,"Ġclumsy":9780,"Ġripping":9781,"eman":9782,"Ġparad":9783,"Ġpainfully":9784,"Ġbrowser":9785,"Ġnurse":9786,"Ġwarehouse":9787,"Ġcs":9788,"Ġharmony":9789,"Ġfascinated":9790,"Ġstup":9791,"iat":9792,"Ġnoah":9793,"bone":9794,"Ġarrow":9795,"Ġirritated":9796,"Ġgrave":9797,"pse":9798,"Ġnyc":9799,"Ġdistingu":9800,"Ġlinksys":9801,"Ġsuits":9802,"Ġchronicles":9803,"Ġbras":9804,"Ġburns":9805,"Ġhem":9806,"Ġrebe":9807,"Ġconsult":9808,"Ġmidnight":9809,"Ġingredient":9810,"Ġnuc":9811,"Ġbacked":9812,"Ġpouring":9813,"Ġbackd":9814,"Ġrussia":9815,"Ġconfess":9816,"Ġdestiny":9817,"Ġcommitment":9818,"Ġdepressed":9819,"Ġjimmy":9820,"Ġts":9821,"Ġthrillers":9822,"Ġsimplicity":9823,"Ġdebris":9824,"Ġpurely":9825,"Ġpoignant":9826,"Ġemer":9827,"Ġdystop":9828,"Ġcheating":9829,"Ġendearing":9830,"Ġgranddaughter":9831,"gling":9832,"Ġtrunk":9833,"Ġprocessing":9834,"Ġharv":9835,"Ġpistol":9836,"Ġdiverse":9837,"Ġpersons":9838,"Ġthermostat":9839,"Ġtrump":9840,"Ġflowing":9841,"Ġseals":9842,"osaur":9843,"Ġrepeating":9844,"Ġshuts":9845,"Ġdoctors":9846,"Ġalan":9847,"Ġstabil":9848,"Ġslippers":9849,"bra":9850,"Ġprol":9851,"Ġcontrolling":9852,"Ġbeck":9853,"Ġflashbacks":9854,"Ġsings":9855,"actic":9856,"Ġblat":9857,"Ġarrangements":9858,"Ġhike":9859,"Ġsignals":9860,"Ġcia":9861,"ologist":9862,"Ġshaking":9863,"Ġgene":9864,"Ġwrapping":9865,"Ġassigned":9866,"Ġunfolds":9867,"Ġlauren":9868,"oman":9869,"Ġstrengths":9870,"rell":9871,"market":9872,"Ġvirus":9873,"Ġpatients":9874,"Ġpupp":9875,"Ġterritory":9876,"Ġroberts":9877,"Ġelementary":9878,"Ġscanning":9879,"Ġunfinished":9880,"Ġconverter":9881,"Ġprecision":9882,"Ġreservoir":9883,"Ġenormous":9884,"gee":9885,"Ġworries":9886,"Ġrevis":9887,"Ġgraduate":9888,"Ġpaste":9889,"Ġrooting":9890,"Ġwraps":9891,"Ġfloat":9892,"Ġdsl":9893,"cope":9894,"Ġbelongs":9895,"Ġai":9896,"osition":9897,"Ġcollecting":9898,"ications":9899,"Ġadams":9900,"Ġindoors":9901,"Ġtasty":9902,"rich":9903,"Ġjuven":9904,"Ġree":9905,"Ġoils":9906,"Ġmuscle":9907,"Ġavo":9908,"ieces":9909,"Ġdose":9910,"Ġpersist":9911,"Ġcrunch":9912,"step":9913,"Ġmeditation":9914,"Ġrapidly":9915,"evity":9916,"Ġcomfor":9917,"Ġboil":9918,"Ġlongevity":9919,"Ġplun":9920,"inson":9921,"Ġcitizens":9922,"Ġinputs":9923,"soles":9924,"Ġtoshiba":9925,"Ġdiscussions":9926,"Ġdeliber":9927,"Ġinevitable":9928,"Ġreliability":9929,"Ġcurved":9930,"Ġconstit":9931,"Ġmercy":9932,"Ġlistener":9933,"Ġattor":9934,"Ġsarc":9935,"Ġclint":9936,"Ġsingers":9937,"Ġtroubled":9938,"Ġsympathy":9939,"Ġsmartphone":9940,"Ġfisher":9941,"Ġslept":9942,"Ġpeanut":9943,"Ġjail":9944,"Ġbicy":9945,"Ġhaunted":9946,"Ġholidays":9947,"Ġincreasingly":9948,"iping":9949,"Ġdownhill":9950,"Ġgee":9951,"Ġcenters":9952,"Ġactivate":9953,"Ġfreely":9954,"Ġtaped":9955,"Ġnoble":9956,"opath":9957,"Ġmint":9958,"Ġsir":9959,"Ġshifter":9960,"cca":9961,"amiliar":9962,"Ġbaker":9963,"Ġdefects":9964,"Ġpell":9965,"Ġinstructor":9966,"chy":9967,"Ġjig":9968,"Ġolds":9969,"Ġconn":9970,"Ġfighter":9971,"ucky":9972,"igned":9973,"Ġproducers":9974,"Ġvalley":9975,"Ġcostco":9976,"Ġanticipation":9977,"Ġassured":9978,"Ġnoticeably":9979,"Ġnom":9980,"opher":9981,"Ġhoward":9982,"flow":9983,"Ġanc":9984,"Ġdesires":9985,"Ġaven":9986,"Ġcredibility":9987,"ggles":9988,"Ġanker":9989,"Ġrevers":9990,"Ġdarcy":9991,"Ġspine":9992,"Ġformatting":9993,"Ġrural":9994,"Ġmentioning":9995,"Ġjill":9996,"Ġscenery":9997,"Ġtasting":9998,"Ġpartners":9999,"Ġcrad":10000,"Ġsla":10001,"Ġunfamiliar":10002,"Ġinstrumental":10003,"Ġaustralia":10004,"Ġsadness":10005,"Ġchallenged":10006,"Ġnichol":10007,"Ġavoided":10008,"Ġdistorted":10009,"van":10010,"Ġtuning":10011,"arc":10012,"Ġrepairs":10013,"Ġneil":10014,"eed":10015,"dles":10016,"Ġcreature":10017,"Ġwy":10018,"Ġloyalty":10019,"Ġire":10020,"Ġfactors":10021,"isons":10022,"Ġreflective":10023,"rified":10024,"Ġroads":10025,"Ġtiss":10026,"child":10027,"Ġpasta":10028,"Ġgimm":10029,"Ġlamps":10030,"lear":10031,"quel":10032,"Ġpreparing":10033,"Ġupdating":10034,"Ġdisposable":10035,"Ġwheat":10036,"west":10037,"Ġtel":10038,"Ġconsciousness":10039,"ya":10040,"Ġendings":10041,"Ġbreathing":10042,"Ġjournalist":10043,"Ġgroove":10044,"Ġgenres":10045,"Ġchains":10046,"Ġenclosure":10047,"Ġentering":10048,"Ġoverlooked":10049,"Ġscam":10050,"Ġhart":10051,"wolf":10052,"Ġcordless":10053,"Ġpitcher":10054,"Ġentered":10055,"Ġchunks":10056,"Ġcombine":10057,"Ġdeduct":10058,"Ġjulie":10059,"Ġbron":10060,"Ġinvesting":10061,"have":10062,"icts":10063,"forcement":10064,"ested":10065,"Ġdetermination":10066,"Ġundert":10067,"Ġandy":10068,"Ġunfair":10069,"Ġinsurance":10070,"Ġwaters":10071,"Ġquad":10072,"Ġuplif":10073,"Ġbod":10074,"Ġinability":10075,"Ġneatly":10076,"Ġfolder":10077,"itudes":10078,"Ġvanilla":10079,"Ġheats":10080,"Ġfry":10081,"Ġanderson":10082,"Ġticket":10083,"Ġturkey":10084,"Ġreinfor":10085,"Ġmono":10086,"Ġskull":10087,"Ġvaried":10088,"Ġemployees":10089,"Ġlanguages":10090,"Ġimmensely":10091,"Ġposting":10092,"Ġlantern":10093,"Ġbegun":10094,"Ġprogresses":10095,"Ġoutl":10096,"Ġkl":10097,"Ġhoover":10098,"Ġopportunities":10099,"Ġelderly":10100,"gi":10101,"Ġmotivations":10102,"Ġmakeup":10103,"ruption":10104,"Ġawareness":10105,"Ġprivile":10106,"Ġcontaining":10107,"Ġrepresented":10108,"Ġbummed":10109,"Ġexceptionally":10110,"Ġker":10111,"Ġwaff":10112,"Ġtol":10113,"Ġhighway":10114,"Ġmanif":10115,"Ġnathan":10116,"Ġtemporary":10117,"dic":10118,"Ġgears":10119,"Ġsoaked":10120,"Ġthankful":10121,"Ġoriginals":10122,"Ġfranch":10123,"Ġlil":10124,"phy":10125,"Ġbears":10126,"Ġpee":10127,"Ġdict":10128,"Ġteas":10129,"Ġjerry":10130,"Ġclimbing":10131,"Ġpulp":10132,"mill":10133,"Ġcandles":10134,"Ġcra":10135,"acute":10136,"Ġcenturies":10137,"Ġdebate":10138,"ko":10139,"Ġmenus":10140,"Ġponder":10141,"Ġpersu":10142,"Ġprogressive":10143,"Ġkrist":10144,"Ġvariations":10145,"Ġtemperatures":10146,"user":10147,"Ġpatri":10148,"ji":10149,"erie":10150,"Ġdiagrams":10151,"Ġchipped":10152,"Ġaaa":10153,"Ġmolded":10154,"Ġapproaches":10155,"Ġdrone":10156,"vc":10157,"Ġrubbed":10158,"Ġhumble":10159,"Ġfreaking":10160,"Ġmixes":10161,"Ġinconvenient":10162,"Ġgle":10163,"Ġcontrollers":10164,"Ġclaiming":10165,"Ġbills":10166,"Ġfps":10167,"Ġjuvenile":10168,"Ġpartly":10169,"Ġriveting":10170,"Ġflexibility":10171,"Ġruins":10172,"Ġblond":10173,"Ġproport":10174,"Ġtimeline":10175,"wered":10176,"Ġtatt":10177,"Ġmarker":10178,"izon":10179,"Ġdat":10180,"Ġpacific":10181,"Ġurge":10182,"Ġowns":10183,"cip":10184,"Ġtransparent":10185,"Ġsucc":10186,"Ġchristopher":10187,"Ġpine":10188,"Ġhurting":10189,"Ġimprovements":10190,"Ġdiscontinued":10191,"Ġairplane":10192,"Ġpreparation":10193,"Ġbt":10194,"Ġkong":10195,"istically":10196,"iance":10197,"Ġclou":10198,"Ġadvoc":10199,"Ġum":10200,"Ġinhab":10201,"Ġmedie":10202,"Ġsensors":10203,"Ġobnoxious":10204,"Ġdinosaur":10205,"Ġbore":10206,"Ġclearer":10207,"Ġassistant":10208,"Ġnuclear":10209,"Ġalternatives":10210,"Ġproblematic":10211,"Ġgoof":10212,"Ġdamaging":10213,"Ġsturdier":10214,"Ġgil":10215,"iley":10216,"Ġsucker":10217,"bles":10218,"Ġalask":10219,"cop":10220,"Ġmute":10221,"Ġmig":10222,"Ġfailures":10223,"Ġsamples":10224,"Ġtones":10225,"Ġpunish":10226,"Ġmodest":10227,"...":10228,"Ġprize":10229,"Ġvirtual":10230,"Ġhammo":10231,"bot":10232,"Ġaging":10233,"Ġpoem":10234,"rays":10235,"Ġclimb":10236,"roph":10237,"Ġrebu":10238,"shad":10239,"Ġitunes":10240,"Ġcloses":10241,"ede":10242,"graphic":10243,"Ġevan":10244,"Ġmiserable":10245,"anks":10246,"Ġconve":10247,"Ġweave":10248,"Ġunderwear":10249,"Ġfatal":10250,"Ġtrainer":10251,"Ġcollapse":10252,"Ġestim":10253,"Ġembarrassed":10254,"izable":10255,"ilst":10256,"Ġentitled":10257,"Ġsara":10258,"Ġenthr":10259,"Ġhardwood":10260,"Ġunans":10261,"Ġpoke":10262,"logue":10263,"Ġstupid":10264,"Ġchasing":10265,"Ġcrushed":10266,"anny":10267,"Ġlands":10268,"Ġgabriel":10269,"Ġterry":10270,"Ġsoda":10271,"Ġoutline":10272,"Ġsimultaneously":10273,"Ġmoreover":10274,"appro":10275,"Ġmedieval":10276,"Ġeli":10277,"Ġsmack":10278,"Ġunstable":10279,"Ġstephanie":10280,"Ġplayback":10281,"Ġrecognition":10282,"Ġverizon":10283,"Ġross":10284,"Ġliz":10285,"Ġhalo":10286,"Ġsteering":10287,"Ġintricate":10288,"Ġpeoples":10289,"writer":10290,"Ġcubes":10291,"Ġchorus":10292,"Ġolive":10293,"umbling":10294,"Ġfifteen":10295,"lar":10296,"iable":10297,"Ġintentions":10298,"Ġwherever":10299,"Ġinterrupt":10300,"Ġsprayed":10301,"Ġanthony":10302,"Ġknobs":10303,"Ġirrele":10304,"Ġpropag":10305,"Ġdiver":10306,"Ġstretches":10307,"ckey":10308,"Ġdefeats":10309,"Ġdl":10310,"anne":10311,"Ġsunny":10312,"Ġscro":10313,"Ġmatthew":10314,"Ġraces":10315,"Ġwilder":10316,"Ġjudgment":10317,"Ġhug":10318,"Ġexplor":10319,"Ġformal":10320,"Ġhatch":10321,"limited":10322,"Ġaligned":10323,"Ġdefinitive":10324,"Ġelectricity":10325,"etics":10326,"Ġlinked":10327,"Ġbelkin":10328,"see":10329,"mented":10330,"Ġintroducing":10331,"Ġhumour":10332,"Ġpunctuation":10333,"Ġintegrated":10334,"Ġevangel":10335,"Ġfriction":10336,"Ġinfant":10337,"Ġgary":10338,"Ġrainbow":10339,"Ġhire":10340,"aham":10341,"Ġcyl":10342,"Ġdvr":10343,"Ġpg":10344,"aha":10345,"Ġanthology":10346,"Ġkaren":10347,"orton":10348,"Ġconvol":10349,"Ġunanswered":10350,"Ġfluffy":10351,"Ġslavery":10352,"Ġxx":10353,"foot":10354,"Ġireland":10355,"Ġexpression":10356,"oning":10357,"aneous":10358,"Ġarrest":10359,"icking":10360,"Ġpeak":10361,"Ġsuspects":10362,"Ġintr":10363,"Ġinval":10364,"Ġvulnerable":10365,"Ġphilips":10366,"Ġtactics":10367,"Ġeasiest":10368,"onest":10369,"Ġbells":10370,"Ġdiscomfort":10371,"Ġfields":10372,"Ġinstinct":10373,"Ġarrogant":10374,"Ġdysfunction":10375,"Ġale":10376,"pless":10377,"Ġcyn":10378,"Ġrete":10379,"Ġrefrigerator":10380,"Ġdisks":10381,"Ġknit":10382,"Ġroy":10383,"Ġsuperman":10384,"fits":10385,"Ġabby":10386,"Ġbackdrop":10387,"Ġdiff":10388,"Ġrails":10389,"Ġmeh":10390,"Ġporch":10391,"utch":10392,"Ġacceptance":10393,"Ġtanks":10394,"Ġdebt":10395,"ito":10396,"Ġrates":10397,"Ġboiling":10398,"Ġuninteresting":10399,"Ġlengths":10400,"Ġdots":10401,"Ġclamps":10402,"Ġreporter":10403,"ampoo":10404,"Ġmagnificent":10405,"Ġcaveat":10406,"Ġshampoo":10407,"Ġnelson":10408,"uffle":10409,"Ġpresenting":10410,"Ġdaddy":10411,"Ġabruptly":10412,"Ġdigit":10413,"Ġunlimited":10414,"Ġpolyester":10415,"Ġsteer":10416,"Ġtribute":10417,"Ġcomforter":10418,"Ġalignment":10419,"Ġexecut":10420,"erpt":10421,"Ġcasting":10422,"Ġsatisfactory":10423,"Ġtempered":10424,"Ġadol":10425,"Ġlaughable":10426,"Ġachieved":10427,"Ġconvoluted":10428,"Ġginger":10429,"Ġratio":10430,"Ġuncon":10431,"Ġkatie":10432,"alling":10433,"Ġappend":10434,"xy":10435,"Ġaudiobook":10436,"Ġavoiding":10437,"Ġrobb":10438,"Ġcatherine":10439,"Ġtyler":10440,"Ġkicks":10441,"Ġtrace":10442,"Ġtattoo":10443,"Ġcomplet":10444,"osex":10445,"Ġelabor":10446,"Ġtennis":10447,"urig":10448,"aying":10449,"ashes":10450,"Ġbooksh":10451,"Ġrotating":10452,"Ġencouraging":10453,"Ġstool":10454,"Ġdude":10455,"Ġchop":10456,"Ġsynd":10457,"player":10458,"eday":10459,"hor":10460,"Ġundone":10461,"cut":10462,"every":10463,"Ġtiger":10464,"adequ":10465,"Ġpud":10466,"Ġwithstand":10467,"Ġrecount":10468,"aware":10469,"Ġmaneuver":10470,"Ġproofread":10471,"Ġreasoning":10472,"Ġaer":10473,"Ġprocesses":10474,"Ġsupplier":10475,"Ġhunger":10476,"Ġbaked":10477,"nice":10478,"Ġunpack":10479,"Ġincorrectly":10480,"Ġjunior":10481,"Ġprogressed":10482,"Ġhats":10483,"Ġought":10484,"ody":10485,"hero":10486,"Ġwashers":10487,"Ġfoil":10488,"Ġjeep":10489,"Ġeats":10490,"Ġwhilst":10491,"Ġmodify":10492,"Ġmundane":10493,"Ġtrimmer":10494,"Ġmolly":10495,"Ġteams":10496,"Ġdol":10497,"Ġreleasing":10498,"prod":10499,"Ġdivine":10500,"Ġarranged":10501,"Ġgor":10502,"Ġscattered":10503,"cakes":10504,"Ġsingles":10505,"Ġbeds":10506,"Ġholo":10507,"Ġentr":10508,"Ġlon":10509,"Ġanchor":10510,"Ġfreezes":10511,"Ġinnovative":10512,"Ġkeurig":10513,"Ġdelux":10514,"Ġlego":10515,"Ġcros":10516,"orous":10517,"Ġcounty":10518,"Ġgp":10519,"Ġinadequ":10520,"Ġexcerpt":10521,"Ġenvironmental":10522,"Ġstrangely":10523,"Ġrods":10524,"Ġpositives":10525,"Ġflattering":10526,"Ġwerewolf":10527,"Ġsights":10528,"Ġisolated":10529,"Ġconsumers":10530,"Ġthesis":10531,"Ġyards":10532,"Ġamanda":10533,"Ġpartial":10534,"Ġankles":10535,"giving":10536,"Ġsorely":10537,"Ġfitbit":10538,"Ġbios":10539,"Ġaffects":10540,"Ġsomeday":10541,"Ġjammed":10542,"Ġkickstand":10543,"Ġorphan":10544,"Ġseag":10545,"Ġharper":10546,"Ġamber":10547,"Ġincome":10548,"atted":10549,"Ġfri":10550,"Ġfixes":10551,"iolet":10552,"itate":10553,"Ġapplies":10554,"Ġsympt":10555,"Ġchess":10556,"Ġmartial":10557,"Ġsaint":10558,"road":10559,"rough":10560,"Ġhardcover":10561,"Ġassembling":10562,"Ġshifts":10563,"Ġexclusively":10564,"Ġlifted":10565,"Ġathletic":10566,"Ġbaff":10567,"Ġphase":10568,"Ġcivilization":10569,"Ġfrancisco":10570,"Ġunderstands":10571,"Ġprofessionals":10572,"Ġnancy":10573,"Ġuncom":10574,"Ġstoring":10575,"Ġprecisely":10576,"Ġaccepting":10577,"Ġawe":10578,"Ġamongst":10579,"Ġstorylines":10580,"Ġchildish":10581,"Ġnavigation":10582,"Ġbake":10583,"Ġfuse":10584,"Ġgag":10585,"Ġbanks":10586,"Ġdoc":10587,"Ġredundant":10588,"Ġbothers":10589,"Ġrental":10590,"Ġroomy":10591,"Ġintermedi":10592,"Ġinconvenience":10593,"agues":10594,"Ġinclined":10595,"Ġdressed":10596,"Ġdestination":10597,"Ġendure":10598,"Ġbundle":10599,"Ġinappro":10600,"ulator":10601,"Ġmuseum":10602,"ddy":10603,"Ġhello":10604,"Ġjesse":10605,"Ġgrandma":10606,"Ġling":10607,"Ġflew":10608,"Ġbs":10609,"Ġthighs":10610,"Ġmonday":10611,"Ġcharacteristics":10612,"Ġcredible":10613,"Ġliners":10614,"gue":10615,"Ġclicks":10616,"Ġsurrounded":10617,"Ġtrays":10618,"Ġmush":10619,"Ġviolin":10620,"oric":10621,"Ġguessed":10622,"Ġquestioning":10623,"rup":10624,"Ġrounds":10625,"received":10626,"Ġbait":10627,"etary":10628,"Ġtangled":10629,"Ġcops":10630,"Ġexped":10631,"Ġdrastic":10632,"Ġrecorder":10633,"Ġafghan":10634,"Ġnora":10635,"Ġlud":10636,"Ġelli":10637,"othy":10638,"Ġea":10639,"Ġdemands":10640,"Ġmelodies":10641,"Ġirrelevant":10642,"Ġga":10643,"Ġbrowsing":10644,"Ġsov":10645,"Ġabsent":10646,"cia":10647,"Ġsonic":10648,"Ġdess":10649,"Ġattorney":10650,"Ġfunky":10651,"herent":10652,"Ġadequately":10653,"Ġprincip":10654,"Ġdeluxe":10655,"Ġbrav":10656,"Ġsalad":10657,"Ġfaux":10658,"Ġverses":10659,"Ġdaylight":10660,"Ġwiggle":10661,"Ġexchanged":10662,"Ġawaiting":10663,"asters":10664,"Ġcrafts":10665,"Ġdocumented":10666,"Ġnood":10667,"Ġaston":10668,"Ġwoke":10669,"rend":10670,"aled":10671,"respons":10672,"Ġhistoric":10673,"Ġsq":10674,"Ġcontempl":10675,"iant":10676,"aron":10677,"Ġstereotypes":10678,"enter":10679,"Ġsf":10680,"Ġagents":10681,"Ġcollected":10682,"abel":10683,"Ġdimmer":10684,"Ġdragging":10685,"Ġretrie":10686,"Ġpedals":10687,"Ġdyson":10688,"Ġbrittle":10689,"Ġmerit":10690,"icien":10691,"Ġmicros":10692,"will":10693,"iated":10694,"Ġsel":10695,"Ġslam":10696,"Ġhybr":10697,"Ġimmort":10698,"Ġsoviet":10699,"Ġincomp":10700,"Ġstatistics":10701,"Ġpatterson":10702,"Ġdiana":10703,"Ġwashes":10704,"Ġbeside":10705,"Ġstages":10706,"Ġraven":10707,"uther":10708,"Ġcalf":10709,"Ġcrashed":10710,"Ġclearance":10711,"Ġenthusiast":10712,"lated":10713,"Ġkink":10714,"Ġexperts":10715,"Ġrussell":10716,"Ġroo":10717,"Ġjoined":10718,"Ġrocket":10719,"gate":10720,"Ġmarketed":10721,"heart":10722,"Ġstu":10723,"Ġfranchise":10724,"Ġcompound":10725,"Ġslid":10726,"Ġanswering":10727,"onym":10728,"Ġguaranteed":10729,"Ġdile":10730,"alie":10731,"Ġrestore":10732,"Ġrit":10733,"Ġky":10734,"Ġpivot":10735,"Ġoverseas":10736,"Ġremotes":10737,"Ġvibe":10738,"Ġmotivated":10739,"Ġbackgrounds":10740,"Ġdew":10741,"Ġslack":10742,"Ġpassenger":10743,"Ġgladly":10744,"Ġpry":10745,"Ġongoing":10746,"from":10747,"Ġmarie":10748,"Ġmelissa":10749,"gger":10750,"Ġcommands":10751,"Ġdanny":10752,"kee":10753,"Ġmish":10754,"Ġpatio":10755,"Ġmes":10756,"Ġhugh":10757,"Ġtraveled":10758,"Ġawaken":10759,"Ġcarl":10760,"Ġbeaten":10761,"Ġsubw":10762,"Ġstaples":10763,"rison":10764,"Ġpent":10765,"Ġillegal":10766,"Ġthroat":10767,"Ġcuff":10768,"Ġfoolish":10769,"Ġlac":10770,"Ġcompetitive":10771,"Ġhammock":10772,"dled":10773,"Ġprimer":10774,"Ġblower":10775,"Ġbamb":10776,"Ġrepresents":10777,"Ġdistracted":10778,"Ġsaver":10779,"Ġvital":10780,"Ġopenings":10781,"Ġmagazines":10782,"Ġcompetent":10783,"Ġuh":10784,"Ġinclusion":10785,"Ġwidow":10786,"Ġretailer":10787,"Ġoli":10788,"Ġdefeat":10789,"Ġrational":10790,"Ġshoddy":10791,"Ġflipped":10792,"Ġgrish":10793,"Ġobama":10794,"yes":10795,"Ġathe":10796,"verty":10797,"Ġpaths":10798,"Ġdescend":10799,"Ġkillers":10800,"Ġfetched":10801,"apes":10802,"Ġmonthly":10803,"prise":10804,"Ġsurvivors":10805,"Ġrage":10806,"Ġoffs":10807,"Ġgamer":10808,"Ġtrauma":10809,"Ġvirginia":10810,"Ġcind":10811,"ertain":10812,"Ġelo":10813,"Ġmph":10814,"Ġkicked":10815,"Ġstim":10816,"Ġskimmed":10817,"Ġpioneer":10818,"Ġbee":10819,"Ġworkmanship":10820,"Ġpracticing":10821,"ookie":10822,"Ġcredits":10823,"Ġmeantime":10824,"Ġdrift":10825,"ibble":10826,"Ġrud":10827,"Ġattacked":10828,"Ġuncertain":10829,"Ġfraction":10830,"Ġbraz":10831,"Ġmack":10832,"Ġmeasurement":10833,"Ġcollections":10834,"Ġmotives":10835,"Ġpoverty":10836,"Ġhonda":10837,"Ġbackyard":10838,"Ġdisgu":10839,"Ġsuspicious":10840,"Ġstrongest":10841,"Ġblessed":10842,"Ġembarrassing":10843,"Ġstumbled":10844,"Ġreed":10845,"Ġmarg":10846,"Ġfantas":10847,"Ġorigins":10848,"Ġambient":10849,"Ġheadband":10850,"Ġprominent":10851,"Ġwitches":10852,"Ġsatan":10853,"Ġexpose":10854,"Ġoak":10855,"Ġvictoria":10856,"Ġapt":10857,"Ġcosm":10858,"Ġvalent":10859,"Ġencouraged":10860,"Ġgreed":10861,"Ġtrite":10862,"Ġresident":10863,"Ġau":10864,"Ġdisabled":10865,"Ġhusbands":10866,"Ġtemps":10867,"Ġveteran":10868,"fare":10869,"Ġpursue":10870,"Ġbrilliantly":10871,"Ġchin":10872,"wire":10873,"Ġtowns":10874,"Ġsubtitles":10875,"Ġcradle":10876,"omend":10877,"low":10878,"oned":10879,"Ġlite":10880,"Ġlegendary":10881,"icting":10882,"had":10883,"Ġplague":10884,"Ġupgrading":10885,"Ġstale":10886,"ram":10887,"Ġrebecca":10888,"rels":10889,"Ġagrees":10890,"Ġfortunate":10891,"Ġcycles":10892,"Ġoperations":10893,"Ġmock":10894,"Ġdissatisfied":10895,"Ġhuh":10896,"Ġstepped":10897,"brush":10898,"Ġidentified":10899,"Ġapocalyptic":10900,"Ġveggies":10901,"Ġteachings":10902,"Ġfarther":10903,"Ġbamboo":10904,"Ġmessing":10905,"Ġsavings":10906,"Ġwidely":10907,"Ġmetallic":10908,"Ġduplic":10909,"llas":10910,"Ġintel":10911,"Ġdisorder":10912,"hot":10913,"Ġrma":10914,"Ġillum":10915,"Ġarrangement":10916,"Ġglim":10917,"Ġjudging":10918,"Ġrecomend":10919,"Ġbuddh":10920,"vably":10921,"Ġprofessionally":10922,"Ġribbon":10923,"Ġscholarly":10924,"Ġfrightening":10925,"12":10926,"Ġsass":10927,"Ġwaking":10928,"Ġglitter":10929,"Ġsharpen":10930,"Ġintermediate":10931,"Ġdetached":10932,"Ġabsence":10933,"Ġreceives":10934,"ocative":10935,"Ġrendered":10936,"Ġlyrical":10937,"Ġmuddy":10938,"Ġembrace":10939,"Ġsurvivor":10940,"Ġoutlook":10941,"rection":10942,"Ġbacklight":10943,"Ġbeliever":10944,"Ġsheriff":10945,"graphies":10946,"Ġsigned":10947,"Ġseasoned":10948,"Ġstrand":10949,"Ġissued":10950,"Ġinjured":10951,"Ġrant":10952,"Ġdye":10953,"Ġcurtains":10954,"Ġll":10955,"Ġunread":10956,"Ġsimpler":10957,"cience":10958,"Ġphant":10959,"Ġclassy":10960,"Ġdystopian":10961,"Ġdistr":10962,"Ġacademy":10963,"Ġhistorian":10964,"Ġvig":10965,"Ġrespective":10966,"Ġvinegar":10967,"Ġfaults":10968,"Ġoliver":10969,"ington":10970,"Ġparenting":10971,"Ġtomm":10972,"Ġcollins":10973,"Ġprescri":10974,"Ġpositioned":10975,"ml":10976,"Ġvisits":10977,"Ġdeterior":10978,"Ġmarcus":10979,"Ġsax":10980,"Ġdrags":10981,"Ġenclosed":10982,"Ġgoss":10983,"Ġagency":10984,"Ġscarlet":10985,"Ġnotion":10986,"Ġlyn":10987,"Ġpse":10988,"Ġshifting":10989,"Ġbuildings":10990,"Ġhelen":10991,"Ġounce":10992,"Ġprejudice":10993,"Ġshining":10994,"Ġsuffice":10995,"Ġchooses":10996,"Ġyield":10997,"Ġtraits":10998,"Ġbritain":10999,"Ġrv":11000,"Ġvictorian":11001,"Ġaustin":11002,"Ġaddicted":11003,"loe":11004,"iffer":11005,"alo":11006,"Ġprotest":11007,"Ġgrisham":11008,"Ġrelaxing":11009,"Ġwarren":11010,"Ġinqu":11011,"Ġprede":11012,"Ġsynthetic":11013,"Ġhardest":11014,"Ġzippered":11015,"Ġjere":11016,"Ġecc":11017,"unte":11018,"Ġpresumably":11019,"Ġsolidly":11020,"Ġcompressor":11021,"Ġenlightening":11022,"Ġprope":11023,"gled":11024,"Ġsuspic":11025,"Ġempathy":11026,"Ġhex":11027,"Ġantagon":11028,"Ġsideways":11029,"Ġpose":11030,"Ġsyrup":11031,"Ġkod":11032,"Ġgravity":11033,"Ġselections":11034,"Ġdistraction":11035,"Ġfinn":11036,"Ġgarlic":11037,"Ġphotoshop":11038,"Ġspins":11039,"Ġtransformation":11040,"solved":11041,"Ġappropri":11042,"Ġwobbly":11043,"Ġcompatibility":11044,"Ġoutrageous":11045,"Ġjacob":11046,"Ġengrossing":11047,"Ġancest":11048,"Ġroger":11049,"rome":11050,"Ġinject":11051,"Ġcostumes":11052,"Ġunclear":11053,"Ġcope":11054,"Ġdomestic":11055,"Ġheadlight":11056,"Ġplush":11057,"Ġintertw":11058,"Ġbry":11059,"Ġresur":11060,"Ġjudgement":11061,"Ġdestroying":11062,"Ġbarbara":11063,"Ġamps":11064,"uk":11065,"Ġdownfall":11066,"Ġflashes":11067,"Ġtorque":11068,"Ġshortcom":11069,"Ġthrill":11070,"Ġquantity":11071,"Ġjonathan":11072,"Ġdip":11073,"Ġlifes":11074,"Ġhaul":11075,"Ġconversion":11076,"Ġprogression":11077,"Ġgroom":11078,"Ġsuperhero":11079,"Ġmultiplayer":11080,"ince":11081,"Ġmanga":11082,"Ġcooks":11083,"Ġpoll":11084,"car":11085,"Ġcaptivated":11086,"Ġdisgusted":11087,"otica":11088,"Ġnintend":11089,"Ġshortcomings":11090,"Ġeaten":11091,"Ġpotatoes":11092,"Ġlevi":11093,"Ġdb":11094,"ittings":11095,"Ġmidst":11096,"Ġcraftsm":11097,"Ġbarr":11098,"Ġanimated":11099,"Ġjersey":11100,"Ġinvasion":11101,"Ġshutter":11102,"Ġstereotypical":11103,"Ġtempo":11104,"Ġrespected":11105,"Ġexotic":11106,"Ġcircular":11107,"Ġtubing":11108,"ox":11109,"really":11110,"Ġtortured":11111,"Ġgraham":11112,"Ġtiresome":11113,"Ġhobb":11114,"Ġrecommends":11115,"Ġsatellite":11116,"Ġfuss":11117,"Ġwrists":11118,"Ġcycling":11119,"Ġfasten":11120,"Ġbosch":11121,"Ġellie":11122,"Ġsoak":11123,"Ġlinear":11124,"Ġvolunte":11125,"Ġmck":11126,"Ġeleph":11127,"Ġcanad":11128,"Ġstal":11129,"Ġstilted":11130,"comend":11131,"Ġfoul":11132,"Ġdecently":11133,"held":11134,"Ġracism":11135,"Ġgm":11136,"Ġreccomend":11137,"Ġdex":11138,"Ġprocessed":11139,"Ġalmond":11140,"Ġintroductory":11141,"Ġbicycle":11142,"Ġeddie":11143,"Ġcertified":11144,"Ġoldest":11145,"Ġsavvy":11146,"Ġmexican":11147,"Ġpup":11148,"entious":11149,"Ġtimeless":11150,"Ġgoggles":11151,"Ġfunn":11152,"Ġweaknesses":11153,"Ġignorant":11154,"Ġrelatives":11155,"Ġgenesis":11156,"Ġcrashing":11157,"Ġads":11158,"rating":11159,"fortunately":11160,"nold":11161,"Ġkle":11162,"gage":11163,"Ġsilk":11164,"bird":11165,"Ġlinda":11166,"cal":11167,"Ġballad":11168,"Ġnintendo":11169,"Ġseparation":11170,"Ġdemonstrates":11171,"enix":11172,"Ġscor":11173,"Ġadvertisement":11174,"Ġportrays":11175,"Ġremake":11176,"Ġcourses":11177,"felt":11178,"Ġviewers":11179,"Ġsprayer":11180,"Ġautobiography":11181,"Ġnorton":11182,"Ġillustrate":11183,"Ġpsi":11184,"Ġsubwoofer":11185,"Ġquieter":11186,"cha":11187,"Ġranging":11188,"Ġinappropriate":11189,"Ġpredecess":11190,"cake":11191,"station":11192,"Ġuplifting":11193,"claim":11194,"Ġinvolvement":11195,"Ġchewing":11196,"Ġmarvelous":11197,"Ġfork":11198,"Ġcancel":11199,"rett":11200,"Ġmirrors":11201,"Ġstained":11202,"getic":11203,"mers":11204,"Ġcommission":11205,"Ġuna":11206,"Ġsata":11207,"Ġounces":11208,"walk":11209,"Ġinfinite":11210,"Ġdecorative":11211,"Ġfilmed":11212,"Ġadored":11213,"Ġwiped":11214,"Ġsuitcase":11215,"Ġtorso":11216,"Ġcigaret":11217,"Ġavery":11218,"Ġhelic":11219,"Ġsimilarities":11220,"Ġfinale":11221,"Ġfootnotes":11222,"Ġnud":11223,"Ġflops":11224,"Ġadventur":11225,"Ġsilicon":11226,"Ġinsulation":11227,"eline":11228,"Ġrenew":11229,"Ġsig":11230,"ulative":11231,"Ġoverwhelmed":11232,"Ġlaughter":11233,"Ġsenses":11234,"Ġdilemm":11235,"Ġuv":11236,"Ġbehold":11237,"Ġintake":11238,"Ġblinking":11239,"Ġboxed":11240,"Ġdeny":11241,"Ġrelates":11242,"Ġtheore":11243,"Ġstriking":11244,"Ġprocedure":11245,"icate":11246,"Ġframework":11247,"Ġflowed":11248,"Ġcray":11249,"Ġabd":11250,"Ġaircraft":11251,"Ġblocking":11252,"iator":11253,"Ġgrainy":11254,"Ġvarying":11255,"Ġmicrof":11256,"think":11257,"Ġbrushed":11258,"Ġunderwater":11259,"Ġmaintaining":11260,"Ġweber":11261,"Ġdevotion":11262,"Ġastound":11263,"Ġlongest":11264,"oline":11265,"Ġchloe":11266,"Ġpric":11267,"Ġenhanced":11268,"Ġelvis":11269,"yster":11270,"Ġgrandparent":11271,"Ġcommend":11272,"Ġthief":11273,"azing":11274,"Ġritual":11275,"Ġgriffin":11276,"phile":11277,"Ġheroines":11278,"Ġprequel":11279,"Ġrevolves":11280,"Ġjars":11281,"Ġappla":11282,"Ġski":11283,"Ġmacro":11284,"Ġalongside":11285,"buck":11286,"Ġding":11287,"Ġhatred":11288,"elines":11289,"front":11290,"Ġhybrid":11291,"Ġriley":11292,"Ġwives":11293,"Ġimpressions":11294,"Ġdisap":11295,"Ġcounts":11296,"Ġbrooks":11297,"Ġdd":11298,"Ġsociet":11299,"Ġunins":11300,"Ġwrenching":11301,"ointment":11302,"Ġerotica":11303,"Ġrocky":11304,"Ġpatches":11305,"uman":11306,"Ġkyle":11307,"Ġsharpener":11308,"Ġprivacy":11309,"Ġcav":11310,"sed":11311,"Ġseper":11312,"Ġartif":11313,"Ġperry":11314,"Ġmyths":11315,"Ġrepeats":11316,"Ġassault":11317,"Ġclutter":11318,"Ġmaf":11319,"Ġtrails":11320,"Ġpromote":11321,"Ġcrude":11322,"Ġstark":11323,"Ġjava":11324,"Ġhumidifier":11325,"Ġsponge":11326,"Ġwrinkles":11327,"Ġanita":11328,"Ġscotland":11329,"Ġapples":11330,"Ġhorrend":11331,"Ġrotation":11332,"Ġexamination":11333,"Ġappearances":11334,"Ġmelodic":11335,"Ġpostage":11336,"Ġministry":11337,"Ġsalv":11338,"Ġoscar":11339,"Ġadvertise":11340,"Ġofficers":11341,"Ġsteamer":11342,"Ġapplaud":11343,"Ġretro":11344,"Ġpursuit":11345,"Ġclu":11346,"Ġcamc":11347,"Ġmisspe":11348,"Ġtypo":11349,"Ġcontinuation":11350,"Ġwides":11351,"Ġwarnings":11352,"Ġios":11353,"Ġivy":11354,"Ġmechanic":11355,"Ġappet":11356,"pses":11357,"Ġinsulated":11358,"Ġeconomics":11359,"Ġindicating":11360,"Ġsno":11361,"Ġweaker":11362,"Ġsupreme":11363,"once":11364,"Ġseb":11365,"Ġpixel":11366,"Ġinterfere":11367,"Ġreduction":11368,"Ġstitches":11369,"Ġpickup":11370,"Ġbasketball":11371,"Ġtheatre":11372,"rem":11373,"Ġseth":11374,"Ġprogrammed":11375,"Ġverify":11376,"Ġturbo":11377,"erved":11378,"Ġstitched":11379,"Ġattic":11380,"Ġradical":11381,"Ġgw":11382,"Ġella":11383,"Ġforum":11384,"rape":11385,"Ġschem":11386,"unfortunately":11387,"Ġposes":11388,"Ġdepart":11389,"Ġacknowledge":11390,"di":11391,"Ġcollars":11392,"kyo":11393,"mit":11394,"Ġstrangers":11395,"Ġguards":11396,"Ġmudd":11397,"Ġdepiction":11398,"Ġyam":11399,"Ġspirits":11400,"Ġsans":11401,"Ġtommy":11402,"Ġbogged":11403,"Ġimmigrant":11404,"Ġmodified":11405,"Ġalaska":11406,"Ġskilled":11407,"Ġfax":11408,"Ġpom":11409,"Ġdowngr":11410,"Ġshim":11411,"Ġseld":11412,"Ġseeks":11413,"Ġdumped":11414,"Ġgodd":11415,"Ġdownward":11416,"Ġdefine":11417,"Ġhz":11418,"Ġenthusiasm":11419,"Ġhelicop":11420,"Ġcritique":11421,"Ġpropaganda":11422,"Ġerase":11423,"Ġasia":11424,"Ġencourages":11425,"Ġorganizer":11426,"Ġeag":11427,"Ġwhisper":11428,"Ġcushions":11429,"Ġcomposition":11430,"Ġpaintings":11431,"Ġace":11432,"Ġlun":11433,"Ġsyl":11434,"Ġwayne":11435,"Ġbreakdown":11436,"Ġbookshelf":11437,"Ġtactical":11438,"Ġacer":11439,"Ġchunk":11440,"Ġglobe":11441,"Ġtant":11442,"Ġwakes":11443,"dox":11444,"eters":11445,"Ġorle":11446,"Ġbelts":11447,"Ġvon":11448,"Ġkitt":11449,"bey":11450,"arium":11451,"Ġinnocence":11452,"Ġbobby":11453,"Ġmorm":11454,"Ġheartfelt":11455,"Ġbennet":11456,"Ġfraud":11457,"Ġimho":11458,"Ġrescued":11459,"Ġlev":11460,"Ġnoticing":11461,"dis":11462,"ettes":11463,"ikes":11464,"Ġhills":11465,"del":11466,"Ġtransferred":11467,"Ġmario":11468,"Ġrevelations":11469,"Ġevolved":11470,"Ġbloom":11471,"Ġcraftsmanship":11472,"Ġalphabet":11473,"Ġhul":11474,"Ġtu":11475,"Ġjell":11476,"Ġaccompanying":11477,"Ġbanana":11478,"Ġnate":11479,"Ġpsychic":11480,"Ġgeorgia":11481,"hem":11482,"Ġstewart":11483,"Ġappliance":11484,"Ġruby":11485,"Ġgathering":11486,"Ġclueless":11487,"Ġrelating":11488,"Ġparking":11489,"bag":11490,"Ġviolet":11491,"Ġlarry":11492,"Ġreligions":11493,"product":11494,"Ġclan":11495,"Ġsexuality":11496,"Ġdong":11497,"Ġassumes":11498,"Ġmim":11499,"Ġshout":11500,"Ġcreator":11501,"Ġbinder":11502,"Ġblends":11503,"Ġreporting":11504,"Ġvariation":11505,"Ġliam":11506,"Ġspig":11507,"Ġwaves":11508,"Ġheir":11509,"Ġgoodby":11510,"Ġexcel":11511,"Ġgt":11512,"Ġka":11513,"adays":11514,"Ġcontest":11515,"mentioned":11516,"Ġendorse":11517,"Ġcringe":11518,"Ġhomosex":11519,"Ġak":11520,"Ġscores":11521,"Ġassassin":11522,"Ġabst":11523,"Ġrainy":11524,"Ġnano":11525,"Ġdesigners":11526,"Ġjuicer":11527,"Ġbezel":11528,"Ġaccused":11529,"Ġdisappears":11530,"icable":11531,"Ġparticles":11532,"Ġhistorically":11533,"Ġsurviving":11534,"Ġscratchy":11535,"Ġtunnel":11536,"andy":11537,"Ġsincerely":11538,"Ġunse":11539,"Ġjustin":11540,"Ġillustration":11541,"Ġcraig":11542,"encing":11543,"Ġprest":11544,"Ġnarc":11545,"logies":11546,"Ġtranscend":11547,"Ġcontinuity":11548,"Ġsenn":11549,"Ġreacher":11550,"Ġduo":11551,"Ġlegends":11552,"Ġscholarship":11553,"Ġreprint":11554,"Ġcanned":11555,"Ġhardship":11556,"Ġdeer":11557,"Ġunbear":11558,"Ġkicking":11559,"Ġnause":11560,"Ġmonkey":11561,"Ġsuspension":11562,"Ġdrawbacks":11563,"Ġyoungest":11564,"Ġfleece":11565,"Ġuninsp":11566,"Ġineff":11567,"vals":11568,"Ġrubbery":11569,"Ġinfluences":11570,"Ġsnake":11571,"Ġstanley":11572,"Ġhdd":11573,"Ġsegment":11574,"ensions":11575,"Ġdemanding":11576,"orig":11577,"Ġcolorado":11578,"Ġnovelty":11579,"itage":11580,"Ġcharco":11581,"Ġannivers":11582,"Ġinadequate":11583,"Ġforty":11584,"Ġcrimin":11585,"Ġorleans":11586,"Ġsandisk":11587,"Ġpromotion":11588,"Ġrestaurants":11589,"Ġtraditions":11590,"redict":11591,"Ġamplifier":11592,"aii":11593,"Ġcoupled":11594,"Ġpreachy":11595,"Ġpoured":11596,"Ġnowadays":11597,"Ġwary":11598,"Ġshoots":11599,"Ġadul":11600,"Ġswiss":11601,"imeter":11602,"Ġunderside":11603,"Ġdiscern":11604,"Ġresponses":11605,"Ġtopper":11606,"Ġhav":11607,"Ġcoats":11608,"Ġunco":11609,"Ġgrandchild":11610,"Ġtacky":11611,"Ġsocc":11612,"Ġcrock":11613,"Ġbart":11614,"Ġcolumn":11615,"Ġassignment":11616,"Ġinsec":11617,"Ġraid":11618,"Ġtherapist":11619,"oub":11620,"Ġpetite":11621,"Ġseldom":11622,"Ġbuys":11623,"Ġpseud":11624,"Ġsignature":11625,"Ġmicrofiber":11626,"Ġstakes":11627,"Ġoriginality":11628,"Ġdougl":11629,"Ġpricing":11630,"full":11631,"Ġkent":11632,"worked":11633,"Ġdining":11634,"Ġsmoother":11635,"Ġthreatening":11636,"Ġample":11637,"Ġspouse":11638,"Ġisolation":11639,"Ġnatalie":11640,"Ġsoccer":11641,"Ġenable":11642,"Ġmadden":11643,"Ġgrooves":11644,"Ġpap":11645,"Ġcompromise":11646,"Ġsandal":11647,"Ġsymphony":11648,"Ġdiscipline":11649,"Ġfruits":11650,"Ġlively":11651,"Ġstinks":11652,"Ġmanus":11653,"Ġcabinets":11654,"Ġventure":11655,"Ġbarry":11656,"Ġspool":11657,"enth":11658,"Ġpolitically":11659,"Ġturtle":11660,"Ġeh":11661,"Ġhealthier":11662,"Ġbid":11663,"Ġsue":11664,"Ġbaggy":11665,"Ġtwisting":11666,"Ġneedles":11667,"Ġinvestigating":11668,"Ġcharcoal":11669,"Ġmonot":11670,"ete":11671,"Ġalle":11672,"Ġrocker":11673,"yers":11674,"Ġpodcast":11675,"Ġshepher":11676,"Ġtextured":11677,"Ġdecker":11678,"reads":11679,"Ġpuff":11680,"sa":11681,"Ġchronic":11682,"Ġhtc":11683,"Ġwoo":11684,"Ġtravis":11685,"Ġclicked":11686,"ctor":11687,"thought":11688,"Ġcliches":11689,"Ġplo":11690,"ggle":11691,"Ġleaning":11692,"kill":11693,"Ġgord":11694,"Ġdeploy":11695,"Ġwik":11696,"Ġaffection":11697,"asha":11698,"rad":11699,"Ġcorruption":11700,"Ġrevolutionary":11701,"Ġunpredict":11702,"Ġmichelle":11703,"Ġmates":11704,"Ġdelt":11705,"Ġmanuscript":11706,"Ġcells":11707,"Ġranger":11708,"Ġreliably":11709,"Ġafore":11710,"Ġcrossing":11711,"Ġsod":11712,"Ġwhining":11713,"Ġbacon":11714,"ainted":11715,"Ġlor":11716,"Ġrests":11717,"Ġreck":11718,"tt":11719,"Ġphantom":11720,"Ġlips":11721,"Ġaccum":11722,"Ġcopied":11723,"Ġbella":11724,"Ġeva":11725,"Ġanniversary":11726,"bson":11727,"Ġdiab":11728,"Ġkorean":11729,"Ġeden":11730,"Ġsling":11731,"mming":11732,"Ġrambling":11733,"Ġfib":11734,"Ġstructured":11735,"Ġastron":11736,"Ġrebel":11737,"Ġsymptoms":11738,"Ġsequels":11739,"Ġnoir":11740,"Ġdriveway":11741,"Ġwobble":11742,"Ġinstructed":11743,"Ġisa":11744,"Ġnotable":11745,"Ġwarfare":11746,"Ġcitizen":11747,"Ġhockey":11748,"Ġbends":11749,"Ġjulian":11750,"Ġsheep":11751,"Ġtriv":11752,"Ġtreble":11753,"Ġthermal":11754,"Ġdiscard":11755,"Ġpreface":11756,"Ġhawaii":11757,"Ġdramatically":11758,"warming":11759,"Ġmetaphor":11760,"Ġpete":11761,"hi":11762,"Ġriffs":11763,"Ġoperated":11764,"loc":11765,"Ġseagate":11766,"Ġcardio":11767,"Ġexit":11768,"Ġprinciple":11769,"Ġradios":11770,"Ġorganize":11771,"pieces":11772,"Ġemployee":11773,"Ġgoodbye":11774,"Ġunaware":11775,"Ġlanding":11776,"Ġgopro":11777,"Ġruining":11778,"Ġsneakers":11779,"Ġintros":11780,"Ġaccustom":11781,"Ġdaisy":11782,"Ġmuscles":11783,"Ġtraction":11784,"Ġwhirl":11785,"Ġcontroversial":11786,"Ġimproving":11787,"Ġarray":11788,"Ġhoses":11789,"Ġdoctr":11790,"Ġpho":11791,"Ġengineers":11792,"Ġgrabs":11793,"Ġforbidden":11794,"Ġdatab":11795,"Ġwade":11796,"Ġtolerate":11797,"Ġheritage":11798,"Ġfriendships":11799,"Ġfierce":11800,"Ġsoy":11801,"Ġactivated":11802,"Ġswoon":11803,"Ġcassie":11804,"Ġrf":11805,"Ġdivision":11806,"Ġdysfunctional":11807,"Ġwright":11808,"aby":11809,"math":11810,"Ġratch":11811,"Ġcameron":11812,"eting":11813,"Ġflop":11814,"Ġslaves":11815,"ovo":11816,"Ġobsess":11817,"Ġcelebrity":11818,"Ġstealing":11819,"Ġtreadmill":11820,"astian":11821,"Ġbuggy":11822,"Ġoppon":11823,"Ġsolder":11824,"Ġcargo":11825,"Ġnotor":11826,"anges":11827,"andra":11828,"100":11829,"Ġmoderately":11830,"Ġmindset":11831,"Ġdall":11832,"another":11833,"Ġrewr":11834,"Ġvote":11835,"Ġinflated":11836,"Ġrefresh":11837,"Ġindie":11838,"Ġcoil":11839,"rics":11840,"Ġgentleman":11841,"Ġrelies":11842,"Ġjacks":11843,"Ġtrio":11844,"Ġbog":11845,"Ġfoll":11846,"Ġexposition":11847,"Ġsnipp":11848,"Ġworrying":11849,"Ġtvs":11850,"Ġashley":11851,"Ġmargaret":11852,"Ġattitudes":11853,"Ġalleg":11854,"Ġweakest":11855,"Ġwhiny":11856,"Ġstuds":11857,"Ġexamine":11858,"Ġthompson":11859,"tical":11860,"Ġunim":11861,"Ġmales":11862,"Ġfunk":11863,"Ġsennhe":11864,"Ġlith":11865,"Ġcreek":11866,"Ġspa":11867,"Ġincand":11868,"Ġmarshall":11869,"Ġquot":11870,"Ġcalves":11871,"appe":11872,"Ġknowledgeable":11873,"ieve":11874,"Ġtelephone":11875,"Ġappropriately":11876,"ibles":11877,"Ġunreadable":11878,"Ġmailed":11879,"Ġreign":11880,"Ġglam":11881,"Ġtechnician":11882,"Ġdusty":11883,"Ġdrilling":11884,"Ġunl":11885,"Ġrelation":11886,"Ġenthusiastic":11887,"Ġprotr":11888,"Ġbillionaire":11889,"Ġhangers":11890,"Ġcanadian":11891,"Ġartifact":11892,"arest":11893,"Ġverified":11894,"Ġjams":11895,"Ġinserting":11896,"Ġdetailing":11897,"Ġmant":11898,"Ġcriter":11899,"Ġpeeled":11900,"Ġtranslate":11901,"Ġtreas":11902,"sen":11903,"caust":11904,"Ġaaron":11905,"Ġnaz":11906,"Ġaz":11907,"Ġleo":11908,"Ġbald":11909,"Ġpirate":11910,"atched":11911,"Ġhomem":11912,"Ġorientation":11913,"Ġfleas":11914,"Ġaffairs":11915,"Ġassert":11916,"enses":11917,"Ġprologue":11918,"Ġjungle":11919,"pling":11920,"Ġharbor":11921,"Ġholocaust":11922,"Ġpumps":11923,"Ġmega":11924,"Ġcomparisons":11925,"Ġgratuit":11926,"Ġadmits":11927,"Ġcolumbia":11928,"Ġironically":11929,"Ġshri":11930,"quisite":11931,"Ġhorrendous":11932,"Ġfilmm":11933,"Ġutilize":11934,"Ġinterfer":11935,"Ġpreced":11936,"Ġfolders":11937,"Ġsexually":11938,"Ġbehave":11939,"Ġapocalypse":11940,"Ġligh":11941,"Ġdischar":11942,"Ġironic":11943,"Ġassessment":11944,"Ġsafer":11945,"Ġunbelievably":11946,"Ġupstairs":11947,"Ġplotting":11948,"Ġgrues":11949,"Ġentrep":11950,"Ġcontribution":11951,"Ġheroic":11952,"Ġconform":11953,"atisfying":11954,"Ġlore":11955,"Ġproperties":11956,"aline":11957,"Ġroth":11958,"Ġgeek":11959,"nell":11960,"Ġgossip":11961,"igible":11962,"Ġexceeded":11963,"Ġambit":11964,"Ġbeet":11965,"Ġindependence":11966,"Ġcategories":11967,"Ġenabled":11968,"Ġpond":11969,"Ġcapturing":11970,"Ġsyndrome":11971,"Ġvic":11972,"Ġexpects":11973,"Ġrecip":11974,"Ġapproved":11975,"Ġpays":11976,"Ġinevitably":11977,"Ġspac":11978,"Ġblocked":11979,"Ġtuned":11980,"Ġawake":11981,"Ġremedy":11982,"Ġdespair":11983,"Ġspirituality":11984,"Ġmanaging":11985,"Ġinsect":11986,"Ġsaddle":11987,"Ġlanded":11988,"Ġcoco":11989,"Ġengagement":11990,"iro":11991,"Ġflaps":11992,"Ġleonard":11993,"Ġimpul":11994,"Ġretirement":11995,"bian":11996,"ria":11997,"Ġeyed":11998,"Ġengineered":11999,"Ġgill":12000,"Ġguitarist":12001,"holic":12002,"Ġretelling":12003,"Ġfairness":12004,"Ġundoub":12005,"Ġteles":12006,"Ġimpe":12007,"Ġhorrors":12008,"Ġantics":12009,"Ġrepack":12010,"Ġyep":12011,"Ġupbeat":12012,"Ġgrit":12013,"Ġtreating":12014,"days":12015,"Ġjarring":12016,"agg":12017,"Ġthemed":12018,"Ġdongle":12019,"Ġobservation":12020,"Ġwolves":12021,"Ġlenovo":12022,"Ġrebell":12023,"Ġmop":12024,"Ġmodule":12025,"Ġtink":12026,"lie":12027,"Ġnations":12028,"Ġbrist":12029,"Ġplanner":12030,"Ġcomposer":12031,"Ġfeather":12032,"Ġhdtv":12033,"edge":12034,"Ġcolin":12035,"Ġaccustomed":12036,"Ġcongr":12037,"Ġstamp":12038,"Ġrelaxed":12039,"Ġsegments":12040,"Ġcassette":12041,"Ġtaxes":12042,"han":12043,"Ġcarn":12044,"Ġterrifying":12045,"itious":12046,"Ġgrandparents":12047,"Ġgrim":12048,"Ġafghanistan":12049,"Ġmafia":12050,"Ġtemple":12051,"kien":12052,"Ġanyhow":12053,"Ġgram":12054,"Ġnamely":12055,"Ġcuz":12056,"Ġescaped":12057,"Ġraises":12058,"Ġgur":12059,"Ġterrorist":12060,"Ġstuffing":12061,"Ġenters":12062,"Ġvictory":12063,"Ġbrazil":12064,"Ġseattle":12065,"Ġplag":12066,"Ġsmar":12067,"Ġdanie":12068,"Ġgruesome":12069,"Ġmasterful":12070,"Ġgoddess":12071,"Ġheather":12072,"ensible":12073,"Ġinsulting":12074,"Ġpassive":12075,"Ġignoring":12076,"neys":12077,"Ġdslr":12078,"Ġvoid":12079,"Ġaforementioned":12080,"Ġbubb":12081,"Ġtrivial":12082,"Ġnook":12083,"Ġquil":12084,"Ġevaluation":12085,"struct":12086,"burn":12087,"Ġentreprene":12088,"Ġvastly":12089,"Ġsack":12090,"Ġpretentious":12091,"Ġbusinesses":12092,"Ġesteem":12093,"bet":12094,"Ġstamped":12095,"Ġfingerprints":12096,"Ġbleeding":12097,"Ġbeta":12098,"rol":12099,"Ġpropri":12100,"Ġpsycho":12101,"Ġnicholas":12102,"ighters":12103,"Ġremembering":12104,"etti":12105,"Ġchewed":12106,"Ġheartwarming":12107,"Ġmerch":12108,"Ġarchitecture":12109,"Ġviz":12110,"Ġintimid":12111,"Ġcomplement":12112,"Ġcookbooks":12113,"Ġharrison":12114,"Ġtucked":12115,"Ġbeneficial":12116,"mies":12117,"Ġremarkably":12118,"Ġtiles":12119,"Ġdaw":12120,"Ġrider":12121,"Ġholl":12122,"Ġracial":12123,"city":12124,"Ġassumption":12125,"Ġflatten":12126,"Ġsufficiently":12127,"Ġcinema":12128,"Ġsooo":12129,"Ġsple":12130,"Ġrepresentation":12131,"Ġnov":12132,"Ġtwent":12133,"Ġassumptions":12134,"Ġaccordingly":12135,"Ġbuzzing":12136,"Ġadministration":12137,"Ġambitious":12138,"review":12139,"Ġutens":12140,"Ġuncover":12141,"Ġvents":12142,"Ġmf":12143,"ares":12144,"Ġdouglas":12145,"Ġinterp":12146,"Ġhistories":12147,"Ġshack":12148,"Ġknitting":12149,"Ġrode":12150,"hard":12151,"Ġaftermath":12152,"Ġtolkien":12153,"Ġtouchscreen":12154,"Ġdime":12155,"Ġcushioning":12156,"Ġearl":12157,"ontz":12158,"Ġaccepts":12159,"Ġhaha":12160,"Ġpunishment":12161,"Ġves":12162,"Ġseamlessly":12163,"Ġenforcement":12164,"umbled":12165,"Ġrugs":12166,"Ġtranslations":12167,"jack":12168,"Ġmeetings":12169,"Ġrented":12170,"Ġeccent":12171,"Ġalley":12172,"Ġconference":12173,"umpy":12174,"Ġauthenticity":12175,"illing":12176,"Ġwrestling":12177,"Ġtempor":12178,"Ġflavored":12179,"Ġstarters":12180,"Ġutf":12181,"Ġconveniently":12182,"Ġhandheld":12183,"Ġrubberized":12184,"Ġbearings":12185,"ias":12186,"rist":12187,"antha":12188,"Ġinconsistencies":12189,"Ġmelodr":12190,"Ġadmirable":12191,"Ġjoan":12192,"Ġtug":12193,"Ġvegetable":12194,"Ġprops":12195,"Ġminority":12196,"Ġpellets":12197,"Ġconnor":12198,"Ġstole":12199,"Ġdelve":12200,"Ġracist":12201,"Ġspit":12202,"Ġcombines":12203,"Ġbedtime":12204,"care":12205,"Ġsnugg":12206,"Ġinhabit":12207,"aned":12208,"Ġhamm":12209,"Ġclinton":12210,"Ġscul":12211,"Ġbumped":12212,"Ġstepping":12213,"Ġhears":12214,"Ġdivorced":12215,"30":12216,"Ġfacility":12217,"Ġjuliet":12218,"Ġlub":12219,"Ġspain":12220,"Ġembro":12221,"Ġmanh":12222,"ella":12223,"ost":12224,"Ġhopeless":12225,"Ġdiving":12226,"Ġsought":12227,"ye":12228,"Ġbiographies":12229,"Ġbehaviors":12230,"Ġglitches":12231,"fol":12232,"Ġadaptation":12233,"aki":12234,"Ġdemonstrate":12235,"uity":12236,"Ġcopyright":12237,"Ġcamcorder":12238,"Ġborders":12239,"Ġpanic":12240,"Ġsixth":12241,"Ġlegitimate":12242,"Ġcoord":12243,"Ġescapes":12244,"Ġbranch":12245,"Ġvign":12246,"onts":12247,"Ġcompr":12248,"Ġcautious":12249,"Ġballads":12250,"Ġcoleman":12251,"Ġdocking":12252,"Ġhandset":12253,"Ġalcoholic":12254,"Ġcompensation":12255,"Ġdented":12256,"Ġunhe":12257,"zo":12258,"plex":12259,"Ġcraz":12260,"Ġaccidental":12261,"Ġrelent":12262,"Ġnix":12263,"Ġearpiece":12264,"Ġdressing":12265,"Ġkitten":12266,"Ġfeminine":12267,"Ġspraying":12268,"iver":12269,"Ġoutright":12270,"Ġpersona":12271,"Ġstoryteller":12272,"Ġcalc":12273,"Ġquirks":12274,"Ġaltered":12275,"matic":12276,"Ġpandora":12277,"Ġsofa":12278,"Ġignorance":12279,"Ġcone":12280,"cellent":12281,"Ġelaborate":12282,"Ġspat":12283,"Ġoverpower":12284,"Ġaudiophile":12285,"Ġcyber":12286,"Ġdelta":12287,"Ġsharpening":12288,"Ġaccompanied":12289,"Ġsuede":12290,"Ġmistress":12291,"isms":12292,"Ġpoliticians":12293,"Ġemper":12294,"Ġparam":12295,"Ġquantum":12296,"Ġaloud":12297,"Ġdere":12298,"Ġbru":12299,"iciency":12300,"Ġsmud":12301,"Ġfroze":12302,"Ġscholar":12303,"Ġblisters":12304,"before":12305,"Ġwarriors":12306,"Ġclogged":12307,"Ġangeles":12308,"Ġregistered":12309,"Ġabstract":12310,"Ġdefender":12311,"Ġintentionally":12312,"Ġremed":12313,"Ġswallow":12314,"Ġtrusting":12315,"Ġblending":12316,"ala":12317,"Ġpara":12318,"Ġclubs":12319,"Ġaustralian":12320,"rious":12321,"olt":12322,"Ġike":12323,"Ġrisks":12324,"lance":12325,"Ġnerves":12326,"Ġcarolina":12327,"Ġluxury":12328,"Ġrebuild":12329,"lands":12330,"Ġunexpectedly":12331,"Ġcomprehend":12332,"Ġcf":12333,"Ġconclude":12334,"Ġhipp":12335,"Ġvga":12336,"Ġcran":12337,"Ġrins":12338,"Ġsims":12339,"Ġhomeless":12340,"Ġchurches":12341,"Ġditch":12342,"Ġnecessity":12343,"Ġmaria":12344,"Ġparadise":12345,"Ġwack":12346,"Ġeject":12347,"Ġpreventing":12348,"Ġmusically":12349,"luster":12350,"Ġinsole":12351,"Ġskips":12352,"Ġsculpt":12353,"Ġweaving":12354,"Ġconcentrate":12355,"link":12356,"Ġcutouts":12357,"Ġpains":12358,"Ġpolicies":12359,"Ġtrent":12360,"Ġmugs":12361,"Ġaero":12362,"Ġeternal":12363,"ouses":12364,"ours":12365,"stals":12366,"ronics":12367,"Ġadaptor":12368,"Ġreferenced":12369,"Ġwordy":12370,"Ġunm":12371,"Ġelbow":12372,"Ġsunsh":12373,"Ġreputable":12374,"Ġply":12375,"Ġlackluster":12376,"excellent":12377,"Ġskype":12378,"Ġcontribute":12379,"Ġrecre":12380,"Ġroses":12381,"Ġaccents":12382,"Ġbases":12383,"Ġatlant":12384,"Ġverbal":12385,"Ġrevised":12386,"Ġstaple":12387,"Ġsignificance":12388,"angular":12389,"Ġdevotional":12390,"Ġforgettable":12391,"Ġmeand":12392,"Ġcrus":12393,"Ġjab":12394,"Ġexperiments":12395,"Ġdevastating":12396,"Ġgarn":12397,"iler":12398,"Ġinterch":12399,"Ġcc":12400,"Ġimpat":12401,"Ġinvaluable":12402,"Ġquilt":12403,"Ġbackward":12404,"Ġdiversity":12405,"Ġoverdone":12406,"Ġgoofy":12407,"Ġdeception":12408,"Ġassure":12409,"Ġzach":12410,"Ġdome":12411,"Ġmighty":12412,"Ġimplies":12413,"Ġmarath":12414,"itative":12415,"Ġhomemade":12416,"Ġcomposed":12417,"Ġwounded":12418,"Ġblessing":12419,"Ġappearing":12420,"Ġhell":12421,"Ġbully":12422,"Ġtivo":12423,"Ġpegs":12424,"Ġ2":12425,"Ġmonop":12426,"integr":12427,"Ġsnacks":12428,"Ġidol":12429,"uge":12430,"Ġseated":12431,"Ġempower":12432,"inally":12433,"Ġsuspected":12434,"cases":12435,"Ġnag":12436,"Ġnarciss":12437,"Ġundoubted":12438,"Ġstarring":12439,"Ġmadness":12440,"brew":12441,"Ġauthorized":12442,"Ġverd":12443,"bury":12444,"Ġlikewise":12445,"Ġwilderness":12446,"Ġsebastian":12447,"Ġhurric":12448,"Ġsquad":12449,"amous":12450,"Ġhumming":12451,"Ġprevented":12452,"Ġunderwhel":12453,"Ġeccentric":12454,"Ġtome":12455,"Ġoverc":12456,"Ġcostly":12457,"Ġdelivering":12458,"Ġcompressed":12459,"burg":12460,"Ġpumping":12461,"Ġwhistle":12462,"Ġnes":12463,"elity":12464,"Ġarmed":12465,"Ġlovable":12466,"Ġranks":12467,"Ġcrystals":12468,"Ġnicole":12469,"Ġextensively":12470,"Ġwhine":12471,"pert":12472,"gic":12473,"Ġnoting":12474,"Ġadj":12475,"Ġgratuitous":12476,"Ġfootprint":12477,"Ġunsatisfying":12478,"Ġbranches":12479,"Ġcharity":12480,"Ġperception":12481,"Ġevidently":12482,"Ġbelievers":12483,"Ġsamantha":12484,"Ġaids":12485,"Ġmh":12486,"Ġml":12487,"alf":12488,"Ġkara":12489,"Ġmama":12490,"Ġpp":12491,"Ġdow":12492,"Ġcircus":12493,"Ġwalter":12494,"Ġendured":12495,"Ġsalvation":12496,"Ġfemales":12497,"Ġresponding":12498,"annon":12499,"Ġcompete":12500,"Ġowen":12501,"amel":12502,"Ġcarri":12503,"Ġresidents":12504,"Ġbrakes":12505,"watch":12506,"Ġinexplic":12507,"Ġtackle":12508,"Ġtee":12509,"Ġclipp":12510,"Ġrogue":12511,"Ġsavage":12512,"Ġprayers":12513,"Ġunint":12514,"Ġunpredictable":12515,"Ġenvironments":12516,"Ġremastered":12517,"Ġfuneral":12518,"Ġswept":12519,"Ġingen":12520,"Ġcontributed":12521,"Ġlug":12522,"Ġschedul":12523,"Ġcylinder":12524,"Ġcheat":12525,"Ġremainder":12526,"Ġarthrit":12527,"Ġdeceptive":12528,"Ġincandescent":12529,"Ġnv":12530,"Ġallergies":12531,"Ġmarkings":12532,"Ġrattle":12533,"Ġgothic":12534,"comes":12535,"Ġmosqu":12536,"Ġoffended":12537,"ointing":12538,"oter":12539,"Ġswift":12540,"Ġsnark":12541,"Ġdrummer":12542,"Ġswed":12543,"Ġforemost":12544,"Ġorganizations":12545,"Ġvendors":12546,"Ġnudity":12547,"Ġsmoothies":12548,"Ġdisturbed":12549,"Ġmankind":12550,"Ġguidelines":12551,"Ġstake":12552,"Ġcoax":12553,"Ġcrust":12554,"Ġcorny":12555,"Ġrecru":12556,"Ġknocking":12557,"Ġreducing":12558,"Ġvacuuming":12559,"Ġconfigure":12560,"Ġyamaha":12561,"Ġacquired":12562,"Ġsatire":12563,"Ġscrolling":12564,"Ġeditorial":12565,"Ġimmersed":12566,"Ġcheek":12567,"Ġthermos":12568,"Ġaudiences":12569,"did":12570,"Ġrecycled":12571,"Ġmg":12572,"Ġhypo":12573,"mable":12574,"Ġpsychiat":12575,"irect":12576,"Ġsyd":12577,"ersed":12578,"Ġnetworks":12579,"Ġsubjective":12580,"Ġmanipulate":12581,"Ġmomentum":12582,"Ġfavorable":12583,"Ġjerky":12584,"Ġaddictive":12585,"Ġbranded":12586,"Ġbunny":12587,"Ġsuz":12588,"Ġtrains":12589,"regon":12590,"Ġgrams":12591,"mann":12592,"Ġflea":12593,"Ġadhere":12594,"Ġome":12595,"Ġbutterfly":12596,"Ġkodak":12597,"Ġpriority":12598,"Ġoregon":12599,"Ġscarf":12600,"Ġmemoirs":12601,"oto":12602,"Ġofferings":12603,"Ġpetty":12604,"Ġstructures":12605,"Ġhawk":12606,"Ġsizz":12607,"yd":12608,"Ġenlighten":12609,"Ġexecutive":12610,"etown":12611,"eland":12612,"Ġcancelling":12613,"Ġrav":12614,"Ġneuro":12615,"Ġsacred":12616,"Ġyogurt":12617,"Ġknot":12618,"Ġshredder":12619,"Ġdiaper":12620,"Ġabound":12621,"Ġlistens":12622,"Ġhyster":12623,"Ġdominant":12624,"Ġkeith":12625,"Ġvisions":12626,"shell":12627,"Ġundoubtedly":12628,"Ġcurt":12629,"Ġkirk":12630,"Ġbot":12631,"Ġsucceeds":12632,"being":12633,"Ġtp":12634,"Ġthrott":12635,"Ġresting":12636,"Ġortho":12637,"Ġshave":12638,"Ġwildly":12639,"Ġboundaries":12640,"Ġpiper":12641,"Ġplanes":12642,"Ġcampbell":12643,"ulates":12644,"Ġdevelopers":12645,"Ġdisintegr":12646,"Ġimplausible":12647,"Ġvertically":12648,"Ġtinny":12649,"Ġbiting":12650,"Ġreinforced":12651,"dog":12652,"Ġabund":12653,"Ġpods":12654,"Ġpolite":12655,"Ġvisuals":12656,"Ġsweaty":12657,"Ġreunion":12658,"Ġbrilliance":12659,"Ġdecline":12660,"Ġchilling":12661,"tom":12662,"Ġguardian":12663,"Ġhorrid":12664,"Ġsherlock":12665,"mons":12666,"Ġcutout":12667,"Ġridge":12668,"Ġbever":12669,"ivable":12670,"Ġnegot":12671,"Ġperiodically":12672,"ggers":12673,"Ġredes":12674,"Ġjackie":12675,"Ġownership":12676,"Ġvegetarian":12677,"Ġgreatness":12678,"Ġclancy":12679,"zes":12680,"anor":12681,"nament":12682,"Ġrewarding":12683,"Ġperipher":12684,"may":12685,"Ġchampion":12686,"Ġcinemato":12687,"Ġaquarium":12688,"Ġversa":12689,"Ġburden":12690,"Ġcamper":12691,"Ġblacks":12692,"Ġmarkets":12693,"Ġfulfilled":12694,"Ġmanifest":12695,"Ġcartoons":12696,"Ġintermittent":12697,"master":12698,"Ġcommonly":12699,"Ġsymbols":12700,"Ġgrounded":12701,"onies":12702,"Ġpulse":12703,"Ġscout":12704,"heim":12705,"Ġalternating":12706,"Ġinspector":12707,"Ġanat":12708,"Ġpresses":12709,"Ġreload":12710,"Ġtoyota":12711,"Ġunnecessarily":12712,"Ġbliss":12713,"Ġwalt":12714,"nas":12715,"Ġtying":12716,"Ġil":12717,"Ġexquisite":12718,"Ġamel":12719,"Ġdug":12720,"Ġlime":12721,"Ġdetector":12722,"regard":12723,"Ġdangers":12724,"veloped":12725,"Ġhubby":12726,"Ġsennheiser":12727,"Ġamateurish":12728,"Ġshooter":12729,"Ġinterpretations":12730,"Ġheartbreak":12731,"Ġtapping":12732,"Ġrequirement":12733,"Ġherbs":12734,"Ġmans":12735,"Ġguts":12736,"Ġsmelling":12737,"Ġreorder":12738,"Ġrocking":12739,"Ġtransformer":12740,"Ġatrocious":12741,"gance":12742,"Ġrobinson":12743,"Ġarmband":12744,"Ġsassy":12745,"creen":12746,"Ġflynn":12747,"Ġshepherd":12748,"Ġkidnapping":12749,"Ġcoup":12750,"hen":12751,"uch":12752,"Ġprovider":12753,"Ġdeparture":12754,"lain":12755,"Ġindians":12756,"Ġdorm":12757,"storm":12758,"Ġgoodreads":12759,"Ġlayered":12760,"Ġgrabbing":12761,"kers":12762,"Ġtract":12763,"Ġscriptures":12764,"Ġstandpoint":12765,"Ġdistress":12766,"Ġincorporate":12767,"Ġcaroline":12768,"Ġjeremy":12769,"cers":12770,"Ġants":12771,"Ġdestined":12772,"Ġcleared":12773,"Ġglimpses":12774,"Ġdal":12775,"Ġgordon":12776,"Ġslowed":12777,"Ġaftermarket":12778,"Ġblunt":12779,"Ġflicker":12780,"Ġdries":12781,"Ġmystical":12782,"Ġhometown":12783,"Ġcareers":12784,"Ġgarment":12785,"Ġquietly":12786,"Ġinvo":12787,"Ġsucceeded":12788,"Ġcharism":12789,"avin":12790,"Ġcoherent":12791,"Ġbombs":12792,"Ġprongs":12793,"Ġark":12794,"Ġconsumption":12795,"Ġarrows":12796,"Ġdetection":12797,"Ġphoenix":12798,"encer":12799,"Ġawards":12800,"Ġblatant":12801,"Ġcement":12802,"Ġdiy":12803,"Ġinvestigator":12804,"Ġariz":12805,"Ġbam":12806,"anging":12807,"upp":12808,"Ġtheft":12809,"Ġeleven":12810,"Ġsplash":12811,"Ġpaddle":12812,"Ġballet":12813,"Ġkoontz":12814,"Ġdecal":12815,"Ġcarrie":12816,"Ġregency":12817,"Ġturmo":12818,"ulars":12819,"opard":12820,"Ġmids":12821,"Ġvenge":12822,"Ġspices":12823,"Ġexpertise":12824,"Ġxxl":12825,"Ġunbearable":12826,"atement":12827,"Ġscreenplay":12828,"Ġanticipating":12829,"Ġkane":12830,"since":12831,"Ġfutur":12832,"Ġdisassemb":12833,"Ġchords":12834,"Ġhesitation":12835,"Ġmasc":12836,"Ġjenny":12837,"Ġgenerated":12838,"Ġgamble":12839,"Ġformulaic":12840,"Ġtidbits":12841,"Ġmoms":12842,"Ġmorality":12843,"Ġdimin":12844,"rec":12845,"Ġbravo":12846,"Ġentirety":12847,"Ġoversized":12848,"Ġcaric":12849,"Ġinvented":12850,"Ġmeaningless":12851,"strong":12852,"Ġcombinations":12853,"Ġcamps":12854,"Ġbis":12855,"ira":12856,"Ġapproaching":12857,"Ġformatted":12858,"Ġpitched":12859,"Ġambig":12860,"Ġfirstly":12861,"quin":12862,"wolves":12863,"ulf":12864,"igo":12865,"Ġlesbian":12866,"Ġmegan":12867,"Ġdestructive":12868,"taking":12869,"Ġhunters":12870,"Ġtrucks":12871,"Ġalleged":12872,"Ġarizona":12873,"Ġgrie":12874,"even":12875,"cock":12876,"Ġgest":12877,"Ġgrom":12878,"Ġbrains":12879,"Ġhistorians":12880,"repres":12881,"rim":12882,"Ġforgiving":12883,"through":12884,"Ġmitchell":12885,"Ġfittings":12886,"Ġshops":12887,"Ġdos":12888,"Ġgree":12889,"Ġwedge":12890,"Ġtoothp":12891,"wan":12892,"Ġnash":12893,"Ġjanet":12894,"Ġtremendously":12895,"Ġalarms":12896,"Ġprobe":12897,"Ġcompleting":12898,"Ġmage":12899,"Ġinterestingly":12900,"worth":12901,"Ġcriminals":12902,"Ġevaluate":12903,"Ġsongwriting":12904,"Ġracks":12905,"Ġtights":12906,"Ġexposing":12907,"Ġbouncing":12908,"Ġpopularity":12909,"enson":12910,"Ġexpressions":12911,"eder":12912,"Ġsmiling":12913,"Ġrealities":12914,"Ġanticipate":12915,"Ġdrained":12916,"poon":12917,"Ġbeg":12918,"Ġtheological":12919,"Ġbrat":12920,"Ġreplied":12921,"Ġcurl":12922,"thood":12923,"Ġhighlighted":12924,"Ġminister":12925,"Ġeq":12926,"Ġdoug":12927,"Ġheights":12928,"Ġgrandchildren":12929,"Ġwander":12930,"Ġsurfing":12931,"Ġmitt":12932,"Ġadher":12933,"izers":12934,"weigh":12935,"Ġliberty":12936,"Ġslider":12937,"Ġpaw":12938,"Ġoffset":12939,"Ġdutch":12940,"Ġshifters":12941,"Ġrasp":12942,"Ġspills":12943,"Ġincidents":12944,"Ġdivid":12945,"Ġeliminated":12946,"Ġdents":12947,"Ġni":12948,"Ġhotter":12949,"Ġbattlefield":12950,"Ġthier":12951,"Ġexplorer":12952,"Ġdiscri":12953,"xtures":12954,"Ġkindness":12955,"Ġmileage":12956,"Ġkorea":12957,"Ġunav":12958,"Ġgates":12959,"Ġmeticulous":12960,"Ġangled":12961,"Ġcongress":12962,"Ġembo":12963,"Ġmaturity":12964,"orie":12965,"Ġfract":12966,"Ġturmoil":12967,"Ġmaine":12968,"Ġblackberry":12969,"Ġshuffle":12970,"Ġdistribution":12971,"Ġcollabor":12972,"Ġsuite":12973,"Ġreiss":12974,"pton":12975,"Ġnike":12976,"Ġeaster":12977,"Ġembed":12978,"Ġspilled":12979,"Ġseparating":12980,"Ġextends":12981,"Ġcannon":12982,"Ġbrow":12983,"Ġshutting":12984,"Ġwerewolves":12985,"Ġreplay":12986,"Ġmurphy":12987,"Ġdiagnosed":12988,"Ġberlin":12989,"Ġbure":12990,"Ġterrain":12991,"Ġbusted":12992,"Ġwandering":12993,"Ġcolleagues":12994,"Ġspecially":12995,"Ġreflected":12996,"Ġdallas":12997,"Ġwarner":12998,"Ġalf":12999,"Ġfrancis":13000,"Ġtissue":13001,"clo":13002,"Ġfitz":13003,"Ġencouragement":13004,"Ġelection":13005,"40":13006,"Ġdm":13007,"Ġoptional":13008,"Ġfatig":13009,"worthy":13010,"Ġshovel":13011,"Ġroommate":13012,"Ġnightmares":13013,"Ġoutweigh":13014,"appointed":13015,"Ġgenerate":13016,"Ġhend":13017,"Ġdewalt":13018,"Ġava":13019,"stood":13020,"Ġfading":13021,"Ġlany":13022,"Ġbites":13023,"Ġfist":13024,"Ġclone":13025,"rr":13026,"Ġsham":13027,"Ġcoins":13028,"Ġconscience":13029,"Ġcant":13030,"Ġtroops":13031,"Ġlamb":13032,"mbers":13033,"Ġcanop":13034,"Ġtracker":13035,"Ġdeveloper":13036,"Ġfiltered":13037,"Ġbish":13038,"Ġnugg":13039,"Ġcoarse":13040,"Ġmt":13041,"Ġbarking":13042,"Ġdependent":13043,"Ġhooking":13044,"Ġpirates":13045,"Ġcommander":13046,"Ġcompares":13047,"Ġscottish":13048,"Ġbour":13049,"Ġquoted":13050,"Ġtravelling":13051,"Ġjag":13052,"Ġunused":13053,"Ġcollectors":13054,"Ġethics":13055,"Ġtemplate":13056,"Ġglossary":13057,"stock":13058,"Ġalexa":13059,"Ġpatt":13060,"Ġmellow":13061,"Ġappendix":13062,"Ġhud":13063,"Ġignores":13064,"Ġincreases":13065,"Ġsolos":13066,"Ġplas":13067,"Ġmormon":13068,"Ġcaller":13069,"Ġfundament":13070,"Ġboiled":13071,"Ġdistinguish":13072,"Ġreass":13073,"Ġlonging":13074,"Ġtransmission":13075,"Ġrusted":13076,"Ġglorious":13077,"inates":13078,"Ġwells":13079,"Ġiran":13080,"Ġtutorial":13081,"Ġrpm":13082,"Ġnostalgia":13083,"Ġsie":13084,"Ġergonomic":13085,"attan":13086,"Ġconditioner":13087,"Ġacry":13088,"Ġcater":13089,"Ġshaw":13090,"Ġlur":13091,"eted":13092,"Ġdexter":13093,"Ġpony":13094,"Ġenterprise":13095,"Ġhelicopter":13096,"Ġnotably":13097,"Ġunplugging":13098,"Ġheartache":13099,"Ġmisrepres":13100,"Ġbloss":13101,"Ġapplicable":13102,"lley":13103,"Ġmelting":13104,"Ġninja":13105,"Ġcigarette":13106,"Ġfeist":13107,"Ġblister":13108,"Ġacce":13109,"Ġwipes":13110,"Ġadmired":13111,"Ġnetworking":13112,"Ġtoddlers":13113,"Ġslog":13114,"Ġscoo":13115,"Ġsarcastic":13116,"guard":13117,"Ġgn":13118,"Ġcork":13119,"Ġincompet":13120,"inction":13121,"Ġpacket":13122,"ico":13123,"Ġshore":13124,"rus":13125,"Ġcamel":13126,"Ġspells":13127,"Ġaesthetic":13128,"Ġanton":13129,"Ġbuckles":13130,"Ġcape":13131,"Ġmindless":13132,"bir":13133,"Ġexperimental":13134,"Ġdna":13135,"Ġplumb":13136,"Ġgermans":13137,"py":13138,"Ġrey":13139,"ained":13140,"Ġscanned":13141,"Ġdisgr":13142,"Ġparticle":13143,"Ġstarbuck":13144,"Ġfires":13145,"mets":13146,"Ġreagan":13147,"Ġtransported":13148,"page":13149,"Ġinsoles":13150,"Ġjed":13151,"Ġdiagram":13152,"omi":13153,"Ġpseudo":13154,"Ġdrake":13155,"Ġremarks":13156,"Ġoptimistic":13157,"Ġregrets":13158,"Ġdatabase":13159,"Ġsill":13160,"rose":13161,"Ġcompeting":13162,"Ġcowork":13163,"ansas":13164,"Ġemperor":13165,"Ġrendition":13166,"lings":13167,"Ġgreedy":13168,"Ġsuggesting":13169,"Ġwaistband":13170,"Ġabsorbing":13171,"Ġwhites":13172,"hart":13173,"Ġthanksgiving":13174,"Ġtemporarily":13175,"bul":13176,"Ġspotlight":13177,"Ġvoyage":13178,"rin":13179,"Ġclipped":13180,"Ġpeaceful":13181,"Ġrho":13182,"Ġslices":13183,"Ġimac":13184,"Ġsinister":13185,"Ġtorch":13186,"rina":13187,"Ġaffir":13188,"Ġinfamous":13189,"Ġwinters":13190,"Ġpeek":13191,"Ġestimate":13192,"Ġsprinkled":13193,"apor":13194,"Ġrelying":13195,"Ġdilemma":13196,"Ġcleverly":13197,"Ġtumb":13198,"Ġnarrower":13199,"Ġselecting":13200,"foam":13201,"Ġcalibration":13202,"Ġpaus":13203,"Ġfollowers":13204,"Ġadventurous":13205,"Ġpercentage":13206,"Ġpaws":13207,"Ġvicious":13208,"Ġquarters":13209,"Ġscandal":13210,"Ġspook":13211,"Ġradar":13212,"Ġvein":13213,"Ġvanity":13214,"Ġrealization":13215,"Ġsins":13216,"Ġmiracles":13217,"Ġunlocked":13218,"Ġcompensate":13219,"ression":13220,"Ġinver":13221,"Ġprocedures":13222,"onna":13223,"yy":13224,"Ġspacing":13225,"Ġcurves":13226,"Ġtextbooks":13227,"Ġwhistles":13228,"Ġkeypad":13229,"Ġyan":13230,"Ġphilip":13231,"Ġbroadway":13232,"Ġdistinctive":13233,"Ġconverted":13234,"bars":13235,"Ġheadaches":13236,"Ġpouches":13237,"Ġhides":13238,"Ġjefferson":13239,"Ġterminal":13240,"Ġhefty":13241,"Ġbd":13242,"Ġrecur":13243,"Ġpropos":13244,"omer":13245,"placed":13246,"Ġdedication":13247,"Ġcounterp":13248,"Ġvelvet":13249,"Ġintermittently":13250,"Ġgardening":13251,"uating":13252,"Ġmentor":13253,"Ġswims":13254,"onymous":13255,"Ġflats":13256,"Ġrejected":13257,"Ġfeminist":13258,"Ġrouters":13259,"Ġattended":13260,"Ġlumens":13261,"Ġdroid":13262,"Ġcalculator":13263,"mith":13264,"Ġbackpacking":13265,"cp":13266,"Ġsemin":13267,"Ġreinforce":13268,"Ġcaleb":13269,"Ġresetting":13270,"Ġretrieve":13271,"Ġflights":13272,"Ġdreadful":13273,"Ġgimmick":13274,"does":13275,"Ġskelet":13276,"Ġsoaking":13277,"Ġrestock":13278,"Ġsmashed":13279,"Ġclarify":13280,"Ġvizio":13281,"Ġmuffled":13282,"Ġrpg":13283,"Ġsmoker":13284,"Ġhank":13285,"Ġfender":13286,"Ġmartha":13287,"Ġattending":13288,"Ġevolve":13289,"Ġbaggage":13290,"iko":13291,"Ġbennett":13292,"Ġsmarter":13293,"Ġva":13294,"Ġscrape":13295,"Ġretros":13296,"Ġhein":13297,"emic":13298,"Ġcourtesy":13299,"Ġvincent":13300,"Ġacceler":13301,"Ġprey":13302,"Ġegyptian":13303,"Ġthrottle":13304,"fish":13305,"Ġmerits":13306,"Ġcereal":13307,"Ġtote":13308,"Ġpreaching":13309,"absolute":13310,"Ġcounsel":13311,"Ġmx":13312,"Ġzoe":13313,"Ġfilming":13314,"Ġpedest":13315,"Ġbuffalo":13316,"Ġpas":13317,"Ġfrequencies":13318,"Ġintuit":13319,"Ġrevision":13320,"Ġconcentration":13321,"bbing":13322,"Ġseamless":13323,"Ġlows":13324,"Ġapproached":13325,"bel":13326,"Ġtac":13327,"Ġprost":13328,"Ġcomical":13329,"Ġwatering":13330,"Ġgrac":13331,"Ġion":13332,"Ġdeform":13333,"Ġdistances":13334,"Ġcinnam":13335,"Ġrhyme":13336,"Ġembark":13337,"Ġproceeded":13338,"Ġassort":13339,"Ġpills":13340,"60":13341,"Ġkern":13342,"Ġja":13343,"Ġsubur":13344,"Ġskew":13345,"yson":13346,"Ġtargeted":13347,"Ġdisable":13348,"Ġrealistically":13349,"Ġdepths":13350,"Ġdashboard":13351,"Ġupgrades":13352,"Ġterminology":13353,"Ġrc":13354,"Ġbypass":13355,"Ġdealers":13356,"dding":13357,"Ġvariable":13358,"Ġgallons":13359,"Ġgadgets":13360,"Ġcinnamon":13361,"Ġexpanding":13362,"Ġanxiously":13363,"Ġneglected":13364,"Ġmisery":13365,"Ġshredded":13366,"Ġconsequently":13367,"Ġsurvey":13368,"irable":13369,"Ġadvers":13370,"Ġsparse":13371,"itzer":13372,"Ġunli":13373,"Ġsweats":13374,"Ġsleeps":13375,"Ġclinical":13376,"Ġpope":13377,"Ġbye":13378,"Ġdetected":13379,"Ġlibert":13380,"Ġelephant":13381,"Ġseeming":13382,"Ġdian":13383,"Ġeloqu":13384,"Ġblended":13385,"dia":13386,"Ġgust":13387,"Ġbreathable":13388,"Ġcustomize":13389,"Ġwording":13390,"Ġactively":13391,"Ġamend":13392,"Ġletdown":13393,"Ġgrader":13394,"Ġproceeds":13395,"Ġjustified":13396,"Ġlowered":13397,"Ġrattling":13398,"yon":13399,"Ġneo":13400,"Ġfinance":13401,"Ġvividly":13402,"Ġcommute":13403,"Ġlithium":13404,"Ġlied":13405,"liest":13406,"Ġappliances":13407,"Ġfixtures":13408,"Ġsockets":13409,"Ġblonde":13410,"Ġworkbook":13411,"Ġmirac":13412,"Ġmodifications":13413,"Ġfuzz":13414,"Ġgrains":13415,"Ġmagically":13416,"eel":13417,"Ġremembers":13418,"around":13419,"Ġprofanity":13420,"Ġprincipal":13421,"80":13422,"aque":13423,"Ġarist":13424,"Ġbleach":13425,"Ġlosses":13426,"Ġfusion":13427,"Ġoverload":13428,"Ġnerve":13429,"Ġliv":13430,"Ġundo":13431,"Ġfunds":13432,"Ġculpr":13433,"Ġdisassemble":13434,"Ġkend":13435,"Ġrazer":13436,"Ġduh":13437,"ipedia":13438,"Ġsage":13439,"Ġbach":13440,"Ġmit":13441,"Ġyay":13442,"Ġproclaim":13443,"Ġgenerator":13444,"Ġsubmit":13445,"Ġsmash":13446,"Ġrecovering":13447,"Ġdeceased":13448,"Ġzeal":13449,"Ġdeft":13450,"Ġency":13451,"Ġbiology":13452,"Ġcrawl":13453,"Ġtourist":13454,"words":13455,"Ġenthralled":13456,"Ġhast":13457,"Ġworkings":13458,"Ġcontradict":13459,"Ġstalker":13460,"Ġwikipedia":13461,"aning":13462,"Ġcompetitors":13463,"Ġinterchange":13464,"Ġcosting":13465,"Ġbureau":13466,"Ġrips":13467,"Ġpraying":13468,"Ġderek":13469,"Ġwats":13470,"Ġinteractive":13471,"Ġbailey":13472,"Ġchand":13473,"Ġkurt":13474,"ologically":13475,"Ġbrandon":13476,"Ġcanopy":13477,"Ġbeige":13478,"Ġceo":13479,"Ġsurroundings":13480,"Ġagreement":13481,"Ġmushroom":13482,"Ġunz":13483,"Ġjargon":13484,"Ġtoothbrush":13485,"Ġunwanted":13486,"Ġconsumed":13487,"Ġplaystation":13488,"Ġunlikable":13489,"Ġpreschool":13490,"Ġmonolog":13491,"Ġimproves":13492,"Ġassortment":13493,"Ġolympus":13494,"Ġmontana":13495,"Ġhurricane":13496,"Ġdrivel":13497,"Ġpendant":13498,"Ġjelly":13499,"Ġdeaf":13500,"Ġsubplots":13501,"Ġdripping":13502,"Ġliteral":13503,"Ġspreads":13504,"Ġbronze":13505,"Ġstyro":13506,"Ġmatrix":13507,"Ġdwar":13508,"Ġmickey":13509,"Ġexclusive":13510,"Ġmanhattan":13511,"Ġargu":13512,"Ġruthless":13513,"Ġsunshine":13514,"Ġlisteners":13515,"Ġbullying":13516,"Ġbreathtaking":13517,"Ġqc":13518,"Ġmoody":13519,"pot":13520,"Ġconfuse":13521,"Ġwag":13522,"lee":13523,"Ġwend":13524,"Ġoily":13525,"Ġbarbie":13526,"Ġthreatened":13527,"Ġallies":13528,"Ġlawrence":13529,"Ġdebating":13530,"Ġbiological":13531,"Ġcommunities":13532,"Ġreflections":13533,"Ġwindy":13534,"Ġsoldering":13535,"elic":13536,"Ġscales":13537,"Ġinvited":13538,"Ġbegging":13539,"Ġenerg":13540,"Ġsib":13541,"Ġbead":13542,"bean":13543,"sions":13544,"Ġunrelated":13545,"Ġmarathon":13546,"Ġnina":13547,"Ġabort":13548,"Ġspicy":13549,"Ġzoo":13550,"Ġpitt":13551,"Ġbeginnings":13552,"Ġsearches":13553,"greg":13554,"Ġjude":13555,"inda":13556,"Ġbout":13557,"abe":13558,"Ġcinematography":13559,"Ġparr":13560,"hl":13561,"Ġmesmer":13562,"Ġcosmetic":13563,"Ġmiserably":13564,"Ġthie":13565,"ez":13566,"Ġirony":13567,"Ġnickel":13568,"Ġswapped":13569,"atisfact":13570,"bec":13571,"Ġdefinitions":13572,"Ġstyrofoam":13573,"Ġnazis":13574,"Ġhue":13575,"Ġgibson":13576,"Ġtreatments":13577,"Ġrecessed":13578,"Ġimprob":13579,"Ġestimated":13580,"Ġcommunist":13581,"ulum":13582,"Ġevans":13583,"ele":13584,"Ġsterling":13585,"Ġundercover":13586,"Ġunatt":13587,"nut":13588,"Ġhebrew":13589,"Ġspecifications":13590,"Ġomn":13591,"Ġhott":13592,"Ġtargets":13593,"Ġpredecessor":13594,"Ġinsecure":13595,"Ġamelia":13596,"roe":13597,"Ġdisregard":13598,"Ġberry":13599,"Ġmonitoring":13600,"Ġcorsair":13601,"Ġmadison":13602,"Ġharle":13603,"Ġresent":13604,"Ġnarrated":13605,"Ġdirectors":13606,"Ġtradem":13607,"Ġmyri":13608,"Ġbrood":13609,"Ġstupidity":13610,"Ġbrainer":13611,"Ġerin":13612,"Ġmutual":13613,"Ġlush":13614,"Ġassassination":13615,"itarian":13616,"Ġretreat":13617,"Ġpatric":13618,"Ġrevisit":13619,"Ġkil":13620,"tec":13621,"atha":13622,"Ġpractition":13623,"Ġpassport":13624,"Ġdonald":13625,"Ġbees":13626,"Ġsecretly":13627,"Ġcousins":13628,"itan":13629,"tech":13630,"Ġsquirrels":13631,"Ġoperates":13632,"Ġmastered":13633,"Ġspeck":13634,"Ġstein":13635,"Ġcondem":13636,"curities":13637,"Ġengrossed":13638,"Ġdeceiving":13639,"Ġbrooklyn":13640,"Ġcling":13641,"Ġjade":13642,"Ġloom":13643,"Ġtouchpad":13644,"Ġtrademark":13645,"Ġproprietary":13646,"Ġluther":13647,"Ġons":13648,"Ġdeliberately":13649,"Ġnovellas":13650,"xist":13651,"organ":13652,"Ġrestored":13653,"bish":13654,"Ġetern":13655,"itating":13656,"Ġmarc":13657,"Ġreduces":13658,"Ġsensual":13659,"Ġcroch":13660,"Ġbleak":13661,"Ġgamers":13662,"Ġbibliography":13663,"Ġunderstatement":13664,"Ġstaring":13665,"Ġtransitions":13666,"Ġastonishing":13667,"aboration":13668,"Ġexceptions":13669,"Ġdup":13670,"Ġtransmit":13671,"Ġlaz":13672,"Ġemployed":13673,"Ġacrylic":13674,"Ġtaper":13675,"Ġtier":13676,"Ġconsiders":13677,"afting":13678,"Ġgorilla":13679,"Ġplanted":13680,"Ġintersp":13681,"Ġinherent":13682,"Ġdickens":13683,"Ġencyclo":13684,"Ġpositioning":13685,"Ġsnippets":13686,"Ġtomb":13687,"Ġmerm":13688,"rah":13689,"Ġunwilling":13690,"Ġfestival":13691,"Ġard":13692,
[...]
