{"<s>":0,"<pad>":1,"</s>":2,"<unk>":3,"<mask>":4,"[EMAIL]":5,"[URL]":6,"[XML]":7,"[PATH]":8,"[NUMBER]":9,"[USD]":10,"[EUR]":11,"[GBP]":12,"[JPY]":13,"[INR]":14,"[BAD]":15,"[UNKNOWN]":16,"!":17,"\"":18,"#":19,"$":20,"%":21,"&":22,"'":23,"(":24,")":25,"*":26,"+":27,",":28,"-":29,".":30,"/":31,"0":32,"1":33,"2":34,"3":35,"4":36,"5":37,"6":38,"7":39,"8":40,"9":41,":":42,";":43,"<":44,"=":45,">":46,"?":47,"@":48,"A":49,"B":50,"C":51,"D":52,"E":53,"F":54,"G":55,"H":56,"I":57,"J":58,"K":59,"L":60,"M":61,"N":62,"O":63,"P":64,"Q":65,"R":66,"S":67,"T":68,"U":69,"V":70,"W":71,"X":72,"Y":73,"Z":74,"[":75,"\\":76,"]":77,"^":78,"_":79,"`":80,"a":81,"b":82,"c":83,"d":84,"e":85,"f":86,"g":87,"h":88,"i":89,"j":90,"k":91,"l":92,"m":93,"n":94,"o":95,"p":96,"q":97,"r":98,"s":99,"t":100,"u":101,"v":102,"w":103,"x":104,"y":105,"z":106,"{":107,"|":108,"}":109,"~":110,"¡":111,"¢":112,"£":113,"¤":114,"¥":115,"¦":116,"§":117,"¨":118,"©":119,"ª":120,"«":121,"¬":122,"®":123,"¯":124,"°":125,"±":126,"²":127,"³":128,"´":129,"µ":130,"¶":131,"·":132,"¸":133,"¹":134,"º":135,"»":136,"¼":137,"½":138,"¾":139,"¿":140,"À":141,"Á":142,"Â":143,"Ã":144,"Ä":145,"Å":146,"Æ":147,"Ç":148,"È":149,"É":150,"Ê":151,"Ë":152,"Ì":153,"Í":154,"Î":155,"Ï":156,"Ð":157,"Ñ":158,"Ò":159,"Ó":160,"Ô":161,"Õ":162,"Ö":163,"×":164,"Ø":165,"Ù":166,"Ú":167,"Û":168,"Ü":169,"Ý":170,"Þ":171,"ß":172,"à":173,"á":174,"â":175,"ã":176,"ä":177,"å":178,"æ":179,"ç":180,"è":181,"é":182,"ê":183,"ë":184,"ì":185,"í":186,"î":187,"ï":188,"ð":189,"ñ":190,"ò":191,"ó":192,"ô":193,"õ":194,"ö":195,"÷":196,"ø":197,"ù":198,"ú":199,"û":200,"ü":201,"ý":202,"þ":203,"ÿ":204,"Ā":205,"ā":206,"Ă":207,"ă":208,"Ą":209,"ą":210,"Ć":211,"ć":212,"Ĉ":213,"ĉ":214,"Ċ":215,"ċ":216,"Č":217,"č":218,"Ď":219,"ď":220,"Đ":221,"đ":222,"Ē":223,"ē":224,"Ĕ":225,"ĕ":226,"Ė":227,"ė":228,"Ę":229,"ę":230,"Ě":231,"ě":232,"Ĝ":233,"ĝ":234,"Ğ":235,"ğ":236,"Ġ":237,"ġ":238,"Ģ":239,"ģ":240,"Ĥ":241,"ĥ":242,"Ħ":243,"ħ":244,"Ĩ":245,"ĩ":246,"Ī":247,"ī":248,"Ĭ":249,"ĭ":250,"Į":251,"į":252,"İ":253,"ı":254,"Ĳ":255,"ĳ":256,"Ĵ":257,"ĵ":258,"Ķ":259,"ķ":260,"ĸ":261,"Ĺ":262,"ĺ":263,"Ļ":264,"ļ":265,"Ľ":266,"ľ":267,"Ŀ":268,"ŀ":269,"Ł":270,"ł":271,"Ń":272,"Ġt":273,"Ġa":274,"Ġth":275,"Ġi":276,"Ġthe":277,"Ġs":278,"er":279,"Ġw":280,"Ġo":281,"in":282,"Ġ.":283,"re":284,"Ġb":285,"nd":286,"Ġh":287,"Ġ,":288,"Ġc":289,"Ġf":290,"Ġm":291,"at":292,"ou":293,"Ġp":294,"ing":295,"or":296,"Ġto":297,"es":298,"en":299,"on":300,"Ġd":301,"ed":302,"Ġand":303,"Ġn":304,"is":305,"Ġl":306,"it":307,"ll":308,"ar":309,"as":310,"ot":311,"Ġof":312,"an":313,"Ġin":314,"Ġis":315,"Ġit":316,"Ġg":317,"Ġre":318,"om":319,"Ġe":320,"le":321,"ic":322,"ut":323,"ve":324,"Ġ[":325,"us":326,"Ġbe":327,"Ġon":328,"Ġnot":329,"Ġwh":330,"Ġha":331,"ly":332,"oo":333,"al":334,"Ġthat":335,"Ġy":336,"ac":337,"Ġthis":338,"Ġst":339,"ver":340,"et":341,"Ġfor":342,"ion":343,"ow":344,"BE":345,"MBE":346,"NU":347,"MBER":348,"NUMBER":349,"gh":350,"ter":351,"ld":352,"ad":353,"Ġyou":354,"ith":355,"ent":356,"ay":357,"Ġwith":358,"id":359,"Ġwas":360,"ro":361,"all":362,"ct":363,"ook":364,"st":365,"Ġu":366,"Ġan":367,"ke":368,"Ġbut":369,"se":370,"ch":371,"Ġhave":372,"Ġsh":373,"Ġas":374,"ri":375,"th":376,"Ġli":377,"am":378,"ir":379,"Ġch":380,"im":381,"Ġdo":382,"ur":383,"Ġare":384,"Ġmy":385,"Ġhe":386,"Ġse":387,"ould":388,"Ġj":389,"ce":390,"ill":391,"Ġbook":392,"Ġmo":393,"Ġso":394,"ght":395,"Ġr":396,"Ġwe":397,"pp":398,"ally":399,"Ġne":400,"Ġal":401,"ble":402,"ust":403,"il":404,"Ġde":405,"Ġex":406,"Ġpro":407,"Ġat":408,"ie":409,"Ġcom":410,"Ġor":411,"ag":412,"Ġme":413,"Ġfr":414,"Ġher":415,"Ġk":416,"Ġcon":417,"Ġus":418,"Ġwor":419,"pe":420,"Ġam":421,"Ġthey":422,"out":423,"Ġsu":424,"very":425,"Ġone":426,"ain":427,"Ġsom":428,"ul":429,"est":430,"ers":431,"ess":432,"Ġall":433,"Ġab":434,"ant":435,"ack":436,"qu":437,"Ġwill":438,"Ġwould":439,"em":440,"el":441,"Ġpl":442,"Ġfrom":443,"Ġif":444,"Ġread":445,"Ġout":446,"Ġv":447,"ist":448,"Ġup":449,"Ġtr":450,"ation":451,"Ġcan":452,"Ġlike":453,"art":454,"her":455,"ol":456,"ate":457,"one":458,"ough":459,"ap":460,"Ġno":461,"um":462,"Ġjust":463,"Ġlo":464,"Ġun":465,"un":466,"Ġthere":467,"ive":468,"ere":469,"Ġabout":470,"ak":471,"ard":472,"if":473,"Ġle":474,"Ġget":475,"op":476,"ood":477,"Ġsome":478,"and":479,"Ġfe":480,"ind":481,"ast":482,"ound":483,"ure":484,"Ġhas":485,"Ġshe":486,"Ġmore":487,"Ġtim":488,"Ġwhen":489,"ort":490,"Ġen":491,"Ġhis":492,"Ġhad":493,"ice":494,"Ġ!":495,"Ġby":496,"ig":497,"ies":498,"ory":499,"Ġwhat":500,"ong":501,"ven":502,"Ġvery":503,"ect":504,"Ġhow":505,"Ġwho":506,"Ġoth":507,"Ġthem":508,"Ġbec":509,"Ġqu":510,"Ġany":511,"ame":512,"Ġwork":513,"Ġgo":514,"able":515,"Ġint":516,"ich":517,"Ġpre":518,"ge":519,"ight":520,"ity":521,"os":522,"Ġdid":523,"are":524,"Ġco":525,"Ġman":526,"Ġad":527,"Ġchar":528,"KN":529,"NKN":530,"OW":531,"UNKN":532,"OWN":533,"UNKNOWN":534,"reat":535,"ck":536,"ake":537,"Ġpr":538,"ous":539,"Ġcomp":540,"aus":541,"Ġgood":542,"ine":543,"ite":544,"Ġtime":545,"itt":546,"Ġother":547,"vie":548,"Ġthan":549,"ide":550,"pt":551,"Ġwr":552,"Ġkn":553,"Ġdis":554,"Ġaf":555,"act":556,"Ġwhich":557,"Ġcl":558,"..":559,"Ġover":560,"ause":561,"Ġstory":562,"Ġyour":563,"Ġ...":564,"ars":565,"so":566,"Ġsc":567,"ab":568,"ore":569,"Ġte":570,"Ġonly":571,"Ġdoes":572,"Ġar":573,"Ġbecause":574,"Ġreally":575,"Ġwere":576,"Ġtheir":577,"ire":578,"Ġmu":579,"Ġwell":580,"AD":581,"BAD":582,"Ġfir":583,"ick":584,"pl":585,"uct":586,"Ġeven":587,"end":588,"ink":589,"hing":590,"Ġthese":591,"iv":592,"Ġbu":593,"Ġmuch":594,"Ġalso":595,"int":596,"lf":597,"Ġoff":598,"Ġtoo":599,"Ġfirst":600,"age":601,"Ġ?":602,"Ġtw":603,"Ġafter":604,"Ġpo":605,"ase":606,"ue":607,"our":608,"Ġrec":609,"Ġlook":610,"Ġback":611,"Ġwant":612,"ach":613,"Ġbet":614,"Ġcould":615,"per":616,"ions":617,"acter":618,"ud":619,"own":620,"Ġcharacter":621,"Ġgreat":622,"Ġsp":623,"ip":624,"Ġim":625,"iz":626,"ment":627,"ings":628,"Ġbr":629,"view":630,"Ġinto":631,"Ġag":632,"Ġway":633,"vel":634,"ought":635,"Ġgr":636,"Ġbeen":637,"ss":638,"Ġbl":639,"ile":640,"Ġuse":641,"av":642,"nder":643,"nt":644,"Ġbo":645,"Ġser":646,"ep":647,"Ġevery":648,"Ġreview":649,"Ġke":650,"Ġthen":651,"Ġcont":652,"Ġye":653,"urn":654,"ace":655,"Ġthr":656,"Ġknow":657,"ish":658,"Ġdes":659,"fer":660,"Ġact":661,"Ġper":662,"Ġfl":663,"ays":664,"ose":665,"Ġend":666,"other":667,"Ġthink":668,"fe":669,"Ġpart":670,"Ġinter":671,"Ġnew":672,"Ġro":673,"Ġprod":674,"Ġneed":675,"uth":676,"ade":677,"Ġapp":678,"Ġph":679,"Ġtwo":680,"Ġpe":681,"ail":682,"Ġsee":683,"Ġlove":684,"ious":685,"ens":686,"ence":687,"Ġmost":688,"ial":689,"Ġsm":690,"Ġseem":691,"Ġinst":692,"ittle":693,"ance":694,"Ġlittle":695,"ry":696,"Ġstr":697,"ult":698,"Ġthrough":699,"Ġho":700,"Ġnow":701,"ass":702,"ull":703,"Ġac":704,"Ġproduct":705,"Ġspe":706,"Ġfind":707,"ated":708,"ical":709,"ans":710,"oy":711,"Ġdif":712,"Ġauth":713,"Ġmake":714,"Ġmany":715,"oth":716,"ting":717,"Ġsa":718,"wn":719,"ater":720,"Ġset":721,"Ġfeel":722,"ree":723,"ved":724,"Ġauthor":725,"Ġsomet":726,"ful":727,"ict":728,"pect":729,"az":730,"Ġri":731,"self":732,"Ġstill":733,"ily":734,"og":735,"orm":736,"Ġmay":737,"ving":738,"Ġwhile":739,"Ġdown":740,"igh":741,"Ġhim":742,"Ġits":743,"ang":744,"we":745,"Ġsl":746,"Ġgu":747,"ff":748,"co":749,"Ġbetter":750,"Ġres":751,"ft":752,"Ġhapp":753,"Ġpur":754,"Ġeas":755,"akes":756,"ually":757,"Ġpeop":758,"Ġlong":759,"ary":760,"Ġlife":761,"Ġinc":762,"Ġpeople":763,"Ġfo":764,"Ġcharacters":765,"not":766,"ome":767,"Ġagain":768,"ations":769,"der":770,"Ġstart":771,"ber":772,"Ġmade":773,"Ġunder":774,"Ġreal":775,"Ġaw":776,"atch":777,"Ġnever":778,"ves":779,"Ġshould":780,"Ġsay":781,"Ġwhere":782,"Ġtri":783,"Ġgot":784,"ple":785,"Ġbuy":786,"ra":787,"blem":788,"Ġrem":789,"Ġbeing":790,"Ġcannot":791,"Ġproblem":792,"Ġlot":793,"Ġput":794,"thing":795,"fore":796,"Ġplay":797,"te":798,"gin":799,"Ġtry":800,"ild":801,"ever":802,"vers":803,"ount":804,"Ġfew":805,"Ġhigh":806,"ub":807,"Ġbooks":808,"Ġimp":809,"ty":810,"Ġgoing":811,"ased":812,"ating":813,"Ġhel":814,"ark":815,"Ġanother":816,"ality":817,"atter":818,"Ġatt":819,"Ġown":820,"Ġdiffer":821,"Ġsame":822,"Ġhard":823,"Ġfin":824,"ign":825,"Ġhand":826,"ci":827,"Ġold":828,"Ġsomething":829,"ress":830,"Ġfound":831,"Ġpers":832,"Ġbefore":833,"Ġcle":834,"ise":835,"Ġrel":836,"ces":837,"Ġsim":838,"Ġbit":839,"Ġreading":840,"xt":841,"les":842,"app":843,"ning":844,"Ġcr":845,"ather":846,"Ġhowever":847,"Ġdec":848,"Ġhelp":849,"Ġsin":850,"ord":851,"Ġyears":852,"Ġmon":853,"Ġop":854,"omm":855,"Ġused":856,"Ġright":857,"air":858,"Ġem":859,"iting":860,"de":861,"Ġche":862,"Ġadd":863,"Ġinterest":864,"Ġjo":865,"Ġbel":866,"Ġthose":867,"Ġamaz":868,"Ġthing":869,"ents":870,"joy":871,"Ġpurch":872,"Ġsound":873,"Ġkeep":874,"Ġsupp":875,"Ġcase":876,"cess":877,"Ġenjoy":878,"Ġthings":879,"ower":880,"Ġthough":881,"aking":882,"ition":883,"Ġturn":884,"Ġins":885,"Ġthought":886,"ommend":887,"Ġseries":888,"Ġrecommend":889,"Ġenough":890,"Ġlight":891,"gg":892,"ors":893,"Ġbad":894,"Ġsince":895,"Ġperf":896,"ual":897,"Ġaround":898,"Ġcons":899,"Ġlast":900,"Ġpoint":901,"be":902,"Ġboth":903,"Ġperson":904,"Ġbest":905,"Ġfun":906,"ath":907,"get":908,"Ġmin":909,"Ġour":910,"Ġcar":911,"ason":912,"Ġdef":913,"Ġtake":914,"Ġdifferent":915,"Ġeach":916,"ph":917,"Ġsmall":918,"ia":919,"Ġwar":920,"Ġgl":921,"Ġquality":922,"Ġret":923,"Ġwhy":924,"ize":925,"Ġiss":926,"Ġsur":927,"Ġed":928,"ible":929,"riend":930,"less":931,"Ġhere":932,"Ġext":933,"Ġgive":934,"Ġwithout":935,"Ġfil":936,"Ġbig":937,"Ġdr":938,"ange":939,"Ġday":940,"Ġbought":941,"mo":942,"Ġev":943,"ave":944,"Ġsure":945,"ately":946,"ably":947,"bs":948,"Ġshow":949,"Ġworld":950,"Ġhead":951,"od":952,"Ġfam":953,"arly":954,"Ġnovel":955,"Ġinf":956,"au":957,"Ġpret":958,"ks":959,"vice":960,"Ġtimes":961,"Ġnice":962,"ian":963,"Ġsuch":964,"Ġcomple":965,"tain":966,"iss":967,"Ġfact":968,"ix":969,"Ġfit":970,"Ġfar":971,"Ġdet":972,"cond":973,"Ġpos":974,"Ġusing":975,"cept":976,"ool":977,"Ġexpect":978,"oint":979,"Ġorder":980,"Ġsecond":981,"Ġel":982,"Ġkind":983,"ages":984,"ature":985,"SD":986,"USD":987,"Ġcall":988,"Ġgen":989,"Ġmus":990,"fort":991,"red":992,"Ġpretty":993,"Ġseems":994,"Ġactually":995,"Ġlooking":996,"Ġmakes":997,"Ġfriend":998,"Ġind":999,"Ġeasy":1000,"Ġlet":1001,"read":1002,"gr":1003,"Ġtop":1004,"ward":1005,"ne":1006,"Ġphone":1007,"li":1008,"ween":1009,"lud":1010,"Ġcome":1011,"Ġacc":1012,"Ġbetween":1013,"nect":1014,"Ġdisapp":1015,"ics":1016,"ues":1017,"Ġexper":1018,"Ġrun":1019,"Ġrece":1020,"Ġscre":1021,"ways":1022,"Ġless":1023,"Ġdri":1024,"ons":1025,"Ġsy":1026,"ters":1027,"Ġbelie":1028,"ys":1029,"Ġreturn":1030,"ked":1031,"ead":1032,"Ġes":1033,"Ġgame":1034,"ott":1035,"ced":1036,"Ġcol":1037,"Ġstars":1038,"Ġyear":1039,"Ġcam":1040,"ience":1041,"cri":1042,"Ġamazon":1043,"Ġtell":1044,"llow":1045,"Ġrepl":1046,"Ġlist":1047,"Ġprice":1048,"ense":1049,"ically":1050,"Ġever":1051,"ger":1052,"ps":1053,"Ġfull":1054,"Ġmonth":1055,"Ġinclud":1056,"Ġreason":1057,"ib":1058,"Ġmight":1059,"Ġalways":1060,"stand":1061,"ren":1062,"ute":1063,"ative":1064,"Ġaway":1065,"Ġcare":1066,"ction":1067,"Ġty":1068,"Ġchild":1069,"Ġmain":1070,"Ġdisappoint":1071,"Ġmovie":1072,"Ġpower":1073,"ash":1074,"Ġconnect":1075,"Ġhaving":1076,"arn":1077,"Ġhold":1078,"Ġquite":1079,"Ġnothing":1080,"Ġonce":1081,"Ġsaid":1082,"Ġcou":1083,"most":1084,"Ġnext":1085,"oney":1086,"itten":1087,"Ġwatch":1088,"Ġworks":1089,"Ġside":1090,"Ġcover":1091,"Ġstand":1092,"Ġwom":1093,"ention":1094,"Ġopen":1095,"this":1096,"led":1097,"Ġma":1098,"Ġdisc":1099,"aw":1100,"io":1101,"ts":1102,"Ġsho":1103,"Ġwriting":1104,"Ġreviews":1105,"Ġz":1106,"astic":1107,"Ġperfect":1108,"Ġunit":1109,"ouse":1110,"Ġwo":1111,"hip":1112,"Ġwritten":1113,"Ġsub":1114,"Ġcomplete":1115,"itch":1116,"Ġmar":1117,"Ġworth":1118,"Ġable":1119,"vious":1120,"Ġrep":1121,"Ġwee":1122,"Ġanything":1123,"Ġmoney":1124,"Ġsk":1125,"Ġwater":1126,"Ġsong":1127,"Ġalmost":1128,"Ġshort":1129,"Ġdescri":1130,"Ġinteresting":1131,"ipp":1132,"Ġinv":1133,"Ġdefin":1134,"Ġbatter":1135,"Ġunt":1136,"Ġprot":1137,"Ġter":1138,"Ġprob":1139,"Ġsol":1140,"Ġplace":1141,"Ġhist":1142,"Ġfilm":1143,"Ġbox":1144,"Ġsw":1145,"Ġthree":1146,"ories":1147,"Ġhum":1148,"Ġplot":1149,"Ġgetting":1150,"Ġreg":1151,"Ġide":1152,"Ġori":1153,"Ġleft":1154,"Ġwanted":1155,"Ġexpl":1156,"Ġlar":1157,"Ġalb":1158,"uck":1159,"Ġcomm":1160,"Ġeverything":1161,"ates":1162,"Ġtoget":1163,"Ġtogether":1164,"ness":1165,"Ġchr":1166,"Ġpict":1167,"Ġsever":1168,"Ġpie":1169,"alk":1170,"Ġhappen":1171,"Ġent":1172,"Ġcor":1173,"Ġtrying":1174,"Ġprobably":1175,"elt":1176,"Ġpicture":1177,"Ġcame":1178,"Ġalbum":1179,"aps":1180,"Ġmusic":1181,"Ġfamily":1182,"Ġstar":1183,"ten":1184,"Ġunderstand":1185,"ided":1186,"Ġwa":1187,"ither":1188,"Ġcoll":1189,"me":1190,"Ġpack":1191,"ner":1192,"Ġprov":1193,"Ġbegin":1194,"Ġexp":1195,"Ġuntil":1196,"ived":1197,"pr":1198,"Ġquick":1199,"bo":1200,"Ġhome":1201,"Ġconf":1202,"Ġyet":1203,"Ġbre":1204,"Ġvers":1205,"als":1206,"ush":1207,"Ġfelt":1208,"Ġpres":1209,"Ġorigin":1210,"Ġdesign":1211,"Ġtried":1212,"Ġob":1213,"ell":1214,"uring":1215,"Ġref":1216,"Ġmet":1217,"Ġcomes":1218,"Ġmaybe":1219,"ject":1220,"Ġseveral":1221,"Ġsize":1222,"ds":1223,"Ġhour":1224,"Ġleast":1225,"ider":1226,"Ġbas":1227,"Ġfollow":1228,"Ġoverall":1229,"Ġhon":1230,"ement":1231,"Ġwonder":1232,"Ġinstead":1233,"Ġscreen":1234,"Ġear":1235,"ied":1236,"Ġmust":1237,"Ġeff":1238,"Ġmiss":1239,"Ġtook":1240,"Ġsch":1241,"ug":1242,"Ġothers":1243,"Ġdone":1244,"ides":1245,"ets":1246,"Ġdays":1247,"Ġpast":1248,"Ġsomeone":1249,"fic":1250,"Ġrom":1251,"cially":1252,"ruct":1253,"Ġinstall":1254,"ular":1255,"iter":1256,"ale":1257,"ows":1258,"up":1259,"ility":1260,"ives":1261,"Ġform":1262,"ited":1263,"aph":1264,"Ġfree":1265,"arch":1266,"Ġrather":1267,"Ġchap":1268,"Ġreader":1269,"Ġdefinite":1270,"Ġreceived":1271,"Ġsty":1272,"Ġeng":1273,"Ġfine":1274,"Ġcour":1275,"Ġhope":1276,"Ġbott":1277,"ng":1278,"ock":1279,"era":1280,"Ġscen":1281,"Ġhalf":1282,"Ġsupport":1283,"Ġconc":1284,"Ġfall":1285,"Ġwhole":1286,"Ġloved":1287,"Ġpurchased":1288,"Ġespe":1289,"Ġinform":1290,"though":1291,"Ġappe":1292,"Ġespecially":1293,"Ġcer":1294,"augh":1295,"osed":1296,"ier":1297,"Ġmind":1298,"Ġgir":1299,"Ġspec":1300,"Ġav":1301,"Ġfan":1302,"Ġdefinitely":1303,"aut":1304,"man":1305,"eric":1306,"Ġdire":1307,"Ġanyone":1308,"Ġhappy":1309,"ton":1310,"Ġple":1311,"Ġpol":1312,"Ġwent":1313,"Ġeither":1314,"Ġlearn":1315,"Ġele":1316,"ont":1317,"ster":1318,"Ġcontro":1319,"Ġnum":1320,"Ġhonest":1321,"Ġcap":1322,"Ġline":1323,"dy":1324,"avor":1325,"Ġalthough":1326,"Ġmonths":1327,"Ġdetail":1328,"ired":1329,"Ġchrist":1330,"Ġsuper":1331,"Ġcheap":1332,"ling":1333,"Ġpages":1334,"Ġjob":1335,"wh":1336,"Ġart":1337,"Ġgi":1338,"Ġreplac":1339,"ments":1340,"Ġstarted":1341,"olog":1342,"its":1343,"ware":1344,"Ġbri":1345,"Ġcouple":1346,"Ġdeal":1347,"Ġblack":1348,"Ġexam":1349,"ubl":1350,"Ġcut":1351,"arent":1352,"Ġrest":1353,"ished":1354,"Ġelse":1355,"Ġpick":1356,"Ġitem":1357,"Ġport":1358,"ized":1359,"Ġbro":1360,"Ġprotect":1361,"Ġissues":1362,"Ġheart":1363,"Ġkid":1364,"Ġmod":1365,"ready":1366,"Ġplastic":1367,"day":1368,"Ġalready":1369,"Ġissue":1370,"Ġhor":1371,"Ġstories":1372,"ently":1373,"Ġsing":1374,"Ġbelieve":1375,"velop":1376,"Ġmaking":1377,"Ġbag":1378,"the":1379,"Ġtrans":1380,"ully":1381,"Ġquest":1382,"ames":1383,"Ġstrong":1384,"Ġet":1385,"Ġpri":1386,"Ġsec":1387,"ared":1388,"Ġcertain":1389,"ional":1390,"Ġclean":1391,"Ġstud":1392,"ines":1393,"Ġgets":1394,"Ġnight":1395,"Ġok":1396,"Ġpain":1397,"ugg":1398,"Ġliked":1399,"Ġmag":1400,"ret":1401,"Ġass":1402,"Ġfig":1403,"Ġtakes":1404,"Ġworking":1405,"ption":1406,"Ġtech":1407,"Ġdevelop":1408,"Ġcompan":1409,"oc":1410,"Ġfeature":1411,"Ġgirl":1412,"uff":1413,"ised":1414,"Ġbattery":1415,"ific":1416,"Ġgener":1417,"ones":1418,"Ġlooks":1419,"Ġpubl":1420,"Ġpage":1421,"Ġmyself":1422,"Ġfinally":1423,"Ġcompletely":1424,"Ġabs":1425,"arr":1426,"att":1427,"Ġcard":1428,"Ġste":1429,"Ġpass":1430,"Ġconsider":1431,"Ġclass":1432,"ism":1433,"here":1434,"Ġbeaut":1435,"Ġproblems":1436,"Ġann":1437,"Ġtrue":1438,"Ġpoor":1439,"aring":1440,"Ġadv":1441,"Ġsoft":1442,"Ġmark":1443,"ove":1444,"Ġoriginal":1445,"Ġversion":1446,"Ġwrong":1447,"Ġdisappointed":1448,"Ġeasily":1449,"Ġsn":1450,"Ġvie":1451,"Ġcolor":1452,"Ġalong":1453,"Ġmean":1454,"ustom":1455,"Ġetc":1456,"Ġcreat":1457,"res":1458,"Ġview":1459,"Ġfriends":1460,"stem":1461,"Ġcop":1462,"Ġyoung":1463,"ross":1464,"ote":1465,"Ġexperience":1466,"Ġposs":1467,"ah":1468,"Ġkey":1469,"Ġworked":1470,"Ġplan":1471,"Ġexc":1472,"Ġcontin":1473,"Ġdiffic":1474,"Ġcamera":1475,"Ġdifficult":1476,"Ġitself":1477,"line":1478,"Ġameric":1479,"Ġsystem":1480,"cc":1481,"Ġhouse":1482,"Ġmed":1483,"ank":1484,"Ġrelations":1485,"ny":1486,"Ġlead":1487,"Ġcur":1488,"ife":1489,"Ġcustom":1490,"Ġmid":1491,"Ġdist":1492,"Ġgiven":1493,"Ġlive":1494,"Ġfigure":1495,"Ġenjoyed":1496,"Ġlarge":1497,"Ġinformation":1498,"Ġhu":1499,"ird":1500,"Ġmater":1501,"ew":1502,"Ġtrack":1503,"Ġupd":1504,"utes":1505,"Ġpurchase":1506,"Ġdep":1507,"Ġduring":1508,"Ġentire":1509,"Ġgoes":1510,"Ġfavor":1511,"Ġwind":1512,"pped":1513,"Ġstyle":1514,"Ġpartic":1515,"ists":1516,"Ġcompl":1517,"cy":1518,"Ġoften":1519,"Ġson":1520,"Ġmaterial":1521,"Ġsurpr":1522,"Ġrelationship":1523,"Ġphot":1524,"mm":1525,"Ġconst":1526,"ouch":1527,"Ġsit":1528,"Ġmom":1529,"Ġap":1530,"Ġvide":1531,"Ġchang":1532,"Ġmem":1533,"Ġlater":1534,"Ġred":1535,"Ġhistory":1536,"Ġcourse":1537,"Ġrecord":1538,"Ġdirect":1539,"Ġbeh":1540,"ply":1541,"Ġidea":1542,"unately":1543,"Ġseemed":1544,"ities":1545,"Ġneeded":1546,"Ġcost":1547,"Ġimport":1548,"ted":1549,"ots":1550,"ices":1551,"gan":1552,"Ġhours":1553,"Ġfail":1554,"Ġyes":1555,"Ġfair":1556,"Ġtest":1557,"oice":1558,"med":1559,"Ġlack":1560,"Ġgre":1561,"Ġspeak":1562,"Ġlisten":1563,"iness":1564,"Ġsimply":1565,"els":1566,"Ġsometim":1567,"Ġexce":1568,"Ġclear":1569,"ences":1570,"ract":1571,"Ġrele":1572,"Ġvol":1573,"ams":1574,"Ġlevel":1575,"ller":1576,"Ġrequ":1577,"Ġband":1578,"itive":1579,"fully":1580,"Ġmention":1581,"Ġhero":1582,"Ġunfort":1583,"lling":1584,"ustr":1585,"Ġdoing":1586,"dd":1587,"Ġmove":1588,"Ġcre":1589,"ume":1590,"Ġwish":1591,"Ġsent":1592,"ump":1593,"Ġminutes":1594,"iet":1595,"Ġchange":1596,"Ġpull":1597,"Ġinside":1598,"Ġbottom":1599,"aster":1600,"Ġroom":1601,"Ġlow":1602,"Ġpar":1603,"Ġtold":1604,"Ġsometimes":1605,"Ġpay":1606,"Ġwoman":1607,"Ġhop":1608,"Ġbreak":1609,"Ġval":1610,"Ġhot":1611,"que":1612,"Ġdevice":1613,"Ġdark":1614,"Ġcomput":1615,"ric":1616,"Ġaud":1617,"Ġx":1618,"Ġcount":1619,"Ġpiece":1620,"ensive":1621,"iving":1622,"Ġer":1623,"Ġloc":1624,"ats":1625,"Ġguess":1626,"Ġgave":1627,"Ġmess":1628,"Ġfour":1629,"uc":1630,"Ġtot":1631,"Ġmyster":1632,"Ġbeautif":1633,"Ġtv":1634,"Ġdog":1635,"Ġvar":1636,"ution":1637,"Ġschool":1638,"Ġclose":1639,"Ġmen":1640,"Ġdra":1641,"Ġstick":1642,"ains":1643,"ape":1644,"Ġneeds":1645,"ient":1646,"Ġsense":1647,"Ġopin":1648,"Ġago":1649,"reme":1650,"Ġheav":1651,"Ġservice":1652,"Ġcontrol":1653,"Ġparts":1654,"Ġcompany":1655,"Ġsign":1656,"Ġprevious":1657,"way":1658,"Ġcheck":1659,"Ġprof":1660,"Ġey":1661,"cus":1662,"board":1663,"Ġsus":1664,"Ġstay":1665,"Ġair":1666,"Ġchildren":1667,"Ġvis":1668,"Ġexact":1669,"Ġang":1670,"Ġunfortunately":1671,"Ġexcell":1672,"antly":1673,"Ġfa":1674,"Ġtouch":1675,"Ġcomfort":1676,"Ġperform":1677,"Ġinstruct":1678,"Ġromance":1679,"Ġlonger":1680,"Ġbuild":1681,"Ġfast":1682,"amp":1683,"Ġswe":1684,"Ġbrand":1685,"Ġpress":1686,"Ġstore":1687,"Ġdecided":1688,"Ġeveryone":1689,"Ġself":1690,"Ġdro":1691,"Ġextreme":1692,"Ġbus":1693,"Ġseen":1694,"Ġpop":1695,"Ġdv":1696,"side":1697,"Ġfront":1698,"Ġbased":1699,"Ġstep":1700,"Ġwithin":1701,"Ġtra":1702,"Ġcalled":1703,"Ġmatter":1704,"br":1705,"Ġsongs":1706,"Ġenter":1707,"Ġgri":1708,"ying":1709,"ms":1710,"Ġdev":1711,"ond":1712,"Ġlost":1713,"Ġtechn":1714,"eng":1715,"Ġordered":1716,"Ġ%":1717,"Ġfill":1718,"king":1719,"Ġtype":1720,"Ġones":1721,"Ġtit":1722,"Ġsad":1723,"Ġexcellent":1724,"Ġslow":1725,"Ġpa":1726,"aged":1727,"Ġcd":1728,"Ġexcept":1729,"Ġir":1730,"Ġtyp":1731,"empt":1732,"rible":1733,"Ġrese":1734,"Ġwrite":1735,"Ġprin":1736,"Ġaction":1737,"Ġpresent":1738,"Ġmother":1739,"Ġresult":1740,"Ġserious":1741,"Ġhighly":1742,"where":1743,"raph":1744,"Ġspend":1745,"ins":1746,"Ġstop":1747,"aper":1748,"ane":1749,"Ġbor":1750,"Ġtext":1751,"iction":1752,"tern":1753,"Ġquickly":1754,"Ġstuff":1755,"Ġnorm":1756,"Ġwhite":1757,"olute":1758,"Ġsimple":1759,"Ġuni":1760,"Ġdou":1761,"Ġtalk":1762,"ern":1763,"Ġcomputer":1764,"Ġsle":1765,"Ġbi":1766,"Ġbuying":1767,"Ġweek":1768,"Ġwomen":1769,"Ġnumber":1770,"Ġmach":1771,"Ġmount":1772,"Ġnon":1773,"Ġchapter":1774,"Ġsat":1775,"Ġve":1776,"Ġabsolute":1777,"haps":1778,"ilar":1779,"Ġvideo":1780,"Ġpair":1781,"Ġfant":1782,"Ġprint":1783,"istic":1784,"Ġperhaps":1785,"Ġdue":1786,"Ġobvious":1787,"Ġmaj":1788,"Ġupdate":1789,"oose":1790,"Ġname":1791,"Ġreaders":1792,"dle":1793,"Ġbar":1794,"Ġeffect":1795,"sy":1796,"ined":1797,"Ġplac":1798,"band":1799,"Ġbecome":1800,"Ġkept":1801,"Ġfood":1802,"Ġill":1803,"Ġmot":1804,"Ġtal":1805,"Ġwords":1806,"Ġkill":1807,"Ġprom":1808,"uly":1809,"light":1810,"iced":1811,"Ġcopy":1812,"Ġending":1813,"Ġcollect":1814,"ork":1815,"Ġemot":1816,"rod":1817,"Ġagainst":1818,"Ġpersonal":1819,"Ġsaw":1820,"Ġimag":1821,"Ġamazing":1822,"Ġresp":1823,"rect":1824,"Ġfavorite":1825,"Ġmajor":1826,"just":1827,"Ġimportant":1828,"ures":1829,"ror":1830,"Ġfocus":1831,"Ġforward":1832,"Ġfather":1833,"Ġannoy":1834,"Ġocc":1835,"Ġsays":1836,"Ġextra":1837,"Ġsugg":1838,"Ġsuggest":1839,"Ġaddition":1840,"aughter":1841,"Ġcustomer":1842,"Ġhappened":1843,"uss":1844,"ident":1845,"Ġthinking":1846,"Ġsupposed":1847,"Ġfeels":1848,"Ġwire":1849,"Ġnarr":1850,"Ġbeautiful":1851,"Ġboy":1852,"Ġfut":1853,"Ġdi":1854,"Ġcook":1855,"Ġwear":1856,"lo":1857,"Ġrock":1858,"Ġexample":1859,"Ġappro":1860,"Ġkids":1861,"Ġcool":1862,"Ġfre":1863,"Ġhuman":1864,"Ġadm":1865,"sel":1866,"Ġwall":1867,"Ġweeks":1868,"Ġsingle":1869,"Ġmor":1870,"Ġswitch":1871,"Ġresearch":1872,"Ġfix":1873,"Ġsoon":1874,"Ġtable":1875,"Ġsou":1876,"aim":1877,"Ġsuc":1878,"Ġdrive":1879,"book":1880,"ooth":1881,"Ġslight":1882,"ef":1883,"ips":1884,"Ġbeginning":1885,"ained":1886,"oss":1887,"Ġallow":1888,"Ġprogr":1889,"Ġnote":1890,"Ġwait":1891,"Ġsort":1892,"Ġattempt":1893,"Ġbutton":1894,"Ġleav":1895,"Ġid":1896,"Ġreplacement":1897,"Ġhus":1898,"Ġarri":1899,"land":1900,"ipping":1901,"und":1902,"Ġdeath":1903,"Ġwants":1904,"Ġopinion":1905,"Ġguy":1906,"Ġextremely":1907,"Ġimpress":1908,"Ġwife":1909,"Ġliter":1910,"Ġhuge":1911,"Ġge":1912,"Ġcoming":1913,"Ġdvd":1914,"aken":1915,"Ġprocess":1916,"Ġoffer":1917,"ases":1918,"ior":1919,"Ġhar":1920,"eless":1921,"Ġexpected":1922,"Ġhol":1923,"Ġtight":1924,"Ġnor":1925,"Ġsend":1926,"Ġmult":1927,"Ġdisco":1928,"Ġtoday":1929,"Ġjack":1930,"Ġdead":1931,"ister":1932,"Ġshows":1933,"ging":1934,"Ġpract":1935,"Ġlives":1936,"Ġhusband":1937,"Ġheavy":1938,"ances":1939,"Ġtruly":1940,"Ġhands":1941,"Ġgives":1942,"apt":1943,"rent":1944,"Ġpaper":1945,"Ġface":1946,"Ġmil":1947,"ming":1948,"Ġleave":1949,"Ġrefer":1950,"ator":1951,"itting":1952,"Ġfuture":1953,"Ġmic":1954,"Ġcontact":1955,"rant":1956,"ney":1957,"Ġword":1958,"Ġtaking":1959,"Ġrunning":1960,"Ġscenes":1961,"aging":1962,"Ġmr":1963,"Ġproper":1964,"ology":1965,"phone":1966,"sw":1967,"bed":1968,"Ġabsolutely":1969,"Ġdesp":1970,"Ġweight":1971,"Ġcertainly":1972,"Ġcable":1973,"Ġpost":1974,"ann":1975,"Ġnet":1976,"ken":1977,"Ġintern":1978,"ML":1979,"XML":1980,"fact":1981,"Ġhear":1982,"Ġrid":1983,"ember":1984,"Ġmis":1985,"Ġdaughter":1986,"Ġmeans":1987,"Ġamount":1988,"Ġparent":1989,"Ġsimilar":1990,"Ġplus":1991,"Ġexactly":1992,"Ġturned":1993,"Ġattach":1994,"Ġaff":1995,"Ġgiving":1996,"Ġfore":1997,"ien":1998,"Ġmodel":1999,"mb":2000,"Ġben":2001,"Ġadjust":2002,"Ġincluded":2003,"Ġthroughout":2004,"Ġbusiness":2005,"Ġknew":2006,"Ġmix":2007,"ising":2008,"play":2009,"Ġwin":2010,"Ġsoftware":2011,"aining":2012,"ilt":2013,"ried":2014,"Ġleg":2015,"Ġusually":2016,"Ġvolume":2017,"atic":2018,"Ġevent":2019,"Ġfive":2020,"Ġinstructions":2021,"Ġavail":2022,"Ġsetting":2023,"Ġamerican":2024,"Ġmiddle":2025,"Ġwonderful":2026,"Ġbed":2027,"Ġcharge":2028,"Ġdeep":2029,"selves":2030,"ax":2031,"Ġsave":2032,"Ġintrod":2033,"Ġcorrect":2034,"Ġlooked":2035,"Ġansw":2036,"irt":2037,"ograph":2038,"Ġapart":2039,"Ġmachine":2040,"Ġgrou":2041,"Ġplaying":2042,"Ġwalk":2043,"Ġthird":2044,"Ġopp":2045,"Ġage":2046,"unch":2047,"Ġep":2048,"ural":2049,"Ġbecom":2050,"oud":2051,"Ġmystery":2052,"Ġenc":2053,"Ġdre":2054,"ored":2055,"Ġspo":2056,"Ġearly":2057,"Ġhimself":2058,"asing":2059,"Ġbehind":2060,"Ġla":2061,"Ġusb":2062,"ffe":2063,"medi":2064,"Ġproducts":2065,"ged":2066,"what":2067,"Ġpieces":2068,"ray":2069,"Ġauthors":2070,"Ġtrou":2071,"ether":2072,"ites":2073,"lt":2074,"Ġtem":2075,"Ġheard":2076,"Ġfunction":2077,"Ġincluding":2078,"lect":2079,"ges":2080,"lus":2081,"anger":2082,"alth":2083,"Ġspace":2084,"Ġpan":2085,"Ġsitu":2086,"Ġtool":2087,"vert":2088,"hn":2089,"Ġdraw":2090,"Ġbody":2091,"Ġrub":2092,"Ġunless":2093,"Ġinvol":2094,"Ġfeeling":2095,"Ġprogram":2096,"Ġmetal":2097,"Ġsolid":2098,"Ġpictures":2099,"Ġsumm":2100,"Ġfoot":2101,"Ġtravel":2102,"Ġcal":2103,"Ġhistor":2104,"ert":2105,"Ġsuccess":2106,"ured":2107,"Ġfur":2108,"ptions":2109,"Ġtreat":2110,"Ġremember":2111,"Ġinvest":2112,"Ġyourself":2113,"Ġequ":2114,"Ġcomfortable":2115,"Ġhandle":2116,"Ġpossible":2117,"Ġimmedi":2118,"Ġoutside":2119,"Ġfinish":2120,"Ġcoffe":2121,"Ġentertain":2122,"ex":2123,"pping":2124,"Ġjour":2125,"Ġacross":2126,"Ġdam":2127,"Ġavailable":2128,"Ġscr":2129,"Ġimpro":2130,"Ġcurrent":2131,"Ġsubject":2132,"Ġsens":2133,"Ġrad":2134,"Ġtitle":2135,"Ġarea":2136,"Ġpot":2137,"ield":2138,"Ġaut":2139,"Ġsounds":2140,"Ġluck":2141,"Ġfrustr":2142,"Ġdeli":2143,"ination":2144,"ison":2145,"ires":2146,"Ġdespite":2147,"Ġcond":2148,"owing":2149,"Ġfight":2150,"Ġdecent":2151,"pend":2152,"ential":2153,"Ġspecial":2154,"ially":2155,"Ġstandard":2156,"Ġliving":2157,"phones":2158,"Ġherself":2159,"ibly":2160,"Ġmine":2161,"Ġvoice":2162,"cks":2163,"ho":2164,"ther":2165,"ky":2166,"Ġlim":2167,"ina":2168,"Ġmist":2169,"Ġdem":2170,"Ġoh":2171,"Ġjohn":2172,"Ġthin":2173,"cial":2174,"Ġelect":2175,"Ġtast":2176,"umb":2177,"Ġdig":2178,"par":2179,"Ġunc":2180,"Ġsav":2181,"my":2182,"ung":2183,"Ġtaken":2184,"Ġprofess":2185,"Ġcoffee":2186,"ital":2187,"itor":2188,"iny":2189,"Ġra":2190,"Ġcat":2191,"Ġplease":2192,"Ġfiction":2193,"Ġgar":2194,"by":2195,"Ġip":2196,"Ġknown":2197,"Ġpen":2198,"Ġsto":2199,"Ġinch":2200,"Ġreplace":2201,"Ġpurp":2202,"Ġdial":2203,"Ġneg":2204,"ued":2205,"Ġant":2206,"Ġclaim":2207,"kes":2208,"Ġblue":2209,"ift":2210,"Ġaccess":2211,"Ġended":2212,"Ġflo":2213,"Ġplayer":2214,"Ġinterested":2215,"Ġwarrant":2216,"Ġbring":2217,"Ġknows":2218,"Ġcent":2219,"Ġsearch":2220,"Ġlab":2221,"Ġtre":2222,"Ġgames":2223,"Ġsaying":2224,"like":2225,"Ġdescription":2226,"Ġmoder":2227,"lish":2228,"Ġmanu":2229,"Ġhit":2230,"Ġfeet":2231,"Ġannoying":2232,"Ġexch":2233,"Ġstrugg":2234,"Ġspent":2235,"Ġfeatures":2236,"Ġtown":2237,"Ġflaw":2238,"Ġkeyboard":2239,"Ġbul":2240,"Ġturns":2241,"Ġpolit":2242,"Ġthemselves":2243,"Ġlay":2244,"Ġquestion":2245,"Ġeffort":2246,"Ġalone":2247,"Ġwaste":2248,"Ġball":2249,"Ġfans":2250,"let":2251,"Ġhappens":2252,"Ġactual":2253,"Ġtotally":2254,"Ġrating":2255,"Ġcomplain":2256,"son":2257,"Ġconnection":2258,"Ġmanufact":2259,"Ġcaus":2260,"ants":2261,"Ġsil":2262,"Ġfire":2263,"Ġtoward":2264,"Ġchance":2265,"ime":2266,"Ġpad":2267,"gn":2268,"Ġstra":2269,"oid":2270,"wise":2271,"Ġmeet":2272,"Ġappre":2273,"ularly":2274,"cum":2275,"Ġstre":2276,"Ġchapters":2277,"Ġclearly":2278,"Ġconfus":2279,"ivid":2280,"ler":2281,"arely":2282,"Ġpock":2283,"face":2284,"Ġflat":2285,"Ġglass":2286,"Ġmissing":2287,"Ġwriter":2288,"Ġbab":2289,"Ġstarts":2290,"Ġregard":2291,"Ġexpensive":2292,"Ġdoor":2293,"Ġmostly":2294,"Ġwhether":2295,"Ġpat":2296,"Ġquestions":2297,"Ġoper":2298,"Ġnear":2299,"Ġabove":2300,"ium":2301,"Ġcult":2302,"Ġsomewhat":2303,"Ġgroup":2304,"Ġperfectly":2305,"Ġupon":2306,"Ġaudio":2307,"ational":2308,"Ġcir":2309,"Ġlang":2310,"Ġimmediately":2311,"Ġrich":2312,"ley":2313,"Ġperi":2314,"Ġstraight":2315,"Ġpoints":2316,"oun":2317,"rib":2318,"ision":2319,"Ġpush":2320,"bers":2321,"Ġscene":2322,"Ġperiod":2323,"Ġappreci":2324,"Ġclos":2325,"Ġslightly":2326,"Ġconcept":2327,"Ġanyway":2328,"lly":2329,"Ġways":2330,"set":2331,"enty":2332,"Ġvi":2333,"Ġpet":2334,"Ġaccept":2335,"Ġfairly":2336,"ended":2337,"Ġsweet":2338,"load":2339,"lic":2340,"ground":2341,"Ġdetails":2342,"Ġhook":2343,"Ġcen":2344,"to":2345,"Ġspir":2346,"Ġadult":2347,"zz":2348,"Ġda":2349,"Ġcarry":2350,"Ġremo":2351,"ability":2352,"Ġdry":2353,"Ġnoticed":2354,"Ġcord":2355,"Ġlots":2356,"aptop":2357,"Ġlaptop":2358,"oof":2359,"Ġuses":2360,"ety":2361,"ength":2362,"Ġshoes":2363,"Ġmarket":2364,"Ġapparent":2365,"Ġbasically":2366,"Ġonline":2367,"Ġglad":2368,"Ġlength":2369,"Ġbrother":2370,"Ġbase":2371,"Ġled":2372,"Ġsett":2373,"Ġhoping":2374,"Ġvac":2375,"orn":2376,"Ġcomb":2377,"Ġdiscover":2378,"ises":2379,"Ġgone":2380,"Ġfurther":2381,"lex":2382,"Ġevents":2383,"Ġexchange":2384,"Ġlangu":2385,"Ġcommun":2386,"Ġworst":2387,"Ġsal":2388,"Ġmentioned":2389,"Ġbutt":2390,"Ġattention":2391,"Ġbroken":2392,"Ġcrit":2393,"ody":2394,"Ġkindle":2395,"Ġwood":2396,"ians":2397,"Ġparents":2398,"ples":2399,"Ġwarranty":2400,"Ġplug":2401,"agon":2402,"Ġess":2403,"back":2404,"Ġfamil":2405,"gy":2406,"Ġnormal":2407,"Ġbatteries":2408,"Ġprefer":2409,"Ġbright":2410,"Ġspeed":2411,"Ġvarious":2412,"uced":2413,"Ġolder":2414,"Ġworse":2415,"Ġmov":2416,"Ġmac":2417,"Ġult":2418,"Ġplayed":2419,"Ġlock":2420,"Ġconv":2421,"bsp":2422,"Ġshipping":2423,"Ġland":2424,"Ġfunny":2425,"Ġdest":2426,"Ġlaw":2427,"Ġgrand":2428,"Ġdiscuss":2429,"Ġcapt":2430,"Ġgeneral":2431,"unk":2432,"Ġcu":2433,"Ġdoub":2434,"Ġheadphones":2435,"Ġnbsp":2436,"Ġthank":2437,"Ġthick":2438,"Ġparticular":2439,"Ġnone":2440,"Ġflash":2441,"work":2442,"cing":2443,"Ġcollection":2444,"Ġcri":2445,"Ġsleep":2446,"Ġhate":2447,"Ġtruth":2448,"Ġcast":2449,"ring":2450,"Ġotherwise":2451,"Ġmovies":2452,"Ġends":2453,"rig":2454,"ulous":2455,"Ġlocal":2456,"ron":2457,"Ġuseful":2458,"Ġnotice":2459,"Ġnearly":2460,"Ġsold":2461,"Ġchristian":2462,"Ġnat":2463,"Ġweak":2464,"Ġpaid":2465,"Ġappear":2466,"Ġbasic":2467,"Ġfem":2468,"Ġking":2469,"Ġsatis":2470,"Ġputting":2471,"Ġmatch":2472,"ogue":2473,"Ġmouse":2474,"Ġbey":2475,"bing":2476,"Ġloose":2477,"Ġcountry":2478,"Ġmodern":2479,"Ġpositive":2480,"Ġbecame":2481,"Ġblu":2482,"Ġbatt":2483,"Ġokay":2484,"Ġincred":2485,"Ġms":2486,"Ġremote":2487,"Ġsusp":2488,"Ġtrip":2489,"Ġthri":2490,"Ġnovels":2491,"ury":2492,"Ġnecess":2493,"Ġwatching":2494,"Ġterrible":2495,"Ġtrust":2496,"ries":2497,"Ġprovide":2498,"Ġsam":2499,"Ġsepar":2500,"iple":2501,"Ġadvent":2502,"Ġdoll":2503,"Ġrange":2504,"ipped":2505,"Ġbuilt":2506,"Ġarrived":2507,"aly":2508,"Ġrepe":2509,"Ġcenter":2510,"Ġver":2511,"ese":2512,"vable":2513,"Ġbeyond":2514,"Ġdifference":2515,"Ġsor":2516,"Ġhang":2517,"Ġwindows":2518,"Ġprovided":2519,"Ġaspect":2520,"Ġhistorical":2521,"Ġattract":2522,"ery":2523,"Ġble":2524,"Ġsection":2525,"Ġlaugh":2526,"Ġburn":2527,"Ġsurv":2528,"Ġshar":2529,"Ġfinal":2530,"Ġeyes":2531,"Ġcra":2532,"Ġtrad":2533,"Ġhur":2534,"use":2535,"Ġproject":2536,"ishing":2537,"Ġlarger":2538,"Ġfits":2539,"Ġlog":2540,"Ġbecomes":2541,"Ġfully":2542,"Ġaccount":2543,"Ġboard":2544,"Ġlikely":2545,"Ġinit":2546,"Ġseeing":2547,"Ġlanguage":2548,"Ġobs":2549,"ective":2550,"Ġground":2551,"esome":2552,"mas":2553,"he":2554,"Ġphys":2555,"Ġhelpful":2556,"Ġsmaller":2557,"Ġanim":2558,"etic":2559,"min":2560,"Ġmaster":2561,"Ġwebs":2562,"lled":2563,"Ġrelease":2564,"Ġfing":2565,"Ġbackground":2566,"Ġparticularly":2567,"por":2568,"Ġchall":2569,"Ġphotos":2570,"Ġexist":2571,"Ġteen":2572,"Ġorgan":2573,"Ġanswer":2574,"Ġinde":2575,"Ġgreen":2576,"con":2577,"Ġtrouble":2578,"Ġchanged":2579,"ma":2580,"ades":2581,"Ġinstalled":2582,"Ġconcern":2583,"Ġvalue":2584,"Ġsour":2585,"urch":2586,"Ġmoving":2587,"Ġbal":2588,"iar":2589,"Ġly":2590,"Ġadded":2591,"Ġrecommended":2592,"Ġemail":2593,"Ġguide":2594,"Ġobviously":2595,"Ġexcited":2596,"Ġfinished":2597,"uce":2598,"Ġdram":2599,"Ġsurprised":2600,"Ġenglish":2601,"Ġunique":2602,"Ġaccur":2603,"aught":2604,"Ġremove":2605,"Ġdisplay":2606,"Ġfab":2607,"ding":2608,"Ġbroke":2609,"mer":2610,"Ġawesome":2611,"acy":2612,"Ġfinds":2613,"Ġdim":2614,"Ġsmooth":2615,"Ġedge":2616,"asy":2617,"Ġperformance":2618,"Ġdepth":2619,"na":2620,"Ġwhe":2621,"Ġcommon":2622,"ned":2623,"Ġspoil":2624,"Ġreturned":2625,"Ġcold":2626,"Ġfac":2627,"Ġmicro":2628,"Ġrelig":2629,"Ġeventually":2630,"Ġtend":2631,"Ġcred":2632,"Ġsister":2633,"ude":2634,"Ġchoice":2635,"itions":2636,"Ġdan":2637,"Ġboring":2638,"Ġdevelopment":2639,"Ġje":2640,"Ġpurpose":2641,"Ġmer":2642,"asure":2643,"pper":2644,"Ġhealth":2645,"Ġseller":2646,"Ġseason":2647,"Ġwide":2648,"Ġcart":2649,"Ġtale":2650,"Ġsmell":2651,"ension":2652,"Ġcity":2653,"Ġideas":2654,"azy":2655,"Ġstopped":2656,"ented":2657,"Ġkeeps":2658,"Ġhumor":2659,"Ġrev":2660,"Ġlens":2661,"izing":2662,"Ġguit":2663,"Ġloud":2664,"Ġmultiple":2665,"Ġasse":2666,"Ġappears":2667,"olution":2668,"Ġru":2669,"Ġest":2670,"Ġcompared":2671,"Ġcup":2672,"iff":2673,"apped":2674,"ledge":2675,"amed":2676,"Ġbill":2677,"Ġcab":2678,"Ġadvert":2679,"Ġguys":2680,"asc":2681,"Ġbuttons":2682,"Ġstuck":2683,"Ġeasier":2684,"Ġremind":2685,"Ġreach":2686,"Ġlights":2687,"iding":2688,"Ġhun":2689,"Ġcontinue":2690,"Ġprinter":2691,"Ġprem":2692,"Ġbaby":2693,"Ġrealize":2694,"Ġmoment":2695,"Ġintrig":2696,"Ġcontent":2697,"gress":2698,"eth":2699,"Ġlate":2700,"Ġgift":2701,"atever":2702,"Ġradio":2703,"Ġrecently":2704,"Ġreviewers":2705,"Ġident":2706,"Ġhd":2707,"Ġwhatever":2708,"ze":2709,"Ġgraph":2710,"Ġpsy":2711,"Ġplaces":2712,"Ġdesigned":2713,"Ġregular":2714,"Ġtells":2715,"Ġavoid":2716,"Ġsoci":2717,"Ġrubber":2718,"Ġscience":2719,"Ġsix":2720,"Ġseriously":2721,"Ġdownload":2722,"Ġposition":2723,"Ġpackage":2724,"Ġmill":2725,"Ġspirit":2726,"Ġsun":2727,"Ġbother":2728,"Ġcolle":2729,"for":2730,"Ġphil":2731,"Ġopening":2732,"Ġten":2733,"Ġchristmas":2734,"Ġitems":2735,"Ġcy":2736,"Ġability":2737,"Ġlad":2738,"Ġsmart":2739,"Ġdeter":2740,"Ġstate":2741,"Ġfollowing":2742,"ws":2743,"Ġpsych":2744,"Ġload":2745,"verage":2746,"Ġloves":2747,"Ġoccas":2748,"Ġwaiting":2749,"Ġindivid":2750,"Ġscratch":2751,"Ġtalking":2752,"arning":2753,"Ġinsight":2754,"Ġproperly":2755,"Ġfaith":2756,"Ġsecret":2757,"Ġarm":2758,"Ġsell":2759,"erv":2760,"Ġhy":2761,"Ġwash":2762,"Ġnoise":2763,"Ġimagine":2764,"more":2765,"Ġdeb":2766,"Ġleaves":2767,"Ġskill":2768,"Ġlearned":2769,"pective":2770,"body":2771,"den":2772,"Ġhonestly":2773,"Ġcatch":2774,"ru":2775,"Ġreve":2776,"ipes":2777,"Ġmel":2778,"Ġstri":2779,"Ġviol":2780,"Ġwrote":2781,"Ġlines":2782,"aming":2783,"Ġclassic":2784,"gest":2785,"Ġtelling":2786,"Ġpublic":2787,"Ġinsp":2788,"Ġhair":2789,"Ġfell":2790,"room":2791,"Ġeye":2792,"Ġfinding":2793,"Ġready":2794,"Ġhigher":2795,"Ġfi":2796,"Ġearth":2797,"icated":2798,"Ġimposs":2799,"Ġunlike":2800,"ify":2801,"ization":2802,"Ġsharp":2803,"Ġhorrible":2804,"Ġpros":2805,"ctions":2806,"Ġrate":2807,"Ġwebsite":2808,"ency":2809,"Ġmanual":2810,"Ġut":2811,"arily":2812,"Ġtun":2813,"Ġforg":2814,"af":2815,"Ġultim":2816,"Ġdoubt":2817,"Ġintell":2818,"Ġfilled":2819,"Ġpred":2820,"Ġlower":2821,"Ġapparently":2822,"right":2823,"Ġsequ":2824,"ata":2825,"put":2826,"Ġtwist":2827,"Ġring":2828,"Ġagree":2829,"Ġcamp":2830,"Ġmode":2831,"Ġplenty":2832,"Ġroad":2833,"Ġchurch":2834,"Ġwal":2835,"Ġlearning":2836,"Ġnegative":2837,"Ġsituation":2838,"Ġfantasy":2839,"Ġtracks":2840,"Ġsatisf":2841,"Ġfeed":2842,"Ġmessage":2843,"Ġjourney":2844,"ugged":2845,"Ġheat":2846,"ified":2847,"Ġevil":2848,"ik":2849,"Ġtaste":2850,"Ġfilter":2851,"aching":2852,"Ġpocket":2853,"Ġmoments":2854,"lier":2855,"Ġstat":2856,"Ġsorry":2857,"Ġtotal":2858,"Ġlos":2859,"no":2860,"Ġunderstanding":2861,"Ġvict":2862,"Ġentertaining":2863,"Ġsand":2864,"Ġshare":2865,"Ġcomment":2866,"Ġgrow":2867,"Ġmad":2868,"Ġimpossible":2869,"izes":2870,"Ġlink":2871,"bi":2872,"Ġwarm":2873,"Ġdanger":2874,"ony":2875,"Ġcrack":2876,"Ġinternet":2877,"Ġgold":2878,"Ġconstantly":2879,"Ġknowledge":2880,"Ġcho":2881,"cle":2882,"Ġbeat":2883,"Ġdur":2884,"Ġminor":2885,"uing":2886,"Ġcross":2887,"Ġprep":2888,"Ġbarely":2889,"Ġfantastic":2890,"Ġstarting":2891,"head":2892,"Ġgun":2893,"sc":2894,"uction":2895,"Ġaverage":2896,"Ġonto":2897,"Ġrand":2898,"Ġheld":2899,"Ġjud":2900,"Ġtwice":2901,"Ġforget":2902,"Ġfloor":2903,"Ġrob":2904,"Ġcreate":2905,"Ġmagic":2906,"Ġoption":2907,"Ġinvolved":2908,"Ġprovides":2909,"sh":2910,"Ġexpecting":2911,"Ġguitar":2912,"Ġpu":2913,"ogn":2914,"Ġsqu":2915,"Ġholes":2916,"Ġconsidering":2917,"Ġbir":2918,"Ġdrink":2919,"Ġarg":2920,"Ġvoc":2921,"Ġenjoyable":2922,"ey":2923,"Ġign":2924,"Ġlif":2925,"Ġdeg":2926,"Ġconstruct":2927,"ec":2928,"Ġmagn":2929,"Ġfemale":2930,"Ġstur":2931,"Ġsex":2932,"Ġframe":2933,"ental":2934,"lli":2935,"Ġadap":2936,"Ġadvice":2937,"Ġfeelings":2938,"Ġweb":2939,"Ġdocum":2940,"Ġblood":2941,"rench":2942,"Ġreasons":2943,"Ġconnected":2944,"Ġpc":2945,"Ġclick":2946,"Ġmur":2947,"Ġger":2948,"Ġmeaning":2949,"Ġiphone":2950,"Ġran":2951,"Ġjump":2952,"aling":2953,"Ġcovers":2954,"Ġfault":2955,"Ġasked":2956,"anced":2957,"Ġapproach":2958,"ering":2959,"Ġwireless":2960,"Ġesc":2961,"Ġrefund":2962,"Ġsurface":2963,"Ġmanufactur":2964,"Ġcolors":2965,"Ġuseless":2966,"Ġinclude":2967,"Ġdeveloped":2968,"Ġmeant":2969,"Ġconclus":2970,"Ġfailed":2971,"Ġinfl":2972,"Ġsides":2973,"rors":2974,"Ġodd":2975,"Ġkeeping":2976,"Ġchanges":2977,"ionally":2978,"Ġsafe":2979,"Ġspeaker":2980,"Ġfly":2981,"Ġrecogn":2982,"Ġsuspense":2983,"Ġcomplex":2984,"Ġgirls":2985,"Ġunf":2986,"Ġstates":2987,"Ġedition":2988,"Ġmax":2989,"idence":2990,"Ġpotential":2991,"Ġreplaced":2992,"Ġbrought":2993,"Ġstrange":2994,"Ġindividual":2995,"ager":2996,"Ġheroine":2997,"Ġask":2998,"ube":2999,"Ġdate":3000,"Ġfrequ":3001,"Ġdav":3002,"ffer":3003,"Ġflow":3004,"Ġton":3005,"how":3006,"Ġpoorly":3007,"Ġfasc":3008,"Ġhelps":3009,"Ġshel":3010,"Ġrecipes":3011,"resh":3012,"Ġfirm":3013,"Ġforce":3014,"Ġmich":3015,"Ġdisappointing":3016,"Ġmat":3017,"Ġshock":3018,"Ġdiv":3019,"Ġpac":3020,"iculous":3021,"Ġcharger":3022,"Ġshoe":3023,"Ġdeser":3024,"Ġlistening":3025,"ivity":3026,"Ġdialogue":3027,"Ġimprove":3028,"Ġmemory":3029,"Ġresults":3030,"Ġaltern":3031,"Ġrespect":3032,"Ġleaving":3033,"Ġcharging":3034,"Ġsocial":3035,"Ġshot":3036,"Ġaddress":3037,"Ġearlier":3038,"Ġcoun":3039,"Ġcases":3040,"Ġamong":3041,"Ġgenre":3042,"Ġpicked":3043,"Ġillustr":3044,"Ġcute":3045,"Ġdress":3046,"Ġshoot":3047,"Ġliterally":3048,"ppy":3049,"Ġnature":3050,"ography":3051,"retch":3052,"Ġfamiliar":3053,"Ġopened":3054,"Ġwearing":3055,"Ġstren":3056,"Ġbass":3057,"ining":3058,"Ġteam":3059,"Ġpowerful":3060,"Ġdel":3061,"ask":3062,"Ġrou":3063,"Ġbible":3064,"Ġdy":3065,"Ġattached":3066,"Ġthor":3067,"antic":3068,"Ġbegan":3069,"hood":3070,"Ġsettings":3071,"Ġvia":3072,"Ġhom":3073,"dden":3074,"Ġhole":3075,"Ġspot":3076,"ibility":3077,"Ġcollege":3078,"Ġcrazy":3079,"Ġsets":3080,"Ġfigured":3081,"Ġcreated":3082,"Ġthoughts":3083,"Ġpersonally":3084,"Ġterms":3085,"Ġtowards":3086,"row":3087,"aker":3088,"Ġimm":3089,"Ġtablet":3090,"Ġpath":3091,"Ġdescribed":3092,"gth":3093,"Ġlose":3094,"uit":3095,"Ġexperien":3096,"Ġphoto":3097,"Ġnut":3098,"Ġtoy":3099,"Ġbattle":3100,"oph":3101,"Ġfrank":3102,"Ġwilling":3103,"Ġstrength":3104,"Ġamerica":3105,"Ġbegins":3106,"ners":3107,"Ġupgr":3108,"Ġlu":3109,"Ġminute":3110,"Ġlibr":3111,"rit":3112,"Ġjes":3113,"Ġassemb":3114,"Ġtar":3115,"Ġprim":3116,"Ġadmit":3117,"Ġskin":3118,"Ġsudden":3119,"Ġbiggest":3120,"Ġspeakers":3121,"Ġprev":3122,"Ġprotector":3123,"Ġfold":3124,"Ġthanks":3125,"Ġreality":3126,"Ġbuilding":3127,"Ġsitting":3128,"Ġepis":3129,"Ġdevices":3130,"ett":3131,"Ġsoul":3132,"Ġdied":3133,"rid":3134,"Ġappreciate":3135,"Ġmir":3136,"ipe":3137,"Ġimage":3138,"Ġdie":3139,"verse":3140,"Ġrole":3141,"orge":3142,"itter":3143,"Ġaware":3144,"Ġsyn":3145,"Ġpolitical":3146,"Ġcry":3147,"Ġfalls":3148,"Ġship":3149,"Ġtiny":3150,"ero":3151,"Ġwanting":3152,"Ġseat":3153,"iences":3154,"bb":3155,"Ġeat":3156,"Ġleather":3157,"Ġimpressed":3158,"Ġsummer":3159,"chan":3160,"Ġlat":3161,"Ġdesk":3162,"hod":3163,"Ġprofessional":3164,"Ġstretch":3165,"Ġbur":3166,"Ġdepend":3167,"Ġpurchasing":3168,"Ġstrap":3169,"inating":3170,"Ġoil":3171,"Ġturning":3172,"Ġcards":3173,"Ġsturdy":3174,"Ġparty":3175,"Ġconsist":3176,"Ġknife":3177,"Ġbluet":3178,"Ġshut":3179,"Ġipad":3180,"Ġdata":3181,"Ġthrow":3182,"Ġlid":3183,"Ġsignific":3184,"Ġdrop":3185,"omb":3186,"Ġround":3187,"Ġkit":3188,"Ġsociety":3189,"Ġbluetooth":3190,"uum":3191,"Ġoffice":3192,"Ġfresh":3193,"Ġemotional":3194,"Ġtom":3195,"Ġrequired":3196,"Ġnews":3197,"Ġvill":3198,"Ġpublished":3199,"Ġteach":3200,"Ġholds":3201,"Ġincre":3202,"Ġridiculous":3203,"Ġseconds":3204,"Ġmarri":3205,"Ġforced":3206,"Ġvamp":3207,"Ġdu":3208,"Ġdeterm":3209,"Ġrecording":3210,"Ġspecific":3211,"Ġperspective":3212,"Ġmale":3213,"Ġholding":3214,"Ġroll":3215,"Ġden":3216,"erc":3217,"lla":3218,"Ġdaily":3219,"iring":3220,"Ġblock":3221,"Ġrealized":3222,"bel":3223,"Ġarch":3224,"Ġhelped":3225,"itted":3226,"Ġsouth":3227,"Ġsuffer":3228,"Ġreturning":3229,"Ġrespons":3230,"Ġprogress":3231,"Ġdeliver":3232,"Ġwhose":3233,"Ġscrews":3234,"Ġgover":3235,"ening":3236,"Ġvacuum":3237,"Ġreleased":3238,"ively":3239,"Ġbow":3240,"Ġengine":3241,"wood":3242,"Ġloo":3243,"Ġtape":3244,"Ġdirectly":3245,"Ġknowing":3246,"Ġuser":3247,"Ġconvers":3248,"Ġcovered":3249,"Ġwild":3250,"Ġstoryline":3251,"Ġtries":3252,"een":3253,"Ġfol":3254,"Ġcompar":3255,"do":3256,"Ġsurprise":3257,"Ġenv":3258,"Ġeduc":3259,"Ġrepair":3260,"Ġdust":3261,"Ġtypical":3262,"com":3263,"Ġaccom":3264,"form":3265,"Ġmechan":3266,"Ġmoved":3267,"Ġce":3268,"Ġwrit":3269,"Ġpressure":3270,"Ġwrites":3271,"Ġbottle":3272,"Ġexplan":3273,"aled":3274,"Ġnecessary":3275,"Ġfabric":3276,"Ġmethod":3277,"Ġpackaging":3278,"Ġmorning":3279,"Ġruns":3280,"Ġgotten":3281,"Ġexplain":3282,"Ġsetup":3283,"Ġbelow":3284,"Ġrain":3285,"Ġdisappointment":3286,"Ġexpress":3287,"Ġthread":3288,"Ġthus":3289,"Ġtemper":3290,"Ġrandom":3291,"Ġrouter":3292,"Ġstock":3293,"used":3294,"Ġweird":3295,"Ġattack":3296,"Ġbehav":3297,"Ġcontr":3298,"Ġloss":3299,"Ġmc":3300,"bert":3301,"isher":3302,"box":3303,"Ġreport":3304,"Ġshape":3305,"Ġdrag":3306,"Ġund":3307,"Ġjew":3308,"Ġnicely":3309,"Ġexamples":3310,"Ġexerc":3311,"Ġsolution":3312,"Ġuns":3313,"Ġowned":3314,"Ġlabel":3315,"Ġris":3316,"Ġfield":3317,"Ġdigital":3318,"Ġkitch":3319,"Ġbrown":3320,"Ġbike":3321,"Ġmanufacturer":3322,"Ġunre":3323,"Ġthorough":3324,"Ġconvin":3325,"Ġtradition":3326,"ened":3327,"Ġmass":3328,"Ġfear":3329,"Ġchem":3330,"port":3331,"Ġlimited":3332,"Ġkick":3333,"Ġcontain":3334,"Ġprior":3335,"Ġcentury":3336,"Ġadventure":3337,"Ġerrors":3338,"Ġpatter":3339,"Ġculture":3340,"Ġtough":3341,"Ġglo":3342,"uro":3343,"Ġaffect":3344,"Ġcareer":3345,"Ġoffers":3346,"Ġaccurate":3347,"Ġbigger":3348,"Ġsite":3349,"Ġinvestig":3350,"Ġscri":3351,"Ġincludes":3352,"Ġgovern":3353,"Ġstudy":3354,"Ġdouble":3355,"ball":3356,"Ġlibrary":3357,"Ġmonitor":3358,"Ġassum":3359,"Ġmarriage":3360,"iety":3361,"Ġindic":3362,"Ġquiet":3363,"Ġreviewer":3364,"ael":3365,"Ġsomehow":3366,"Ġsuspect":3367,"Ġobject":3368,"Ġkitchen":3369,"Ġbrit":3370,"rew":3371,"cer":3372,"Ġallows":3373,"Ġnarrative":3374,"Ġopt":3375,"Ġrelative":3376,"Ġblade":3377,"Ġnatural":3378,"pri":3379,"Ġcalls":3380,"Ġscient":3381,"Ġtransl":3382,"Ġpredict":3383,"Ġach":3384,"Ġaccident":3385,"Ġbrilli":3386,"Ġchoose":3387,"Ġmilit":3388,"come":3389,"Ġoptions":3390,"Ġspl":3391,"nam":3392,"Ġpaint":3393,"Ġmeets":3394,"Ġcloth":3395,"Ġmotor":3396,"Ġrough":3397,"rum":3398,"Ġelements":3399,"Ġride":3400,"Ġbreat":3401,"ered":3402,"Ġfrustrating":3403,"Ġapplic":3404,"Ġadapter":3405,"Ġfort":3406,"val":3407,"Ġcell":3408,"Ġink":3409,"Ġtab":3410,"Ġapple":3411,"Ġpark":3412,"Ġdescriptions":3413,"Ġbrief":3414,"Ġchair":3415,"Ġdoct":3416,"Ġcaught":3417,"onse":3418,"Ġboot":3419,"Ġps":3420,"Ġsubst":3421,"sis":3422,"mp":3423,"Ġhes":3424,"aces":3425,"Ġnotes":3426,"Ġscript":3427,"Ġanymore":3428,"ee":3429,"Ġtur":3430,"old":3431,"Ġawful":3432,"Ġplays":3433,"Ġneither":3434,"Ġhorror":3435,"Ġalex":3436,"Ġdream":3437,"Ġpopular":3438,"Ġpow":3439,"Ġmatt":3440,"Ġsecure":3441,"ients":3442,"Ġcompet":3443,"Ġjesus":3444,"Ġsams":3445,"Ġdom":3446,"Ġpleased":3447,"Ġcompe":3448,"Ġshowing":3449,"mi":3450,"Ġpill":3451,"Ġcontacted":3452,"Ġbrings":3453,"Ġpractice":3454,"Ġjames":3455,"Ġreceive":3456,"Ġther":3457,"Ġclim":3458,"Ġconclusion":3459,"cent":3460,"Ġbenef":3461,"Ġdetailed":3462,"Ġusual":3463,"Ġadditional":3464,"Ġpossibly":3465,"Ġselect":3466,"Ġareas":3467,"Ġdogs":3468,"Ġreads":3469,"Ġfalling":3470,"ading":3471,"Ġchalleng":3472,"Ġcomplaint":3473,"Ġmoves":3474,"Ġcleaning":3475,"others":3476,"Ġrelationships":3477,"ological":3478,"Ġaside":3479,"eper":3480,"Ġintellig":3481,"Ġlin":3482,"Ġaccord":3483,"Ġincredibly":3484,"ously":3485,"Ġreference":3486,"Ġexperiences":3487,"Ġencoun":3488,"Ġgrab":3489,"Ġacting":3490,"Ġresponse":3491,"Ġsony":3492,"Ġformat":3493,"Ġdirection":3494,"Ġdrama":3495,"iment":3496,"ike":3497,"ilities":3498,"Ġmistake":3499,"ingly":3500,"ortun":3501,"Ġprotagon":3502,"Ġener":3503,"Ġfollowed":3504,"Ġalbums":3505,"Ġnormally":3506,"fl":3507,"Ġgenerally":3508,"Ġmart":3509,"Ġmail":3510,"Ġfilms":3511,"Ġconsum":3512,"Ġprotection":3513,"Ġdish":3514,"Ġpremise":3515,"Ġclip":3516,"Ġmilitary":3517,"Ġromantic":3518,"Ġhund":3519,"Ġkilled":3520,"Ġforever":3521,"Ġentirely":3522,"Ġindeed":3523,"Ġhundred":3524,"Ġdiscount":3525,"Ġopportun":3526,"Ġwindow":3527,"Ġoccur":3528,"Ġexperienced":3529,"Ġing":3530,"Ġsurprising":3531,"Ġrequire":3532,"Ġcheaper":3533,"Ġiron":3534,"Ġice":3535,"over":3536,"ii":3537,"Ġplaced":3538,"Ġmedia":3539,"Ġcareful":3540,"Ġintended":3541,"Ġdavid":3542,"action":3543,"Ġdefective":3544,"ral":3545,"Ġchann":3546,"Ġnames":3547,"Ġminim":3548,"unt":3549,"Ġsteel":3550,"Ġpolice":3551,"Ġboots":3552,"Ġmm":3553,"Ġju":3554,"Ġlyr":3555,"acher":3556,"Ġshop":3557,"Ġdrawn":3558,"ifi":3559,"Ġdecide":3560,"Ġremoved":3561,"Ġnav":3562,"otes":3563,"Ġstated":3564,"Ġsource":3565,"Ġhopefully":3566,"Ġpump":3567,"Ġstudents":3568,"Ġsamsung":3569,"Ġbirth":3570,"Ġdon":3571,"ief":3572,"Ġultimately":3573,"Ġwalking":3574,"Ġdropped":3575,"Ġcode":3576,"Ġfascinating":3577,"Ġpal":3578,"Ġhurt":3579,"Ġfacts":3580,"Ġray":3581,"Ġbud":3582,"Ġplugged":3583,"Ġbol":3584,"Ġautom":3585,"ival":3586,"Ġlived":3587,"Ġbon":3588,"Ġcounter":3589,"round":3590,"Ġdestro":3591,"Ġtrick":3592,"irty":3593,"Ġtools":3594,"Ġseparate":3595,"wor":3596,"urity":3597,"Ġpresented":3598,"Ġboys":3599,"Ġchina":3600,"Ġexpectations":3601,"Ġjap":3602,"illy":3603,"Ġtheme":3604,"Ġproduction":3605,"Ġsar":3606,"Ġbunch":3607,"Ġwheel":3608,"Ġshame":3609,"rets":3610,"Ġinflu":3611,"Ġreflect":3612,"Ġprec":3613,"Ġjapan":3614,"Ġpassion":3615,"Ġdrug":3616,"Ġmedium":3617,"Ġahead":3618,"Ġanywhere":3619,"Ġformer":3620,"Ġdiscovered":3621,"well":3622,"Ġgrip":3623,"Ġoffic":3624,"Ġrepres":3625,"Ġaudience":3626,"Ġtone":3627,"Ġdamage":3628,"irst":3629,"ica":3630,"Ġkeys":3631,"Ġinches":3632,"Ġstere":3633,"Ġsurround":3634,"Ġpulled":3635,"Ġstor":3636,"Ġrealistic":3637,"Ġpin":3638,"osp":3639,"iron":3640,"Ġsadly":3641,"Ġneck":3642,"Ġsuit":3643,"lict":3644,"go":3645,"Ġintroduction":3646,"Ġtow":3647,"Ġgerman":3648,"Ġportray":3649,"log":3650,"Ġslee":3651,"Ġpattern":3652,"Ġcredit":3653,"Ġkiller":3654,"Ġrush":3655,"Ġgoo":3656,"Ġrecent":3657,"Ġcontains":3658,"Ġerror":3659,"ls":3660,"Ġtwists":3661,"Ġsuff":3662,"Ġzipp":3663,"Ġchanging":3664,"Ġdad":3665,"Ġleak":3666,"Ġnetwork":3667,"Ġbrush":3668,"entially":3669,"while":3670,"Ġforth":3671,"Ġresist":3672,"Ġrecei":3673,"Ġjoy":3674,"gar":3675,"une":3676,"Ġtea":3677,"Ġanaly":3678,"Ġtherefore":3679,"host":3680,"Ġeth":3681,"bit":3682,"Ġmarried":3683,"Ġmembers":3684,"Ġdocument":3685,"ands":3686,"Ġcand":3687,"Ġghost":3688,"Ġconfusing":3689,"Ġauto":3690,"Ġgovernment":3691,"Ġclub":3692,"Ġtechnology":3693,"Ġenviron":3694,"ulation":3695,"Ġexciting":3696,"Ġneigh":3697,"Ġplayers":3698,"Ġcas":3699,"Ġbelt":3700,"Ġconflict":3701,"Ġsignal":3702,"Ġmissed":3703,"Ġpublisher":3704,"ateg":3705,"Ġclaims":3706,"Ġsexy":3707,"Ġneighb":3708,"Ġoffered":3709,"Ġheadset":3710,"ules":3711,"Ġlikes":3712,"uted":3713,"Ġtypes":3714,"Ġdirections":3715,"Ġcrime":3716,"Ġpure":3717,"Ġthinks":3718,"Ġfu":3719,"Ġmichael":3720,"Ġeuro":3721,"Ġgrind":3722,"Ġsituations":3723,"esh":3724,"Ġinstallation":3725,"gle":3726,"Ġstruct":3727,"Ġanti":3728,"Ġactiv":3729,"Ġmal":3730,"Ġsmo":3731,"Ġgrad":3732,"Ġrh":3733,"Ġwed":3734,"omfort":3735,"Ġrout":3736,"Ġphilos":3737,"Ġplain":3738,"Ġpriv":3739,"Ġnamed":3740,"Ġconven":3741,"Ġclock":3742,"Ġhappening":3743,"cl":3744,"Ġshown":3745,"amm":3746,"artment":3747,"Ġadvertised":3748,"Ġtele":3749,"Ġslowly":3750,"Ġtraining":3751,"Ġinterview":3752,"icle":3753,"Ġimpact":3754,"Ġwriters":3755,"Ġpleas":3756,"Ġimages":3757,"Ġactions":3758,"Ġciv":3759,"Ġjunk":3760,"Ġsomewhere":3761,"rupt":3762,"Ġsubt":3763,"conom":3764,"gs":3765,"Ġoriginally":3766,"Ġspin":3767,"Ġconstant":3768,"Ġfinger":3769,"Ġediting":3770,"Ġmini":3771,"Ġstudent":3772,"Ġeffects":3773,"Ġsuppose":3774,"pet":3775,"Ġlady":3776,"ploy":3777,"Ġelectron":3778,"str":3779,"friend":3780,"Ġyork":3781,"ague":3782,"Ġslide":3783,"Ġunivers":3784,"itude":3785,"Ġsuddenly":3786,"yal":3787,"Ġvariety":3788,"Ġzero":3789,"Ġcaused":3790,"Ġrepet":3791,"Ġphysical":3792,"Ġreli":3793,"Ġdecision":3794,"Ġhardware":3795,"Ġspring":3796,"Ġcuri":3797,"eds":3798,"Ġbrain":3799,"istry":3800,"Ġeconom":3801,"Ġbes":3802,"Ġmixed":3803,"Ġapply":3804,"Ġtechni":3805,"Ġnumer":3806,"ses":3807,"Ġyoun":3808,"Ġcraft":3809,"Ġhopes":3810,"Ġleads":3811,"Ġur":3812,"Ġyounger":3813,"Ġemotions":3814,"Ġrepeated":3815,"Ġfash":3816,"Ġworry":3817,"Ġmovement":3818,"Ġbelievable":3819,"Ġwes":3820,"Ġsuccessful":3821,"Ġdemon":3822,"Ġpaul":3823,"Ġcartrid":3824,"Ġsteps":3825,"Ġclosed":3826,"Ġfrench":3827,"Ġconsidered":3828,"Ġcirc":3829,"Ġunus":3830,"Ġcondition":3831,"Ġemp":3832,"Ġexec":3833,"Ġcomments":3834,"Ġdollars":3835,"Ġangle":3836,"Ġtechnical":3837,"Ġfiles":3838,"Ġrequires":3839,"inary":3840,"Ġspray":3841,"Ġlisted":3842,"Ġpace":3843,"icy":3844,"Ġdepress":3845,"Ġencour":3846,"Ġlatest":3847,"Ġvideos":3848,"sequ":3849,"arm":3850,"Ġcontinues":3851,"Ġedges":3852,"Ġtemperature":3853,"Ġwhom":3854,"Ġfashion":3855,"Ġconcerned":3856,"Ġbuck":3857,"Ġtrain":3858,"Ġwondering":3859,"Ġresol":3860,"Ġachie":3861,"Ġaspects":3862,"Ġarc":3863,"Ġnorth":3864,"Ġloving":3865,"Ġban":3866,"olf":3867,"Ġtour":3868,"Ġchose":3869,"enn":3870,"Ġram":3871,"mes":3872,"Ġeditor":3873,"RL":3874,"URL":3875,"Ġsport":3876,"Ġtank":3877,"outh":3878,"Ġshowed":3879,"Ġknock":3880,"lls":3881,"Ġrelatively":3882,"Ġtarget":3883,"Ġfighting":3884,"Ġinn":3885,"Ġgrowing":3886,"Ġfixed":3887,"Ġvirt":3888,"Ġenem":3889,"key":3890,"Ġenergy":3891,"Ġstreet":3892,"raid":3893,"Ġtrail":3894,"itty":3895,"Ġphilosoph":3896,"first":3897,"Ġgb":3898,"Ġcreative":3899,"Ġdurable":3900,"Ġdiss":3901,"eter":3902,"orter":3903,"rees":3904,"Ġtension":3905,"Ġanswers":3906,"Ġproof":3907,"Ġdisp":3908,"Ġment":3909,"Ġeurope":3910,"Ġsnow":3911,"Ġengaging":3912,"Ġbalance":3913,"Ġgal":3914,"Ġjul":3915,"Ġcontem":3916,"ements":3917,"Ġdut":3918,"Ġcorrectly":3919,"Ġcats":3920,"Ġtopic":3921,"Ġbrilliant":3922,"Ġlacking":3923,"bes":3924,"Ġears":3925,"Ġwest":3926,"Ġlasted":3927,"ros":3928,"Ġsecrets":3929,"Ġallowed":3930,"Ġnd":3931,"Ġindust":3932,"Ġafraid":3933,"Ġpreviously":3934,"Ġjam":3935,"Ġinitially":3936,"Ġconstruction":3937,"Ġcivil":3938,"Ġrac":3939,"Ġnumbers":3940,"Ġcompare":3941,"Ġnumerous":3942,"00":3943,"Ġstorage":3944,"ards":3945,"Ġreligious":3946,"Ġempt":3947,"Ġtor":3948,"ration":3949,"orable":3950,"Ġmeasure":3951,"Ġemb":3952,"Ġedit":3953,"Ġcurrently":3954,"Ġvan":3955,"Ġcompelling":3956,"Ġdistract":3957,"Ġlevels":3958,"Ġvs":3959,"Ġsections":3960,"Ġinner":3961,"Ġartist":3962,"Ġmiles":3963,"anted":3964,"Ġenvironment":3965,"Ġlegs":3966,"Ġcables":3967,"idden":3968,"Ġdelight":3969,"Ġreferences":3970,"Ġflim":3971,"Ġlord":3972,"Ġgreatest":3973,"Ġstruggle":3974,"Ġclar":3975,"Ġphones":3976,"Ġbelief":3977,"ius":3978,"Ġdealing":3979,"ker":3980,"Ġgrace":3981,"Ġcharged":3982,"Ġgraphics":3983,"Ġbull":3984,"Ġtraditional":3985,"Ġtips":3986,"Ġthrown":3987,"atives":3988,"ana":3989,"Ġinfo":3990,"Ġhardly":3991,"Ġexplained":3992,"nds":3993,"rific":3994,"Ġcutting":3995,"kward":3996,"lessly":3997,"Ġversions":3998,"Ġpound":3999,"umps":4000,"Ġtheory":4001,"Ġtired":4002,"asp":4003,"Ġskills":4004,"Ġchoices":4005,"enge":4006,"Ġcamer":4007,"Ġopportunity":4008,"oted":4009,"Ġscan":4010,"Ġopinions":4011,"Ġmouth":4012,"Ġhea":4013,"Ġwet":4014,"Ġbags":4015,"Ġprotagonist":4016,"Ġblog":4017,"Ġweather":4018,"Ġvictim":4019,"Ġingred":4020,"Ġthreat":4021,"Ġawkward":4022,"Ġbreaking":4023,"Ġangel":4024,"Ġwinter":4025,"Ġthoroughly":4026,"Ġcommunity":4027,"Ġunits":4028,"nal":4029,"edy":4030,"Ġhose":4031,"rif":4032,"Ġrot":4033,"Ġbehavior":4034,"Ġterm":4035,"Ġrespond":4036,"time":4037,"Ġera":4038,"Ġregarding":4039,"Ġevidence":4040,"Ġskip":4041,"Ġinex":4042,"Ġsized":4043,"Ġspending":4044,"onnect":4045,"Ġselling":4046,"Ġisland":4047,"Ġlyrics":4048,"Ġcritic":4049,"cr":4050,"Ġbath":4051,"Ġded":4052,"Ġtall":4053,"bal":4054,"Ġgarb":4055,"Ġdangerous":4056,"Ġshad":4057,"priate":4058,"Ġinstrum":4059,"Ġjer":4060,"Ġfolks":4061,"Ġuncomfort":4062,"pack":4063,"Ġwid":4064,"Ġipod":4065,"Ġboyfriend":4066,"Ġelsewhere":4067,"Ġprevent":4068,"Ġbeauty":4069,"Ġunable":4070,"Ġmanner":4071,"Ġwit":4072,"Ġtested":4073,"Ġinitial":4074,"weight":4075,"Ġrelated":4076,"Ġspecif":4077,"Ġcore":4078,"Ġresour":4079,"Ġunex":4080,"Ġincredible":4081,"Ġdin":4082,"Ġfle":4083,"ushing":4084,"Ġfal":4085,"ev":4086,"Ġchick":4087,"Ġbritish":4088,"char":4089,"Ġflimsy":4090,"Ġdriver":4091,"Ġshirt":4092,"Ġcooking":4093,"Ġrisk":4094,"Ġq":4095,"Ġintriguing":4096,"Ġbecoming":4097,"Ġoppos":4098,"zen":4099,"Ġfollows":4100,"Ġhooked":4101,"dom":4102,"Ġpredictable":4103,"Ġintroduced":4104,"Ġworn":4105,"Ġdescribe":4106,"lied":4107,"Ġprop":4108,"Ġsecurity":4109,"Ġencounter":4110,"Ġfamous":4111,"Ġsight":4112,"ula":4113,"Ġsequel":4114,"Ġnove":4115,"erson":4116,"Ġbroad":4117,"Ġdestroy":4118,"Ġpun":4119,"Ġtip":4120,"Ġupgrade":4121,"ores":4122,"Ġthom":4123,"Ġmusical":4124,"Ġheads":4125,"Ġeffective":4126,"Ġwifi":4127,"Ġwarning":4128,"Ġshipped":4129,"Ġbrothers":4130,"Ġast":4131,"Ġvo":4132,"Ġflaws":4133,"Ġparag":4134,"Ġcorner":4135,"aped":4136,"Ġdriving":4137,"Ġlou":4138,"Ġcommunic":4139,"Ġmary":4140,"Ġgard":4141,"ode":4142,"vant":4143,"Ġviolence":4144,"Ġeating":4145,"Ġfaster":4146,"apping":4147,"Ġexplanation":4148,"Ġfails":4149,"Ġwatched":4150,"Ġharm":4151,"oses":4152,"Ġcloser":4153,"logy":4154,"Ġincor":4155,"Ġcreating":4156,"Ġstraps":4157,"Ġaccording":4158,"Ġsimpl":4159,"Ġconfused":4160,"Ġbreath":4161,"Ġdiet":4162,"Ġwow":4163,"Ġfile":4164,"Ġattempts":4165,"Ġarr":4166,"Ġpractical":4167,"Ġflex":4168,"lin":4169,"Ġmodels":4170,"aded":4171,"Ġadding":4172,"Ġmurder":4173,"Ġfriendship":4174,"Ġputs":4175,"Ġtransfer":4176,"Ġdamaged":4177,"wards":4178,"Ġflavor":4179,"Ġparagraph":4180,"Ġpray":4181,"Ġheight":4182,"egr":4183,"Ġhearing":4184,"Ġyeah":4185,"Ġargum":4186,"Ġsole":4187,"Ġwashing":4188,"Ġworkout":4189,"Ġmulti":4190,"Ġsick":4191,"Ġbeautifully":4192,"ghter":4193,"Ġtroub":4194,"porary":4195,"Ġdrum":4196,"Ġmotiv":4197,"Ġgarbage":4198,"Ġmere":4199,"erg":4200,"Ġdoctor":4201,"Ġelement":4202,"Ġdisappe":4203,"Ġpaying":4204,"Ġpersonality":4205,"aves":4206,"Ġprose":4207,"Ġstage":4208,"ga":4209,"Ġmainly":4210,"Ġod":4211,"Ġshall":4212,"Ġsatisfied":4213,"Ġzo":4214,"Ġfoam":4215,"Ġseal":4216,"Ġasking":4217,"Ġirrit":4218,"Ġvel":4219,"Ġresolution":4220,"Ġmanaged":4221,"cil":4222,"Ġcontrols":4223,"Ġash":4224,"atically":4225,"Ġassembly":4226,"Ġuncomfortable":4227,"Ġvampire":4228,"Ġchecked":4229,"Ġchildhood":4230,"Ġspeaking":4231,"Ġsaved":4232,"Ġportion":4233,"Ġmysterious":4234,"Ġsaf":4235,"Ġelectric":4236,"Ġshelf":4237,"Ġmyth":4238,"Ġsac":4239,"Ġfrequently":4240,"Ġsignificant":4241,"ai":4242,"Ġzomb":4243,"Ġtrash":4244,"Ġalive":4245,"Ġbucks":4246,"Ġped":4247,"Ġwise":4248,"aries":4249,"Ġspr":4250,"Ġmp":4251,"azz":4252,"Ġny":4253,"Ġpeace":4254,"Ġteacher":4255,"inese":4256,"ander":4257,"ternal":4258,"after":4259,"lection":4260,"Ġteaching":4261,"Ġted":4262,"Ġbeach":4263,"Ġprime":4264,"Ġarms":4265,"Ġvisit":4266,"Ġhp":4267,"isions":4268,"Ġya":4269,"Ġchinese":4270,"olic":4271,"Ġclever":4272,"Ġsky":4273,"Ġescape":4274,"Ġdiscl":4275,"Ġmission":4276,"Ġsees":4277,"Ġhint":4278,"Ġdimens":4279,"icles":4280,"Ġborn":4281,"Ġhits":4282,"Ġrd":4283,"Ġrated":4284,"Ġblur":4285,"miss":4286,"Ġdrives":4287,"Ġcrash":4288,"Ġemploy":4289,"Ġmath":4290,"Ġthriller":4291,"Ġcomparison":4292,"Ġcharl":4293,"Ġry":4294,"Ġpuzz":4295,"Ġrein":4296,"rop":4297,"Ġholly":4298,"Ġgrew":4299,"Ġcircum":4300,"Ġsilly":4301,"Ġhi":4302,"Ġstation":4303,"Ġregret":4304,"Ġaccompl":4305,"cious":4306,"Ġdull":4307,"Ġbat":4308,"Ġdegree":4309,"when":4310,"Ġgoogle":4311,"belie":4312,"Ġtalent":4313,"Ġtopics":4314,"Ġfro":4315,"idge":4316,"Ġwestern":4317,"Ġdesper":4318,"iece":4319,"Ġfingers":4320,"Ġrelate":4321,"ext":4322,"Ġbands":4323,"Ġreligion":4324,"Ġpants":4325,"ails":4326,"Ġparan":4327,"Ġnic":4328,"Ġtrilogy":4329,"pected":4330,"Ġimpression":4331,"Ġdance":4332,"Ġham":4333,"ancy":4334,"umin":4335,"Ġske":4336,"Ġdreams":4337,"alley":4338,"Ġsale":4339,"Ġii":4340,"Ġsque":4341,"Ġpaced":4342,"Ġhanging":4343,"Ġstands":4344,"Ġgrade":4345,"oon":4346,"Ġadds":4347,"Ġrace":4348,"Ġpacked":4349,"Ġfool":4350,"Ġwilli":4351,"Ġanimals":4352,"Ġcris":4353,"Ġresc":4354,"Ġcontroller":4355,"Ġmaintain":4356,"Ġveh":4357,"ators":4358,"Ġmap":4359,"Ġlosing":4360,"Ġeveryday":4361,"Ġlovely":4362,"Ġgramm":4363,"oting":4364,"Ġcru":4365,"Ġinput":4366,"Ġadults":4367,"Ġbear":4368,"Ġgent":4369,"Ġfish":4370,"inct":4371,"oring":4372,"Ġups":4373,"Ġliterature":4374,"Ġgeorge":4375,"Ġruss":4376,"rest":4377,"Ġwasted":4378,"Ġintense":4379,"Ġhandy":4380,"Ġcarefully":4381,"ha":4382,"Ġreset":4383,"Ġdecides":4384,"Ġsan":4385,"Ġstress":4386,"Ġsilver":4387,"Ġinternal":4388,"Ġdesire":4389,"Ġfactory":4390,"Ġnick":4391,"agement":4392,"Ġjan":4393,"Ġproduced":4394,"Ġbend":4395,"Ġspiritual":4396,"Ġbesides":4397,"Ġcomplicated":4398,"Ġinterp":4399,"bre":4400,"Ġyellow":4401,"Ġmaterials":4402,"standing":4403,"Ġdirty":4404,"Ġinteract":4405,"Ġcanon":4406,"Ġjournal":4407,"ques":4408,"Ġsounded":4409,"Ġharder":4410,"Ġweap":4411,"Ġspecifically":4412,"isters":4413,"osure":4414,"arsh":4415,"Ġfran":4416,"Ġfund":4417,"Ġunbelie":4418,"Ġslip":4419,"Ġprinted":4420,"Ġqual":4421,"ope":4422,"Ġspark":4423,"yle":4424,"lock":4425,"Ġdiscussion":4426,"Ġequip":4427,"wr":4428,"Ġpink":4429,"Ġsending":4430,"Ġdar":4431,"Ġabuse":4432,"Ġplate":4433,"Ġdetermined":4434,"Ġsoph":4435,"Ġfif":4436,"Ġoutput":4437,"Ġcomplaints":4438,"uous":4439,"Ġrat":4440,"cient":4441,"Ġord":4442,"iven":4443,"Ġrules":4444,"Ġfailure":4445,"Ġliber":4446,"Ġmattress":4447,"Ġhidden":4448,"Ġcontext":4449,"Ġspan":4450,"Ġbra":4451,"Ġhighlight":4452,"Ġrack":4453,"Ġadvanced":4454,"Ġdistance":4455,"Ġchallenge":4456,"Ġdece":4457,"Ġhous":4458,"Ġthous":4459,"Ġbored":4460,"Ġassume":4461,"ded":4462,"Ġhumans":4463,"ribly":4464,"Ġgenu":4465,"Ġlies":4466,"Ġtag":4467,"mble":4468,"apes":4469,"ament":4470,"Ġpockets":4471,"Ġleading":4472,"Ġtree":4473,"Ġstone":4474,"tr":4475,"Ġsentence":4476,"Ġlocation":4477,"Ġsteam":4478,"Ġdeeper":4479,"Ġdirector":4480,"Ġstain":4481,"Ġrarely":4482,"Ġlucky":4483,"Ġsolve":4484,"iling":4485,"Ġprepared":4486,"Ġrose":4487,"aff":4488,"Ġcontrib":4489,"Ġmistakes":4490,"Ġunne":4491,"Ġoverly":4492,"Ġassist":4493,"Ġepisode":4494,"Ġens":4495,"Ġade":4496,"Ġsupply":4497,"Ġsink":4498,"la":4499,"Ġapps":4500,"Ġdescribes":4501,"Ġcath":4502,"Ġreceiver":4503,"ov":4504,"ibl":4505,"Ġplanet":4506,"Ġletter":4507,"Ġgenuine":4508,"Ġstitch":4509,"Ġbulb":4510,"Ġcustomers":4511,"Ġvisual":4512,"Ġrequest":4513,"pan":4514,"Ġextended":4515,"Ġdetective":4516,"Ġregardless":4517,"Ġindepend":4518,"Ġbadly":4519,"Ġintegr":4520,"mpath":4521,"uses":4522,"Ġtruck":4523,"Ġfed":4524,"aur":4525,"uces":4526,"Ġlift":4527,"Ġpromise":4528,"Ġequipment":4529,"Ġvib":4530,"Ġletters":4531,"iers":4532,"Ġfriendly":4533,"ceed":4534,"Ġunderst":4535,"Ġcameras":4536,"Ġdetect":4537,"Ġrobert":4538,"Ġsearching":4539,"utions":4540,"Ġbreaks":4541,"Ġappropriate":4542,"Ġremark":4543,"Ġcauses":4544,"Ġrear":4545,"xic":4546,"Ġempty":4547,"Ġoccasionally":4548,"Ġhat":4549,"Ġalternative":4550,"Ġeight":4551,"Ġsteph":4552,"point":4553,"Ġcourt":4554,"Ġordering":4555,"Ġqueen":4556,"Ġjapanese":4557,"Ġmotion":4558,"Ġpresident":4559,"Ġdelic":4560,"Ġlbs":4561,"Ġinstance":4562,"Ġreviewed":4563,"Ġingredients":4564,"Ġshif":4565,"Ġremain":4566,"Ġhill":4567,"Ġeverywhere":4568,"Ġcritical":4569,"ession":4570,"ux":4571,"Ġrecipe":4572,"Ġessentially":4573,"Ġharry":4574,"Ġhen":4575,"Ġcalling":4576,"Ġreasonable":4577,"Ġchemistry":4578,"Ġnoted":4579,"Ġsafety":4580,"Ġrepresent":4581,"Ġcars":4582,"Ġglue":4583,"Ġpowers":4584,"Ġwealth":4585,"Ġrare":4586,"ino":4587,"sing":4588,"Ġclothes":4589,"Ġfrustrated":4590,"Ġmeas":4591,"essed":4592,"Ġexception":4593,"cast":4594,"Ġcompat":4595,"Ġguard":4596,"Ġunexpected":4597,"itation":4598,"Ġplanning":4599,"Ġwaist":4600,"Ġshower":4601,"Ġcompon":4602,"Ġbits":4603,"icient":4604,"Ġwitch":4605,"whel":4606,"Ġleaders":4607,"Ġphr":4608,"Ġmajority":4609,"Ġhoped":4610,"Ġlitter":4611,"Ġuniverse":4612,"Ġkilling":4613,"roid":4614,"Ġmeat":4615,"odes":4616,"Ġraised":4617,"ems":4618,"Ġanten":4619,"Ġbenefit":4620,"ification":4621,"Ġcups":4622,"Ġpool":4623,"Ġjim":4624,"Ġconcepts":4625,"Ġcircumst":4626,"Ġafford":4627,"Ġken":4628,"Ġunnecess":4629,"ok":4630,"Ġacad":4631,"Ġrecorded":4632,"Ġapplication":4633,"Ġchron":4634,"Ġamb":4635,"Ġattractive":4636,"Ġsensitive":4637,"order":4638,"Ġtransform":4639,"Ġpassed":4640,"Ġactors":4641,"Ġappearance":4642,"Ġsurvive":4643,"Ġblind":4644,"Ġfocused":4645,"Ġtong":4646,"Ġscale":4647,"Ġworthy":4648,"ato":4649,"Ġbonus":4650,"look":4651,"Ġblend":4652,"po":4653,"Ġwedding":4654,"ob":4655,"Ġflip":4656,"icing":4657,"Ġjane":4658,"oop":4659,"Ġduty":4660,"Ġalph":4661,"Ġengland":4662,"Ġcliff":4663,"Ġafric":4664,"Ġholder":4665,"Ġsnap":4666,"Ġestab":4667,"reh":4668,"Ġhealthy":4669,"Ġantic":4670,"Ġjustice":4671,"Ġacadem":4672,"Ġbent":4673,"Ġtube":4674,"Ġbudget":4675,"Ġfalse":4676,"Ġcosts":4677,"Ġdegrees":4678,"Ġhdmi":4679,"ca":4680,"Ġcausing":4681,"Ġkiss":4682,"Ġseven":4683,"Ġbulbs":4684,"Ġpillow":4685,"Ġmember":4686,"Ġstanding":4687,"Ġnowhere":4688,"Ġzipper":4689,"vin":4690,"Ġchannel":4691,"Ġappeared":4692,"Ġnarrow":4693,"Ġimpl":4694,"Ġsympath":4695,"Ġgraphic":4696,"izz":4697,"Ġlee":4698,"Ġbackpack":4699,"Ġboss":4700,"Ġvocals":4701,"Ġgam":4702,"Ġliterary":4703,"Ġlol":4704,"Ġos":4705,"arts":4706,"Ġillustrations":4707,"Ġtreatment":4708,"Ġgeneration":4709,"Ġstays":4710,"Ġmagaz":4711,"Ġexplains":4712,"Ġschol":4713,"uable":4714,"Ġinnoc":4715,"Ġraw":4716,"Ġstruggles":4717,"Ġfunctions":4718,"Ġcontinued":4719,"Ġgif":4720,"aving":4721,"Ġmeeting":4722,"Ġpeter":4723,"ashing":4724,"Ġsizes":4725,"Ġdiam":4726,"Ġdecisions":4727,"Ġdistur":4728,"Ġproduc":4729,"Ġscott":4730,"Ġcompanies":4731,"Ġsd":4732,"Ġcurious":4733,"Ġbrands":4734,"ama":4735,"Ġmedical":4736,"Ġinsert":4737,"aint":4738,"ception":4739,"Ġluc":4740,"Ġlesson":4741,"Ġworried":4742,"Ġfamilies":4743,"Ġclich":4744,"ches":4745,"Ġgrown":4746,"Ġserve":4747,"Ġmounting":4748,"ndon":4749,"Ġdeeply":4750,"Ġsummary":4751,"Ġgas":4752,"Ġupper":4753,"Ġsquare":4754,"Ġrecognize":4755,"Ġstudio":4756,"Ġadvant":4757,"Ġpanel":4758,"ston":4759,"Ġessential":4760,"Ġfirmware":4761,"soci":4762,"Ġhelping":4763,"Ġbond":4764,"Ġstring":4765,"Ġpil":4766,"Ġphotograph":4767,"kin":4768,"Ġpregn":4769,"Ġanth":4770,"Ġexercise":4771,"Ġcombination":4772,"Ġhass":4773,"ios":4774,"yer":4775,"Ġdirt":4776,"Ġsuperior":4777,"Ġvent":4778,"Ġexternal":4779,"Ġlie":4780,"Ġexpert":4781,"Ġappeal":4782,"Ġlege":4783,"Ġmob":4784,"Ġcomic":4785,"Ġwars":4786,"Ġmb":4787,"Ġstructure":4788,"Ġimpressive":4789,"Ġjoe":4790,"Ġthomas":4791,"Ġenth":4792,"Ġdisg":4793,"Ġcontemporary":4794,"Ġcarrying":4795,"Ġrap":4796,"Ġcreep":4797,"Ġmood":4798,"ender":4799,"Ġcentral":4800,"Ġremains":4801,"Ġtax":4802,"Ġprison":4803,"Ġblank":4804,"Ġsolo":4805,"Ġhung":4806,"Ġfreed":4807,"Ġbound":4808,"Ġpolitics":4809,"Ġanimal":4810,"Ġdelivered":4811,"Ġtrade":4812,"Ġegg":4813,"Ġflu":4814,"ormal":4815,"Ġdelivery":4816,"Ġarmy":4817,"rie":4818,"top":4819,"mark":4820,"Ġbasis":4821,"ault":4822,"Ġmoon":4823,"Ġpian":4824,"Ġcateg":4825,"imate":4826,"Ġpulling":4827,"Ġanalysis":4828,"Ġancient":4829,"Ġandroid":4830,"Ġmaker":4831,"Ġintelligent":4832,"cro":4833,"Ġbeware":4834,"Ġproduce":4835,"Ġdepending":4836,"Ġspoilers":4837,"Ġthemes":4838,"Ġgentle":4839,"Ġvision":4840,"Ġowner":4841,"Ġsugar":4842,"Ġangry":4843,"Ġmanage":4844,"Ġlightweight":4845,"Ġgirlf":4846,"Ġassoci":4847,"Ġtalks":4848,"mber":4849,"otic":4850,"Ġlacks":4851,"Ġstrongly":4852,"Ġoutdo":4853,"Ġgirlfriend":4854,"wing":4855,"Ġsaving":4856,"Ġtent":4857,"Ġalien":4858,"Ġneighbor":4859,"Ġincom":4860,"Ġscientific":4861,"bud":4862,"Ġcabin":4863,"ocol":4864,"Ġreplacing":4865,"Ġgear":4866,"Ġepisodes":4867,"inated":4868,"Ġlondon":4869,"Ġlit":4870,"Ġutter":4871,"Ġrent":4872,"Ġserv":4873,"imp":4874,"Ġneat":4875,"Ġwel":4876,"Ġsources":4877,"cover":4878,"ka":4879,"ule":4880,"Ġprove":4881,"Ġcontrast":4882,"Ġbrack":4883,"Ġupset":4884,"cre":4885,"Ġfactor":4886,"Ġideal":4887,"Ġsystems":4888,"Ġweeke":4889,"ara":4890,"Ġwires":4891,"Ġplans":4892,"Ġspread":4893,"Ġimagination":4894,"ald":4895,"Ġterror":4896,"Ġmold":4897,"Ġreturns":4898,"Ġdeserves":4899,"Ġmaps":4900,"umes":4901,"Ġplant":4902,"Ġexpand":4903,"Ġlessons":4904,"Ġdisconnect":4905,"Ġhost":4906,"Ġgain":4907,"Ġgps":4908,"ein":4909,"Ġjoke":4910,"Ġearn":4911,"Ġheaven":4912,"Ġeliz":4913,"kn":4914,"Ġdynam":4915,"Ġbank":4916,"acity":4917,"Ġadequ":4918,"Ġrevealed":4919,"Ġsatisfying":4920,"Ġopposite":4921,"Ġbread":4922,"Ġtort":4923,"Ġprimary":4924,"Ġrepetitive":4925,"iday":4926,"Ġboxes":4927,"Ġslim":4928,"Ġprinting":4929,"iest":4930,"Ġmemories":4931,"Ġwrap":4932,"Ġhall":4933,"Ġfrankly":4934,"Ġviews":4935,"aire":4936,"Ġease":4937,"Ġimprovement":4938,"Ġcollar":4939,"Ġanticip":4940,"Ġminimal":4941,"Ġtreated":4942,"ids":4943,"ulate":4944,"Ġindustry":4945,"ulf":4946,"Ġemph":4947,"Ġdrivers":4948,"vision":4949,"Ġot":4950,"Ġantenna":4951,"gers":4952,"Ġsuggested":4953,"Ġvir":4954,"Ġsea":4955,"Ġlas":4956,"Ġgall":4957,"Ġdiag":4958,"Ġunbi":4959,"Ġshots":4960,"Ġpunch":4961,"Ġinterpret":4962,"Ġhey":4963,"Ġca":4964,"Ġpurs":4965,"Ġscar":4966,"Ġproviding":4967,"Ġemotion":4968,"Ġpresents":4969,"Ġunbiased":4970,"Ġbob":4971,"Ġforces":4972,"Ġsinging":4973,"Ġnarrator":4974,"Ġgoal":4975,"Ġupdated":4976,"anda":4977,"Ġtales":4978,"lan":4979,"Ġreact":4980,"Ġsheet":4981,"Ġsensor":4982,"airs":4983,"Ġfellow":4984,"Ġtear":4985,"iel":4986,"Ġstorm":4987,"Ġboo":4988,"Ġinstallment":4989,"Ġachieve":4990,"Ġnavig":4991,"Ġsmith":4992,"Ġpicking":4993,"Ġspots":4994,"Ġpainful":4995,"Ġrow":4996,"ox":4997,"oty":4998,"Ġrhy":4999,"Ġmental":5000,"Ġrichard":5001,"Ġcrow":5002,"Ġtask":5003,"Ġwis":5004,"Ġyout":5005,"any":5006,"these":5007,"Ġcompos":5008,"Ġtub":5009,"Ġbutter":5010,"Ġstronger":5011,"Ġparanormal":5012,"ulated":5013,"abeth":5014,"Ġaim":5015,"Ġarrang":5016,"Ġspect":5017,"stal":5018,"Ġcarpet":5019,"Ġstiff":5020,"Ġcele":5021,"ns":5022,"cies":5023,"Ġshooting":5024,"Ġfinan":5025,"Ġsnug":5026,"Ġhated":5027,"Ġmarry":5028,"Ġinterface":5029,"icted":5030,"Ġtechniques":5031,"Ġlimit":5032,"Ġgorge":5033,"Ġcircumstances":5034,"night":5035,"Ġscore":5036,"Ġconversation":5037,"Ġtesting":5038,"Ġabsor":5039,"Ġlighter":5040,"Ġfitting":5041,"Ġbowl":5042,"Ġinstalling":5043,"Ġcin":5044,"Ġconvenient":5045,"Ġwhenever":5046,"Ġreliable":5047,"Ġcow":5048,"ena":5049,"proof":5050,"Ġjazz":5051,"Ġartists":5052,"Ġhollywood":5053,"nat":5054,"Ġconfig":5055,"Ġpleasure":5056,"Ġoz":5057,"Ġyoutube":5058,"Ġsupposedly":5059,"Ġgreater":5060,"Ġmechanism":5061,"Ġlistened":5062,"Ġports":5063,"Ġsurprisingly":5064,"vey":5065,"Ġlover":5066,"Ġimproved":5067,"uary":5068,"Ġprompt":5069,"Ġwrapped":5070,"Ġattraction":5071,"Ġpolicy":5072,"iveness":5073,"uation":5074,"Ġtie":5075,"Ġsecondary":5076,"Ġhassle":5077,"Ġalarm":5078,"Ġwheels":5079,"Ġwore":5080,"Ġpoet":5081,"Ġearbud":5082,"Ġhide":5083,"Ġsentences":5084,"Ġgy":5085,"Ġmas":5086,"Ġcass":5087,"Ġcapable":5088,"Ġcomedy":5089,"Ġsales":5090,"Ġshorter":5091,"Ġreminded":5092,"Ġcelebr":5093,"Ġkate":5094,"Ġjacket":5095,"oration":5096,"lim":5097,"Ġuncle":5098,"bble":5099,"rom":5100,"Ġmonster":5101,"Ġtrigg":5102,"Ġinser":5103,"Ġvelcro":5104,"using":5105,"Ġexcess":5106,"off":5107,"Ġemphas":5108,"Ġtick":5109,"Ġglasses":5110,"Ġgaming":5111,"Ġbelong":5112,"Ġloyal":5113,"Ġtex":5114,"Ġrefres":5115,"Ġcorners":5116,"Ġoverwhel":5117,"Ġcommer":5118,"Ġmild":5119,"Ġmenu":5120,"Ġpitch":5121,"Ġunpl":5122,"Ġunbelievable":5123,"Ġseemingly":5124,"Ġmemo":5125,"Ġhorse":5126,"Ġappreciated":5127,"Ġell":5128,"Ġww":5129,"Ġprivate":5130,"Ġber":5131,"Ġkat":5132,"Ġlam":5133,"soft":5134,"akers":5135,"Ġflight":5136,"Ġcash":5137,"Ġvari":5138,"Ġstops":5139,"Ġfreedom":5140,"alog":5141,"Ġcompreh":5142,"Ġcompact":5143,"Ġtoss":5144,"Ġhandles":5145,"Ġque":5146,"Ġmagical":5147,"Ġalt":5148,"ille":5149,"sey":5150,"ointed":5151,"Ġwaited":5152,"Ġgorgeous":5153,"Ġlamp":5154,"Ġunnecessary":5155,"Ġdebut":5156,"Ġremoving":5157,"Ġrings":5158,"Ġspoiler":5159,"Ġhub":5160,"Ġconsequ":5161,"Ġstayed":5162,"Ġdemonstr":5163,"ita":5164,"Ġrechar":5165,"Ġmisle":5166,"Ġallowing":5167,"Ġtwenty":5168,"Ġattitude":5169,"Ġsupporting":5170,"Ġmillion":5171,"Ġrushed":5172,"Ġtalented":5173,"Ġsuperb":5174,"Ġcasual":5175,"Ġinj":5176,"Ġstun":5177,"Ġdeck":5178,"roll":5179,"Ġblow":5180,"eral":5181,"Ġdying":5182,"Ġthrew":5183,"reg":5184,"Ġconnector":5185,"aked":5186,"Ġenjoying":5187,"Ġeast":5188,"bell":5189,"Ġadop":5190,"piece":5191,"Ġportable":5192,"Ġsisters":5193,"Ġnewer":5194,"Ġamp":5195,"Ġnur":5196,"Ġusers":5197,"Ġsocks":5198,"Ġder":5199,"Ġsleeping":5200,"Ġnoticeable":5201,"Ġepic":5202,"Ġfake":5203,"Ġconnections":5204,"Ġcreates":5205,"Ġtoys":5206,"Ġoutstanding":5207,"arant":5208,"Ġunusual":5209,"Ġwrist":5210,"pensive":5211,"Ġpriced":5212,"Ġheck":5213,"Ġnecessarily":5214,"books":5215,"Ġvivid":5216,"Ġsoap":5217,"Ġeducation":5218,"Ġgrill":5219,"Ġadventures":5220,"Ġol":5221,"under":5222,"Ġsports":5223,"Ġbothered":5224,"Ġwake":5225,"Ġconfir":5226,"Ġreminds":5227,"unate":5228,"Ġletting":5229,"Ġopens":5230,"there":5231,"hes":5232,"Ġfrustration":5233,"Ġcardboard":5234,"Ġchain":5235,"Ġsticks":5236,"esy":5237,"Ġnational":5238,"Ġinexpensive":5239,"Ġliqu":5240,"Ġpeel":5241,"Ġgloves":5242,"Ġweigh":5243,"zy":5244,"Ġhosp":5245,"Ġmatters":5246,"Ġdragon":5247,"Ġserial":5248,"Ġquir":5249,"Ġamericans":5250,"Ġreceiving":5251,"Ġdisk":5252,"Ġtill":5253,"Ġseam":5254,"otten":5255,"Ġmarketing":5256,"Ġunfold":5257,"Ġstores":5258,"Ġscary":5259,"ada":5260,"Ġtelevision":5261,"Ġstainless":5262,"Ġgig":5263,"Ġtray":5264,"Ġconcert":5265,"Ġfict":5266,"Ġrepeat":5267,"Ġlighting":5268,"Ġjon":5269,"Ġbars":5270,"ending":5271,"Ġdifficulty":5272,"Ġfrag":5273,"Ġfigures":5274,"Ġsci":5275,"Ġyog":5276,"Ġmoral":5277,"Ġentertainment":5278,"Ġauthent":5279,"Ġdriven":5280,"Ġelizabeth":5281,"Ġquit":5282,"igned":5283,"Ġcommand":5284,"Ġgrey":5285,"Ġequally":5286,"Ġdollar":5287,"Ġbask":5288,"Ġsilic":5289,"Ġrede":5290,"Ġunited":5291,"Ġmemoir":5292,"Ġwitness":5293,"Ġposted":5294,"Ġvocal":5295,"ads":5296,"Ġhilar":5297,"Ġkinds":5298,"Ġshoulder":5299,"ship":5300,"Ġbedroom":5301,"Ġzoom":5302,"Ġgro":5303,"Ġdumb":5304,"Ġluckily":5305,"teen":5306,"ene":5307,"Ġft":5308,"Ġrust":5309,"Ġflying":5310,"Ġviewing":5311,"Ġweekend":5312,"Ġadvantage":5313,"Ġbum":5314,"Ġpushed":5315,"etime":5316,"Ġvaluable":5317,"Ġspare":5318,"Ġages":5319,"cd":5320,"Ġvictor":5321,"urally":5322,"Ġcuts":5323,"Ġmysteries":5324,"Ġmi":5325,"Ġplat":5326,"Ġbump":5327,"acle":5328,"rical":5329,"Ġblame":5330,"Ġcream":5331,"Ġheroes":5332,"Ġshallow":5333,"Ġprimarily":5334,"down":5335,"Ġtypically":5336,"Ġgreatly":5337,"Ġvehicle":5338,"Ġgarden":5339,"arian":5340,"Ġcapture":5341,"Ġfourth":5342,"ek":5343,"Ġgenius":5344,"Ġdies":5345,"Ġpublishing":5346,"ora":5347,"enced":5348,"olves":5349,"Ġsample":5350,"Ġpra":5351,"Ġalco":5352,"Ġstereo":5353,"Ġgray":5354,"Ġcush":5355,"Ġunin":5356,"Ġunw":5357,"Ġdefect":5358,"Ġhesit":5359,"Ġagent":5360,"ford":5361,"Ġrefreshing":5362,"Ġsubtle":5363,"othing":5364,"Ġgarage":5365,"Ġdescribing":5366,"Ġleader":5367,"Ġultimate":5368,"inge":5369,"Ġcriticism":5370,"Ġbirthday":5371,"Ġinspired":5372,"Ġpads":5373,"vy":5374,"Ġcause":5375,"ban":5376,"hol":5377,"Ġtraged":5378,"Ġguarant":5379,"Ġresearched":5380,"Ġunkn":5381,"illing":5382,"Ġbelieves":5383,"iles":5384,"Ġfunctional":5385,"Ġexplaining":5386,"Ġstruggling":5387,"Ġalot":5388,"house":5389,"Ġflick":5390,"Ġdeals":5391,"Ġmounted":5392,"Ġpushing":5393,"Ġquar":5394,"Ġtouching":5395,"Ġmcc":5396,"Ġgab":5397,"Ġinspir":5398,"Ġune":5399,"now":5400,"Ġtears":5401,"Ġnu":5402,"Ġdrill":5403,"Ġannoyed":5404,"Ġorch":5405,"Ġrod":5406,"cur":5407,"rel":5408,"Ġintention":5409,"Ġmerely":5410,"Ġwashed":5411,"Ġpartner":5412,"Ġsheets":5413,"Ġrip":5414,"Ġinstruction":5415,"Ġcorpor":5416,"Ġreput":5417,"alian":5418,"Ġsarah":5419,"Ġcycle":5420,"Ġrevolution":5421,"Ġauthentic":5422,"Ġbell":5423,"Ġpour":5424,"Ġwon":5425,"Ġhaw":5426,"Ġunderstood":5427,"Ġvend":5428,"Ġpleasant":5429,"Ġbrut":5430,"Ġskim":5431,"lor":5432,"rs":5433,"Ġkidn":5434,"Ġdecades":5435,"Ġpencil":5436,"Ġconsistent":5437,"Ġlearns":5438,"Ġacceptable":5439,"Ġmanages":5440,"Ġsher":5441,"Ġsalt":5442,"Ġsplit":5443,"Ġusa":5444,"Ġmartin":5445,"Ġsurf":5446,"Ġbringing":5447,"Ġmirror":5448,"Ġefforts":5449,"Ġmicrosoft":5450,"ette":5451,"Ġformula":5452,"Ġnightm":5453,"Ġchocol":5454,"Ġdepartment":5455,"Ġyester":5456,"gie":5457,"Ġprofessor":5458,"Ġhappily":5459,"Ġstandards":5460,"neath":5461,"Ġconditions":5462,"Ġhenry":5463,"Ġbod":5464,"Ġcance":5465,"Ġthumb":5466,"Ġgrowth":5467,"Ġnik":5468,"unction":5469,"Ġrecords":5470,"Ġsurely":5471,"Ġtang":5472,"Ġprograms":5473,"Ġapplied":5474,"ees":5475,"Ġeager":5476,"Ġtedious":5477,"Ġcontainer":5478,"Ġtroubles":5479,"Ġacqu":5480,"Ġactive":5481,"Ġcit":5482,"Ġdrops":5483,"Ġdrinking":5484,"hold":5485,"Ġclips":5486,"Ġunderneath":5487,"Ġloop":5488,"Ġguessing":5489,"Ġkr":5490,"Ġpiano":5491,"Ġtack":5492,"Ġaband":5493,"Ġfurn":5494,"Ġfortunately":5495,"Ġrecordings":5496,"gl":5497,"Ġchos":5498,"Ġcracked":5499,"Ġpublish":5500,"rated":5501,"Ġcro":5502,"Ġoven":5503,"Ġna":5504,"Ġphilosophy":5505,"Ġwallet":5506,"Ġcott":5507,"iled":5508,"Ġrule":5509,"stall":5510,"Ġharr":5511,"natural":5512,"Ġcalif":5513,"Ġprotective":5514,"Ġnative":5515,"Ġstream":5516,"Ġgroups":5517,"Ġcompatible":5518,"uality":5519,"Ġstereoty":5520,"Ġanx":5521,"Ġextr":5522,"Ġacts":5523,"Ġsweat":5524,"Ġmagazine":5525,"kable":5526,"raft":5527,"Ġbubb":5528,"Ġautomatically":5529,"Ġlaid":5530,"Ġboat":5531,"Ġhilarious":5532,"Ġgang":5533,"Ġgalax":5534,"Ġlovers":5535,"Ġchosen":5536,"Ġenemy":5537,"Ġhundreds":5538,"men":5539,"ables":5540,"eg":5541,"Ġpurposes":5542,"Ġwil":5543,"Ġmanip":5544,"Ġmarks":5545,"ighter":5546,"Ġfairy":5547,"achel":5548,"Ġusage":5549,"Ġrig":5550,"Ġchest":5551,"Ġfunctionality":5552,"Ġmountain":5553,"Ġunreal":5554,"Ġrevel":5555,"Ġcomputers":5556,"Ġbusy":5557,"Ġcaliforn":5558,"Ġouter":5559,"Ġbang":5560,"Ġrely":5561,"Ġtact":5562,"hile":5563,"Ġswim":5564,"Ġadvance":5565,"ache":5566,"Ġsinger":5567,"Ġnobody":5568,"Ġlifetime":5569,"Ġawhile":5570,"Ġedited":5571,"Ġdozen":5572,"Ġserved":5573,"Ġalpha":5574,"Ġselection":5575,"reek":5576,"Ġfreez":5577,"Ġfau":5578,"Ġthru":5579,"Ġcompress":5580,"Ġtune":5581,"Ġshocked":5582,"Ġcapacity":5583,"Ġslot":5584,"Ġteenage":5585,"Ġcartridge":5586,"Ġbackup":5587,"Ġreb":5588,"Ġrecall":5589,"Ġelectronic":5590,"Ġhunter":5591,"Ġpatch":5592,"Ġexercises":5593,"nda":5594,"Ġmisleading":5595,"Ġyard":5596,"col":5597,"Ġhaun":5598,"Ġchallenges":5599,"Ġinstant":5600,"Ġfav":5601,"Ġguest":5602,"etch":5603,"Ġcontents":5604,"Ġvast":5605,"Ġmature":5606,"Ġintent":5607,"Ġhood":5608,"Ġfoods":5609,"Ġmedio":5610,"Ġsuffering":5611,"Ġmelod":5612,"Ġtaught":5613,"Ġshr":5614,"Ġinstantly":5615,"Ġatm":5616,"Ġsen":5617,"Ġthreads":5618,"Ġdash":5619,"Ġsock":5620,"Ġfavorites":5621,"Ġnightmare":5622,"Ġtap":5623,"Ġadjustable":5624,"Ġshopping":5625,"Ġincons":5626,"Ġconvinced":5627,"Ġblades":5628,"asty":5629,"Ġsubs":5630,"Ġrise":5631,"Ġyesterday":5632,"Ġcolored":5633,"Ġreven":5634,"Ġinfluence":5635,"Ġcaut":5636,"Ġdock":5637,"Ġwalls":5638,"Ġcommercial":5639,"Ġgranted":5640,"Ġlegend":5641,"Ġnuts":5642,"Ġlatter":5643,"Ġdifferences":5644,"Ġprojects":5645,"inate":5646,"Ġheadphone":5647,"lines":5648,"Ġmedic":5649,"ront":5650,"Ġscratches":5651,"aced":5652,"Ġack":5653,"Ġprince":5654,"Ġtranslation":5655,"Ġner":5656,"Ġchecking":5657,"Ġtitles":5658,"Ġmilk":5659,"Ġapprox":5660,"Ġdual":5661,"Ġoccasional":5662,"Ġidi":5663,"Ġba":5664,"Ġdele":5665,"isy":5666,"ura":5667,"Ġlayer":5668,"Ġdefe":5669,"Ġaug":5670,"Ġcovering":5671,"Ġcommentary":5672,"Ġgalaxy":5673,"Ġcompartment":5674,"ifying":5675,"Ġfinancial":5676,"Ġintrigued":5677,"Ġfictional":5678,"Ġextensive":5679,"Ġintellect":5680,"Ġcalifornia":5681,"Ġtraveling":5682,"Ġdramatic":5683,"Ġequal":5684,"Ġlinks":5685,"Ġinsights":5686,"Ġsucks":5687,"Ġjess":5688,"Ġorange":5689,"Ġfarm":5690,"Ġcrew":5691,"Ġmanagement":5692,"Ġwaterproof":5693,"Ġwound":5694,"Ġtorn":5695,"Ġsits":5696,"Ġcrimin":5697,"Ġabandon":5698,"Ġorganized":5699,"Ġunh":5700,"Ġpowered":5701,"Ġpackaged":5702,"Ġchoo":5703,"Ġincorrect":5704,"Ġfate":5705,"Ġportrayed":5706,"Ġfeat":5707,"ham":5708,"Ġaust":5709,"Ġapartment":5710,"Ġblues":5711,"Ġpicks":5712,"Ġali":5713,"Ġvillain":5714,"Ġstudies":5715,"Ġfilters":5716,"Ġvirtually":5717,"Ġflesh":5718,"word":5719,"Ġsym":5720,"Ġcompass":5721,"Ġsounding":5722,"Ġcharming":5723,"Ġobserv":5724,"ugging":5725,"Ġfocuses":5726,"Ġhalfway":5727,"Ġesp":5728,"Ġconnecting":5729,"Ġbolts":5730,"Ġchristians":5731,"rog":5732,"Ġspends":5733,"stic":5734,"Ġchocolate":5735,"Ġfallen":5736,"Ġdesktop":5737,"Ġshadow":5738,"izer":5739,"Ġadapt":5740,"Ġheavily":5741,"Ġaccompan":5742,"ado":5743,"Ġaid":5744,"Ġbasket":5745,"Ġjackson":5746,"Ġquotes":5747,"Ġhip":5748,"Ġloaded":5749,"cend":5750,"Ġdimensional":5751,"Ġriver":5752,"Ġrice":5753,"Ġtrial":5754,"Ġperformances":5755,"coming":5756,"yn":5757,"Ġfacing":5758,"Ġbind":5759,"Ġexposed":5760,"Ġbiography":5761,"usive":5762,"enom":5763,"Ġjudge":5764,"Ġdistort":5765,"Ġjar":5766,"itech":5767,"Ġcatholic":5768,"Ġsquee":5769,"Ġincrease":5770,"Ġunknown":5771,"Ġsevere":5772,"Ġriding":5773,"Ġretail":5774,"galley":5775,"Ġgrammar":5776,"Ġchallenging":5777,"Ġstrings":5778,"Ġripped":5779,"eline":5780,"Ġoffering":5781,"Ġindian":5782,"ram":5783,"Ġperman":5784,"Ġruined":5785,"Ġvacation":5786,"Ġangst":5787,"telling":5788,"Ġtoe":5789,"field":5790,"Ġsuction":5791,"Ġtrag":5792,"Ġsouthern":5793,"Ġbathroom":5794,"Ġvoices":5795,"Ġchicken":5796,"kins":5797,"iently":5798,"bl":5799,"Ġscenar":5800,"Ġzombie":5801,"oles":5802,"outs":5803,"Ġadam":5804,"Ġatmosp":5805,"Ġinformative":5806,"lies":5807,"Ġdedicated":5808,"Ġearbuds":5809,"Ġfulf":5810,"Ġbibl":5811,"Ġnetgalley":5812,"Ġwolf":5813,"Ġpov":5814,"Ġhospital":5815,"Ġunp":5816,"Ġdrawing":5817,"craft":5818,"Ġflashlight":5819,"Ġcaptiv":5820,"Ġemotionally":5821,"Ġovercome":5822,"Ġbulky":5823,"Ġindividuals":5824,"Ġcartridges":5825,"mother":5826,"Ġdise":5827,"Ġgap":5828,"Ġrecommendation":5829,"icide":5830,"uate":5831,"Ġdivor":5832,"Ġharsh":5833,"Ġredeem":5834,"Ġcleaned":5835,"Ġdisgust":5836,"Ġdialog":5837,"Ġpul":5838,"Ġdisag":5839,"Ġsha":5840,"Ġelim":5841,"Ġjobs":5842,"Ġyouth":5843,"Ġplots":5844,"illa":5845,"Ġreasonably":5846,"Ġrescue":5847,"Ġinconsist":5848,"Ġhyp":5849,"Ġthrowing":5850,"Ġcombat":5851,"Ġlogitech":5852,"Ġpounds":5853,"Ġreaction":5854,"mmer":5855,"Ġteens":5856,"Ġdemo":5857,"cho":5858,"Ġrolling":5859,"Ġcultural":5860,"Ġrepeatedly":5861,"Ġconscious":5862,"Ġdisturbing":5863,"Ġorchest":5864,"Ġpresentation":5865,"Ġdemand":5866,"Ġtail":5867,"Ġforgotten":5868,"Ġtherm":5869,"Ġteeth":5870,"iously":5871,"Ġevolution":5872,"Ġchemical":5873,"pson":5874,"Ġthankfully":5875,"Ġmemorable":5876,"Ġactivities":5877,"Ġmarch":5878,"sters":5879,"Ġwhatso":5880,"Ġgh":5881,"Ġindependent":5882,"Ġintelligence":5883,"rier":5884,"Ġbuff":5885,"agers":5886,"Ġtends":5887,"mans":5888,"Ġtragedy":5889,"Ġoperation":5890,"Ġjeff":5891,"Ġmile":5892,"Ġinse":5893,"Ġplane":5894,"Ġdinner":5895,"Ġaccidentally":5896,"Ġfinishing":5897,"Ġresolved":5898,"Ġattempted":5899,"Ġoct":5900,"Ġlean":5901,"Ġdoors":5902,"Ġpairs":5903,"Ġwrench":5904,"usi":5905,"Ġwhatsoever":5906,"Ġenh":5907,"Ġnovella":5908,"Ġconcer":5909,"Ġwarn":5910,"Ġgiant":5911,"hesive":5912,"Ġhonor":5913,"Ġidentity":5914,"Ġarrive":5915,"Ġignore":5916,"Ġadequate":5917,"ech":5918,"sole":5919,"atis":5920,"Ġbattles":5921,"Ġwat":5922,"backs":5923,"Ġmethods":5924,"Ġtalked":5925,"Ġtoler":5926,"Ġwilliam":5927,"Ġxbox":5928,"Ġattachment":5929,"atory":5930,"Ġterribly":5931,"track":5932,"Ġbird":5933,"Ġorganization":5934,"Ġshared":5935,"Ġseek":5936,"Ġreached":5937,"Ġacknow":5938,"Ġveget":5939,"Ġstatus":5940,"Ġbree":5941,"Ġargument":5942,"Ġreveal":5943,"Ġneedless":5944,"encies":5945,"Ġwine":5946,"Ġforeign":5947,"Ġvampires":5948,"Ġouts":5949,"Ġhappiness":5950,"Ġdesired":5951,"Ġopposed":5952,"Ġtemp":5953,"Ġchase":5954,"Ġgut":5955,"Ġnaturally":5956,"Ġjones":5957,"Ġroman":5958,"Ġhence":5959,"Ġalumin":5960,"Ġbare":5961,"Ġdownloaded":5962,"Ġowners":5963,"Ġenthusi":5964,"Ġregister":5965,"Ġhandled":5966,"Ġfeedback":5967,"Ġconstructed":5968,"Ġresponsible":5969,"Ġlegal":5970,"Ġcrush":5971,"spe":5972,"Ġimportance":5973,"Ġchannels":5974,"Ġdislike":5975,"Ġrelevant":5976,"Ġagre":5977,"Ġom":5978,"Ġcontained":5979,"Ġscope":5980,"ago":5981,"Ġadjustment":5982,"Ġsubstant":5983,"Ġmediocre":5984,"Ġuniversity":5985,"Ġentry":5986,"Ġcharm":5987,"Ġconver":5988,"Ġliquid":5989,"Ġdrain":5990,"Ġskept":5991,"Ġvisible":5992,"Ġmexic":5993,"Ġsolved":5994,"Ġhanded":5995,"Ġwisdom":5996,"Ġmike":5997,"Ġconserv":5998,"Ġburning":5999,"Ġaa":6000,"Ġanne":6001,"Ġaccomplish":6002,"Ġmort":6003,"Ġintu":6004,"Ġwidth":6005,"idents":6006,"Ġcourage":6007,"Ġexplore":6008,"osh":6009,"Ġpointed":6010,"Ġtons":6011,"Ġsag":6012,"Ġsymb":6013,"Ġactor":6014,"Ġconfidence":6015,"Ġflawed":6016,"lam":6017,"Ġlifest":6018,"Ġsurvival":6019,"Ġseeking":6020,"Ġholy":6021,"Ġcous":6022,"Ġburned":6023,"Ġdrugs":6024,"Ġbeliefs":6025,"Ġmut":6026,"Ġdestruct":6027,"Ġmessages":6028,"Ġstatement":6029,"Ġluke":6030,"Ġchic":6031,"Ġresources":6032,"angle":6033,"Ġvague":6034,"Ġbush":6035,"Ġstead":6036,"Ġprincess":6037,"Ġze":6038,"Ġjewish":6039,"Ġheavier":6040,"Ġinfer":6041,"Ġindo":6042,"Ġhumanity":6043,"lyn":6044,"Ġofficial":6045,"Ġslo":6046,"Ġcontract":6047,"Ġimportantly":6048,"Ġaccounts":6049,"die":6050,"Ġthicker":6051,"Ġdeveloping":6052,"Ġbiblical":6053,"Ġrender":6054,"Ġbetray":6055,"Ġsleeve":6056,"Ġbrew":6057,"Ġtires":6058,"Ġadditionally":6059,"Ġcleaner":6060,"Ġcaptain":6061,"iture":6062,"Ġanger":6063,"inist":6064,"Ġprogramming":6065,"Ġobl":6066,"Ġrelax":6067,"Ġcoat":6068,"Ġvalues":6069,"Ġswitched":6070,"Ġcompliment":6071,"nov":6072,"Ġasks":6073,"Ġconfident":6074,"Ġtan":6075,"Ġshaped":6076,"Ġsne":6077,"lon":6078,"Ġbeats":6079,"Ġds":6080,"Ġrevenge":6081,"Ġvert":6082,"Ġtransport":6083,"Ġindex":6084,"itz":6085,"Ġinnocent":6086,"Ġworthless":6087,"Ġinsult":6088,"Ġdistinct":6089,"Ġgather":6090,"Ġdump":6091,"Ġtodd":6092,"gged":6093,"Ġperformed":6094,"elle":6095,"Ġpromised":6096,"Ġlocked":6097,"Ġsatisfact":6098,"Ġnation":6099,"Ġinvolving":6100,"Ġfat":6101,"Ġboun":6102,"ole":6103,"ki":6104,"vent":6105,"Ġpatterns":6106,"apers":6107,"Ġcarb":6108,"istics":6109,"Ġinvestment":6110,"Ġstable":6111,"idity":6112,"Ġtighten":6113,"Ġalert":6114,"Ġengaged":6115,"Ġaluminum":6116,"met":6117,"Ġsmile":6118,"Ġmicrophone":6119,"Ġbiz":6120,"Ġembarr":6121,"Ġordinary":6122,"llers":6123,"Ġtexas":6124,"Ġdropping":6125,"Ġdisaster":6126,"ano":6127,"Ġhunt":6128,"Ġax":6129,"Ġexperiment":6130,"Ġbudd":6131,"Ġcaring":6132,"Ġconsistently":6133,"Ġrussian":6134,"Ġthousands":6135,"Ġattempting":6136,"Ġinvestigation":6137,"Ġhousing":6138,"Ġheel":6139,"Ġcarol":6140,"Ġirritating":6141,"Ġcoin":6142,"Ġmassive":6143,"Ġupdates":6144,"Ġrestaur":6145,"Ġtransm":6146,"Ġcapital":6147,"Ġoptim":6148,"Ġcub":6149,"Ġloos":6150,"Ġcommit":6151,"Ġconversations":6152,"aign":6153,"cul":6154,"Ġviolent":6155,"Ġexcit":6156,"Ġmaxim":6157,"Ġcircle":6158,"Ġbarb":6159,"Ġsupernatural":6160,"Ġremaining":6161,"Ġspanish":6162,"Ġbuyer":6163,"ucing":6164,"Ġgrain":6165,"Ġswing":6166,"Ġtherap":6167,"Ġwonderfully":6168,"Ġquote":6169,"Ġjudg":6170,"pir":6171,"Ġisol":6172,"Ġcreation":6173,"rate":6174,"Ġoutlet":6175,"Ġpadding":6176,"Ġsword":6177,"Ġnose":6178,"Ġshift":6179,"Ġdiscs":6180,"Ġweapons":6181,"inn":6182,"Ġmanually":6183,"Ġinher":6184,"Ġtied":6185,"Ġsticking":6186,"ders":6187,"Ġraise":6188,"Ġlargely":6189,"Ġcrisp":6190,"Ġtempt":6191,"Ġbalanced":6192,"Ġwired":6193,"Ġchris":6194,"Ġhighest":6195,"Ġincreasing":6196,"Ġprecise":6197,"Ġdarker":6198,"Ġemma":6199,"Ġbrook":6200,"Ġbrows":6201,"Ġelectronics":6202,"Ġexistence":6203,"Ġss":6204,"Ġtimer":6205,"Ġinspect":6206,"Ġthrilled":6207,"Ġplanned":6208,"Ġassembled":6209,"Ġpresence":6210,"Ġbridge":6211,"Ġmagnet":6212,"Ġassass":6213,"Ġpouch":6214,"Ġresource":6215,"Ġrights":6216,"Ġadvertising":6217,"Ġborder":6218,"Ġcombined":6219,"Ġlb":6220,"Ġcancer":6221,"Ġcomponents":6222,"Ġgolden":6223,"Ġpulls":6224,"rick":6225,"Ġstereotyp":6226,"athan":6227,"Ġsubjects":6228,"Ġexcuse":6229,"Ġcampaign":6230,"ola":6231,"Ġbrad":6232,"Ġgym":6233,"Ġlem":6234,"Ġcreepy":6235,"Ġsurrounding":6236,"Ġstaying":6237,"Ġlists":6238,"oster":6239,"Ġbulk":6240,"Ġmarvel":6241,"Ġdeserve":6242,"Ġidentify":6243,"Ġsuggests":6244,"Ġactivity":6245,"Ġpractically":6246,"Ġphenom":6247,"nday":6248,"ciples":6249,"asonic":6250,"Ġasus":6251,"Ġdevil":6252,"aks":6253,"Ġfurniture":6254,"Ġinterviews":6255,"icit":6256,"ooper":6257,"Ġsteve":6258,"Ġwarri":6259,"Ġenemies":6260,"Ġoverlook":6261,"Ġshake":6262,"Ġembarrass":6263,"Ġbolt":6264,"Ġsorts":6265,"atical":6266,"Ġstephen":6267,"Ġdiscovers":6268,"Ġsilicone":6269,"ums":6270,"Ġbay":6271,"Ġlcd":6272,"Ġmobile":6273,"Ġgeneric":6274,"Ġcotton":6275,"berg":6276,"boy":6277,"Ġsuggestions":6278,"Ġsoundtrack":6279,"Ġcaptured":6280,"Ġassumed":6281,"Ġworlds":6282,"Ġsubstance":6283,"Ġreco":6284,"Ġchristianity":6285,"Ġcole":6286,"Ġloses":6287,"Ġdistracting":6288,"irts":6289,"Ġcave":6290,"Ġhann":6291,"Ġalter":6292,"Ġslipp":6293,"Ġtragic":6294,"Ġassemble":6295,"Ġknight":6296,"Ġdemons":6297,"Ġnail":6298,"agger":6299,"Ġinformed":6300,"Ġtexture":6301,"vis":6302,"Ġidentical":6303,"resp":6304,"Ġevening":6305,"Ġclarity":6306,"Ġhealing":6307,"nes":6308,"Ġpassages":6309,"Ġeld":6310,"Ġgods":6311,"Ġlasts":6312,"Ġconcerns":6313,"born":6314,"Ġjoint":6315,"Ġfaces":6316,"Ġhotel":6317,"Ġexcitement":6318,"Ġbeginner":6319,"itors":6320,"rael":6321,"Ġlandsc":6322,"Ġwalked":6323,"Ġpregnant":6324,"Ġjen":6325,"Ġtrips":6326,"Ġknives":6327,"Ġinterior":6328,"Ġsharing":6329,"Ġnons":6330,"Ġsucceed":6331,"Ġconduct":6332,"Ġdrew":6333,"Ġbottles":6334,"Ġclothing":6335,"Ġmesh":6336,"Ġrecharge":6337,"Ġliking":6338,"Ġsignificantly":6339,"Ġconsumer":6340,"Ġdurability":6341,"print":6342,"Ġreadable":6343,"Ġfruit":6344,"Ġextend":6345,"uri":6346,"da":6347,"Ġrebo":6348,"Ġaffair":6349,"Ġstyles":6350,"Ġcos":6351,"Ġlenses":6352,"Ġfabulous":6353,"Ġinternational":6354,"Ġupside":6355,"Ġtastes":6356,"ida":6357,"ril":6358,"Ġbelieved":6359,"Ġmentions":6360,"angers":6361,"Ġopera":6362,"illed":6363,"appy":6364,"Ġpassing":6365,"athers":6366,"Ġdarkness":6367,"Ġterrific":6368,"Ġspy":6369,"Ġlisting":6370,"Ġfaced":6371,"Ġlag":6372,"Ġpreferred":6373,"Ġpoetry":6374,"Ġclue":6375,"Ġwarned":6376,"Ġlogic":6377,"Ġbubbles":6378,"asher":6379,"oms":6380,"Ġconcent":6381,"Ġflexible":6382,"Ġbin":6383,"Ġwelcome":6384,"Ġpic":6385,"Ġgrasp":6386,"Ġlone":6387,"Ġstom":6388,"Ġfluff":6389,"Ġuniversal":6390,"Ġattracted":6391,"Ġcake":6392,"Ġcopies":6393,"Ġsticky":6394,"Ġcreatures":6395,"Ġdc":6396,"Ġlaughing":6397,"Ġunfortunate":6398,"Ġseg":6399,"Ġteenager":6400,"Ġcha":6401,"Ġpressed":6402,"Ġsof":6403,"Ġdun":6404,"Ġbracket":6405,"Ġconclud":6406,"ference":6407,"Ġunrealistic":6408,"Ġeverybody":6409,"Ġpurple":6410,"Ġcharlie":6411,"Ġsemi":6412,"Ġresistance":6413,"Ġjeans":6414,"Ġpuzzle":6415,"Ġyoga":6416,"eness":6417,"Ġjewel":6418,"haust":6419,"Ġbitter":6420,"Ġjoin":6421,"Ġappealing":6422,"Ġrealizes":6423,"Ġjake":6424,"Ġroller":6425,"Ġdisney":6426,"Ġec":6427,"oooo":6428,"Ġlikable":6429,"Ġvolt":6430,"Ġparis":6431,"Ġjac":6432,"Ġextension":6433,"Ġlastly":6434,"Ġballs":6435,"Ġeve":6436,"Ġpersonalities":6437,"attered":6438,"Ġprovo":6439,"Ġtouched":6440,"Ġaunt":6441,"ener":6442,"Ġdescript":6443,"Ġsmoothly":6444,"nders":6445,"Ġwider":6446,"Ġanna":6447,"Ġcharges":6448,"Ġintrigue":6449,"Ġincident":6450,"Ġryan":6451,"Ġlg":6452,"Ġphysically":6453,"Ġcoverage":6454,"vi":6455,"Ġrab":6456,"Ġcheese":6457,"Ġreputation":6458,"Ġisrael":6459,"ilation":6460,"Ġcountries":6461,"Ġende":6462,"Ġaccessible":6463,"Ġcds":6464,"Ġendless":6465,"Ġtheater":6466,"Ġexplanations":6467,"Ġexhaust":6468,"Ġutterly":6469,"Ġcentered":6470,"Ġcorn":6471,"Ġmurdered":6472,"Ġgarmin":6473,"isa":6474,"Ġmate":6475,"Ġsync":6476,"Ġregularly":6477,"bits":6478,"Ġtrigger":6479,"Ġexisting":6480,"Ġaugust":6481,"iments":6482,"Ġhooks":6483,"Ġgrandmother":6484,"Ġspoke":6485,"inger":6486,"Ġforms":6487,"Ġwick":6488,"Ġspeaks":6489,"Ġcookbook":6490,"Ġlifestyle":6491,"Ġalcohol":6492,"case":6493,"Ġsupple":6494,"Ġow":6495,"Ġhearts":6496,"Ġmachines":6497,"Ġrachel":6498,"Ġdevoted":6499,"Ġath":6500,"Ġbugs":6501,"Ġadmir":6502,"pad":6503,"Ġsoldiers":6504,"Ġsab":6505,"Ġdvds":6506,"Ġcharles":6507,"Ġcinem":6508,"gu":6509,"Ġstatic":6510,"Ġlunch":6511,"ops":6512,"imately":6513,"Ġexpressed":6514,"theless":6515,"Ġparall":6516,"Ġabilities":6517,"rey":6518,"Ġdifferently":6519,"Ġdys":6520,"Ġguns":6521,"Ġestabl":6522,"cet":6523,"dri":6524,"Ġminds":6525,"Ġvary":6526,"Ġcage":6527,"aughters":6528,"Ġimper":6529,"Ġdestroyed":6530,"Ġwitty":6531,"Ġpatience":6532,"Ġlind":6533,"stein":6534,"Ġkay":6535,"Ġtire":6536,"Ġdecl":6537,"list":6538,"Ġsuffered":6539,"Ġnine":6540,"Ġswitching":6541,"Ġcooler":6542,"Ġcushion":6543,"Ġdesperate":6544,"Ġbene":6545,"Ġroyal":6546,"Ġcares":6547,"ashed":6548,"Ġplants":6549,"Ġforgot":6550,"Ġviny":6551,"thy":6552,"Ġoutdoor":6553,"Ġgau":6554,"Ġprofile":6555,"Ġserves":6556,"Ġpi":6557,"Ġweakness":6558,"Ġsizing":6559,"Ġnevertheless":6560,"Ġtermin":6561,"Ġlan":6562,"Ġpictured":6563,"Ġcher":6564,"Ġtay":6565,"Ġclasses":6566,"Ġcategory":6567,"Ġcarried":6568,"Ġhitting":6569,"Ġhoriz":6570,"urd":6571,"Ġdell":6572,"mart":6573,"Ġwink":6574,"Ġstack":6575,"Ġinstrument":6576,"Ġpor":6577,"Ġchuck":6578,"Ġari":6579,"Ġhack":6580,"Ġchip":6581,"Ġstrateg":6582,"Ġdiscovery":6583,"Ġlic":6584,"Ġrandomly":6585,"fall":6586,"Ġquant":6587,"Ġrecover":6588,"Ġdaniel":6589,"ta":6590,"Ġitalian":6591,"Ġraz":6592,"Ġlaunch":6593,"Ġtechnique":6594,"Ġsites":6595,"Ġuk":6596,"Ġjumping":6597,"Ġfer":6598,"Ġvolumes":6599,"Ġtro":6600,"Ġwalks":6601,"Ġserving":6602,"Ġbeast":6603,"Ġtrem":6604,"Ġneeding":6605,"Ġreduced":6606,"Ġruin":6607,"Ġhoney":6608,"Ġclosing":6609,"arre":6610,"Ġcale":6611,"Ġsigns":6612,"Ġoperate":6613,"ville":6614,"Ġglobal":6615,"Ġanybody":6616,"Ġvalve":6617,"Ġeric":6618,"icious":6619,"Ġles":6620,"Ġhandling":6621,"Ġroute":6622,"ficial":6623,"Ġdomin":6624,"Ġgrass":6625,"Ġourselves":6626,"Ġreleases":6627,"Ġsched":6628,"asm":6629,"Ġdocumentary":6630,"Ġhumorous":6631,"rep":6632,"Ġhandsome":6633,"Ġcliffh":6634,"Ġprotected":6635,"Ġpacing":6636,"Ġturner":6637,"Ġholster":6638,"atable":6639,"Ġreviewing":6640,"Ġpoly":6641,"Ġfrance":6642,"Ġnasty":6643,"Ġworthwhile":6644,"Ġprepare":6645,"Ġdisease":6646,"Ġsubsequ":6647,"Ġquarter":6648,"Ġlazy":6649,"acles":6650,"Ġschem":6651,"Ġcostume":6652,"Ġflor":6653,"Ġcheaply":6654,"Ġeffectively":6655,"aren":6656,"Ġhiding":6657,"Ġpanasonic":6658,"Ġservices":6659,"utor":6660,"Ġgross":6661,"Ġdecor":6662,"Ġshred":6663,"Ġwoods":6664,"Ġstrate":6665,"Ġaccessories":6666,"che":6667,"Ġvendor":6668,"Ġgospe":6669,"Ġapolog":6670,"Ġcolorful":6671,"Ġremarkable":6672,"Ġdesigns":6673,"Ġobst":6674,"arted":6675,"Ġstitching":6676,"Ġvinyl":6677,"Ġgloss":6678,"evit":6679,"Ġtooth":6680,"Ġcompens":6681,"Ġtreats":6682,"Ġstrategy":6683,"Ġinevit":6684,"Ġsuccessfully":6685,"Ġarguments":6686,"izations":6687,"osition":6688,"Ġdelivers":6689,"Ġmrs":6690,"Ġsake":6691,"Ġmanufacturing":6692,"Ġalice":6693,"Ġelectrical":6694,"ateur":6695,"Ġclosely":6696,"usion":6697,"Ġsilent":6698,"Ġpurse":6699,"Ġladies":6700,"Ġpatient":6701,"Ġzone":6702,"Ġjuice":6703,"Ġpole":6704,"Ġmanager":6705,"Ġgem":6706,"Ġblown":6707,"Ġassuming":6708,"Ġamazed":6709,"Ġbubble":6710,"Ġinac":6711,"Ġeconomic":6712,"Ġstunning":6713,"Ġtripod":6714,"Ġelastic":6715,"Ġflav":6716,"Ġpercent":6717,"Ġapplications":6718,"Ġdaughters":6719,"olved":6720,"Ġadmitted":6721,"alous":6722,"Ġshield":6723,"Ġros":6724,"Ġlabor":6725,"Ġwhis":6726,"osity":6727,"Ġextraord":6728,"Ġtwin":6729,"Ġunlock":6730,"Ġinh":6731,"Ġscared":6732,"Ġroutine":6733,"Ġfilling":6734,"iders":6735,"Ġnin":6736,"ba":6737,"Ġsolutions":6738,"Ġguides":6739,"Ġtowel":6740,"Ġmusicians":6741,"Ġbatch":6742,"Ġcitiz":6743,"Ġportra":6744,"Ġwand":6745,"Ġconvincing":6746,"Ġtoile":6747,"Ġwatches":6748,"Ġsomebody":6749,"Ġsmoke":6750,"function":6751,"Ġblah":6752,"Ġdefense":6753,"Ġcrystal":6754,"xture":6755,"Ġguid":6756,"Ġnotch":6757,"Ġtheat":6758,"Ġroles":6759,"Ġpainted":6760,"Ġhay":6761,"Ġemerg":6762,"Ġunlikely":6763,"Ġamateur":6764,"Ġsupported":6765,"Ġencountered":6766,"Ġheartbre":6767,"Ġconcerning":6768,"Ġjune":6769,"Ġtunes":6770,"Ġsymbol":6771,"Ġempire":6772,"Ġacademic":6773,"Ġsuicide":6774,"Ġenjoyment":6775,"Ġencourage":6776,"Ġproud":6777,"Ġlocations":6778,"force":6779,"Ġinsane":6780,"fo":6781,"Ġoverwhelming":6782,"Ġindia":6783,"Ġdistrib":6784,"Ġdefault":6785,"nie":6786,"Ġaccepted":6787,"Ġinvent":6788,"upd":6789,"Ġrestr":6790,"Ġtests":6791,"Ġreject":6792,"Ġphotographs":6793,"Ġviet":6794,"Ġincon":6795,"Ġjason":6796,"Ġmoist":6797,"Ġimple":6798,"Ġtrap":6799,"Ġmeal":6800,"Ġsolar":6801,"Ġbasics":6802,"Ġtwisted":6803,"Ġemer":6804,"Ġqualities":6805,"Ġatmosphere":6806,"Ġtoes":6807,"Ġlew":6808,"Ġenlight":6809,"Ġdelightful":6810,"Ġanalog":6811,"pass":6812,"Ġrhyth":6813,"Ġexecution":6814,"Ġcruel":6815,"Ġphotography":6816,"Ġpix":6817,"Ġnope":6818,"Ġkar":6819,"Ġdating":6820,"Ġparticip":6821,"Ġspeech":6822,"Ġpsychological":6823,"Ġoperating":6824,"Ġko":6825,"Ġlame":6826,"Ġprices":6827,"Ġlaure":6828,"ibilities":6829,"zzy":6830,"Ġaccuracy":6831,"Ġcamping":6832,"Ġobsc":6833,"father":6834,"Ġroot":6835,"Ġdecade":6836,"Ġbizarre":6837,"Ġobser":6838,"Ġinvolve":6839,"Ġcoast":6840,"Ġchamp":6841,"Ġdetermine":6842,"Ġencl":6843,"Ġpressing":6844,"Ġfancy":6845,"Ġlocated":6846,"Ġeuropean":6847,"Ġfoundation":6848,"Ġdisagree":6849,"ensity":6850,"iana":6851,"stre":6852,"Ġprol":6853,"Ġbacking":6854,"Ġtwe":6855,"cis":6856,"Ġpainting":6857,"Ġblo":6858,"mon":6859,"Ġie":6860,"Ġsynth":6861,"Ġlaws":6862,"Ġsurprises":6863,"Ġintuitive":6864,"Ġdirected":6865,"Ġensure":6866,"Ġjose":6867,"Ġinspiring":6868,"Ġsurviv":6869,"Ġsed":6870,"Ġtraum":6871,"Ġoccurred":6872,"Ġrug":6873,"Ġliner":6874,"Ġgreek":6875,"Ġvictims":6876,"Ġdealt":6877,"Ġcabinet":6878,"Ġpig":6879,"Ġdescriptive":6880,"Ġhunting":6881,"Ġvillage":6882,"Ġtad":6883,"Ġdocuments":6884,"Ġdynamic":6885,"Ġpraise":6886,"bur":6887,"Ġconsequences":6888,"ecd":6889,"oved":6890,"rap":6891,"Ġrapid":6892,"Ġinnov":6893,"Ġpacks":6894,"Ġstruggled":6895,"Ġcontinu":6896,"Ġpens":6897,"Ġanecd":6898,"Ġapril":6899,"Ġchew":6900,"Ġchrome":6901,"Ġmetaph":6902,"Ġstraw":6903,"Ġextent":6904,"Ġtraff":6905,"Ġbirds":6906,"Ġborrow":6907,"Ġconce":6908,"Ġgameplay":6909,"Ġsubm":6910,"Ġurban":6911,"Ġhomes":6912,"Ġholiday":6913,"Ġinvested":6914,"Ġultra":6915,"essions":6916,"Ġlaser":6917,"Ġspite":6918,"Ġconfusion":6919,"Ġutil":6920,"Ġlip":6921,"ilty":6922,"Ġreserv":6923,"Ġpowder":6924,"Ġlikeable":6925,"Ġarth":6926,"acing":6927,"Ġbenefits":6928,"Ġstood":6929,"Ġscripture":6930,"Ġreluct":6931,"Ġabsurd":6932,"Ġplatform":6933,"Ġadhesive":6934,"Ġbeloved":6935,"Ġratings":6936,"ini":6937,"ifer":6938,"Ġrefused":6939,"Ġswitches":6940,"place":6941,"afe":6942,"Ġtransition":6943,"Ġdepression":6944,"Ġcaps":6945,"Ġdiscussed":6946,"Ġlucy":6947,"ales":6948,"Ġwashington":6949,"Ġsum":6950,"Ġfox":6951,"Ġboom":6952,"Ġreward":6953,"Ġchicago":6954,"Ġselfish":6955,"Ġcloud":6956,"Ġcomprehensive":6957,"Ġflag":6958,"urb":6959,"Ġarticles":6960,"Ġgermany":6961,"Ġwing":6962,"Ġwooden":6963,"Ġfuel":6964,"Ġank":6965,"Ġofficer":6966,"Ġfeaturing":6967,"Ġjumps":6968,"Ġprayer":6969,"Ġtas":6970,"Ġflap":6971,"Ġbland":6972,"Ġcompanion":6973,"Ġfid":6974,"anged":6975,"Ġbrightness":6976,"Ġslower":6977,"Ġbomb":6978,"Ġwondered":6979,"Ġclamp":6980,"Ġoem":6981,"Ġtaylor":6982,"Ġdelay":6983,"Ġfolk":6984,"Ġclimax":6985,"Ġchart":6986,"Ġplugs":6987,"Ġspell":6988,"Ġties":6989,"Ġalternate":6990,"Ġdelicious":6991,"Ġimplement":6992,"Ġalign":6993,"Ġdread":6994,"Ġparagraphs":6995,"Ġgrate":6996,"Ġliberal":6997,"aine":6998,"Ġoverview":6999,"rived":7000,"udes":7001,"Ġnoneth":7002,"Ġproced":7003,"pu":7004,"Ġtyping":7005,"Ġpit":7006,"Ġlatch":7007,"Ġislam":7008,"Ġnonetheless":7009,"Ġdiamond":7010,"Ġeval":7011,"Ġbrave":7012,"Ġrecognized":7013,"Ġcandy":7014,"Ġintellectual":7015,"Ġmacbook":7016,"Ġamusing":7017,"unky":7018,"Ġafrican":7019,"iation":7020,"ingu":7021,"Ġtuck":7022,"Ġquirky":7023,"Ġabrupt":7024,"Ġox":7025,"Ġfears":7026,"Ġfiller":7027,"Ġwealthy":7028,"Ġproph":7029,"Ġfrequent":7030,"Ġlau":7031,"ped":7032,"Ġanyways":7033,"Ġvul":7034,"Ġxl":7035,"Ġprofound":7036,"Ġprinciples":7037,"aud":7038,"Ġmarked":7039,"Ġsealed":7040,"Ġrepubl":7041,"Ġartwork":7042,"Ġincorpor":7043,"ils":7044,"Ġbeth":7045,"Ġclues":7046,"paper":7047,"Ġtouches":7048,"Ġemily":7049,"Ġdiscounted":7050,"Ġdisappear":7051,"Ġawa":7052,"Ġgoodness":7053,"Ġcomparing":7054,"Ġsliding":7055,"rete":7056,"Ġatl":7057,"Ġdishw":7058,"mission":7059,"Ġgroo":7060,"Ġdecember":7061,"Ġresolve":7062,"Ġpointless":7063,"Ġtrees":7064,"Ġstaff":7065,"Ġmont":7066,"Ġstrict":7067,"Ġsi":7068,"Ġsant":7069,"Ġsuitable":7070,"Ġanswered":7071,"Ġron":7072,"ifier":7073,"Ġcircuit":7074,"Ġlake":7075,"Ġhype":7076,"Ġteachers":7077,"Ġguarantee":7078,"Ġclaimed":7079,"owed":7080,"Ġdrawer":7081,"Ġcommitted":7082,"Ġtremend":7083,"Ġbrick":7084,"Ġsticker":7085,"Ġshine":7086,"Ġhitch":7087,"Ġdetract":7088,"Ġconclusions":7089,"Ġgrant":7090,"Ġpear":7091,"Ġtightly":7092,"Ġbaseball":7093,"cher":7094,"Ġcommunication":7095,"Ġprinc":7096,"Ġstro":7097,"uries":7098,"Ġah":7099,"Ġmasterpiece":7100,"Ġcolon":7101,"Ġshares":7102,"Ġembr":7103,"Ġbones":7104,"Ġadvise":7105,"Ġjenn":7106,"Ġtypos":7107,"aved":7108,"Ġtrek":7109,"Ġfee":7110,"Ġautomatic":7111,"Ġnights":7112,"Ġfootball":7113,"Ġnich":7114,"Ġapoc":7115,"Ġfavour":7116,"anie":7117,"Ġheal":7118,"Ġcaution":7119,"Ġwhereas":7120,"Ġversus":7121,"Ġbust":7122,"Ġharn":7123,"Ġadjusted":7124,"Ġserver":7125,"lers":7126,"Ġcompleted":7127,"Ġshortly":7128,"oured":7129,"Ġaliens":7130,"Ġsuffers":7131,"Ġpremium":7132,"Ġillness":7133,"Ġpir":7134,"cles":7135,"Ġbold":7136,"Ġlying":7137,"Ġblink":7138,"atisf":7139,"bor":7140,"Ġwinning":7141,"Ġtoilet":7142,"Ġangels":7143,"10":7144,"gun":7145,"Ġhind":7146,"entional":7147,"Ġcheesy":7148,"gon":7149,"Ġpleasantly":7150,"Ġzip":7151,"Ġintend":7152,"Ġstab":7153,"Ġheater":7154,"Ġreveals":7155,"Ġignor":7156,"Ġbodies":7157,"Ġoce":7158,"Ġcrafted":7159,"Ġguilty":7160,"Ġgrief":7161,"Ġinaccur":7162,"Ġgifts":7163,"Ġguilt":7164,"Ġdefinition":7165,"Ġlayout":7166,"Ġemailed":7167,"Ġchat":7168,"Ġslides":7169,"Ġcompassion":7170,"Ġbuzz":7171,"Ġspeeds":7172,"Ġclassical":7173,"Ġvin":7174,"istan":7175,"Ġshakes":7176,"Ġreception":7177,"Ġprovoking":7178,"Ġlayers":7179,"Ġenjoys":7180,"Ġaffected":7181,"Ġemails":7182,"Ġorganic":7183,"Ġwears":7184,"Ġdare":7185,"Ġmurders":7186,"flix":7187,"Ġjay":7188,"Ġpopped":7189,"Ġdub":7190,"urance":7191,"ills":7192,"Ġwave":7193,"Ġexclus":7194,"Ġrelief":7195,"berry":7196,"sp":7197,"inations":7198,"Ġfeatured":7199,"Ġsubscri":7200,"Ġprotectors":7201,"Ġresponsibility":7202,"Ġskeptical":7203,"Ġcoating":7204,"can":7205,"Ġmoo":7206,"Ġconspir":7207,"Ġselected":7208,"Ġnetflix":7209,"Ġinteraction":7210,"Ġconvince":7211,"Ġdarn":7212,"Ġinsightful":7213,"Ġuneven":7214,"Ġfaulty":7215,"Ġkingdom":7216,"Ġtitled":7217,"Ġrail":7218,"Ġphenomen":7219,"bought":7220,"Ġcoloring":7221,"Ġzombies":7222,"Ġweapon":7223,"Ġjuly":7224,"Ġcham":7225,"Ġdraws":7226,"Ġeleg":7227,"Ġcousin":7228,"Ġarrives":7229,"Ġdated":7230,"Ġsecurely":7231,"Ġgrinder":7232,"Ġdemocr":7233,"Ġsettle":7234,"Ġpossibility":7235,"Ġsufficient":7236,"Ġbone":7237,"away":7238,"ausible":7239,"Ġcomfortably":7240,"aimer":7241,"Ġfaucet":7242,"abor":7243,"Ġaustr":7244,"cript":7245,"Ġconfigur":7246,"Ġaward":7247,"Ġsept":7248,"Ġinconven":7249,"Ġinvolves":7250,"Ġnonsense":7251,"Ġdownside":7252,"Ġcontrad":7253,"Ġsuggestion":7254,"Ġinteractions":7255,"Ġflush":7256,"Ġrive":7257,"Ġpepper":7258,"Ġrounded":7259,"Ġlogical":7260,"esth":7261,"Ġunusable":7262,"Ġinspiration":7263,"Ġscreens":7264,"Ġwiz":7265,"Ġwig":7266,"otion":7267,"Ġsatur":7268,"Ġpromising":7269,"Ġusable":7270,"Ġstorytelling":7271,"Ġalas":7272,"Ġhoo":7273,"Ġirre":7274,"Ġarts":7275,"war":7276,"Ġecho":7277,"Ġsore":7278,"Ġafterno":7279,"atherine":7280,"Ġignored":7281,"Ġglued":7282,"Ġempath":7283,"agan":7284,"iser":7285,"Ġtracking":7286,"ching":7287,"Ġsupports":7288,"Ġgate":7289,"Ġbarg":7290,"Ġjumped":7291,"Ġscrew":7292,"Ġscholars":7293,"Ġleadership":7294,"Ġoccup":7295,"Ġcriminal":7296,"pa":7297,"Ġunac":7298,"Ġgrows":7299,"bling":7300,"Ġcloset":7301,"Ġbun":7302,"Ġstomach":7303,"Ġgauge":7304,"Ġcooper":7305,"Ġcliffhanger":7306,"Ġpotter":7307,"des":7308,"Ġovernight":7309,"Ġcontinuing":7310,"Ġobtain":7311,"Ġrepublic":7312,"aze":7313,"Ġgripping":7314,"Ġlewis":7315,"jo":7316,"Ġaddict":7317,"Ġconfront":7318,"Ġmicrow":7319,"works":7320,"Ġrocks":7321,"Ġgod":7322,"Ġlocks":7323,"Ġmand":7324,"Ġsimon":7325,"Ġamy":7326,"Ġbatman":7327,"Ġmagnetic":7328,"Ġintro":7329,"Ġphysics":7330,"Ġmud":7331,"Ġmask":7332,"Ġstations":7333,"Ġish":7334,"lined":7335,"Ġsecondly":7336,"nis":7337,"Ġshelves":7338,"Ġprofession":7339,"Ġpriest":7340,"asse":7341,"Ġblast":7342,"Ġreduce":7343,"Ġapocaly":7344,"Ġestablished":7345,"Ġobjects":7346,"Ġarticle":7347,"Ġharness":7348,"Ġalbe":7349,"abilities":7350,"Ġfocusing":7351,"Ġcad":7352,"ista":7353,"Ġwerew":7354,"attle":7355,"Ġmah":7356,"osing":7357,"utter":7358,"Ġengineering":7359,"Ġsung":7360,"Ġwinner":7361,"Ġbuds":7362,"Ġmonsters":7363,"Ġminimum":7364,"stop":7365,"Ġdried":7366,"Ġtextbook":7367,"Ġperiods":7368,"bow":7369,"Ġdepressing":7370,"Ġpron":7371,"Ġcul":7372,"Ġrang":7373,"Ġsheer":7374,"aret":7375,"Ġmeg":7376,"Ġalbeit":7377,"Ġrere":7378,"Ġdishwasher":7379,"ician":7380,"Ġbug":7381,"Ġscanner":7382,"Ġwilliams":7383,"Ġfm":7384,"Ġmargin":7385,"ogether":7386,"Ġbrutal":7387,"Ġdimensions":7388,"Ġcrappy":7389,"Ġunhappy":7390,"Ġruth":7391,"Ġstap":7392,"Ġpolar":7393,"uster":7394,"Ġdetach":7395,"plic":7396,"Ġfailing":7397,"Ġsail":7398,"Ġshy":7399,"Ġsoldier":7400,"Ġoutcome":7401,"Ġlandscape":7402,"Ġdisli":7403,"Ġbrian":7404,"Ġlabels":7405,"Ġstylus":7406,"win":7407,"Ġestate":7408,"Ġapproximately":7409,"Ġbackst":7410,"hib":7411,"Ġsupplied":7412,"Ġsteal":7413,"Ġgospel":7414,"Ġreported":7415,"Ġeb":7416,"Ġchief":7417,"Ġfbi":7418,"Ġlabeled":7419,"stream":7420,"Ġhell":7421,"Ġmiser":7422,"nel":7423,"Ġfrancis":7424,"update":7425,"Ġhabit":7426,"Ġwiring":7427,"Ġminded":7428,"Ġhiking":7429,"Ġinstit":7430,"tha":7431,"ograp":7432,"lets":7433,"Ġtrend":7434,"Ġpride":7435,"Ġpaperback":7436,"Ġpacking":7437,"Ġassign":7438,"parent":7439,"Ġtreasure":7440,"Ġsequence":7441,"ivalent":7442,"Ġstranger":7443,"Ġbeep":7444,"Ġfragile":7445,"Ġlocking":7446,"Ġstell":7447,"Ġgel":7448,"anna":7449,"Ġvalid":7450,"Ġpod":7451,"Ġveter":7452,"Ġpenny":7453,"Ġblocks":7454,"Ġlawyer":7455,"gent":7456,"Ġaltogether":7457,"Ġjosh":7458,"Ġchor":7459,"ups":7460,"inis":7461,"amental":7462,"Ġthoughtful":7463,"Ġlap":7464,"Ġcorporate":7465,"Ġrick":7466,"rial":7467,"aping":7468,"Ġscratched":7469,"Ġwished":7470,"Ġlily":7471,"Ġslots":7472,"Ġchips":7473,"Ġglor":7474,"lying":7475,"Ġseparately":7476,"Ġpilot":7477,"Ġfloors":7478,"Ġine":7479,"Ġstreets":7480,"Ġsalv":7481,"Ġhammer":7482,"Ġbose":7483,"Ġsup":7484,"Ġthinner":7485,"Ġtin":7486,"Ġclassics":7487,"Ġotter":7488,"ique":7489,"Ġseasons":7490,"Ġfoster":7491,"Ġessays":7492,"Ġarab":7493,"Ġafternoon":7494,"Ġjustify":7495,"sion":7496,"Ġdear":7497,"Ġavid":7498,"Ġsteady":7499,"Ġromances":7500,"Ġpractices":7501,"Ġhappier":7502,"Ġencounters":7503,"Ġroughly":7504,"Ġstink":7505,"Ġnarration":7506,"Ġexpense":7507,"Ġparad":7508,"Ġcared":7509,"Ġthousand":7510,"Ġassociated":7511,"Ġnavy":7512,"Ġheating":7513,"Ġagreed":7514,"Ġmechanical":7515,"Ġresort":7516,"Ġupgraded":7517,"Ġpopulation":7518,"Ġscroll":7519,"Ġlasting":7520,"Ġtony":7521,"Ġpublishers":7522,"Ġlogo":7523,"Ġvertical":7524,"Ġhousehold":7525,"Ġlacked":7526,"Ġhal":7527,"bby":7528,"Ġneighbors":7529,"Ġemphasis":7530,"Ġgoals":7531,"Ġtrib":7532,"Ġreminis":7533,"Ġpile":7534,"Ġht":7535,"Ġglimp":7536,"Ġshocking":7537,"Ġbom":7538,"ologist":7539,"onic":7540,"Ġjanuary":7541,"Ġjord":7542,"Ġheaded":7543,"Ġrecon":7544,"Ġwasting":7545,"Ġchances":7546,"Ġsons":7547,"Ġcrisis":7548,"Ġspecies":7549,"Ġtestament":7550,"Ġprints":7551,"Ġextras":7552,"Ġglimpse":7553,"forward":7554,"Ġadjusting":7555,"Ġafrica":7556,"Ġbran":7557,"Ġattrib":7558,"Ġspelling":7559,"esis":7560,"Ġadorable":7561,"ris":7562,"Ġfurthermore":7563,"Ġinterpretation":7564,"Ġeggs":7565,"Ġrene":7566,"Ġphrase":7567,"Ġinsist":7568,"Ġactress":7569,"Ġstating":7570,"Ġdisclosure":7571,"Ġshorts":7572,"Ġdishes":7573,"Ġteenagers":7574,"Ġleaking":7575,"Ġhaz":7576,"Ġstumb":7577,"Ġforest":7578,"Ġcords":7579,"Ġtrained":7580,"Ġclosure":7581,"Ġbark":7582,"Ġroots":7583,"Ġgifted":7584,"Ġproven":7585,"uts":7586,"Ġdeserved":7587,"Ġstreaming":7588,"Ġtheories":7589,"Ġjun":7590,"Ġphrases":7591,"Ġreform":7592,"Ġwipe":7593,"Ġdispl":7594,"Ġreports":7595,"Ġexceptional":7596,"Ġward":7597,"stick":7598,"Ġcomplimentary":7599,"Ġfederal":7600,"ifies":7601,"Ġpassionate":7602,"Ġmeanwhile":7603,"Ġconvey":7604,"Ġteaches":7605,"Ġgore":7606,"Ġstove":7607,"Ġsubstit":7608,"Ġshade":7609,"Ġbreaker":7610,"Ġreh":7611,"gia":7612,"Ġthirty":7613,"Ġirish":7614,"Ġattacks":7615,"Ġodor":7616,"aws":7617,"acular":7618,"Ġren":7619,"Ġresistant":7620,"Ġven":7621,"Ġcomprom":7622,"Ġconnects":7623,"orse":7624,"Ġunaccept":7625,"Ġstruck":7626,"Ġstrike":7627,"Ġobsessed":7628,"Ġstir":7629,"Ġtabs":7630,"Ġsubstantial":7631,"Ġarrival":7632,"Ġpale":7633,"Ġexplos":7634,"Ġexists":7635,"Ġstatements":7636,"Ġhints":7637,"Ġlimits":7638,"Ġpublication":7639,"Ġseams":7640,"Ġthrows":7641,"Ġproves":7642,"Ġgeor":7643,"Ġaqu":7644,"inity":7645,"Ġevident":7646,"Ġdivorce":7647,"Ġicon":7648,"Ġbuyers":7649,"Ġbeans":7650,"plete":7651,"Ġfence":7652,"abled":7653,"Ġaddressed":7654,"Ġlen":7655,"Ġnikon":7656,"Ġrefurb":7657,"Ġbuilds":7658,"Ġfright":7659,"iate":7660,"Ġtrailer":7661,"Ġsmells":7662,"Ġelev":7663,"Ġira":7664,"Ġsensit":7665,"Ġclay":7666,"Ġdiction":7667,"Ġshoulders":7668,"Ġamounts":7669,"Ġseparated":7670,"Ġhonesty":7671,"Ġlemon":7672,"Ġstraightforward":7673,"Ġmisunder":7674,"Ġplacing":7675,"Ġfond":7676,"jud":7677,"Ġhandful":7678,"Ġdiameter":7679,"opher":7680,"Ġbullet":7681,"Ġconservative":7682,"Ġbless":7683,"Ġhallow":7684,"Ġbeings":7685,"Ġengage":7686,"Ġsleeves":7687,"Ġrefuses":7688,"Ġjulia":7689,"Ġwwii":7690,"Ġcarl":7691,"Ġcrowd":7692,"Ġlum":7693,"Ġtravels":7694,"Ġeg":7695,"Ġproved":7696,"Ġneighborhood":7697,"Ġvet":7698,"Ġcharts":7699,"Ġcompetition":7700,"Ġkills":7701,"Ġbreeze":7702,"Ġimagin":7703,"ission":7704,"Ġjokes":7705,"Ġroof":7706,"Ġhers":7707,"Ġproceed":7708,"Ġpromises":7709,"Ġvocab":7710,"Ġpuppy":7711,"Ġrestaurant":7712,"Ġpathetic":7713,"Ġmall":7714,"Ġsust":7715,"Ġcontrived":7716,"Ġbrace":7717,"Ġocean":7718,"Ġjoseph":7719,"Ġcastle":7720,"Ġsnapped":7721,"Ġfrozen":7722,"Ġexperiencing":7723,"umble":7724,"Ġshiny":7725,"Ġphill":7726,"Ġdefined":7727,"Ġminus":7728,"Ġta":7729,"ometer":7730,"Ġaggress":7731,"Ġwi":7732,"Ġfights":7733,"Ġbb":7734,"ographer":7735,"Ġviewpoint":7736,"fast":7737,"Ġacou":7738,"Ġlonely":7739,"Ġintroduces":7740,"Ġhighlights":7741,"Ġskipping":7742,"Ġsubtit":7743,"Ġcomplained":7744,"Ġcoinc":7745,"Ġdevast":7746,"Ġovers":7747,"Ġscot":7748,"Ġtam":7749,"Ġclaire":7750,"Ġaccomplished":7751,"Ġshirts":7752,"ota":7753,"Ġpins":7754,"Ġfootage":7755,"Ġedward":7756,"Ġcomplaining":7757,"Ġpets":7758,"Ġmaximum":7759,"Ġmathem":7760,"inent":7761,"Ġresulting":7762,"Ġjean":7763,"Ġearned":7764,"Ġproperty":7765,"Ġcel":7766,"Ġpause":7767,"Ġcatchy":7768,"Ġdisclaimer":7769,"Ġpoems":7770,"Ġrp":7771,"Ġcomics":7772,"Ġjealous":7773,"Ġforgive":7774,"Ġtraffic":7775,"Ġcoach":7776,"Ġlex":7777,"Ġamazingly":7778,"Ġmeaningful":7779,"Ġcert":7780,"uits":7781,"Ġthickness":7782,"esting":7783,"Ġpotentially":7784,"Ġscrewdri":7785,"Ġstub":7786,"Ġwasher":7787,"Ġtower":7788,"Ġdave":7789,"bie":7790,"Ġjews":7791,"Ġgenerous":7792,"Ġmatches":7793,"issa":7794,"Ġsynop":7795,"ulary":7796,"mond":7797,"Ġsuited":7798,"Ġbilly":7799,"dr":7800,"Ġlaying":7801,"Ġleaks":7802,"Ġvulner":7803,"Ġlyn":7804,"Ġrul":7805,"Ġmanufacturers":7806,"Ġviewer":7807,"Ġpalm":7808,"Ġlining":7809,"Ġconcrete":7810,"Ġattend":7811,"Ġcraw":7812,"sell":7813,"Ġrhythm":7814,"core":7815,"Ġsolely":7816,"Ġsuspenseful":7817,"icity":7818,"Ġdesert":7819,"Ġaccurately":7820,"Ġflorida":7821,"Ġstan":7822,"Ġunacceptable":7823,"Ġjohnson":7824,"iped":7825,"Ġkim":7826,"Ġacknowled":7827,"Ġfundamental":7828,"Ġbabies":7829,"ester":7830,"Ġiv":7831,"Ġextraordinary":7832,"Ġtroublesho":7833,"Ġtoast":7834,"ifications":7835,"Ġsnaps":7836,"Ġpreach":7837,"Ġwre":7838,"hop":7839,"Ġarrog":7840,"Ġmug":7841,"Ġsaves":7842,"itect":7843,"cere":7844,"Ġkore":7845,"Ġbelieving":7846,"Ġlaughed":7847,"Ġegy":7848,"Ġglitch":7849,"Ġmuslim":7850,"otted":7851,"Ġportrait":7852,"Ġtrim":7853,"Ġarchitect":7854,"Ġregards":7855,"Ġspoiled":7856,"Ġimmediate":7857,"Ġcrank":7858,"Ġcartoon":7859,"ku":7860,"kind":7861,"Ġford":7862,"Ġanch":7863,"Ġemergency":7864,"Ġestablish":7865,"Ġcouch":7866,"Ġsimil":7867,"Ġegypt":7868,"Ġparker":7869,"Ġstudying":7870,"Ġinfluenced":7871,"Ġinferior":7872,"Ġfeeder":7873,"Ġmicrowave":7874,"Ġcities":7875,"Ġabandoned":7876,"Ġpositions":7877,"Ġbeef":7878,"Ġabusive":7879,"Ġstol":7880,"Ġgreg":7881,"Ġconsole":7882,"Ġgrat":7883,"Ġlowest":7884,"umbs":7885,"fit":7886,"Ġoliv":7887,"Ġscare":7888,"Ġcorrupt":7889,"Ġcalib":7890,"don":7891,"Ġstones":7892,"rition":7893,"Ġblender":7894,"Ġmuff":7895,"Ġsurvived":7896,"Ġopener":7897,"Ġplates":7898,"Ġobjective":7899,"Ġupload":7900,"Ġexpans":7901,"ober":7902,"inal":7903,"Ġoblig":7904,"Ġfifth":7905,"Ġrome":7906,"Ġnaive":7907,"Ġwrest":7908,"oma":7909,"Ġmodes":7910,"Ġcurve":7911,"Ġhorribly":7912,"Ġsells":7913,"Ġnoisy":7914,"Ġmovements":7915,"Ġdesperately":7916,"Ġlp":7917,"Ġequivalent":7918,"Ġpy":7919,"ante":7920,"Ġsided":7921,"Ġaesth":7922,"Ġelder":7923,"Ġbite":7924,"Ġmiller":7925,"za":7926,"Ġhearted":7927,"Ġobservations":7928,"Ġtread":7929,"Ġinstruments":7930,"Ġships":7931,"Ġepil":7932,"Ġnewly":7933,"rifying":7934,"Ġaka":7935,"ulations":7936,"Ġindicate":7937,"Ġdragged":7938,"Ġceiling":7939,"Ġdot":7940,"Ġtables":7941,"Ġregion":7942,"Ġdocumentation":7943,"Ġreply":7944,"Ġchoosing":7945,"aky":7946,"Ġdoz":7947,"isk":7948,"va":7949,"Ġcrimes":7950,"ties":7951,"Ġimmense":7952,"Ġkelly":7953,"Ġaffordable":7954,"Ġwatt":7955,"Ġtender":7956,"Ġtid":7957,"Ġreprod":7958,"Ġtorture":7959,"Ġtexts":7960,"Ġspecs":7961,"Ġmodem":7962,"water":7963,"Ġdism":7964,"Ġpops":7965,"beat":7966,"Ġcontrovers":7967,"Ġwii":7968,"Ġcreativity":7969,"Ġoctober":7970,"Ġoccasions":7971,"Ġunplug":7972,"Ġpunct":7973,"Ġacted":7974,"Ġconsult":7975,"rene":7976,"Ġpd":7977,"Ġrestart":7978,"Ġmuse":7979,"Ġportrayal":7980,"Ġpartially":7981,"Ġschools":7982,"Ġworkers":7983,"Ġreaching":7984,"Ġeducational":7985,"Ġtriangle":7986,"resso":7987,"Ġdestruction":7988,"Ġcalcul":7989,"Ġinserted":7990,"Ġcountless":7991,"Ġengineer":7992,"Ġfirmly":7993,"Ġdryer":7994,"Ġbriefly":7995,"Ġconnectors":7996,"Ġvirgin":7997,"Ġsacrif":7998,"Ġunion":7999,"rian":8000,"Ġskipped":8001,"Ġrolled":8002,"Ġfolded":8003,"Ġallen":8004,"Ġalright":8005,"urt":8006,"Ġbaking":8007,"Ġpaired":8008,"Ġdowns":8009,"Ġtrapped":8010,"Ġoverpr":8011,"Ġsacrifice":8012,"Ġglove":8013,"Ġreferred":8014,"Ġrever":8015,"Ġoutr":8016,"Ġreflection":8017,"Ġcomparable":8018,"Ġcarries":8019,"Ġsincere":8020,"Ġunderstandable":8021,"Ġcomponent":8022,"Ġwilson":8023,"Ġsympathetic":8024,"Ġblake":8025,"Ġcombo":8026,"ommod":8027,"Ġbleed":8028,"Ġlately":8029,"going":8030,"Ġexplo":8031,"Ġreun":8032,"Ġaccommod":8033,"Ġmaggie":8034,"tv":8035,"Ġvietnam":8036,"cipl":8037,"Ġjordan":8038,"Ġillustrated":8039,"Ġvit":8040,"Ġsensitivity":8041,"Ġrooms":8042,"Ġtwel":8043,"Ġsynopsis":8044,"Ġpans":8045,"Ġflour":8046,"Ġinterests":8047,"Ġindicator":8048,"Ġhorizont":8049,"Ġpurchases":8050,"Ġhannah":8051,"Ġsupplement":8052,"Ġvillains":8053,"Ġtomor":8054,"Ġpromptly":8055,"Ġandre":8056,"Ġmillions":8057,"Ġbackwards":8058,"Ġbench":8059,"Ġsubsequent":8060,"Ġindicated":8061,"Ġpunk":8062,"Ġcompilation":8063,"Ġcrying":8064,"Ġimagined":8065,"angel":8066,"Ġlect":8067,"ceeds":8068,"Ġrecy":8069,"Ġremovable":8070,"Ġwarrior":8071,"Ġnovember":8072,"Ġblurb":8073,"Ġsloppy":8074,"Ġvocabulary":8075,"Ġscenario":8076,"Ġsouls":8077,"Ġlucas":8078,"Ġgrav":8079,"Ġstrips":8080,"Ġmoore":8081,"Ġnails":8082,"urs":8083,"Ġdancing":8084,"Ġprofit":8085,"Ġfortune":8086,"Ġpotato":8087,"Ġneut":8088,"Ġtil":8089,"Ġbargain":8090,"Ġraising":8091,"Ġexplicit":8092,"Ġunsc":8093,"orses":8094,"Ġmedicine":8095,"Ġmarsh":8096,"yl":8097,"attering":8098,"Ġnutrition":8099,"Ġwritings":8100,"Ġprecious":8101,"Ġexecuted":8102,"Ġremotely":8103,"Ġriff":8104,"Ġexter":8105,"Ġprotecting":8106,"inder":8107,"Ġdor":8108,"stone":8109,"Ġdylan":8110,"fect":8111,"Ġilleg":8112,"Ġpresum":8113,"manship":8114,"Ġdates":8115,"Ġtomorrow":8116,"Ġorchestra":8117,"Ġconfirm":8118,"ggy":8119,"Ġremained":8120,"Ġcaptivating":8121,"Ġcock":8122,"Ġebook":8123,"aired":8124,"fy":8125,"Ġchord":8126,"Ġflower":8127,"Ġmexico":8128,"ilton":8129,"Ġerr":8130,"Ġdiagn":8131,"Ġsymph":8132,"cery":8133,"Ġparties":8134,"Ġgrandfather":8135,"otte":8136,"Ġtops":8137,"Ġstolen":8138,"Ġou":8139,"Ġdisplayed":8140,"Ġsooner":8141,"Ġscientist":8142,"Ġrevelation":8143,"Ġfog":8144,"Ġsocket":8145,"Ġwalmart":8146,"rain":8147,"Ġdismiss":8148,"Ġparallel":8149,"ione":8150,"Ġalike":8151,"Ġconcise":8152,"ierce":8153,"Ġdiscusses":8154,"Ġclient":8155,"Ġconspiracy":8156,"Ġpermanent":8157,"Ġowning":8158,"Ġlesser":8159,"cons":8160,"Ġdissap":8161,"ummy":8162,"Ġoun":8163,"Ġlegit":8164,"Ġsqueeze":8165,"Ġtechnically":8166,"Ġbeginners":8167,"Ġcontrolled":8168,"Ġbarn":8169,"Ġboards":8170,"Ġnylon":8171,"Ġnavigate":8172,"Ġduke":8173,"Ġslick":8174,"Ġclog":8175,"Ġresponsive":8176,"Ġmeasured":8177,"Ġvine":8178,"ials":8179,"gas":8180,"Ġoccasion":8181,"Ġdiary":8182,"Ġlouis":8183,"Ġdispens":8184,"alia":8185,"table":8186,"Ġremembered":8187,"Ġcruc":8188,"Ġconvenience":8189,"Ġampl":8190,"Ġpicky":8191,"Ġpadded":8192,"Ġkenned":8193,"Ġcommunicate":8194,"Ġadjustments":8195,"Ġyr":8196,"Ġepilogue":8197,"Ġplacement":8198,"bar":8199,"Ġeducated":8200,"Ġkir":8201,"Ġcaptures":8202,"Ġangles":8203,"rous":8204,"asion":8205,"Ġbruce":8206,"Ġprocessor":8207,"Ġghosts":8208,"Ġapplying":8209,"Ġgabri":8210,"Ġintensity":8211,"iger":8212,"Ġprejud":8213,"Ġwax":8214,"Ġpics":8215,"Ġtongue":8216,"umn":8217,"Ġmessed":8218,"Ġshaft":8219,"Ġdevelops":8220,"reen":8221,"Ġstrain":8222,"Ġcharacterization":8223,"Ġboost":8224,"Ġcarrier":8225,"Ġwonders":8226,"Ġpossess":8227,"ication":8228,"Ġdozens":8229,"Ġflood":8230,"Ġgrateful":8231,"Ġaged":8232,"Ġcurs":8233,"Ġadminist":8234,"Ġcure":8235,"Ġnap":8236,"Ġburied":8237,"Ġcontinually":8238,"Ġstored":8239,"Ġlegacy":8240,"Ġpsychology":8241,"inished":8242,"Ġsurfaces":8243,"irl":8244,"Ġsleek":8245,"Ġian":8246,"Ġware":8247,"Ġblew":8248,"Ġfought":8249,"Ġmothers":8250,"Ġintric":8251,"Ġredeeming":8252,"hs":8253,"Ġprotagonists":8254,"Ġphilosophical":8255,"Ġaccent":8256,"Ġkett":8257,"Ġreverse":8258,"ulating":8259,"Ġsprink":8260,"Ġmainstream":8261,"amps":8262,"Ġscand":8263,"Ġpoison":8264,"Ġbern":8265,"asant":8266,"Ġdrove":8267,"Ġlincol":8268,"Ġelite":8269,"Ġdavis":8270,"Ġcurtain":8271,"omy":8272,"ptic":8273,"Ġmixing":8274,"ppers":8275,"ja":8276,"Ġrif":8277,"Ġfame":8278,"Ġgripe":8279,"Ġcyn":8280,"Ġfiguring":8281,"Ġsketch":8282,"Ġracing":8283,"Ġimmers":8284,"Ġsteven":8285,"Ġincreased":8286,"Ġwicked":8287,"ieved":8288,"Ġreceipt":8289,"cs":8290,"tes":8291,"Ġpanels":8292,"Ġpapers":8293,"Ġterrit":8294,"tw":8295,"Ġhelmet":8296,"Ġtendency":8297,"Ġsimplistic":8298,"Ġnicer":8299,"iors":8300,"Ġsunday":8301,"Ġmatthe":8302,"Ġspectacular":8303,"oul":8304,"Ġclark":8305,"fr":8306,"Ġbasement":8307,"Ġgad":8308,"Ġdelicate":8309,"Ġtransmitter":8310,"Ġsevent":8311,"Ġhalloween":8312,"Ġconqu":8313,"Ġholmes":8314,"Ġeastern":8315,"Ġairport":8316,"Ġiraq":8317,"Ġaddiction":8318,"iated":8319,"Ġpretend":8320,"Ġnerv":8321,"Ġgrammatical":8322,"Ġoddly":8323,"Ġbooklet":8324,"Ġdawn":8325,"Ġidiot":8326,"Ġconfiguration":8327,"Ġdisappeared":8328,"zzle":8329,"Ġblowing":8330,"chant":8331,"Ġsettled":8332,"Ġlux":8333,"Ġcarbon":8334,"Ġethan":8335,"Ġsuperficial":8336,"Ġdrums":8337,"Ġscratching":8338,"Ġsusan":8339,"Ġfeeding":8340,"Ġspoken":8341,"Ġhouses":8342,"Ġrank":8343,"Ġleon":8344,"Ġpedal":8345,"Ġdistant":8346,"Ġexcessive":8347,"Ġrefers":8348,"Ġenorm":8349,"Ġdisplays":8350,"Ġannoun":8351,"Ġflowers":8352,"iah":8353,"Ġunst":8354,"Ġtwelve":8355,"Ġcharlotte":8356,"Ġodds":8357,"Ġrobin":8358,"enger":8359,"Ġsellers":8360,"Ġnex":8361,"Ġmelody":8362,"Ġbride":8363,"inter":8364,"Ġsophistic":8365,"Ġresemb":8366,"Ġlincoln":8367,"Ġoccurs":8368,"Ġdeadly":8369,"Ġupright":8370,"ested":8371,"Ġdoom":8372,"Ġcuriosity":8373,"inging":8374,"Ġmotivation":8375,"Ġfathers":8376,"Ġgenerations":8377,"Ġpipe":8378,"Ġmanufactured":8379,"Ġscrewdriver":8380,"Ġabused":8381,"Ġspaces":8382,"Ġfreeze":8383,"Ġlisa":8384,"Ġnewspaper":8385,"Ġsaga":8386,"ersome":8387,"Ġlace":8388,"Ġhorses":8389,"Ġeconomy":8390,"Ġolivia":8391,"Ġdepends":8392,"Ġmeasurements":8393,"Ġfont":8394,"emption":8395,"Ġleague":8396,"Ġaddresses":8397,"Ġrecovery":8398,"Ġfiber":8399,"Ġmason":8400,"Ġunra":8401,"Ġboston":8402,"Ġdispos":8403,"Ġridiculously":8404,"Ġinconsistent":8405,"Ġscrub":8406,"Ġclicking":8407,"Ġexceed":8408,"via":8409,"Ġtrav":8410,"Ġdivided":8411,"iber":8412,"Ġresearching":8413,"Ġdrawings":8414,"Ġosc":8415,"Ġautobi":8416,"with":8417,"Ġdiscour":8418,"Ġartistic":8419,"Ġscientists":8420,"Ġjennifer":8421,"gear":8422,"Ġharris":8423,"Ġexposure":8424,"Ġglory":8425,"power":8426,"Ġorph":8427,"Ġpreference":8428,"Ġlaura":8429,"Ġmeter":8430,"Ġanecdotes":8431,"Ġblanket":8432,"Ġnegatives":8433,"Ġgently":8434,"Ġreson":8435,"Ġcrafts":8436,"Ġintim":8437,"Ġdownright":8438,"Ġquestionable":8439,"aid":8440,"Ġitaly":8441,"Ġpity":8442,"Ġmakers":8443,"Ġdean":8444,"Ġsuck":8445,"Ġintroduce":8446,"Ġhyper":8447,"Ġumb":8448,"Ġentertained":8449,"Ġmurderer":8450,"Ġshades":8451,"Ġflawlessly":8452,"Ġmorgan":8453,"Ġsession":8454,"Ġadmire":8455,"Ġwishes":8456,"Ġghz":8457,"leep":8458,"Ġstretched":8459,"Ġchef":8460,"Ġredemption":8461,"Ġshark":8462,"anny":8463,"Ġkennedy":8464,"alled":8465,"pectives":8466,"Ġfrequency":8467,"Ġrefuse":8468,"Ġasp":8469,"Ġengross":8470,"udge":8471,"Ġsigh":8472,"Ġhates":8473,"Ġleds":8474,"Ġchaos":8475,"Ġexplored":8476,"aser":8477,"Ġcurse":8478,"Ġmessy":8479,"Ġessence":8480,"Ġacoustic":8481,"Ġwhoever":8482,"Ġstarter":8483,"Ġadmittedly":8484,"Ġargue":8485,"Ġrecommendations":8486,"acies":8487,"Ġperfection":8488,"Ġsatisfaction":8489,"Ġpopping":8490,"Ġtricky":8491,"Ġbreed":8492,"imm":8493,"Ġneglect":8494,"Ġtheology":8495,"Ġmonitors":8496,"Ġexploring":8497,"Ġseeds":8498,"Ġgrabbed":8499,"Ġsoup":8500,"Ġrefurbished":8501,"Ġsimilarly":8502,"Ġkidnapped":8503,"Ġimmig":8504,"Ġstickers":8505,"Ġrevealing":8506,"Ġmeals":8507,"Ġproduces":8508,"Ġpassword":8509,"Ġshakespe":8510,"Ġotterbox":8511,"isc":8512,"Ġmitch":8513,"aneously":8514,"Ġhired":8515,"Ġhollow":8516,"Ġlengthy":8517,"Ġknee":8518,"Ġclients":8519,"gging":8520,"Ġtasks":8521,"Ġstylish":8522,"Ġrobot":8523,"Ġindustrial":8524,"unes":8525,"Ġspinning":8526,"Ġsid":8527,"Ġbias":8528,"Ġkevin":8529,"Ġdiscipl":8530,"Ġperspectives":8531,"Ġkh":8532,"Ġrealm":8533,"Ġintimate":8534,"Ġranch":8535,"uel":8536,"Ġcliche":8537,"Ġcarter":8538,"Ġwoven":8539,"Ġfreak":8540,"Ġwhim":8541,"Ġlane":8542,"Ġweld":8543,"Ġsuspend":8544,"Ġoffensive":8545,"Ġstandal":8546,"Ġexploration":8547,"Ġdefend":8548,"Ġdum":8549,"Ġseptember":8550,"Ġguitars":8551,"you":8552,"fers":8553,"Ġinfect":8554,"Ġpolish":8555,"Ġtutor":8556,"Ġnervous":8557,"Ġsurre":8558,"Ġrealizing":8559,"Ġcooked":8560,"Ġentit":8561,"Ġjohnny":8562,"Ġmissions":8563,"Ġinstances":8564,"Ġshrink":8565,"Ġpam":8566,"Ġbos":8567,"Ġsophie":8568,"Ġsends":8569,"Ġcarp":8570,"Ġchairs":8571,"ari":8572,"Ġdeciding":8573,"Ġworship":8574,"Ġagenda":8575,"Ġverb":8576,"Ġbund":8577,"Ġinclus":8578,"Ġcans":8579,"ava":8580,"Ġdp":8581,"Ġcuis":8582,"Ġscoop":8583,"Ġpastor":8584,"Ġrus":8585,"Ġassess":8586,"lass":8587,"Ġcoupl":8588,"Ġcooling":8589,"Ġbanter":8590,"Ġcapability":8591,"hh":8592,"vas":8593,"Ġfriday":8594,"Ġfishing":8595,"Ġcheer":8596,"Ġasleep":8597,"ipher":8598,"Ġinjury":8599,"Ġsauce":8600,"Ġstopping":8601,"oops":8602,"Ġpassage":8603,"Ġoverpriced":8604,"Ġgritty":8605,"Ġsweep":8606,"Ġreboot":8607,"Ġdive":8608,"Ġfest":8609,"Ġdivers":8610,"gery":8611,"Ġtense":8612,"Ġdiscussing":8613,"Ġtherapy":8614,"ona":8615,"Ġdeaths":8616,"Ġpairing":8617,"Ġfavourite":8618,"Ġhorrific":8619,"Ġdictionary":8620,"Ġseed":8621,"Ġkings":8622,"Ġauthority":8623,"Ġhinge":8624,"Ġconsideration":8625,"Ġmos":8626,"Ġversat":8627,"ched":8628,"Ġpoign":8629,"Ġwings":8630,"Ġlined":8631,"Ġepson":8632,"Ġtricks":8633,"Ġsenior":8634,"Ġelegant":8635,"Ġkin":8636,"Ġumbre":8637,"Ġbib":8638,"Ġexagger":8639,"Ġmia":8640,"Ġtestim":8641,"Ġtilt":8642,"Ġbam":8643,"Ġlogan":8644,"Ġkettle":8645,"Ġcandid":8646,"world":8647,"Ġrequested":8648,"Ġefficient":8649,"Ġhaunting":8650,"Ġcultures":8651,"Ġadopt":8652,"Ġbrass":8653,"Ġausten":8654,"Ġnewest":8655,"Ġmice":8656,"Ġreinstall":8657,"Ġformed":8658,"Ġlouder":8659,"Ġthro":8660,"Ġcontradict":8661,"Ġearphones":8662,"Ġoverd":8663,"Ġpuzzles":8664,"Ġunple":8665,"iform":8666,"Ġwishing":8667,"Ġshakespeare":8668,"Ġsupplies":8669,"aver":8670,"Ġbillion":8671,"Ġreconnect":8672,"erie":8673,"ceived":8674,"store":8675,"Ġinvestigate":8676,"ige":8677,"Ġconsists":8678,"Ġforgiveness":8679,"Ġadopted":8680,"Ġarthur":8681,"Ġcrown":8682,"Ġcowboy":8683,"uls":8684,"Ġoverl":8685,"Ġstubborn":8686,"Ġvisiting":8687,"Ġsofter":8688,"ancing":8689,"Ġoptical":8690,"quis":8691,"Ġunfor":8692,"Ġhopeful":8693,"Ġunravel":8694,"Ġfluid":8695,"oe":8696,"Ġzippers":8697,"Ġsacrific":8698,"wart":8699,"anned":8700,"Ġsolving":8701,"Ġbeneath":8702,"Ġjessica":8703,"Ġcolour":8704,"Ġhighs":8705,"acks":8706,"Ġposts":8707,"Ġgadget":8708,"Ġessay":8709,"Ġlever":8710,"Ġforb":8711,"Ġalexander":8712,"Ġmythology":8713,"Ġfacebook":8714,"Ġbackstory":8715,"Ġgoth":8716,"Ġandrew":8717,"Ġplugging":8718,"Ġmotorcy":8719,"Ġcritics":8720,"Ġthir":8721,"Ġperse":8722,"Ġcomplexity":8723,"Ġgenuinely":8724,"Ġwizard":8725,"belief":8726,"Ġbrid":8727,"Ġhungry":8728,"Ġmoisture":8729,"Ġwins":8730,"Ġstandalone":8731,"Ġwhit":8732,"Ġshadows":8733,"Ġcapabilities":8734,"hand":8735,"Ġcann":8736,"Ġdj":8737,"Ġorders":8738,"Ġunderlying":8739,"Ġmoderate":8740,"Ġindoor":8741,"Ġdrinks":8742,"Ġfifty":8743,"Ġiii":8744,"Ġtol":8745,"Ġfunctioning":8746,"Ġanimation":8747,"Ġcomed":8748,"Ġfred":8749,"Ġcosm":8750,"Ġlicense":8751,"ressed":8752,"Ġgender":8753,"Ġproducer":8754,"Ġincomplete":8755,"Ġmyst":8756,"Ġspider":8757,"Ġclosest":8758,"Ġankle":8759,"ographical":8760,"Ġprojector":8761,"Ġnas":8762,"ioned":8763,"ghan":8764,"Ġsparks":8765,"Ġdystop":8766,"Ġmasters":8767,"Ġflows":8768,"Ġtremendous":8769,"Ġfount":8770,"Ġcracks":8771,"Ġresponded":8772,"Ġobsession":8773,"Ġcooker":8774,"Ġuniform":8775,"writing":8776,"Ġbarrel":8777,"Ġuncover":8778,"Ġwrink":8779,"Ġconstit":8780,"Ġpm":8781,"Ġchorus":8782,"obs":8783,"Ġclin":8784,"erve":8785,"Ġcontrary":8786,"Ġdisconnected":8787,"Ġwhist":8788,"Ġhesitant":8789,"Ġscreaming":8790,"Ġinvis":8791,"Ġtablets":8792,"lle":8793,"Ġgrounds":8794,"Ġreread":8795,"Ġartific":8796,"ilight":8797,"Ġroast":8798,"Ġdealer":8799,"Ġretired":8800,"Ġreactions":8801,"Ġgaps":8802,"Ġhumid":8803,"iblings":8804,"Ġcarr":8805,"Ġdick":8806,"Ġconvert":8807,"Ġsequences":8808,"Ġvoltage":8809,"Ġgrocery":8810,"Ġcookie":8811,"Ġthrilling":8812,"Ġstrategies":8813,"Ġnuc":8814,"Ġglance":8815,"Ġdisj":8816,"zed":8817,"Ġheadache":8818,"Ġdiscovering":8819,"Ġcutter":8820,"Ġsiblings":8821,"Ġbreakfast":8822,"Ġstalk":8823,"Ġviewed":8824,"Ġstamp":8825,"Ġvibrant":8826,"Ġfleshed":8827,"Ġrepresentative":8828,"Ġindul":8829,"Ġbiased":8830,"hy":8831,"Ġreadings":8832,"Ġreel":8833,"Ġgrips":8834,"Ġperpet":8835,"uten":8836,"Ġreminiscent":8837,"inite":8838,"Ġrum":8839,"Ġterritory":8840,"Ġric":8841,"Ġexisted":8842,"Ġcompelled":8843,"Ġoriented":8844,"Ġamish":8845,"Ġrugged":8846,"Ġdiab":8847,"Ġfaithful":8848,"Ġjet":8849,"Ġpist":8850,"bro":8851,"otional":8852,"ugs":8853,"Ġguidance":8854,"Ġfashioned":8855,"Ġsubpl":8856,"Ġlightning":8857,"Ġreplacements":8858,"Ġmaid":8859,"Ġhan":8860,"Ġcatching":8861,"Ġafterwards":8862,"respond":8863,"Ġkeen":8864,"Ġdragons":8865,"Ġtwilight":8866,"Ġstrikes":8867,"Ġtoddler":8868,"Ġimagery":8869,"Ġdeliber":8870,"Ġtossed":8871,"ami":8872,"Ġdisbelief":8873,"Ġloading":8874,"Ġglaring":8875,"Ġresulted":8876,"Ġpointing":8877,"Ġplun":8878,"Ġquinn":8879,"Ġheels":8880,"atics":8881,"Ġlightly":8882,"Ġtrium":8883,"iac":8884,"Ġbrighter":8885,"Ġcorrespond":8886,"Ġtess":8887,"Ġsir":8888,"Ġglowing":8889,"Ġconfess":8890,"Ġcouples":8891,"Ġnest":8892,"onies":8893,"Ġlawn":8894,"Ġbinding":8895,"Ġperforming":8896,"Ġrolls":8897,"Ġproducing":8898,"Ġhesitate":8899,"Ġster":8900,"Ġsearched":8901,"Ġpregnancy":8902,"Ġoverhe":8903,"Ġfootnot":8904,"itives":8905,"ayed":8906,"Ġgrave":8907,"Ġpasses":8908,"Ġimmature":8909,"Ġconsciousness":8910,"gi":8911,"Ġsean":8912,"Ġintroduct":8913,"osis":8914,"Ġdrawback":8915,"Ġtrusted":8916,"orders":8917,"Ġrope":8918,"Ġrude":8919,"Ġincreasingly":8920,"Ġrealism":8921,"ila":8922,"etically":8923,"eman":8924,"Ġgriff":8925,"Ġtoaster":8926,"Ġoutdoors":8927,"Ġwarming":8928,"Ġverse":8929,"Ġmotherboard":8930,"Ġnoah":8931,"Ġvista":8932,"Ġmars":8933,"Ġjamie":8934,"Ġhorn":8935,"Ġdisgusting":8936,"Ġextract":8937,"Ġebay":8938,"Ġtrials":8939,"Ġdrown":8940,"hill":8941,"Ġobscure":8942,"Ġmounts":8943,"vet":8944,"Ġhamilton":8945,"Ġpoetic":8946,"Ġcents":8947,"estic":8948,"Ġresid":8949,"Ġunderground":8950,"Ġmainten":8951,"Ġdisjointed":8952,"udos":8953,"Ġcitizens":8954,"imental":8955,"Ġdesigner":8956,"ae":8957,"Ġoutd":8958,"Ġchore":8959,"Ġpatrick":8960,"Ġframes":8961,"ernet":8962,"Ġbeer":8963,"Ġcozy":8964,"aste":8965,"Ġbetrayal":8966,"Ġdraft":8967,"Ġmountains":8968,"Ġrevol":8969,"Ġcanada":8970,"Ġleash":8971,"Ġkath":8972,"Ġknocked":8973,"Ġviv":8974,"wear":8975,"Ġmentally":8976,"Ġevo":8977,"elf":8978,"Ġprinters":8979,"ost":8980,"Ġvoy":8981,"Ġknees":8982,"Ġexplores":8983,"Ġrising":8984,"nox":8985,"Ġconflicts":8986,"Ġgolf":8987,"wall":8988,"icians":8989,"Ġfiance":8990,"Ġpione":8991,"ications":8992,"Ġnucle":8993,"Ġsessions":8994,"Ġrussia":8995,"Ġsummar":8996,"Ġramp":8997,"Ġconsuming":8998,"Ġconsiderable":8999,"tle":9000,"Ġexhib":9001,"plate":9002,"Ġtriumph":9003,"20":9004,"Ġcalm":9005,"Ġnotebook":9006,"Ġpronoun":9007,"fire":9008,"Ġmusician":9009,"gen":9010,"idently":9011,"Ġslightest":9012,"Ġflashbacks":9013,"Ġstrengths":9014,"Ġyours":9015,"Ġquicken":9016,"Ġexterior":9017,"Ġgained":9018,"omic":9019,"of":9020,"Ġcpu":9021,"Ġpizz":9022,"Ġcreature":9023,"Ġunpleasant":9024,"Ġjournalist":9025,"Ġmaintenance":9026,"Ġleaf":9027,"Ġslap":9028,"Ġasian":9029,"Ġpearl":9030,"Ġtwins":9031,"Ġbloody":9032,"Ġdestiny":9033,"Ġphotographer":9034,"ocr":9035,"Ġchamber":9036,"Ġcia":9037,"Ġprone":9038,"etics":9039,"Ġconn":9040,"Ġpartners":9041,"undant":9042,"Ġannie":9043,"rams":9044,"Ġswive":9045,"uting":9046,"Ġsilence":9047,"cling":9048,"Ġkeyboards":9049,"Ġsimult":9050,"omet":9051,"Ġtubes":9052,"Ġoutrage":9053,"Ġethernet":9054,"Ġshines":9055,"Ġcontacts":9056,"Ġpolic":9057,"Ġentries":9058,"Ġsla":9059,"Ġgallon":9060,"ya":9061,"Ġneutral":9062,"Ġnoble":9063,"Ġprotein":9064,"Ġclint":9065,"Ġugh":9066,"Ġpencils":9067,"Ġmercy":9068,"Ġkitty":9069,"opath":9070,"amin":9071,"Ġuninter":9072,"Ġrebe":9073,"Ġbeatles":9074,"Ġcalories":9075,"Ġsympathy":9076,"Ġroku":9077,"Ġinterm":9078,"Ġshelter":9079,"Ġcrossed":9080,"Ġworkouts":9081,"Ġinhab":9082,"Ġdebate":9083,"Ġhaunted":9084,"Ġfemin":9085,"Ġforcing":9086,"Ġtroubled":9087,"Ġschedule":9088,"Ġconventional":9089,"Ġclassroom":9090,"Ġssd":9091,"Ġpunish":9092,"Ġsate":9093,"Ġatro":9094,"Ġstripped":9095,"Ġmisses":9096,"Ġslippery":9097,"Ġbelly":9098,"Ġcommitment":9099,"Ġlimitations":9100,"Ġanderson":9101,"eu":9102,"Ġjail":9103,"Ġdistingu":9104,"ologies":9105,"Ġdense":9106,"Ġretire":9107,"Ġcenturies":9108,"Ġgradually":9109,"pse":9110,"Ġdesires":9111,"iciently":9112,"Ġinaccurate":9113,"ooked":9114,"unks":9115,"Ġtalents":9116,"Ġhardcore":9117,"Ġadvoc":9118,"Ġneedle":9119,"wind":9120,"Ġinevitable":9121,"Ġutility":9122,"Ġsmoking":9123,"Ġstellar":9124,"Ġbeck":9125,"Ġnom":9126,"Ġseverely":9127,"Ġsewn":9128,"Ġunsure":9129,"orted":9130,"Ġrepaired":9131,"screen":9132,"Ġconfirmed":9133,"Ġcheating":9134,"rix":9135,"ih":9136,"arse":9137,"Ġheartbreaking":9138,"Ġenhance":9139,"Ġrigid":9140,"Ġpossibilities":9141,"Ġpenn":9142,"uated":9143,"Ġmildly":9144,"ndry":9145,"Ġjimmy":9146,"Ġindication":9147,"Ġfired":9148,"Ġlion":9149,"inson":9150,"Ġdict":9151,"Ġbeating":9152,"50":9153,"Ġharv":9154,"Ġattor":9155,"Ġsoooo":9156,"Ġhurts":9157,"Ġrival":9158,"zer":9159,"Ġbroadcast":9160,"Ġperforms":9161,"Ġrepetition":9162,"Ġpg":9163,"Ġjudgment":9164,"Ġmiracle":9165,"Ġpersu":9166,"Ġscheme":9167,"Ġassigned":9168,"isons":9169,"Ġmemor":9170,"Ġai":9171,"Ġjung":9172,"acious":9173,"Ġstudied":9174,"Ġrechargeable":9175,"Ġcm":9176,"Ġrect":9177,"Ġtiming":9178,"Ġremix":9179,"Ġalan":9180,"Ġarmor":9181,"Ġaimed":9182,"Ġpolished":9183,"Ġnichol":9184,"Ġwreck":9185,"Ġeli":9186,"Ġblat":9187,"Ġcollector":9188,"life":9189,"iner":9190,"Ġeagerly":9191,"Ġloosely":9192,"Ġeditors":9193,"Ġnuclear":9194,"Ġker":9195,"Ġclunky":9196,"Ġrober":9197,"yard":9198,"Ġmetall":9199,"Ġlatin":9200,"Ġpaints":9201,"Ġbuddy":9202,"Ġhr":9203,"oman":9204,"Ġscent":9205,"Ġcalend":9206,"Ġdarcy":9207,"arring":9208,"Ġpreview":9209,"Ġswimming":9210,"Ġjewelry":9211,"Ġlargest":9212,"Ġstem":9213,"Ġdifficulties":9214,"Ġneph":9215,"Ġmagnific":9216,"Ġharmony":9217,"Ġoly":9218,"Ġsew":9219,"Ġintegrity":9220,"Ġclimate":9221,"Ġmistaken":9222,"rint":9223,"osex":9224,"Ġslipping":9225,"Ġrin":9226,"Ġfactors":9227,"Ġgrinding":9228,"elia":9229,"Ġcontacting":9230,"Ġbrowser":9231,"Ġeste":9232,"Ġadams":9233,"Ġsewing":9234,"Ġscream":9235,"Ġlauren":9236,"Ġanime":9237,"Ġartic":9238,"bu":9239,"Ġadvised":9240,"Ġcrucial":9241,"Ġloyalty":9242,"Ġburst":9243,"actic":9244,"bruary":9245,"Ġsafely":9246,"Ġarrest":9247,"Ġmanif":9248,"Ġmund":9249,"iat":9250,"ua":9251,"Ġquart":9252,"zing":9253,"Ġnit":9254,"Ġeditions":9255,"Ġfinest":9256,"Ġfewer":9257,"Ġmidnight":9258,"pros":9259,"Ġaggr":9260,"Ġairpl":9261,"Ġkidding":9262,"Ġtruths":9263,"Ġrag":9264,"Ġflee":9265,"Ġreluctant":9266,"icer":9267,"Ġtitan":9268,"Ġdoubts":9269,"Ġevol":9270,"Ġworker":9271,"Ġfridge":9272,"wow":9273,"Ġremaster":9274,"Ġillumin":9275,"Ġnearby":9276,"Ġimaginative":9277,"itudes":9278,"Ġentitled":9279,"Ġfighter":9280,"Ġprogresses":9281,"anity":9282,"Ġtb":9283,"Ġfebruary":9284,"Ġsurge":9285,"Ġassistant":9286,"Ġjr":9287,"Ġdelete":9288,"Ġguests":9289,"Ġwatts":9290,"Ġrides":9291,"Ġloads":9292,"Ġmechanics":9293,"Ġmatching":9294,"Ġll":9295,"Ġanxiety":9296,"amil":9297,"Ġcs":9298,"Ġfitness":9299,"Ġreferring":9300,"Ġwoo":9301,"Ġhing":9302,"Ġcontrolling":9303,"Ġinstrumental":9304,"Ġfare":9305,"Ġprepar":9306,"Ġdoctors":9307,"Ġrequiring":9308,"Ġmagnets":9309,"Ġfulfill":9310,"Ġdimension":9311,"Ġbrackets":9312,"Ġfountain":9313,"Ġmins":9314,"Ġnexus":9315,"Ġheading":9316,"Ġumbrella":9317,"Ġunbe":9318,"Ġreadily":9319,"Ġlistener":9320,"Ġobstacles":9321,"Ġdiscussions":9322,"Ġspout":9323,"Ġgene":9324,"Ġwd":9325,"Ġmotivations":9326,"mate":9327,"Ġdepict":9328,"Ġdisliked":9329,"Ġbio":9330,"Ġvegas":9331,"stairs":9332,"Ġwinds":9333,"Ġtrump":9334,"Ġvirus":9335,"Ġhabits":9336,"Ġdiverse":9337,"Ġindicates":9338,"Ġrotate":9339,"Ġvisited":9340,"acute":9341,"Ġpurely":9342,"Ġclasp":9343,"Ġreaches":9344,"Ġendearing":9345,"Ġmerc":9346,"Ġaven":9347,"Ġpainfully":9348,"Ġannoyance":9349,"Ġpean":9350,"Ġzen":9351,"Ġappreciation":9352,"Ġbuckle":9353,"Ġpatients":9354,"Ġsov":9355,"Ġportions":9356,"Ġforums":9357,"Ġplausible":9358,"Ġexpansion":9359,"Ġgask":9360,"Ġnovice":9361,"Ġmatthew":9362,"Ġhart":9363,"Ġexpanded":9364,"Ġdiscont":9365,"rich":9366,"chool":9367,"Ġathlet":9368,"Ġnathan":9369,"Ġtroubleshooting":9370,"Ġhyd":9371,"erts":9372,"Ġvehicles":9373,"Ġpushes":9374,"cca":9375,"Ġmentioning":9376,"Ġsings":9377,"Ġslavery":9378,"Ġtranslated":9379,"Ġopportunities":9380,"Ġdepicted":9381,"Ġolymp":9382,"Ġinvisible":9383,"Ġyo":9384,"acon":9385,"Ġtrading":9386,"icky":9387,"Ġcontainers":9388,"Ġmarg":9389,"Ġchronicles":9390,"Ġnorthern":9391,"Ġlon":9392,"Ġgabriel":9393,"Ġmelt":9394,"Ġvalley":9395,"Ġwebsites":9396,"having":9397,"Ġcenters":9398,"Ġgee":9399,"Ġcheated":9400,"Ġpricey":9401,"Ġsoviet":9402,"step":9403,"Ġsarc":9404,"Ġneil":9405,"oons":9406,"Ġanticipated":9407,"Ġsophisticated":9408,"Ġego":9409,"Ġpersist":9410,"Ġabsorbed":9411,"Ġsara":9412,"Ġwy":9413,"Ġflavors":9414,"Ġdent":9415,"Ġsham":9416,"Ġrazor":9417,"Ġinability":9418,"Ġuninstall":9419,"Ġcarafe":9420,"bles":9421,"Ġstup":9422,"Ġmower":9423,"Ġcivilization":9424,"Ġnar":9425,"Ġanc":9426,"alt":9427,"iful":9428,"Ġwalker":9429,"Ġthermost":9430,"Ġpdf":9431,"Ġcrashes":9432,"Ġvice":9433,"ishes":9434,"Ġenormous":9435,"Ġhoward":9436,"Ġsometime":9437,"Ġproducers":9438,"ruption":9439,"Ġcolumb":9440,"Ġunfair":9441,"Ġhmm":9442,"Ġnostal":9443,"Ġconsiderably":9444,"Ġvirtual":9445,"Ġthunder":9446,"Ġcredibility":9447,"Ġfills":9448,"Ġpiv":9449,"rence":9450,"Ġvint":9451,"Ġunders":9452,"Ġsanta":9453,"Ġkudos":9454,"atisfied":9455,"Ġanytime":9456,"Ġfranch":9457,"Ġlands":9458,"Ġprivile":9459,"Ġjulie":9460,"Ġskinny":9461,"Ġmarine":9462,"Ġacid":9463,"Ġsquir":9464,"Ġlanguages":9465,"Ġgenres":9466,"Ġplum":9467,"Ġblond":9468,"Ġblows":9469,"Ġcounting":9470,"oh":9471,"Ġfaint":9472,"Ġimmort":9473,"Ġlaptops":9474,"Ġbucket":9475,"Ġathe":9476,"Ġwobb":9477,"Ġfrost":9478,"apse":9479,"Ġstairs":9480,"pes":9481,"Ġcatherine":9482,"Ġstrictly":9483,"roph":9484,"Ġchristopher":9485,"Ġclaiming":9486,"Ġpatri":9487,"Ġbelongs":9488,"Ġavo":9489,"Ġagrees":9490,"Ġnetgear":9491,"Ġandy":9492,"Ġtonight":9493,"Ġscenarios":9494,"ader":9495,"Ġmoreover":9496,"Ġfried":9497,"Ġdepart":9498,"Ġpoignant":9499,"Ġdynamics":9500,"riger":9501,"rified":9502,"Ġartificial":9503,"Ġgraduate":9504,"Ġadapters":9505,"shad":9506,"Ġsurgery":9507,"Ġswear":9508,"Ġchoppy":9509,"Ġmatched":9510,"Ġfel":9511,"Ġtile":9512,"iba":9513,"Ġapproaches":9514,"Ġreflects":9515,"Ġours":9516,"Ġrelatable":9517,"Ġdough":9518,"Ġreporter":9519,"Ġgrease":9520,"Ġhrs":9521,"rating":9522,"Ġtoxic":9523,"Ġree":9524,"Ġprogressive":9525,"Ġflashing":9526,"Ġorth":9527,"Ġrend":9528,"Ġorient":9529,"Ġduck":9530,"Ġmedie":9531,"Ġentered":9532,"Ġnel":9533,"Ġfields":9534,"Ġpand":9535,"Ġawareness":9536,"van":9537,"Ġdil":9538,"Ġlinux":9539,"Ġunreli":9540,"Ġconnectivity":9541,"Ġintentions":9542,"Ġassured":9543,"Ġrequirements":9544,"Ġobnox":9545,"Ġcircles":9546,"Ġross":9547,"Ġtosh":9548,"Ġsr":9549,"Ġaer":9550,"igan":9551,"Ġmeasuring":9552,"Ġdemands":9553,"Ġbacks":9554,"Ġdebt":9555,"Ġcopper":9556,"Ġpermanently":9557,"Ġgoods":9558,"Ġmbps":9559,"Ġswall":9560,"Ġespresso":9561,"Ġunfolds":9562,"Ġarrogant":9563,"Ġweights":9564,"Ġabsorb":9565,"Ġsucc":9566,"Ġthumbs":9567,"Ġraces":9568,"Ġlaughs":9569,"ping":9570,"onym":9571,"Ġmedieval":9572,"Ġsatell":9573,"Ġenvironmental":9574,"emy":9575,"Ġyarn":9576,"wich":9577,"Ġconj":9578,"Ġcookies":9579,"Ġpropag":9580,"Ġbookstore":9581,"Ġaggressive":9582,"Ġrural":9583,"Ġgil":9584,"Ġkl":9585,"Ġcondens":9586,"istically":9587,"Ġsuspects":9588,"mates":9589,"Ġfascinated":9590,"Ġspa":9591,"Ġflipping":9592,"Ġinstinct":9593,"Ġovert":9594,"velope":9595,"Ġkeeper":9596,"Ġdetermination":9597,"Ġabby":9598,"Ġevangel":9599,"Ġbacked":9600,"Ġdud":9601,"Ġbaker":9602,"amiliar":9603,"Ġcried":9604,"Ġadore":9605,"Ġjaw":9606,"icks":9607,"Ġlaundry":9608,"Ġwol":9609,"Ġavoided":9610,"Ġtightened":9611,"Ġsatisfy":9612,"Ġpersons":9613,"Ġdepressed":9614,"Ġkrist":9615,"Ġreminder":9616,"Ġfactual":9617,"rison":9618,"working":9619,"Ġanthony":9620,"Ġroberts":9621,"great":9622,"Ġnozzle":9623,"Ġmenus":9624,"Ġprocessing":9625,"Ġhorizontal":9626,"Ġjill":9627,"Ġpartly":9628,"Ġcontinuous":9629,"fly":9630,"Ġsprings":9631,"oir":9632,"Ġconsistency":9633,"Ġdang":9634,"Ġunfamiliar":9635,"Ġdigest":9636,"Ġattacked":9637,"star":9638,"dling":9639,"Ġtriple":9640,"Ġrefriger":9641,"Ġaccommodate":9642,"Ġrational":9643,"Ġanxious":9644,"Ġbackd":9645,"Ġweekly":9646,"Ġaudible":9647,"Ġthesis":9648,"Ġwaters":9649,"Ġacceptance":9650,"aches":9651,"bone":9652,"Ġdol":9653,"Ġfifteen":9654,"Ġnoises":9655,"Ġspectrum":9656,"Ġgle":9657,"Ġleap":9658,"Ġprize":9659,"Ġnurse":9660,"Ġroy":9661,"Ġvintage":9662,"Ġemployees":9663,"Ġpoem":9664,"Ġoli":9665,"anne":9666,"Ġum":9667,"Ġdefeat":9668,"Ġweaves":9669,"Ġrepeating":9670,"Ġentering":9671,"Ġsadness":9672,"Ġprotest":9673,"Ġtapes":9674,"Ġuncon":9675,"Ġfreezing":9676,"Ġowns":9677,"Ġirrele":9678,"Ġalar":9679,"rays":9680,"verty":9681,"Ġkatie":9682,"Ġsteep":9683,"net":9684,"Ġdisasse":9685,"Ġexecut":9686,"iley":9687,"Ġbearing":9688,"although":9689,"Ġglow":9690,"Ġtempted":9691,"pless":9692,"Ġorphan":9693,"Ġtactics":9694,"Ġdistortion":9695,"Ġmotorcycle":9696,"Ġvegetables":9697,"Ġseats":9698,"Ġachieved":9699,"Ġagents":9700,"Ġflame":9701,"Ġupcoming":9702,"Ġbreast":9703,"apper":9704,"ji":9705,"Ġfatal":9706,"Ġintr":9707,"Ġnotion":9708,"Ġoutdated":9709,"Ġassistance":9710,"Ġpant":9711,"Ġrevis":9712,"Ġpleasing":9713,"Ġthrillers":9714,"aust":9715,"Ġire":9716,"Ġpoverty":9717,"Ġcumb":9718,"Ġrecount":9719,"Ġbumper":9720,"Ġevan":9721,"zel":9722,"Ġmeasures":9723,"Ġtighter":9724,"Ġnelson":9725,"Ġrca":9726,"Ġjerry":9727,"Ġphillips":9728,"endo":9729,"Ġuncer":9730,"Ġgimm":9731,"Ġrifle":9732,"Ġtatt":9733,"Ġinserts":9734,"Ġdeleted":9735,"Ġeliminate":9736,"Ġate":9737,"Ġhangs":9738,"Ġmolly":9739,"Ġexpression":9740,"Ġrapidly":9741,"Ġsimultaneously":9742,"Ġattachments":9743,"Ġcherry":9744,"corn":9745,"oning":9746,"Ġale":9747,"amic":9748,"Ġsuperman":9749,"Ġreasoning":9750,"Ġcig":9751,"Ġrunner":9752,"Ġloosen":9753,"Ġintermitt":9754,"Ġchargers":9755,"Ġfloating":9756,"Ġpillows":9757,"Ġisab":9758,"Ġdivine":9759,"dge":9760,"Ġchallenged":9761,"Ġdat":9762,"ras":9763,"Ġtimeline":9764,"Ġlint":9765,"Ġmixture":9766,"Ġappend":9767,"Ġvulnerable":9768,"Ġflawless":9769,"Ġdice":9770,"Ġsingers":9771,"Ġhanger":9772,"Ġlinksys":9773,"Ġfailures":9774,"osaur":9775,"Ġleaked":9776,"Ġmanufacture":9777,"Ġvhs":9778,"Ġinsurance":9779,"Ġelabor":9780,"see":9781,"Ġbending":9782,"Ġticket":9783,"Ġponder":9784,"Ġabsent":9785,"Ġwilder":9786,"Ġurge":9787,"Ġsaint":9788,"Ġskirt":9789,"Ġscanning":9790,"Ġamongst":9791,"Ġpeoples":9792,"Ġhumidity":9793,"Ġstability":9794,"Ġunplugged":9795,"ousy":9796,"Ġfitted":9797,"Ġoutl":9798,"Ġfingerprint":9799,"Ġsaturday":9800,"Ġrooting":9801,"Ġintact":9802,"Ġrepresented":9803,"Ġcontaining":9804,"Ġbeam":9805,"Ġphenomenal":9806,"Ġdepot":9807,"aneous":9808,"Ġts":9809,"Ġincome":9810,"agues":9811,"Ġhumble":9812,"Ġlays":9813,"Ġwerewolf":9814,"Ġbrake":9815,"Ġaccessory":9816,"Ġaggrav":9817,"Ġbanks":9818,"Ġallerg":9819,"Ġbikes":9820,"Ġdownloading":9821,"Ġmeditation":9822,"Ġcumbersome":9823,"Ġunderstands":9824,"lif":9825,"ilst":9826,"Ġnephew":9827,"Ġpulp":9828,"Ġintroducing":9829,"Ġsimplicity":9830,"Ġskimming":9831,"Ġharper":9832,"Ġtyler":9833,"Ġsurvivors":9834,"Ġunreliable":9835,"Ġpoles":9836,"Ġrecognition":9837,"Ġsurrounded":9838,"Ġlegendary":9839,"erpt":9840,"Ġlud":9841,"Ġvisually":9842,"writer":9843,"Ġflies":9844,"mented":9845,"Ġvaried":9846,"Ġoverlooked":9847,"Ġfixing":9848,"alie":9849,"Ġlocate":9850,"gling":9851,"Ġfetch":9852,"phy":9853,"Ġhunger":9854,"Ġtowels":9855,"Ġanticipation":9856,"iolet":9857,"Ġmotives":9858,"kel":9859,"elines":9860,"Ġinspire":9861,"Ġsatan":9862,"Ġoliver":9863,"Ġstephanie":9864,"Ġexplor":9865,"Ġpresenting":9866,"Ġborrowed":9867,"Ġcodes":9868,"Ġaccepting":9869,"Ġneckl":9870,"Ġfuzzy":9871,"Ġdanny":9872,"Ġsynd":9873,"Ġjacob":9874,"Ġtoshiba":9875,"Ġbritain":9876,"Ġbean":9877,"Ġvolunt":9878,"ilted":9879,"Ġgrid":9880,"Ġinterrupt":9881,"Ġrit":9882,"Ġassault":9883,"Ġattorney":9884,"Ġashamed":9885,"Ġarrangements":9886,"Ġkaren":9887,"Ġresur":9888,"cam":9889,"Ġtoner":9890,"Ġarrow":9891,"Ġgems":9892,"Ġcatches":9893,"Ġhugh":9894,"Ġmaneu":9895,"Ġcommented":9896,"Ġanthology":9897,"Ġscenery":9898,"Ġrabbit":9899,"Ġcalendar":9900,"Ġaustralia":9901,"lasses":9902,"Ġnyc":9903,"Ġfade":9904,"Ġenthusiast":9905,"Ġinspirational":9906,"Ġamanda":9907,"Ġtrave":9908,"Ġprominent":9909,"Ġslice":9910,"Ġinterf":9911,"Ġmerit":9912,"Ġavoiding":9913,"ossy":9914,"Ġworries":9915,"Ġisolated":9916,"bra":9917,"Ġteams":9918,"Ġcops":9919,"Ġjuven":9920,"Ġrespective":9921,"Ġprecision":9922,"Ġbrushes":9923,"Ġergon":9924,"Ġfps":9925,"hero":9926,"Ġsignals":9927,"Ġproblematic":9928,"Ġbears":9929,"Ġlifting":9930,"Ġchasing":9931,"Ġmiserable":9932,"Ġspill":9933,"Ġcredits":9934,"Ġorigins":9935,"Ġgary":9936,"Ġplayback":9937,"aa":9938,"Ġhobby":9939,"ivers":9940,"Ġbumps":9941,"Ġintegrated":9942,"appro":9943,"Ġmig":9944,"Ġunscrew":9945,"Ġfisher":9946,"Ġdecre":9947,"Ġlinked":9948,"Ġarranged":9949,"gue":9950,"Ġcharacteristics":9951,"Ġdegr":9952,"Ġexcerpt":9953,"Ġsingles":9954,"Ġfreely":9955,"Ġexistent":9956,"inart":9957,"Ġrim":9958,"Ġdefinitive":9959,"Ġchooses":9960,"Ġglossy":9961,"Ġjoined":9962,"Ġshipment":9963,"Ġaston":9964,"Ġdystopian":9965,"Ġhoover":9966,"rance":9967,"uther":9968,"Ġliz":9969,"player":9970,"Ġcommission":9971,"Ġabsence":9972,"Ġfreaking":9973,"Ġacademy":9974,"Ġcorrected":9975,"Ġrage":9976,"aware":9977,"orous":9978,"Ġballad":9979,"Ġthigh":9980,"Ġrud":9981,"Ġfolding":9982,"Ġimperfect":9983,"Ġuncertain":9984,"Ġbreathing":9985,"Ġindividually":9986,"Ġpizza":9987,"Ġhurry":9988,"Ġcontinuously":9989,"Ġshattered":9990,"Ġrepresents":9991,"Ġstereotypes":9992,"Ġinputs":9993,"Ġcomfy":9994,"Ġlil":9995,"Ġweighs":9996,"Ġought":9997,"Ġplague":9998,"Ġcocon":9999,"Ġmatte":10000,"Ġbreathe":10001,"bot":10002,"Ġtuner":10003,"Ġraven":10004,"rell":10005,"Ġclum":10006,"Ġfolder":10007,"Ġsunlight":10008,"Ġvest":10009,"Ġflowing":10010,"fare":10011,"Ġcanister":10012,"izable":10013,"Ġquestioning":10014,"Ġinterference":10015,"Ġaging":10016,"Ġtattoo":10017,"Ġconve":10018,"Ġaux":10019,"Ġgw":10020,"Ġvital":10021,"Ġfranchise":10022,"Ġcombine":10023,"Ġdose":10024,"Ġagency":10025,"Ġspine":10026,"Ġheated":10027,"Ġterry":10028,"Ġjesse":10029,"Ġpacific":10030,"Ġsuspic":10031,"umbling":10032,"Ġclumsy":10033,"Ġdysfunction":10034,"Ġpreparing":10035,"Ġhire":10036,"Ġwhilst":10037,"Ġembrace":10038,"Ġirrelevant":10039,"Ġcollaps":10040,"Ġloops":10041,"Ġelderly":10042,"Ġmuscle":10043,"Ġdigging":10044,"Ġdile":10045,"Ġglim":10046,"nings":10047,"Ġtortured":10048,"aham":10049,"Ġbegun":10050,"Ġmarcus":10051,"Ġrates":10052,"herent":10053,"Ġimmensely":10054,"Ġdiscontin":10055,"orton":10056,"Ġaudiobook":10057,"Ġdrilled":10058,"Ġcandle":10059,"forcement":10060,"eed":10061,"Ġinvasion":10062,"Ġlaughable":10063,"Ġevenly":10064,"Ġsciss":10065,"Ġpositives":10066,"Ġmotorola":10067,"rem":10068,"Ġmarkers":10069,"Ġhistorian":10070,"Ġchemicals":10071,"Ġdrying":10072,"Ġcounty":10073,"Ġirritated":10074,"Ġradical":10075,"Ġpursue":10076,"Ġsel":10077,"Ġfrancisco":10078,"Ġretract":10079,"cience":10080,"Ġopted":10081,"Ġwidow":10082,"Ġprevents":10083,"Ġhighway":10084,"Ġgeared":10085,"Ġquad":10086,"Ġecc":10087,"Ġprecisely":10088,"Ġobnoxious":10089,"Ġcracking":10090,"imes":10091,"Ġrendering":10092,"nic":10093,"Ġhomework":10094,"Ġdiver":10095,"Ġtrace":10096,"Ġfantas":10097,"cut":10098,"Ġcompliments":10099,"Ġrave":10100,"Ġbrewing":10101,"Ġillegal":10102,"Ġinfant":10103,"laim":10104,"Ġcheapest":10105,"Ġmundane":10106,"Ġthermostat":10107,"Ġelli":10108,"Ġvariations":10109,"Ġroads":10110,"Ġdisgu":10111,"Ġalleg":10112,"Ġsmallest":10113,"Ġweaknesses":10114,"Ġstrangely":10115,"Ġpresumably":10116,"Ġtheirs":10117,"Ġinclusion":10118,"Ġwidely":10119,"Ġlousy":10120,"Ġmartial":10121,"Ġireland":10122,"Ġshifter":10123,"Ġpeak":10124,"Ġawaken":10125,"Ġdude":10126,"Ġscarlet":10127,"ucky":10128,"Ġrant":10129,"Ġitunes":10130,"Ġcoaster":10131,"Ġdsl":10132,"Ġdamp":10133,"Ġcleans":10134,"Ġformal":10135,"oric":10136,"rings":10137,"Ġkicks":10138,"Ġsociet":10139,"Ġpee":10140,"Ġcros":10141,"Ġjonathan":10142,"Ġintricate":10143,"Ġexperts":10144,"Ġsupportive":10145,"Ġtransformation":10146,"alling":10147,"Ġslipped":10148,"Ġattaching":10149,"Ġendings":10150,"othy":10151,"Ġexpectation":10152,"Ġcanvas":10153,"Ġdelighted":10154,"Ġmack":10155,"Ġsheriff":10156,"Ġdrip":10157,"Ġkillers":10158,"Ġburner":10159,"Ġrinse":10160,"Ġconvol":10161,"Ġfaults":10162,"Ġremoval":10163,"Ġseeks":10164,"Ġsuspicious":10165,"Ġcors":10166,"Ġafghan":10167,"Ġpackages":10168,"Ġsturd":10169,"Ġsecured":10170,"Ġcruise":10171,"Ġgroove":10172,"Ġmodest":10173,"Ġconsumers":10174,"Ġky":10175,"Ġreceives":10176,"Ġvegan":10177,"Ġdisorder":10178,"Ġdownhill":10179,"Ġheadsets":10180,"Ġadoles":10181,"Ġfoolish":10182,"Ġrecommending":10183,"Ġheft":10184,"icking":10185,"Ġsympt":10186,"Ġpse":10187,"rough":10188,"Ġprocesses":10189,"Ġtimely":10190,"Ġburns":10191,"Ġgoss":10192,"Ġbackdrop":10193,"Ġprincip":10194,"Ġsuits":10195,"Ġpaths":10196,"Ġrevers":10197,"etary":10198,"Ġmarie":10199,"Ġsmartphone":10200,"Ġreliability":10201,"Ġnora":10202,"Ġmck":10203,"Ġverses":10204,"aron":10205,"Ġapplies":10206,"Ġgoof":10207,"iable":10208,"Ġcuisinart":10209,"Ġstages":10210,"Ġhips":10211,"Ġtribute":10212,"rection":10213,"Ġfy":10214,"Ġrubbing":10215,"Ġkits":10216,"Ġscro":10217,"Ġboil":10218,"Ġrebu":10219,"Ġinspection":10220,"ulative":10221,"Ġwitches":10222,"Ġratio":10223,"Ġellie":10224,"Ġstal":10225,"Ġphase":10226,"Ġbracelet":10227,"Ġmuseum":10228,"Ġenthr":10229,"Ġshaking":10230,"Ġvirginia":10231,"flow":10232,"Ġladder":10233,"Ġstorylines":10234,"Ġrespected":10235,"Ġvisits":10236,"Ġhatred":10237,"Ġrebecca":10238,"Ġhelen":10239,"Ġstatistics":10240,"Ġdeny":10241,"Ġtraits":10242,"Ġimprovements":10243,"Ġdiana":10244,"Ġbeaten":10245,"Ġhumour":10246,"Ġuh":10247,"Ġmagnificent":10248,"wered":10249,"Ġdinosaur":10250,"Ġcompetent":10251,"Ġcoconut":10252,"Ġsandwich":10253,"Ġbore":10254,"Ġmock":10255,"loe":10256,"Ġcompound":10257,"Ġprequ":10258,"Ġfixture":10259,"Ġpots":10260,"Ġhomosex":10261,"Ġbuddh":10262,"Ġprogressed":10263,"Ġtowns":10264,"Ġconvoluted":10265,"Ġthermometer":10266,"Ġsubstitute":10267,"Ġratt":10268,"Ġvegg":10269,"Ġenvelope":10270,"Ġupdating":10271,"west":10272,"Ġantagon":10273,"Ġabd":10274,"Ġprede":10275,"Ġprotects":10276,"Ġtiger":10277,"Ġsubscription":10278,"icien":10279,"gee":10280,"itate":10281,"ieces":10282,"Ġtel":10283,"Ġignorant":10284,"Ġpoll":10285,"Ġreed":10286,"Ġhuh":10287,"heart":10288,"Ġpupp":10289,"Ġneatly":10290,"Ġreleasing":10291,"Ġjuvenile":10292,"mentioned":10293,"Ġtones":10294,"Ġunfinished":10295,"Ġdocumented":10296,"Ġattaches":10297,"Ġcasting":10298,"okay":10299,"Ġcredible":10300,"Ġstuffed":10301,"mit":10302,"Ġskull":10303,"Ġchalk":10304,"Ġfinn":10305,"Ġrussell":10306,"Ġcollecting":10307,"Ġinnovative":10308,"Ġwarmth":10309,"Ġstabil":10310,"Ġstrongest":10311,"Ġnancy":10312,"Ġongoing":10313,"Ġroger":10314,"Ġspoon":10315,"ookie":10316,"Ġmidst":10317,"Ġdaddy":10318,"Ġvictorian":10319,"Ġinjured":10320,"Ġinvolvement":10321,"ko":10322,"Ġtraps":10323,"Ġpreparation":10324,"Ġproport":10325,"Ġingredient":10326,"Ġlun":10327,"Ġsucker":10328,"Ġtomm":10329,"ographic":10330,"Ġbuildings":10331,"Ġdestination":10332,"Ġchess":10333,"cia":10334,"Ġoperations":10335,"Ġunans":10336,"comings":10337,"Ġseth":10338,"urchased":10339,"Ġsnag":10340,"Ġtemporary":10341,"Ġshifts":10342,"Ġapt":10343,"ocative":10344,"Ġrestore":10345,"Ġawe":10346,"shield":10347,"Ġlyrical":10348,"Ġposting":10349,"Ġspong":10350,"Ġinappro":10351,"Ġshortcomings":10352,"Ġheir":10353,"Ġcollins":10354,"Ġhug":10355,"Ġcollapse":10356,"Ġelectricity":10357,"Ġritual":10358,"Ġsf":10359,"Ġtrimm":10360,"Ġobama":10361,"Ġruins":10362,"iping":10363,"Ġadvertis":10364,"Ġaudi":10365,"Ġtomato":10366,"Ġappearances":10367,"oyd":10368,"Ġhistoric":10369,"Ġga":10370,"Ġactivate":10371,"Ġswap":10372,"Ġfaded":10373,"Ġscholarly":10374,"Ġcompression":10375,"Ġsamples":10376,"Ġriveting":10377,"fting":10378,"oned":10379,"Ġteachings":10380,"Ġassert":10381,"Ġstriking":10382,"Ġeddie":10383,"Ġsonic":10384,"Ġstretching":10385,"Ġfinale":10386,"pses":10387,"Ġdoc":10388,"uman":10389,"Ġyrs":10390,"Ġviewers":10391,"Ġfooled":10392,"Ġella":10393,"Ġofficers":10394,"Ġwool":10395,"Ġoverse":10396,"Ġmorm":10397,"Ġinvesting":10398,"Ġmeantime":10399,"ologically":10400,"Ġracism":10401,"road":10402,"Ġholders":10403,"Ġdoctr":10404,"Ġturkey":10405,"Ġtrauma":10406,"Ġsymphony":10407,"Ġidentified":10408,"Ġcontempl":10409,"Ġsustain":10410,"cope":10411,"Ġriley":10412,"Ġdressed":10413,"Ġseag":10414,"Ġarrangement":10415,"Ġreservoir":10416,"Ġchildish":10417,"Ġpistol":10418,"Ġadmits":10419,"some":10420,"Ġling":10421,"Ġhobb":10422,"Ġstereotypical":10423,"Ġpliers":10424,"Ġalask":10425,"dles":10426,"Ġblurry":10427,"Ġjunior":10428,"Ġbt":10429,"Ġmelodies":10430,"icting":10431,"Ġdvr":10432,"Ġrefill":10433,"Ġfrightening":10434,"Ġbry":10435,"Ġadored":10436,"Ġdl":10437,"Ġscattered":10438,"Ġrobust":10439,"Ġformatting":10440,"Ġexceptionally":10441,"Ġswivel":10442,"Ġspiral":10443,"Ġpaste":10444,"Ġwherever":10445,"Ġmats":10446,"Ġgenesis":10447,"Ġea":10448,"Ġassassin":10449,"Ġunanswered":10450,"Ġinfinite":10451,"Ġvig":10452,"ckey":10453,"Ġperry":10454,"enth":10455,"Ġquicker":10456,"Ġcommands":10457,"Ġresident":10458,"Ġviolin":10459,"Ġoscar":10460,"Ġrepairs":10461,"Ġvictoria":10462,"Ġaccused":10463,"Ġslept":10464,"Ġstark":10465,"Ġendure":10466,"Ġtheore":10467,"Ġbaff":10468,"Ġwives":10469,"low":10470,"Ġamber":10471,"adequ":10472,"Ġtightening":10473,"Ġinnocence":10474,"bris":10475,"Ġelementary":10476,"Ġgodd":10477,"Ġapocalyptic":10478,"Ġresidue":10479,"Ġwheat":10480,"Ġtuning":10481,"Ġclimb":10482,"Ġpent":10483,"Ġspice":10484,"Ġsoil":10485,"Ġgran":10486,"Ġprejudice":10487,"Ġreinfor":10488,"Ġpier":10489,"Ġchloe":10490,"Ġcasing":10491,"Ġprofessionals":10492,"Ġgreed":10493,"Ġveteran":10494,"Ġinadequ":10495,"Ġbrilliantly":10496,"Ġpursuit":10497,"dled":10498,"Ġenclosure":10499,"Ġpredecess":10500,"anks":10501,"Ġwarren":10502,"Ġartif":10503,"Ġphilips":10504,"Ġhello":10505,"Ġmixes":10506,"Ġlev":10507,"Ġguessed":10508,"Ġafore":10509,"Ġrevolves":10510,"Ġlinear":10511,"Ġslog":10512,"Ġunint":10513,"Ġmute":10514,"Ġgag":10515,"Ġinclined":10516,"Ġinstructor":10517,"Ġaffects":10518,"Ġvon":10519,"Ġdomestic":10520,"Ġacknowledge":10521,"Ġalternatives":10522,"Ġsax":10523,"Ġuninteresting":10524,"Ġencouraging":10525,"Ġshapes":10526,"Ġaffection":10527,"Ġhalo":10528,"Ġbackgrounds":10529,"Ġhatch":10530,"Ġtasted":10531,"Ġoutline":10532,"Ġdemonstrates":10533,"Ġundert":10534,"Ġmixer":10535,"Ġhardcover":10536,"Ġkicked":10537,"Ġmes":10538,"kien":10539,"Ġinval":10540,"Ġoppon":10541,"Ġseals":10542,"Ġanita":10543,"Ġniece":10544,"Ġdiagrams":10545,"Ġdilemm":10546,"nold":10547,"Ġsimilarities":10548,"rome":10549,"Ġnations":10550,"respons":10551,"Ġexclusively":10552,"Ġnavigation":10553,"Ġliam":10554,"Ġlengths":10555,"Ġsigned":10556,"Ġsunny":10557,"Ġthief":10558,"Ġsuperhero":10559,"Ġsignature":10560,"Ġalle":10561,"idays":10562,"Ġpivot":10563,"Ġstu":10564,"Ġfierce":10565,"purchased":10566,"Ġclimbing":10567,"Ġhazard":10568,"Ġscholarship":10569,"Ġvibration":10570,"Ġdistorted":10571,"mel":10572,"Ġversatile":10573,"Ġancest":10574,"rup":10575,"ili":10576,"Ġcrad":10577,"Ġtempo":10578,"Ġchains":10579,"Ġpell":10580,"Ġpopcorn":10581,"ographies":10582,"rett":10583,"eday":10584,"Ġsoles":10585,"Ġairplane":10586,"Ġmetaphor":10587,"bast":10588,"Ġsexuality":10589,"Ġlids":10590,"rend":10591,"Ġbron":10592,"Ġvibe":10593,"Ġabruptly":10594,"Ġheroines":10595,"Ġbills":10596,"Ġdissapointed":10597,"Ġgluten":10598,"Ġendorse":10599,"Ġhurting":10600,"Ġthreatening":10601,"Ġka":10602,"Ġgraham":10603,"Ġalongside":10604,"Ġhybr":10605,"Ġcomplet":10606,"Ġmultiplayer":10607,"Ġdescend":10608,"Ġshep":10609,"Ġtolkien":10610,"Ġnoticeably":10611,"Ġsupreme":10612,"erved":10613,"Ġexped":10614,"Ġbarr":10615,"Ġcreator":10616,"unte":10617,"Ġimmigrant":10618,"Ġclan":10619,"hem":10620,"Ġextender":10621,"oqu":10622,"Ġwarmer":10623,"Ġdebris":10624,"Ġvoid":10625,"Ġeconomics":10626,"Ġdefine":10627,"Ġempathy":10628,"Ġparenting":10629,"Ġexotic":10630,"Ġdigit":10631,"Ġphant":10632,"Ġdrift":10633,"Ġoutlook":10634,"Ġroomm":10635,"Ġlocally":10636,"Ġimpressions":10637,"Ġassumes":10638,"Ġillustrate":10639,"Ġcube":10640,"ington":10641,"Ġmotivated":10642,"Ġcind":10643,"Ġdolls":10644,"Ġmanga":10645,"Ġgord":10646,"Ġwindshield":10647,"Ġgears":10648,"entric":10649,"user":10650,"Ġbart":10651,"Ġsomeday":10652,"Ġestim":10653,"Ġweave":10654,"bey":10655,"Ġclearer":10656,"Ġprogression":10657,"Ġreligions":10658,"Ġconverter":10659,"Ġfyi":10660,"Ġburnt":10661,"Ġviolet":10662,"aha":10663,"Ġunrel":10664,"Ġsensors":10665,"Ġrevelations":10666,"icate":10667,"Ġbells":10668,"Ġrma":10669,"Ġjudging":10670,"Ġivy":10671,"Ġbicy":10672,"Ġthroat":10673,"Ġretain":10674,"oub":10675,"Ġpine":10676,"Ġslam":10677,"Ġcoated":10678,"Ġministry":10679,"Ġmish":10680,"Ġambit":10681,"Ġredundant":10682,"Ġfolds":10683,"nn":10684,"Ġcrooked":10685,"Ġcatalog":10686,"Ġsurvivor":10687,"Ġcollected":10688,"Ġdevotion":10689,"ito":10690,"Ġcope":10691,"Ġbarbara":10692,"Ġjoints":10693,"Ġgum":10694,"mith":10695,"Ġindoors":10696,"Ġslips":10697,"Ġceramic":10698,"Ġfilmm":10699,"Ġrebell":10700,"Ġkong":10701,"Ġforty":10702,"Ġverd":10703,"Ġportrays":10704,"Ġthreaded":10705,"Ġpseud":10706,"Ġencouraged":10707,"Ġbeliever":10708,"Ġvolunte":10709,"Ġgor":10710,"Ġshining":10711,"Ġrainbow":10712,"Ġreck":10713,"limited":10714,"Ġdefects":10715,"Ġpouring":10716,"Ġaustin":10717,"Ġmaneuver":10718,"Ġhike":10719,"Ġsass":10720,"Ġcontroversial":10721,"Ġsenses":10722,"market":10723,"Ġnate":10724,"Ġdyson":10725,"Ġdrone":10726,"Ġoutfit":10727,"ashes":10728,"Ġcram":10729,"Ġwarped":10730,"Ġcassie":10731,"Ġfilmed":10732,"Ġwayne":10733,"Ġeverytime":10734,"Ġskilled":10735,"Ġenterpr":10736,"Ġbrowsing":10737,"Ġsteer":10738,"Ġswoon":10739,"Ġsuffice":10740,"Ġbooksh":10741,"Ġcompetitive":10742,"Ġtommy":10743,"Ġgasket":10744,"Ġstim":10745,"Ġtraditions":10746,"Ġwarehouse":10747,"Ġnaz":10748,"Ġgravity":10749,"Ġoutlets":10750,"Ġwraps":10751,"Ġcloses":10752,"Ġindependence":10753,"Ġgamer":10754,"Ġframework":10755,"Ġmalfunction":10756,"Ġscissors":10757,"Ġsemin":10758,"Ġcanad":10759,"Ġclou":10760,"Ġslaves":10761,"Ġsandals":10762,"Ġcritique":10763,"Ġreflective":10764,"Ġpropaganda":10765,"Ġmelted":10766,"Ġhusbands":10767,"Ġinvestigating":10768,"Ġlugg":10769,"vc":10770,"Ġnatalie":10771,"Ġbounce":10772,"Ġexpose":10773,"Ġjulian":10774,"Ġrendered":10775,"Ġrecorder":10776,"Ġisa":10777,"Ġfreezer":10778,"Ġholidays":10779,"Ġshod":10780,"Ġdemanding":10781,"Ġprinciple":10782,"Ġhinges":10783,"Ġsheath":10784,"entious":10785,"Ġtanks":10786,"Ġsunglasses":10787,"Ġdestroying":10788,"Ġadequately":10789,"Ġpsychic":10790,"odox":10791,"Ġtrop":10792,"Ġpoke":10793,"Ġcollections":10794,"Ġaffairs":10795,"Ġnecklace":10796,"Ġmonday":10797,"Ġbobby":10798,"Ġposter":10799,"Ġinfluences":10800,"Ġanimated":10801,"Ġjudgement":10802,"Ġjig":10803,"Ġscotland":10804,"Ġbraz":10805,"Ġoffs":10806,"enter":10807,"child":10808,"Ġunlimited":10809,"Ġaaa":10810,"Ġbeside":10811,"Ġaforementioned":10812,"Ġmeh":10813,"Ġintel":10814,"Ġavery":10815,"Ġdex":10816,"Ġyield":10817,"Ġabst":10818,"Ġthankful":10819,"Ġcomposer":10820,"Ġscam":10821,"Ġoriginals":10822,"Ġpunctuation":10823,"andra":10824,"evity":10825,"Ġprocl":10826,"Ġlongevity":10827,"Ġanswering":10828,"Ġdeduct":10829,"Ġforbidden":10830,"Ġpreface":10831,"Ġincomp":10832,"Ġprologue":10833,"Ġcaveat":10834,"Ġspirits":10835,"Ġwhisper":10836,"Ġrocket":10837,"Ġmakeup":10838,"Ġmexican":10839,"ml":10840,"Ġdaw":10841,"enix":10842,"Ġastound":10843,"Ġnotable":10844,"Ġdefinately":10845,"Ġdistracted":10846,"Ġpeeling":10847,"Ġdecept":10848,"Ġsmack":10849,"Ġrescued":10850,"Ġruby":10851,"Ġoils":10852,"Ġflexibility":10853,"uk":10854,"Ġcorruption":10855,"Ġbreakdown":10856,"Ġambitious":10857,"utch":10858,"cal":10859,"Ġguaranteed":10860,"asters":10861,"Ġadul":10862,"Ġintroductory":10863,"gage":10864,"Ġrelates":10865,"Ġluggage":10866,"Ġolds":10867,"Ġtraveled":10868,"Ġcordless":10869,"Ġforum":10870,"Ġobsess":10871,"Ġvictory":10872,"Ġpreced":10873,"Ġstrangers":10874,"Ġlac":10875,"Ġtransparent":10876,"mill":10877,"Ġsorely":10878,"Ġdougl":10879,"Ġwides":10880,"Ġmarketed":10881,"Ġpartial":10882,"Ġcontest":10883,"Ġmelodic":10884,"Ġexamination":10885,"Ġuna":10886,"Ġsyl":10887,"Ġtiss":10888,"Ġcav":10889,"Ġthrill":10890,"front":10891,"Ġappla":10892,"Ġtant":10893,"Ġpromote":10894,"izon":10895,"Ġdisabled":10896,"Ġremem":10897,"Ġglare":10898,"Ġexposition":10899,"asha":10900,"Ġinqu":10901,"Ġblessed":10902,"Ġdivision":10903,"Ġlaces":10904,"Ġtint":10905,"Ġeva":10906,"Ġinsec":10907,"Ġpolitically":10908,"Ġduct":10909,"Ġrecommends":10910,"Ġak":10911,"atted":10912,"Ġsmelled":10913,"Ġmyths":10914,"Ġfootnotes":10915,"Ġappropri":10916,"Ġpinch":10917,"Ġwaking":10918,"Ġsurviving":10919,"Ġtrunk":10920,"Ġcrashed":10921,"Ġinject":10922,"Ġdelux":10923,"Ġleo":10924,"Ġranging":10925,"Ġadventur":10926,"Ġmagazines":10927,"Ġbs":10928,"Ġreign":10929,"Ġisolation":10930,"Ġvalent":10931,"Ġastron":10932,"Ġrelatives":10933,"Ġtearing":10934,"Ġironically":10935,"Ġbaked":10936,"Ġpend":10937,"Ġtrainer":10938,"Ġconversion":10939,"Ġlegends":10940,"Ġsatisfactory":10941,"Ġwarfare":10942,"ella":10943,"Ġapplaud":10944,"Ġpose":10945,"Ġshifting":10946,"ias":10947,"Ġnotor":10948,"Ġwakes":10949,"Ġlantern":10950,"Ġdall":10951,"Ġsexually":10952,"Ġoldest":10953,"Ġfixes":10954,"Ġscor":10955,"Ġevolved":10956,"kyo":10957,"Ġbothers":10958,"hot":10959,"Ġkyle":10960,"aying":10961,"walk":10962,"Ġretrie":10963,"math":10964,"Ġnarc":10965,"Ġstewart":10966,"Ġsoo":10967,"Ġmanus":10968,"Ġtrio":10969,"Ġlend":10970,"Ġdisappears":10971,"Ġexpired":10972,"Ġartifact":10973,"Ġambient":10974,"Ġfri":10975,"Ġclu":10976,"Ġassignment":10977,"Ġremake":10978,"Ġjustin":10979,"tt":10980,"astically":10981,"Ġaircraft":10982,"han":10983,"Ġeasiest":10984,"Ġearl":10985,"Ġlinda":10986,"Ġscores":10987,"lar":10988,"Ġattitudes":10989,"Ġlikewise":10990,"Ġjuliet":10991,"Ġunstable":10992,"overall":10993,"Ġtiresome":10994,"Ġaddicted":10995,"Ġcrunch":10996,"mers":10997,"Ġpoo":10998,"Ġbelkin":10999,"Ġshuff":11000,"Ġnorton":11001,"Ġorle":11002,"Ġfraud":11003,"Ġrails":11004,"Ġautobiography":11005,"Ġcomposition":11006,"Ġgoddess":11007,"Ġnursing":11008,"Ġvoluntarily":11009,"Ġribb":11010,"Ġtwent":11011,"Ġau":11012,"Ġemper":11013,"Ġrebel":11014,"car":11015,"Ġdisks":11016,"Ġdespair":11017,"Ġdamaging":11018,"Ġtore":11019,"Ġpioneer":11020,"Ġdragging":11021,"Ġseparation":11022,"Ġmanuscript":11023,"Ġlifted":11024,"Ġfry":11025,"Ġpracticing":11026,"Ġinappropriate":11027,"Ġbella":11028,"Ġblacks":11029,"Ġshout":11030,"Ġenters":11031,"Ġmelissa":11032,"Ġprong":11033,"Ġbee":11034,"Ġrevolutionary":11035,"Ġinterv":11036,"Ġcontinuity":11037,"Ġshutter":11038,"yster":11039,"Ġdeluxe":11040,"Ġmaf":11041,"Ġshuts":11042,"Ġlarry":11043,"Ġverizon":11044,"Ġreporting":11045,"Ġraid":11046,"Ġdresses":11047,"Ġtaller":11048,"Ġdistr":11049,"maid":11050,"Ġembarrassing":11051,"Ġbloom":11052,"Ġcolumn":11053,"Ġquot":11054,"Ġsavvy":11055,"Ġtrite":11056,"Ġtemperatures":11057,"chy":11058,"Ġdiscipline":11059,"reads":11060,"Ġcraig":11061,"lifting":11062,"otica":11063,"Ġrocky":11064,"Ġmargaret":11065,"Ġignoring":11066,"Ġchunks":11067,"Ġpap":11068,"Ġchop":11069,"itage":11070,"Ġeyed":11071,"Ġadministration":11072,"Ġfriction":11073,"Ġterrorist":11074,"Ġinhabit":11075,"Ġnoir":11076,"cha":11077,"Ġrenew":11078,"Ġduo":11079,"12":11080,"Ġanchor":11081,"ria":11082,"Ġcelebrity":11083,"Ġelvis":11084,"Ġundoub":11085,"Ġalignment":11086,"Ġtemple":11087,"Ġventure":11088,"Ġmacro":11089,"Ġprocedure":11090,"Ġsights":11091,"pro":11092,"Ġsalvation":11093,"Ġbarry":11094,"nett":11095,"iance":11096,"Ġheroic":11097,"Ġlor":11098,"oped":11099,"Ġracial":11100,"Ġholoc":11101,"igm":11102,"Ġstepped":11103,"Ġroth":11104,"Ġcyl":11105,"Ġhardest":11106,"Ġwaff":11107,"Ġfortunate":11108,"Ġcomparisons":11109,"Ġaccepts":11110,"Ġintermedi":11111,"Ġdess":11112,"Ġcurved":11113,"foot":11114,"Ġracist":11115,"Ġclicks":11116,"Ġrestrict":11117,"Ġoutrageous":11118,"Ġstumbled":11119,"Ġfloat":11120,"kee":11121,"Ġripping":11122,"Ġoverwhelmed":11123,"Ġstealing":11124,"Ġenthusiasm":11125,"Ġkod":11126,"Ġtravis":11127,"Ġprest":11128,"Ġsubw":11129,"Ġinconvenient":11130,"Ġhistorically":11131,"Ġphotoshop":11132,"Ġsegment":11133,"Ġcourses":11134,"Ġclueless":11135,"Ġgoodby":11136,"Ġgeorgia":11137,"Ġclinton":11138,"vably":11139,"Ġsimpler":11140,"Ġmonthly":11141,"Ġkent":11142,"ctor":11143,"Ġdepiction":11144,"Ġrelies":11145,"Ġfriendships":11146,"Ġeden":11147,"Ġcostco":11148,"Ġvarying":11149,"Ġissued":11150,"Ġeternal":11151,"Ġanker":11152,"Ġholocaust":11153,"Ġdistraction":11154,"Ġsatellite":11155,"Ġmono":11156,"Ġzach":11157,"Ġgentleman":11158,"Ġtriv":11159,"Ġnicholas":11160,"Ġorleans":11161,"Ġbowls":11162,"Ġcontribution":11163,"Ġawaiting":11164,"Ġtheatre":11165,"tical":11166,"Ġgrim":11167,"Ġflew":11168,"Ġpitcher":11169,"Ġwik":11170,"Ġwrapping":11171,"Ġpho":11172,"Ġterrifying":11173,"Ġresponses":11174,"Ġgm":11175,"isms":11176,"etta":11177,"Ġmaintaining":11178,"Ġcringe":11179,"liance":11180,"Ġolive":11181,"Ġdb":11182,"Ġcoupled":11183,"Ġgrandma":11184,"Ġmim":11185,"Ġrelating":11186,"Ġsebast":11187,"Ġbid":11188,"Ġemployee":11189,"Ġbrav":11190,"Ġginger":11191,"Ġdaylight":11192,"Ġupgrading":11193,"Ġrotating":11194,"Ġsue":11195,"Ġunins":11196,"Ġknit":11197,"Ġunaware":11198,"Ġenhanced":11199,"yers":11200,"Ġfoil":11201,"Ġstains":11202,"llas":11203,"Ġvote":11204,"Ġguards":11205,"Ġbibli":11206,"Ġescaped":11207,"Ġriffs":11208,"Ġcontrollers":11209,"Ġignorance":11210,"Ġprope":11211,"Ġeh":11212,"Ġcounts":11213,"Ġillum":11214,"Ġwright":11215,"Ġaligned":11216,"Ġunclear":11217,"Ġpud":11218,"Ġhelic":11219,"Ġmistress":11220,"Ġstretches":11221,"Ġasia":11222,"Ġflashes":11223,"think":11224,"Ġvic":11225,"Ġgriffin":11226,"Ġgrandson":11227,"Ġembarrassed":11228,"Ġfluke":11229,"Ġtens":11230,"Ġeag":11231,"Ġintertw":11232,"Ġdaisy":11233,"Ġhz":11234,"ulator":11235,"Ġnix":11236,"Ġgathering":11237,"Ġfluffy":11238,"Ġironic":11239,"Ġencourages":11240,"Ġdiscomfort":11241,"Ġpunishment":11242,"encing":11243,"Ġnamely":11244,"ainted":11245,"bird":11246,"Ġdiscern":11247,"Ġfunn":11248,"Ġfunky":11249,"Ġcompart":11250,"Ġpete":11251,"Ġmarvelous":11252,"Ġstrand":11253,"Ġcrossing":11254,"Ġkink":11255,"Ġfarther":11256,"Ġace":11257,"Ġpasta":11258,"Ġchurches":11259,"Ġrelation":11260,"rad":11261,"Ġnud":11262,"Ġappet":11263,"mann":11264,"Ġmolded":11265,"Ġgrandparent":11266,"Ġesteem":11267,"Ġrounds":11268,"Ġbrooks":11269,"Ġobservation":11270,"Ġjarring":11271,"Ġbios":11272,"Ġtasty":11273,"rin":11274,"cop":11275,"Ġattic":11276,"ibble":11277,"Ġtempered":11278,"Ġvanilla":11279,"Ġbacklight":11280,"Ġyoungest":11281,"Ġplag":11282,"Ġgossip":11283,"Ġangeles":11284,"Ġaftermath":11285,"Ġsoda":11286,"Ġwounded":11287,"Ġcrashing":11288,"Ġhul":11289,"Ġcameron":11290,"Ġeats":11291,"giving":11292,"Ġerotica":11293,"Ġcycles":11294,"Ġprequel":11295,"Ġassumptions":11296,"Ġgp":11297,"Ġwarriors":11298,"Ġcompartments":11299,"Ġhav":11300,"Ġhorrend":11301,"Ġstilted":11302,"Ġanton":11303,"Ġconnor":11304,"Ġassessment":11305,"Ġhybrid":11306,"Ġaaron":11307,"Ġunm":11308,"Ġcrushed":11309,"Ġcompatibility":11310,"Ġengineers":11311,"Ġrelent":11312,"Ġdemonstrate":11313,"iances":11314,"Ġplotting":11315,"Ġexpects":11316,"Ġcolin":11317,"Ġoriginality":11318,"Ġdisposable":11319,"station":11320,"Ġswed":11321,"ete":11322,"Ġheritage":11323,"Ġwolves":11324,"Ġmichelle":11325,"review":11326,"Ġstanley":11327,"Ġfoul":11328,"Ġcarn":11329,"Ġsought":11330,"Ġsans":11331,"Ġrecru":11332,"Ġunpack":11333,"Ġgrish":11334,"Ġtimeless":11335,"Ġdrags":11336,"Ġsignificance":11337,"Ġmuddy":11338,"Ġretelling":11339,"Ġoutright":11340,"Ġnint":11341,"burg":11342,"Ġadmirable":11343,"onest":11344,"Ġcategories":11345,"Ġhelicop":11346,"Ġdeploy":11347,"Ġhills":11348,"Ġengrossing":11349,"Ġexit":11350,"Ġexamine":11351,"Ġduplic":11352,"Ġsubtitles":11353,"Ġsie":11354,"cled":11355,"Ġincorrectly":11356,"Ġcomposed":11357,"Ġtags":11358,"Ġlevi":11359,"Ġintros":11360,"Ġarray":11361,"Ġhears":11362,"Ġdiff":11363,"Ġbummer":11364,"ettes":11365,"Ġpsycho":11366,"Ġsnugly":11367,"Ġpolicies":11368,"amous":11369,"Ġthompson":11370,"Ġescapes":11371,"buck":11372,"anor":11373,"Ġmudd":11374,"Ġdew":11375,"Ġlaughter":11376,"ophile":11377,"orig":11378,"Ġbehold":11379,"Ġsavings":11380,"Ġwarnings":11381,"Ġdivorced":11382,"Ġinconvenience":11383,"igma":11384,"Ġwrenching":11385,"Ġpeanut":11386,"Ġcells":11387,"Ġgoodbye":11388,"Ġrental":11389,"Ġbait":11390,"Ġrecieved":11391,"Ġamps":11392,"raw":11393,"Ġmanifest":11394,"Ġboiling":11395,"Ġwade":11396,"Ġfleet":11397,"ggles":11398,"ivo":11399,"Ġjava":11400,"uled":11401,"Ġlongest":11402,"Ġmadden":11403,"Ġengagement":11404,"Ġinexplic":11405,"Ġwoke":11406,"Ġtransferred":11407,"iro":11408,"Ġapocalypse":11409,"Ġcrate":11410,"Ġwhiny":11411,"Ġcoup":11412,"Ġenable":11413,"Ġpatterson":11414,"Ġdouglas":11415,"Ġcrude":11416,"Ġseasoned":11417,"holic":11418,"Ġjoan":11419,"Ġmales":11420,"Ġios":11421,"Ġfunk":11422,"Ġharrison":11423,"Ġundoubted":11424,"oofer":11425,"Ġweaker":11426,"Ġhomeless":11427,"Ġholl":11428,"Ġrey":11429,"Ġnause":11430,"neys":11431,"Ġpaintings":11432,"Ġgladly":11433,"Ġskimmed":11434,"Ġsteering":11435,"Ġsoaked":11436,"Ġselections":11437,"ares":11438,"Ġtheological":11439,"Ġfax":11440,"Ġlanding":11441,"Ġtaped":11442,"Ġashley":11443,"Ġdatab":11444,"rist":11445,"Ġbeet":11446,"Ġsq":11447,"Ġwalter":11448,"Ġhorrors":11449,"Ġmanaging":11450,"Ġcompr":11451,"Ġflipped":11452,"Ġsymptoms":11453,"Ġcitizen":11454,"Ġpassive":11455,"Ġrepeats":11456,"Ġuninsp":11457,"adays":11458,"Ġknobs":11459,"Ġfetched":11460,"felt":11461,"Ġdisgusted":11462,"Ġcostumes":11463,"Ġarmed":11464,"Ġinevitably":11465,"Ġbehave":11466,"Ġmint":11467,"Ġaz":11468,"Ġdrawers":11469,"Ġdevastating":11470,"Ġineff":11471,"Ġprofessionally":11472,"100":11473,"Ġcreek":11474,"Ġprimer":11475,"Ġmates":11476,"Ġhardship":11477,"Ġprescri":11478,"Ġoverseas":11479,"Ġscholar":11480,"Ġcriter":11481,"Ġphantom":11482,"Ġtrimmer":11483,"Ġleonard":11484,"...":11485,"Ġscuff":11486,"Ġfoll":11487,"Ġsquad":11488,"Ġshoddy":11489,"Ġeccentric":11490,"Ġdanie":11491,"Ġdumped":11492,"Ġcharism":11493,"Ġeleph":11494,"Ġdots":11495,"Ġdiscontinued":11496,"Ġtroops":11497,"Ġvisions":11498,"Ġkle":11499,"Ġgrandd":11500,"Ġpoliticians":11501,"Ġconclude":11502,"Ġtrivial":11503,"Ġlegitimate":11504,"Ġrefunded":11505,"Ġcliches":11506,"Ġcinema":11507,"Ġrisks":11508,"Ġnowadays":11509,"Ġmario":11510,"nell":11511,"iffer":11512,"Ġstoryte":11513,"Ġsyndrome":11514,"Ġparadise":11515,"Ġpp":11516,"Ġnintendo":11517,"Ġquantum":11518,"Ġpromotion":11519,"Ġcanadian":11520,"Ġintermediate":11521,"Ġmanh":11522,"Ġporch":11523,"Ġenlightening":11524,"burn":11525,"Ġcompromise":11526,"Ġmorality":11527,"Ġalphab":11528,"Ġyards":11529,"Ġsnipp":11530,"Ġgur":11531,"Ġmush":11532,"Ġsalad":11533,"Ġdysfunctional":11534,"Ġcompensation":11535,"Ġpays":11536,"Ġsenn":11537,"Ġmindset":11538,"Ġprocessed":11539,"Ġwaves":11540,"Ġgrues":11541,"Ġfreezes":11542,"Ġgill":11543,"Ġcongress":11544,"alf":11545,"Ġmph":11546,"Ġproofread":11547,"Ġchronic":11548,"Ġelaborate":11549,"Ġalleged":11550,"bian":11551,"Ġspain":11552,"Ġassumption":11553,"Ġlips":11554,"Ġmankind":11555,"redict":11556,"Ġdesigners":11557,"Ġmessing":11558,"Ġcertified":11559,"eder":11560,"Ġresidents":11561,"Ġdecline":11562,"Ġglam":11563,"Ġrefrigerator":11564,"Ġsuspension":11565,"Ġfuneral":11566,"Ġdramatically":11567,"Ġflowed":11568,"Ġstarring":11569,"Ġindie":11570,"Ġsacred":11571,"Ġtangled":11572,"Ġtu":11573,"Ġguardian":11574,"Ġseld":11575,"Ġadaptation":11576,"bson":11577,"Ġverify":11578,"Ġparam":11579,"Ġheats":11580,"Ġwashers":11581,"eters":11582,"Ġafghanistan":11583,"arest":11584,"Ġhardwood":11585,"Ġunim":11586,"Ġdevelopers":11587,"Ġguitarist":11588,"Ġcaptivated":11589,"oll":11590,"antha":11591,"Ġpsychiat":11592,"Ġundoubtedly":11593,"Ġjungle":11594,"Ġsnake":11595,"Ġgeek":11596,"Ġaccompanied":11597,"Ġoak":11598,"Ġdowngr":11599,"Ġraises":11600,"Ġtunnel":11601,"Ġweakest":11602,"Ġcrus":11603,"Ġaudiences":11604,"Ġads":11605,"Ġlore":11606,"Ġlamps":11607,"Ġmarshall":11608,"Ġcradle":11609,"Ġpirate":11610,"Ġcontinuation":11611,"eland":11612,"iver":11613,"Ġvariation":11614,"Ġgratuit":11615,"Ġwhirl":11616,"Ġalcoholic":11617,"andy":11618,"Ġlively":11619,"Ġorganizations":11620,"Ġrocker":11621,"Ġstakes":11622,"Ġfraction":11623,"Ġmonot":11624,"Ġperception":11625,"Ġsubwoofer":11626,"Ġretailer":11627,"lance":11628,"Ġmegan":11629,"Ġsucceeds":11630,"Ġunpredict":11631,"Ġreduction":11632,"alo":11633,"Ġvenge":11634,"pert":11635,"Ġwhining":11636,"Ġforemost":11637,"Ġmadness":11638,"Ġminority":11639,"Ġpersona":11640,"wire":11641,"Ġhistorians":11642,"Ġrogue":11643,"Ġmaria":11644,"iator":11645,"itative":11646,"Ġsheep":11647,"quisite":11648,"Ġidol":11649,"Ġdispenser":11650,"Ġgrisham":11651,"zo":11652,"Ġcigaret":11653,"Ġhopeless":11654,"Ġremotes":11655,"Ġliners":11656,"Ġprivacy":11657,"Ġheartfelt":11658,"Ġcaroline":11659,"Ġclutter":11660,"Ġowen":11661,"Ġposes":11662,"struct":11663,"Ġglobe":11664,"Ġaccompanying":11665,"Ġsebastian":11666,"Ġtranslations":11667,"Ġdeterior":11668,"Ġmak":11669,"boo":11670,"Ġignores":11671,"Ġcraz":11672,"Ġmodify":11673,"Ġtreas":11674,"Ġbelievers":11675,"Ġabstract":11676,"Ġsixth":11677,"Ġcere":11678,"Ġranger":11679,"aby":11680,"Ġdere":11681,"ira":11682,"Ġkorean":11683,"Ġexperiments":11684,"uity":11685,"Ġcamc":11686,"Ġgruesome":11687,"Ġhed":11688,"lands":11689,"Ġgermans":11690,"Ġnicole":11691,"arded":11692,"Ġsata":11693,"Ġgothic":11694,"Ġconveniently":11695,"cakes":11696,"Ġrods":11697,"Ġpanic":11698,"Ġyam":11699,"Ġindians":11700,"Ġunse":11701,"Ġprogrammed":11702,"Ġdeception":11703,"Ġounce":11704,"ensible":11705,"Ġbeta":11706,"Ġsyd":11707,"Ġkicking":11708,"Ġhistories":11709,"Ġstole":11710,"Ġremarkably":11711,"Ġenabled":11712,"Ġreprint":11713,"Ġjeremy":11714,"Ġwiped":11715,"Ġblower":11716,"Ġclearance":11717,"rious":11718,"Ġcommander":11719,"Ġtelephone":11720,"Ġcapturing":11721,"Ġarchitecture":11722,"Ġdrawbacks":11723,"Ġchin":11724,"Ġbasketball":11725,"Ġmega":11726,"Ġstale":11727,"Ġcircus":11728,"Ġsequels":11729,"Ġhex":11730,"Ġsincerely":11731,"Ġrambling":11732,"sen":11733,"Ġtrent":11734,"Ġglimpses":11735,"fits":11736,"Ġillustration":11737,"Ġbusinesses":11738,"Ġspins":11739,"ighters":11740,"Ġcircular":11741,"Ġbundle":11742,"icature":11743,"Ġbosch":11744,"Ġpopularity":11745,"Ġtaxes":11746,"Ġalaska":11747,"Ġnegot":11748,"Ġeaten":11749,"Ġvibr":11750,"Ġbog":11751,"Ġtasting":11752,"Ġatlant":11753,"Ġbake":11754,"Ġsavage":11755,"Ġmusically":11756,"Ġfacility":11757,"Ġmodified":11758,"held":11759,"Ġfaux":11760,"Ġjenny":11761,"Ġemperor":11762,"ivable":11763,"Ġdownward":11764,"Ġdownfall":11765,"inction":11766,"Ġboundaries":11767,"gled":11768,"Ġcontribute":11769,"ression":11770,"Ġacer":11771,"Ġassembling":11772,"Ġfuss":11773,"Ġannivers":11774,"Ġspirituality":11775,"Ġinadequate":11776,"Ġhockey":11777,"appe":11778,"Ġgt":11779,"Ġlego":11780,"lie":11781,"Ġinsulting":11782,"Ġdominant":11783,"Ġhammo":11784,"Ġtherapist":11785,"Ġarist":11786,"Ġcancel":11787,"Ġpretentious":11788,"Ġplod":11789,"Ġgroom":11790,"Ġsmar":11791,"Ġfollowers":11792,"ovo":11793,"Ġsolidly":11794,"Ġambig":11795,"Ġevaluation":11796,"Ġvastly":11797,"Ġiran":11798,"jack":11799,"omp":11800,"Ġtennis":11801,"Ġcalc":11802,"Ġbure":11803,"Ġborders":11804,"Ġreagan":11805,"Ġbogged":11806,"Ġsampl":11807,"aline":11808,"Ġshoots":11809,"Ġcopyright":11810,"Ġcondem":11811,"Ġligh":11812,"Ġdefeats":11813,"Ġgordon":11814,"Ġretirement":11815,"Ġintentionally":11816,"Ġyep":11817,"Ġgest":11818,"Ġdelve":11819,"Ġinconsistencies":11820,"Ġpreachy":11821,"Ġtranslate":11822,"Ġspouse":11823,"Ġstructured":11824,"Ġmant":11825,"Ġelection":11826,"Ġhamm":11827,"lee":11828,"Ġaccustom":11829,"Ġharbor":11830,"Ġtactical":11831,"Ġnarciss":11832,"Ġaccum":11833,"Ġbrains":11834,"Ġcounterp":11835,"bury":11836,"cell":11837,"Ġrider":11838,"Ġmafia":11839,"Ġantics":11840,"Ġdetached":11841,"Ġdangers":11842,"uge":11843,"hen":11844,"brew":11845,"Ġsinister":11846,"Ġmarker":11847,"Ġlifes":11848,"Ġrobinson":11849,"Ġinvestigator":11850,"Ġimho":11851,"Ġfuse":11852,"Ġkidnapping":11853,"Ġweber":11854,"Ġminister":11855,"Ġneuro":11856,"Ġcaleb":11857,"omer":11858,"Ġbuggy":11859,"avin":11860,"Ġindicating":11861,"Ġseldom":11862,"Ġappropriately":11863,"Ġswept":11864,"Ġlur":11865,"Ġorientation":11866,"rol":11867,"urig":11868,"Ġpry":11869,"Ġscra":11870,"Ġcompressor":11871,"Ġbuys":11872,"itious":11873,"Ġpedals":11874,"Ġtreble":11875,"Ġunderwater":11876,"Ġmage":11877,"Ġburden":11878,"Ġnoticing":11879,"ours":11880,"Ġtempor":11881,"sa":11882,"ipper":11883,"Ġsamantha":11884,"Ġsegments":11885,"Ġbehaviors":11886,"Ġunhe":11887,"Ġjersey":11888,"Ġwalt":11889,"Ġentrep":11890,"Ġquirks":11891,"Ġbeds":11892,"iant":11893,"Ġuplifting":11894,"Ġexecutive":11895,"Ġhem":11896,"Ġrewr":11897,"Ġcaricature":11898,"Ġrestaurants":11899,"Ġclamps":11900,"Ġsins":11901,"Ġbiographies":11902,"Ġpixel":11903,"Ġgoodreads":11904,"upp":11905,"Ġbish":11906,"Ġnag":11907,"Ġbackyard":11908,"Ġmitchell":11909,"Ġeleven":11910,"Ġcopied":11911,"Ġdestined":11912,"Ġalf":11913,"Ġremembering":11914,"Ġpositioned":11915,"icable":11916,"Ġpassenger":11917,"Ġbrilliance":11918,"Ġsuspected":11919,"will":11920,"Ġparking":11921,"Ġmormon":11922,"Ġpropri":11923,"Ġtink":11924,"Ġunread":11925,"Ġdrummer":11926,"strong":11927,"Ġkeurig":11928,"Ġtechnician":11929,"Ġcolorado":11930,"ede":11931,"Ġproperties":11932,"Ġscandal":11933,"Ġlite":11934,"Ġintimid":11935,"Ġstarters":11936,"Ġquieter":11937,"Ġfitz":11938,"onymous":11939,"Ġves":11940,"Ġhats":11941,"Ġgarn":11942,"Ġnotably":11943,"ela":11944,"Ġjed":11945,"Ġmonkey":11946,"Ġanniversary":11947,"Ġforgettable":11948,"Ġcubes":11949,"veloped":11950,"Ġpotatoes":11951,"Ġpetty":11952,"Ġmarkets":11953,"Ġcontributed":11954,"Ġtrusting":11955,"isco":11956,"Ġballads":11957,"good":11958,"Ġwary":11959,"Ġexcel":11960,"Ġimpe":11961,"Ġverbal":11962,"Ġdna":11963,"annah":11964,"rim":11965,"atched":11966,"Ġdiversity":11967,"Ġseagate":11968,"Ġcarolina":11969,"Ġalternating":11970,"Ġinterpretations":11971,"Ġstake":11972,"Ġpiper":11973,"Ġgrie":11974,"Ġdip":11975,"gate":11976,"Ġenforcement":11977,"cock":11978,"Ġconscience":11979,"Ġsubjective":11980,"Ġincompet":11981,"Ġcyber":11982,"Ġunexpectedly":11983,"Ġmeetings":11984,"Ġmystical":11985,"Ġnightmares":11986,"Ġboxed":11987,"Ġabund":11988,"Ġwilderness":11989,"Ġsucceeded":11990,"Ġchunk":11991,"Ġalley":11992,"Ġbeads":11993,"Ġseattle":11994,"Ġabound":11995,"Ġallies":11996,"Ġhorrendous":11997,"Ġpolite":11998,"Ġtreating":11999,"Ġcriminals":12000,"Ġknowledgeable":12001,"Ġgop":12002,"Ġsple":12003,"Ġinvented":12004,"Ġgrandparents":12005,"ala":12006,"Ġsatire":12007,"Ġcompete":12008,"Ġhein":12009,"Ġjammed":12010,"Ġnood":12011,"Ġhend":12012,"Ġmasterful":12013,"Ġsennhe":12014,"Ġzoe":12015,"Ġhipp":12016,"Ġcoherent":12017,"Ġharmon":12018,"Ġwithstand":12019,"Ġentreprene":12020,"Ġdelt":12021,"Ġcampbell":12022,"Ġwrestling":12023,"Ġbookshelf":12024,"Ġexchanged":12025,"atisfying":12026,"Ġwildly":12027,"iciency":12028,"Ġbottoms":12029,"Ġchill":12030,"Ġsnark":12031,"Ġconform":12032,"Ġsideways":12033,"Ġrepresentation":12034,"abs":12035,"Ġmans":12036,"Ġranks":12037,"Ġreunion":12038,"Ġclicked":12039,"Ġstoring":12040,"Ġenterprise":12041,"azing":12042,"Ġtvs":12043,"Ġmomm":12044,"Ġdetailing":12045,"Ġintake":12046,"ulsive":12047,"Ġbliss":12048,"Ġimplies":12049,"Ġapples":12050,"Ġscul":12051,"Ġcolumbia":12052,"Ġphilip":12053,"Ġdependent":12054,"Ġmomentum":12055,"Ġnov":12056,"Ġingen":12057,"Ġliberty":12058,"Ġpric":12059,"Ġmeaningless":12060,"Ġinterfere":12061,"Ġappearing":12062,"Ġeditorial":12063,"Ġhunters":12064,"Ġimproving":12065,"pieces":12066,"Ġeco":12067,"Ġstaples":12068,"Ġhdd":12069,"Ġdisturbed":12070,"Ġnerves":12071,"Ġfairness":12072,"Ġconference":12073,"Ġorthodox":12074,"Ġenlighten":12075,"Ġblocking":12076,"Ġthreatened":12077,"Ġberlin":12078,"Ġkeith":12079,"etown":12080,"Ġaccustomed":12081,"Ġproceeds":12082,"Ġabort":12083,"Ġbombs":12084,"luster":12085,"ordered":12086,"Ġaltered":12087,"Ġpodcast":12088,"Ġsuz":12089,"anges":12090,"Ġsufficiently":12091,"Ġkara":12092,"Ġwerewolves":12093,"Ġretro":12094,"Ġauthenticity":12095,"fol":12096,"Ġlith":12097,"ointment":12098,"Ġmeand":12099,"Ġbald":12100,"Ġvinegar":12101,"Ġdestructive":12102,"Ġsyrup":12103,"ikes":12104,"Ġadmired":12105,"Ġturmo":12106,"Ġdong":12107,"Ġsnack":12108,"Ġfemales":12109,"Ġcooks":12110,"Ġsecretly":12111,"Ġheather":12112,"Ġjefferson":12113,"Ġsprayed":12114,"Ġathletic":12115,"Ġfeminist":12116,"Ġgra":12117,"cake":12118,"Ġtrays":12119,"Ġsims":12120,"Ġmg":12121,"Ġphoenix":12122,"Ġhyster":12123,"Ġcinemat":12124,"Ġviz":12125,"Ġinfamous":12126,"Ġdistress":12127,"Ġtolerate":12128,"Ġblinking":12129,"Ġgreatness":12130,"Ġdickens":12131,"Ġinterestingly":12132,"Ġbicycle":12133,"oline":12134,"Ġvicious":12135,"ince":12136,"elity":12137,"Ġlackluster":12138,"Ġappendix":12139,"Ġchilling":12140,"Ġcolleagues":12141,"Ġshri":12142,"Ġnetworks":12143,"Ġleaning":12144,"Ġdeparture":12145,"Ġstructures":12146,"heim":12147,"Ġfruits":12148,"Ġnecessity":12149,"Ġseamlessly":12150,"Ġava":12151,"Ġprost":12152,"Ġunl":12153,"Ġrelaxing":12154,"encer":12155,"Ġpickup":12156,"Ġmentor":12157,"Ġsilk":12158,"Ġcommunist":12159,"Ġcharity":12160,"Ġmuscles":12161,"Ġenclosed":12162,"Ġsculpt":12163,"Ġnoting":12164,"Ġcareers":12165,"Ġvign":12166,"Ġnash":12167,"Ġkane":12168,"Ġworrying":12169,"ersed":12170,"Ġactivated":12171,"Ġproclaim":12172,"Ġample":12173,"Ġdallas":12174,"Ġmodule":12175,"Ġassure":12176,"Ġbezel":12177,"Ġtuned":12178,"Ġcurt":12179,"Ġhdtv":12180,"Ġpatches":12181,"Ġmechanic":12182,"Ġlanded":12183,"Ġcomplement":12184,"Ġveggies":12185,"Ġunbear":12186,"Ġbranch":12187,"Ġmoderately":12188,"Ġturbo":12189,"aned":12190,"Ġpains":12191,"Ġassassination":12192,"Ġdischar":12193,"Ġamelia":12194,"Ġfirstly":12195,"Ġbrood":12196,"Ġbour":12197,"Ġmighty":12198,"Ġupbeat":12199,"Ġregency":12200,"Ġslid":12201,"Ġbureau":12202,"Ġenvironments":12203,"Ġsherlock":12204,"Ġwarner":12205,"Ġscriptures":12206,"Ġacquired":12207,"Ġscreenplay":12208,"Ġcycling":12209,"Ġgree":12210,"hard":12211,"Ġsandisk":12212,"brush":12213,"Ġounces":12214,"Ġtemps":12215,"Ġblatant":12216,"Ġirony":12217,"Ġstoryteller":12218,"Ġjacks":12219,"Ġruthless":12220,"Ġtorque":12221,"Ġrotation":12222,"mons":12223,"Ġark":12224,"plex":12225,"Ġshim":12226,"Ġethics":12227,"Ġblunt":12228,"Ġmemoirs":12229,"Ġrecre":12230,"Ġfutur":12231,"Ġmeasurement":12232,"ouses":12233,"Ġreferenced":12234,"di":12235,"Ġpriority":12236,"Ġdimmer":12237,"Ġstretchy":12238,"Ġappliance":12239,"Ġsilicon":12240,"itarian":12241,"Ġmutual":12242,"Ġdal":12243,"Ġfork":12244,"Ġheartbreak":12245,"Ġswift":12246,"Ġaccidental":12247,"Ġoffended":12248,"Ġquantity":12249,"Ġverified":12250,"Ġkirk":12251,"Ġmetallic":12252,"Ġaccordance":12253,"ulates":12254,"rels":12255,"Ġcarrie":12256,"Ġturmoil":12257,"Ġmaturity":12258,"Ġrebuild":12259,"Ġhometown":12260,"Ġmirrors":12261,"Ġengineered":12262,"Ġzippered":12263,"Ġbully":12264,"Ġawards":12265,"Ġjackie":12266,"comes":12267,"Ġapproved":12268,"Ġgenerated":12269,"Ġbiological":12270,"Ġimmersed":12271,"Ġbackward":12272,"Ġbrushed":12273,"agg":12274,"Ġrav":12275,"Ġbeneficial":12276,"Ġaustralian":12277,"Ġrealization":12278,"Ġgratuitous":12279,"Ġrubbed":12280,"Ġcourtesy":12281,"master":12282,"Ġcombines":12283,"Ġcollabor":12284,"Ġrewarding":12285,"Ġwander":12286,"ggings":12287,"Ġimmortal":12288,"Ġscottish":12289,"Ġhud":12290,"Ġnazis":12291,"Ġrefresh":12292,"Ġdelivering":12293,"Ġaids":12294,"Ġincidents":12295,"Ġgarlic":12296,"Ġderek":12297,"Ġbot":12298,"Ġtome":12299,"Ġdisreg":12300,"Ġstepping":12301,"Ġil":12302,"Ġdisappearance":12303,"attan":12304,"Ġunbelievably":12305,"Ġpseudo":12306,"Ġexperimental":12307,"Ġremarks":12308,"Ġutilize":12309,"Ġargu":12310,"Ġconsiders":12311,"Ġcamps":12312,"Ġthreats":12313,"Ġeacute":12314,"ggle":12315,"Ġchampion":12316,"Ġbrat":12317,"Ġbattlefield":12318,"Ġgrounded":12319,"annon":12320,"Ġvincent":12321,"Ġradios":12322,"Ġembark":12323,"Ġawake":12324,"Ġexpertise":12325,"Ġdeliberately":12326,"Ġgrainy":12327,"Ġrealities":12328,"irect":12329,"Ġapproached":12330,"Ġpoured":12331,"Ġhawk":12332,"taking":12333,"thood":12334,"Ġtrails":12335,"Ġsuite":12336,"Ġdeceased":12337,"Ġsweater":12338,"Ġquietly":12339,"Ġownership":12340,"Ġapproaching":12341,"Ġconsumption":12342,"Ġreiss":12343,"ampoo":12344,"Ġvein":12345,"Ġprayers":12346,"Ġruining":12347,"Ġcompeting":12348,"Ġconcentrate":12349,"Ġparticles":12350,"Ġremembers":12351,"Ġcounsel":12352,"Ġbru":12353,"Ġcheat":12354,"Ġditch":12355,"Ġshampoo":12356,"Ġluxury":12357,"days":12358,"Ġlonging":12359,"Ġcanned":12360,"Ġwandering":12361,"Ġbras":12362,"Ġrf":12363,"Ġfitbit":12364,"Ġreliably":12365,"Ġcommonly":12366,"Ġtwisting":12367,"Ġsolos":12368,"Ġlesbian":12369,"shell":12370,"Ġamplifier":12371,"imeter":12372,"Ġjog":12373,"Ġoverdone":12374,"Ġunexpl":12375,"Ġglitches":12376,"Ġslaughter":12377,"Ġsod":12378,"Ġaccordingly":12379,"Ġopenings":12380,"kill":12381,"Ġpirates":12382,"Ġquoted":12383,"Ġinspector":12384,"Ġblessing":12385,"Ġrejected":12386,"iler":12387,"from":12388,"Ġinstructed":12389,"onts":12390,"etti":12391,"Ġdecently":12392,"rics":12393,"enson":12394,"Ġbrazil":12395,"eted":12396,"ontz":12397,"Ġdilemma":12398,"Ġinvited":12399,"igen":12400,"Ġendured":12401,"Ġfolders":12402,"Ġmama":12403,"aints":12404,"Ġtranscend":12405,"Ġmadison":12406,"Ġcongr":12407,"Ġrv":12408,"Ġpulse":12409,"Ġcarri":12410,"cers":12411,"80":12412,"got":12413,"Ġguts":12414,"Ġjustified":12415,"Ġjeep":12416,"Ġsynthetic":12417,"Ġheadband":12418,"Ġupstairs":12419,"Ġtackle":12420,"Ġgoofy":12421,"Ġreacher":12422,"Ġmisspe":12423,"Ġempower":12424,"Ġkurt":12425,"greg":12426,"Ġgrabs":12427,"Ġlistens":12428,"Ġnano":12429,"Ġearrings":12430,"Ġmurphy":12431,"Ġresent":12432,"Ġsongwriting":12433,"Ġcommunities":12434,"Ġextensively":12435,"Ġtivo":12436,"Ġseper":12437,"Ġinsect":12438,"Ġswallow":12439,"Ġscrap":12440,"Ġlovable":12441,"Ġjude":12442,"Ġprops":12443,"Ġjuicer":12444,"warming":12445,"Ġpope":12446,"Ġrevised":12447,"Ġstool":12448,"Ġbetrayed":12449,"Ġtheft":12450,"Ġdimin":12451,"thought":12452,"Ġjos":12453,"Ġagreement":12454,"Ġglorious":12455,"Ġmonolog":12456,"Ġnovelty":12457,"Ġado":12458,"Ġoperated":12459,"Ġhammock":12460,"Ġunderwear":12461,"Ġswiss":12462,"Ġspells":12463,"Ġclubs":12464,"rose":12465,"30":12466,"Ġkickstand":12467,"Ġbibliography":12468,"oli":12469,"Ġdime":12470,"Ġblends":12471,"wan":12472,"Ġwag":12473,"Ġsuggesting":12474,"fs":12475,"Ġbloss":12476,"Ġreplay":12477,"Ġemployed":12478,"Ġwiggle":12479,"Ġmanipulate":12480,"Ġremedy":12481,"Ġribbon":12482,"Ġunwilling":12483,"Ġjourn":12484,"Ġfundament":12485,"Ġome":12486,"Ġimpat":12487,"Ġdutch":12488,"Ġanthrop":12489,"link":12490,"Ġplanes":12491,"Ġbennett":12492,"Ġaudiophile":12493,"Ġremainder":12494,"Ġdante":12495,"Ġsocc":12496,"rina":12497,"Ġcouncil":12498,"Ġsoak":12499,"Ġexquisite":12500,"aki":12501,"Ġlenovo":12502,"Ġattending":12503,"Ġunpredictable":12504,"Ġperipher":12505,"Ġcheek":12506,"Ġpsi":12507,"Ġsurpass":12508,"storm":12509,"Ġroommate":12510,"Ġmerits":12511,"Ġversa":12512,"Ġsponge":12513,"aii":12514,"Ġsoccer":12515,"arium":12516,"Ġsizz":12517,"Ġaffir":12518,"Ġstandpoint":12519,"gic":12520,"Ġuv":12521,"Ġkorea":12522,"Ġreass":12523,"Ġsturdier":12524,"Ġkindness":12525,"eling":12526,"ceptions":12527,"Ġrests":12528,"Ġevangelical":12529,"Ġentirety":12530,"igible":12531,"Ġsharpen":12532,"Ġdusty":12533,"through":12534,"Ġsaver":12535,"Ġslack":12536,"Ġgranddaughter":12537,"Ġmartha":12538,"Ġpersever":12539,"kers":12540,"enses":12541,"Ġsmoother":12542,"Ġtubing":12543,"Ġroses":12544,"Ġweaving":12545,"lude":12546,"Ġbacon":12547,"Ġgates":12548,"Ġcc":12549,"Ġcommend":12550,"Ġauthorized":12551,"Ġwack":12552,"Ġmeticulous":12553,"creen":12554,"Ġmirac":12555,"Ġevaluate":12556,"Ġappl":12557,"Ġlibert":12558,"Ġunsatisfying":12559,"Ġfulfilled":12560,"Ġterrorists":12561,"Ġsurvey":12562,"Ġdissatisfied":12563,"Ġunden":12564,"Ġregistered":12565,"Ġislamic":12566,"Ġshooter":12567,"Ġspit":12568,"Ġtribe":12569,"Ġstalker":12570,"Ġnudity":12571,"Ġvisuals":12572,"Ġrighte":12573,"Ġwells":12574,"Ġgrit":12575,"Ġvoyage":12576,"Ġmonop":12577,"Ġbeg":12578,"Ġliv":12579,"Ġimperial":12580,"Ġdrake":12581,"zes":12582,"Ġactively":12583,"Ġding":12584,"Ġsupplier":12585,"Ġmiracles":12586,"tom":12587,"Ġwats":12588,"Ġdeer":12589,"Ġcynical":12590,"Ġclone":12591,"Ġsymbols":12592,"ittings":12593,"Ġmisery":12594,"Ġleggings":12595,"Ġblonde":12596,"Ġfunds":12597,"Ġhebrew":12598,"Ġsling":12599,"Ġprospect":12600,"Ġhurric":12601,"Ġanyhow":12602,"Ġevans":12603,"Ġmicros":12604,"Ġscout":12605,"Ġcamcorder":12606,"Ġmicrof":12607,"Ġclancy":12608,"Ġexpressions":12609,"Ġscrolling":12610,"Ġliteral":12611,"Ġinherit":12612,"Ġwend":12613,"Ġsunsh":12614,"Ġwhites":12615,"Ġretreat":12616,"Ġdetection":12617,"Ġlisteners":12618,"Ġrepublican":12619,"Ġsecular":12620,"worthy":12621,"Ġglossary":12622,"Ġheadlight":12623,"Ġeq":12624,"Ġbillionaire":12625,"Ġinherent":12626,"Ġkodak":12627,"ansas":12628,"Ġreflected":12629,"Ġbamboo":12630,"Ġfeist":12631,"Ġturtle":12632,"Ġimplausible":12633,"Ġaddictive":12634,"Ġnina":12635,"Ġiso":12636,"Ġexclusive":12637,"Ġdelta":12638,"itan":12639,"Ġoptional":12640,"Ġsassy":12641,"opard":12642,"Ġshack":12643,"olt":12644,"Ġbailey":12645,"Ġtouchscreen":12646,"Ġcompleting":12647,"Ġshepher":12648,"Ġcriticisms":12649,"Ġbanana":12650,"Ġdiving":12651,"Ġnv":12652,"inda":12653,"Ġdisgr":12654,"Ġdistinguish":12655,"Ġblocked":12656,"Ġdwar":12657,"Ġlawrence":12658,"Ġpeaceful":12659,"Ġdongle":12660,"Ġpreaching":12661,"Ġbrittle":12662,"Ġmagically":12663,"Ġfavorable":12664,"Ġnovelist":12665,"emic":12666,"Ġsurrender":12667,"Ġspotlight":12668,"Ġceo":12669,"Ġattended":12670,"Ġjanet":12671,"uating":12672,"Ġcant":12673,"atement":12674,"Ġinterfer":12675,"Ġpandora":12676,"Ġimplications":12677,"Ġhawaii":12678,"Ġconfigure":12679,"Ġsoy":12680,"Ġdemocracy":12681,"weigh":12682,"Ġskype":12683,"Ġsprayer":12684,"Ġevidently":12685,"Ġmerry":12686,"Ġbases":12687,"Ġmansion":12688,"Ġexceptions":12689,"Ġetern":12690,"hl":12691,"Ġkell":12692,"Ġmiranda":12693,"40":12694,"Ġmarx":12695,"Ġgenerate":12696,"Ġhandset":12697,"every":12698,"Ġjell":12699,"omi":12700,"Ġaccents":12701,"Ġbleak":12702,"Ġembed":12703,"Ġmanhattan":12704,"Ġprevented":12705,"Ġdslr":12706,"Ġphenomenon":12707,"regon":12708,"Ġbrow":12709,"Ġdatabase":12710,"Ġrecur":12711,"Ġmaya":12712,"Ġhorrid":12713,"Ġrevision":12714,"Ġluther":12715,"arth":12716,"Ġpricing":12717,"Ġsupervis":12718,"Ġrainy":12719,"Ġastonishing":12720,"Ġenam":12721,"Ġremastered":12722,"quin":12723,"Ġacce":12724,"Ġti":12725,"Ġay":12726,"isp":12727,"Ġbach":12728,"Ġfract":12729,"Ġstitches":12730,"Ġhumidifier":12731,"Ġoregon":12732,"Ġreducing":12733,"opy":12734,"Ġexplorer":12735,"Ġbrandon":12736,"Ġobliv":12737,"Ġrelying":12738,"onna":12739,"Ġseeming":12740,"Ġofferings":12741,"Ġatrocious":12742,"Ġbleeding":12743,"Ġhank":12744,"Ġshowc":12745,"Ġincorporate":12746,"Ġdedication":12747,"Ġski":12748,"Ġanat":12749,"Ġheartwarming":12750,"Ġtradem":12751,"Ġincreases":12752,"Ġbiting":12753,"Ġremed":12754,"Ġgreedy":12755,"Ġsarcastic":12756,"Ġkil":12757,"Ġfeminine":12758,"Ġflynn":12759,"Ġbapt":12760,"Ġcoord":12761,"Ġnarrated":12762,"full":12763,"Ġguidelines":12764,"Ġrode":12765,"Ġinsulation":12766,"Ġunnecessarily":12767,"Ġresponding":12768,"aning":12769,"Ġamid":12770,"Ġdow":12771,"Ġerase":12772,"Ġdeveloper":12773,"Ġbullying":12774,"Ġteles":12775,"Ġmour":12776,"Ġneo":12777,"Ġtrademark":12778,"Ġknitting":12779,"Ġsafer":12780,"Ġevolve":12781,"Ġradar":12782,"Ġcoax":12783,"Ġsixteen":12784,"Ġadvertisement":12785,"Ġformulaic":12786,"Ġcrock":12787,"lings":12788,"Ġbiology":12789,"Ġunderside":12790,"Ġoutweigh":12791,"Ġfranklin":12792,"Ġmathematics":12793,"jan":12794,"Ġkend":12795,"Ġpuff":12796,"Ġprincipal":12797,"Ġundercover":12798,"Ġinsta":12799,"Ġmarc":12800,"Ġsull":12801,"Ġassociation":12802,"Ġsubplots":12803,"Ġverdict":12804,"Ġprey":12805,"Ġcautious":12806,"Ġdirectors":12807,"Ġmoody":12808,"Ġparallels":12809,"Ġhealthier":12810,"Ġgabe":12811,"hi":12812,"Ġwitnesses":12813,"love":12814,"Ġbreathtaking":12815,"Ġsib":12816,"Ġcondes":12817,"Ġbd":12818,"Ġdonald":12819,"Ġheights":12820,"Ġdisable":12821,"Ġunderwhel":12822,"Ġadvertise":12823,"care":12824,"Ġcray":12825,"Ġdian":12826,"Ġblending":12827,"Ġconcentration":12828,"Ġzeal":12829,"Ġdistinctive":12830,"Ġbestse":12831,"Ġdevotional":12832,"Ġdepths":12833,"Ġfib":12834,"Ġclassy":12835,"Ġkitt":12836,"Ġfever":12837,"Ġreplied":12838,"Ġrequirement":12839,"ipedia":12840,"Ġcoleman":12841,"ayer":12842,"Ġjoins":12843,"Ġtidbits":12844,"Ġshore":12845,"Ġkatherine":12846,"Ġinserting":12847,"Ġdeft":12848,"Ġsmiling":12849,"Ġworkmanship":12850,"umbled":12851,"Ġpup":12852,"Ġwhine":12853,"Ġcran":12854,"Ġlyric":12855,"Ġrighteous":12856,"Ġdecker":12857,"Ġsubur":12858,"Ġdd":12859,"Ġmit":12860,"Ġhaul":12861,"Ġpalest":12862,"Ġmindless":12863,"Ġstein":12864,"Ġwikipedia":12865,"Ġkissing":12866,"Ġargues":12867,"Ġcomfor":12868,"Ġtargeted":12869,"Ġalphabet":12870,"Ġneedles":12871,"Ġcompanions":12872,"Ġwatson":12873,"bul":12874,"Ġdistribution":12875,"Ġinsists":12876,"ecy":12877,"Ġdevelopments":12878,"Ġpropos":12879,"Ġtomb":12880,"Ġcater":12881,"liest":12882,"Ġinterch":12883,"itzer":12884,"Ġboast":12885,"Ġgenetic":12886,"Ġrealistically":12887,"Ġmasc":12888,"Ġfires":12889,"Ġprisoner":12890,"Ġgram":12891,"Ġtextured":12892,"Ġdressing":12893,"Ġdriveway":12894,"Ġdenied":12895,"Ġnes":12896,"Ġbroadway":12897,"Ġcontributions":12898,"Ġthermal":12899,"Ġpercentage":12900,"Ġtheatrical":12901,"curities":12902,"Ġvegetable":12903,"Ġgn":12904,"Ġsuitcase":12905,"Ġshaw":12906,"Ġrox":12907,"Ġrpg":12908,"Ġrecip":12909,"Ġinsulated":12910,"60":12911,"Ġculpr":12912,"Ġhans":12913,"Ġense":12914,"Ġupbr":12915,"Ġcasey":12916,"Ġdarwin":12917,"Ġacceler":12918,"Ġbis":12919,"Ġfootprint":12920,"Ġmatrix":12921,"Ġva":12922,"Ġcuff":12923,"Ġcoincidence":12924,"cup":12925,"Ġcartoons":12926,"Ġconsumed":12927,"Ġpolyester":12928,"Ġattributes":12929,"Ġlayered":12930,"Ġheartache":12931,"Ġundone":12932,"Ġsennheiser":12933,"Ġmop":12934,"Ġcompares":12935,"Ġsubplot":12936,"Ġdoctrine":12937,"Ġadvers":12938,"Ġmiraculous":12939,"Ġpredecessor":12940,"Ġdrac":12941,"Ġlied":12942,"Ġretros":12943,"Ġdreadful":12944,"Ġtp":12945,"Ġorganize":12946,"Ġaddressing":12947,"Ġneglected":12948,"Ġcorny":12949,"Ġlosses":12950,"Ġrelaxed":12951,"Ġprophecy":12952,"Ġclo":12953,"Ġtrains":12954,"Ġgrac":12955,"Ġcookbooks":12956,"oto":12957,"Ġunle":12958,"Ġcandles":12959,"Ġdining":12960,"Ġpreventing":12961,"Ġml":12962,"Ġdexter":12963,"Ġfilming":12964,"Ġspirited":12965,"yson":12966,"Ġcollars":12967,"zie":12968,"Ġcomprehend":12969,"abe":12970,"Ġmerch":12971,"Ġknocking":12972,"Ġfeather":12973,"Ġwholly":12974,"Ġcardio":12975,"Ġrendition":12976,"Ġomn":12977,"escent":12978,"nas":12979,"Ġpatio":12980,"Ġtransported":12981,"Ġmuslims":12982,"town":12983,"Ġwrists":12984,"Ġmids":12985,"Ġunatt":12986,"Ġesque":12987,"Ġescal":12988,"Ġaloud":12989,"Ġcharco":12990,"ibal":12991,"archy":12992,"Ġdome":12993,"Ġkoontz":12994,"Ġmarrying":12995,"Ġsorrow":12996,"Ġgrooves":12997,"Ġsally":12998,"Ġthemed":12999,"Ġinsecure":13000,"Ġalbert":13001,"Ġbrun":13002,"Ġbaggage":13003,"aic":13004,"Ġchords":13005,"Ġthie":13006,"Ġgamers":13007,"Ġethical":13008,"Ġfist":13009,"Ġthrone":13010,"Ġthrott":13011,"Ġcleverly":13012,"sed":13013,"Ġsteamer":13014,"Ġhides":13015,"Ġslippers":13016,"guard":13017,"Ġseated":13018,"Ġpedest":13019,"Ġhoses":13020,"Ġreputable":13021,"Ġsubtitle":13022,"Ġjax":13023,"Ġnun":13024,"Ġannual":13025,"Ġfasten":13026,"Ġsensual":13027,"Ġcoven":13028,"unting":13029,"Ġxx":13030,"Ġhighlighted":13031,"around":13032,"Ġtemporarily":13033,"Ġoptimistic":13034,"Ġcler":13035,"Ġhelpless":13036,"have":13037,"Ġarrested":13038,"Ġunav":13039,"Ġinsecurities":13040,"Ġmyri":13041,"Ġdrilling":13042,"Ġegyptian":13043,"Ġfiref":13044,"lain":13045,"Ġnetworking":13046,"Ġabra":13047,"Ġeloqu":13048,"Ġdug":13049,"Ġlub":13050,"Ġdemonstrated":13051,"Ġerin":13052,"Ġunrelated":13053,"Ġyan":13054,"Ġhandheld":13055,"Ġshane":13056,"ika":13057,"Ġprotr":13058,"Ġslowed":13059,"Ġjams":13060,"Ġadvis":13061,"Ġrespects":13062,"Ġflop":13063,"athon":13064,"Ġselecting":13065,"Ġcannon":13066,"Ġcharcoal":13067,"instein":13068,"Ġknights":13069,"urg":13070,"istical":13071,"stood":13072,"Ġgrabbing":13073,"Ġarguably":13074,"Ġintersp":13075,"Ġtraumatic":13076,"Ġexplosive":13077,"Ġcinematography":13078,"Ġlump":13079,"Ġbishop":13080,"iour":13081,"roe":13082,"Ġjoel":13083,"Ġlaz":13084,"Ġuntr":13085,"Ġratch":13086,"Ġmarty":13087,"Ġnook":13088,"Ġperceived":13089,"Ġpitt":13090,"Ġsmarter":13091,"Ġvaguely":13092,"Ġnostalgia":13093,"oming":13094,"Ġbegging":13095,"Ġinfuri":13096,"Ġmortal":13097,"Ġdye":13098,"Ġtechno":13099,"Ġsolder":13100,"Ġrecovering":13101,"Ġcgi":13102,"Ġgimmick":13103,"Ġkel":13104,"Ġeject":13105,"Ġridge":13106,"Ġspook":13107,"Ġmt":13108,"Ġhtc":13109,"Ġtransp":13110,"Ġsurroundings":13111,"izers":13112,"Ġcoco":13113,"Ġencouragement":13114,"Ġstupidity":13115,"Ġmisunderstand":13116,"Ġtier":13117,"Ġspac":13118,"Ġellen":13119,"Ġdoomed":13120,"Ġadventurous":13121,"Ġsme":13122,"Ġdefender":13123,"Ġthirteen":13124,"vance":13125,"Ġbefriend":13126,"Ġoverpower":13127,"Ġresting":13128,"Ġforgiving":13129,"Ġplas":13130,"Ġcatast":13131,"mary":13132,"Ġgrams":13133,"Ġhelicopter":13134,"wide":13135,"Ġcassette":13136,"Ġwitnessed":13137,"Ġfantasies":13138,"Ġunli":13139,"Ġhomem":13140,"Ġhast":13141,"before":13142,"Ġperiodically":13143,"Ġvividly":13144,"Ġdemise":13145,"Ġapologize":13146,"Ġariz":13147,"ulars":13148,"Ġcleared":13149,"Ġconsequently":13150,"Ġgibson":13151,"Ġrocking":13152,"Ġbutterfly":13153,"Ġbrooklyn":13154,"Ġpaus":13155,"donald":13156,"Ġtreadmill":13157,"Ġlug":13158,"Ġinvaluable":13159,"Ġsookie":13160,"Ġimprob":13161,"Ġprocedures":13162,"Ġutf":13163,"Ġconverted":13164,"Ġassociate":13165,"mies":13166,"Ġstaring":13167,"Ġcatastroph":13168,"Ġintuit":13169,"dis":13170,"Ġency":13171,"Ġchronological":13172,"Ġtestimon":13173,"Ġunreadable":13174,"Ġrobots":13175,"Ġmathematical":13176,"inates":13177,"Ġcompressed":13178,"Ġmontana":13179,"Ġrelo":13180,"Ġjum":13181,"Ġki":13182,"Ġchampions":13183,"Ġakin":13184,"Ġmf":13185,"Ġupbringing":13186,"Ġdiscri":13187,"Ġstinks":13188,"far":13189,"Ġtapping":13190,"Ġlush":13191,"Ġachievement":13192,"Ġterminology":13193,"Ġmicrofiber":13194,"Ġarizona":13195,"Ġmx":13196,"vania":13197,"Ġmasses":13198,"Ġshifters":13199,"itating":13200,"uctive":13201,"nament":13202,"Ġglitter":13203,"Ġquarters":13204,"Ġcargo":13205,"Ġsprinkled":13206,"Ġcoil":13207,"Ġrecom":13208,"Ġproceeded":13209,"Ġsparse":13210,"Ġfarmer":13211,"Ġhonda":13212,"Ġincand":13213,"ronics":13214,"Ġupgrades":13215,"yon":13216,"Ġnapole":13217,"irable":13218,"Ġsurreal":13219,"Ġreper":13220,"Ġbypass":13221,"Ġfingerprints":13222,"arnation":13223,"Ġlars":13224,"Ġrouters":13225,"Ġcategor":13226,"Ġ2":13227,"bir":13228,"Ġunlikable":13229,"aboration":13230,"stock":13231,"ele":13232,"Ġcousins":13233,"Ġdiagnosed":13234,"Ġthereby":13235,"Ġpeers":13236,"Ġabundance":13237,"Ġencycl":13238,"Ġangela":13239,"Ġarise":13240,"Ġconfuse":13241,"Ġrecognizes":13242,"mination":13243,"Ġenthusiastic":13244,"Ġpossession":13245,"Ġamateurish":13246,"Ġreflections":13247,"Ġexpanding":13248,"Ġinterviewed":13249,"Ġunforget":13250,"Ġescap":13251,"Ġvacuuming":13252,"Ġbummed":13253,"Ġsydney":13254,"Ġgains":13255,"Ġfinance":13256,"Ġpraying":13257,"Ġvegetarian":13258,"Ġaesthetic":13259,"verted":13260,"Ġportraying":13261,"Ġdeaf":13262,"Ġsubmit":13263,"Ġadj":13264,"Ġdocking":13265,"Ġexceeded":13266,"Ġninja":13267,"Ġhott":13268,"Ġcollectors":13269,"Ġtransformed":13270,"Ġfeast":13271,"Ġcabinets":13272,"Ġconceived":13273,"Ġspencer":13274,"Ġtutorial":13275,"Ġcomical":13276,"Ġintentional":13277,"Ġmellow":13278,"Ġorganizer":13279,"Ġfroze":13280,"Ġeliminated":13281,"Ġcod":13282,"Ġwobbly":13283,"Ġgoggles":13284,"Ġsaddle":13285,"Ġtargets":13286,"Ġni":13287,"Ġchipped":13288,"Ġplight":13289,"Ġalarms":13290,"Ġexplod":13291,"Ġsplend":13292,"Ġjade":13293,"Ġadolescent":13294,"Ġinjuries":13295,"Ġacquaint":13296,"Ġmystic":13297,"orts":13298,"Ġpas":13299,"Ġrestored":13300,"Ġrented":13301,"Ġjag":13302,"Ġprovider":13303,"Ġatmospher":13304,"Ġpellets":13305,"once":13306,"Ġtout":13307,"Ġgide":13308,"Ġdigress":13309,"Ġstaple":13310,"Ġmh":13311,"Ġbeginnings":13312,"Ġsnippets":13313,"Ġoxford":13314,"Ġjoining":13315,"Ġsurfing":13316,"Ġvap":13317,"Ġmonk":13318,"Ġjealousy":13319,"Ġspool":13320,"Ġislands":13321,"rec":13322,"zzie":13323,"Ġwobble":13324,"ologists":13325,"Ġmaine":13326,"Ġdorm":13327,"Ġclare":13328,"Ġzune":13329,"Ġellis":13330,"Ġdisclosing":13331,"Ġicons":13332,"Ġyamaha":13333,"Ġkenn":13334,"Ġtying":13335,"Ġtransitions":13336,"Ġearpiece":13337,"Ġbends":13338,"Ġperm":13339,"Ġmyriad":13340,"Ġunwanted":13341,"Ġcompetitors":13342,"Ġdm":13343,"asper":13344,"Ġcraftsmanship":13345,"dog":13346,"hire":13347,"Ġdetectives":13348,"Ġslang":13349,"icism":13350,"Ġnerve":13351,"Ġrowling":13352,"usions":13353,"Ġpara":13354,"Ġharle":13355,"Ġgrandchild":13356,"Ġfatig":13357,"Ġformatted":13358,"Ġterrain":13359,"Ġgopro":13360,"orie":13361,"Ġrooted":13362,"igo":13363,"uded":13364,"Ġadministr":13365,"cp":13366,"ima":13367,"Ġdelus":13368,"Ġvengeance":13369,"Ġreluctantly":13370,"Ġadoption":13371,"atha":13372,"Ġcombinations":13373,"Ġbever":13374,"Ġrhyme":13375,"Ġludic":13376,"Ġskips":13377,"Ġpresses":13378,"Ġrecycled":13379,"Ġrubbery":13380,"Ġtacky":13381,"Ġmesmer":13382,"Ġsecretary":13383,"mable":13384,"Ġuncomm":13385,"Ġnotorious":13386,"Ġbachel":13387,"Ġobserved":13388,"Ġnerd":13389,"Ġthighs":13390,"Ġmailed":13391,"Ġhog":13392,"Ġarena":13393,"Ġcancelling":13394,"Ġproving":13395,"Ġsubsequently":13396,"Ġsharpener":13397,"Ġclarify":13398,"Ġclinical":13399,"Ġmaintained":13400,"Ġdisassemb":13401,"Ġdisres":13402,"Ġtravelling":13403,"Ġnarratives":13404,"Ġcompensate":13405,"Ġgallery":13406,"Ġmotive":13407,"Ġcushions":13408,"Ġlecture":13409,"Ġarrows":13410,"Ġapplicable":13411,"Ġard":13412,"Ġjars":13413,"elic":13414,"Ġballet":13415,"Ġpursuing":13416,"Ġprotocol":13417,"bag":13418,"Ġlav":13419,"Ġmorris":13420,"Ġbumped":13421,"Ġdisrupt":13422,"Ġexcuses":13423,"Ġhesitation":13424,"Ġreservations":13425,"hr":13426,"Ġvga":13427,"Ġmetaphors":13428,"Ġpumps":13429,"Ġcustoms":13430,"Ġsocieties":13431,"Ġaly":13432,"Ġqualified":13433,"Ġplayful":13434,"oot":13435,"Ġofficially":13436,"Ġworkings":13437,"Ġstitched":13438,"essa":13439,"Ġbuzzing":13440,"Ġpitched":13441,"Ġtestimony":13442,"Ġabsorbing":13443,"Ġtechnologies":13444,"Ġmend":13445,"Ġpractition":13446,"Ġinflated":13447,"Ġtolerance":13448,"Ġcrust":13449,"Ġshuffle":13450,"Ġpecul":13451,"Ġcriteria":13452,"Ġvizio":13453,"worth":13454,"Ġdrained":13455,"Ġtremendously":13456,"Ġoffset":13457,"Ġisaac":13458,"Ġjargon":13459,"Ġfuturistic":13460,"Ġreilly":13461,"Ġbrutally":13462,"Ġembro":13463,"Ġstrategic":13464,"Ġbeau":13465,"Ġanticipating":13466,"Ġlynn":13467,"Ġplanets":13468,"Ġlifel":13469,"Ġmoms":13470,"Ġapost":13471,"Ġestimate":13472,"Ġsunshine":13473,"Ġff":13474,"itable":13475,"Ġchewing":13476,"Ġcalvin":13477,"Ġadher":13478,"Ġbedtime":13479,"Ġdennis":13480,"Ġenchant":13481,"Ġfrequencies":13482,"Ġpond":13483,"Ġanticipate":13484,"Ġsleeps":13485,"Ġdaring":13486,"Ġbelts":13487,"Ġexposing":13488,"Ġrena":13489,"Ġquestioned":13490,"Ġskew":13491,"Ġral":13492,"Ġtug":13493,"Ġdipl":13494,"Ġtopper":13495,"Ġbranded":13496,"Ġpaige":13497,"Ġthirds":13498,"Ġbuffalo":13499,"ez":13500,"Ġnugg":13501,"Ġdiagram":13502,"Ġfestival":13503,"Ġpumping":13504,"Ġtorch":13505,"Ġconflicted":13506,"Ġwounds":13507,"Ġfian":13508,"atra":13509,"Ġsophom":13510,"Ġdia":13511,"Ġillusion":13512,"Ġshops":13513,"omin":13514,"Ġbunny":13515,"Ġspreads":13516,"Ġduncan":13517,"unning":13518,"Ġmiserably":13519,"har":13520,"Ġchand":13521,"Ġparody":13522,"Ġfusion":13523,"Ġextends":13524,"Ġparr":13525,"Ġencom":13526,"Ġcompensated":13527,"Ġhating":13528,"Ġgamble":13529,"watch":13530,"Ġconstitution":13531,"tones":13532,"Ġharp":13533,"Ġnaval":13534,"Ġcelest":13535,"Ġsneak":13536,"Ġletdown":13537,"Ġstained":13538,"cending":13539,"Ġethnic":13540,"Ġconcluded":13541,"Ġankles":13542,"Ġcompassionate":13543,"Ġnam":13544,"Ġrattle":13545,"Ġsearches":13546,"Ġenvision":13547,"Ġimplied":13548,"Ġpreferences":13549,"Ġnovellas":13550,"Ġhorrifying":13551,"Ġgwen":13552,"Ġroomy":13553,"Ġconfeder":13554,"Ġhypoth":13555,"Ġtemplate":13556,"Ġpsychopath":13557,"Ġgaining":13558,"Ġwillow":13559,"Ġtucked":13560,"bound":13561,"Ġvents":13562,"Ġconcludes":13563,"Ġhaven":13564,"Ġmonum":13565,"Ġregrets":13566,"Ġtourist":13567,"Ġcaller":13568,"Ġmonitoring":13569,"Ġpreserve":13570,"Ġfled":13571,"angular":13572,"Ġgideon":13573,"Ġsplash":13574,"Ġboiled":13575,"lists":13576,"Ġderiv":13577,"Ġboredom":13578,"Ġcalibration":13579,"ivan":13580,"Ġtracker":13581,"ye":13582,"pton":13583,"Ġduet":13584,"Ġjared":13585,"Ġfloyd":13586,"Ġtiles":13587,"Ġstall":13588,"Ġchan":13589,"Ġvendors":13590,"Ġeu":13591,"Ġbouncing":13592,"Ġtempl":13593,"Ġrazer":13594,"Ġtransmission":13595,"bled":13596,"Ġsang":13597,"Ġpossessed":13598,"Ġply":13599,"Ġbenj":13600,"Ġbranches":13601,"bath":13602,"Ġdeceptive":13603,"Ġtemptation":13604,"Ġchristie":13605,"Ġhotter":13606,"nostic":13607,"Ġluci":13608,"Ġpositively":13609,"Ġdwell":13610,"Ġcapitalism":13611,"Ġpublications":13612,"Ġlamb":13613,"Ġike":13614,"Ġchristine":13615,"Ġflair":13616,"Ġsweeping":13617,"Ġbing":13618,"keeper":13619,"Ġladen":13620,"Ġproprietary":13621,"fish":13622,"Ġbrakes":13623,"Ġdign":13624,"Ġdispar":13625,"Ġjenna":13626,"Ġcruelty":13627,"mic":13628,"Ġdrastically":13629,"sight":13630,"Ġtract":13631,"rus":13632,"Ġunbearable":13633,"Ġdancer":13634,"iph":13635,"Ġstray":13636,"Ġeaster":13637,"Ġmileage":13638,"Ġeventual":13639,"Ġrepack":13640,"Ġflashback":13641,"Ġnickn":13642,"eled":13643,"Ġsage":13644,"Ġswords":13645,"Ġtreatments":13646,"Ġwashes":13647,"Ġunderstatement":13648,"Ġencompass":13649,"Ġsophia":13650,"Ġreinforced":13651,"Ġsmash":13652,"unken":13653,"Ġescaping":13654,"Ġvariable":13655,"Ġunforgettable":13656,"Ġdesperation":13657,"Ġpostage":13658,"iko":13659,"Ġvocalist":13660,"Ġrubberized":13661,"Ġscanned":13662,"Ġplush":13663,"Ġalexa":13664,"Ġherbs":13665,"Ġadvances":13666,"Ġemphasize":13667,"Ġdos":13668,"Ġoperates":13669,"Ġdivide":13670,"Ġcallie":13671,"tec":13672,"Ġduh":13673,"Ġpeek":13674,"Ġdoug":13675,"Ġscreams":13676,"Ġpromoting":13677,"Ġembedded":13678,"Ġwillingness":13679,"Ġcutouts":13680,"Ġenthralled":13681,"Ġspeculation":13682,
[...]
