{"<s>":0,"<pad>":1,"</s>":2,"<unk>":3,"<mask>":4,"[EMAIL]":5,"[URL]":6,"[XML]":7,"[PATH]":8,"[NUMBER]":9,"[CUR]":10,"[BAD]":11,"[UNKNOWN]":12,"<user>":13,"<url>":14,"!":15,"\"":16,"#":17,"$":18,"%":19,"&":20,"'":21,"(":22,")":23,"*":24,"+":25,",":26,"-":27,".":28,"/":29,"0":30,"1":31,"2":32,"3":33,"4":34,"5":35,"6":36,"7":37,"8":38,"9":39,":":40,";":41,"<":42,"=":43,">":44,"?":45,"@":46,"A":47,"B":48,"C":49,"D":50,"E":51,"F":52,"G":53,"H":54,"I":55,"J":56,"K":57,"L":58,"M":59,"N":60,"O":61,"P":62,"Q":63,"R":64,"S":65,"T":66,"U":67,"V":68,"W":69,"X":70,"Y":71,"Z":72,"[":73,"\\":74,"]":75,"^":76,"_":77,"`":78,"a":79,"b":80,"c":81,"d":82,"e":83,"f":84,"g":85,"h":86,"i":87,"j":88,"k":89,"l":90,"m":91,"n":92,"o":93,"p":94,"q":95,"r":96,"s":97,"t":98,"u":99,"v":100,"w":101,"x":102,"y":103,"z":104,"{":105,"|":106,"}":107,"~":108,"¡":109,"¢":110,"£":111,"¤":112,"¥":113,"¦":114,"§":115,"¨":116,"©":117,"ª":118,"«":119,"¬":120,"®":121,"¯":122,"°":123,"±":124,"²":125,"³":126,"´":127,"µ":128,"¶":129,"·":130,"¸":131,"¹":132,"º":133,"»":134,"¼":135,"½":136,"¾":137,"¿":138,"À":139,"Á":140,"Â":141,"Ã":142,"Ä":143,"Å":144,"Æ":145,"Ç":146,"È":147,"É":148,"Ê":149,"Ë":150,"Ì":151,"Í":152,"Î":153,"Ï":154,"Ð":155,"Ñ":156,"Ò":157,"Ó":158,"Ô":159,"Õ":160,"Ö":161,"×":162,"Ø":163,"Ù":164,"Ú":165,"Û":166,"Ü":167,"Ý":168,"Þ":169,"ß":170,"à":171,"á":172,"â":173,"ã":174,"ä":175,"å":176,"æ":177,"ç":178,"è":179,"é":180,"ê":181,"ë":182,"ì":183,"í":184,"î":185,"ï":186,"ð":187,"ñ":188,"ò":189,"ó":190,"ô":191,"õ":192,"ö":193,"÷":194,"ø":195,"ù":196,"ú":197,"û":198,"ü":199,"ý":200,"þ":201,"ÿ":202,"Ā":203,"ā":204,"Ă":205,"ă":206,"Ą":207,"ą":208,"Ć":209,"ć":210,"Ĉ":211,"ĉ":212,"Ċ":213,"ċ":214,"Č":215,"č":216,"Ď":217,"ď":218,"Đ":219,"đ":220,"Ē":221,"ē":222,"Ĕ":223,"ĕ":224,"Ė":225,"ė":226,"Ę":227,"ę":228,"Ě":229,"ě":230,"Ĝ":231,"ĝ":232,"Ğ":233,"ğ":234,"Ġ":235,"ġ":236,"Ģ":237,"ģ":238,"Ĥ":239,"ĥ":240,"Ħ":241,"ħ":242,"Ĩ":243,"ĩ":244,"Ī":245,"ī":246,"Ĭ":247,"ĭ":248,"Į":249,"į":250,"İ":251,"ı":252,"Ĳ":253,"ĳ":254,"Ĵ":255,"ĵ":256,"Ķ":257,"ķ":258,"ĸ":259,"Ĺ":260,"ĺ":261,"Ļ":262,"ļ":263,"Ľ":264,"ľ":265,"Ŀ":266,"ŀ":267,"Ł":268,"ł":269,"Ń":270,"Ġt":271,"Ġi":272,"Ġa":273,"Ġth":274,"Ġ.":275,"Ġw":276,"Ġs":277,"Ġthe":278,"er":279,"Ġb":280,"re":281,"Ġo":282,"in":283,"Ġf":284,"nd":285,"Ġc":286,"Ġm":287,"or":288,"Ġp":289,"Ġh":290,"Ġn":291,"ed":292,"Ġit":293,"ou":294,"ot":295,"Ġl":296,"Ġto":297,"Ġd":298,"at":299,"as":300,"ing":301,"ll":302,"it":303,"Ġand":304,"es":305,"is":306,"Ġ,":307,"Ġg":308,"en":309,"on":310,"ut":311,"ar":312,"Ġis":313,"Ġnot":314,"Ġre":315,"oo":316,"an":317,"Ġ[":318,"le":319,"Ġin":320,"Ġof":321,"ve":322,"ic":323,"Ġon":324,"us":325,"th":326,"ver":327,"Ġe":328,"Ġha":329,"Ġfor":330,"om":331,"gh":332,"ct":333,"Ġwas":334,"Ġbe":335,"Ġthis":336,"ly":337,"Ġst":338,"Ġbut":339,"ld":340,"BE":341,"MBE":342,"NU":343,"MBER":344,"NUMBER":345,"ad":346,"Ġy":347,"ke":348,"al":349,"Ġmy":350,"all":351,"ow":352,"ook":353,"Ġwh":354,"id":355,"ter":356,"ch":357,"ay":358,"et":359,"ro":360,"ith":361,"very":362,"Ġyou":363,"Ġwith":364,"Ġdo":365,"ght":366,"Ġli":367,"me":368,"Ġhave":369,"ur":370,"ould":371,"Ġthat":372,"Ġwe":373,"Ġsh":374,"Ġ!":375,"ri":376,"se":377,"ac":378,"Ġso":379,"Ġare":380,"ion":381,"ent":382,"pp":383,"Ġas":384,"Ġu":385,"Ġwor":386,"st":387,"ill":388,"Ġch":389,"Ġan":390,"Ġvery":391,"Ġus":392,"ble":393,"Ġj":394,"ood":395,"Ġthey":396,"Ġse":397,"Ġbook":398,"ir":399,"Ġmo":400,"reat":401,"ust":402,"ce":403,"ect":404,"ice":405,"Ġne":406,"Ġpro":407,"ally":408,"Ġwould":409,"Ġlike":410,"Ġwork":411,"ra":412,"Ġlo":413,"Ġex":414,"Ġgood":415,"Ġone":416,"qu":417,"Ġor":418,"ge":419,"el":420,"Ġam":421,"ome":422,"Ġgreat":423,"one":424,"Ġco":425,"Ġti":426,"Ġwill":427,"KN":428,"NKN":429,"OW":430,"UNKN":431,"OWN":432,"UNKNOWN":433,"ack":434,"Ġr":435,"Ġat":436,"Ġall":437,"Ġal":438,"Ġjust":439,"..":440,"Ġcom":441,"Ġthem":442,"Ġread":443,"Ġ...":444,"ul":445,"ere":446,"em":447,"ast":448,"if":449,"Ġqu":450,"Ġtoo":451,"Ġlook":452,"Ġget":453,"Ġout":454,"Ġsu":455,"Ġhad":456,"Ġsi":457,"Ġpl":458,"Ġk":459,"Ġdid":460,"Ġcan":461,"Ġup":462,"ers":463,"ea":464,"ted":465,"uct":466,"ain":467,"Ġme":468,"able":469,"ough":470,"the":471,"Ġpr":472,"Ġthan":473,"ie":474,"this":475,"Ġfr":476,"un":477,"Ġfit":478,"Ġde":479,"ought":480,"Ġbu":481,"ard":482,"itt":483,"ort":484,"Ġif":485,"Ġwell":486,"out":487,"Ġmore":488,"Ġthese":489,"il":490,"ess":491,"Ġfe":492,"Ġno":493,"Ġhe":494,"Ġdoes":495,"Ġsome":496,"duct":497,"Ġen":498,"ity":499,"est":500,"Ġsm":501,"ong":502,"Ġuse":503,"ther":504,"Ġwhat":505,"Ġcon":506,"ure":507,"ved":508,"Ġab":509,"Ġproduct":510,"Ġwhen":511,"Ġma":512,"Ġfrom":513,"ase":514,"Ġdis":515,"Ġca":516,"Ġreally":517,"art":518,"ig":519,"ive":520,"ant":521,"Ġsiz":522,"Ġonly":523,"urn":524,"Ġho":525,"Ġtime":526,"lo":527,"ound":528,"Ġwere":529,"Ġexp":530,"ind":531,"Ġsmall":532,"Ġlove":533,"Ġun":534,"ca":535,"ine":536,"ittle":537,"pe":538,"Ġrec":539,"Ġsa":540,"act":541,"Ġlittle":542,"ick":543,"Ġhow":544,"Ġhas":545,"Ġmu":546,"fter":547,"ite":548,"ality":549,"der":550,"Ġoff":551,"Ġpre":552,"Ġany":553,"ate":554,"ven":555,"oth":556,"Ġbuy":557,"ck":558,"ory":559,"Ġpo":560,"Ġtr":561,"Ġabout":562,"ear":563,"Ġother":564,"Ġmuch":565,"Ġsize":566,"Ġquality":567,"ist":568,"not":569,"Ġafter":570,"Ġv":571,"Ġgo":572,"pt":573,"ide":574,"use":575,"ag":576,"so":577,"Ġeas":578,"li":579,"Ġbeca":580,"Ġke":581,"Ġar":582,"Ġchar":583,"Ġad":584,"eri":585,"ple":586,"am":587,"Ġbecause":588,"ppo":589,"erf":590,"ade":591,"Ġorder":592,"um":593,"Ġnice":594,"Ġpur":595,"Ġneed":596,"ore":597,"Ġbet":598,"Ġcould":599,"Ġthere":600,"Ġyour":601,"ps":602,"Ġback":603,"ation":604,"ish":605,"Ġstory":606,"Ġover":607,"Ġbo":608,"Ġbought":609,"and":610,"Ġret":611,"Ġprice":612,"ink":613,"Ġeven":614,"Ġsp":615,"Ġgot":616,"mend":617,"Ġwr":618,"Ġtw":619,"Ġrecom":620,"ays":621,"Ġrecommend":622,"Ġag":623,"ting":624,"Ġreturn":625,"Ġsc":626,"ue":627,"Ġph":628,"own":629,"Ġexpect":630,"ab":631,"ss":632,"per":633,"Ġmade":634,"ppoin":635,"appoin":636,"thing":637,"Ġbetter":638,"Ġfir":639,"iff":640,"pl":641,"Ġdisappoin":642,"lor":643,"Ġpurch":644,"Ġle":645,"Ġlong":646,"ight":647,"Ġkn":648,"age":649,"Ġway":650,"Ġfirst":651,"oy":652,"ves":653,"ict":654,"Ġput":655,"te":656,"Ġdes":657,"Ġperf":658,"ep":659,"Ġbl":660,"Ġstar":661,"Ġcolor":662,"fort":663,"Ġhi":664,"vie":665,"Ġstill":666,"Ġcase":667,"Ġshe":668,"Ġmat":669,"Ġyear":670,"Ġevery":671,"Ġmon":672,"Ġdiff":673,"Ġri":674,"Ġcannot":675,"Ġwear":676,"ich":677,"ty":678,"Ġeasy":679,"ace":680,"Ġta":681,"ks":682,"Ġman":683,"Ġwat":684,"Ġalso":685,"Ġbig":686,"AD":687,"BAD":688,"Ġworks":689,"Ġby":690,"Ġsho":691,"Ġseem":692,"Ġend":693,"Ġnow":694,"Ġused":695,"Ġinst":696,"Ġperfect":697,"Ġits":698,"ute":699,"lf":700,"Ġlight":701,"Ġagain":702,"Ġhapp":703,"Ġhard":704,"Ġher":705,"oney":706,"ies":707,"Ġmonth":708,"joy":709,"Ġint":710,"Ġbit":711,"Ġchea":712,"Ġtwo":713,"Ġbeen":714,"Ġmoney":715,"ment":716,"Ġwhich":717,"ased":718,"ire":719,"Ġenjoy":720,"Ġpa":721,"ever":722,"Ġold":723,"Ġwho":724,"ous":725,"Ġlot":726,"Ġbro":727,"kes":728,"ff":729,"ens":730,"Ġdisappointed":731,"other":732,"ull":733,"Ġdown":734,"Ġaw":735,"icture":736,"Ġphone":737,"Ġlar":738,"Ġfl":739,"ger":740,"Ġlooks":741,"Ġthr":742,"ile":743,"Ġpicture":744,"Ġthing":745,"ry":746,"Ġpart":747,"ond":748,"Ġinter":749,"Ġcomp":750,"are":751,"Ġthink":752,"Ġlast":753,"Ġordered":754,"our":755,"Ġcheap":756,"Ġnew":757,"ving":758,"Ġthen":759,"ts":760,"Ġact":761,"Ġim":762,"tty":763,"Ġhold":764,"we":765,"Ġshould":766,"les":767,"pped":768,"Ġfeel":769,"Ġcharact":770,"Ġhowever":771,"ass":772,"ily":773,"Ġsee":774,"Ġfa":775,"Ġmake":776,"Ġcl":777,"ions":778,"ese":779,"Ġexpected":780,"Ġrece":781,"Ġthough":782,"Ġlooking":783,"Ġthought":784,"Ġok":785,"Ġte":786,"Ġinto":787,"Ġcame":788,"Ġpretty":789,"az":790,"Ġwant":791,"Ġitem":792,"Ġknow":793,"ms":794,"ath":795,"Ġfo":796,"Ġtri":797,"Ġdef":798,"ach":799,"Ġworth":800,"Ġhigh":801,"Ġkeep":802,"Ġfun":803,"Ġfew":804,"ft":805,"king":806,"Ġdiffer":807,"Ġright":808,"Ġenough":809,"Ġset":810,"ked":811,"Ġcont":812,"orm":813,"Ġhand":814,"astic":815,"atter":816,"mes":817,"Ġcle":818,"Ġapp":819,"these":820,"fortable":821,"Ġbad":822,"Ġbooks":823,"Ġhis":824,"ree":825,"Ġwee":826,"mo":827,"Ġhappy":828,"Ġ?":829,"Ġga":830,"Ġfind":831,"Ġgl":832,"ful":833,"Ġgu":834,"fore":835,"Ġreading":836,"ult":837,"pen":838,"Ġthrough":839,"ated":840,"rand":841,"xt":842,"Ġcover":843,"Ġbr":844,"ise":845,"Ġmay":846,"Ġpack":847,"Ġsame":848,"Ġfine":849,"ived":850,"Ġnever":851,"Ġamaz":852,"ually":853,"ress":854,"nder":855,"au":856,"wh":857,"ph":858,"Ġseri":859,"Ġday":860,"ud":861,"Ġanother":862,"Ġdifferent":863,"Ġsure":864,"ghter":865,"Ġmany":866,"ug":867,"Ġbefore":868,"Ġtry":869,"be":870,"Ġmonths":871,"read":872,"view":873,"Ġwa":874,"erial":875,"Ġhel":876,"Ġpe":877,"Ġgoing":878,"Ġcar":879,"my":880,"Ġour":881,"Ġcharacters":882,"oun":883,"Ġproble":884,"Ġmaterial":885,"Ġins":886,"Ġloved":887,"ott":888,"Ġaround":889,"Ġcute":890,"Ġreceived":891,"Ġwish":892,"Ġlarge":893,"Ġrepl":894,"Ġbox":895,"great":896,"Ġreview":897,"Ġac":898,"Ġmost":899,"hing":900,"Ġaut":901,"Ġcor":902,"Ġbest":903,"Ġkind":904,"Ġcomfortable":905,"Ġbroke":906,"Ġusing":907,"Ġgr":908,"Ġplay":909,"Ġshort":910,"Ġpie":911,"Ġsl":912,"Ġjo":913,"reen":914,"cri":915,"Ġsec":916,"Ġseries":917,"Ġsomething":918,"Ġdefin":919,"vel":920,"Ġro":921,"Ġtop":922,"Ġwhile":923,"Ġpurchase":924,"Ġunder":925,"ip":926,"Ġreal":927,"Ġpurchased":928,"ool":929,"Ġfits":930,"Ġplastic":931,"po":932,"Ġinterest":933,"Ġworked":934,"ber":935,"Ġfar":936,"ans":937,"ci":938,"Ġstr":939,"Ġwatch":940,"Ġopen":941,"Ġbatter":942,"Ġsto":943,"hor":944,"Ġturn":945,"Ġbag":946,"ang":947,"itely":948,"Ġquick":949,"gin":950,"Ġfin":951,"Ġext":952,"UR":953,"Ġfound":954,"Ġdescri":955,"Ġshow":956,"ub":957,"aughter":958,"ance":959,"Ġmin":960,"Ġsound":961,"Ġtimes":962,"Ġarri":963,"mer":964,"Ġprot":965,"Ġcr":966,"Ġclo":967,"fe":968,"Ġtheir":969,"Ġseems":970,"self":971,"anted":972,"dy":973,"Ġgive":974,"im":975,"Ġsay":976,"Ġdefinitely":977,"Ġrun":978,"ild":979,"ather":980,"ign":981,"Ġmovie":982,"CUR":983,"Ġcome":984,"Ġhelp":985,"Ġwater":986,"Ġshoes":987,"Ġexce":988,"Ġstars":989,"Ġwaste":990,"Ġbott":991,"Ġprotect":992,"Ġauthor":993,"Ġnext":994,"Ġmakes":995,"pping":996,"ition":997,"ail":998,"iz":999,"Ġgif":1000,"Ġworking":1001,"Ġspe":1002,"ical":1003,"Ġwithout":1004,"ap":1005,"ning":1006,"ince":1007,"iting":1008,"int":1009,"Ġenjoyed":1010,"Ġwanted":1011,"Ġwar":1012,"Ġhead":1013,"Ġless":1014,"ating":1015,"Ġatt":1016,"Ġyears":1017,"Ġtried":1018,"Ġdog":1019,"ately":1020,"red":1021,"ence":1022,"Ġtight":1023,"Ġsli":1024,"irt":1025,"Ġinf":1026,"wn":1027,"ason":1028,"Ġear":1029,"Ġadd":1030,"rie":1031,"Ġsince":1032,"Ġthin":1033,"Ġliked":1034,"ious":1035,"ption":1036,"Ġstick":1037,"wor":1038,"Ġside":1039,"Ġpoor":1040,"Ġinc":1041,"Ġdec":1042,"Ġtake":1043,"ol":1044,"Ġmis":1045,"Ġson":1046,"ways":1047,"Ġbel":1048,"Ġwhere":1049,"Ġinstall":1050,"ible":1051,"ably":1052,"Ġlea":1053,"Ġdaughter":1054,"Ġdays":1055,"Ġfall":1056,"ket":1057,"Ġsn":1058,"Ġneeded":1059,"ak":1060,"Ġdesign":1061,"Ġgift":1062,"Ġsim":1063,"vor":1064,"utif":1065,"ange":1066,"Ġeasily":1067,"Ġarrived":1068,"Ġnothing":1069,"Ġloves":1070,"Ġref":1071,"do":1072,"itten":1073,"Ġproblem":1074,"Ġinteresting":1075,"less":1076,"Ġcut":1077,"ces":1078,"Ġgi":1079,"ised":1080,"ready":1081,"Ġel":1082,"rible":1083,"Ġamazon":1084,"Ġscreen":1085,"Ġalready":1086,"vers":1087,"Ġcomple":1088,"Ġbeing":1089,"tain":1090,"ash":1091,"Ġstra":1092,"riend":1093,"ric":1094,"Ġsecond":1095,"ken":1096,"ual":1097,"Ġsmaller":1098,"uck":1099,"Ġboth":1100,"Ġaway":1101,"Ġever":1102,"Ġed":1103,"Ġwritten":1104,"Ġalways":1105,"Ġsur":1106,"Ġreplac":1107,"Ġimp":1108,"Ġjob":1109,"oom":1110,"ower":1111,"atch":1112,"gether":1113,"Ġgetting":1114,"Ġkid":1115,"Ġpair":1116,"Ġstay":1117,"llent":1118,"Ġsuper":1119,"Ġlife":1120,"llow":1121,"nect":1122,"most":1123,"Ġid":1124,"Ġacc":1125,"Ġtogether":1126,"ark":1127,"Ġdur":1128,"Ġiss":1129,"Ġsty":1130,"Ġable":1131,"itch":1132,"Ġquite":1133,"ruct":1134,"Ġonce":1135,"bo":1136,"Ġcou":1137,"Ġsoft":1138,"Ġres":1139,"ings":1140,"Ġbre":1141,"Ġfast":1142,"Ġx":1143,"ren":1144,"its":1145,"Ġple":1146,"Ġstarted":1147,"utiful":1148,"Ġbea":1149,"Ġpers":1150,"ary":1151,"Ġreturned":1152,"Ġpeo":1153,"Ġactually":1154,"love":1155,"edi":1156,"Ġtook":1157,"sh":1158,"Ġdel":1159,"Ġhea":1160,"Ġclean":1161,"ward":1162,"Ġshi":1163,"Ġstand":1164,"Ġpeople":1165,"Ġap":1166,"Ġhalf":1167,"ush":1168,"Ġblack":1169,"ction":1170,"Ġfull":1171,"Ġz":1172,"Ġbrand":1173,"Ġsk":1174,"bs":1175,"day":1176,"Ġbattery":1177,"Ġstart":1178,"ead":1179,"Ġshoe":1180,"vice":1181,"gn":1182,"just":1183,"ount":1184,"Ġconnect":1185,"good":1186,"Ġalmost":1187,"vy":1188,"Ġdra":1189,"Ġanything":1190,"Ġcomplete":1191,"Ġexact":1192,"Ġsaid":1193,"uff":1194,"Ġpay":1195,"ots":1196,"sed":1197,"ors":1198,"Ġyet":1199,"Ġdri":1200,"Ġfinish":1201,"Ġche":1202,"Ġfriend":1203,"ix":1204,"Ġty":1205,"Ġmaybe":1206,"Ġcard":1207,"Ġcost":1208,"Ġown":1209,"gg":1210,"Ġweeks":1211,"Ġchr":1212,"Ġloo":1213,"cks":1214,"Ġgave":1215,"Ġperfectly":1216,"Ġlonger":1217,"Ġpiece":1218,"Ġdiffic":1219,"Ġweek":1220,"Ġdi":1221,"Ġra":1222,"ds":1223,"Ġapart":1224,"Ġprob":1225,"pr":1226,"Ġsever":1227,"Ġhour":1228,"Ġguess":1229,"Ġcouple":1230,"Ġsupp":1231,"Ġeverything":1232,"Ġhop":1233,"Ġshirt":1234,"up":1235,"vert":1236,"Ġoverall":1237,"Ġtra":1238,"Ġbroken":1239,"Ġwash":1240,"Ġperson":1241,"Ġbuying":1242,"Ġprobably":1243,"Ġwhy":1244,"Ġreason":1245,"ement":1246,"ton":1247,"ose":1248,"Ġori":1249,"ular":1250,"Ġreg":1251,"Ġter":1252,"ouse":1253,"Ġthings":1254,"Ġsad":1255,"Ġdifficult":1256,"ensive":1257,"Ġplace":1258,"Ġinside":1259,"sol":1260,"ier":1261,"Ġseveral":1262,"Ġwond":1263,"Ġtast":1264,"they":1265,"Ġbottom":1266,"Ġones":1267,"ner":1268,"Ġclear":1269,"Ġanyone":1270,"Ġfan":1271,"ations":1272,"Ġcare":1273,"Ġhope":1274,"Ġline":1275,"Ġes":1276,"Ġkept":1277,"Ġbeautiful":1278,"Ġwait":1279,"Ġeach":1280,"Ġthree":1281,"Ġorigin":1282,"Ġchild":1283,"Ġfli":1284,"Ġstore":1285,"Ġfil":1286,"Ġsw":1287,"ller":1288,"Ġstur":1289,"Ġunt":1290,"Ġla":1291,"Ġwent":1292,"Ġmust":1293,"Ġchrist":1294,"right":1295,"ters":1296,"Ġquickly":1297,"Ġreviews":1298,"Ġkids":1299,"ages":1300,"Ġpain":1301,"ont":1302,"Ġcolors":1303,"ents":1304,"Ġdet":1305,"Ġinform":1306,"Ġcharge":1307,"Ġadvert":1308,"thers":1309,"Ġstor":1310,"Ġhaving":1311,"Ġlooked":1312,"Ġheavy":1313,"Ġothers":1314,"Ġexactly":1315,"ides":1316,"Ġgame":1317,"band":1318,"Ġuntil":1319,"Ġinstead":1320,"Ġexcellent":1321,"Ġlarger":1322,"Ġstrong":1323,"pper":1324,"Ġcoll":1325,"Ġfab":1326,"Ġser":1327,"Ġelse":1328,"Ġlet":1329,"sing":1330,"esome":1331,"ys":1332,"Ġhighly":1333,"ex":1334,"ee":1335,"eps":1336,"elt":1337,"Ġhim":1338,"Ġwrong":1339,"Ġfeet":1340,"Ġsturdy":1341,"wise":1342,"Ġwithin":1343,"Ġwhite":1344,"Ġstyle":1345,"ten":1346,"Ġsme":1347,"Ġotherwise":1348,"stand":1349,"Ġfavor":1350,"com":1351,"erful":1352,"Ġdress":1353,"Ġtrying":1354,"Ġbutton":1355,"ret":1356,"Ġplot":1357,"Ġmus":1358,"mas":1359,"Ġoriginal":1360,"ny":1361,"oto":1362,"Ġcomes":1363,"ha":1364,"Ġdone":1365,"io":1366,"Ġvers":1367,"Ġwriting":1368,"Ġmight":1369,"Ġthose":1370,"Ġgets":1371,"ife":1372,"Ġcompl":1373,"Ġmar":1374,"Ġsmell":1375,"Ġcons":1376,"ments":1377,"Ġsol":1378,"ract":1379,"Ġhere":1380,"Ġleft":1381,"reme":1382,"Ġneeds":1383,"Ġthick":1384,"Ġdescription":1385,"Ġsuch":1386,"Ġsent":1387,"Ġfact":1388,"fortun":1389,"Ġbul":1390,"Ġfabric":1391,"Ġfla":1392,"Ġlow":1393,"Ġcool":1394,"rew":1395,"Ġbas":1396,"bought":1397,"though":1398,"Ġgrand":1399,"Ġfam":1400,"Ġsha":1401,"Ġweight":1402,"ither":1403,"Ġfree":1404,"Ġphoto":1405,"Ġsend":1406,"Ġroom":1407,"line":1408,"Ġbigger":1409,"Ġwal":1410,"ls":1411,"Ġwhole":1412,"Ġhus":1413,"solute":1414,"ats":1415,"ative":1416,"ne":1417,"ues":1418,"Ġfelt":1419,"Ġglass":1420,"Ġtell":1421,"Ġclose":1422,"Ġokay":1423,"Ġtot":1424,"Ġwind":1425,"Ġnorm":1426,"Ġsays":1427,"Ġloose":1428,"Ġshipping":1429,"Ġconst":1430,"Ġred":1431,"Ġstuff":1432,"Ġhot":1433,"Ġsle":1434,"Ġmet":1435,"bed":1436,"Ġhusband":1437,"Ġrel":1438,"Ġextra":1439,"Ġcharg":1440,"Ġem":1441,"Ġplug":1442,"Ġhor":1443,"nice":1444,"fortunately":1445,"Ġbelie":1446,"Ġinstruct":1447,"Ġreplacement":1448,"els":1449,"Ġwall":1450,"Ġamazing":1451,"Ġrub":1452,"ets":1453,"Ġdeal":1454,"Ġpower":1455,"Ġchristmas":1456,"Ġscr":1457,"Ġstopped":1458,"Ġsupport":1459,"Ġmod":1460,"cially":1461,"ones":1462,"Ġtable":1463,"Ġsong":1464,"Ġsuppo":1465,"Ġcompletely":1466,"Ġmusic":1467,"Ġtrue":1468,"Ġlear":1469,"Ġfront":1470,"Ġfell":1471,"iv":1472,"Ġdeli":1473,"cess":1474,"Ġpackage":1475,"vious":1476,"remely":1477,"und":1478,"Ġmedi":1479,"Ġincl":1480,"ume":1481,"Ġdisc":1482,"eng":1483,"ater":1484,"Ġfollow":1485,"Ġpull":1486,"Ġswe":1487,"Ġtea":1488,"inter":1489,"phone":1490,"ird":1491,"ully":1492,"unk":1493,"Ġslow":1494,"Ġdro":1495,"Ġadvertised":1496,"Ġremo":1497,"Ġkeeps":1498,"Ġawesome":1499,"iny":1500,"ouch":1501,"Ġrem":1502,"Ġpieces":1503,"Ġhome":1504,"ied":1505,"led":1506,"ider":1507,"ited":1508,"Ġespe":1509,"eak":1510,"ib":1511,"Ġcrack":1512,"Ġinclud":1513,"Ġespecially":1514,"Ġcomplain":1515,"Ġlist":1516,"Ġind":1517,"Ġclass":1518,"utes":1519,"aged":1520,"Ġcli":1521,"Ġdetail":1522,"Ġsomeone":1523,"ature":1524,"Ġinformation":1525,"Ġgen":1526,"rect":1527,"Ġhours":1528,"Ġleast":1529,"ants":1530,"what":1531,"Ġnight":1532,"ord":1533,"Ġbright":1534,"works":1535,"any":1536,"als":1537,"solutely":1538,"Ġexpensive":1539,"Ġfoot":1540,"Ġcharacter":1541,"Ġended":1542,"Ġminutes":1543,"Ġbreak":1544,"arr":1545,"Ġwearing":1546,"Ġfavorite":1547,"Ġpaper":1548,"Ġreturning":1549,"Ġcur":1550,"ention":1551,"Ġband":1552,"Ġending":1553,"Ġval":1554,"Ġfeels":1555,"Ġrep":1556,"Ġblue":1557,"Ġprov":1558,"Ġair":1559,"Ġexc":1560,"Ġeither":1561,"msy":1562,"Ġhist":1563,"Ġthank":1564,"Ġextremely":1565,"Ġsurpr":1566,"ically":1567,"ows":1568,"ics":1569,"Ġnovel":1570,"Ġper":1571,"Ġstories":1572,"Ġpoc":1573,"Ġitself":1574,"Ġwarm":1575,"Ġseemed":1576,"Ġcamer":1577,"Ġinch":1578,"ew":1579,"ware":1580,"Ġcd":1581,"side":1582,"Ġpick":1583,"Ġdisappointing":1584,"Ġforward":1585,"Ġpoint":1586,"Ġmaking":1587,"ective":1588,"Ġfig":1589,"Ġgra":1590,"velo":1591,"Ġscratch":1592,"Ġpictures":1593,"Ġbed":1594,"op":1595,"Ġhappen":1596,"Ġrest":1597,"Ġunderstand":1598,"Ġdark":1599,"Ġmain":1600,"eti":1601,"Ġsy":1602,"Ġversion":1603,"Ġfamily":1604,"ween":1605,"where":1606,"Ġunfortunately":1607,"Ġbegin":1608,"Ġissue":1609,"Ġflimsy":1610,"Ġport":1611,"Ġhoping":1612,"Ġkey":1613,"Ġsat":1614,"Ġbetween":1615,"Ġsoon":1616,"Ġsub":1617,"Ġfra":1618,"Ġproper":1619,"Ġtaste":1620,"Ġidea":1621,"air":1622,"uge":1623,"Ġparts":1624,"Ġpast":1625,"Ġmine":1626,"Ġpages":1627,"Ġav":1628,"did":1629,"Ġwonderful":1630,"Ġinstructions":1631,"Ġdry":1632,"Ġadjust":1633,"Ġpad":1634,"Ġleg":1635,"Ġexpecting":1636,"vent":1637,"fer":1638,"Ġdam":1639,"Ġmedium":1640,"Ġpaid":1641,"Ġhouse":1642,"Ġflo":1643,"Ġrather":1644,"eless":1645,"ates":1646,"Ġcra":1647,"Ġcorrect":1648,"Ġball":1649,"Ġbor":1650,"Ġgir":1651,"Ġseller":1652,"Ġcond":1653,"Ġwide":1654,"Ġlots":1655,"ject":1656,"Ġhandle":1657,"ster":1658,"Ġwom":1659,"Ġbar":1660,"Ġproblems":1661,"Ġfigure":1662,"Ġcable":1663,"ooth":1664,"ested":1665,"Ġglad":1666,"Ġdurable":1667,"Ġwire":1668,"isf":1669,"Ġdire":1670,"Ġcamera":1671,"ided":1672,"Ġgri":1673,"Ġattach":1674,"ness":1675,"Ġsom":1676,"Ġplan":1677,"Ġdr":1678,"Ġcall":1679,"Ġago":1680,"Ġlasted":1681,"Ġunit":1682,"Ġspr":1683,"Ġcho":1684,"Ġmetal":1685,"board":1686,"Ġcoff":1687,"Ġmissing":1688,"Ġalthough":1689,"Ġreplace":1690,"ength":1691,"Ġlost":1692,"Ġlength":1693,"Ġeng":1694,"Ġtype":1695,"Ġslight":1696,"Ġtouch":1697,"Ġmess":1698,"Ġdescribed":1699,"Ġabsolutely":1700,"Ġcoming":1701,"Ġcontro":1702,"Ġmyself":1703,"velop":1704,"aging":1705,"Ġusually":1706,"Ġthanks":1707,"Ġsch":1708,"Ġhang":1709,"Ġent":1710,"way":1711,"Ġann":1712,"Ġcook":1713,"Ġplus":1714,"Ġpres":1715,"Ġcoffee":1716,"Ġissues":1717,"ump":1718,"Ġterrible":1719,"Ġsometi":1720,"lish":1721,"ons":1722,"Ġgoes":1723,"Ġpleased":1724,"Ġdecent":1725,"Ġhum":1726,"Ġtoy":1727,"Ġbatteries":1728,"lic":1729,"Ġtakes":1730,"iter":1731,"ense":1732,"Ġsimple":1733,"does":1734,"Ġenter":1735,"Ġregular":1736,"Ġfix":1737,"Ġrequ":1738,"Ġtv":1739,"ced":1740,"Ġrefund":1741,"Ġmatch":1742,"Ġnarr":1743,"ize":1744,"Ġlin":1745,"Ġcompany":1746,"ng":1747,"ges":1748,"Ġlearn":1749,"Ġfill":1750,"Ġnear":1751,"Ġgar":1752,"Ġfood":1753,"Ġappear":1754,"Ġhuge":1755,"Ġcontin":1756,"Ġlights":1757,"Ġer":1758,"Ġfair":1759,"Ġsupposed":1760,"ia":1761,"ian":1762,"Ġdevelop":1763,"retch":1764,"cept":1765,"Ġsometimes":1766,"Ġele":1767,"Ġmid":1768,"book":1769,"Ġdue":1770,"Ġrecommended":1771,"Ġarea":1772,"Ġshar":1773,"antly":1774,"Ġstretch":1775,"Ġve":1776,"Ġholds":1777,"no":1778,"bb":1779,"mmer":1780,"Ġbare":1781,"Ġcup":1782,"Ġchange":1783,"Ġkindle":1784,"gra":1785,"aces":1786,"Ġmove":1787,"Ġdv":1788,"Ġpants":1789,"Ġleather":1790,"ppy":1791,"Ġpage":1792,"Ġbelieve":1793,"dd":1794,"ssible":1795,"ross":1796,"pro":1797,"Ġtrans":1798,"Ġvol":1799,"for":1800,"Ġspeak":1801,"Ġcharger":1802,"Ġimpress":1803,"ared":1804,"Ġnum":1805,"Ġrom":1806,"ired":1807,"Ġ%":1808,"Ġproperly":1809,"Ġcat":1810,"Ġsizes":1811,"ouble":1812,"Ġservice":1813,"Ġdirect":1814,"Ġduring":1815,"co":1816,"Ġbra":1817,"Ġrubber":1818,"Ġcomput":1819,"ling":1820,"Ġwife":1821,"Ġentertain":1822,"Ġexperi":1823,"ame":1824,"ins":1825,"Ġboots":1826,"Ġconf":1827,"Ġdoll":1828,"gy":1829,"ky":1830,"Ġcord":1831,"Ġpen":1832,"Ġtwist":1833,"gr":1834,"Ġstud":1835,"Ġzi":1836,"iced":1837,"ient":1838,"Ġhook":1839,"de":1840,"Ġseen":1841,"Ġsatisf":1842,"Ġflat":1843,"Ġworld":1844,"Ġcer":1845,"Ġhear":1846,"Ġboring":1847,"Ġfunction":1848,"Ġring":1849,"Ġproducts":1850,"Ġart":1851,"Ġpress":1852,"Ġannoy":1853,"used":1854,"Ġopened":1855,"ility":1856,"ustom":1857,"Ġholes":1858,"Ġcondition":1859,"Ġloc":1860,"Ġuseless":1861,"Ġhands":1862,"Ġcollect":1863,"Ġiphone":1864,"fully":1865,"ustr":1866,"mm":1867,"Ġshows":1868,"ank":1869,"Ġfunny":1870,"ged":1871,"ideo":1872,"Ġdep":1873,"gan":1874,"Ġfre":1875,"Ġpurpo":1876,"Ġstrap":1877,"Ġbarely":1878,"Ġcarry":1879,"Ġneck":1880,"Ġspend":1881,"eas":1882,"Ġsit":1883,"Ġvideo":1884,"arch":1885,"Ġfour":1886,"mb":1887,"oud":1888,"Ġprint":1889,"Ġcustom":1890,"was":1891,"Ġentire":1892,"Ġgiven":1893,"ial":1894,"Ġsolid":1895,"bum":1896,"Ġpill":1897,"unch":1898,"Ġsqu":1899,"set":1900,"kets":1901,"Ġtal":1902,"Ġhole":1903,"Ġvalue":1904,"Ġprevious":1905,"Ġworn":1906,"Ġbir":1907,"Ġhorrible":1908,"Ġwaist":1909,"Ġcheck":1910,"Ġaction":1911,"Ġtotally":1912,"Ġoutside":1913,"Ġste":1914,"ized":1915,"Ġalbum":1916,"amp":1917,"Ġchang":1918,"Ġcomputer":1919,"Ġstop":1920,"Ġflavor":1921,"Ġeveryone":1922,"Ġalong":1923,"Ġfail":1924,"Ġgreen":1925,"Ġschool":1926,"Ġdevice":1927,"ote":1928,"Ġfriends":1929,"Ġmind":1930,"dle":1931,"Ġpri":1932,"Ġimm":1933,"tc":1934,"Ġunless":1935,"Ġswitch":1936,"Ġmic":1937,"Ġlisten":1938,"Ġform":1939,"Ġexcept":1940,"pad":1941,"Ġob":1942,"Ġwhe":1943,"lling":1944,"Ġgener":1945,"comfortable":1946,"Ġwood":1947,"Ġcloth":1948,"Ġlive":1949,"Ġsing":1950,"Ġprom":1951,"Ġcheaply":1952,"Ġconsider":1953,"Ġnicely":1954,"ding":1955,"Ġwore":1956,"apter":1957,"Ġprin":1958,"Ġmom":1959,"Ġtoday":1960,"ently":1961,"Ġlater":1962,"Ġslightly":1963,"Ġey":1964,"tend":1965,"Ġitems":1966,"Ġnormal":1967,"mp":1968,"Ġcontain":1969,"Ġpass":1970,"asing":1971,"Ġdvd":1972,"Ġshape":1973,"Ġstuck":1974,"ilar":1975,"cy":1976,"Ġhistory":1977,"Ġjunk":1978,"Ġdraw":1979,"Ġtext":1980,"Ġcards":1981,"ames":1982,"ices":1983,"Ġsign":1984,"look":1985,"order":1986,"Ġsave":1987,"Ġeff":1988,"Ġtiny":1989,"Ġspace":1990,"Ġje":1991,"son":1992,"get":1993,"Ġpoorly":1994,"Ġsugg":1995,"Ġdoor":1996,"Ġop":1997,"Ġrid":1998,"cial":1999,"Ġmem":2000,"Ġsmooth":2001,"Ġsocks":2002,"Ġsnug":2003,"Ġbab":2004,"Ġordering":2005,"Ġcreat":2006,"itive":2007,"Ġmyster":2008,"Ġda":2009,"od":2010,"Ġfant":2011,"cer":2012,"Ġuseful":2013,"Ġprefer":2014,"light":2015,"Ġsaw":2016,"Ġuses":2017,"let":2018,"Ġetc":2019,"Ġfalling":2020,"Ġchin":2021,"Ġbelt":2022,"Ġruns":2023,"Ġmagn":2024,"Ġchildren":2025,"ific":2026,"pect":2027,"Ġdogs":2028,"Ġir":2029,"Ġcertain":2030,"Ġcop":2031,"Ġhair":2032,"Ġsand":2033,"Ġwords":2034,"zy":2035,"Ġtwice":2036,"Ġlab":2037,"ases":2038,"Ġface":2039,"Ġpos":2040,"Ġpurpose":2041,"Ġnarrow":2042,"Ġmix":2043,"Ġlid":2044,"Ġburn":2045,"Ġaddition":2046,"Ġlack":2047,"oof":2048,"Ġpackaging":2049,"Ġincluded":2050,"Ġfeature":2051,"Ġbi":2052,"Ġturned":2053,"Ġlock":2054,"Ġdist":2055,"Ġmodel":2056,"Ġsetting":2057,"Ġsus":2058,"asure":2059,"Ġcracked":2060,"ilt":2061,"Ġdoing":2062,"Ġlikes":2063,"Ġpresent":2064,"aster":2065,"Ġgives":2066,"Ġhelpful":2067,"Ġipad":2068,"Ġslee":2069,"ading":2070,"Ġcold":2071,"Ġamount":2072,"Ġcheaper":2073,"Ġputting":2074,"Ġconstruct":2075,"Ġoften":2076,"Ġactual":2077,"to":2078,"Ġthinking":2079,"Ġpocket":2080,"really":2081,"ars":2082,"Ġpictured":2083,"Ġsongs":2084,"Ġxl":2085,"Ġasse":2086,"vered":2087,"Ġvis":2088,"Ġremove":2089,"Ġgiving":2090,"Ġinv":2091,"Ġpink":2092,"ung":2093,"stem":2094,"Ġuncomfortable":2095,"Ġcap":2096,"iet":2097,"Ġbottle":2098,"Ġhon":2099,"Ġskin":2100,"Ġrecip":2101,"Ġheart":2102,"after":2103,"Ġsomewhat":2104,"Ġmach":2105,"Ġsystem":2106,"Ġmult":2107,"Ġbuild":2108,"Ġusb":2109,"Ġtape":2110,"Ġprotector":2111,"Ġinstalled":2112,"Ġtravel":2113,"res":2114,"Ġplease":2115,"Ġtyp":2116,"Ġclip":2117,"orry":2118,"more":2119,"Ġloud":2120,"Ġeasier":2121,"Ġcharging":2122,"Ġhat":2123,"Ġvie":2124,"using":2125,"Ġzipper":2126,"Ġimpressed":2127,"Ġview":2128,"ma":2129,"Ġvar":2130,"Ġnon":2131,"Ġpred":2132,"par":2133,"Ġexcited":2134,"Ġfing":2135,"Ġwrite":2136,"Ġluck":2137,"Ġpract":2138,"Ġmiddle":2139,"man":2140,"Ġpan":2141,"Ġavail":2142,"Ġimmedi":2143,"Ġmot":2144,"mber":2145,"acket":2146,"Ġrunning":2147,"Ġstandard":2148,"Ġonline":2149,"aced":2150,"Ġlapt":2151,"Ġsatisfied":2152,"well":2153,"Ġfinally":2154,"Ġsil":2155,"Ġtool":2156,"Ġlau":2157,"Ġentertaining":2158,"Ġcart":2159,"Ġyoung":2160,"ream":2161,"Ġheld":2162,"Ġweak":2163,"Ġreplaced":2164,"got":2165,"Ġinterested":2166,"Ġripped":2167,"Ġcal":2168,"Ġbirth":2169,"Ġenjoyable":2170,"Ġattention":2171,"come":2172,"Ġsides":2173,"Ġfive":2174,"Ġvolume":2175,"Ġprotection":2176,"like":2177,"Ġpu":2178,"Ġtem":2179,"Ġscrew":2180,"ply":2181,"phones":2182,"Ġseam":2183,"Ġsimilar":2184,"Ġmatter":2185,"Ġbeginning":2186,"Ġbuttons":2187,"ional":2188,"exce":2189,"Ġcu":2190,"Ġmulti":2191,"aded":2192,"Ġev":2193,"Ġbaby":2194,"Ġdelivery":2195,"Ġlay":2196,"Ġdisappoint":2197,"Ġpost":2198,"Ġromance":2199,"Ġstraight":2200,"Ġlevel":2201,"Ġdamaged":2202,"Ġbase":2203,"Ġthrow":2204,"igh":2205,"Ġannoying":2206,"Ġble":2207,"Ġseat":2208,"Ġturns":2209,"Ġcour":2210,"Ġshown":2211,"Ġcab":2212,"Ġworst":2213,"Ġplaying":2214,"rant":2215,"Ġsuggest":2216,"Ġupd":2217,"Ġimmediately":2218,"Ġsharp":2219,"Ġsecure":2220,"Ġhur":2221,"Ġsweet":2222,"Ġcontact":2223,"Ġroll":2224,"ictable":2225,"ror":2226,"Ġill":2227,"there":2228,"Ġlaptop":2229,"product":2230,"urch":2231,"uly":2232,"Ġglo":2233,"fit":2234,"Ġfut":2235,"Ġpaint":2236,"play":2237,"Ġedge":2238,"Ġcustomer":2239,"Ġaccur":2240,"Ġfilm":2241,"Ġframe":2242,"Ġtablet":2243,"Ġhonest":2244,"Ġfinished":2245,"Ġseason":2246,"Ġboard":2247,"Ġfle":2248,"Ġscen":2249,"br":2250,"Ġcompared":2251,"ake":2252,"Ġlens":2253,"excellent":2254,"Ġwra":2255,"Ġfold":2256,"Ġass":2257,"Ġtech":2258,"Ġvo":2259,"ined":2260,"Ġboot":2261,"too":2262,"Ġavailable":2263,"Ġpop":2264,"Ġcontrol":2265,"Ġbased":2266,"Ġgold":2267,"when":2268,"Ġcomplaint":2269,"Ġsurprised":2270,"Ġbirthday":2271,"umb":2272,"Ġnormally":2273,"Ġperform":2274,"Ġbus":2275,"Ġcovers":2276,"Ġstraps":2277,"Ġbuilt":2278,"Ġsummer":2279,"Ġshipped":2280,"Ġreader":2281,"xy":2282,"Ġsun":2283,"Ġolder":2284,"Ġfilter":2285,"Ġgirl":2286,"Ġbrea":2287,"Ġrecipes":2288,"Ġmystery":2289,"Ġmov":2290,"Ġstain":2291,"Ġyes":2292,"Ġink":2293,"Ġtear":2294,"Ġboy":2295,"Ġcomm":2296,"gle":2297,"Ġwashed":2298,"os":2299,"Ġbags":2300,"Ġspec":2301,"Ġbody":2302,"cc":2303,"Ġtrack":2304,"Ġtold":2305,"ler":2306,"Ġwomen":2307,"Ġmachine":2308,"Ġfire":2309,"eds":2310,"aw":2311,"og":2312,"Ġpredictable":2313,"Ġlegs":2314,"Ġweird":2315,"Ġreceive":2316,"Ġmovies":2317,"Ġvac":2318,"Ġfuture":2319,"Ġleave":2320,"Ġedges":2321,"Ġsleep":2322,"que":2323,"itting":2324,"Ġsorry":2325,"Ġhit":2326,"Ġpartic":2327,"Ġexperience":2328,"room":2329,"Ġfairly":2330,"Ġtaking":2331,"Ġpurchasing":2332,"Ġfore":2333,"Ġsepar":2334,"Ġbow":2335,"zz":2336,"tern":2337,"worked":2338,"Ġquest":2339,"fy":2340,"Ġpar":2341,"Ġfloor":2342,"Ġscrews":2343,"uf":2344,"Ġdifference":2345,"Ġstiff":2346,"Ġholding":2347,"Ġchair":2348,"ults":2349,"Ġknew":2350,"Ġdrive":2351,"Ġcollection":2352,"Ġglue":2353,"Ġaud":2354,"Ġimpro":2355,"Ġrating":2356,"Ġhappened":2357,"Ġsurf":2358,"Ġkeyboard":2359,"iness":2360,"Ġhar":2361,"Ġdrink":2362,"Ġaccess":2363,"bage":2364,"isted":2365,"Ġfantastic":2366,"ses":2367,"vable":2368,"Ġmoun":2369,"Ġnoise":2370,"Ġopin":2371,"Ġanymore":2372,"Ġcareful":2373,"ufact":2374,"Ġhate":2375,"Ġallow":2376,"Ġproject":2377,"ued":2378,"ming":2379,"Ġpatter":2380,"Ġinches":2381,"looks":2382,"Ġcourse":2383,"Ġexpl":2384,"Ġsized":2385,"Ġtrouble":2386,"Ġdim":2387,"Ġgre":2388,"Ġimag":2389,"Ġdecided":2390,"Ġmeasure":2391,"Ġseal":2392,"Ġbrown":2393,"Ġdropped":2394,"Ġmean":2395,"Ġflow":2396,"Ġbasic":2397,"ulous":2398,"eric":2399,"su":2400,"ution":2401,"Ġheat":2402,"Ġcopy":2403,"Ġpush":2404,"Ġname":2405,"Ġprof":2406,"Ġpillow":2407,"Ġspecial":2408,"Ġtall":2409,"Ġmanufact":2410,"you":2411,"ering":2412,"ned":2413,"ried":2414,"ti":2415,"Ġlaugh":2416,"Ġye":2417,"Ġdead":2418,"Ġlbs":2419,"Ġopening":2420,"Ġtrip":2421,"ners":2422,"Ġkeeping":2423,"rid":2424,"Ġawful":2425,"Ġconcept":2426,"Ġbath":2427,"Ġcomfort":2428,"Ġgotten":2429,"Ġsuit":2430,"Ġthird":2431,"Ġwatching":2432,"Ġsizing":2433,"orn":2434,"ister":2435,"Ġmil":2436,"Ġwalk":2437,"istic":2438,"ising":2439,"Ġtest":2440,"Ġthread":2441,"Ġcand":2442,"Ġbent":2443,"loved":2444,"Ġknife":2445,"weight":2446,"Ġwashing":2447,"Ġsal":2448,"Ġarm":2449,"Ġnumber":2450,"verage":2451,"Ġsens":2452,"Ġopinion":2453,"Ġparty":2454,"Ġnotice":2455,"Ġwaiting":2456,"Ġameric":2457,"Ġrese":2458,"Ġmist":2459,"Ġimpo":2460,"ptions":2461,"Ġcompli":2462,"had":2463,"Ġmouse":2464,"Ġtotal":2465,"Ġcount":2466,"Ġresp":2467,"Ġholder":2468,"Ġsimply":2469,"Ġtit":2470,"Ġheadphones":2471,"Ġliter":2472,"ordered":2473,"nt":2474,"Ġsounds":2475,"Ġnone":2476,"Ġuni":2477,"Ġnote":2478,"Ġconnection":2479,"Ġdelivered":2480,"Ġconstantly":2481,"Ġmultiple":2482,"Ġspent":2483,"Ġblo":2484,"Ġappears":2485,"Ġsingle":2486,"Ġgone":2487,"Ġcostume":2488,"Ġchain":2489,"Ġwears":2490,"ze":2491,"Ġchina":2492,"Ġrad":2493,"Ġglasses":2494,"uc":2495,"Ġflash":2496,"Ġchi":2497,"Ġrealize":2498,"Ġce":2499,"Ġimpossible":2500,"Ġdeep":2501,"Ġstitch":2502,"perf":2503,"Ġplaces":2504,"Ġpeel":2505,"Ġteach":2506,"Ġhoped":2507,"Ġeat":2508,"Ġtruly":2509,"Ġheal":2510,"Ġprinter":2511,"Ġtow":2512,"Ġparticular":2513,"Ġgarbage":2514,"tended":2515,"Ġmen":2516,"iction":2517,"Ġyellow":2518,"rent":2519,"Ġself":2520,"Ġserious":2521,"Ġsense":2522,"Ġperi":2523,"Ġdefective":2524,"ator":2525,"Ġthri":2526,"Ġpow":2527,"cle":2528,"Ġhigher":2529,"fits":2530,"Ġfalls":2531,"Ġaccurate":2532,"pense":2533,"Ġbother":2534,"Ġremote":2535,"Ġtreat":2536,"Ġfrustr":2537,"Ġhelps":2538,"enty":2539,"Ġcats":2540,"lit":2541,"Ġimport":2542,"Ġkit":2543,"Ġgrow":2544,"Ġmount":2545,"cute":2546,"Ġbeat":2547,"Ġnor":2548,"Ġkitch":2549,"enter":2550,"Ġleaves":2551,"Ġreme":2552,"ites":2553,"Ġrefer":2554,"Ġbulky":2555,"Ġwindow":2556,"Ġpockets":2557,"Ġelect":2558,"Ġmor":2559,"Ġbend":2560,"ero":2561,"Ġpump":2562,"Ġoil":2563,"Ġstated":2564,"Ġblu":2565,"Ġobvious":2566,"Ġkitchen":2567,"Ġdisplay":2568,"Ġbike":2569,"ades":2570,"Ġcomfy":2571,"Ġguy":2572,"Ġappro":2573,"while":2574,"Ġchew":2575,"Ġocc":2576,"Ġdev":2577,"Ġorgan":2578,"Ġgames":2579,"Ġfitting":2580,"Ġwoman":2581,"Ġprogra":2582,"Ġheard":2583,"Ġremember":2584,"Ġdetails":2585,"ered":2586,"Ġran":2587,"Ġpattern":2588,"Ġstep":2589,"Ġphotos":2590,"Ġtwists":2591,"Ġjacket":2592,"Ġdig":2593,"Ġfault":2594,"Ġmag":2595,"Ġaverage":2596,"Ġlocal":2597,"Ġdisappointment":2598,"irts":2599,"Ġrough":2600,"Ġdaily":2601,"Ġattached":2602,"Ġtrash":2603,"Ġslip":2604,"Ġjeans":2605,"Ġsort":2606,"Ġstoryline":2607,"go":2608,"inted":2609,"Ġdate":2610,"pre":2611,"Ġsuspense":2612,"Ġends":2613,"Ġtend":2614,"Ġspray":2615,"Ġsold":2616,"Ġprocess":2617,"Ġmoving":2618,"he":2619,"Ġwalking":2620,"Ġmention":2621,"Ġdownlo":2622,"Ġcorrectly":2623,"Ġgrandson":2624,"Ġpin":2625,"ying":2626,"Ġupdate":2627,"Ġrecord":2628,"Ġmac":2629,"Ġlate":2630,"Ġshower":2631,"Ġrele":2632,"ale":2633,"cent":2634,"daughter":2635,"Ġdish":2636,"Ġintern":2637,"Ġgrip":2638,"orable":2639,"Ġevent":2640,"Ġdirections":2641,"gs":2642,"uty":2643,"Ġspeaker":2644,"Ġword":2645,"Ġcertainly":2646,"ane":2647,"Ġstock":2648,"lt":2649,"Ġconstruction":2650,"Ġmagnet":2651,"have":2652,"Ġtoe":2653,"Ġstarting":2654,"Ġlightweight":2655,"ppers":2656,"logy":2657,"Ġadded":2658,"Ġcartrid":2659,"Ġclearly":2660,"Ġaff":2661,"Ġrange":2662,"Ġcontinue":2663,"Ġsafe":2664,"Ġfeeling":2665,"sa":2666,"Ġmail":2667,"reci":2668,"Ġbrush":2669,"ience":2670,"Ġinsight":2671,"Ġyr":2672,"ield":2673,"Ġlead":2674,"Ġnearly":2675,"Ġinfo":2676,"Ġcenter":2677,"Ġanyway":2678,"Ġexam":2679,"Ġhistor":2680,"Ġcrazy":2681,"Ġreach":2682,"pack":2683,"Ġcompliments":2684,"Ġacross":2685,"irty":2686,"perfect":2687,"Ġsna":2688,"Ġcases":2689,"lled":2690,"Ġsou":2691,"Ġadult":2692,"Ġsurface":2693,"Ġmark":2694,"ibly":2695,"Ġsheets":2696,"Ġappreci":2697,"Ġthrew":2698,"ining":2699,"Ġpet":2700,"Ġled":2701,"Ġearly":2702,"bea":2703,"Ġusual":2704,"Ġmicro":2705,"ints":2706,"Ġwinter":2707,"ert":2708,"Ġexpectations":2709,"Ġslide":2710,"Ġyourself":2711,"Ġship":2712,"Ġagainst":2713,"Ġmiss":2714,"Ġcups":2715,"Ġwarrant":2716,"Ġsending":2717,"Ġfailed":2718,"ube":2719,"Ġexch":2720,"box":2721,"Ġradio":2722,"Ġoper":2723,"ives":2724,"Ġrequire":2725,"Ġmother":2726,"atic":2727,"Ġshel":2728,"Ġdied":2729,"Ġrust":2730,"Ġoption":2731,"Ġcott":2732,"Ġground":2733,"Ġlower":2734,"Ġpossible":2735,"Ġeveryday":2736,"Ġmostly":2737,"Ġfi":2738,"Ġresearch":2739,"Ġsilver":2740,"back":2741,"Ġpriced":2742,"Ġsell":2743,"Ġchanged":2744,"Ġhopefully":2745,"Ġplayer":2746,"Ġdesigned":2747,"Ġhelped":2748,"over":2749,"Ġbeh":2750,"chea":2751,"Ġchance":2752,"Ġplenty":2753,"Ġears":2754,"Ġgloves":2755,"ok":2756,"Ġvel":2757,"Ġwriter":2758,"oub":2759,"Ġwrist":2760,"du":2761,"Ġgranddaughter":2762,"Ġnoticed":2763,"purch":2764,"Ġadv":2765,"Ġaudio":2766,"Ġage":2767,"Ġdevelopment":2768,"een":2769,"Ġwet":2770,"Ġpub":2771,"Ġfully":2772,"haps":2773,"easy":2774,"ities":2775,"mble":2776,"ability":2777,"Ġjack":2778,"Ġclassic":2779,"Ġwanting":2780,"Ġheel":2781,"Ġbri":2782,"Ġdesk":2783,"Ġdrop":2784,"Ġcotton":2785,"Ġrecei":2786,"Ġsams":2787,"Ġfresh":2788,"Ġshr":2789,"Ġmini":2790,"Ġwallet":2791,"ences":2792,"Ġlose":2793,"ock":2794,"Ġhero":2795,"min":2796,"Ġpersonal":2797,"Ġoh":2798,"Ġmanufactur":2799,"ored":2800,"Ġspot":2801,"na":2802,"Ġspeed":2803,"Ġsca":2804,"Ġadapter":2805,"Ġbulbs":2806,"Ġideas":2807,"ures":2808,"Ġlabel":2809,"Ġcontent":2810,"Ġbasically":2811,"Ġstri":2812,"Ġbecame":2813,"Ġknown":2814,"tle":2815,"Ġplayed":2816,"Ġnd":2817,"Ġshor":2818,"Ġblade":2819,"Ġgun":2820,"sw":2821,"pensive":2822,"Ġhd":2823,"Ġconcer":2824,"Ġdirty":2825,"apters":2826,"Ġwarranty":2827,"Ġwasted":2828,"Ġrate":2829,"pretty":2830,"Ġlol":2831,"Ġattract":2832,"Ġsearch":2833,"Ġbecome":2834,"purchased":2835,"Ġcatch":2836,"ism":2837,"Ġbusiness":2838,"Ġtitle":2839,"iss":2840,"uts":2841,"Ġhumor":2842,"Ġice":2843,"Ġhandy":2844,"Ġbehind":2845,"ho":2846,"Ġbulb":2847,"Ġsamsung":2848,"Ġchoice":2849,"Ġclosed":2850,"Ġshirts":2851,"Ġguide":2852,"Ġincred":2853,"Ġfur":2854,"Ġchapter":2855,"Ġdeveloped":2856,"Ġlines":2857,"Ġperiod":2858,"iece":2859,"Ġweather":2860,"Ġwed":2861,"Ġru":2862,"Ġwindows":2863,"Ġrip":2864,"ident":2865,"Ġcharged":2866,"graph":2867,"Ġplugged":2868,"Ġfish":2869,"Ġoffice":2870,"Ġdust":2871,"Ġaf":2872,"Ġpot":2873,"Ġcoun":2874,"only":2875,"land":2876,"esting":2877,"Ġpressure":2878,"beautiful":2879,"Ġwid":2880,"Ġrock":2881,"Ġgraph":2882,"ises":2883,"Ġimage":2884,"Ġlang":2885,"Ġsitting":2886,"Ġimportant":2887,"ney":2888,"Ġlim":2889,"Ġready":2890,"Ġround":2891,"Ġstorage":2892,"Ġperhaps":2893,"Ġcurrent":2894,"Ġfinger":2895,"Ġeye":2896,"Ġtab":2897,"Ġmatt":2898,"Ġinsp":2899,"rived":2900,"Ġtips":2901,"Ġcush":2902,"itter":2903,"ems":2904,"itor":2905,"Ġthicker":2906,"Ġhose":2907,"cro":2908,"Ġscratches":2909,"Ġequ":2910,"Ġdecor":2911,"Ġonto":2912,"Ġpat":2913,"Ġadvent":2914,"Ġmotor":2915,"Ġsuppose":2916,"ctions":2917,"Ġdan":2918,"Ġpackaged":2919,"Ġinex":2920,"Ġarms":2921,"ior":2922,"iculous":2923,"Ġansw":2924,"Ġwants":2925,"Ġgal":2926,"Ġhanging":2927,"some":2928,"Ġtough":2929,"Ġlangu":2930,"Ġsteel":2931,"Ġbeware":2932,"Ġank":2933,"Ġrug":2934,"Ġprovide":2935,"Ġexplain":2936,"rib":2937,"Ġforever":2938,"Ġtruck":2939,"Ġrain":2940,"Ġworse":2941,"Ġnet":2942,"Ġeffect":2943,"Ġdepth":2944,"jor":2945,"Ġhealth":2946,"ove":2947,"ines":2948,"Ġstays":2949,"Ġeyes":2950,"Ġthroughout":2951,"Ġps":2952,"lly":2953,"Ġassemb":2954,"Ġunable":2955,"Ġfeed":2956,"rig":2957,"Ġclos":2958,"bbles":2959,"Ġmir":2960,"Ġstarts":2961,"Ġeverywhere":2962,"Ġfoam":2963,"Ġef":2964,"Ġarch":2965,"Ġsticks":2966,"Ġcleaning":2967,"Ġsubject":2968,"gar":2969,"Ġvelcro":2970,"ples":2971,"venient":2972,"Ġflaw":2973,"Ġvoice":2974,"Ġton":2975,"Ġtrick":2976,"Ġfilled":2977,"Ġcables":2978,"Ġiron":2979,"Ġlisted":2980,"Ġdouble":2981,"Ġacting":2982,"Ġpairs":2983,"bers":2984,"Ġquit":2985,"ories":2986,"Ġpurse":2987,"Ġscenes":2988,"Ġprofess":2989,"Ġpound":2990,"Ġsix":2991,"ination":2992,"Ġalot":2993,"Ġunus":2994,"Ġeffort":2995,"work":2996,"Ġlanguage":2997,"Ġcred":2998,"val":2999,"Ġhurt":3000,"lus":3001,"Ġshorter":3002,"Ġsnap":3003,"Ġliterally":3004,"ially":3005,"con":3006,"Ġinexpensive":3007,"Ġflex":3008,"arent":3009,"Ġpool":3010,"rors":3011,"icated":3012,"Ġcovered":3013,"ught":3014,"Ġanim":3015,"Ġlovely":3016,"ugg":3017,"oid":3018,"Ġupon":3019,"asp":3020,"Ġlearned":3021,"Ġclothes":3022,"Ġteen":3023,"Ġapple":3024,"Ġrelation":3025,"Ġna":3026,"Ġduty":3027,"Ġlearning":3028,"Ġtoes":3029,"ural":3030,"Ġmisle":3031,"Ġmajor":3032,"Ġcapt":3033,"mi":3034,"Ġcla":3035,"Ġep":3036,"Ġcir":3037,"Ġwo":3038,"Ġapply":3039,"Ġpurple":3040,"bro":3041,"Ġtank":3042,"Ġbal":3043,"Ġcalled":3044,"Ġabove":3045,"Ġrepe":3046,"Ġshorts":3047,"Ġmel":3048,"Ġwidth":3049,"Ġsweat":3050,"Ġowned":3051,"Ġguys":3052,"Ġten":3053,"Ġkeys":3054,"Ġmed":3055,"ground":3056,"Ġearr":3057,"Ġattem":3058,"Ġlif":3059,"ceived":3060,"Ġtip":3061,"Ġodd":3062,"Ġremind":3063,"Ġant":3064,"super":3065,"pod":3066,"Ġtaken":3067,"Ġadh":3068,"Ġdull":3069,"Ġsequ":3070,"Ġthor":3071,"Ġsole":3072,"Ġleak":3073,"Ġben":3074,"Ġtun":3075,"Ġdamage":3076,"Ġspring":3077,"Ġhappens":3078,"Ġimprove":3079,"Ġfly":3080,"Ġdial":3081,"etooth":3082,"Ġadorable":3083,"lier":3084,"uit":3085,"Ġsucks":3086,"Ġelastic":3087,"Ġstores":3088,"iring":3089,"Ġjew":3090,"Ġcomb":3091,"Ġspeakers":3092,"Ġridiculous":3093,"Ġconsidering":3094,"Ġrequired":3095,"Ġfoc":3096,"pend":3097,"col":3098,"Ġtools":3099,"Ġstitching":3100,"sle":3101,"ivid":3102,"Ġclock":3103,"Ġbring":3104,"Ġassemble":3105,"Ġrelationsh":3106,"ped":3107,"Ġmattress":3108,"Ġfiction":3109,"Ġcast":3110,"Ġcamp":3111,"Ġtag":3112,"Ġposition":3113,"Ġzero":3114,"ented":3115,"ills":3116,"by":3117,"Ġexchange":3118,"Ġdollars":3119,"lect":3120,"irst":3121,"Ġconfusing":3122,"Ġbluetooth":3123,"Ġcell":3124,"ipe":3125,"Ġmeans":3126,"can":3127,"although":3128,"Ġgirls":3129,"Ġamerican":3130,"Ġmisleading":3131,"wards":3132,"Ġsets":3133,"Ġoccas":3134,"Ġdelic":3135,"Ġanywhere":3136,"Ġbeach":3137,"Ġcomplaints":3138,"Ġchapters":3139,"eal":3140,"Ġneg":3141,"Ġtighten":3142,"Ġscratched":3143,"Ġbunch":3144,"ads":3145,"Ġintrig":3146,"Ġtre":3147,"cessary":3148,"Ġexciting":3149,"Ġlaw":3150,"Ġbrace":3151,"Ġorange":3152,"Ġmorning":3153,"Ġheav":3154,"sel":3155,"Ġspo":3156,"Ġhistorical":3157,"ils":3158,"Ġsister":3159,"Ġtar":3160,"Ġride":3161,"Ġprovided":3162,"Ġnovels":3163,"Ġsleeves":3164,"Ġlighter":3165,"Ġintended":3166,"Ġinformative":3167,"Ġbreaking":3168,"Ġfeatures":3169,"Ġcorners":3170,"iety":3171,"Ġbucks":3172,"Ġunique":3173,"Ġvib":3174,"Ġshut":3175,"Ġdoub":3176,"ured":3177,"ann":3178,"Ġquestions":3179,"Ġinstallation":3180,"interesting":3181,"Ġenglish":3182,"Ġbuck":3183,"ational":3184,"ker":3185,"uum":3186,"Ġlad":3187,"poor":3188,"Ġcorner":3189,"ital":3190,"Ġapplic":3191,"Ġcutting":3192,"Ġtie":3193,"Ġmeet":3194,"Ġthorough":3195,"kward":3196,"Ġmistake":3197,"Ġbackground":3198,"Ġchart":3199,"Ġpulled":3200,"Ġprovides":3201,"first":3202,"Ġund":3203,"Ġbrands":3204,"Ġmoder":3205,"Ġlives":3206,"Ġwheel":3207,"Ġchall":3208,"Ġupset":3209,"Ġneckl":3210,"char":3211,"ask":3212,"row":3213,"Ġfunctional":3214,"pite":3215,"Ġbrought":3216,"ah":3217,"arrived":3218,"received":3219,"Ġmaterials":3220,"Ġemot":3221,"Ġenc":3222,"Ġintro":3223,"Ġballs":3224,"Ġconnected":3225,"Ġhassle":3226,"Ġvacuum":3227,"Ġliving":3228,"Ġsmells":3229,"Ġfinding":3230,"Ġshowed":3231,"Ġprogram":3232,"Ġthru":3233,"body":3234,"Ġhardly":3235,"Ġreco":3236,"Ġchem":3237,"Ġseeing":3238,"cheap":3239,"Ġillustr":3240,"Ġsticker":3241,"Ġfrustrating":3242,"Ġcross":3243,"Ġbubbles":3244,"lored":3245,"Ġgala":3246,"Ġbackpack":3247,"Ġwebs":3248,"Ġgrey":3249,"Ġauthors":3250,"ron":3251,"Ġprinted":3252,"Ġwedding":3253,"item":3254,"Ġsmart":3255,"Ġprompt":3256,"Ġresults":3257,"Ġsaying":3258,"Ġknock":3259,"Ġavoid":3260,"Ġgalaxy":3261,"Ġwin":3262,"how":3263,"Ġsoftware":3264,"Ġslim":3265,"Ġsitu":3266,"Ġperformance":3267,"dis":3268,"iding":3269,"Ġseams":3270,"Ġsheet":3271,"Ġdest":3272,"Ġmemory":3273,"Ġphones":3274,"Ġask":3275,"Ġawkward":3276,"Ġtechn":3277,"Ġfem":3278,"Ġrepair":3279,"Ġedition":3280,"Ġfans":3281,"Ġattractive":3282,"Ġgrou":3283,"Ġtoys":3284,"Ġturning":3285,"med":3286,"Ġsubst":3287,"Ġsticky":3288,"would":3289,"utifully":3290,"Ġcushion":3291,"Ġalone":3292,"Ġconc":3293,"fun":3294,"Ġtemper":3295,"Ġjour":3296,"ify":3297,"ball":3298,"lla":3299,"even":3300,"Ġdetailed":3301,"Ġconvenient":3302,"uses":3303,"ency":3304,"put":3305,"Ġfake":3306,"Ġbat":3307,"ension":3308,"Ġobviously":3309,"Ġsnow":3310,"Ġstrange":3311,"Ġmr":3312,"Ġsurprise":3313,"fin":3314,"Ġminute":3315,"Ġkick":3316,"Ġcollar":3317,"time":3318,"Ġproof":3319,"Ġconsist":3320,"Ġjump":3321,"Ġwonder":3322,"Ġcountry":3323,"chan":3324,"Ġpc":3325,"Ġmold":3326,"ished":3327,"Ġsew":3328,"Ġthinner":3329,"Ġeffective":3330,"Ġba":3331,"Ġgeneral":3332,"Ġfigured":3333,"Ġvariety":3334,"terrible":3335,"Ġplaced":3336,"Ġnegative":3337,"orge":3338,"ging":3339,"Ġcry":3340,"Ġmechan":3341,"Ġlasts":3342,"Ġerrors":3343,"awesome":3344,"Ġquiet":3345,"Ġpens":3346,"Ġleaks":3347,"ga":3348,"icle":3349,"ances":3350,"Ġeventually":3351,"Ġfingers":3352,"hn":3353,"Ġlamp":3354,"Ġbible":3355,"Ġplain":3356,"Ġtypical":3357,"Ġmessage":3358,"Ġkill":3359,"Ġclips":3360,"cum":3361,"Ġreasonable":3362,"erc":3363,"Ġgrind":3364,"Ġbrother":3365,"Ġcurtain":3366,"Ġcredit":3367,"Ġwatched":3368,"Ġsignal":3369,"Ġking":3370,"Ġlb":3371,"Ġtree":3372,"Ġhardware":3373,"Ġfaded":3374,"Ġdownload":3375,"Ġbelievable":3376,"Ġbey":3377,"Ġmanufacturer":3378,"Ġski":3379,"Ġunb":3380,"Ġregard":3381,"Ġaware":3382,"Ġmm":3383,"cing":3384,"Ġspots":3385,"Ġheight":3386,"Ġcoat":3387,"Ġlink":3388,"Ġremoved":3389,"Ġhooked":3390,"Ġoptions":3391,"Ġcontainer":3392,"Ġdeg":3393,"Ġbill":3394,"ource":3395,"Ġsuc":3396,"Ġtodd":3397,"oose":3398,"Ġrack":3399,"Ġbottles":3400,"Ġshame":3401,"Ġmeant":3402,"Ġboxes":3403,"Ġareas":3404,"Ġhandles":3405,"selves":3406,"pointed":3407,"rench":3408,"Ġearrings":3409,"Ġdollar":3410,"Ġpicked":3411,"Ġmanual":3412,"Ġseconds":3413,"uss":3414,"Ġtrust":3415,"Ġattempt":3416,"Ġfixed":3417,"Ġstring":3418,"Ġnecklace":3419,"Ġcompat":3420,"Ġnat":3421,"Ġmoved":3422,"Ġcas":3423,"Ġwebsite":3424,"Ġshop":3425,"every":3426,"Ġprodu":3427,"Ġot":3428,"Ġfollowed":3429,"Ġchest":3430,"ax":3431,"Ġdon":3432,"head":3433,"Ġpenc":3434,"ries":3435,"bing":3436,"Ġarrive":3437,"Ġrecently":3438,"Ġclick":3439,"Ġoverp":3440,"rit":3441,"Ġcre":3442,"ded":3443,"port":3444,"Ġpacked":3445,"Ġbecom":3446,"Ġbeyond":3447,"Ġbreaks":3448,"Ġadjustable":3449,"Ġoem":3450,"ential":3451,"Ġdevices":3452,"hip":3453,"Ġtee":3454,"Ġnic":3455,"Ġver":3456,"Ġplate":3457,"Ġpleas":3458,"Ġbreat":3459,"Ġgas":3460,"Ġpads":3461,"gged":3462,"ley":3463,"Ġinternet":3464,"Ġguit":3465,"ified":3466,"Ġcaught":3467,"Ġdespite":3468,"Ġchocol":3469,"Ġwrink":3470,"eared":3471,"Ġfaster":3472,"Ġrings":3473,"Ġaccept":3474,"Ġhuman":3475,"Ġways":3476,"Ġshelf":3477,"Ġbeautifully":3478,"Ġreli":3479,"proof":3480,"Ġpoints":3481,"Ġblock":3482,"Ġlikely":3483,"Ġpic":3484,"Ġminim":3485,"Ġblan":3486,"uing":3487,"Ġsuction":3488,"Ġcompact":3489,"Ġappreciate":3490,"Ġrich":3491,"Ġearlier":3492,"Ġmissed":3493,"Ġwireless":3494,"Ġreference":3495,"Ġtherefore":3496,"Ġgray":3497,"Ġoutdo":3498,"Ġtastes":3499,"Ġfirm":3500,"Ġheavier":3501,"Ġabs":3502,"acing":3503,"Ġstates":3504,"raid":3505,"Ġcol":3506,"Ġinvol":3507,"Ġdisco":3508,"Ġvi":3509,"Ġbathroom":3510,"Ġhy":3511,"Ġactiv":3512,"Ġhonestly":3513,"Ġcy":3514,"Ġjohn":3515,"Ġtexture":3516,"Ġworkout":3517,"Ġpadding":3518,"pet":3519,"Ġrd":3520,"Ġspir":3521,"Ġtur":3522,"Ġsplit":3523,"Ġformat":3524,"Ġwires":3525,"hile":3526,"Ġawhile":3527,"horrible":3528,"Ġtube":3529,"Ġapparent":3530,"Ġafraid":3531,"Ġtub":3532,"Ġbegan":3533,"asc":3534,"Ġpuzz":3535,"Ġoffer":3536,"Ġsnapped":3537,"Ġrepet":3538,"pos":3539,"Ġmoves":3540,"case":3541,"Ġroad":3542,"nam":3543,"Ġger":3544,"Ġwrap":3545,"Ġflip":3546,"Ġod":3547,"lass":3548,"Ġuns":3549,"Ġhood":3550,"Ġrand":3551,"Ġveh":3552,"Ġtill":3553,"Ġpractical":3554,"Ġshoot":3555,"oooo":3556,"Ġslipper":3557,"Ġaltern":3558,"Ġcounter":3559,"Ġexerc":3560,"Ġstylish":3561,"Ġgroup":3562,"Ġseparate":3563,"Ġstudy":3564,"Ġpractice":3565,"Ġsurv":3566,"Ġwheels":3567,"esive":3568,"gest":3569,"Ġpowerful":3570,"itions":3571,"Ġbowl":3572,"ili":3573,"Ġbust":3574,"Ġfu":3575,"Ġasked":3576,"Ġemail":3577,"Ġlibr":3578,"Ġrecogn":3579,"Ġleaving":3580,"Ġadventure":3581,"Ġreads":3582,"met":3583,"riced":3584,"pri":3585,"key":3586,"Ġlistening":3587,"outh":3588,"Ġinit":3589,"Ġwider":3590,"disappoin":3591,"Ġreaders":3592,"Ġelsewhere":3593,"happy":3594,"could":3595,"Ġthoroughly":3596,"Ġnail":3597,"Ġsink":3598,"Ġdimens":3599,"Ġsite":3600,"Ġchocolate":3601,"Ġhallow":3602,"Ġju":3603,"Ġprofessional":3604,"Ġrealized":3605,"Ġbur":3606,"illy":3607,"Ġprep":3608,"Ġtom":3609,"Ġtalk":3610,"Ġadditional":3611,"Ġantic":3612,"Ġfrequ":3613,"vis":3614,"Ġpuppy":3615,"Ġpositive":3616,"Ġbracelet":3617,"oc":3618,"Ġplays":3619,"Ġmonitor":3620,"Ġest":3621,"Ġseriously":3622,"Ġresist":3623,"Ġjewel":3624,"Ġclasp":3625,"Ġsuccess":3626,"Ġsadly":3627,"Ġconstructed":3628,"Ġstickers":3629,"Ġgard":3630,"Ġmouth":3631,"Ġtale":3632,"Ġboys":3633,"Ġadvice":3634,"arm":3635,"Ġbutter":3636,"Ġyard":3637,"lls":3638,"Ġlimited":3639,"Ġjam":3640,"Ġguitar":3641,"bble":3642,"Ġhalloween":3643,"Ġdialog":3644,"Ġmarket":3645,"ims":3646,"Ġshrink":3647,"Ġmentioned":3648,"Ġing":3649,"Ġclub":3650,"Ġcompatible":3651,"ux":3652,"ety":3653,"Ġskirt":3654,"Ġdarker":3655,"ribly":3656,"Ġfash":3657,"Ġsuff":3658,"Ġresol":3659,"Ġdoubt":3660,"uth":3661,"Ġcomment":3662,"Ġdad":3663,"Ġpublish":3664,"mmed":3665,"Ġlibrary":3666,"Ġmax":3667,"Ġshock":3668,"Ġprime":3669,"Ġhun":3670,"Ġcartridge":3671,"Ġindivid":3672,"Ġcolored":3673,"Ġflag":3674,"Ġut":3675,"Ġuser":3676,"Ġinvest":3677,"Ġenjoying":3678,"Ġcooking":3679,"Ġess":3680,"came":3681,"Ġfashion":3682,"Ġimagine":3683,"pective":3684,"Ġthemselves":3685,"Ġstone":3686,"Ġupgr":3687,"Ġwhatever":3688,"ushed":3689,"Ġipod":3690,"Ġrot":3691,"Ġposs":3692,"Ġsport":3693,"Ġtore":3694,"Ġsection":3695,"Ġchose":3696,"Ġprotects":3697,"Ġforget":3698,"Ġcam":3699,"Ġbass":3700,"Ġevents":3701,"Ġregret":3702,"Ġsmo":3703,"Ġlogo":3704,"Ġportion":3705,"Ġmirror":3706,"Ġblend":3707,"Ġadhesive":3708,"fo":3709,"Ġcharges":3710,"Ġerror":3711,"Ġworthless":3712,"ulty":3713,"Ġblow":3714,"orted":3715,"Ġrandom":3716,"Ġrecie":3717,"Ġadults":3718,"Ġchoose":3719,"Ġwaterproof":3720,"Ġinclude":3721,"Ġdestro":3722,"Ġnumbers":3723,"friend":3724,"Ġepis":3725,"Ġprotective":3726,"Ġsaved":3727,"Ġcompar":3728,"Ġallows":3729,"Ġchann":3730,"Ġfemale":3731,"Ġcream":3732,"Ġft":3733,"Ġheadset":3734,"Ġanticip":3735,"Ġfactory":3736,"ids":3737,"Ġsetup":3738,"asy":3739,"Ġgifts":3740,"ii":3741,"Ġdirt":3742,"Ġincredibly":3743,"sen":3744,"Ġwrites":3745,"Ġrated":3746,"Ġtemperature":3747,"Ġafford":3748,"Ġpromised":3749,"Ġangle":3750,"Ġcro":3751,"Ġshot":3752,"Ġsale":3753,"Ġempt":3754,"Ġspecific":3755,"Ġfro":3756,"ifi":3757,"rif":3758,"Ġident":3759,"Ġvarious":3760,"Ġsexy":3761,"Ġpaying":3762,"Ġanten":3763,"Ġliqu":3764,"Ġgrill":3765,"elie":3766,"Ġknows":3767,"ege":3768,"Ġoverpriced":3769,"Ġdissa":3770,"Ġreplacing":3771,"lied":3772,"Ġstre":3773,"Ġankle":3774,"Ġmer":3775,"Ġsandals":3776,"Ġtorn":3777,"Ġwrote":3778,"Ġhol":3779,"Ġstea":3780,"Ġplant":3781,"Ġbes":3782,"ison":3783,"app":3784,"Ġpaced":3785,"Ġtired":3786,"Ġfight":3787,"anced":3788,"orgeous":3789,"Ġcabin":3790,"Ġfrag":3791,"Ġcuts":3792,"Ġswim":3793,"Ġbelow":3794,"Ġsleeve":3795,"Ġfather":3796,"Ġspin":3797,"Ġmodern":3798,"Ġsugar":3799,"Ġtimely":3800,"Ġegg":3801,"Ġdece":3802,"Ġrealistic":3803,"Ġinsert":3804,"pected":3805,"Ġcardboard":3806,"Ġhooks":3807,"Ġincluding":3808,"wash":3809,"Ġstate":3810,"Ġunlike":3811,"Ġdrag":3812,"Ġexception":3813,"Ġflexible":3814,"Ġrelease":3815,"neath":3816,"Ġsequel":3817,"Ġunderneath":3818,"Ġstayed":3819,"Ġdried":3820,"Ġaccom":3821,"Ġtowel":3822,"Ġshap":3823,"Ġload":3824,"Ġnecessary":3825,"mit":3826,"Ġletters":3827,"Ġhols":3828,"fl":3829,"mart":3830,"Ġglove":3831,"Ġcraf":3832,"Ġcharm":3833,"Ġglued":3834,"Ġsam":3835,"Ġparticularly":3836,"Ġcollege":3837,"Ġdy":3838,"Ġunusable":3839,"Ġrelationship":3840,"Ġge":3841,"Ġgarden":3842,"Ġcarpet":3843,"Ġfurther":3844,"Ġperspective":3845,"Ġbind":3846,"Ġbadly":3847,"Ġleaked":3848,"Ġwise":3849,"absolutely":3850,"Ġremain":3851,"unfortunately":3852,"Ġinfl":3853,"Ġboyfriend":3854,"Ġoz":3855,"Ġmaster":3856,"Ġgrab":3857,"Ġauto":3858,"another":3859,"uring":3860,"Ġrear":3861,"Ġshoulder":3862,"Ġther":3863,"Ġprem":3864,"cannot":3865,"Ġdigital":3866,"esh":3867,"Ġdaughters":3868,"Ġtrad":3869,"Ġmounting":3870,"Ġbud":3871,"Ġwashes":3872,"Ġbored":3873,"acy":3874,"Ġshowing":3875,"Ġforce":3876,"Ġquestion":3877,"Ġdepend":3878,"Ġharder":3879,"Ġbear":3880,"Ġartist":3881,"Ġunhappy":3882,"tr":3883,"Ġalright":3884,"Ġstainless":3885,"Ġvend":3886,"enjoy":3887,"Ġsoap":3888,"cket":3889,"ery":3890,"seems":3891,"Ġneat":3892,"Ġindic":3893,"Ġcode":3894,"Ġzip":3895,"Ġcommon":3896,"icient":3897,"Ġprevent":3898,"Ġgarage":3899,"ata":3900,"Ġassembly":3901,"Ġworry":3902,"Ġblades":3903,"Ġgy":3904,"sp":3905,"Ġult":3906,"itty":3907,"Ġland":3908,"Ġsurprising":3909,"inating":3910,"Ġengaging":3911,"Ġsta":3912,"Ġbands":3913,"Ġtor":3914,"Ġstronger":3915,"Ġneither":3916,"Ġtad":3917,"Ġdem":3918,"Ġunre":3919,"Ġpersonally":3920,"Ġapparently":3921,"gth":3922,"Ġtoddler":3923,"Ġturner":3924,"Ġgramm":3925,"Ġstudents":3926,"attering":3927,"sm":3928,"ledge":3929,"Ġfocus":3930,"Ġtalking":3931,"Ġleaking":3932,"Ġpricey":3933,"onse":3934,"atisf":3935,"Ġthreads":3936,"othing":3937,"ips":3938,"uce":3939,"Ġmarks":3940,"Ġdu":3941,"Ġscience":3942,"inst":3943,"Ġdiss":3944,"Ġnut":3945,"Ġparen":3946,"Ġblanket":3947,"Ġchanging":3948,"Ġholster":3949,"Ġcontroller":3950,"Ġnatural":3951,"Ġarrival":3952,"Ġrequires":3953,"Ġaccount":3954,"Ġconnector":3955,"Ġfal":3956,"Ġunderstanding":3957,"etic":3958,"Ġgrade":3959,"Ġingred":3960,"Ġsalt":3961,"Ġantenna":3962,"Ġtemp":3963,"Ġeating":3964,"Ġms":3965,"Ġshiny":3966,"ients":3967,"Ġstren":3968,"Ġfragile":3969,"Ġang":3970,"Ġannoyed":3971,"Ġresponse":3972,"Ġchick":3973,"Ġsquare":3974,"pes":3975,"Ġaccord":3976,"Ġprior":3977,"Ġbars":3978,"Ġsolution":3979,"Ġdelight":3980,"Ġlacking":3981,"ru":3982,"Ġcartridges":3983,"Ġslides":3984,"Ġstrings":3985,"Ġsharpen":3986,"Ġfilters":3987,"Ġchemical":3988,"Ġtelling":3989,"Ġengine":3990,"Ġsettings":3991,"Ġbalance":3992,"Ġblur":3993,"Ġpulling":3994,"Ġfitted":3995,"Ġguessing":3996,"Ġque":3997,"Ġagree":3998,"Ġillustrations":3999,"Ġpeeling":4000,"Ġcri":4001,"Ġlunch":4002,"Ġcompart":4003,"Ġchristian":4004,"Ġdrama":4005,"Ġseeds":4006,"Ġresult":4007,"Ġtrail":4008,"Ġray":4009,"Ġpounds":4010,"Ġgoo":4011,"Ġapplication":4012,"ike":4013,"Ġreviewers":4014,"Ġbon":4015,"arily":4016,"arn":4017,"Ġpreviously":4018,"Ġaccident":4019,"Ġxx":4020,"Ġcaused":4021,"Ġexist":4022,"Ġsilic":4023,"anger":4024,"Ġcasual":4025,"Ġinvolved":4026,"umin":4027,"Ġdescriptions":4028,"Ġscra":4029,"Ġsyn":4030,"eper":4031,"Ġrare":4032,"Ġniece":4033,"Ġdie":4034,"Ġdestroy":4035,"Ġotter":4036,"Ġability":4037,"Ġgear":4038,"antic":4039,"Ġstrength":4040,"Ġchalleng":4041,"Ġmoment":4042,"form":4043,"Ġcent":4044,"standing":4045,"Ġmad":4046,"Ġprinting":4047,"Ġweb":4048,"action":4049,"Ġprotected":4050,"Ġvehicle":4051,"Ġyoun":4052,"Ġthus":4053,"Ġyog":4054,"Ġyounger":4055,"Ġsweater":4056,"onnect":4057,"Ġtown":4058,"fast":4059,"Ġgym":4060,"Ġcarrying":4061,"Ġchinese":4062,"Ġtraining":4063,"lection":4064,"Ġny":4065,"Ġaspect":4066,"Ġmiles":4067,"Ġknowledge":4068,"Ġempty":4069,"Ġtail":4070,"Ġruined":4071,"Ġdin":4072,"wear":4073,"Ġoutfit":4074,"Ġfasc":4075,"Ġgraphics":4076,"Ġpol":4077,"Ġspark":4078,"Ġchanges":4079,"Ġappropri":4080,"Ġsomewhere":4081,"Ġwrapped":4082,"Ġelectric":4083,"log":4084,"Ġdirectly":4085,"Ġfriendly":4086,"Ġroo":4087,"Ġediting":4088,"best":4089,"Ġinner":4090,"Ġcandy":4091,"Ġincor":4092,"Ġweigh":4093,"Ġrelax":4094,"Ġpromptly":4095,"Ġcontacted":4096,"amaz":4097,"Ġgorgeous":4098,"Ġslippery":4099,"izing":4100,"Ġjoke":4101,"Ġtops":4102,"Ġbutt":4103,"Ġdimensions":4104,"iving":4105,"Ġsits":4106,"Ġusa":4107,"Ġdeter":4108,"Ġskip":4109,"will":4110,"Ġsquee":4111,"Ġdriving":4112,"Ġdocum":4113,"Ġwig":4114,"Ġsensitive":4115,"lli":4116,"zen":4117,"thought":4118,"Ġpolit":4119,"Ġtypes":4120,"Ġreceiving":4121,"Ġwhether":4122,"Ġtruth":4123,"Ġtells":4124,"att":4125,"Ġlining":4126,"ionally":4127,"Ġcult":4128,"Ġbreath":4129,"Ġcars":4130,"Ġscar":4131,"Ġunbelie":4132,"Ġviol":4133,"wood":4134,"Ġcirc":4135,"aly":4136,"Ġfollowing":4137,"Ġvideos":4138,"Ġabsor":4139,"Ġfacts":4140,"Ġparents":4141,"Ġloss":4142,"Ġfunctions":4143,"Ġchecked":4144,"ude":4145,"Ġthrilled":4146,"Ġminor":4147,"Ġspl":4148,"phew":4149,"disappointed":4150,"quality":4151,"Ġlegg":4152,"Ġreliable":4153,"Ġodor":4154,"Ġcords":4155,"allow":4156,"Ġnephew":4157,"Ġvibrant":4158,"Ġbesides":4159,"Ġtoss":4160,"Ġwalmart":4161,"Ġinser":4162,"Ġspirit":4163,"Ġnose":4164,"Ġfreez":4165,"Ġholid":4166,"Ġmanner":4167,"bor":4168,"Ġrechar":4169,"Ġluckily":4170,"Ġpouch":4171,"Ġphotograph":4172,"Ġworried":4173,"Ġjewelry":4174,"Ġhp":4175,"Ġtheme":4176,"Ġbasket":4177,"ta":4178,"Ġburned":4179,"Ġindividual":4180,"Ġjourney":4181,"Ġcausing":4182,"Ġliquid":4183,"Ġdryer":4184,"Ġnicer":4185,"iling":4186,"Ġdefect":4187,"Ġwow":4188,"Ġsilly":4189,"Ġinstalling":4190,"Ġdrill":4191,"Ġhealthy":4192,"Ġsight":4193,"Ġusable":4194,"Ġhopes":4195,"Ġstones":4196,"Ġcloser":4197,"Ġbene":4198,"Ġlenses":4199,"washer":4200,"Ġvacation":4201,"Ġcomplicated":4202,"Ġmask":4203,"Ġclaim":4204,"Ġpremise":4205,"Ġbuyer":4206,"des":4207,"Ġfantasy":4208,"rief":4209,"Ġrelative":4210,"Ġtowels":4211,"Ġmug":4212,"small":4213,"Ġstrugg":4214,"kend":4215,"Ġmode":4216,"ave":4217,"Ġpopped":4218,"Ġmeasurements":4219,"uch":4220,"Ġshif":4221,"Ġdishwasher":4222,"Ġrecieved":4223,"Ġthigh":4224,"Ġdelicious":4225,"Ġade":4226,"Ġshade":4227,"Ġcompare":4228,"Ġassum":4229,"Ġrepetitive":4230,"Ġscent":4231,"Ġmale":4232,"Ġpor":4233,"Ġanswer":4234,"expected":4235,"Ġflick":4236,"ato":4237,"Ġusage":4238,"isters":4239,"Ġhung":4240,"Ġfalse":4241,"piece":4242,"Ġtrain":4243,"Ġvendor":4244,"Ġcamping":4245,"Ġsupply":4246,"sc":4247,"Ġstops":4248,"Ġclar":4249,"Ġdata":4250,"Ġbummer":4251,"enced":4252,"Ġcommun":4253,"omb":4254,"Ġbread":4255,"verse":4256,"Ġdeath":4257,"Ġrob":4258,"Ġbecomes":4259,"overall":4260,"Ġminimal":4261,"Ġlog":4262,"Ġtransfer":4263,"Ġcoloring":4264,"Ġdurability":4265,"Ġheads":4266,"Ġimages":4267,"Ġlam":4268,"Ġexplan":4269,"Ġreflect":4270,"Ġsignific":4271,"oop":4272,"lock":4273,"Ġletter":4274,"Ġlitter":4275,"Ġdrawn":4276,"Ġoutdoor":4277,"Ġease":4278,"wow":4279,"Ġwifi":4280,"rific":4281,"Ġconv":4282,"Ġstretched":4283,"Ġskinny":4284,"Ġactors":4285,"Ġmaker":4286,"Ġvan":4287,"Ġstylus":4288,"exact":4289,"Ġinte":4290,"Ġclothing":4291,"Ġappeared":4292,"Ġgreatest":4293,"Ġlighting":4294,"Ġsomehow":4295,"idge":4296,"den":4297,"Ġmixed":4298,"Ġmeaning":4299,"Ġreality":4300,"umps":4301,"Ġshare":4302,"ik":4303,"ring":4304,"Ġoffers":4305,"Ġdissapointed":4306,"Ġbrings":4307,"lts":4308,"Ġoffered":4309,"Ġaccording":4310,"Ġdialogue":4311,"Ġcomfortably":4312,"ayed":4313,"mans":4314,"Ġpins":4315,"iliar":4316,"Ġsaf":4317,"Ġleggings":4318,"URL":4319,"Ġnuts":4320,"Ġviny":4321,"Ġplugs":4322,"Ġslowly":4323,"Ġrod":4324,"Ġtray":4325,"Ġknives":4326,"Ġirrit":4327,"Ġdrain":4328,"Ġdirection":4329,"Ġhated":4330,"made":4331,"Ġweekend":4332,"color":4333,"Ġdrawer":4334,"Ġcake":4335,"Ġequip":4336,"Ġcarefully":4337,"Ġslot":4338,"Ġrespond":4339,"quate":4340,"Ġnoticeable":4341,"Ġmagic":4342,"Ġenjoys":4343,"attered":4344,"Ġhdmi":4345,"Ġdream":4346,"isy":4347,"Ġgrad":4348,"Ġcreate":4349,"Ġgenre":4350,"Ġthrown":4351,"Ġhing":4352,"Ġalternative":4353,"Ġtradition":4354,"ury":4355,"Ġpace":4356,"eded":4357,"nothing":4358,"isk":4359,"Ġwished":4360,"Ġwondering":4361,"Ġbeginner":4362,"Ġbottoms":4363,"Ġteeth":4364,"Ġvinyl":4365,"Ġspill":4366,"Ġpure":4367,"Ġbum":4368,"Ġjun":4369,"Ġserves":4370,"Ġhub":4371,"Ġincre":4372,"Ġtested":4373,"Ġdownside":4374,"Ġingredients":4375,"Ġgam":4376,"Ġahead":4377,"Ġtransl":4378,"Ġsony":4379,"Ġban":4380,"Ġpacks":4381,"Ġfluff":4382,"Ġdriver":4383,"Ġspare":4384,"Ġbuilding":4385,"Ġly":4386,"Ġdeser":4387,"Ġwine":4388,"Ġtooth":4389,"Ġlatch":4390,"Ġplants":4391,"Ġdepress":4392,"lasses":4393,"Ġouter":4394,"Ġboo":4395,"Ġsteps":4396,"ously":4397,"Ġbedroom":4398,"Ġstable":4399,"Ġrh":4400,"erior":4401,"Ġdeck":4402,"Ġknowing":4403,"wr":4404,"Ġbiggest":4405,"Ġbuckle":4406,"Ġtowards":4407,"Ġshoulders":4408,"Ġcomments":4409,"aste":4410,"Ġequipment":4411,"Ġsewn":4412,"Ġpatch":4413,"exactly":4414,"Ġscri":4415,"Ġflashlight":4416,"Ġmoments":4417,"Ġanticipated":4418,"Ġstream":4419,"Ġchurch":4420,"ager":4421,"Ġportable":4422,"Ġadds":4423,"Ġdrops":4424,"rage":4425,"Ġcomplex":4426,"ium":4427,"Ġoriginally":4428,"Ġboat":4429,"Ġchips":4430,"atisfied":4431,"Ġelectron":4432,"Ġbrighter":4433,"Ġgrowing":4434,"Ġshred":4435,"Ġwaited":4436,"Ġimprovement":4437,"Ġlift":4438,"Ġloving":4439,"Ġlit":4440,"Ġmill":4441,"Ġdistance":4442,"Ġappropriate":4443,"Ġglow":4444,"Ġmagnetic":4445,"Ġintriguing":4446,"Ġpotential":4447,"Ġcreative":4448,"Ġautom":4449,"Ġupper":4450,"Ġphys":4451,"Ġplanning":4452,"ibility":4453,"Ġprojects":4454,"manship":4455,"broke":4456,"Ġsung":4457,"ees":4458,"Ġconvers":4459,"Ġdiet":4460,"uro":4461,"Ġages":4462,"Ġtan":4463,"bit":4464,"Ġobs":4465,"Ġnur":4466,"Ġpainted":4467,"Ġaffordable":4468,"Ġsticking":4469,"Ġmal":4470,"Ġeduc":4471,"Ġmoist":4472,"erv":4473,"Ġmechanism":4474,"Ġcalls":4475,"Ġrecording":4476,"Ġgraphic":4477,"Ġhes":4478,"Ġcolorful":4479,"Ġpowder":4480,"Ġrou":4481,"Ġpublic":4482,"Ġspan":4483,"Ġexamples":4484,"Ġsource":4485,"omend":4486,"Ġrecomend":4487,"Ġbump":4488,"Ġbubble":4489,"Ġsliding":4490,"Ġexample":4491,"Ġfinal":4492,"Ġchipped":4493,"Ġcale":4494,"duction":4495,"Ġunbelievable":4496,"Ġske":4497,"Ġcompe":4498,"Ġtends":4499,"Ġcauses":4500,"Ġcontinues":4501,"Ġchip":4502,"Ġsensor":4503,"Ġcompress":4504,"Ġups":4505,"ackets":4506,"Ġriding":4507,"Ġener":4508,"decent":4509,"Ġscale":4510,"Ġtarget":4511,"Ġfavorites":4512,"Ġdisconnect":4513,"Ġmacbook":4514,"Ġstatic":4515,"Ġfaith":4516,"Ġfurn":4517,"Ġcontains":4518,"Ġselling":4519,"Ġbits":4520,"Ġgro":4521,"Ġtears":4522,"cho":4523,"Ġalarm":4524,"gress":4525,"bu":4526,"Ġmich":4527,"Ġsneak":4528,"Ġcontinu":4529,"Ġromantic":4530,"Ġsecurely":4531,"Ġbull":4532,"Ġbolts":4533,"here":4534,"Ġtrilogy":4535,"Ġbeads":4536,"Ġyoga":4537,"Ġnotes":4538,"Ġtighter":4539,"ula":4540,"hard":4541,"Ġxxl":4542,"Ġspecif":4543,"Ġmagnets":4544,"Ġmelted":4545,"Ġbacking":4546,"Ġvisible":4547,"Ġsilicone":4548,"Ġted":4549,"Ġoven":4550,"Ġtone":4551,"Ġports":4552,"Ġlesson":4553,"Ġhits":4554,"Ġincredible":4555,"Ġstation":4556,"Ġflattering":4557,"wond":4558,"ashed":4559,"Ġanimals":4560,"ec":4561,"Ġpunch":4562,"Ġtong":4563,"hood":4564,"Ġstretchy":4565,"Ġforth":4566,"aser":4567,"Ġfol":4568,"Ġhelmet":4569,"Ġthrowing":4570,"Ġsleeping":4571,"Ġreset":4572,"Ġfallen":4573,"Ġyester":4574,"Ġfascinating":4575,"Ġpuzzle":4576,"lets":4577,"shirt":4578,"Ġcosts":4579,"Ġmesh":4580,"Ġanti":4581,"Ġappearance":4582,"Ġlayer":4583,"ening":4584,"Ġcryst":4585,"Ġcoating":4586,"Ġfruit":4587,"Ġsco":4588,"Ġpour":4589,"vid":4590,"Ġfrequently":4591,"defin":4592,"Ġsick":4593,"Ġhr":4594,"Ġputs":4595,"much":4596,"Ġadding":4597,"Ġtreats":4598,"Ġjer":4599,"Ġreception":4600,"Ġgb":4601,"aa":4602,"Ġincorrect":4603,"Ġscript":4604,"Ġbrief":4605,"Ġtraveling":4606,"Ġpolish":4607,"Ġped":4608,"ches":4609,"Ġremoving":4610,"Ġslots":4611,"Ġloop":4612,"Ġcloset":4613,"Ġtire":4614,"cl":4615,"Ġsafety":4616,"erfully":4617,"Ġlived":4618,"Ġspending":4619,"Ġcity":4620,"Ġstat":4621,"Ġknee":4622,"Ġlids":4623,"asted":4624,"Ġorganized":4625,"Ġbird":4626,"kind":4627,"ened":4628,"Ġvent":4629,"Ġbulk":4630,"Ġdesigns":4631,"Ġmeat":4632,"Ġhips":4633,"Ġslippers":4634,"Ġoutstanding":4635,"mon":4636,"top":4637,"Ġfield":4638,"Ġconstant":4639,"Ġsituation":4640,"Ġmovement":4641,"Ġyesterday":4642,"Ġmounted":4643,"Ġsimpl":4644,"Ġcru":4645,"rees":4646,"Ġtracks":4647,"Ġcurrently":4648,"Ġauth":4649,"Ġcaps":4650,"edy":4651,"Ġjar":4652,"Ġupgrade":4653,"enjoyed":4654,"Ġgenerally":4655,"Ġlace":4656,"ched":4657,"Ġexpand":4658,"Ġconcerned":4659,"Ġscrub":4660,"uted":4661,"Ġeffects":4662,"lex":4663,"Ġfamiliar":4664,"Ġcleaner":4665,"Ġjoy":4666,"Ġselection":4667,"Ġpossibly":4668,"Ġyout":4669,"amazing":4670,"Ġgel":4671,"Ġpal":4672,"Ġsock":4673,"Ġtasted":4674,"Ġfrench":4675,"Ġextended":4676,"Ġmagaz":4677,"Ġtrim":4678,"Ġcrit":4679,"Ġnoisy":4680,"Ġthriller":4681,"Ġstands":4682,"bud":4683,"Ġrelate":4684,"Ġliking":4685,"Ġserve":4686,"Ġsealed":4687,"izer":4688,"Ġindo":4689,"install":4690,"Ġbaggy":4691,"Ġunexpected":4692,"chy":4693,"Ġlosing":4694,"Ġpassed":4695,"Ġzippers":4696,"Ġjan":4697,"ooked":4698,"Ġcalend":4699,"Ġmanage":4700,"ivity":4701,"Ġpillows":4702,"Ġbrilli":4703,"fli":4704,"mine":4705,"Ġmild":4706,"Ġchairs":4707,"Ġcooler":4708,"Ġpoly":4709,"Ġyoutube":4710,"Ġflowers":4711,"Ġexpo":4712,"with":4713,"dden":4714,"Ġsons":4715,"Ġrecipe":4716,"Ġstink":4717,"Ġteam":4718,"Ġamerica":4719,"Ġlady":4720,"Ġearth":4721,"Ġgrew":4722,"plug":4723,"Ġadvertising":4724,"lfriend":4725,"Ġrose":4726,"Ġlou":4727,"Ġpacking":4728,"Ġinstruction":4729,"tw":4730,"Ġwarning":4731,"Ġcleaned":4732,"definitely":4733,"Ġbirds":4734,"Ġscene":4735,"Ġden":4736,"Ġsudden":4737,"cription":4738,"Ġmart":4739,"Ġtang":4740,"icing":4741,"Ġhearing":4742,"theless":4743,"jo":4744,"Ġdanger":4745,"Ġcompelling":4746,"Ġinde":4747,"ulation":4748,"Ġrouter":4749,"may":4750,"Ġdash":4751,"Ġscary":4752,"but":4753,"Ġappeal":4754,"Ġentirely":4755,"ica":4756,"sole":4757,"Ġoverly":4758,"everything":4759,"Ġnavy":4760,"Ġcookbook":4761,"took":4762,"Ġoutlet":4763,"icy":4764,"Ġgent":4765,"Ġcandle":4766,"Ġshopping":4767,"Ġfolded":4768,"ey":4769,"iture":4770,"Ġgirlfriend":4771,"Ġshipment":4772,"Ġhous":4773,"Ġinitially":4774,"plete":4775,"Ġliner":4776,"Ġfort":4777,"Ġbummed":4778,"Ġteacher":4779,"Ġsnack":4780,"Ġsofter":4781,"mbre":4782,"rum":4783,"Ġterribly":4784,"Ġreorder":4785,"Ġmilk":4786,"nda":4787,"Ġcabinet":4788,"Ġfool":4789,"Ġharness":4790,"Ġbrew":4791,"Ġinspir":4792,"Ġpencil":4793,"ival":4794,"urb":4795,"Ġneigh":4796,"Ġbonus":4797,"Ġtires":4798,"Ġtraditional":4799,"Ġflu":4800,"rier":4801,"Ġrelig":4802,"Ġadjustment":4803,"Ġprotectors":4804,"Ġvia":4805,"Ġpulls":4806,"Ġpreferred":4807,"Ġrelatively":4808,"Ġterms":4809,"Ġpleasant":4810,"Ġcans":4811,"Ġguest":4812,"Ġrepeated":4813,"Ġcoverage":4814,"Ġlg":4815,"imately":4816,"Ġpant":4817,"Ġstudent":4818,"Ġgolf":4819,"Ġumbre":4820,"Ġsituations":4821,"Ġnames":4822,"ana":4823,"Ġfurniture":4824,"aking":4825,"Ġearbud":4826,"Ġfabulous":4827,"rupt":4828,"Ġaffect":4829,"Ġesca":4830,"Ġcris":4831,"wonderful":4832,"Ġstraw":4833,"Ġalumin":4834,"Ġspecifically":4835,"uary":4836,"entic":4837,"Ġdegrees":4838,"Ġmodels":4839,"return":4840,"Ġmeth":4841,"bl":4842,"Ġtin":4843,"Ġreve":4844,"Ġsaving":4845,"Ġaccessories":4846,"Ġslo":4847,"Ġblood":4848,"Ġreasonably":4849,"Ġeuro":4850,"Ġversions":4851,"Ġpatterns":4852,"Ġadequate":4853,"Ġoppo":4854,"Ġsuitable":4855,"Ġsunglasses":4856,"Ġcanon":4857,"Ġposter":4858,"Ġdefe":4859,"kin":4860,"Ġpolic":4861,"Ġhimself":4862,"Ġsoles":4863,"Ġwild":4864,"Ġcovering":4865,"itary":4866,"Ġpole":4867,"Ġign":4868,"unt":4869,"Ġrig":4870,"Ġvalve":4871,"Ġdelicate":4872,"Ġstanding":4873,"Ġguard":4874,"Ġlat":4875,"Ġanimal":4876,"Ġaddress":4877,"Ġexperienced":4878,"Ġopt":4879,"ushing":4880,"Ġthickness":4881,"Ġunits":4882,"Ġapplied":4883,"Ġsoooo":4884,"illa":4885,"Ġdestroyed":4886,"Ġnove":4887,"Ġpops":4888,"Ġsd":4889,"Ġboun":4890,"Ġstains":4891,"Ġcash":4892,"Ġheels":4893,"Ġwonderfully":4894,"Ġmatches":4895,"Ġcombination":4896,"Ġq":4897,"Ġnumer":4898,"Ġdistract":4899,"Ġvs":4900,"Ġoperate":4901,"gant":4902,"erg":4903,"Ġshaped":4904,"icles":4905,"Ġscan":4906,"Ġattachment":4907,"Ġauthentic":4908,"wish":4909,"Ġemb":4910,"uggle":4911,"Ġheadphone":4912,"Ġstere":4913,"otes":4914,"Ġsteam":4915,"Ġloosen":4916,"Ġlucky":4917,"Ġselect":4918,"Ġgauge":4919,"Ġapproach":4920,"Ġenergy":4921,"Ġdance":4922,"Ġpath":4923,"Ġalign":4924,"Ġchrome":4925,"esy":4926,"Ġheroine":4927,"Ġord":4928,"Ġfancy":4929,"liked":4930,"Ġsmelled":4931,"Ġjames":4932,"ester":4933,"Ġcolour":4934,"Ġuneven":4935,"Ġimpact":4936,"Ġdoors":4937,"Ġhesit":4938,"Ġopener":4939,"Ġskim":4940,"Ġcontainers":4941,"Ġsmoothly":4942,"pa":4943,"Ġmass":4944,"others":4945,"Ġgap":4946,"Ġslips":4947,"Ġeli":4948,"Ġww":4949,"Ġabsolute":4950,"Ġexplo":4951,"Ġtightly":4952,"Ġpanel":4953,"Ġconcern":4954,"Ġaluminum":4955,"Ġtopic":4956,"Ġmicrophone":4957,"Ġgentle":4958,"Ġreceiver":4959,"icks":4960,"Ġlistened":4961,"mat":4962,"Ġwasher":4963,"Ġcarb":4964,"sho":4965,"Ġtrips":4966,"Ġsports":4967,"Ġenv":4968,"gging":4969,"ctor":4970,"Ġshallow":4971,"Ġsuggested":4972,"Ġtoile":4973,"yy":4974,"Ġhumid":4975,"ext":4976,"Ġdrives":4977,"Ġpark":4978,"Ġpics":4979,"Ġtimer":4980,"Ġtons":4981,"Ġrecharge":4982,"Ġbio":4983,"Ġxbox":4984,"Ġexercise":4985,"Ġlasting":4986,"Ġcreated":4987,"oon":4988,"pens":4989,"lon":4990,"Ġamp":4991,"Ġbang":4992,"Ġslipping":4993,"Ġhappier":4994,"Ġstruct":4995,"Ġmeets":4996,"Ġpencils":4997,"Ġrope":4998,"Ġsturd":4999,"Ġblew":5000,"Ġcalendar":5001,"ods":5002,"has":5003,"soft":5004,"Ġterrific":5005,"Ġpresented":5006,"ians":5007,"Ġrepres":5008,"Ġlacks":5009,"Ġow":5010,"Ġstruggle":5011,"Ġapps":5012,"Ġforg":5013,"del":5014,"Ġpitch":5015,"Ġties":5016,"Ġpolicy":5017,"Ġjud":5018,"Ġrecognize":5019,"Ġtabs":5020,"Ġnewer":5021,"Ġcontents":5022,"Ġtouching":5023,"Ġcub":5024,"fr":5025,"ummy":5026,"Ġtent":5027,"agon":5028,"Ġmainly":5029,"gl":5030,"Ġrice":5031,"Ġideal":5032,"Ġdiame":5033,"Ġcontrols":5034,"Ġhappening":5035,"Ġclosure":5036,"Ġrolls":5037,"Ġbatch":5038,"Ġarr":5039,"Ġportr":5040,"alk":5041,"Ġcheese":5042,"Ġsnaps":5043,"Ġumbrella":5044,"Ġinspiring":5045,"Ġforced":5046,"rel":5047,"Ġshattered":5048,"Ġchicken":5049,"Ġmp":5050,"Ġtack":5051,"Ġadmit":5052,"Ġthumb":5053,"Ġleash":5054,"iest":5055,"Ġimagination":5056,"Ġemer":5057,"Ġflavors":5058,"Ġbusy":5059,"Ġtap":5060,"Ġdesired":5061,"Ġdocument":5062,"Ġdisk":5063,"Ġmilitary":5064,"Ġcracks":5065,"Ġacceptable":5066,"Ġrushed":5067,"Ġsounded":5068,"Ġoutput":5069,"Ġclamp":5070,"Ġresistant":5071,"Ġnumerous":5072,"Ġfortun":5073,"Ġencou":5074,"Ġpainting":5075,"Ġpainful":5076,"agra":5077,"Ġtedious":5078,"Ġfauc":5079,"Ġbracket":5080,"la":5081,"ork":5082,"Ġgrass":5083,"odes":5084,"Ġcandles":5085,"Ġlaces":5086,"Ġtechnical":5087,"ration":5088,"unky":5089,"Ġwooden":5090,"Ġdiameter":5091,"pted":5092,"Ġserved":5093,"Ġgall":5094,"Ġchannels":5095,"uine":5096,"Ġunne":5097,"Ġsearching":5098,"Ġprepared":5099,"Ġcomfor":5100,"Ġmarkers":5101,"her":5102,"Ġprim":5103,"Ġrev":5104,"Ġconclus":5105,"Ġclever":5106,"Ġcrooked":5107,"Ġsewing":5108,"Ġmicrow":5109,"Ġsqueak":5110,"Ġcompet":5111,"Ġplayers":5112,"Ġchoices":5113,"Ġcrafts":5114,"Ġeurope":5115,"Ġprints":5116,"Ġtoilet":5117,"Ġbolt":5118,"Ġpenny":5119,"never":5120,"Ġconfused":5121,"Ġallowed":5122,"Ġholders":5123,"ina":5124,"Ġcalf":5125,"ental":5126,"rical":5127,"Ġherself":5128,"Ġbree":5129,"urity":5130,"apan":5131,"Ġterm":5132,"Ġyo":5133,"Ġextend":5134,"Ġanswers":5135,"Ġblurry":5136,"Ġfile":5137,"Ġsci":5138,"Ġcaptiv":5139,"Ġgps":5140,"Ġtries":5141,"Ġjapan":5142,"umbs":5143,"Ġpicks":5144,"Ġreminds":5145,"Ġgenuine":5146,"Ġrecent":5147,"Ġproduction":5148,"Ġflap":5149,"Ġham":5150,"roid":5151,"Ġconsum":5152,"Ġcapac":5153,"Ġseparated":5154,"Ġmessed":5155,"Ġsooner":5156,"Ġtex":5157,"Ġflor":5158,"Ġenvir":5159,"Ġspoil":5160,"Ġundone":5161,"aur":5162,"Ġwhenever":5163,"Ġdetect":5164,"Ġcance":5165,"Ġelegant":5166,"Ġthoughts":5167,"ado":5168,"Ġreturns":5169,"Ġdiscovered":5170,"asty":5171,"Ġincludes":5172,"Ġclaims":5173,"Ġtechno":5174,"Ġprovo":5175,"Ġtechni":5176,"Ġeggs":5177,"Ġbrilliant":5178,"Ġcompan":5179,"Ġmysteries":5180,"Ġbun":5181,"Ġappreciated":5182,"Ġactive":5183,"Ġcheesy":5184,"child":5185,"Ġimproved":5186,"Ġhem":5187,"Ġtypos":5188,"Ġnowhere":5189,"Ġlisting":5190,"berry":5191,"Ġhorror":5192,"Ġscarf":5193,"Ġbeginners":5194,"Ġcow":5195,"xic":5196,"Ġpun":5197,"Ġcompartment":5198,"Ġnature":5199,"Ġstom":5200,"Ġpurposes":5201,"ida":5202,"Ġwarped":5203,"Ġpsy":5204,"Ġfolks":5205,"Ġfiles":5206,"Ġtherm":5207,"Ġembarr":5208,"Ġrespons":5209,"sim":5210,"Ġmemories":5211,"ilarious":5212,"arted":5213,"Ġpetite":5214,"Ġoccasionally":5215,"Ġwatches":5216,"Ġroomy":5217,"Ġlocation":5218,"Ġsuspenseful":5219,"Ġshield":5220,"inary":5221,"Ġblocks":5222,"eah":5223,"Ġvest":5224,"ode":5225,"Ġasking":5226,"Ġreport":5227,"Ġunra":5228,"Ġfrustrated":5229,"inc":5230,"Ġemp":5231,"extremely":5232,"Ġsandal":5233,"Ġlabeled":5234,"Ġexposed":5235,"Ġlem":5236,"Ġdegree":5237,"Ġlic":5238,"Ġwes":5239,"Ġmagazine":5240,"Ġbackup":5241,"Ġtypically":5242,"Ġunivers":5243,"akes":5244,"Ġenviron":5245,"lessly":5246,"Ġotterbox":5247,"Ġinterior":5248,"Ġpit":5249,"Ġdifficulty":5250,"Ġmob":5251,"Ġqueen":5252,"Ġfilling":5253,"Ġchallenging":5254,"Ġgoogle":5255,"Ġandroid":5256,"Ġlip":5257,"Ġplates":5258,"Ġmaintain":5259,"sey":5260,"Ġspread":5261,"Ġpans":5262,"Ġproduce":5263,"Ġholiday":5264,"Ġpepper":5265,"Ġdescribe":5266,"Ġscratchy":5267,"pers":5268,"ancy":5269,"Ġya":5270,"Ġcrappy":5271,"Ġstress":5272,"Ġhelping":5273,"Ġdumb":5274,"Ġshades":5275,"Ġflight":5276,"Ġepisodes":5277,"Ġdeeper":5278,"Ġconnections":5279,"Ġdisg":5280,"Ġdrinking":5281,"Ġcomforter":5282,"Ġconnecting":5283,"Ġelement":5284,"Ġmotion":5285,"Ġembarrass":5286,"Ġdisney":5287,"Ġprop":5288,"Ġera":5289,"Ġprovoking":5290,"Ġresource":5291,"Ġgrammar":5292,"Ġpray":5293,"Ġgross":5294,"Ġrelationships":5295,"Ġshine":5296,"Ġflower":5297,"vi":5298,"Ġhiking":5299,"Ġrocks":5300,"Ġdetach":5301,"Ġresolution":5302,"ule":5303,"Ġextension":5304,"Ġstarter":5305,"Ġbudget":5306,"ams":5307,"Ġdownloaded":5308,"Ġmuff":5309,"Ġintense":5310,"Ġhide":5311,"ternal":5312,"Ġmats":5313,"maybe":5314,"Ġcookies":5315,"Ġfear":5316,"Ġcage":5317,"va":5318,"Ġpublished":5319,"Ġentertainment":5320,"Ġjes":5321,"returned":5322,"Ġwhatso":5323,"por":5324,"Ġmarked":5325,"Ġstack":5326,"Ġmessy":5327,"Ġrarely":5328,"Ġaside":5329,"Ġmap":5330,"Ġbelly":5331,"Ġcomedy":5332,"Ġglitter":5333,"vas":5334,"Ġsurprises":5335,"Ġdrivers":5336,"Ġpend":5337,"Ġunusual":5338,"lots":5339,"Ġdies":5340,"Ġdeliver":5341,"vet":5342,"Ġframes":5343,"Ġintroduction":5344,"icial":5345,"Ġcouch":5346,"Ġalex":5347,"Ġposted":5348,"hold":5349,"Ġwhatsoever":5350,"Ġneeding":5351,"Ġcrisp":5352,"Ġfaucet":5353,"Ġwrit":5354,"Ġresearched":5355,"Ġdragged":5356,"Ġmicrowave":5357,"Ġchallen":5358,"lers":5359,"Ġprec":5360,"rest":5361,"Ġstove":5362,"ern":5363,"amond":5364,"Ġassembled":5365,"Ġken":5366,"Ġdrawback":5367,"Ġcliff":5368,"she":5369,"Ġtension":5370,"Ġsurprisingly":5371,"Ġrober":5372,"Ġconsistent":5373,"Ġsleek":5374,"ums":5375,"Ġprogress":5376,"Ġsouth":5377,"istry":5378,"Ġsup":5379,"Ġpriv":5380,"Ġburning":5381,"Ġdepressing":5382,"Ġwrench":5383,"Ġhid":5384,"Ġsubstance":5385,"Ġweld":5386,"host":5387,"Ġtasty":5388,"Ġepisode":5389,"Ġadjusted":5390,"Ġfloors":5391,"Ġnails":5392,"Ġghost":5393,"Ġgerman":5394,"Ġexcess":5395,"sound":5396,"Ġunreal":5397,"Ġdock":5398,"Ġquar":5399,"ocre":5400,"ision":5401,"mar":5402,"Ġlocks":5403,"Ġdiamond":5404,"graphy":5405,"Ġunravel":5406,"Ġknees":5407,"Ġconnectors":5408,"Ġstomach":5409,"Ġalbums":5410,"arts":5411,"Ġpleasantly":5412,"Ġculture":5413,"str":5414,"Ġcurtains":5415,"Ġunplug":5416,"Ġsecurity":5417,"Ġteaching":5418,"Ġswitched":5419,"Ġsections":5420,"Ġdispens":5421,"Ġgeneric":5422,"Ġlabels":5423,"Ġincom":5424,"ules":5425,"Ġwax":5426,"Ġretail":5427,"Ġroller":5428,"icted":5429,"Ġsubstant":5430,"Ġjuice":5431,"Ġlame":5432,"Ġgrandchild":5433,"Ġindicated":5434,"Ġreveal":5435,"Ġpear":5436,"mming":5437,"Ġwalls":5438,"Ġgrips":5439,"Ġthighs":5440,"Ġhilarious":5441,"Ġthinks":5442,"Ġemotional":5443,"Ġmountain":5444,"Ġfinishing":5445,"cs":5446,"Ġdropping":5447,"Ġrefill":5448,"tot":5449,"Ġvisual":5450,"Ġwiring":5451,"Ġinstrum":5452,"Ġach":5453,"pres":5454,"Ġwilling":5455,"Ġbugs":5456,"cur":5457,"ony":5458,"Ġbrit":5459,"sure":5460,"Ġmins":5461,"Ġchallenge":5462,"Ġada":5463,"Ġstreet":5464,"Ġsnag":5465,"cd":5466,"Ġabsorb":5467,"night":5468,"Ġwest":5469,"Ġupside":5470,"xious":5471,"essed":5472,"Ġemotions":5473,"Ġrout":5474,"Ġunderwear":5475,"ology":5476,"round":5477,"thern":5478,"Ġimpression":5479,"undred":5480,"Ġstamp":5481,"Ġdisa":5482,"Ġhom":5483,"batter":5484,"Ġcin":5485,"Ġprotecting":5486,"Ġwip":5487,"Ġdecide":5488,"Ġresid":5489,"Ġlevels":5490,"bow":5491,"Ġraw":5492,"Ġsoul":5493,"Ġhundred":5494,"Ġchewed":5495,"Ġdissatisfied":5496,"Ġbuds":5497,"Ġstrips":5498,"Ġdecal":5499,"Ġwestern":5500,"Ġcapacity":5501,"Ġscope":5502,"ifier":5503,"Ġfaulty":5504,"Ġram":5505,"Ġregarding":5506,"Ġtaller":5507,"Ġsqueeze":5508,"Ġexternal":5509,"Ġtasting":5510,"Ġgain":5511,"Ġrolled":5512,"vision":5513,"Ġzomb":5514,"Ġsocket":5515,"Ġmicha":5516,"Ġreviewer":5517,"Ġbuff":5518,"Ġaccidentally":5519,"Ġange":5520,"lies":5521,"reshing":5522,"ship":5523,"Ġunst":5524,"Ġgrown":5525,"iner":5526,"ization":5527,"Ġenvironment":5528,"low":5529,"Ġmanaged":5530,"Ġinstallment":5531,"Ġhorse":5532,"Ġexperiences":5533,"Ġbell":5534,"amps":5535,"Ġhurts":5536,"Ġelements":5537,"Ġhey":5538,"Ġbras":5539,"aint":5540,"Ġlinks":5541,"Ġtextbook":5542,"ification":5543,"Ġreferences":5544,"Ġwink":5545,"Ġuna":5546,"Ġprices":5547,"war":5548,"Ġlessons":5549,"Ġhalfway":5550,"Ġtied":5551,"Ġsolar":5552,"Ġcameras":5553,"ral":5554,"Ġhangs":5555,"Ġupdated":5556,"size":5557,"Ġtele":5558,"ache":5559,"tered":5560,"worst":5561,"Ġsoo":5562,"Ġchannel":5563,"Ġburnt":5564,"Ġmeasured":5565,"yes":5566,"once":5567,"Ġdishes":5568,"Ġvamp":5569,"Ġrisk":5570,"Ġbin":5571,"Ġbowls":5572,"Ġhousing":5573,"Ġreasons":5574,"Ġbee":5575,"umes":5576,"Ġflops":5577,"Ġcore":5578,"Ġviewing":5579,"Ġsmoke":5580,"cery":5581,"Ġmi":5582,"xture":5583,"Ġrolling":5584,"Ġjourn":5585,"ama":5586,"Ġfif":5587,"Ġadvanced":5588,"Ġbreeze":5589,"Ġlocking":5590,"ien":5591,"corn":5592,"Ġwriters":5593,"Ġsurround":5594,"Ġperman":5595,"Ġexec":5596,"Ġdiscuss":5597,"Ġlover":5598,"Ġdepending":5599,"bre":5600,"Ġrandomly":5601,"Ġrefreshing":5602,"Ġstaying":5603,"Ġcraft":5604,"bul":5605,"gain":5606,"Ġadapt":5607,"off":5608,"Ġopp":5609,"Ġsheer":5610,"sorry":5611,"Ġash":5612,"Ġadvise":5613,"Ġrepeat":5614,"Ġspea":5615,"Ġvict":5616,"Ġevil":5617,"Ġsour":5618,"Ġhanger":5619,"da":5620,"dri":5621,"Ġcompon":5622,"Ġconclusion":5623,"Ġmatching":5624,"Ġabuse":5625,"Ġwobb":5626,"Ġintell":5627,"sto":5628,"Ġdrinks":5629,"Ġcomparison":5630,"Ġconditions":5631,"Ġtrailer":5632,"Ġsuperb":5633,"Ġshrunk":5634,"Ġstyles":5635,"Ġmediocre":5636,"Ġinternal":5637,"Ġfolds":5638,"Ġrubbed":5639,"Ġdangerous":5640,"Ġmembers":5641,"Ġabrupt":5642,"Ġdisgust":5643,"Ġpeace":5644,"Ġearbuds":5645,"Ġintrodu":5646,"Ġbinding":5647,"ara":5648,"Ġfridge":5649,"Ġpean":5650,"two":5651,"Ġsided":5652,"Ġversat":5653,"ras":5654,"Ġladies":5655,"Ġpolitical":5656,"Ġgrocery":5657,"Ġshelves":5658,"Ġregardless":5659,"Ġheater":5660,"Ġsea":5661,"Ġlee":5662,"Ġassume":5663,"whel":5664,"Ġdvds":5665,"ires":5666,"Ġhrs":5667,"Ġlint":5668,"Ġpleasure":5669,"looked":5670,"orms":5671,"Ġdresses":5672,"gave":5673,"Ġpadded":5674,"Ġdented":5675,"Ġyarn":5676,"Ġrat":5677,"Ġcanvas":5678,"Ġchargers":5679,"Ġware":5680,"Ġmas":5681,"Ġrent":5682,"Ġgreatly":5683,"Ġsecret":5684,"Ġsturdier":5685,"Ġskills":5686,"Ġharry":5687,"Ġdeceiving":5688,"Ġbargain":5689,"Ġemerg":5690,"zzy":5691,"Ġcompre":5692,"Ġlined":5693,"imate":5694,"Ġcrystal":5695,"Ġford":5696,"zzle":5697,"Ġhoney":5698,"Ġcontinued":5699,"Ġmotiv":5700,"Ġunnecessary":5701,"Ġdozen":5702,"ilities":5703,"yal":5704,"Ġfunctionality":5705,"Ġlyric":5706,"Ġopens":5707,"uable":5708,"bag":5709,"Ġalive":5710,"ener":5711,"Ġnews":5712,"shield":5713,"function":5714,"aker":5715,"Ġpopping":5716,"Ġapprox":5717,"Ġinvestment":5718,"Ġrow":5719,"ief":5720,"Ġmistakes":5721,"Ġkinds":5722,"Ġsolve":5723,"Ġcozy":5724,"Ġevening":5725,"Ġsumm":5726,"Ġvisit":5727,"Ġgrinder":5728,"Ġbeats":5729,"Ġshooting":5730,"Ġdavid":5731,"rated":5732,"Ġpackages":5733,"Ġtechnology":5734,"vo":5735,"Ġvert":5736,"Ġflying":5737,"Ġsample":5738,"Ġankles":5739,"Ġstale":5740,"Ġnarrative":5741,"Ġsciss":5742,"idence":5743,"Ġchalk":5744,"Ġdrying":5745,"fant":5746,"Ġseparately":5747,"Ġfrank":5748,"Ġpicky":5749,"ai":5750,"Ġfoods":5751,"Ġyrs":5752,"ota":5753,"Ġtricky":5754,"Ġjeep":5755,"Ġlaughed":5756,"Ġexplained":5757,"Ġlil":5758,"Ġrefunded":5759,"Ġconcepts":5760,"Ġinterm":5761,"Ġfade":5762,"Ġreleased":5763,"Ġinserts":5764,"Ġnetwork":5765,"eable":5766,"Ġpolyester":5767,"Ġfails":5768,"ometer":5769,"Ġmoisture":5770,"Ġciv":5771,"Ġexplanation":5772,"Ġblah":5773,"Ġscuff":5774,"Ġbroad":5775,"Ġobject":5776,"Ġjesus":5777,"Ġii":5778,"Ġtoast":5779,"tried":5780,"Ġmedia":5781,"Ġseasons":5782,"Ġyork":5783,"Ġexpress":5784,"Ġpushed":5785,"aps":5786,"Ġbattle":5787,"Ġmur":5788,"Ġcorn":5789,"Ġloaded":5790,"Ġadvertis":5791,"why":5792,"Ġgloss":5793,"Ġmotorcy":5794,"Ġswimming":5795,"Ġlemon":5796,"vant":5797,"Ġdrug":5798,"Ġsteph":5799,"Ġoct":5800,"ptive":5801,"Ġtwisted":5802,"Ġtuck":5803,"Ġinse":5804,"rap":5805,"Ġimpressive":5806,"fantastic":5807,"Ġviolence":5808,"Ġregularly":5809,"Ġconsidered":5810,"etime":5811,"run":5812,"Ġbasis":5813,"ards":5814,"Ġstrongly":5815,"Ġkiller":5816,"Ġdele":5817,"Ġenth":5818,"yer":5819,"onge":5820,"Ġwindshield":5821,"junk":5822,"Ġskill":5823,"zed":5824,"Ġreadable":5825,"Ġtransp":5826,"Ġjuly":5827,"Ġinsights":5828,"Ġadventures":5829,"Ġtoward":5830,"Ġcontained":5831,"Ġinsightful":5832,"Ġstereo":5833,"Ġtripod":5834,"Ġplots":5835,"Ġvolt":5836,"Ġeditor":5837,"Ġhonda":5838,"Ġvision":5839,"atable":5840,"Ġlacked":5841,"Ġdelightful":5842,"atical":5843,"Ġspect":5844,"Ġorganic":5845,"Ġds":5846,"Ġgiant":5847,"okay":5848,"Ġjustice":5849,"Ġdiscount":5850,"Ġlocally":5851,"Ġcds":5852,"Ġlie":5853,"Ġbaking":5854,"Ġsoc":5855,"Ġmath":5856,"Ġwrinkles":5857,"ists":5858,"Ġassumed":5859,"Ġribb":5860,"lights":5861,"Ġnylon":5862,"Ġmile":5863,"Ġdar":5864,"athers":5865,"Ġconnects":5866,"Ġpig":5867,"Ġdinner":5868,"iers":5869,"Ġcopies":5870,"Ġrelated":5871,"Ġripping":5872,"Ġseven":5873,"Ġsuspect":5874,"Ġitchy":5875,"Ġdated":5876,"house":5877,"ser":5878,"Ġpregn":5879,"Ġpopular":5880,"kids":5881,"nis":5882,"airs":5883,"llers":5884,"Ġclassy":5885,"Ġyeah":5886,"Ġsoci":5887,"Ġhats":5888,"Ġbitter":5889,"Ġaug":5890,"Ġplush":5891,"Ġeight":5892,"Ġrides":5893,"Ġpicking":5894,"Ġveget":5895,"Ġtour":5896,"Ġjournal":5897,"bes":5898,"Ġgig":5899,"Ġhip":5900,"Ġfeelings":5901,"Ġefficient":5902,"Ġintrigue":5903,"Ġvivid":5904,"Ġnoted":5905,"ino":5906,"Ġbean":5907,"Ġtorso":5908,"Ġsatisfying":5909,"nday":5910,"Ġfilms":5911,"Ġlocked":5912,"Ġtile":5913,"Ġgaming":5914,"Ġseats":5915,"Ġphil":5916,"Ġfeeder":5917,"Ġdisapp":5918,"Ġswing":5919,"Ġbrushes":5920,"Ġquant":5921,"erry":5922,"Ġpopcorn":5923,"Ġindeed":5924,"word":5925,"shi":5926,"Ġsneakers":5927,"rets":5928,"Ġstripped":5929,"Ġformula":5930,"Ġskipped":5931,"Ġfigures":5932,"Ġblind":5933,"smaller":5934,"Ġinterf":5935,"Ġwake":5936,"such":5937,"Ġdecoration":5938,"Ġry":5939,"Ġpinch":5940,"oons":5941,"Ġlean":5942,"Ġfet":5943,"Ġindust":5944,"ques":5945,"Ġcutter":5946,"Ġrespect":5947,"Ġtags":5948,"ein":5949,"cra":5950,"gger":5951,"ores":5952,"Ġrap":5953,"Ġforgot":5954,"ortun":5955,"Ġkilled":5956,"Ġbumper":5957,"Ġinstantly":5958,"Ġmarch":5959,"Ġsauce":5960,"Ġincon":5961,"Ġconsistently":5962,"ateg":5963,"Ġafterno":5964,"many":5965,"Ġadjusting":5966,"Ġdoctor":5967,"Ġbecoming":5968,"Ġcracking":5969,"Ġsubs":5970,"onsist":5971,"Ġescape":5972,"Ġreminded":5973,"Ġadvertisement":5974,"Ġcrime":5975,"ersome":5976,"Ġrusted":5977,"Ġdistracting":5978,"Ġextreme":5979,"Ġentertained":5980,"Ġate":5981,"ongs":5982,"Ġslick":5983,"Ġnik":5984,"Ġlaund":5985,"comend":5986,"ios":5987,"Ġbeauty":5988,"Ġdefinately":5989,"Ġbrake":5990,"Ġlaz":5991,"Ġblank":5992,"Ġdent":5993,"Ġlovers":5994,"Ġanybody":5995,"Ġsubstantial":5996,"Ġindoor":5997,"Ġstandards":5998,"Ġunlock":5999,"Ġwarmer":6000,"cheaply":6001,"izz":6002,"Ġsuggestions":6003,"Ġwarned":6004,"Ġsocial":6005,"Ġrole":6006,"Ġspelling":6007,"cious":6008,"bad":6009,"Ġmatched":6010,"Ġreccomend":6011,"pros":6012,"Ġgeneration":6013,"Ġlyrics":6014,"Ġproduced":6015,"Ġexercises":6016,"Ġnav":6017,"Ġhandling":6018,"Ġexcit":6019,"Ġwrinkled":6020,"amed":6021,"Ġserving":6022,"Ġlaser":6023,"Ġpurchases":6024,"Ġcleans":6025,"Ġcommunic":6026,"Ġspanish":6027,"date":6028,"Ġrequested":6029,"Ġcustomers":6030,"venience":6031,"Ġchecking":6032,"Ġsuddenly":6033,"Ġtalent":6034,"Ġpresentation":6035,"Ġcomic":6036,"Ġfray":6037,"Ġmichael":6038,"Ġclosing":6039,"Ġdiscs":6040,"Ġolds":6041,"conom":6042,"Ġpix":6043,"Ġdislike":6044,"Ġchildhood":6045,"Ġstuffed":6046,"Ġinstant":6047,"Ġflush":6048,"Ġtil":6049,"Ġopportun":6050,"Ġhammer":6051,"Ġshake":6052,"Ġexchang":6053,"hol":6054,"Ġsloppy":6055,"Ġbeha":6056,"ashing":6057,"Ġdell":6058,"Ġnotebook":6059,"Ġswive":6060,"Ġfishing":6061,"Ġsky":6062,"Ġelectrical":6063,"Ġornam":6064,"ulated":6065,"Ġpowered":6066,"Ġtouched":6067,"fold":6068,"installed":6069,"Ġbb":6070,"stick":6071,"Ġbrightness":6072,"Ġrender":6073,"Ġthumbs":6074,"Ġloses":6075,"Ġscissors":6076,"Ġbrothers":6077,"Ġedited":6078,"velope":6079,"Ġafternoon":6080,"Ġsolved":6081,"Ġstructure":6082,"Ġtune":6083,"Ġbusted":6084,"Ġexpired":6085,"Ġrequest":6086,"Ġspout":6087,"Ġmobile":6088,"ables":6089,"Ġhence":6090,"Ġmedical":6091,"Ġsmile":6092,"Ġneighbor":6093,"lasted":6094,"Ġlifetime":6095,"Ġunrealistic":6096,"Ġcombo":6097,"Ġraz":6098,"Ġlatest":6099,"ige":6100,"Ġcontr":6101,"Ġwobbly":6102,"itation":6103,"Ġcause":6104,"Ġmeal":6105,"Ġidentical":6106,"Ġhinge":6107,"Ġsen":6108,"mos":6109,"Ġwipe":6110,"point":6111,"rup":6112,"Ġpuzzles":6113,"Ġshortly":6114,"Ġsuperior":6115,"Ġinitial":6116,"Ġleads":6117,"Ġsan":6118,"Ġcrushed":6119,"Ġeconom":6120,"Ġgolden":6121,"cast":6122,"Ġdescriptive":6123,"Ġyouth":6124,"Ġraised":6125,"Ġstained":6126,"Ġworkmanship":6127,"Ġlaundry":6128,"Ġrim":6129,"Ġinput":6130,"Ġamong":6131,"Ġbasics":6132,"Ġgripping":6133,"Ġseed":6134,"Ġclassroom":6135,"started":6136,"Ġresidue":6137,"oh":6138,"Ġdealing":6139,"Ġsufficient":6140,"Ġshocked":6141,"Ġcreep":6142,"accur":6143,"Ġugh":6144,"Ġtopics":6145,"Ġbuzz":6146,"kable":6147,"Ġthankfully":6148,"Ġtearing":6149,"Ġsinging":6150,"Ġrive":6151,"Ġpassion":6152,"Ġaqu":6153,"Ġhan":6154,"Ġnavig":6155,"Ġwalked":6156,"Ġath":6157,"Ġheating":6158,"Ġexcitement":6159,"Ġtransm":6160,"Ġhaw":6161,"Ġplane":6162,"Ġflorida":6163,"Ġhidden":6164,"Ġgrammatical":6165,"Ġsigns":6166,"Ġtheory":6167,"Ġevenly":6168,"Ġpil":6169,"Ġcomputers":6170,"Ġquarter":6171,"lar":6172,"Ġreplacements":6173,"yle":6174,"Ġbrass":6175,"Ġchuck":6176,"Ġsurfaces":6177,"Ġbabies":6178,"ril":6179,"Ġeverytime":6180,"Ġnonetheless":6181,"Ġaspects":6182,"Ġtossed":6183,"Ġgrandchildren":6184,"reens":6185,"Ġbond":6186,"watch":6187,"Ġjune":6188,"Ġnights":6189,"Ġlu":6190,"atives":6191,"Ġdecember":6192,"Ġsync":6193,"Ġincrease":6194,"dated":6195,"Ġtoner":6196,"Ġchemistry":6197,"Ġsteal":6198,"Ġnasty":6199,"len":6200,"Ġwi":6201,"Ġsmallest":6202,"Ġfitbit":6203,"ilies":6204,"Ġpeeled":6205,"Ġglare":6206,"Ġgallon":6207,"Ġxmas":6208,"Ġenvelope":6209,"Ġbrain":6210,"Ġbleed":6211,"Ġmc":6212,"end":6213,"Ġvoc":6214,"xus":6215,"Ġoutdoors":6216,"Ġrefurb":6217,"entially":6218,"Ġcuff":6219,"Ġclarity":6220,"aks":6221,"Ġcycle":6222,"Ġunfortun":6223,"Ġwars":6224,"awful":6225,"Ġrugged":6226,"Ġsurvive":6227,"Ġpotato":6228,"Ġpushing":6229,"Ġknot":6230,"Ġheck":6231,"Ġfrozen":6232,"Ġpolar":6233,"material":6234,"Ġmotorcycle":6235,"Ġconversation":6236,"Ġcopper":6237,"ime":6238,"Ġdrawers":6239,"00":6240,"icer":6241,"Ġsoup":6242,"battery":6243,"Ġuniversal":6244,"Ġgum":6245,"Ġblisters":6246,"Ġblown":6247,"Ġclosely":6248,"Ġlaughing":6249,"Ġspar":6250,"Ġsignificant":6251,"atically":6252,"llo":6253,"cover":6254,"Ġtoaster":6255,"Ġkitty":6256,"Ġlouder":6257,"enc":6258,"Ġsched":6259,"Ġshots":6260,"Ġbreast":6261,"Ġregister":6262,"Ġessential":6263,"Ġstations":6264,"Ġborder":6265,"Ġallerg":6266,"Ġinconsist":6267,"Ġwand":6268,"Ġsignificantly":6269,"Ġaccommo":6270,"Ġpendant":6271,"Ġbone":6272,"stood":6273,"Ġbenefit":6274,"Ġtalented":6275,"Ġbeans":6276,"story":6277,"Ġqual":6278,"Ġmethod":6279,"Ġsket":6280,"Ġmaps":6281,"Ġsaves":6282,"screen":6283,"Ġactivities":6284,"Ġstun":6285,"Ġmember":6286,"Ġdisapointed":6287,"Ġscared":6288,"Ġlugg":6289,"Ġfeedback":6290,"Ġgrease":6291,"iven":6292,"Ġnope":6293,"Ġneedle":6294,"Ġwasting":6295,"Ġstead":6296,"Ġapril":6297,"Ġrigid":6298,"Ġcentury":6299,"Ġversatile":6300,"Ġmood":6301,"Ġemergency":6302,"nel":6303,"ada":6304,"ifying":6305,"ounts":6306,"print":6307,"rete":6308,"Ġwalks":6309,"Ġtransform":6310,"fall":6311,"Ġgoodness":6312,"fill":6313,"Ġmarke":6314,"ius":6315,"Ġcreating":6316,"Ġsore":6317,"Ġovers":6318,"Ġfighting":6319,"Ġvill":6320,"Ġapartment":6321,"Ġtransport":6322,"ingly":6323,"Ġanyways":6324,"Ġsquir":6325,"stopped":6326,"Ġcocon":6327,"Ġblink":6328,"Ġfuzzy":6329,"Ġphysical":6330,"Ġsmud":6331,"ggy":6332,"Ġfamilies":6333,"Ġvet":6334,"Ġfortunately":6335,"still":6336,"Ġbrittle":6337,"Ġelectronic":6338,"Ġcookie":6339,"rate":6340,"Ġupright":6341,"reg":6342,"Ġmuy":6343,"Ġloops":6344,"Ġredu":6345,"Ġnotch":6346,"Ġperformed":6347,"Ġbends":6348,"Ġcaptivating":6349,"vin":6350,"Ġtechniques":6351,"Ġtroub":6352,"Ġpressed":6353,"Ġrelaxing":6354,"Ġtennis":6355,"bet":6356,"Ġworthy":6357,"alian":6358,"ora":6359,"Ġrobe":6360,"Ġartwork":6361,"Ġdistur":6362,"Ġket":6363,"Ġleading":6364,"Ġarc":6365,"Ġfactor":6366,"Ġexplains":6367,"Ġpros":6368,"...":6369,"Ġrubbing":6370,"dom":6371,"ka":6372,"Ġcos":6373,"Ġplat":6374,"Ġmeas":6375,"Ġteenage":6376,"Ġfuel":6377,"Ġpara":6378,"Ġquir":6379,"Ġbold":6380,"Ġlazy":6381,"Ġfiber":6382,"now":6383,"Ġcalves":6384,"Ġaccessory":6385,"Ġbland":6386,"Ġmarker":6387,"ano":6388,"oma":6389,"Ġdifferently":6390,"Ġlos":6391,"Ġcarrier":6392,"Ġintact":6393,"Ġdrum":6394,"Ġelimin":6395,"Ġflee":6396,"Ġdye":6397,"Ġcoconut":6398,"Ġaugust":6399,"Ġteens":6400,"Ġfloat":6401,"Ġdrawing":6402,"Ġboards":6403,"poorly":6404,"Ġdom":6405,"aked":6406,"Ġoverview":6407,"ords":6408,"ptical":6409,"Ġhangers":6410,"Ġlicense":6411,"Ġmb":6412,"Ġnecess":6413,"Ġfee":6414,"Ġoccasional":6415,"Ġuk":6416,"Ġbarb":6417,"Ġdiscover":6418,"Ġirritating":6419,"Ġhaz":6420,"fa":6421,"Ġcompartments":6422,"Ġscratching":6423,"amic":6424,"Ġneedless":6425,"Ġpets":6426,"Ġwhist":6427,"Ġalph":6428,"Ġcommer":6429,"Ġprotagon":6430,"Ġslipped":6431,"Ġzoom":6432,"vity":6433,"Ġsupple":6434,"Ġtrap":6435,"Ġbritish":6436,"itors":6437,"Ġrein":6438,"Ġscoop":6439,"Ġfairy":6440,"Ġoccur":6441,"Ġexisting":6442,"riger":6443,"Ġprofile":6444,"Ġanch":6445,"Ġplanned":6446,"Ġengaged":6447,"Ġceiling":6448,"Ġamazed":6449,"Ġwon":6450,"Ġdepart":6451,"Ġwool":6452,"both":6453,"Ġroot":6454,"coming":6455,"Ġjoe":6456,"Ġnozzle":6457,"isham":6458,"Ġbib":6459,"Ġdispenser":6460,"Ġtranslation":6461,"Ġxs":6462,"Ġbacks":6463,"Ġbackwards":6464,"sis":6465,"azz":6466,"Ġinteract":6467,"thy":6468,"Ġrefriger":6469,"high":6470,"Ġisland":6471,"Ġslower":6472,"runs":6473,"Ġassist":6474,"Ġvaluable":6475,"Ġren":6476,"Ġtrigger":6477,"Ġnorth":6478,"Ġcircle":6479,"Ġovernight":6480,"dro":6481,"Ġwatt":6482,"should":6483,"Ġpaperback":6484,"Ġcompression":6485,"Ġconver":6486,"ette":6487,"Ġmos":6488,"Ġkno":6489,"Ġcreates":6490,"Ġbench":6491,"usion":6492,"Ġhighest":6493,"Ġsuited":6494,"Ġshaft":6495,"Ġjapanese":6496,"gun":6497,"Ġtubes":6498,"Ġnikon":6499,"lle":6500,"Ġded":6501,"Ġfluffy":6502,"Ġcurious":6503,"Ġstocking":6504,"Ġrecipient":6505,"Ġluggage":6506,"cr":6507,"Ġliterature":6508,"Ġskipping":6509,"Ġdual":6510,"Ġtights":6511,"born":6512,"Ġduck":6513,"gue":6514,"Ġhill":6515,"Ġvari":6516,"umbersome":6517,"Ġfog":6518,"Ġkickstand":6519,"Ġperiods":6520,"Ġoppos":6521,"Ġfinds":6522,"Ġdepot":6523,"Ġultra":6524,"sent":6525,"Ġsmashed":6526,"Ġwii":6527,"Ġinaccur":6528,"Ġhype":6529,"matic":6530,"Ġjanuary":6531,"Ġunders":6532,"Ġhoodie":6533,"Ġours":6534,"Ġowner":6535,"Ġintellig":6536,"Ġnursing":6537,"aper":6538,"hand":6539,"Ġrac":6540,"Ġmary":6541,"ston":6542,"Ġapplications":6543,"Ġrecommendation":6544,"ountain":6545,"Ġchamp":6546,"Ġhorribly":6547,"Ġgogg":6548,"Ġapo":6549,"Ġbound":6550,"Ġcents":6551,"Ġplac":6552,"Ġlawn":6553,"Ġcompreh":6554,"Ġos":6555,"Ġcrash":6556,"Ġvirt":6557,"roll":6558,"anta":6559,"Ġscreens":6560,"bby":6561,"ping":6562,"inger":6563,"ulate":6564,"Ġstored":6565,"Ġfiller":6566,"Ġreviewed":6567,"Ġfourth":6568,"Ġscrewdri":6569,"Ġleds":6570,"Ġreligious":6571,"Ġtread":6572,"Ġdragon":6573,"Ġheats":6574,"Ġstem":6575,"Ġweights":6576,"Ġhunting":6577,"Ġguar":6578,"Ġpractically":6579,"Ġbite":6580,"Ġcass":6581,"Ġbrackets":6582,"Ġunfold":6583,"Ġsaver":6584,"Ġnin":6585,"Ġrounded":6586,"Ġgrisham":6587,"picture":6588,"Ġcumbersome":6589,"Ġremovable":6590,"Ġopportunity":6591,"Ġdisplayed":6592,"Ġflaws":6593,"Ġsevere":6594,"inting":6595,"Ġenclo":6596,"Ġeducational":6597,"Ġfountain":6598,"Ġmusical":6599,"Ġspiritual":6600,"Ġfleece":6601,"Ġimagined":6602,"Ġlord":6603,"kins":6604,"Ġmanufacturing":6605,"Ġmatte":6606,"bell":6607,"Ġmint":6608,"Ġletting":6609,"Ġcupca":6610,"cool":6611,"Ġwit":6612,"Ġgroo":6613,"Ġrubs":6614,"Ġscient":6615,"Ġwound":6616,"Ġwick":6617,"big":6618,"Ġoperation":6619,"Ġguarant":6620,"ola":6621,"Ġcubes":6622,"Ġribbon":6623,"Ġsupportive":6624,"hh":6625,"water":6626,"Ġjars":6627,"Ġblender":6628,"jointed":6629,"Ġwitch":6630,"Ġautomatically":6631,"Ġdisgusting":6632,"ob":6633,"Ġdarn":6634,"Ġfav":6635,"inated":6636,"Ġlaid":6637,"Ġdetective":6638,"Ġultimately":6639,"Ġpolice":6640,"hel":6641,"Ġoun":6642,"plic":6643,"track":6644,"Ġcooker":6645,"having":6646,"Ġlap":6647,"seem":6648,"Ġtwin":6649,"Ġmonster":6650,"Ġdecorative":6651,"Ġelectronics":6652,"Ġsept":6653,"Ġmeasuring":6654,"gets":6655,"Ġpup":6656,"Ġadjustments":6657,"angle":6658,"Ġsnugly":6659,"Ġmud":6660,"Ġlaying":6661,"Ġdd":6662,"ference":6663,"Ġjumping":6664,"Ġattempts":6665,"Ġmounts":6666,"Ġreinfor":6667,"ague":6668,"shoes":6669,"Ġrefurbished":6670,"Ġheadband":6671,"diff":6672,"Ġkay":6673,"quick":6674,"lim":6675,"Ġoverwhel":6676,"Ġarth":6677,"Ġstuffing":6678,"Ġsociety":6679,"via":6680,"Ġrv":6681,"Ġjobs":6682,"asse":6683,"riage":6684,"Ġretract":6685,"otten":6686,"Ġtact":6687,"Ġhitting":6688,"eem":6689,"actory":6690,"Ġgad":6691,"Ġdispos":6692,"Ġperforms":6693,"Ġpapers":6694,"Ġshift":6695,"Ġexceptional":6696,"Ġdot":6697,"Ġdiv":6698,"complete":6699,"Ġstretches":6700,"Ġinterview":6701,"Ġridiculously":6702,"Ġtrees":6703,"Ġsemi":6704,"Ġnine":6705,"Ġconcrete":6706,"Ġkilling":6707,"Ġinferior":6708,"soph":6709,"Ġaccompl":6710,"ett":6711,"Ġrif":6712,"Ġclut":6713,"Ġrhy":6714,"Ġcasing":6715,"Ġapplying":6716,"Ġcuz":6717,"Ġpipe":6718,"Ġlibro":6719,"Ġnexus":6720,"Ġcircum":6721,"ament":6722,"Ġrace":6723,"Ġclasses":6724,"Ġfond":6725,"Ġlan":6726,"Ġtaped":6727,"Ġpatio":6728,"Ġactivity":6729,"uation":6730,"Ġcareer":6731,"Ġzombie":6732,"Ġpian":6733,"Ġhubby":6734,"Ġteenager":6735,"Ġallowing":6736,"Ġtexas":6737,"Ġpots":6738,"Ġpaw":6739,"needed":6740,"Ġdealer":6741,"ald":6742,"thetic":6743,"Ġlimit":6744,"Ġbuen":6745,"Ġtongue":6746,"Ġrabb":6747,"Ġsellers":6748,"agraph":6749,"Ġstudio":6750,"Ġbeer":6751,"Ġcheapest":6752,"old":6753,"Ġfailure":6754,"Ġlayers":6755,"Ġparagraph":6756,"Ġoutdated":6757,"Ġretain":6758,"aired":6759,"Ġencoun":6760,"Ġdisjointed":6761,"Ġswitching":6762,"under":6763,"Ġstool":6764,"Ġanxious":6765,"tit":6766,"Ġswims":6767,"Ġmedic":6768,"Ġheadache":6769,"Ġjumps":6770,"Ġbalanced":6771,"Ġcollaps":6772,"Ġclunky":6773,"Ġtransparent":6774,"Ġhorn":6775,"Ġbending":6776,"Ġsharing":6777,"ede":6778,"Ġwired":6779,"Ġpale":6780,"Ġhandled":6781,"Ġpercent":6782,"ontin":6783,"Ġhoriz":6784,"Ġvanilla":6785,"Ġpist":6786,"Ġachie":6787,"Ġwis":6788,"Ġfocused":6789,"unks":6790,"Ġspoon":6791,"Ġlite":6792,"Ġbug":6793,"Ġlikable":6794,"Ġthom":6795,"Ġpotter":6796,"chool":6797,"Ġuncle":6798,"Ġdud":6799,"Ġunfortunate":6800,"Ġdeb":6801,"Ġtax":6802,"Ġmelt":6803,"Ġdolls":6804,"Ġtyping":6805,"soles":6806,"Ġadm":6807,"outs":6808,"icky":6809,"Ġopposite":6810,"crew":6811,"sca":6812,"Ġinspirational":6813,"Ġathlet":6814,"Ġfootball":6815,"Ġbank":6816,"Ġstro":6817,"Ġthemed":6818,"Ġrestaur":6819,"Ġskeptical":6820,"Ġfran":6821,"Ġmanually":6822,"Ġgrate":6823,"Ġpanels":6824,"Ġfrayed":6825,"Ġcentered":6826,"Ġbaseball":6827,"Ġspice":6828,"Ġcomparable":6829,"Ġpalm":6830,"Ġrepresent":6831,"Ġstage":6832,"Ġsunlight":6833,"Ġtables":6834,"loy":6835,"Ġprecise":6836,"ampoo":6837,"Ġpromise":6838,"Ġjumped":6839,"Ġreacher":6840,"solid":6841,"Ġconcise":6842,"Ġdump":6843,"Ġbeige":6844,"Ġwordy":6845,"Ġlag":6846,"Ġshampoo":6847,"boy":6848,"Ġrere":6849,"Ġpret":6850,"Ġclich":6851,"Ġdesktop":6852,"Ġsar":6853,"Ġceramic":6854,"Ġswivel":6855,"Ġquicker":6856,"Ġresistance":6857,"Ġrise":6858,"Ġcarried":6859,"Ġhumorous":6860,"Ġchemicals":6861,"Ġdelivers":6862,"Ġpatterson":6863,"ears":6864,"Ġhers":6865,"Ġquantity":6866,"Ġunw":6867,"Ġfetched":6868,"Ġanaly":6869,"Ġlikeable":6870,"Ġsubstit":6871,"Ġhitch":6872,"Ġreceipt":6873,"Ġkettle":6874,"Ġchic":6875,"Ġbothered":6876,"Ġavid":6877,"Ġsales":6878,"Ġsweatshirt":6879,"utions":6880,"Ġfreeze":6881,"Ġpsycho":6882,"waste":6883,"Ġcommand":6884,"Ġpointless":6885,"Ġpod":6886,"mond":6887,"Ġpaul":6888,"Ġsteady":6889,"Ġbam":6890,"Ġjudge":6891,"ober":6892,"Ġpeanut":6893,"Ġbarrel":6894,"Ġartists":6895,"leep":6896,"Ġshad":6897,"Ġphotography":6898,"Ġcalif":6899,"Ġasleep":6900,"Ġoverhe":6901,"Ġoctober":6902,"Ġstruggles":6903,"cles":6904,"Ġborrow":6905,"Ġeverybody":6906,"Ġwinner":6907,"vior":6908,"Ġflav":6909,"bal":6910,"Ġholidays":6911,"intage":6912,"Ġhinges":6913,"mis":6914,"Ġsupports":6915,"Ġhurry":6916,"Ġlamps":6917,"Ġengland":6918,"Ġwwii":6919,"Ġenh":6920,"Ġunif":6921,"Ġpresents":6922,"Ġven":6923,"Ġpea":6924,"Ġrecy":6925,"lif":6926,"oir":6927,"Ġsoph":6928,"Ġspeeds":6929,"Ġlargest":6930,"Ġamazingly":6931,"place":6932,"Ġcrafted":6933,"ilation":6934,"Ġgrace":6935,"Ġintermitt":6936,"Ġbless":6937,"Ġgasket":6938,"Ġoutcome":6939,"urig":6940,"Ġguns":6941,"pical":6942,"Ġinno":6943,"Ġsoundtrack":6944,"Ġfolding":6945,"cu":6946,"osoph":6947,"ateur":6948,"Ġmatters":6949,"Ġprev":6950,"Ġappealing":6951,"Ġconcert":6952,"Ġheaven":6953,"deli":6954,"Ġdisturbing":6955,"Ġfont":6956,"onest":6957,"please":6958,"cohol":6959,"Ġconfig":6960,"Ġphilosoph":6961,"Ġposts":6962,"Ġmexic":6963,"Ġcalling":6964,"Ġhall":6965,"Ġwhose":6966,"Ġgaps":6967,"Ġprepare":6968,"Ġbones":6969,"Ġcm":6970,"Ġcompleted":6971,"chers":6972,"Ġlum":6973,"Ġtermin":6974,"Ġtoyota":6975,"Ġcruise":6976,"Ġgoggles":6977,"ousy":6978,"Ġcube":6979,"Ġconfir":6980,"Ġmoon":6981,"Ġpostage":6982,"Ġoccasion":6983,"Ġadapters":6984,"Ġcompass":6985,"Ġexplanations":6986,"Ġflawlessly":6987,"Ġmush":6988,"Ġtightened":6989,"presso":6990,"from":6991,"Ġearring":6992,"Ġpla":6993,"Ġwings":6994,"Ġebook":6995,"acle":6996,"Ġsentence":6997,"Ġvintage":6998,"logical":6999,"Ġcaliforn":7000,"ita":7001,"chain":7002,"Ġcous":7003,"Ġflies":7004,"Ġthermometer":7005,"Ġcrunch":7006,"Ġcurve":7007,"ulator":7008,"Ġbund":7009,"Ġbuyers":7010,"Ġreduce":7011,"Ġtangled":7012,"Ġadvance":7013,"Ġafric":7014,"Ġattempted":7015,"Ġalcohol":7016,"Ġcontem":7017,"Ġaid":7018,"Ġworthwhile":7019,"comfort":7020,"Ġfleas":7021,"Ġattaches":7022,"Ġtreatment":7023,"iled":7024,"Ġblowing":7025,"Ġgem":7026,"Ġdeserves":7027,"Ġcomprehensive":7028,"Ġcancer":7029,"Ġdevot":7030,"Ġconvin":7031,"Ġroast":7032,"Ġincomplete":7033,"itude":7034,"Ġdecision":7035,"Ġlaughs":7036,"Ġrelevant":7037,"Ġcried":7038,"Ġdc":7039,"Ġmanufactured":7040,"sad":7041,"Ġlego":7042,"Ġwashings":7043,"Ġangry":7044,"Ġdots":7045,"Ġtales":7046,"down":7047,"acular":7048,"Ġnovember":7049,"Ġvary":7050,"Ġjim":7051,"Ġevol":7052,"Ġtoler":7053,"Ġmetall":7054,"Ġkeurig":7055,"Ġleaf":7056,"Ġvertical":7057,"Ġpremi":7058,"Ġfixture":7059,"Ġrecognized":7060,"Ġcamper":7061,"Ġcompanies":7062,"Ġstorm":7063,"lines":7064,"Ġgarmin":7065,"Ġpermanent":7066,"Ġfreezer":7067,"Ġreel":7068,"Ġamateur":7069,"tles":7070,"Ġbinder":7071,"Ġborn":7072,"Ġworkouts":7073,"Ġprotagonist":7074,"Ġslightest":7075,"Ġaudience":7076,"Ġsisters":7077,"ching":7078,"Ġcheep":7079,"Ġvegg":7080,"Ġclaimed":7081,"Ġaccommodate":7082,"Ġwrapping":7083,"Ġsooo":7084,"Ġcalifornia":7085,"thank":7086,"Ġinspect":7087,"Ġmarking":7088,"Ġencoura":7089,"ively":7090,"Ġexpectation":7091,"Ġquirky":7092,"Ġcomponents":7093,"Ġss":7094,"Ġfacing":7095,"Ġtesting":7096,"Ġspecs":7097,"simple":7098,"Ġtacky":7099,"Ġbucket":7100,"Ġsubtle":7101,"Ġsmith":7102,"Ġwaistband":7103,"Ġpupp":7104,"Ġdepartment":7105,"Ġsometime":7106,"Ġrainy":7107,"Ġpaj":7108,"Ġpiano":7109,"Ġsuccessful":7110,"Ġmarriage":7111,"Ġcarbon":7112,"Ġpunct":7113,"Ġsin":7114,"Ġoutlets":7115,"Ġbelts":7116,"Ġchewing":7117,"Ġwil":7118,"Ġmicrosoft":7119,"since":7120,"Ġcreepy":7121,"che":7122,"Ġcrocs":7123,"Ġgover":7124,"Ġfasten":7125,"Ġballoons":7126,"Ġscott":7127,"Ġearphones":7128,"makes":7129,"Ġvampire":7130,"Ġax":7131,"Ġdying":7132,"Ġeast":7133,"accept":7134,"Ġminus":7135,"Ġmeh":7136,"Ġbron":7137,"Ġintend":7138,"Ġholly":7139,"Ġphr":7140,"Ġcooling":7141,"Ġordinary":7142,"Ġhaha":7143,"Ġsunday":7144,"Ġcompliment":7145,"Ġinaccurate":7146,"Ġhanded":7147,"Ġspaces":7148,"Ġknit":7149,"Ġunstable":7150,"Ġplacing":7151,"placed":7152,"Ġlettering":7153,"mate":7154,"Ġshuts":7155,"Ġtablets":7156,"Ġmoderate":7157,"Ġnobody":7158,"Ġsupplier":7159,"alog":7160,"Ġsentences":7161,"always":7162,"gu":7163,"nat":7164,"Ġish":7165,"quit":7166,"Ġcivil":7167,"Ġresul":7168,"Ġedit":7169,"Ġpizz":7170,"Ġsounding":7171,"Ġharsh":7172,"found":7173,"Ġmessages":7174,"Ġnap":7175,"Ġpoet":7176,"fers":7177,"Ġree":7178,"sequ":7179,"better":7180,"Ġdefinite":7181,"Ġaccent":7182,"Ġanytime":7183,"abe":7184,"Ġdefeats":7185,"gie":7186,"Ġglitch":7187,"Ġlen":7188,"Ġsells":7189,"Ġprotein":7190,"Ġhorizont":7191,"Ġduct":7192,"ormal":7193,"Ġrunner":7194,"Ġmodify":7195,"Ġtouches":7196,"Ġentry":7197,"Ġchipping":7198,"Ġmajority":7199,"orrow":7200,"ators":7201,"Ġrules":7202,"full":7203,"Ġprose":7204,"Ġfunctioning":7205,"Ġquil":7206,"Ġlocations":7207,"ops":7208,"Ġweap":7209,"Ġrips":7210,"Ġindex":7211,"Ġinserted":7212,"Ġnike":7213,"Ġlayout":7214,"Ġlcd":7215,"Ġcollector":7216,"Ġclamps":7217,"Ġsurely":7218,"Ġbob":7219,"Ġwarmth":7220,"Ġinspired":7221,"Ġtim":7222,"Ġguid":7223,"oodle":7224,"ership":7225,"Ġcapture":7226,"Ġparent":7227,"gery":7228,"Ġbay":7229,"Ġdeserve":7230,"Ġtroubles":7231,"Ġcooked":7232,"Ġbathing":7233,"Ġstinks":7234,"Ġbrick":7235,"Ġgran":7236,"Ġaccurately":7237,"Ġembarrassed":7238,"Ġrefrigerator":7239,"Ġcraftsmanship":7240,"inest":7241,"Ġidentify":7242,"Ġstunning":7243,"Ġpoles":7244,"Ġrubb":7245,"Ġwrists":7246,"Ġprincess":7247,"Ġconvenience":7248,"imp":7249,"Ġerase":7250,"Ġtarn":7251,"Ġpolitics":7252,"table":7253,"Ġratt":7254,"Ġtro":7255,"Ġexpert":7256,"Ġsilk":7257,"Ġemotion":7258,"Ġoversized":7259,"Ġusers":7260,"Ġpaired":7261,"beware":7262,"Ġcrow":7263,"Ġdries":7264,"Ġtint":7265,"Ġjul":7266,"Ġgrowth":7267,"Ġtelevision":7268,"acceptable":7269,"Ġcharming":7270,"Ġdiscussion":7271,"Ġgovern":7272,"ua":7273,"Ġclimb":7274,"Ġfading":7275,"Ġrail":7276,"Ġcalc":7277,"Ġpremium":7278,"Ġgrandkids":7279,"Ġsharpener":7280,"Ġoriginals":7281,"Ġparan":7282,"Ġlifting":7283,"fair":7284,"Ġscam":7285,"fi":7286,"Ġdang":7287,"Ġbose":7288,"Ġshep":7289,"Ġtort":7290,"Ġiv":7291,"Ġcit":7292,"Ġstrand":7293,"Ġwel":7294,"earing":7295,"Ġsanta":7296,"of":7297,"Ġmixing":7298,"kn":7299,"ucing":7300,"lder":7301,"Ġjane":7302,"Ġouts":7303,"Ġburns":7304,"Ġslid":7305,"oul":7306,"finished":7307,"Ġextras":7308,"Ġresc":7309,"Ġsprings":7310,"Ġporch":7311,"Ġscrewdriver":7312,"mark":7313,"Ġtick":7314,"Ġdocumentary":7315,"Ġcere":7316,"Ġwoods":7317,"Ġsystems":7318,"Ġorders":7319,"Ġseals":7320,"Ġscore":7321,"Ġpersonality":7322,"same":7323,"Ġpile":7324,"Ġneedles":7325,"Ġswitches":7326,"Ġremains":7327,"Ġpoo":7328,"Ġequal":7329,"Ġcommercial":7330,"inder":7331,"Ġbelief":7332,"boo":7333,"Ġrin":7334,"Ġrefused":7335,"Ġmall":7336,"Ġcostco":7337,"Ġdrawings":7338,"Ġfooled":7339,"Ġplum":7340,"Ġtrunk":7341,"Ġruin":7342,"Ġencourage":7343,"craft":7344,"Ġaux":7345,"ieces":7346,"Ġloosely":7347,"Ġstretching":7348,"otic":7349,"Ġspac":7350,"Ġpatience":7351,"Ġbehavior":7352,"Ġintegr":7353,"Ġrendering":7354,"Ġathletic":7355,"Ġtherap":7356,"Ġjersey":7357,"Ġjean":7358,"Ġintrigued":7359,"hea":7360,"Ġenlight":7361,"Ġstoring":7362,"Ġinterface":7363,"live":7364,"Ġlas":7365,"Ġinsole":7366,"Ġpliers":7367,"Ġblast":7368,"Ġcrate":7369,"Ġmetallic":7370,"Ġfreezing":7371,"Ġpedal":7372,"Ġwitty":7373,"Ġstoryte":7374,"Ġmice":7375,"Ġexplor":7376,"Ġmower":7377,"Ġsprayed":7378,"rels":7379,"Ġruss":7380,"Ġcray":7381,"prob":7382,"Ġartific":7383,"Ġcatching":7384,"Ġrazor":7385,"Ġsprink":7386,"Ġpreference":7387,"Ġdynam":7388,"Ġguests":7389,"Ġdirected":7390,"Ġsinger":7391,"Ġoccasions":7392,"Ġbasement":7393,"Ġplacement":7394,"omen":7395,"Ġshared":7396,"Ġattachments":7397,"Ġjazz":7398,"Ġstatement":7399,"flix":7400,"Ġowning":7401,"Ġhint":7402,"Ġarmy":7403,"Ġaccuracy":7404,"Ġemailed":7405,"inct":7406,"Ġhighlight":7407,"Ġspectacular":7408,"mare":7409,"Ġexceeded":7410,"Ġcushioning":7411,"Ġconsole":7412,"Ġsurgery":7413,"Ġdiscontin":7414,"Ġmarried":7415,"Ġresolved":7416,"Ġresponsive":7417,"Ġnetflix":7418,"Ġuniform":7419,"Ġrifle":7420,"iration":7421,"Ġdefl":7422,"Ġbridge":7423,"Ġfac":7424,"Ġproud":7425,"Ġactor":7426,"Ġvague":7427,"Ġbikes":7428,"anda":7429,"Ġblows":7430,"Ġsteering":7431,"Ġcig":7432,"Ġunacceptable":7433,"Ġpointed":7434,"Ġhumidity":7435,"iveness":7436,"Ġliber":7437,"Ġjen":7438,"Ġroof":7439,"Ġmeasurement":7440,"Ġrhinest":7441,"Ġcert":7442,"Ġinconsistent":7443,"Ġdepicted":7444,"Ġconsistency":7445,"Ġsimplistic":7446,"Ġcad":7447,"Ġtut":7448,"Ġquilt":7449,"Ġactions":7450,"Ġtightening":7451,"Ġbreathable":7452,"dge":7453,"Ġsupplies":7454,"Ġrecorded":7455,"Ġrobert":7456,"Ġspeaking":7457,"Ġrepaired":7458,"Ġinstrument":7459,"lict":7460,"Ġjoint":7461,"Ġinspiration":7462,"Ġapproximately":7463,"probably":7464,"fab":7465,"Ġsurvival":7466,"Ġweighs":7467,"Ġwea":7468,"Ġdesire":7469,"Ġstitched":7470,"Ġbracelets":7471,"Ġhoo":7472,"Ġsomebody":7473,"Ġengage":7474,"pan":7475,"Ġbrist":7476,"bas":7477,"Ġsess":7478,"Ġboss":7479,"Ġconflict":7480,"Ġprojector":7481,"Ġment":7482,"Ġsecured":7483,"Ġrevol":7484,"urdy":7485,"umbled":7486,"Ġdice":7487,"Ġbod":7488,"Ġhappily":7489,"Ġmaxim":7490,"Ġarrange":7491,"Ġitalian":7492,"uten":7493,"Ġpartially":7494,"Ġtrade":7495,"Ġtwenty":7496,"Ġnightmare":7497,"Ġbreakfast":7498,"Ġfm":7499,"Ġintroduced":7500,"Ġcrew":7501,"raction":7502,"Ġshapes":7503,"usi":7504,"teen":7505,"Ġregion":7506,"Ġtunes":7507,"Ġdose":7508,"Ġsearched":7509,"kers":7510,"Ġpam":7511,"Ġhosp":7512,"Ġsurvived":7513,"Ġjammed":7514,"Ġcarries":7515,"Ġburg":7516,"Ġmarketing":7517,"Ġawa":7518,"Ġdancing":7519,"Ġenthusi":7520,"Ġswimsuit":7521,"Ġdents":7522,"Ġtaught":7523,"Ġchron":7524,"Ġtoddlers":7525,"Ġautomatic":7526,"Ġbounce":7527,"hu":7528,"totally":7529,"Ġoils":7530,"gent":7531,"Ġdistort":7532,"Ġteal":7533,"Ġfer":7534,"Ġtiss":7535,"Ġcha":7536,"Ġsilent":7537,"comp":7538,"Ġartificial":7539,"icult":7540,"Ġsheath":7541,"Ġgarment":7542,"bruary":7543,"ura":7544,"Ġrelief":7545,"Ġdeals":7546,"cloth":7547,"Ġcole":7548,"Ġfebruary":7549,"Ġnoises":7550,"Ġacted":7551,"Ġbreaker":7552,"Ġtalks":7553,"Ġrapid":7554,"Ġinconvenient":7555,"Ġfence":7556,"Ġpier":7557,"sec":7558,"Ġasian":7559,"Ġessentially":7560,"pu":7561,"Ġamusing":7562,"Ġcommunity":7563,"Ġramb":7564,"Ġportray":7565,"Ġdrilled":7566,"Ġcalib":7567,"Ġhesitate":7568,"Ġflour":7569,"Ġroyal":7570,"Ġvehicles":7571,"Ġembro":7572,"Ġsatur":7573,"gic":7574,"Ġpi":7575,"usible":7576,"Ġnu":7577,"Ġthomas":7578,"Ġfluid":7579,"Ġgeorge":7580,"Ġstruggled":7581,"Ġknobs":7582,"beca":7583,"Ġflop":7584,"Ġexha":7585,"honest":7586,"ingy":7587,"Ġshakes":7588,"Ġlever":7589,"Ġmakeup":7590,"Ġfreezes":7591,"ba":7592,"keeps":7593,"Ġadhere":7594,"Ġcoated":7595,"worth":7596,"Ġimagin":7597,"Ġtreasure":7598,"Ġunscrew":7599,"pleas":7600,"Ġcontrived":7601,"garbage":7602,"Ġtheater":7603,"been":7604,"Ġdistorted":7605,"Ġpregnant":7606,"aries":7607,"Ġalmond":7608,"Ġreached":7609,"Ġsupplied":7610,"Ġcombined":7611,"Ġreduced":7612,"Ġdough":7613,"Ġnons":7614,"Ġmeals":7615,"Ġfaces":7616,"Ġine":7617,"Ġkong":7618,"disappointing":7619,"Ġfashioned":7620,"wich":7621,"Ġpell":7622,"lovely":7623,"Ġrotate":7624,"Ġalter":7625,"Ġmugs":7626,"Ġwrinkle":7627,"Ġmono":7628,"Ġriver":7629,"Ġchains":7630,"Ġinflated":7631,"Ġjokes":7632,"Ġbumps":7633,"Ġaa":7634,"Ġmerch":7635,"Ġsolo":7636,"Ġcock":7637,"Ġfaint":7638,"Ġful":7639,"Ġbooklet":7640,"Ġdetached":7641,"Ġindustry":7642,"Ġembroider":7643,"Ġhates":7644,"Ġrods":7645,"sturdy":7646,"Ġexhaust":7647,"Ġplans":7648,"pson":7649,"Ġsupported":7650,"list":7651,"Ġunderstood":7652,"Ġboost":7653,"Ġfragr":7654,"Ġadvant":7655,"Ġinvestig":7656,"Ġdissappoin":7657,"agers":7658,"Ġcurved":7659,"umpy":7660,"because":7661,"Ġeb":7662,"Ġlies":7663,"Ġrush":7664,"Ġbran":7665,"Ġspell":7666,"ugs":7667,"dog":7668,"Ġflavored":7669,"meh":7670,"Ġnevertheless":7671,"Ġmixer":7672,"Ġbeef":7673,"Ġsac":7674,"long":7675,"Ġlowest":7676,"Ġaustr":7677,"acks":7678,"finally":7679,"Ġecho":7680,"load":7681,"Ġfamous":7682,"Ġnovella":7683,"Ġhay":7684,"Ġmyth":7685,"Ġsupporting":7686,"Ġsouthern":7687,"Ġwhom":7688,"Ġscenar":7689,"Ġeats":7690,"Ġremark":7691,"Ġvirtually":7692,"ooper":7693,"Ġsandwich":7694,"yi":7695,"Ġorganizer":7696,"Ġsofa":7697,"Ġgenius":7698,"Ġexplaining":7699,"Ġlandsca":7700,"Ġalto":7701,"oured":7702,"asonic":7703,"ceptive":7704,"Ġkeeper":7705,"aren":7706,"Ġproviding":7707,"Ġner":7708,"Ġchallenges":7709,"short":7710,"Ġwoven":7711,"Ġbringing":7712,"Ġmillion":7713,"Ġornament":7714,"Ġrooms":7715,"Ġgovernment":7716,"Ġmeter":7717,"Ġstruggling":7718,"Ġstab":7719,"mbol":7720,"Ġindoors":7721,"Ġsuits":7722,"Ġprimary":7723,"Ġunfinished":7724,"Ġfarm":7725,"price":7726,"ission":7727,"feels":7728,"Ġchef":7729,"Ġsymbol":7730,"Ġcatches":7731,"Ġnerv":7732,"honestly":7733,"Ġnervous":7734,"Ġvine":7735,"Ġreminder":7736,"Ġtremend":7737,"Ġuplif":7738,"Ġopenings":7739,"Ġkeychain":7740,"Ġduplic":7741,"Ġtempor":7742,"Ġparanormal":7743,"rec":7744,"Ġtrays":7745,"Ġolive":7746,"Ġcateg":7747,"izes":7748,"cons":7749,"Ġgluten":7750,"Ġfills":7751,"Ġneon":7752,"Ġpasta":7753,"rist":7754,"Ġpressing":7755,"Ġcliffh":7756,"Ġdick":7757,"Ġpizza":7758,"Ġgreater":7759,"Ġhardwood":7760,"Ġclou":7761,"Ġcondens":7762,"Ġsecrets":7763,"Ġexchanged":7764,"Ġloun":7765,"taste":7766,"Ġspy":7767,"Ġskull":7768,"Ġfed":7769,"Ġhors":7770,"Ġtomato":7771,"difficult":7772,"Ġarthrit":7773,"Ġquotes":7774,"Ġclue":7775,"Ġraise":7776,"Ġsynthetic":7777,"iel":7778,"Ġdimensional":7779,"text":7780,"Ġtrial":7781,"Ġreread":7782,"Ġgag":7783,"Ġprogramming":7784,"wire":7785,"Ġreact":7786,"Ġasus":7787,"Ġexter":7788,"Ġwearable":7789,"Ġwarming":7790,"Ġvir":7791,"Ġlevi":7792,"Ġadvertise":7793,"brush":7794,"Ġminimum":7795,"Ġdrip":7796,"Ġdeveloping":7797,"Ġironing":7798,"natural":7799,"Ġgrain":7800,"Ġoperating":7801,"oting":7802,"Ġappli":7803,"10":7804,"Ġsites":7805,"Ġpatient":7806,"Ġtomorrow":7807,"Ġreflective":7808,"Ġdownfall":7809,"Ġcoats":7810,"Ġteas":7811,"Ġsummary":7812,"Ġhazard":7813,"Ġhandful":7814,"Ġcomplained":7815,"Ġsyrup":7816,"Ġfraction":7817,"Ġepic":7818,"slow":7819,"Ġarticle":7820,"Ġobsessed":7821,"Ġstephen":7822,"kel":7823,"Ġclums":7824,"Ġexecution":7825,"Ġhollywood":7826,"som":7827,"Ġpistol":7828,"Ġsoaked":7829,"Ġsuede":7830,"itech":7831,"Ġstreaming":7832,"Ġopposed":7833,"ooms":7834,"Ġviews":7835,"quite":7836,"Ġblues":7837,"Ġsources":7838,"gon":7839,"Ġreadings":7840,"Ġlake":7841,"Ġdelighted":7842,"Ġreligion":7843,"Ġexpos":7844,"Ġdiction":7845,"Ġconfidence":7846,"Ġsupplement":7847,"lent":7848,"thin":7849,"Ġsilky":7850,"Ġeuropean":7851,"ford":7852,"Ġtilt":7853,"Ġuniverse":7854,"Ġupgraded":7855,"Ġassuming":7856,"Ġrecall":7857,"new":7858,"Ġangel":7859,"Ġstir":7860,"Ġwithstand":7861,"Ġredeem":7862,"ek":7863,"hs":7864,"Ġtask":7865,"Ġconfident":7866,"Ġtreated":7867,"Ġvoltage":7868,"Ġgather":7869,"vey":7870,"Ġsuggestion":7871,"Ġinj":7872,"Ġengross":7873,"Ġmanufacture":7874,"Ġselected":7875,"Ġber":7876,"Ġconcent":7877,"Ġmalfunction":7878,"Ġindian":7879,"ku":7880,"Ġdescribes":7881,"Ġforgotten":7882,"Ġplatform":7883,"Ġpods":7884,"Ġflows":7885,"kee":7886,"Ġhollow":7887,"Ġsaga":7888,"Ġaccessible":7889,"Ġprongs":7890,"Ġlousy":7891,"Ġprepar":7892,"Ġcloud":7893,"Ġhusbands":7894,"Ġbreathe":7895,"Ġnovelty":7896,"Ġknocked":7897,"Ġfeathers":7898,"Ġscot":7899,"Ġchoppy":7900,"buy":7901,"Ġneighb":7902,"Ġjet":7903,"Ġillustrated":7904,"cling":7905,"Ġwilli":7906,"Ġfid":7907,"Ġthoughtful":7908,"Ġstood":7909,"Ġofficial":7910,"Ġdistrib":7911,"Ġorganize":7912,"Ġsoil":7913,"Ġbeam":7914,"Ġhammo":7915,"pled":7916,"Ġcushions":7917,"Ġcaptured":7918,"market":7919,"ials":7920,"aret":7921,"Ġhunter":7922,"Ġbamboo":7923,"cope":7924,"Ġchill":7925,"prints":7926,"Ġmarvel":7927,"Ġversus":7928,"Ġstuds":7929,"Ġsoccer":7930,"ousand":7931,"Ġlogitech":7932,"Ġchosen":7933,"Ġcontrast":7934,"Ġpra":7935,"Ġprod":7936,"Ġwisdom":7937,"Ġsatisfactory":7938,"Ġinflu":7939,"Ġinsoles":7940,"Ġlightning":7941,"Ġthousand":7942,"Ġhopeful":7943,"Ġhonor":7944,"Ġthrilling":7945,"Ġlegal":7946,"Ġplanet":7947,"Ġprograms":7948,"Ġsparkle":7949,"Ġhorses":7950,"enger":7951,"Ġcrown":7952,"Ġnarrower":7953,"Ġvoices":7954,"Ġassort":7955,"Ġdimmer":7956,"Ġdisposable":7957,"Ġidi":7958,"Ġutens":7959,"Ġcrystals":7960,"Ġscrubs":7961,"Ġflatten":7962,"Ġskips":7963,"Ġenvelop":7964,"Ġwraps":7965,"mother":7966,"nes":7967,"Ġwing":7968,"Ġsword":7969,"Ġcoach":7970,"Ġsubstitute":7971,"Ġfyi":7972,"ille":7973,"Ġnecessarily":7974,"open":7975,"sme":7976,"Ġpul":7977,"Ġsoda":7978,"Ġlightly":7979,"Ġrechargeable":7980,"gend":7981,"Ġprimarily":7982,"giving":7983,"Ġratings":7984,"Ġmenu":7985,"Ġneut":7986,"Ġpoetry":7987,"Ġnick":7988,"ember":7989,"Ġgrandma":7990,"Ġspilled":7991,"Ġbronze":7992,"Ġpreview":7993,"Ġfoil":7994,"Ġindicate":7995,"Ġvocals":7996,"Ġpublisher":7997,"Ġreverse":7998,"Ġcaution":7999,"Ġportrayed":8000,"Ġeager":8001,"izon":8002,"aken":8003,"lin":8004,"Ġgate":8005,"Ġheated":8006,"Ġmeeting":8007,"Ġstaples":8008,"Ġeaster":8009,"Ġpero":8010,"Ġsprayer":8011,"Ġsnacks":8012,"Ġseptember":8013,"uate":8014,"Ġteaches":8015,"Ġreordered":8016,"Ġacad":8017,"Ġcourage":8018,"Ġarticles":8019,"Ġproduces":8020,"Ġhunt":8021,"Ġutil":8022,"actually":8023,"Ġdemon":8024,"Ġlantern":8025,"wanted":8026,"seemed":8027,"uster":8028,"Ġexpiration":8029,"Ġgrinding":8030,"Ġindividually":8031,"Ġangles":8032,"Ġrepeatedly":8033,"Ġassortment":8034,"Ġelder":8035,"Ġuseable":8036,"Ġhotel":8037,"Ġaim":8038,"Ġroberts":8039,"Ġmane":8040,"Ġenjoyment":8041,"Ġtraction":8042,"Ġoutfits":8043,"Ġmah":8044,"Ġensure":8045,"Ġdraws":8046,"Ġmemorable":8047,"perate":8048,"Ġlegend":8049,"Ġfunky":8050,"Ġwiggle":8051,"Ġcircumst":8052,"Ġstolen":8053,"Ġprivacy":8054,"Ġoverwhelming":8055,"bi":8056,"Ġbristles":8057,"Ġhospital":8058,"felt":8059,"little":8060,"Ġmachines":8061,"Ġdiscontinued":8062,"Ġboom":8063,"Ġreaction":8064,"Ġfemin":8065,"Ġdinos":8066,"Ġgems":8067,"that":8068,"than":8069,"Ġsensit":8070,"Ġheavily":8071,"Ġfund":8072,"Ġgifted":8073,"Ġthreaded":8074,"Ġclumsy":8075,"Ġformer":8076,"Ġplanted":8077,"igan":8078,"Ġflawed":8079,"Ġeffectively":8080,"ounted":8081,"Ġbullet":8082,"Ġexterior":8083,"Ġclay":8084,"Ġschedule":8085,"Ġari":8086,"Ġrect":8087,"Ġexplic":8088,"Ġcloses":8089,"Ġbegins":8090,"Ġhousehold":8091,"Ġplanner":8092,"Ġloads":8093,"Ġblame":8094,"Ġgrasp":8095,"Ġredund":8096,"total":8097,"Ġpuff":8098,"Ġalittle":8099,"Ġscream":8100,"Ġcousin":8101,"Ġcontinuing":8102,"Ġgadget":8103,"Ġpoke":8104,"Ġtopper":8105,"Ġfrost":8106,"Ġdrew":8107,"zer":8108,"Ġdys":8109,"Ġkitt":8110,"Ġburner":8111,"Ġindicator":8112,"inte":8113,"amas":8114,"Ġvictor":8115,"Ġgripe":8116,"Ġorganization":8117,"Ġtendency":8118,"Ġsquea":8119,"nie":8120,"acon":8121,"Ġrecords":8122,"Ġjoints":8123,"Ġreply":8124,"Ġlifest":8125,"Ġslice":8126,"Ġstitches":8127,"Ġverizon":8128,"Ġabruptly":8129,"Ġoverse":8130,"Ġplugging":8131,"Ġcork":8132,"Ġpowers":8133,"who":8134,"Ġwolf":8135,"Ġfuse":8136,"Ġcharl":8137,"Ġdeleted":8138,"etimes":8139,"Ġward":8140,"Ġampl":8141,"Ġtraps":8142,"Ġattaching":8143,"Ġrugs":8144,"Ġalpha":8145,"Ġneighbors":8146,"oise":8147,"Ġserial":8148,"Ġcoins":8149,"Ġstudying":8150,"Ġinternational":8151,"Ġremembered":8152,"Ġrabbit":8153,"Ġaust":8154,"Ġcoin":8155,"Ġbubb":8156,"Ġoffering":8157,"Ġblower":8158,"Ġbeds":8159,"Ġdeeply":8160,"somewhat":8161,"Ġmirrors":8162,"enomen":8163,"Ġintu":8164,"Ġinteraction":8165,"Ġbreed":8166,"Ġspills":8167,"Ġarrives":8168,"Ġhealing":8169,"Ġveggies":8170,"Ġfloppy":8171,"Ġknockoff":8172,"bar":8173,"Ġsav":8174,"Ġpreach":8175,"taining":8176,"Ġprevents":8177,"Ġcath":8178,"Ġflesh":8179,"Ġtracking":8180,"Ġvegetables":8181,"Ġpricing":8182,"Ġairpl":8183,"Ġcabinets":8184,"Ġalike":8185,"ago":8186,"ucks":8187,"Ġdrags":8188,"Ġnovice":8189,"Ġespresso":8190,"aky":8191,"Ġrusting":8192,"Ġspoons":8193,"Ġster":8194,"urt":8195,"Ġsmelling":8196,"commend":8197,"Ġglossy":8198,"Ġvillain":8199,"Ġgrom":8200,"Ġincorrectly":8201,"Ġmartin":8202,"Ġspoiled":8203,"pleasant":8204,"Ġhtc":8205,"Ġado":8206,"Ġparties":8207,"Ġsubtit":8208,"Ġaltogether":8209,"kept":8210,"Ġanswered":8211,"Ġattempting":8212,"Ġemails":8213,"Ġfrankly":8214,"50":8215,"shipping":8216,"Ġoddly":8217,"Ġdenim":8218,"Ġinsane":8219,"cient":8220,"Ġfrustration":8221,"Ġelementary":8222,"yard":8223,"Ġwaff":8224,"Ġstopping":8225,"Ġrubbery":8226,"resp":8227,"Ġspecified":8228,"Ġimportantly":8229,"Ġfuzz":8230,"Ġshredded":8231,"Ġcritical":8232,"flimsy":8233,"bra":8234,"Ġsalty":8235,"Ġhammock":8236,"inate":8237,"Ġretro":8238,"Ġjackson":8239,"lical":8240,"Ġvalues":8241,"Ġdisconnected":8242,"ene":8243,"Ġcooks":8244,"max":8245,"Ġfeeding":8246,"Ġspinning":8247,"Ġlonge":8248,"Ġinflate":8249,"Ġadvantage":8250,"Ġairport":8251,"Ġcreases":8252,"Ġriveting":8253,"ham":8254,"Ġlime":8255,"Ġpresident":8256,"Ġinseam":8257,"Ġachieve":8258,"sometimes":8259,"plastic":8260,"Ġcollecting":8261,"Ġstairs":8262,"Ġshark":8263,"Ġblouse":8264,"Ġhurting":8265,"Ġuplifting":8266,"Ġinsulated":8267,"Ġdelay":8268,"Ġdramatic":8269,"Ġhesitant":8270,"Ġcartoon":8271,"Ġnavigate":8272,"Ġrestart":8273,"Ġcraw":8274,"Ġfirmly":8275,"Ġsquirrels":8276,"Ġacadem":8277,"erely":8278,"Ġdeceptive":8279,"iday":8280,"Ġdisaster":8281,"Ġstripes":8282,"Ġdictionary":8283,"Ġoce":8284,"Ġbundle":8285,"huah":8286,"Ġgarlic":8287,"Ġfrequent":8288,"Ġlongevity":8289,"Ġunread":8290,"Ġcompos":8291,"Ġrestaurant":8292,"Ġitaly":8293,"Ġyummy":8294,"Ġtote":8295,"Ġsalad":8296,"Ġanalysis":8297,"Ġasics":8298,"Ġkink":8299,"beat":8300,"Ġserv":8301,"Ġtempered":8302,"Ġoptim":8303,"Ġexplicit":8304,"Ġnative":8305,"Ġmethods":8306,"Ġlany":8307,"Ġchihuah":8308,"anie":8309,"Ġeleph":8310,"ift":8311,"Ġdinosaur":8312,"erson":8313,"Ġvolunt":8314,"Ġpanasonic":8315,"Ġgermin":8316,"boring":8317,"Ġeasiest":8318,"ressed":8319,"Ġpilot":8320,"resh":8321,"Ġdecals":8322,"Ġlux":8323,"ifer":8324,"Ġtransmitter":8325,"inge":8326,"Ġsafely":8327,"Ġremaining":8328,"Ġinvent":8329,"Ġgoal":8330,"Ġsewed":8331,"Ġcircuit":8332,"Ġsparkly":8333,"Ġoverseas":8334,"Ġcontacting":8335,"Ġclicking":8336,"Ġsensitivity":8337,"Ġpir":8338,"Ġvibration":8339,"Ġperformances":8340,"Ġduvet":8341,"uk":8342,"Ġmental":8343,"Ġwindy":8344,"Ġrepro":8345,"Ġutter":8346,"Ġcritic":8347,"Ġebay":8348,"Ġbush":8349,"Ġjaw":8350,"Ġmanip":8351,"Ġbling":8352,"Ġtalked":8353,"Ġsher":8354,"Ġsteve":8355,"Ġhomes":8356,"pred":8357,"Ġcontext":8358,"save":8359,"Ġunsure":8360,"Ġpearl":8361,"Ġrhinestones":8362,"Ġgrows":8363,"Ġtumb":8364,"Ġsuck":8365,"Ġimmense":8366,"flow":8367,"Ġmexico":8368,"Ġfulfill":8369,"Ġec":8370,"Ġdeer":8371,"Ġcomplaining":8372,"Ġlists":8373,"Ġabsorbent":8374,"Ġalien":8375,"Ġgopro":8376,"Ġowners":8377,"Ġdreams":8378,"Ġcompanion":8379,"Ġintelligent":8380,"Ġoak":8381,"Ġthemes":8382,"Ġfixing":8383,"user":8384,"Ġconsuming":8385,"ivalent":8386,"Ġbills":8387,"Ġuv":8388,"Ġtrek":8389,"Ġviolent":8390,"Ġrobust":8391,"Ġmosquit":8392,"Ġconvert":8393,"Ġseparating":8394,"adorable":8395,"Ġmassive":8396,"encies":8397,"Ġsuperf":8398,"Ġteenagers":8399,"eping":8400,"Ġmodem":8401,"known":8402,"Ġyuck":8403,"Ġcontinuation":8404,"Ġdescribing":8405,"Ġsupposedly":8406,"Ġaes":8407,"Ġdetermine":8408,"description":8409,"Ġscanner":8410,"Ġexpans":8411,"Ġkitten":8412,"Ġcontrollers":8413,"Ġmanagement":8414,"Ġprayer":8415,"Ġfuss":8416,"blem":8417,"Ġspiral":8418,"zi":8419,"Ġfellow":8420,"cand":8421,"Ġgranted":8422,"Ġcares":8423,"Ġtubing":8424,"Ġexcessive":8425,"Ġrebo":8426,"sell":8427,"Ġdiscolored":8428,"sons":8429,"Ġliners":8430,"Ġestim":8431,"Ġcommentary":8432,"Ġnewborn":8433,"Ġdiscus":8434,"Ġhomemade":8435,"Ġopera":8436,"Ġsponge":8437,"Ġrecordings":8438,"Ġburst":8439,"Ġsenior":8440,"fly":8441,"nn":8442,"Ġrely":8443,"Ġblister":8444,"ensity":8445,"Ġflame":8446,"Ġmagical":8447,"Ġrental":8448,"usive":8449,"Ġrelatable":8450,"Ġmolded":8451,"Ġsoften":8452,"Ġshepher":8453,"Ġloading":8454,"Ġfriendship":8455,"Ġlooser":8456,"Ġdiagra":8457,"Ġcaptures":8458,"Ġwhistle":8459,"Ġneutral":8460,"ikes":8461,"reek":8462,"Ġbald":8463,"Ġstudies":8464,"Ġscientific":8465,"Ġresolve":8466,"Ġginger":8467,"Ġfaux":8468,"Ġdiab":8469,"Ġpatches":8470,"vation":8471,"Ġreh":8472,"Ġtransaction":8473,"Ġupdates":8474,"Ġmonitors":8475,"Ġcourt":8476,"Ġcontempor":8477,"iser":8478,"Ġbead":8479,"package":8480,"Ġbiography":8481,"Ġcowboy":8482,"Ġfollows":8483,"Ġcham":8484,"Ġhearted":8485,"Ġtitles":8486,"Ġjerky":8487,"Ġox":8488,"uffle":8489,"Ġvisor":8490,"Ġhorizontal":8491,"Ġmike":8492,"Ġpumps":8493,"Ġgoodwill":8494,"Ġgenerous":8495,"Ġafterwards":8496,"Ġflicker":8497,"Ġpolished":8498,"Ġdowns":8499,"Ġroutine":8500,"inal":8501,"Ġflats":8502,"Ġsmoking":8503,"Ġchase":8504,"Ġultimate":8505,"Ġeve":8506,"Ġgrandmother":8507,"Ġflashing":8508,"Ġunsatisfied":8509,"Ġenvelopes":8510,"Ġdun":8511,"Ġshall":8512,"Ġeducation":8513,"within":8514,"Ġhundreds":8515,"igible":8516,"Ġcherry":8517,"Ġvhs":8518,"erized":8519,"Ġchevy":8520,"Ġpaste":8521,"coal":8522,"Ġvalent":8523,"Ġprinci":8524,"Ġforeign":8525,"Ġsneaker":8526,"Ġet":8527,"Ġwast":8528,"Ġchunks":8529,"venile":8530,"liable":8531,"tender":8532,"Ġextensive":8533,"Ġmission":8534,"Ġtat":8535,"Ġbicy":8536,"Ġsheds":8537,"Ġclassics":8538,"Ġcharms":8539,"Ġtraff":8540,"Ġcurl":8541,"Ġprone":8542,"Ġhumans":8543,"Ġequivalent":8544,"Ġunknown":8545,"Ġbuckles":8546,"stop":8547,"Ġfriday":8548,"Ġtoxic":8549,"Ġcharcoal":8550,"Ġmens":8551,"Ġphenomen":8552,"Ġclark":8553,"Ġlately":8554,"Ġgoods":8555,"Ġsolutions":8556,"Ġpositions":8557,"Ġcalories":8558,"Ġdiamonds":8559,"Ġscroll":8560,"Ġcollars":8561,"Ġvoca":8562,"reading":8563,"Ġbenefits":8564,"Ġassign":8565,"Ġcliffhanger":8566,"Ġko":8567,"Ġladder":8568,"pler":8569,"Ġdiaper":8570,"Ġlave":8571,"Ġsuitcase":8572,"Ġtower":8573,"Ġequally":8574,"urally":8575,"Ġspicy":8576,"vested":8577,"Ġtoothp":8578,"Ġcontinuously":8579,"ja":8580,"Ġaggress":8581,"Ġcele":8582,"Ġmanufacturers":8583,"Ġrescue":8584,"ales":8585,"Ġaddict":8586,"Ġflaps":8587,"Ġtricks":8588,"Ġfades":8589,"stone":8590,"Ġjig":8591,"Ġkore":8592,"Ġwritings":8593,"Ġgrabbed":8594,"Ġbrad":8595,"Ġinsulation":8596,"Ġmeasures":8597,"Ġheroes":8598,"soci":8599,"Ġcompilation":8600,"Ġhearts":8601,"Ġocean":8602,"Ġspices":8603,"Ġactivate":8604,"Ġanchor":8605,"Ġpand":8606,"Ġexperiment":8607,"Ġbatman":8608,"Ġfraying":8609,"alt":8610,"Ġgrounds":8611,"wrong":8612,"Ġsmoothies":8613,"Ġvoluntarily":8614,"bur":8615,"Ġbacon":8616,"Ġbackyard":8617,"Ġcontinually":8618,"Ġcave":8619,"Ġwarn":8620,"Ġfloating":8621,"Ġjunior":8622,"Ġindepend":8623,"Ġmaneu":8624,"Ġunreadable":8625,"Ġunpleasant":8626,"Ġscrap":8627,"Ġtapes":8628,"Ġdecently":8629,"Ġtrend":8630,"part":8631,"Ġexpense":8632,"Ġintention":8633,"Ġboxer":8634,"Ġacce":8635,"Ġpanca":8636,"Ġdemand":8637,"Ġbiblical":8638,"Ġcontemporary":8639,"Ġfict":8640,"Ġassoci":8641,"stic":8642,"Ġirish":8643,"Ġdocuments":8644,"Ġprivate":8645,"Ġaccomplish":8646,"pret":8647,"Ġpac":8648,"Ġteachers":8649,"init":8650,"almost":8651,"Ġcrank":8652,"Ġengra":8653,"Ġfreed":8654,"Ġturqu":8655,"Ġdefects":8656,"sadly":8657,"Ġcircumstances":8658,"Ġlifestyle":8659,"Ġgust":8660,"umble":8661,"Ġtummy":8662,"Ġdense":8663,"Ġze":8664,"Ġjuvenile":8665,"Ġpond":8666,"athy":8667,"hi":8668,"urance":8669,"acute":8670,"Ġanne":8671,"predictable":8672,"rition":8673,"Ġast":8674,"Ġpitcher":8675,"Ġintuitive":8676,"pointing":8677,"plate":8678,"Ġpixel":8679,"Ġrend":8680,"erfect":8681,"Ġimperfect":8682,"Ġwipes":8683,"Ġconverter":8684,"rom":8685,"Ġsnugg":8686,"takes":8687,"Ġimaginative":8688,"Ġfest":8689,"Ġtrucks":8690,"stal":8691,"pher":8692,"fell":8693,"Ġpeter":8694,"Ġflew":8695,"mets":8696,"Ġpip":8697,"Ġpreschool":8698,"Ġholy":8699,"Ġguides":8700,"Ġclas":8701,"Ġnutrition":8702,"Ġelderly":8703,"cop":8704,"Ġchoo":8705,"namon":8706,"lections":8707,"Ġanth":8708,"Ġreput":8709,"Ġscenery":8710,"Ġflexibility":8711,"Ġdissappointed":8712,"Ġadore":8713,"Ġfox":8714,"Ġmaximum":8715,"ooks":8716,"Ġturquoise":8717,"uction":8718,"Ġcapable":8719,"Ġvibr":8720,"uits":8721,"ona":8722,"Ġstability":8723,"Ġcorro":8724,"Ġobjects":8725,"Ġtic":8726,"Ġbake":8727,"Ġfoul":8728,"Ġclearer":8729,"Ġnora":8730,"Ġindicates":8731,"dr":8732,"Ġfri":8733,"Ġdates":8734,"Ġgut":8735,"Ġcupcakes":8736,"rell":8737,"Ġrefills":8738,"Ġzone":8739,"Ġcommit":8740,"oodles":8741,"andex":8742,"Ġwashable":8743,"Ġmargin":8744,"Ġgermany":8745,"Ġcelebr":8746,"Ġcodes":8747,"Ġbudd":8748,"Ġgrainy":8749,"Ġbbq":8750,"Ġfragrance":8751,"encing":8752,"Ġchop":8753,"Ġnonsense":8754,"Ġhike":8755,"Ġturtle":8756,"Ġfry":8757,"Ġmand":8758,"bris":8759,"Ġpushes":8760,"Ġgently":8761,"Ġviet":8762,"Ġendings":8763,"Ġcinnamon":8764,"Ġgh":8765,"Ġalas":8766,"Ġkate":8767,"unit":8768,"Ġrevealed":8769,"Ġdebris":8770,"Ġkeen":8771,"Ġmort":8772,"usable":8773,"Ġpajamas":8774,"Ġupcoming":8775,"Ġspins":8776,"Ġredundant":8777,"Ġbasketball":8778,"Ġpouring":8779,"Ġlays":8780,"Ġcostumes":8781,"Ġrepresented":8782,"Ġinvested":8783,"Ġrainbow":8784,"Ġemploy":8785,"Ġguarantee":8786,"Ġweekly":8787,"Ġspeaks":8788,"Ġcran":8789,"Ġemph":8790,"Ġspider":8791,"Ġmitt":8792,"Ġextender":8793,"Ġenem":8794,"Ġspool":8795,"Ġgroups":8796,"Ġmechanical":8797,"arium":8798,"Ġancient":8799,"Ġsquish":8800,"Ġjeff":8801,"Ġscuffed":8802,"Ġhanes":8803,"Ġchihuahua":8804,"gers":8805,"arms":8806,"bbing":8807,"Ġharmon":8808,"second":8809,"Ġlavender":8810,"Ġarg":8811,"absolute":8812,"plays":8813,"cut":8814,"Ġseeking":8815,"Ġwashers":8816,"Ġbedtime":8817,"Ġroughly":8818,"Ġles":8819,"Ġelbow":8820,"Ġsees":8821,"Ġvolumes":8822,"enjoyable":8823,"Ġimmensely":8824,"Ġconce":8825,"Ġspandex":8826,"Ġwarehouse":8827,"Ġpj":8828,"Ġindia":8829,"Ġspine":8830,"Ġrelaxed":8831,"Ġemphas":8832,"Ġmoral":8833,"Ġphotographs":8834,"Ġbanana":8835,"Ġaligned":8836,"Ġproport":8837,"Ġacry":8838,"colors":8839,"Ġpom":8840,"Ġdefi":8841,"Ġroku":8842,"Ġbait":8843,"Ġspat":8844,"ails":8845,"Ġdigest":8846,"Ġdusty":8847,"Ġdecorations":8848,"bulary":8849,"av":8850,"Ġtemps":8851,"Ġenlightening":8852,"chet":8853,"Ġlocated":8854,"Ġliterary":8855,"Ġturkey":8856,"oty":8857,"Ġcamo":8858,"Ġtests":8859,"despite":8860,"Ġvocabulary":8861,"bits":8862,"Ġpoems":8863,"ndon":8864,"Ġlis":8865,"thet":8866,"Ġdisks":8867,"ashes":8868,"Ġvinegar":8869,"sur":8870,"Ġrounds":8871,"Ġcereal":8872,"Ġclasps":8873,"sters":8874,"Ġgrandsons":8875,"Ġacqu":8876,"need":8877,"Ġfittings":8878,"Ġcommunication":8879,"Ġcloudy":8880,"Ġtam":8881,"Ġdiscolor":8882,"Ġtransition":8883,"Ġpills":8884,"attract":8885,"men":8886,"wall":8887,"Ġtay":8888,"ini":8889,"Ġhappiness":8890,"Ġreflection":8891,"Ġpaints":8892,"Ġrusty":8893,"Ġovercome":8894,"Ġcarol":8895,"Ġmemoir":8896,"Ġoccup":8897,"paper":8898,"Ġpathetic":8899,"Ġmate":8900,"Ġshin":8901,"Ġrefresh":8902,"Ġballoon":8903,"maid":8904,"Ġregards":8905,"Ġdonated":8906,"Ġgrader":8907,"Ġsparks":8908,"Ġamounts":8909,"Ġacid":8910,"Ġcurves":8911,"isions":8912,"Ġresour":8913,"Ġreserv":8914,"Ġtraged":8915,"Ġmisspe":8916,"Ġjams":8917,"Ġwhis":8918,"Ġvents":8919,"Ġmature":8920,"Ġclogged":8921,"Ġkidding":8922,"Ġtiles":8923,"Ġhumming":8924,"Ġfiance":8925,"zel":8926,"Ġanalog":8927,"Ġaudible":8928,"Ġchewer":8929,"Ġpamph":8930,"Ġquart":8931,"eriz":8932,"Ġspa":8933,"Ġremoval":8934,"Ġgreasy":8935,"Ġalert":8936,"make":8937,"glued":8938,"Ġbis":8939,"Ġrepurch":8940,"Ġsterling":8941,"ups":8942,"Ġjones":8943,"Ġuninteresting":8944,"Ġinformed":8945,"Ġconversations":8946,"Ġshepherd":8947,"Ġchews":8948,"ders":8949,"Ġtas":8950,"Ġacts":8951,"attach":8952,"fiber":8953,"Ġthrows":8954,"puts":8955,"Ġlind":8956,"Ġbells":8957,"Ġmainten":8958,"Ġlegit":8959,"Ġairplane":8960,"caly":8961,"Ġesp":8962,"Ġremotely":8963,"Ġsubjects":8964,"integr":8965,"lab":8966,"Ġresources":8967,"went":8968,"Ġll":8969,"Ġseg":8970,"Ġremarkable":8971,"Ġbomb":8972,"Ġsoak":8973,"poff":8974,"Ġattack":8975,"Ġlocate":8976,"Ġgli":8977,"anity":8978,"Ġkits":8979,"Ġcrease":8980,"Ġyours":8981,"Ġrecommending":8982,"Ġdepends":8983,"warming":8984,"Ġmaneuver":8985,"Ġdifferences":8986,"Ġsuspend":8987,"Ġcyl":8988,"Ġangst":8989,"Ġembarrassing":8990,"Ġmarkings":8991,"Ġie":8992,"Ġgrid":8993,"Ġsideways":8994,"Ġstaple":8995,"Ġur":8996,"arian":8997,"Ġpredict":8998,"Ġharm":8999,"gas":9000,"ndo":9001,"Ġrus":9002,"iles":9003,"Ġbearing":9004,"Ġaaa":9005,"Ġbelong":9006,"Ġmedicine":9007,"hal":9008,"Ġadditionally":9009,"Ġbearings":9010,"glass":9011,"sch":9012,"icious":9013,"apse":9014,"Ġthermos":9015,"Ġadaptor":9016,"abeth":9017,"Ġmaintenance":9018,"Ġtiming":9019,"Ġyards":9020,"Ġtid":9021,"Ġsla":9022,"Ġfailing":9023,"Ġtanks":9024,"Ġnamed":9025,"Ġhobby":9026,"ole":9027,"amel":9028,"Ġcentral":9029,"Ġnurse":9030,"large":9031,"Ġwelcome":9032,"Ġlanyard":9033,"Ġorth":9034,"Ġgrateful":9035,"Ġcharts":9036,"Ġunreliable":9037,"Ġscoot":9038,"Ġtraffic":9039,"Ġsupernatural":9040,"Ġneatly":9041,"pants":9042,"Ġdisintegr":9043,"Ġblends":9044,"Ġpotatoes":9045,"Ġcoaster":9046,"Ġtac":9047,"Ġimple":9048,"Ġpleasing":9049,"Ġcarr":9050,"Ġships":9051,"Ġbarbie":9052,"ties":9053,"being":9054,"Ġmicrofiber":9055,"Ġclarks":9056,"Ġfavour":9057,"Ġlandscape":9058,"Ġpacket":9059,"Ġpassing":9060,"Ġheartbre":9061,"Ġcircles":9062,"Ġpantry":9063,"Ġallergic":9064,"Ġfunn":9065,"Ġdefined":9066,"Ġdressy":9067,"edding":9068,"Ġbeast":9069,"owing":9070,"Ġproved":9071,"Ġgore":9072,"Ġcigaret":9073,"agger":9074,"aii":9075,"Ġrepetition":9076,"Ġsharpening":9077,"Ġscripture":9078,"Ġseverely":9079,"ko":9080,"rene":9081,"Ġdining":9082,"Ġparis":9083,"Ġdownloading":9084,"Ġfluke":9085,"Ġtemporary":9086,"Ġtaylor":9087,"etly":9088,"Ġproced":9089,"Ġracing":9090,"Ġrasp":9091,"Ġsmok":9092,"Ġripoff":9093,"Ġpamphlet":9094,"non":9095,"Ġlondon":9096,"Ġdonate":9097,"Ġdefiantly":9098,"ckey":9099,"Ġanker":9100,"Ġtissue":9101,"attractive":9102,"pass":9103,"Ġlect":9104,"Ġresponded":9105,"shoe":9106,"Ġchicago":9107,"fabric":9108,"gia":9109,"Ġcrush":9110,"Ġswallow":9111,"ugging":9112,"Ġphilosophy":9113,"Ġdoa":9114,"Ġweave":9115,"Ġinterpret":9116,"Ġarthritis":9117,"Ġpud":9118,"Ġdecades":9119,"Ġsubscription":9120,"Ġpellets":9121,"rem":9122,"wa":9123,"amazon":9124,"Ġsubtitles":9125,"ivers":9126,"Ġwrang":9127,"Ġfictional":9128,"iment":9129,"Ġportra":9130,"Ġsurrounding":9131,"Ġbuzzing":9132,"Ġtug":9133,"alia":9134,"ico":9135,"see":9136,"Ġpackets":9137,"Ġpoin":9138,"Ġpayed":9139,"Ġbrim":9140,"Ġhoses":9141,"Ġcomplements":9142,"Ġmarsh":9143,"Ġshorted":9144,"Ġaggressive":9145,"oted":9146,"Ġswap":9147,"asters":9148,"Ġdecisions":9149,"Ġcostly":9150,"Ġcordless":9151,"Ġoily":9152,"Ġpartner":9153,"Ġwave":9154,"opened":9155,"Ġfreedom":9156,"Ġprove":9157,"working":9158,"Ġeliz":9159,"real":9160,"Ġfib":9161,"Ġcoast":9162,"Ġconverse":9163,"Ġnarrator":9164,"Ġrichard":9165,"Ġcassette":9166,"gee":9167,"Ġpron":9168,"Ġreported":9169,"Ġpassenger":9170,"Ġadvised":9171,"Ġrevers":9172,"atchet":9173,"shipped":9174,"ech":9175,"string":9176,"Ġants":9177,"agle":9178,"Ġspecially":9179,"Ġwomens":9180,"Ġsweaty":9181,"Ġacrylic":9182,"Ġtheat":9183,"Ġbiz":9184,"olic":9185,"Ġhen":9186,"Ġterrier":9187,"written":9188,"Ġtechnique":9189,"Ġhawaii":9190,"Ġpuppies":9191,"Ġfeminine":9192,"Ġjum":9193,"Ġflare":9194,"Ġquestionable":9195,"bott":9196,"Ġmoth":9197,"Ġarts":9198,"Ġstopper":9199,"Ġcheated":9200,"Ġconsiderably":9201,"ugh":9202,"Ġclaw":9203,"Ġsatin":9204,"Ġsockets":9205,"Ġgears":9206,"Ġcombat":9207,"ns":9208,"Ġdum":9209,"Ġimplement":9210,"Ġcakes":9211,"Ġcargo":9212,"Ġrefuses":9213,"Ġdetract":9214,"Ġfifty":9215,"Ġrang":9216,"ante":9217,"Ġwishing":9218,"Ġmysterious":9219,"urban":9220,"Ġeliminate":9221,"rict":9222,"idently":9223,"Ġsex":9224,"Ġwinds":9225,"Ġtravels":9226,"Ġreb":9227,"ifications":9228,"Ġfingerprints":9229,"Ġcomparing":9230,"Ġtriple":9231,"Ġremotes":9232,"Ġbleach":9233,"Ġssd":9234,"Ġforms":9235,"Ġobst":9236,"Ġbrushed":9237,"Ġgranddaughters":9238,"Ġminiature":9239,"Ġsilicon":9240,"Ġnostal":9241,"Ġcontract":9242,"Ġcontrib":9243,"Ġflowing":9244,"Ġpersonalities":9245,"Ġcontinuous":9246,"Ġwayyy":9247,"answ":9248,"Ġspilling":9249,"assemb":9250,"Ġshadow":9251,"ell":9252,"Ġorch":9253,"Ġdeform":9254,"Ġstrain":9255,"Ġsusp":9256,"Ġconfigur":9257,"weet":9258,"Ġchris":9259,"Ġdrone":9260,"Ġaunt":9261,"Ġloa":9262,"Ġemblem":9263,"Ġschol":9264,"Ġprimer":9265,"Ġbicycle":9266,"Ġaged":9267,"Ġsecondary":9268,"Ġslept":9269,"Ġunderstandable":9270,"Ġstorytelling":9271,"Ġike":9272,"Ġtrainer":9273,"Ġfat":9274,"Ġsuggests":9275,"Ġincorpor":9276,"Ġgm":9277,"Ġloyal":9278,"Ġnoticeably":9279,"Ġmotorola":9280,"Ġcollapse":9281,"Ġbrakes":9282,"Ġtitan":9283,"Ġpy":9284,"undy":9285,"Ġfifth":9286,"Ġunclear":9287,"idas":9288,"Ġdodge":9289,"irl":9290,"Ġseemingly":9291,"Ġgritty":9292,"Ġvegan":9293,"Ġbeating":9294,"Ġkat":9295,"Ġtorque":9296,"Ġintermittently":9297,"Ġhost":9298,"pered":9299,"Ġfinan":9300,"Ġryan":9301,"acles":9302,"Ġrp":9303,"Ġdiscomfort":9304,"Ġstaff":9305,"Ġalask":9306,"Ġboston":9307,"Ġwondered":9308,"Ġcollects":9309,"Ġhack":9310,"Ġdroid":9311,"Ġbedding":9312,"Ġbark":9313,"Ġhug":9314,"Ġgoof":9315,"Ġformed":9316,"Ġthreading":9317,"Ġpearls":9318,"uality":9319,"sever":9320,"hart":9321,"Ġbunny":9322,"Ġallergies":9323,"Ġgeared":9324,"advert":9325,"Ġillumin":9326,"Ġspraying":9327,"Ġwedge":9328,"foot":9329,"Ġignore":9330,"Ġnational":9331,"Ġdisplays":9332,"Ġwhoever":9333,"Ġfashionable":9334,"Ġdeterior":9335,"Ġutensils":9336,"Ġdou":9337,"Ġjelly":9338,"Ġenclosed":9339,"Ġfiguring":9340,"Ġflowed":9341,"Ġmurder":9342,"Ġallen":9343,"Ġpickup":9344,"Ġsolder":9345,"Ġturbo":9346,"Ġrattle":9347,"Ġhal":9348,"cher":9349,"Ġworries":9350,"Ġmailed":9351,"Ġfroze":9352,"Ġsteamer":9353,"Ġounce":9354,"Ġcanister":9355,"Ġboil":9356,"Ġvietnam":9357,"Ġmolds":9358,"Ġstamped":9359,"Ġtutor":9360,"Ġestimated":9361,"Ġtheses":9362,"Ġwhit":9363,"Ġoutrage":9364,"Ġintric":9365,"Ġflood":9366,"Ġmildly":9367,"Ġhumidifier":9368,"Ġcancel":9369,"Ġburgundy":9370,"net":9371,"Ġcontacts":9372,"Ġamericans":9373,"Ġwobble":9374,"Ġmechanic":9375,"eer":9376,"Ġbrid":9377,"Ġinfant":9378,"oluted":9379,"nicely":9380,"Ġbuilds":9381,"Ġrussian":9382,"Ġpandora":9383,"Ġpride":9384,"Ġwaaa":9385,"Ġfolders":9386,"Ġtinny":9387,"Ġrul":9388,"Ġaroma":9389,"Ġcrochet":9390,"issa":9391,"Ġexcuse":9392,"Ġsteep":9393,"Ġsorts":9394,"everyone":9395,"Ġcatchy":9396,"Ġpsych":9397,"Ġpermanently":9398,"Ġparagraphs":9399,"Ġivory":9400,"answered":9401,"Ġoutline":9402,"Ġresulting":9403,"Ġextraord":9404,"Ġatl":9405,"Ġtwins":9406,"Ġdistinct":9407,"Ġobsc":9408,"Ġactress":9409,"Ġcountries":9410,"Ġprofessor":9411,"Ġapocaly":9412,"Ġclutch":9413,"Ġcategory":9414,"Ġfried":9415,"Ġcone":9416,"Ġskimmed":9417,"eg":9418,"py":9419,"Ġweber":9420,"funny":9421,"Ġaggra":9422,"Ġcaring":9423,"Ġlaptops":9424,"Ġskechers":9425,"Ġpedals":9426,"Ġcooper":9427,"abilities":9428,"Ġtrimmer":9429,"Ġbrut":9430,"Ġattitude":9431,"Ġfolder":9432,"Ġprocessor":9433,"Ġflawless":9434,"Ġbriefs":9435,"ease":9436,"arse":9437,"Ġfeather":9438,"pleased":9439,"Ġblocking":9440,"about":9441,"Ġstephanie":9442,"Ġchunky":9443,"Ġjackets":9444,"Ġris":9445,"Ġmasterpiece":9446,"Ġflickering":9447,"Ġdeterm":9448,"Ġbm":9449,"Ġgor":9450,"Ġwatts":9451,"Ġpegs":9452,"Ġirritated":9453,"Ġworker":9454,"Ġstrateg":9455,"follow":9456,"Ġstabil":9457,"Ġphenomenal":9458,"rall":9459,"Ġgee":9460,"Ġreviewing":9461,"entertaining":9462,"broken":9463,"Ġbuddy":9464,"Ġdashboard":9465,"Ġflipping":9466,"Ġthankful":9467,"Ġarmor":9468,"Ġstereoty":9469,"Ġcomponent":9470,"Ġstil":9471,"Ġounces":9472,"Ġrca":9473,"Ġprecious":9474,"Ġmagnifying":9475,"Ġmistaken":9476,"Ġruins":9477,"Ġbattles":9478,"Ġincreased":9479,"grand":9480,"pot":9481,"repres":9482,"aled":9483,"Ġcoil":9484,"Ġclogs":9485,"Ġcoarse":9486,"Ġunited":9487,"Ġepson":9488,"Ġhaun":9489,"Ġunanswered":9490,"Ġkinderg":9491,"Ġfactual":9492,"Ġsaturday":9493,"Ġjustify":9494,"Ġloosing":9495,"Ġmrs":9496,"Ġpregnancy":9497,"Ġgown":9498,"uma":9499,"Ġrecommendations":9500,"comes":9501,"Ġrelie":9502,"Ġclimate":9503,"Ġsuffer":9504,"Ġsmoother":9505,"Ġcompressor":9506,"Ġashamed":9507,"Ġcud":9508,"Ġharr":9509,"Ġbrave":9510,"Ġstub":9511,"Ġtarnished":9512,"Ġfrance":9513,"Ġfreaking":9514,"Ġcrock":9515,"Ġlying":9516,"Ġendless":9517,"Ġdiscounted":9518,"Ġclients":9519,"Ġnecklaces":9520,"delivered":9521,"Ġwording":9522,"Ġnaturally":9523,"mpse":9524,"Ġpsi":9525,"Ġmelod":9526,"Ġpublication":9527,"Ġhighs":9528,"Ġdiary":9529,"Ġcurvy":9530,"Ġexecuted":9531,"Ġaquarium":9532,"Ġawaiting":9533,"Ġglimpse":9534,"Ġkh":9535,"Ġdew":9536,"Ġvit":9537,"Ġdisappoints":9538,"Ġinterference":9539,"Ġcomplet":9540,"Ġwobbles":9541,"Ġtuner":9542,"strong":9543,"Ġrinse":9544,"Ġbout":9545,"Ġshim":9546,"Ġunglued":9547,"Ġstreaks":9548,"Ġtherapy":9549,"iders":9550,"ander":9551,"Ġcalm":9552,"Ġreinforce":9553,"Ġcara":9554,"Ġcoral":9555,"Ġdiag":9556,"Ġestab":9557,"Ġexpanded":9558,"Ġconvinced":9559,"lan":9560,"Ġali":9561,"Ġquad":9562,"Ġbosch":9563,"Ġswear":9564,"Ġdamp":9565,"Ġsunny":9566,"Ġmotherboard":9567,"Ġtemperatures":9568,"missing":9569,"Ġkle":9570,"Ġmarine":9571,"aay":9572,"Ġtextured":9573,"Ġtuning":9574,"Ġshredder":9575,"Ġweapon":9576,"Ġreconnect":9577,"Ġextract":9578,"Ġskirts":9579,"Ġdressing":9580,"Ġhomework":9581,"eh":9582,"Ġloom":9583,"Ġblankets":9584,"Ġphrases":9585,"oops":9586,"Ġrubberized":9587,"robe":9588,"Ġshedding":9589,"eries":9590,"Ġdecre":9591,"Ġclimax":9592,"Ġconvoluted":9593,"limited":9594,"Ġexpansion":9595,"Ġprinciples":9596,"Ġconsequ":9597,"again":9598,"vc":9599,"amaged":9600,"Ġintent":9601,"needs":9602,"Ġstiffer":9603,"Ġtoothbrush":9604,"Ġjon":9605,"Ġdisliked":9606,"Ġtender":9607,"Ġbarking":9608,"Ġcapability":9609,"belie":9610,"Ġdive":9611,"Ġcorrected":9612,"wearable":9613,"Ġbs":9614,"Ġdear":9615,"eria":9616,"Ġherbs":9617,"Ġtragedy":9618,"Ġphill":9619,"Ġlengths":9620,"Ġcreativity":9621,"Ġarmband":9622,"Ġsooooo":9623,"Ġaffected":9624,"Ġkindergart":9625,"car":9626,"Ġfoundation":9627,"Ġlifes":9628,"Ġluke":9629,"rooms":9630,"Ġdread":9631,"owed":9632,"Ġworkbook":9633,"Ġeligible":9634,"functional":9635,"Ġelizabeth":9636,"Ġrule":9637,"Ġbeside":9638,"Ġgardening":9639,"zu":9640,"Ġcrying":9641,"Ġneighborhood":9642,"Ġnook":9643,"Ġsling":9644,"Ġdriven":9645,"held":9646,"Ġgeo":9647,"Ġkiddo":9648,"Ġsqueaker":9649,"idents":9650,"Ġproven":9651,"Ġpry":9652,"Ġsurge":9653,"Ġportions":9654,"Ġmixture":9655,"smells":9656,"lined":9657,"Ġbows":9658,"Ġwatering":9659,"Ġcrunchy":9660,"Ġglor":9661,"coln":9662,"atory":9663,"Ġpretend":9664,"Ġgrabs":9665,"care":9666,"Ġdesert":9667,"Ġheartwarming":9668,"Ġsuccessfully":9669,"Ġrented":9670,"iversary":9671,"erts":9672,"Ġtrite":9673,"Ġspite":9674,"typical":9675,"wore":9676,"Ġmason":9677,"Ġreject":9678,"icity":9679,"Ġcape":9680,"Ġblaz":9681,"Ġconditioner":9682,"Ġminds":9683,"Ġroute":9684,"Ġinstep":9685,"udos":9686,"Ġearpiece":9687,"Ġingredient":9688,"gen":9689,"iors":9690,"Ġshovel":9691,"Ġdresser":9692,"Ġblog":9693,"Ġbaked":9694,"Ġrave":9695,"Ġalternate":9696,"Ġcong":9697,"Ġdip":9698,"Ġpaddle":9699,"Ġmixes":9700,"Ġeaten":9701,"Ġefforts":9702,"Ġutility":9703,"Ġunplugged":9704,"Ġnest":9705,"Ġcorny":9706,"Ġrepeats":9707,"Ġmuffled":9708,"Ġcinem":9709,"rad":9710,"Ġwd":9711,"Ġsmh":9712,"Ġwaisted":9713,"Ġdrains":9714,"Ġshrank":9715,"Ġbrewing":9716,"Ġsmudges":9717,"Ġchore":9718,"Ġmakers":9719,"Ġboiling":9720,"Ġretired":9721,"Ġdaylight":9722,"Ġlabor":9723,"aid":9724,"Ġdevelo":9725,"Ġincense":9726,"Ġflea":9727,"Ġnoodles":9728,"Ġaftermarket":9729,"Ġadidas":9730,"Ġgrat":9731,"gypt":9732,"Ġdrawstring":9733,"Ġsavings":9734,"Ġyorkie":9735,"Ġniss":9736,"urd":9737,"Ġstyling":9738,"Ġmerchand":9739,"erve":9740,"imm":9741,"Ġlaunch":9742,"Ġstuffer":9743,"Ġvisiting":9744,"surpr":9745,"Ġunwearable":9746,"Ġspig":9747,"Ġperfection":9748,"Ġgameplay":9749,"Ġserver":9750,"Ġdressed":9751,"Ġshaking":9752,"Ġcolumb":9753,"rr":9754,"eral":9755,"Ġrash":9756,"Ġanniversary":9757,"Ġpromising":9758,"dles":9759,"stock":9760,"Ġconnectivity":9761,"Ġsymp":9762,"Ġindividuals":9763,"Ġmildew":9764,"holds":9765,"incred":9766,"Ġpaws":9767,"bie":9768,"Ġboxy":9769,"Ġrequiring":9770,"Ġconfirm":9771,"outed":9772,"Ġdigit":9773,"Ġengineering":9774,"Ġsigh":9775,"Ġagre":9776,"Ġlincoln":9777,"Ġunraveled":9778,"ategy":9779,"ibilities":9780,"Ġrequirements":9781,"tv":9782,"Ġegypt":9783,"Ġtragic":9784,"Ġdigging":9785,"Ġthermal":9786,"urs":9787,"Ġprison":9788,"Ġdivid":9789,"Ġsmartphone":9790,"Ġnickel":9791,"Ġnissan":9792,"Ġdividers":9793,"Ġarrow":9794,"Ġhardcover":9795,"Ġjewels":9796,"simply":9797,"Ġunraveling":9798,"Ġbore":9799,"Ġstating":9800,"Ġstrategy":9801,"Ġshave":9802,"pieces":9803,"Ġsoy":9804,"Ġsett":9805,"Ġourselves":9806,"Ġsubscri":9807,"orig":9808,"Ġtablecloth":9809,"Ġdrove":9810,"Ġassembling":9811,"ddy":9812,"Ġlense":9813,"Ġgang":9814,"omic":9815,"rial":9816,"istics":9817,"Ġmisrepres":9818,"Ġconcerns":9819,"Ġzombies":9820,"eed":9821,"uous":9822,"die":9823,"Ġ3":9824,"Ġexplore":9825,"sizing":9826,"Ġhoop":9827,"Ġunlocked":9828,"Ġharley":9829,"Ġevidence":9830,"Ġborrowed":9831,"Ġdisease":9832,"Ġcellphone":9833,"Ġtarp":9834,"Ġdisconnects":9835,"Ġrevealing":9836,"Ġseek":9837,"aki":9838,"Ġunlikely":9839,"arre":9840,"Ġcared":9841,"Ġmessing":9842,"Ġunsatisf":9843,"Ġinterviews":9844,"Ġhalo":9845,"Ġbegun":9846,"atched":9847,"Ġneckline":9848,"Ġsuffering":9849,"Ġsights":9850,"Ġdelete":9851,"Ġenthrall":9852,"Ġscooter":9853,"Ġdorm":9854,"Ġshines":9855,"Ġcomo":9856,"Ġaftertaste":9857,"Ġrefuse":9858,"going":9859,"Ġhumanity":9860,"Ġugg":9861,"Ġformal":9862,"ffe":9863,"Ġstraighten":9864,"Ġracks":9865,"completely":9866,"Ġrevel":9867,"Ġjess":9868,"Ġhello":9869,"Ġdamaging":9870,"Ġergon":9871,"Ġcali":9872,"Ġrepairs":9873,"Ġmeaningful":9874,"Ġbeanie":9875,"Ġestablish":9876,"Ġaccounts":9877,"Ġrevolution":9878,"Ġsafer":9879,"Ġreaching":9880,"Ġfork":9881,"Ġshoots":9882,"Ġwonders":9883,"Ġhandsome":9884,"Ġdecorating":9885,"Ġmeditation":9886,"Ġsuperficial":9887,"Ġbears":9888,"Ġbutterfly":9889,"Ġencountered":9890,"thanks":9891,"Ġservices":9892,"Ġmerchandise":9893,"Ġmph":9894,"llen":9895,"ulating":9896,"Ġlimits":9897,"Ġignored":9898,"drop":9899,"Ġcalculator":9900,"udes":9901,"forward":9902,"Ġdecorate":9903,"heavy":9904,"reck":9905,"prot":9906,"Ġwrangler":9907,"Ġweal":9908,"Ġshoddy":9909,"Ġrails":9910,"Ġpassages":9911,"Ġbaskets":9912,"Ġbelieved":9913,"Ġzipped":9914,"Ġredeeming":9915,"Ġcatholic":9916,"Ġoffs":9917,"Ġexceptionally":9918,"Ġafrica":9919,"bles":9920,"wife":9921,"anna":9922,"three":9923,"Ġhunger":9924,"Ġcrimp":9925,"Ġtel":9926,"abled":9927,"Ġtrave":9928,"Ġvampires":9929,"Ġenthusiast":9930,"Ġmcc":9931,"Ġnit":9932,"Ġrotating":9933,"Ġmonthly":9934,"Ġpublishing":9935,"Ġikea":9936,"fect":9937,"Ġtrump":9938,"Ġelephant":9939,"aches":9940,"Ġhandbag":9941,"Ġmemor":9942,"Ġglobe":9943,"last":9944,"Ġmothers":9945,"Ġatmos":9946,"Ġmuscle":9947,"Ġveter":9948,"Ġrepeating":9949,"fire":9950,"Ġosc":9951,"Ġpity":9952,"Ġunc":9953,"Ġtheirs":9954,"writing":9955,"Ġoat":9956,"Ġmiracle":9957,"tom":9958,"Ġkills":9959,"Ġfirmware":9960,"Ġsnags":9961,"Ġaustralia":9962,"Ġlug":9963,"fairly":9964,"Ġmoo":9965,"aring":9966,"Ġrecover":9967,"Ġprefers":9968,"Ġlogic":9969,"Ġdisappeared":9970,"Ġknitting":9971,"Ġearned":9972,"Ġwheat":9973,"Ġhealthier":9974,"flies":9975,"Ġaero":9976,"Ġaddicted":9977,"Ġdirector":9978,"Ġcomics":9979,"away":9980,"Ġdefinition":9981,"Ġdiscard":9982,"Ġsubmit":9983,"Ġsignals":9984,"Ġoperated":9985,"Ġplausible":9986,"Ġfitness":9987,"Ġcrumb":9988,"Ġspoke":9989,"Ġargum":9990,"Ġprofound":9991,"Ġwashington":9992,"Ġembroidery":9993,"Ġdickies":9994,"unless":9995,"ilight":9996,"Ġstrict":9997,"Ġterry":9998,"Ġliquids":9999,"Ġcrayons":10000,"Ġdarts":10001,"entation":10002,"Ġroots":10003,"Ġeraser":10004,"Ġbackpacking":10005,"Ġcirculation":10006,"Ġconsumer":10007,"elve":10008,"Ġtrimming":10009,"Ġsnor":10010,"Ġcloths":10011,"Ġhonesty":10012,"Ġleno":10013,"Ġraspberry":10014,"Ġder":10015,"Ġreusable":10016,"Ġpolo":10017,"Ġreturnable":10018,"Ġbrow":10019,"foam":10020,"Ġrecieve":10021,"Ġtucked":10022,"Ġcasting":10023,"ki":10024,"Ġprett":10025,"cases":10026,"Ġmoto":10027,"Ġtimeless":10028,"Ġpeels":10029,"Ġcarp":10030,"words":10031,"Ġcutters":10032,"Ġdragging":10033,"Ġfavors":10034,"Ġmickey":10035,"Ġphysically":10036,"Ġcel":10037,"Ġoffensive":10038,"Ġdrips":10039,"Ġsolidly":10040,"Ġtones":10041,"Ġcliche":10042,"mies":10043,"Ġsatisfy":10044,"Ġreleases":10045,"Ġsarah":10046,"Ġencouraging":10047,"saw":10048,"Ġratchet":10049,"Ġcharacteriz":10050,"Ġcounting":10051,"Ġbizarre":10052,"Ġbride":10053,"Ġcuis":10054,"Ġeth":10055,"Ġqualities":10056,"Ġblinking":10057,"Ġprince":10058,"Ġalignment":10059,"Ġcuffs":10060,"Ġhue":10061,"Ġcrad":10062,"Ġmosquito":10063,"Ġsmoker":10064,"Ġfinancial":10065,"Ġluc":10066,"Ġtoms":10067,"Ġcoco":10068,"Ġunpack":10069,"Ġinterfer":10070,"Ġdrugs":10071,"Ġaqua":10072,"Ġportrayal":10073,"Ġcigarette":10074,"Ġsaddle":10075,"noxious":10076,"Ġattend":10077,"ructions":10078,"Ġweighted":10079,"Ġthermost":10080,"roof":10081,"Ġforces":10082,"Ġunf":10083,"Ġapron":10084,"Ġpersons":10085,"Ġanimation":10086,"Ġupsetting":10087,"Ġcycling":10088,"Ġpeanuts":10089,"Ġtroublesho":10090,"Ġcertified":10091,"Ġbmw":10092,"Ġprofessionally":10093,"Ġguidance":10094,"half":10095,"jective":10096,"Ġoli":10097,"Ġdj":10098,"ista":10099,"ami":10100,"Ġelectricity":10101,"Ġsau":10102,"Ġfigur":10103,"Ġdesigner":10104,"Ġsatisfaction":10105,"Ġpouches":10106,"Ġreflects":10107,"ieter":10108,"lip":10109,"Ġtwilight":10110,"Ġvisually":10111,"lander":10112,"Ġsplitting":10113,"Ġexploded":10114,"Ġtattoo":10115,"Ġfavourite":10116,"Ġrussell":10117,"oe":10118,"Ġgab":10119,"Ġpairing":10120,"Ġabsurd":10121,"atly":10122,"eness":10123,"Ġsupr":10124,"Ġspeedy":10125,"Ġenhance":10126,"Ġintensity":10127,"Ġchildish":10128,"Ġobnoxious":10129,"Ġscare":10130,"Ġeste":10131,"Ġshifter":10132,"Ġgrooves":10133,"Ġdiagno":10134,"df":10135,"hill":10136,"Ġwrest":10137,"meal":10138,"Ġthrillers":10139,"Ġdistortion":10140,"ault":10141,"Ġdeca":10142,"adequate":10143,"Ġbye":10144,"Ġstraightforward":10145,"Ġleader":10146,"Ġdisappear":10147,"Ġengrossing":10148,"Ġpartial":10149,"Ġaesthet":10150,"Ġalaska":10151,"seri":10152,"quately":10153,"Ġcushioned":10154,"Ġoptical":10155,"Ġcrashes":10156,"rick":10157,"Ġoverpower":10158,"lap":10159,"glad":10160,"nut":10161,"Ġanec":10162,"Ġvalid":10163,"Ġfireplace":10164,"Ġlouis":10165,"Ġanecd":10166,"Ġquieter":10167,"Ġindustrial":10168,"Ġstamps":10169,"Ġchunk":10170,"Ġspeech":10171,"fty":10172,"lr":10173,"Ġaltered":10174,"Ġunfl":10175,"Ġboxed":10176,"Ġclipped":10177,"Ġmelissa":10178,"Ġeconomical":10179,"ilog":10180,"Ġguards":10181,"Ġreward":10182,"ido":10183,"Ġcanada":10184,"zing":10185,"Ġdos":10186,"Ġjr":10187,"Ġgosp":10188,"Ġmodes":10189,"Ġdedicated":10190,"Ġmonkey":10191,"Ġexcelent":10192,"Ġsensors":10193,"Ġreports":10194,"Ġprecision":10195,"Ġundersh":10196,"Ġcupcake":10197,"Ġwarri":10198,"stairs":10199,"Ġnewsp":10200,"Ġcarhart":10201,"Ġjewish":10202,"buyer":10203,"ray":10204,"requ":10205,"Ġanime":10206,"Ġworkers":10207,"Ġsettle":10208,"ships":10209,"Ġopinions":10210,"Ġdimension":10211,"Ġaccepted":10212,"Ġatmosph":10213,"replaced":10214,"Ġhaul":10215,"beautifully":10216,"Ġprofession":10217,"Ġsimplicity":10218,"Ġcolours":10219,"Ġangels":10220,"Ġdetermined":10221,"Ġcrashed":10222,"Ġflipped":10223,"Ġranger":10224,"Ġarmp":10225,"abor":10226,"Ġdiy":10227,"Ġinspection":10228,"Ġornaments":10229,"iable":10230,"icable":10231,"iful":10232,"Ġcutest":10233,"Ġdime":10234,"Ġcompetition":10235,"Ġpumping":10236,"Ġtrashed":10237,"Ġfewer":10238,"Ġepilog":10239,"Ġshocking":10240,"Ġarrows":10241,"Ġpeach":10242,"Ġdynamic":10243,"Ġparall":10244,"vably":10245,"Ġamish":10246,"Ġacou":10247,"Ġobtain":10248,"Ġeval":10249,"Ġafrican":10250,"Ġsed":10251,"Ġrestock":10252,"Ġnarration":10253,"Ġlesser":10254,"Ġmusicians":10255,"Ġtshirt":10256,"Ġgf":10257,"Ġnewest":10258,"Ġteller":10259,"Ġros":10260,"Ġbulkier":10261,"Ġni":10262,"oms":10263,"Ġamb":10264,"Ġdefinetly":10265,"Ġskate":10266,"Ġclassical":10267,"Ġformatting":10268,"Ġexistent":10269,"Ġvitam":10270,"gles":10271,"Ġtb":10272,"llar":10273,"ailed":10274,"Ġremained":10275,"Ġcultural":10276,"Ġpumpkin":10277,"highly":10278,"Ġply":10279,"Ġearphone":10280,"Ġtwisting":10281,"erokee":10282,"Ġselections":10283,"Ġretire":10284,"Ġfreely":10285,"Ġinstructor":10286,"rupted":10287,"icting":10288,"Ġchances":10289,"Ġtwee":10290,"Ġtwelve":10291,"Ġslices":10292,"Ġcrackers":10293,"cled":10294,"Ġfaced":10295,"Ġdome":10296,"Ġfinicky":10297,"Ġpassport":10298,"Ġhairs":10299,"Ġconvention":10300,"build":10301,"Ġprettier":10302,"Ġsinc":10303,"ormous":10304,"Ġhouses":10305,"Ġsnuggly":10306,"norm":10307,"Ġiphones":10308,"Ġglance":10309,"Ġfreak":10310,"Ġhints":10311,"Ġnich":10312,"Ġconcerning":10313,"Ġexposure":10314,"Ġmisunder":10315,"Ġzippered":10316,"Ġsoothing":10317,"igned":10318,"Ġheaded":10319,"Ġtrusted":10320,"Ġstems":10321,"Ġsoftness":10322,"Ġparticles":10323,"Ġlifted":10324,"cord":10325,"xl":10326,"Ġisol":10327,"Ġstew":10328,"irds":10329,"Ġbadge":10330,"Ġcitiz":10331,"Ġgods":10332,"xtures":10333,"Ġrealizing":10334,"Ġsprays":10335,"Ġradi":10336,"Ġrequirement":10337,"Ġsharpened":10338,"Ġcriticism":10339,"Ġrepurchase":10340,"pple":10341,"Ġcher":10342,"Ġdaniel":10343,"Ġmuted":10344,"Ġdess":10345,"usually":10346,"riever":10347,"Ġchord":10348,"Ġnewly":10349,"Ġwherever":10350,"Ġmailbox":10351,"Ġportrait":10352,"gorgeous":10353,"Ġretriever":10354,"Ġprinters":10355,"Ġinstruments":10356,"Ġscholar":10357,"protect":10358,"gi":10359,"wo":10360,"Ġplun":10361,"Ġflags":10362,"Ġindication":10363,"warning":10364,"mill":10365,"Ġunlimited":10366,"tendo":10367,"Ġcommented":10368,"Ġwiper":10369,"ody":10370,"Ġ4":10371,"ooo":10372,"Ġcrumbs":10373,"Ġvegas":10374,"Ġfacebook":10375,"Ġadequately":10376,"Ġheadsets":10377,"Ġpacing":10378,"oofer":10379,"Ġkudos":10380,"Ġslender":10381,"Ġentre":10382,"Ġawkwardly":10383,"Ġcarafe":10384,"Ġkim":10385,"Ġromances":10386,"Ġartic":10387,"Ġimportance":10388,"initially":10389,"rain":10390,"ptic":10391,"Ġintertw":10392,"Ġchristians":10393,"Ġsack":10394,"Ġmute":10395,"Ġhind":10396,"Ġworlds":10397,"Ġdragons":10398,"Ġvocal":10399,"odd":10400,"Ġom":10401,"Ġlotion":10402,"Ġbarley":10403,"Ġcapabilities":10404,"Ġviewed":10405,"Ġdriveway":10406,"Ġbranches":10407,"Ġgrommets":10408,"Ġlisa":10409,"Ġoutrageous":10410,"aut":10411,"class":10412,"Ġlick":10413,"Ġkar":10414,"Ġmanages":10415,"Ġsnake":10416,"thernet":10417,"Ġsacrif":10418,"Ġfibers":10419,"dress":10420,"Ġwatered":10421,"Ġsalmon":10422,"Ġyogurt":10423,"Ġhungry":10424,"seriously":10425,"Ġgreek":10426,"Ġdivers":10427,"Ġpractices":10428,"Ġlatches":10429,"Ġintricate":10430,"Ġcamel":10431,"Ġwelded":10432,"nip":10433,"Ġpm":10434,"Ġlowes":10435,"Ġundamaged":10436,"Ġsquares":10437,"Ġskimming":10438,"Ġclimbing":10439,"Ġthro":10440,"Ġdub":10441,"Ġcherokee":10442,"Ġcaptain":10443,"Ġnintendo":10444,"Ġvul":10445,"agree":10446,"Ġclump":10447,"Ġfins":10448,"Ġcaptivated":10449,"Ġgorilla":10450,"outstanding":10451,"Ġhighway":10452,"Ġmisses":10453,"Ġclicks":10454,"Ġmagazines":10455,"Ġretractable":10456,"Ġethernet":10457,"Ġkin":10458,"Ġpricy":10459,"Ġabused":10460,"Ġimitation":10461,"anged":10462,"Ġire":10463,"eproof":10464,"Ġmans":10465,"Ġtrapped":10466,"Ġtonight":10467,"Ġextraordinary":10468,"Ġvga":10469,"Ġbothers":10470,"Ġfootage":10471,"Ġframed":10472,"Ġfrequency":10473,"Ġpointy":10474,"Ġepilogue":10475,"Ġsoaking":10476,"Ġlengthy":10477,"Ġpinky":10478,"ique":10479,"zes":10480,"oring":10481,"astes":10482,"Ġrepack":10483,"Ġinspire":10484,"Ġbeliefs":10485,"Ġrambling":10486,"Ġasks":10487,"Ġmont":10488,"Ġrecovery":10489,"Ġalexa":10490,"Ġcure":10491,"Ġcanop":10492,"Ġclin":10493,"Ġgroom":10494,"Ġdevil":10495,"Ġsplitter":10496,"Ġresemb":10497,"Ġsession":10498,"normally":10499,"isco":10500,"Ġhams":10501,"Ġanx":10502,"Ġseasoning":10503,"Ġsweaters":10504,"Ġpolarized":10505,"Ġlips":10506,"Ġbites":10507,"Ġcrink":10508,"Ġchewy":10509,"bird":10510,"Ġlaure":10511,"Ġimmediate":10512,"Ġperforming":10513,"Ġfruits":10514,"Ġlifeproof":10515,"Ġthermostat":10516,"nic":10517,"Ġcylinder":10518,"Ġoly":10519,"Ġknight":10520,"Ġcuter":10521,"Ġenclosure":10522,"Ġdiagrams":10523,"Ġireland":10524,"dra":10525,"Ġnes":10526,"Ġnano":10527,"Ġlitt":10528,"Ġlub":10529,"Ġbees":10530,"Ġplated":10531,"Ġtractor":10532,"Ġshaving":10533,"Ġvelvet":10534,"Ġnyc":10535,"Ġjenn":10536,"Ġdemonstr":10537,"Ġutterly":10538,"Ġspatula":10539,"vative":10540,"Ġcharles":10541,"Ġslicer":10542,"Ġdealt":10543,"Ġsusan":10544,"Ġtunnel":10545,"Ġrhyth":10546,"Ġpunctuation":10547,"umn":10548,"Ġopa":10549,"Ġvisited":10550,"Ġdoc":10551,"Ġmonday":10552,"ubby":10553,"Ġperspect":10554,"Ġblocked":10555,"Ġowl":10556,"Ġknots":10557,"Ġschedul":10558,"Ġthirty":10559,"Ġdigs":10560,"Ġcrowd":10561,"west":10562,"Ġhabit":10563,"Ġsuv":10564,"Ġflann":10565,"Ġtriangle":10566,"appro":10567,"Ġcrimin":10568,"Ġchat":10569,"Ġvanity":10570,"Ġoatmeal":10571,"Ġdp":10572,"Ġons":10573,"Ġcouples":10574,"Ġflakes":10575,"ended":10576,"Ġstrands":10577,"Ġidiot":10578,"Ġwardrobe":10579,"Ġconfiguration":10580,"says":10581,"Ġalice":10582,"Ġstrainer":10583,"Ġbiased":10584,"Ġpossibilities":10585,"Ġstatus":10586,"sounds":10587,"fish":10588,"field":10589,"inform":10590,"itious":10591,"Ġawsome":10592,"Ġcoup":10593,"Ġrach":10594,"Ġopted":10595,"Ġinvis":10596,"Ġhistoria":10597,"Ġsequence":10598,"Ġtumbler":10599,"inations":10600,"Ġapples":10601,"Ġwalker":10602,"Ġoccurred":10603,"Ġfranc":10604,"Ġlp":10605,"Ġarches":10606,"Ġsequels":10607,"Ġsuffered":10608,"Ġreinforced":10609,"Ġpraise":10610,"Ġtoothpaste":10611,"power":10612,"sticks":10613,"Ġjason":10614,"Ġhusky":10615,"Ġlogical":10616,"Ġdefender":10617,"Ġsophistic":10618,"Ġguidel":10619,"Ġvast":10620,"Ġroses":10621,"berries":10622,"Ġtying":10623,"Ġholmes":10624,"Ġunflattering":10625,"think":10626,"Ġconfusion":10627,"Ġgenerations":10628,"Ġcircular":10629,"Ġrobin":10630,"Ġfolk":10631,"Ġperspectives":10632,"hot":10633,"Ġconfortable":10634,"Ġcatnip":10635,"Ġcandies":10636,"Ġopaque":10637,"Ġimmature":10638,"Ġcolumbia":10639,"van":10640,"Ġawe":10641,"Ġtrials":10642,"Ġinstructed":10643,"Ġrestrict":10644,"Ġwilliams":10645,"Ġmerely":10646,"Ġtransformer":10647,"rey":10648,"ceed":10649,"unes":10650,"Ġswa":10651,"Ġfixtures":10652,"Ġforgiveness":10653,"delivery":10654,"Ġsod":10655,"Ġbloom":10656,"Ġmiser":10657,"Ġparker":10658,"Ġdeflated":10659,"Ġscenarios":10660,"Ġdrilling":10661,"Ġbenef":10662,"Ġdeserved":10663,"Ġintroduce":10664,"Ġanxiety":10665,"ifes":10666,"Ġblackberry":10667,"Ġthanksgiving":10668,"Ġweaker":10669,"Ġruining":10670,"Ġsessions":10671,"ivor":10672,"Ġcastle":10673,"Ġsucker":10674,"bone":10675,"uish":10676,"Ġcompassion":10677,"gate":10678,"must":10679,"Ġweeds":10680,"loaded":10681,"Ġnurs":10682,"Ġcradle":10683,"Ġding":10684,"Ġfinest":10685,"Ġcrude":10686,"Ġdarkness":10687,"Ġmt":10688,"Ġterror":10689,"Ġwinded":10690,"Ġlaws":10691,"Ġgained":10692,"Ġintermittent":10693,"Ġdeformed":10694,"Ġflannel":10695,"Ġamber":10696,"Ġsweating":10697,"Ġfootbed":10698,"Ġemotionally":10699,"Ġdependable":10700,"Ġcanopy":10701,"Ġads":10702,"Ġstarb":10703,"Ġreaches":10704,"Ġgospel":10705,"Ġinvisible":10706,"iendo":10707,"Ġillness":10708,"Ġlounge":10709,"ctors":10710,"Ġdesperate":10711,"Ġpaperwork":10712,"Ġspacious":10713,"Ġbever":10714,"Ġstich":10715,"Ġrf":10716,"beit":10717,"Ġclog":10718,"hey":10719,"Ġurban":10720,"acci":10721,"Ġsail":10722,"Ġpoign":10723,"Ġtrimmed":10724,"Ġclearance":10725,"Ġsomed":10726,"Ġclubs":10727,"Ġsparkles":10728,"far":10729,"Ġcpu":10730,"Ġfender":10731,"Ġimagery":10732,"Ġwinters":10733,"Ġshrinks":10734,"Ġscrape":10735,"Ġcosmet":10736,"appropri":10737,"dly":10738,"Ġsate":10739,"Ġcoasters":10740,"Ġreadily":10741,"ilty":10742,"Ġshells":10743,"Ġcompo":10744,"Ġcomprom":10745,"Ġdepict":10746,"Ġicon":10747,"Ġpk":10748,"Ġgs":10749,"Ġfabrics":10750,"Ġlegos":10751,"mr":10752,"Ġbagg":10753,"Ġreson":10754,"Ġflims":10755,"Ġflavorful":10756,"Ġpositioned":10757,"Ġnursery":10758,"bio":10759,"Ġthong":10760,"Ġsust":10761,"Ġhiding":10762,"Ġamy":10763,"Ġrecorder":10764,"Ġbuys":10765,"Ġhighlights":10766,"Ġreboot":10767,"store":10768,"ifies":10769,"Ġactivated":10770,"Ġdissapointing":10771,"Ġviolin":10772,"Ġtremendous":10773,"Ġcc":10774,"Ġagent":10775,"Ġdocumentation":10776,"Ġinsect":10777,"Ġbikin":10778,"Ġshifts":10779,"Ġassistance":10780,"Ġchoosing":10781,"Ġolymp":10782,"belt":10783,"tastes":10784,"wind":10785,"Ġthunder":10786,"nding":10787,"leg":10788,"Ġfoll":10789,"Ġbarn":10790,"insp":10791,"Ġspends":10792,"Ġcounts":10793,"Ġteles":10794,"Ġpony":10795,"Ġtosh":10796,"Ġsake":10797,"Ġheadlights":10798,"Ġattracted":10799,"Ġmoldy":10800,"aign":10801,"Ġalbeit":10802,"Ġramp":10803,"Ġflashes":10804,"Ġreputation":10805,"vit":10806,"Ġgrandaughter":10807,"Ġmodified":10808,"Ġprofanity":10809,"huge":10810,"ris":10811,"Ġah":10812,"suit":10813,"Ġstockings":10814,"Ġtechnically":10815,"Ġrobot":10816,"Ġsimpler":10817,"Ġarrangements":10818,"nies":10819,"slight":10820,"Ġmop":10821,"Ġbogged":10822,"perhaps":10823,"Ġmonsters":10824,"Ġleague":10825,"Ġaccomplished":10826,"fra":10827,"Ġmodest":10828,"Ġsprout":10829,"Ġvalentine":10830,"Ġnation":10831,"Ġcoord":10832,"Ġregrets":10833,"Ġmovements":10834,"Ġkindergarten":10835,"utch":10836,"Ġprong":10837,"Ġslimmer":10838,"Ġlinux":10839,"Ġsurvivor":10840,"Ġantique":10841,"eme":10842,"Ġpion":10843,"Ġcanned":10844,"Ġdownhill":10845,"Ġscheme":10846,"Ġfortune":10847,"Ġinteractions":10848,"Ġpirate":10849,"Ġtasks":10850,"Ġsomeday":10851,"gled":10852,"Ġyay":10853,"bert":10854,"Ġstepped":10855,"Ġevo":10856,"Ġproofread":10857,"Ġappropriately":10858,"Ġloosened":10859,"pany":10860,"least":10861,"aling":10862,"Ġquote":10863,"Ġroads":10864,"Ġaccompany":10865,"Ġsqueaky":10866,"regular":10867,"Ġthreat":10868,"Ġtony":10869,"Ġbravo":10870,"Ġpilling":10871,"Ġdestruct":10872,"Ġchamber":10873,"jun":10874,"Ġhalog":10875,"Ġlew":10876,"Ġml":10877,"Ġfitment":10878,"Ġclingy":10879,"Ġhistoric":10880,"Ġdispleased":10881,"Ġbutterflies":10882,"mag":10883,"vement":10884,"Ġshaker":10885,"Ġunused":10886,"iba":10887,"Ġguaranteed":10888,"Ġdude":10889,"Ġguessed":10890,"Ġleadership":10891,"Ġnetting":10892,"Ġalternatives":10893,"Ġrotation":10894,"Ġinconvenience":10895,"Ġdecaf":10896,"Ġreccommend":10897,"Ġheading":10898,"Ġexchanging":10899,"Ġling":10900,"Ġlone":10901,"Ġintake":10902,"Ġtt":10903,"phy":10904,"Ġverses":10905,"Ġjuicer":10906,"Ġlenovo":10907,"Ġsustain":10908,"Ġbackside":10909,"Ġbiking":10910,"Ġpracticing":10911,"Ġphillips":10912,"inity":10913,"Ġeh":10914,"ffective":10915,"looking":10916,"Ġcolder":10917,"Ġsamples":10918,"Ġalphab":10919,"lyn":10920,"Ġbien":10921,"Ġshutting":10922,"Ġdaddy":10923,"Ġspoiler":10924,"Ġmuffin":10925,"Ġfleshed":10926,"Ġdare":10927,"Ġcampaign":10928,"ocular":10929,"Ġbom":10930,"Ġmelting":10931,"Ġkittens":10932,"Ġdevelops":10933,"hib":10934,"je":10935,"Ġcement":10936,"Ġpoodle":10937,"etti":10938,"Ġbacked":10939,"athan":10940,"rence":10941,"Ġsealing":10942,"Ġfasteners":10943,"Ġpancakes":10944,"Ġmf":10945,"Ġpiv":10946,"Ġvista":10947,"Ġunderwater":10948,"Ġroman":10949,"Ġintermedi":10950,"Ġgoofy":10951,"each":10952,"Ġvibrate":10953,"Ġcrossed":10954,"Ġgraduation":10955,"Ġmoistur":10956,"candes":10957,"Ġsings":10958,"Ġdil":10959,"Ġworship":10960,"Ġtoshiba":10961,"Ġpause":10962,"Ġpeice":10963,"Ġinfect":10964,"haw":10965,"Ġsleeps":10966,"Ġprize":10967,"Ġcharlie":10968,"Ġheartbreaking":10969,"Ġincandes":10970,"Ġreadjust":10971,"Ġdewalt":10972,"Ġaliens":10973,"enta":10974,"Ġunderwire":10975,"days":10976,"Ġpine":10977,"pla":10978,"books":10979,"clear":10980,"Ġmelts":10981,"Ġstrategies":10982,"Ġstilted":10983,"Ġfel":10984,"Ġlumpy":10985,"Ġsolving":10986,"Ġunbear":10987,"Ġcommunicate":10988,"Ġfriction":10989,"Ġissued":10990,"Ġcosplay":10991,"Ġinappropri":10992,"lio":10993,"berg":10994,"Ġcollectors":10995,"Ġspecify":10996,"Ġforest":10997,"instructions":10998,"Ġrapidly":10999,"Ġemphasis":11000,"life":11001,"station":11002,"Ġamps":11003,"Ġenormous":11004,"venge":11005,"Ġviv":11006,"Ġretrie":11007,"Ġclancy":11008,"Ġconscious":11009,"Ġsoldering":11010,"Ġobserv":11011,"Ġbeep":11012,"Ġprequ":11013,"Ġjoin":11014,"Ġflips":11015,"Ġphysics":11016,"ensions":11017,"Ġcling":11018,"Ġstrike":11019,"Ġpcs":11020,"Ġcompetitive":11021,"inart":11022,"Ġdug":11023,"urable":11024,"Ġillum":11025,"Ġstakes":11026,"Ġmuddy":11027,"Ġtodo":11028,"Ġchilds":11029,"Ġtossing":11030,"Ġdecker":11031,"Ġconvincing":11032,"Ġkern":11033,"tedly":11034,"Ġholo":11035,"Ġcopied":11036,"Ġsandisk":11037,"Ġweapons":11038,"pless":11039,"Ġaddiction":11040,"Ġexclus":11041,"Ġshreds":11042,"Ġtactical":11043,"Ġpsychological":11044,"based":11045,"eled":11046,"Ġroles":11047,"Ġmoms":11048,"Ġirre":11049,"Ġsnagged":11050,"Ġpreparing":11051,"Ġindependent":11052,"Ġstarbucks":11053,"alley":11054,"Ġdean":11055,"Ġsag":11056,"omy":11057,"Ġstan":11058,"Ġtrading":11059,"Ġfob":11060,"Ġproperty":11061,"Ġelev":11062,"Ġprogrammed":11063,"turn":11064,"Ġrecomiendo":11065,"Ġspikes":11066,"Ġpromot":11067,"Ġscotch":11068,"zipper":11069,"Ġrealy":11070,"une":11071,"Ġbackdrop":11072,"ffin":11073,"mmm":11074,"Ġrollers":11075,"Ġpitched":11076,"Ġwaffle":11077,"jud":11078,"pat":11079,"inn":11080,"Ġphili":11081,"Ġdefense":11082,"Ġbaldacci":11083,"bare":11084,"Ġadam":11085,"Ġscattered":11086,"white":11087,"Ġfisher":11088,"Ġimperfections":11089,"Ġnewspaper":11090,"cont":11091,"ville":11092,"Ġhockey":11093,"Ġide":11094,"Ġbumped":11095,"Ġanchors":11096,"followed":11097,"inent":11098,"Ġnud":11099,"ician":11100,"Ġoffic":11101,"Ġslit":11102,"Ġsmelly":11103,"Ġinterfere":11104,"Ġenemy":11105,"Ġintermediate":11106,"Ġtipped":11107,"Ġkelly":11108,"Ġshipper":11109,"Ġlinen":11110,"Ġposting":11111,"Ġguitars":11112,"Ġuniversity":11113,"hus":11114,"inis":11115,"Ġandrew":11116,"Ġstall":11117,"Ġblessed":11118,"Ġorganizing":11119,"Ġdetector":11120,"Ġscenario":11121,"Ġpoignant":11122,"Ġslacks":11123,"Ġcutouts":11124,"Ġhotter":11125,"Ġheartfelt":11126,"Ġsorta":11127,"safe":11128,"Ġwoke":11129,"Ġautobio":11130,"Ġwiped":11131,"Ġacademic":11132,"idad":11133,"Ġlooses":11134,"Ġpossibility":11135,"amaha":11136,"Ġrubbish":11137,"Ġcarhartt":11138,"Ġscheduled":11139,"Ġsig":11140,"Ġperfume":11141,"Ġstyro":11142,"Ġcurios":11143,"Ġreliably":11144,"Ġshrinkage":11145,"Ġbleeding":11146,"Ġresulted":11147,"Ġaggrav":11148,"Ġsteak":11149,"Ġtransit":11150,"Ġhistorically":11151,"Ġkicks":11152,"Ġkayak":11153,"Ġlumens":11154,"Ġausten":11155,"anas":11156,"Ġdegr":11157,"isingly":11158,"Ġesta":11159,"Ġjumbo":11160,"mish":11161,"Ġmasc":11162,"Ġja":11163,"Ġwholes":11164,"Ġbru":11165,"Ġdelux":11166,"Ġglock":11167,"burn":11168,"rael":11169,"Ġtrails":11170,"Ġcruel":11171,"Ġyamaha":11172,"Ġjake":11173,"Ġdissol":11174,"husband":11175,"done":11176,"ilton":11177,"lightweight":11178,"Ġcycles":11179,"advertised":11180,"Ġamd":11181,"Ġremake":11182,"Ġclim":11183,"Ġconduct":11184,"Ġspecifications":11185,"Ġlaughter":11186,"Ġdripping":11187,"Ġdeduct":11188,"Ġstools":11189,"Ġample":11190,"Ġcharity":11191,"Ġcorset":11192,"Ġfarther":11193,"Ġrag":11194,"Ġseasoned":11195,"Ġsoldiers":11196,"Ġvertically":11197,"Ġunderside":11198,"Ġtomatoes":11199,"Ġoval":11200,"Ġisrael":11201,"ala":11202,"Ġglide":11203,"Ġslouch":11204,"Ġfloats":11205,"Ġdeadline":11206,"Ġmailing":11207,"Ġdslr":11208,"Ġrecycled":11209,"angular":11210,"Ġgirly":11211,"Ġrattles":11212,"iw":11213,"Ġbt":11214,"Ġnb":11215,"Ġitunes":11216,"gear":11217,"Ġcolorado":11218,"Ġaward":11219,"Ġbookshel":11220,"Ġphotographer":11221,"Ġbeard":11222,"Ġcreatures":11223,"classic":11224,"cat":11225,"Ġrick":11226,"Ġcrust":11227,"Ġdiver":11228,"Ġcramp":11229,"Ġtransmission":11230,"Ġevolution":11231,"Ġhenry":11232,"Ġstyrofoam":11233,"Ġgimm":11234,"oned":11235,"Ġligh":11236,"quet":11237,"Ġcompens":11238,"Ġtypo":11239,"Ġlaunder":11240,"Ġilleg":11241,"sweet":11242,"actic":11243,"apers":11244,"Ġexperiencing":11245,"Ġskillet":11246,"basically":11247,"Ġsophisticated":11248,"Ġatleast":11249,"Ġallot":11250,"Ġunimp":11251,"Ġgoals":11252,"Ġraising":11253,"Ġsleeper":11254,"Ġalphabet":11255,"hum":11256,"Ġstenc":11257,"Ġresort":11258,"Ġmario":11259,"Ġsharpie":11260,"Ġaddictive":11261,"Ġatmosphere":11262,"Ġbikini":11263,"game":11264,"Ġappet":11265,"Ġcaramel":11266,"Ġreluct":11267,"Ġtvs":11268,"Ġemma":11269,"Ġballet":11270,"Ġposters":11271,"Ġcivic":11272,"Ġtarnish":11273,"aby":11274,"Ġconserv":11275,"Ġbases":11276,"Ġassociated":11277,"Ġreservoir":11278,"Ġjennifer":11279,"Ġreuse":11280,"Ġtiger":11281,"Ġreminis":11282,"Ġerr":11283,"Ġrattling":11284,"Ġtremendously":11285,"Ġrevis":11286,"Ġhabits":11287,"Ġguilty":11288,"akers":11289,"Ġtranslated":11290,"Ġstrictly":11291,"Ġfoster":11292,"whe":11293,"Ġfeatured":11294,"Ġstinky":11295,"Ġbf":11296,"thor":11297,"Ġdeciding":11298,"Ġlifts":11299,"Ġcreamy":11300,"Ġcollapsed":11301,"liner":11302,"zona":11303,"Ġcul":11304,"Ġprops":11305,"Ġshocks":11306,"Ġchee":11307,"Ġdoubled":11308,"Ġarizona":11309,"Ġjose":11310,"Ġcurls":11311,"position":11312,"Ġpronoun":11313,"Ġremas":11314,"Ġfeb":11315,"Ġattraction":11316,"Ġwebsites":11317,"Ġmountains":11318,"Ġnapkins":11319,"Ġinjury":11320,"Ġamplifier":11321,"Ġdiscription":11322,"Ġclues":11323,"athetic":11324,"Ġgrac":11325,"Ġheadlight":11326,"Ġsadness":11327,"Ġjohnny":11328,"Ġmotivation":11329,"Ġformulaic":11330,"Ġcuisinart":11331,"Ġlewis":11332,"Ġdeluxe":11333,"Ġbrooks":11334,"ounting":11335,"feit":11336,"Ġanna":11337,"Ġgn":11338,"Ġrc":11339,"Ġleaders":11340,"Ġironed":11341,"Ġtreadmill":11342,"none":11343,"Ġron":11344,"Ġsteer":11345,"Ġchlor":11346,"Ġcoinc":11347,"Ġapproved":11348,"Ġintellect":11349,"Ġvegetable":11350,"hy":11351,"hop":11352,"Ġpoured":11353,"Ġhex":11354,"cribed":11355,"Ġfraud":11356,"Ġstevia":11357,"certain":11358,"Ġreef":11359,"Ġcondensation":11360,"useless":11361,"Ġjay":11362,"Ġexagger":11363,"Ġaging":11364,"Ġinsurance":11365,"Ġyeti":11366,"Ġmodification":11367,"Ġchoking":11368,"tail":11369,"Ġfright":11370,"Ġgp":11371,"Ġrevenge":11372,"Ġvice":11373,"Ġflynn":11374,"Ġexercising":11375,"Ġdevotional":11376,"Ġduplicate":11377,"Ġthou":11378,"Ġinadequate":11379,"Ġflaking":11380,"Ġgrippy":11381,"Ġsprouted":11382,"Ġyellowish":11383,"Ġclosest":11384,"Ġabsorbed":11385,"Ġkrist":11386,"Ġbrides":11387,"Ġrains":11388,"Ġswiss":11389,"Ġninja":11390,"Ġgrief":11391,"Ġrode":11392,"Ġunderwhel":11393,"ontz":11394,"Ġpatri":11395,"Ġtunic":11396,"charact":11397,"Ġessays":11398,"rather":11399,"Ġloos":11400,"Ġadvertized":11401,"Ġstellar":11402,"Ġvaried":11403,"Ġinappropriate":11404,"Ġfeat":11405,"Ġlongest":11406,"Ġboxers":11407,"olas":11408,"orders":11409,"Ġpasses":11410,"Ġthrill":11411,"Ġfocuses":11412,"Ġshares":11413,"assemble":11414,"Ġpixelated":11415,"Ġtravelling":11416,"Ġincandescent":11417,"ordan":11418,"Ġpromises":11419,"Ġassorted":11420,"Ġinvolving":11421,"Ġrepresentation":11422,"Ġamateurish":11423,"Ġticket":11424,"aming":11425,"Ġextent":11426,"Ġaccents":11427,"Ġinval":11428,"Ġliberal":11429,"Ġmustard":11430,"Ġparticip":11431,"Ġbreathing":11432,"Ġformatted":11433,"Ġstrawberry":11434,"Ġcuriosity":11435,"Ġnerf":11436,"Ġhardest":11437,"atherine":11438,"olves":11439,"Ġredem":11440,"Ġdave":11441,"Ġinvesting":11442,"might":11443,"Ġatro":11444,"bey":11445,"Ġtorture":11446,"respond":11447,"cable":11448,"Ġbach":11449,"Ġimac":11450,"Ġcorpor":11451,"Ġsuperman":11452,"edia":11453,"Ġsubsequ":11454,"Ġdistraction":11455,"Ġgrinds":11456,"Ġodors":11457,"Ġrestocking":11458,"Ġunpredictable":11459,"Ġclown":11460,"Ġmuscles":11461,"Ġperry":11462,"Ġtransmit":11463,"Ġminded":11464,"Ġmechanics":11465,"gus":11466,"gling":11467,"Ġrenew":11468,"cha":11469,"Ġawake":11470,"Ġbranded":11471,"Ġcushy":11472,"Ġoverpowering":11473,"Ġrachel":11474,"Ġspit":11475,"Ġrocket":11476,"Ġbelongs":11477,"Ġcutout":11478,"Ġratio":11479,"Ġpsychology":11480,"Ġglitches":11481,"Ġlubric":11482,"Ġmitch":11483,"tha":11484,"istan":11485,"Ġbacklight":11486,"Ġwatery":11487,"Ġlaminate":11488,"Ġwins":11489,"Ġinputs":11490,"Ġstorylines":11491,"Ġcric":11492,"Ġdiscovery":11493,"Ġflights":11494,"Ġagreed":11495,"Ġeco":11496,"ldom":11497,"Ġcorrespond":11498,"Ġmisplaced":11499,"Ġcomplement":11500,"Ġjacks":11501,"Ġwinning":11502,"Ġengineer":11503,"Ġvariation":11504,"Ġdl":11505,"Ġresearching":11506,"Ġinserting":11507,"Ġgallons":11508,"Ġclutter":11509,"Ġ2":11510,"Ġreattach":11511,"Ġhav":11512,"Ġupbeat":11513,"ession":11514,"Ġtouchscreen":11515,"Ġassass":11516,"Ġsketchers":11517,"Ġsmudge":11518,"Ġconfirmed":11519,"fine":11520,"pill":11521,"Ġnieces":11522,"Ġbeverage":11523,"Ġuncomfort":11524,"Ġsingers":11525,"Ġbunched":11526,"Ġbrutal":11527,"Ġacoustic":11528,"aught":11529,"oline":11530,"Ġmusician":11531,"Ġhurric":11532,"Ġprocessed":11533,"Ġnephews":11534,"Ġtu":11535,"alo":11536,"Ġshri":11537,"Ġrib":11538,"Ġbinocular":11539,"Ġbodies":11540,"slightly":11541,"150":11542,"cas":11543,"ological":11544,"ulations":11545,"Ġprovider":11546,"Ġsilverado":11547,"mination":11548,"Ġinfluence":11549,"Ġblad":11550,"Ġguin":11551,"Ġtemplate":11552,"Ġappliance":11553,"front":11554,"Ġmbps":11555,"Ġmushy":11556,"di":11557,"oric":11558,"Ġhumour":11559,"Ġpatients":11560,"Ġlawyer":11561,"Ġdea":11562,"Ġendearing":11563,"Ġpainfully":11564,"remel":11565,"Ġaccordingly":11566,"Ġfloral":11567,"Ġretailer":11568,"Ġquilting":11569,"Ġstubborn":11570,"Ġthroat":11571,"yeah":11572,"Ġwreck":11573,"Ġhatch":11574,"itis":11575,"Ġaband":11576,"Ġdiscou":11577,"Ġfascinated":11578,"Ġtheories":11579,"Ġpest":11580,"Ġmoss":11581,"Ġslowed":11582,"Ġdvr":11583,"Ġcombine":11584,"Ġillustration":11585,"Ġcuss":11586,"Ġrights":11587,"Ġgreg":11588,"Ġsplash":11589,"Ġproducing":11590,"Ġhdd":11591,"Ġlane":11592,"Ġgladly":11593,"Ġhemmed":11594,"Ġdynamics":11595,"Ġguidelines":11596,"Ġtuned":11597,"Ġjohnson":11598,"glue":11599,"Ġprayers":11600,"Ġwhistles":11601,"Ġdinosaurs":11602,"rus":11603,"Ġdor":11604,"Ġshy":11605,"seller":11606,"Ġbloody":11607,"Ġsquishy":11608,"Ġwiz":11609,"Ġdremel":11610,"Ġbeloved":11611,"Ġpurses":11612,"Ġtrains":11613,"Ġsquished":11614,"Ġunbelievably":11615,"utious":11616,"oughly":11617,"Ġcautious":11618,"cam":11619,"Ġpov":11620,"Ġdesp":11621,"ixed":11622,"Ġintelligence":11623,"Ġcaddy":11624,"Ġkorean":11625,"Ġrhythm":11626,"Ġcomplains":11627,"Ġpassword":11628,"Ġirregular":11629,"Ġreordering":11630,"Ġuncomfortably":11631,"12":11632,"Ġtougher":11633,"Ġsinks":11634,"Ġbulldog":11635,"Ġcookbooks":11636,"Ġinqu":11637,"Ġlion":11638,"Ġasp":11639,"Ġangled":11640,"Ġdiscussed":11641,"Ġunattractive":11642,"movie":11643,"Ġpeg":11644,"Ġgrit":11645,"Ġspeck":11646,"force":11647,"Ġvisibility":11648,"Ġweaves":11649,"Ġfathers":11650,"Ġgory":11651,"Ġforcing":11652,"lying":11653,"Ġeras":11654,"Ġsqueezed":11655,"Ġleaning":11656,"Ġreduction":11657,"aco":11658,"Ġseldom":11659,"Ġproves":11660,"Ġlex":11661,"Ġdimm":11662,"Ġcounterfeit":11663,"Ġbookshelf":11664,"rend":11665,"ainty":11666,"Ġcurling":11667,"Ġinterpretation":11668,"several":11669,"Ġdepression":11670,"Ġvictim":11671,"entials":11672,"Ġdebut":11673,"Ġbruce":11674,"Ġeditions":11675,"Ġevident":11676,"Ġwicked":11677,"Ġfps":11678,"Ġfare":11679,"Ġmant":11680,"road":11681,"Ġslap":11682,"Ġbunches":11683,"Ġstrangely":11684,"Ġoriented":11685,"Ġbrian":11686,"Ġfingerprint":11687,"Ġduplicates":11688,"Ġprobe":11689,"Ġrats":11690,"mester":11691,"Ġmetric":11692,"Ġtraveled":11693,"connect":11694,"Ġdoug":11695,"ington":11696,"Ġkevin":11697,"Ġsteven":11698,"Ġteeny":11699,"Ġklein":11700,"Ġbern":11701,"ancing":11702,"Ġclient":11703,"Ġcontrolled":11704,"Ġmagnific":11705,"Ġtangle":11706,"Ġmassage":11707,"Ġpreachy":11708,"ghan":11709,"Ġcarter":11710,"Ġpups":11711,"Ġglowing":11712,"Ġdocking":11713,"Ġwilson":11714,"Ġprequel":11715,"Ġjag":11716,"Ġpoison":11717,"Ġvase":11718,"Ġstole":11719,"Ġparking":11720,"Ġjanet":11721,"Ġiced":11722,"Ġfist":11723,"Ġhides":11724,"Ġtogg":11725,"Ġkaren":11726,"Ġwhereas":11727,"Ġcardigan":11728,"Ġmodifications":11729,"Ġremodel":11730,"Ġcommut":11731,"Ġspinner":11732,"Ġchallenged":11733,"Ġgroove":11734,"Ġwilliam":11735,"Ġruler":11736,"Ġsappy":11737,"Ġbled":11738,"Ġskid":11739,"Ġcreation":11740,"Ġsanding":11741,"Ġgamer":11742,"Ġadmire":11743,"Ġshatter":11744,"Ġruff":11745,"Ġgru":11746,"Ġpreparation":11747,"Ġios":11748,"Ġsq":11749,"erent":11750,"Ġdainty":11751,"Ġstim":11752,"star":11753,"Ġalt":11754,"Ġupload":11755,"Ġinstance":11756,"Ġterri":11757,"Ġhybr":11758,"Ġstapler":11759,"Ġdefected":11760,"Ġthousands":11761,"Ġnib":11762,"Ġlatter":11763,"Ġcoh":11764,"barely":11765,"Ġredemption":11766,"Ġack":11767,"Ġspouse":11768,"Ġgrape":11769,"Ġdrums":11770,"Ġinteractive":11771,"Ġinnocent":11772,"author":11773,"plausible":11774,"llas":11775,"Ġmega":11776,"Ġmurders":11777,"Ġstrobe":11778,"Ġproportion":11779,"fts":11780,"zens":11781,"Ġgt":11782,"anne":11783,"umph":11784,"anyone":11785,"Ġdrown":11786,"Ġdepiction":11787,"graphical":11788,"Ġcraftsman":11789,"Ġanecdotes":11790,"Ġfired":11791,"Ġcind":11792,"Ġseper":11793,"camer":11794,"Ġknuck":11795,"Ġradios":11796,"Ġbueno":11797,"Ġpacific":11798,"core":11799,"Ġum":11800,"Ġunse":11801,"Ġspacing":11802,"Ġscents":11803,"Ġdecade":11804,"update":11805,"oprene":11806,"Ġchalkboard":11807,"Ġtimber":11808,"Ġdrained":11809,"Ġwrapper":11810,"Ġmoderately":11811,"Ġblessing":11812,"Ġdetailing":11813,"Ġcupboard":11814,"Ġbraided":11815,"Ġproducto":11816,"Ġva":11817,"Ġcrumbled":11818,"veloped":11819,"Ġlocker":11820,"Ġdoubts":11821,"lain":11822,"ergy":11823,"ros":11824,"Ġdozens":11825,"Ġtriumph":11826,"Ġcleared":11827,"Ġdimin":11828,"hello":11829,"Ġyea":11830,"unlike":11831,"Ġslider":11832,"true":11833,"Ġdemons":11834,"Ġlaminated":11835,"person":11836,"Ġeagerly":11837,"respons":11838,"warm":11839,"Ġhikes":11840,"Ġsliced":11841,"sha":11842,"standard":11843,"Ġclippers":11844,"Ġpastor":11845,"Ġchoke":11846,"Ġsharper":11847,"Ġtexts":11848,"Ġencounter":11849,"compared":11850,"Ġdiscoloration":11851,"Ġwealth":11852,"Ġsatell":11853,"Ġunbearable":11854,"za":11855,"Ġwreat":11856,"Ġscout":11857,"Ġmatern":11858,"Ġmesses":11859,"Ġcartoons":11860,"Ġdistracted":11861,"Ġutilize":11862,"tub":11863,"Ġmish":11864,"Ġka":11865,"Ġcannon":11866,"Ġadj":11867,"Ġcleanly":11868,"Ġgrams":11869,"Ġwelding":11870,"Ġrivets":11871,"eve":11872,"Ġchested":11873,"Ġviz":11874,"comfy":11875,"Ġmarble":11876,"Ġsubw":11877,"Ġlatex":11878,"Ġstripe":11879,"Ġclicked":11880,"clo":11881,"Ġmut":11882,"Ġinn":11883,"keys":11884,"Ġneoprene":11885,"isex":11886,"balls":11887,"Ġgeor":11888,"Ġtempted":11889,"Ġcancelled":11890,"Ġbezel":11891,"Ġyan":11892,"rian":11893,"Ġdischar":11894,"Ġhorrific":11895,"Ġdawn":11896,"Ġprocessing":11897,"Ġchickens":11898,"Ġdivider":11899,"otive":11900,"Ġdans":11901,"ulk":11902,"Ġexped":11903,"Ġskimpy":11904,"Ġpiercing":11905,"cap":11906,"lighter":11907,"Ġheadboard":11908,"Ġsplinter":11909,"Ġmileage":11910,"Ġhalogen":11911,"rance":11912,"your":11913,"Ġpt":11914,"Ġbraz":11915,"tight":11916,"pling":11917,"Ġgrant":11918,"boots":11919,"Ġshelter":11920,"Ġfrog":11921,"pointment":11922,"Ġundershirt":11923,"aned":11924,"stra":11925,"acked":11926,"reads":11927,"Ġslam":11928,"Ġelvis":11929,"bbie":11930,"Ġchewers":11931,"Ġbanter":11932,"Ġsquirrel":11933,"Ġtroubleshooting":11934,"aver":11935,"Ġplumb":11936,"Ġincident":11937,"Ġsends":11938,"irable":11939,"Ġremover":11940,"Ġsym":11941,"Ġsata":11942,"Ġreliability":11943,"batteries":11944,"Ġstroller":11945,"Ġkhaki":11946,"Ġhamster":11947,"priced":11948,"Ġbot":11949,"Ġcane":11950,"Ġperfor":11951,"ours":11952,"Ġbrushing":11953,"Ġwishes":11954,"Ġstreets":11955,"Ġpliable":11956,"Ġgluing":11957,"Ġjeal":11958,"Ġposes":11959,"Ġunbi":11960,"Ġabsorbing":11961,"Ġexposing":11962,"Ġwrenching":11963,"Ġfuller":11964,"Ġtestament":11965,"Ġkoontz":11966,"Ġmisspelled":11967,"Ġconventional":11968,"Ġpioneer":11969,"Ġiii":11970,"ader":11971,"urious":11972,"Ġdism":11973,"Ġrepub":11974,"Ġapplicable":11975,"Ġhoover":11976,"Ġsqueaking":11977,"Ġacer":11978,"Ġmediums":11979,"Ġmerrell":11980,"Ġflashlights":11981,"Ġresponsible":11982,"Ġtolerate":11983,"Ġtp":11984,"Ġeject":11985,"angers":11986,"Ġmarath":11987,"Ġconsp":11988,"Ġincreasing":11989,"Ġrooting":11990,"Ġcondensed":11991,"Ġbrazil":11992,"bot":11993,"ari":11994,"Ġanat":11995,"Ġfunctioned":11996,"Ġsoldier":11997,"Ġleakage":11998,"Ġpropag":11999,"ckets":12000,"Ġpvc":12001,"already":12002,"Ġabilities":12003,"Ġdefault":12004,"Ġwarp":12005,"upid":12006,"Ġdomin":12007,"Ġorchest":12008,"fasc":12009,"Ġkoh":12010,"cia":12011,"Ġzen":12012,"Ġtitled":12013,"Ġconversion":12014,"Ġbouncing":12015,"Ġrestaurants":12016,"fil":12017,"Ġpunk":12018,"Ġtrib":12019,"Ġfilthy":12020,"Ġhooking":12021,"Ġmicros":12022,"Ġcompatibility":12023,"Ġtongs":12024,"Ġkenned":12025,"Ġbuena":12026,"Ġtester":12027,"Ġpuck":12028,"Ġmaple":12029,"tinguish":12030,"Ġimplausible":12031,"Ġcheer":12032,"def":12033,"Ġappoin":12034,"Ġmea":12035,"Ġrelo":12036,"Ġea":12037,"Ġchili":12038,"Ġmellow":12039,"Ġblake":12040,"Ġplaystation":12041,"Ġshorten":12042,"Ġverse":12043,"gri":12044,"Ġdol":12045,"una":12046,"Ġpresses":12047,"Ġessence":12048,"Ġblending":12049,"Ġtiresome":12050,"fascinating":12051,"hate":12052,"rich":12053,"Ġshack":12054,"Ġbiting":12055,"Ġsmoothie":12056,"Ġplantar":12057,"Ġmythology":12058,"Ġdyson":12059,"ji":12060,"try":12061,"Ġara":12062,"Ġprotr":12063,"Ġessay":12064,"Ġcultures":12065,"Ġaffects":12066,"Ġleer":12067,"Ġreplica":12068,"Ġelite":12069,"Ġmagnification":12070,"Ġsnapping":12071,"Ġsoups":12072,"Ġmoths":12073,"Ġhurricane":12074,"dling":12075,"Ġpdf":12076,"Ġclumps":12077,"shirts":12078,"Ġdistances":12079,"Ġbeneath":12080,"Ġdisconnecting":12081,"Ġspigen":12082,"Ġcharacterization":12083,"Ġunbiased":12084,"bows":12085,"ipped":12086,"Ġshuffle":12087,"Ġunsafe":12088,"Ġeric":12089,"Ġschools":12090,"Ġflashback":12091,"Ġaccompan":12092,"Ġstationary":12093,"Ġguinea":12094,"chair":12095,"Ġrepetitious":12096,"Ġstraws":12097,"Ġdingy":12098,"Ġofficer":12099,"Ġchristianity":12100,"Ġtailored":12101,"Ġmalt":12102,"Ġpaintings":12103,"Ġdiesel":12104,"Ġcocoa":12105,"Ġlevis":12106,"aud":12107,"bec":12108,"Ġimpr":12109,"Ġgrandp":12110,"Ġbelieving":12111,"Ġvalves":12112,"Ġaudi":12113,"Ġarmour":12114,"Ġlinda":12115,"Ġhaunting":12116,"Ġmaternity":12117,"Ġgummy":12118,"Ġdraft":12119,"Ġpillowcase":12120,"Ġfocusing":12121,"Ġrecomended":12122,"Ġmotivated":12123,"Ġoccupied":12124,"Ġtimex":12125,"Ġsaus":12126,"Ġtapered":12127,"Ġconsideration":12128,"Ġimprovements":12129,"Ġwitness":12130,"Ġflattened":12131,"Ġmanipulate":12132,"Ġdong":12133,"Ġseperate":12134,"Ġdifficulties":12135,"Ġadvertises":12136,"Ġsunsh":12137,"Ġflowy":12138,"Ġpreventing":12139,"Ġunfolded":12140,"kill":12141,"sion":12142,"Ġscro":12143,"Ġbelkin":12144,"Ġdelayed":12145,"Ġsandra":12146,"Ġchime":12147,"Ġaddressed":12148,"Ġmarvelous":12149,"imer":12150,"Ġconne":12151,"Ġtees":12152,"Ġfights":12153,"Ġlucy":12154,"Ġbeneficial":12155,"iona":12156,"irk":12157,"ulas":12158,"ucky":12159,"Ġdrastic":12160,"Ġconform":12161,"Ġestate":12162,"Ġbluray":12163,"Ġcontinuity":12164,"Ġcollapses":12165,"bars":12166,"father":12167,"Ġbou":12168,"Ġole":12169,"Ġmes":12170,"utter":12171,"rol":12172,"Ġgrabbing":12173,"Ġpastel":12174,"Ġimmers":12175,"Ġglobal":12176,"Ġcreased":12177,"Ġanticipate":12178,"Ġgraders":12179,"Ġaustralian":12180,"Ġchlorine":12181,"card":12182,"Ġdach":12183,"onts":12184,"Ġsham":12185,"Ġasia":12186,"Ġbully":12187,"cking":12188,"Ġvw":12189,"Ġinterch":12190,"Ġmotors":12191,"Ġbushing":12192,"Ġrenting":12193,"Ġchampion":12194,"Ġdiabetic":12195,"icop":12196,"aze":12197,"Ġsalv":12198,"Ġbungee":12199,"Ġefficiently":12200,"Ġarrangement":12201,"Ġsherlock":12202,"Ġbladder":12203,"photo":12204,"Ġrests":12205,"Ġcatalog":12206,"Ġnorthern":12207,"Ġanticipation":12208,"Ġpipes":12209,"cular":12210,"hero":12211,"Ġanger":12212,"Ġdescent":12213,"Ġbooties":12214,"Ġharbor":12215,"truly":12216,"Ġtorch":12217,"Ġtruths":12218,"bright":12219,"tons":12220,"Ġpork":12221,"edge":12222,"itect":12223,"Ġsue":12224,"Ġdiving":12225,"Ġflashy":12226,"Ġinnovative":12227,"aph":12228,"Ġts":12229,"Ġmaz":12230,"Ġunisex":12231,"abby":12232,"Ġrims":12233,"udy":12234,"Ġhorrend":12235,"Ġfixes":12236,"Ġcollected":12237,"Ġkicked":12238,"Ġverify":12239,"Ġmichigan":12240,"Ġscuffs":12241,"hat":12242,"Ġgoose":12243,"Ġredo":12244,"Ġepo":12245,"Ġkings":12246,"Ġreplaces":12247,"Ġridge":12248,"Ġblemish":12249,"Ġfilmed":12250,"Ġarchitect":12251,"Ġsequins":12252,"Ġskype":12253,"Ġmarketed":12254,"Ġintegrity":12255,"Ġegyptian":12256,"Ġlighted":12257,"Ġrained":12258,"Ġsubar":12259,"Ġcaller":12260,"Ġquarters":12261,"Ġplunger":12262,"Ġbins":12263,"Ġkiss":12264,"Ġhelicop":12265,"ggers":12266,"Ġavi":12267,"Ġpotentially":12268,"Ġvendors":12269,"Ġvariations":12270,"orker":12271,"ieved":12272,"Ġsheen":12273,"Ġimho":12274,"Ġesc":12275,"Ġfreight":12276,"Ġmolding":12277,"Ġsettled":12278,"Ġavery":12279,"Ġpoetic":12280,"Ġlegacy":12281,"Ġbooster":12282,"Ġbanged":12283,"Ġstructured":12284,"ben":12285,"ias":12286,"Ġeater":12287,"Ġmucho":12288,"Ġresin":12289,"Ġtrained":12290,"Ġodds":12291,"Ġreduces":12292,"nest":12293,"rough":12294,"psided":12295,"Ġunderst":12296,"Ġpajama":12297,"Ġalmonds":12298,"lamp":12299,"Ġsf":12300,"Ġnov":12301,"Ġtimeline":12302,"Ġbias":12303,"Ġelasticity":12304,"Ġspectrum":12305,"surprisingly":12306,"iac":12307,"tes":12308,"oton":12309,"thes":12310,"Ġphase":12311,"Ġexceed":12312,"Ġchopping":12313,"Ġassess":12314,"holes":12315,"Ġblended":12316,"Ġprofit":12317,"Ġbobb":12318,"Ġsweats":12319,"Ġipads":12320,"Ġkicking":12321,"Ġcancelling":12322,"Ġergonomic":12323,"Ġkennedy":12324,"parts":12325,"Ġpas":12326,"Ġspor":12327,"Ġdefinit":12328,"izable":12329,"Ġagenda":12330,"Ġspotty":12331,"Ġgadgets":12332,"Ġpokemon":12333,"Ġluxurious":12334,"Ġhybrid":12335,"Ġddd":12336,"left":12337,"Ġstupid":12338,"Ġunsu":12339,"Ġribs":12340,"Ġcleaners":12341,"Ġdealership":12342,"fying":12343,"Ġghosts":12344,"Ġpigs":12345,"Ġmoore":12346,"Ġxt":12347,"Ġdow":12348,"Ġshining":12349,"Ġlopsided":12350,"estruct":12351,"Ġhobb":12352,"Ġendure":12353,"Ġwaffles":12354,"Ġsubscribe":12355,"Ġsubaru":12356,"Ġwimp":12357,"Ġrider":12358,"peo":12359,"shund":12360,"Ġhydro":12361,"Ġstatue":12362,"Ġenthralled":12363,"camera":12364,"Ġdiffuser":12365,"Ġviewer":12366,"Ġfeeders":12367,"Ġbarbara":12368,"Ġcircumference":12369,"Ġdachshund":12370,"Ġtense":12371,"recommend":12372,"arge":12373,"Ġonion":12374,"Ġwhim":12375,"Ġrome":12376,"Ġoffset":12377,"Ġfirmer":12378,"Ġhandheld":12379,"Ġpinched":12380,"Ġdetachable":12381,"Ġdarling":12382,"Ġhanna":12383,"Ġghz":12384,"Ġbry":12385,"Ġprefect":12386,"tech":12387,"pose":12388,"Ġhorrid":12389,"Ġdisclo":12390,"Ġentering":12391,"Ġsignature":12392,"Ġphrase":12393,"Ġstoryteller":12394,"Ġpivot":12395,"ML":12396,"XML":12397,"fal":12398,"lay":12399,"Ġberry":12400,"Ġsage":12401,"Ġreplaceable":12402,"Ġdramat":12403,"Ġcapital":12404,"Ġsufficiently":12405,"Ġineffective":12406,"Ġparallel":12407,"Ġoreg":12408,"itations":12409,"const":12410,"Ġhamilton":12411,"help":12412,"Ġcoleman":12413,"Ġoregon":12414,"Ġfrying":12415,"Ġunbe":12416,"dogs":12417,"something":12418,"basic":12419,"Ġsucc":12420,"Ġkod":12421,"Ġmaid":12422,"Ġrecon":12423,"Ġflatter":12424,"Ġexcell":12425,"opard":12426,"Ġanticipating":12427,"Ġdepressed":12428,"Ġempire":12429,"Ġreinstall":12430,"lette":12431,"Ġflickers":12432,"Ġunwra":12433,"Ġengraving":12434,"Ġpon":12435,"Ġdisagree":12436,"Ġvin":12437,"Ġgod":12438,"Ġmaroon":12439,"Ġplanes":12440,"Ġbathtub":12441,"Ġconclusions":12442,"Ġspoilers":12443,"Ġrendered":12444,"Ġweaving":12445,"liter":12446,"Ġlent":12447,"Ġchasing":12448,"inex":12449,"amental":12450,"Ġsonic":12451,"Ġedible":12452,"Ġflair":12453,"Ġbreakage":12454,"Ġgrilling":12455,"Ġsweetness":12456,"Ġimproper":12457,"Ġorganiz":12458,"Ġrecharging":12459,"Ġaven":12460,"Ġdisci":12461,"Ġrecliner":12462,"Ġprejud":12463,"poon":12464,"Ġbounces":12465,"Ġrecycle":12466,"Ġjessica":12467,"Ġbeverages":12468,"Ġbinoculars":12469,"note":12470,"Ġartistic":12471,"Ġdeploy":12472,"Ġstepping":12473,"Ġyoungest":12474,"Ġwiping":12475,"oke":12476,"uh":12477,"Ġticks":12478,"Ġfas":12479,"before":12480,"Ġshaw":12481,"Ġslows":12482,"Ġpresence":12483,"Ġdebating":12484,"Ġjordan":12485,"Ġleap":12486,"yster":12487,"Ġpinea":12488,"Ġlabeling":12489,"graphic":12490,"Ġmornings":12491,"Ġmiller":12492,"Ġanxiously":12493,"Ġlauren":12494,"cards":12495,"Ġrocky":12496,"Ġpunches":12497,"Ġoptics":12498,"Ġnavigation":12499,"anov":12500,"Ġmurderer":12501,"Ġcriminal":12502,"Ġconnelly":12503,"pse":12504,"Ġfian":12505,"Ġnancy":12506,"Ġallergy":12507,"Ġconvey":12508,"Ġdownward":12509,"Ġindestruct":12510,"Ġparticle":12511,"Ġadventur":12512,"Ġchromebook":12513,"Ġgathering":12514,"Ġbarr":12515,"orie":12516,"Ġitch":12517,"Ġell":12518,"Ġalarms":12519,"Ġcleanup":12520,"Ġanswering":12521,"check":12522,"Ġdating":12523,"bee":12524,"ieties":12525,"Ġpeeler":12526,"Ġgraduate":12527,"Ġcompressed":12528,"Ġprogressed":12529,"Ġdisintegrated":12530,"inexpensive":12531,"Ġpug":12532,"Ġinject":12533,"Ġrural":12534,"Ġapplies":12535,"Ġsmeared":12536,"Ġbulge":12537,"Ġsyno":12538,"Ġnearby":12539,"Ġfighter":12540,"Ġessentials":12541,"Ġscriptures":12542,"Ġengrossed":12543,"AI":12544,"EM":12545,"Ġcaffe":12546,"Ġspaced":12547,"Ġjogging":12548,"Ġnightstand":12549,"Ġkitties":12550,"Ġreminiscent":12551,"AIL":12552,"EMAIL":12553,"his":12554,"Ġbaker":12555,"stream":12556,"ouses":12557,"Ġperiodically":12558,"Ġplanting":12559,"Ġweighed":12560,"Ġsuspenders":12561,"Ġobscure":12562,"Ġsubwoofer":12563,"don":12564,"Ġcities":12565,"Ġgou":12566,"Ġreed":12567,"Ġprope":12568,"Ġadmin":12569,"Ġphant":12570,"Ġleon":12571,"Ġbarefoot":12572,"ocr":12573,"Ġworrying":12574,"Ġdummies":12575,"thoroughly":12576,"Ġvizio":12577,"Ġchords":12578,"othy":12579,"Ġjosh":12580,"Ġremoves":12581,"Ġspecies":12582,"Ġcrop":12583,"Ġvirus":12584,"enn":12585,"Ġshops":12586,"Ġsigned":12587,"design":12588,"Ġpunched":12589,"Ġsuspension":12590,"Ġdongle":12591,"corder":12592,"Ġmuse":12593,"Ġchal":12594,"Ġbookstore":12595,"Ġcrum":12596,"Ġcheek":12597,"Ġcontaining":12598,"Ġtargets":12599,"Ġdarken":12600,"Ġblinds":12601,"Ġlounging":12602,"Ġmagnificent":12603,"Ġrepublic":12604,"Ġicing":12605,"erra":12606,"orant":12607,"Ġreapp":12608,"ram":12609,"Ġunfor":12610,"augh":12611,"apor":12612,"ractical":12613,"Ġoperates":12614,"Ġgaskets":12615,"Ġrectangular":12616,"Ġtribute":12617,"Ġoldest":12618,"Ġpeoples":12619,"Ġredes":12620,"oscope":12621,"upe":12622,"ya":12623,"Ġdosent":12624,"Ġinfuser":12625,"expensive":12626,"Ġbeliever":12627,"Ġappreciation":12628,"uitous":12629,"Ġcomplexity":12630,"Ġpropane":12631,"Ġpuffy":12632,"Ġcorroded":12633,"Ġintertwined":12634,"mic":12635,"Ġbough":12636,"lley":12637,"leading":12638,"Ġrude":12639,"Ġpoem":12640,"Ġbroom":12641,"Ġplayback":12642,"Ġreferred":12643,"Ġjeweler":12644,"Ġjulia":12645,"Ġsporad":12646,"Ġtart":12647,"estry":12648,"Ġdispense":12649,"Ġadams":12650,"Ġdesper":12651,"Ġfunnel":12652,"Ġcarbs":12653,"Ġbleeds":12654,"Ġcrimes":12655,"Ġnotebooks":12656,"Ġeconomy":12657,"Ġhazel":12658,"Ġace":12659,"Ġjug":12660,"Ġproph":12661,"ubs":12662,"Ġembo":12663,"Ġlatin":12664,"Ġoverheating":12665,"Ġsandwiches":12666,"incredibly":12667,"Ġhorrendous":12668,"Ġbour":12669,"Ġcomed":12670,"ila":12671,"ggie":12672,"Ġcurled":12673,"Ġdamages":12674,"Ġupdating":12675,"brought":12676,"Ġimproving":12677,"aneously":12678,"Ġcatcher":12679,"Ġbumpy":12680,"Ġextends":12681,"Ġfranch":12682,"Ġscrapbook":12683,"Ġjung":12684,"Ġmund":12685,"Ġcleats":12686,"Ġroasted":12687,"Ġfiner":12688,"Ġkeypad":12689,"Ġrustic":12690,"Ġsuffers":12691,"Ġcamcorder":12692,"Ġreveals":12693,"Ġforgiving":12694,"Ġmazda":12695,"win":12696,"meter":12697,"Ġcones":12698,"posed":12699,"Ġheadrest":12700,"Ġreform":12701,"Ġvibe":12702,"Ġsmoked":12703,"Ġscarves":12704,"Ġshredding":12705,"Ġmartial":12706,"Ġhoops":12707,"Ġcrawl":12708,"Ġgerminated":12709,"original":12710,"Ġvulner":12711,"Ġcosmetic":12712,"nas":12713,"Ġaz":12714,"Ġdoctors":12715,"Ġfiling":12716,"Ġcoffees":12717,"Ġrequesting":12718,"Ġstacked":12719,"Ġdysfunctional":12720,"Ġcaffeine":12721,"Ġsum":12722,"mostly":12723,"Ġseamless":12724,"Ġgender":12725,"Ġdemo":12726,"Ġpurely":12727,"Ġpaleo":12728,"Ġnostalgia":12729,"Ġttl":12730,"Ġpropaganda":12731,"hose":12732,"weak":12733,"Ġrecommends":12734,"cessarily":12735,"Ġcalorie":12736,"Ġintroduct":12737,"Ġlinked":12738,"Ġdestroying":12739,"Ġxxxl":12740,"logies":12741,"Ġirritate":12742,"Ġtherapist":12743,"Ġexploring":12744,"Ġmentions":12745,"Ġchess":12746,"Ġcoax":12747,"Ġkara":12748,"Ġconjun":12749,"Ġsauc":12750,"Ġpersona":12751,"Ġtilted":12752,"Ġkorea":12753,"people":12754,"Ġrite":12755,"ainted":12756,"Ġoverdone":12757,"Ġchopped":12758,"Ġshifting":12759,"Ġscanning":12760,"Ġoakley":12761,"Ġaesthetically":12762,"otics":12763,"Ġreun":12764,"Ġshears":12765,"Ġbuggy":12766,"Ġflask":12767,"arrhea":12768,"Ġbeatles":12769,"Ġqc":12770,"Ġkennel":12771,"Ġpodcast":12772,"gives":12773,"vest":12774,"Ġmig":12775,"Ġguts":12776,"Ġreposition":12777,"Ġrotten":12778,"Ġdecks":12779,"Ġboiled":12780,"cials":12781,"Ġcrashing":12782,"Ġcosting":12783,"Ġdiscre":12784,"Ġprescription":12785,"Ġattracts":12786,"Ġtextbooks":12787,"Ġvillage":12788,"Ġinevit":12789,"Ġapocalyptic":12790,"Ġsacrifice":12791,"frame":12792,"Ġunimpressed":12793,"Ġhart":12794,"Ġdidn":12795,"Ġpointing":12796,"Ġtrace":12797,"Ġturntable":12798,"Ġdiarrhea":12799,"Ġcalming":12800,"packaging":12801,"Ġticking":12802,"Ġfrills":12803,"Ġsor":12804,"Ġscifi":12805,"Ġfoggy":12806,"Ġblackout":12807,"Ġdraining":12808,"viously":12809,"Ġlively":12810,"Ġkeyboards":12811,"Ġbilly":12812,"washed":12813,"Ġmasks":12814,"Ġbroadcast":12815,"Ġrendition":12816,"ipp":12817,"Ġnoticing":12818,"thew":12819,"Ġinstructional":12820,"Ġindul":12821,"Ġballast":12822,"Ġvolts":12823,"forms":12824,"coat":12825,"Ġsatellite":12826,"Ġaka":12827,"Ġore":12828,"Ġcs":12829,"starts":12830,"ibble":12831,"Ġcurly":12832,"Ġvarieties":12833,"Ġskiing":12834,"Ġaddresses":12835,"Ġhomeschool":12836,"lie":12837,"Ġmanga":12838,"Ġarriving":12839,"Ġsequences":12840,"Ġweighing":12841,"herent":12842,"labeled":12843,"Ġjoseph":12844,"Ġgruesome":12845,"Ġaer":12846,"Ġfate":12847,"Ġky":12848,"orton":12849,"Ġdiapers":12850,"Ġanimated":12851,"Ġdonating":12852,"Ġturtles":12853,"Ġconjunction":12854,"mint":12855,"sive":12856,"zers":12857,"aron":12858,"Ġans":12859,"Ġhefty":12860,"Ġunopened":12861,"nold":12862,"Ġsouls":12863,"Ġbatt":12864,"Ġrehash":12865,"Ġkiddos":12866,"Ġparr":12867,"quin":12868,"Ġalle":12869,"Ġtaupe":12870,"Ġringer":12871,"Ġmindless":12872,"Ġconsiderable":12873,"Ġbooty":12874,"Ġblurred":12875,"arents":12876,"tiny":12877,"Ġcus":12878,"Ġsemester":12879,"Ġpointer":12880,"Ġsecuring":12881,"Ġdivor":12882,"Ġrelay":12883,"Ġdrywall":12884,"Ġgenerator":12885,"Ġridges":12886,"Ġventilation":12887,"Ġfranchise":12888,"vs":12889,"Ġbeagle":12890,"Ġfilament":12891,"exc":12892,"Ġadjusts":12893,"Ġcollections":12894,"Ġnetgear":12895,"Ġhyper":12896,"taking":12897,"Ġmexican":12898,"Ġswapped":12899,"Ġphantom":12900,"Ġsir":12901,"Ġfred":12902,"quis":12903,"Ġinsul":12904,"Ġvisuals":12905,"Ġengraved":12906,"Ġcaliber":12907,"Ġbage":12908,"Ġbrainer":12909,"Ġtelephone":12910,"Ġacknow":12911,"ran":12912,"Ġshabby":12913,"Ġpoking":12914,"player":12915,"black":12916,"Ġdisgusted":12917,"Ġengagement":12918,"Ġsodium":12919,"quer":12920,"Ġmuscular":12921,"Ġromp":12922,"Ġsweetener":12923,"Ġupgrading":12924,"flon":12925,"Ġengineered":12926,"Ġscrubbing":12927,"Ġmasters":12928,"Ġsprinkler":12929,"keep":12930,"Ġuninsp":12931,"Ġscul":12932,"Ġrecept":12933,"Ġattic":12934,"Ġresident":12935,"tips":12936,"Ġtreating":12937,"Ġinstrumental":12938,"Ġconservative":12939,"characters":12940,"Ġpeak":12941,"Ġforks":12942,"Ġdefinitive":12943,"Ġforehead":12944,"arently":12945,"Ġinsanely":12946,"Ġmisrepresented":12947,"glasses":12948,"orice":12949,"christ":12950,"Ġgaug":12951,"Ġslicing":12952,"Ġspelled":12953,"Ġdiverse":12954,"Ġprinc":12955,"Ġmacro":12956,"Ġmelody":12957,"Ġvacuuming":12958,"Ġdissip":12959,"Ġdocumented":12960,"Ġpulp":12961,"home":12962,"Ġshams":12963,"Ġmanager":12964,"Ġfax":12965,"Ġcontrolling":12966,"Ġcredible":12967,"Ġmanageable":12968,"Ġaimed":12969,"Ġzebra":12970,"Ġtha":12971,"Ġpuma":12972,"Ġhast":12973,"Ġdre":12974,"Ġkidna":12975,"Ġsentiment":12976,"Ġwonky":12977,"Ġnicholas":12978,"Ġflimsier":12979,"Ġreluctant":12980,"kia":12981,"orous":12982,"Ġjas":12983,"Ġaloud":12984,"Ġpartly":12985,"weird":12986,"Ġshortened":12987,"Ġlayering":12988,"Ġstriped":12989,"Ġjuniors":12990,"Ġunevenly":12991,"Ġportrays":12992,"Ġarthur":12993,"Ġfought":12994,"Ġced":12995,"ishing":12996,"Ġleans":12997,"bean":12998,"imag":12999,"Ġaccustom":13000,"pris":13001,"Ġtram":13002,"Ġremedy":13003,"Ġmommy":13004,"overpriced":13005,"Ġsqueaks":13006,"Ġwarrior":13007,"Ġtoggle":13008,"responsive":13009,"Ġfianc":13010,"birds":13011,"pea":13012,"Ġtinted":13013,"organ":13014,"Ġinks":13015,"Ġheft":13016,"andel":13017,"Ġscented":13018,"Ġrelatives":13019,"Ġirritation":13020,"hist":13021,"pool":13022,"xter":13023,"Ġtwea":13024,"atha":13025,"Ġcraving":13026,"Ġmidnight":13027,"Ġselfie":13028,"Ġsolely":13029,"returning":13030,"Ġexplorer":13031,"Ġmarathon":13032,"Ġepoxy":13033,"Ġsears":13034,"Ġcomical":13035,"Ġfears":13036,"Ġexpose":13037,"lips":13038,"Ġsuperglue":13039,"Ġskates":13040,"Ġobama":13041,"Ġviewpoint":13042,"Ġparks":13043,"Ġcommands":13044,"Ġpjs":13045,"Ġautobiography":13046,"Ġconspir":13047,"gift":13048,"mers":13049,"Ġaired":13050,"Ġect":13051,"Ġhardcore":13052,"Ġintimate":13053,"Ġdrape":13054,"Ġselfish":13055,"Ġbendable":13056,"Ġcarpets":13057,"Ġanatomy":13058,"32":13059,"failed":13060,"sy":13061,"Ġinstal":13062,"Ġteflon":13063,"Ġappliances":13064,"Ġgratuitous":13065,"Ġwreath":13066,"Ġwagon":13067,"Ġdings":13068,"Ġcami":13069,"Ġrecomm":13070,"Ġwayne":13071,"Ġwaves":13072,"Ġpeppers":13073,"Ġwarren":13074,"Ġelabor":13075,"Ġdvi":13076,"Ġevanov":13077,"Ġafghan":13078,"Ġspoken":13079,"Ġauthenticity":13080,"Ġhesitation":13081,"Ġunnecessarily":13082,"Ġyield":13083,"Ġgrandfather":13084,"Ġpatrick":13085,"Ġnostalgic":13086,"Ġindestructible":13087,"hl":13088,"otica":13089,"Ġlac":13090,"thearted":13091,"Ġcapris":13092,"Ġoverhead":13093,"Ġcorks":13094,"umba":13095,"Ġfiltered":13096,"Ġseparation":13097,"Ġnaive":13098,"built":13099,"Ġprecisely":13100,"worthless":13101,"Ġonions":13102,"Ġchilly":13103,"Ġshoel":13104,"Ġheadaches":13105,"zzles":13106,"Ġranch":13107,"Ġsqueezing":13108,"Ġdumped":13109,"Ġluxury":13110,"Ġmundane":13111,"cus":13112,"Ġfuses":13113,"Ġbeck":13114,"Ġunresponsive":13115,"Ġoverlooked":13116,"Ġteva":13117,"Ġministry":13118,"ima":13119,"Ġminecraft":13120,"Ġflavoring":13121,"Ġobjective":13122,"Ġmadden":13123,"Ġresetting":13124,"Ġexploration":13125,"Ġdistribut":13126,"Ġneil":13127,"Ġrecessed":13128,"Ġplastics":13129,"Ġchocolates":13130,"flower":13131,"Ġconceal":13132,"Ġinterchange":13133,"Ġnada":13134,"Ġrebuild":13135,"Ġvoy":13136,"Ġclint":13137,"Ġpaperweight":13138,"Ġsprint":13139,"Ġdisplaying":13140,"Ġbriefly":13141,"Ġwitches":13142,"Ġrabbits":13143,"Ġwaaaay":13144,"literally":13145,"bid":13146,"nde":13147,"Ġnokia":13148,"Ġhighlighter":13149,"Ġerotica":13150,"Ġcounty":13151,"Ġjamie":13152,"delicious":13153,"Ġnecessity":13154,"Ġstanley":13155,"Ġnt":13156,"Ġplodd":13157,"Ġdeci":13158,"Ġpeek":13159,"ipes":13160,"Ġswings":13161,"Ġknocking":13162,"Ġwelds":13163,"Ġenhanced":13164,"Ġsincerely":13165,"xx":13166,"Ġhugh":13167,"caust":13168,"Ġfanatic":13169,"Ġsalads":13170,"Ġbananas":13171,"Ġfunniest":13172,"Ġelli":13173,"strap":13174,"Ġammo":13175,"Ġcoz":13176,"Ġcountless":13177,"Ġmislead":13178,"Ġcasio":13179,"Ġverified":13180,"bulb":13181,"handle":13182,"oult":13183,"Ġdisabled":13184,"inding":13185,"Ġplanter":13186,"Ġexists":13187,"Ġjerry":13188,"Ġunav":13189,"Ġaxe":13190,"Ġlanterns":13191,"Ġreproduction":13192,"Ġkernels":13193,"Ġmatthew":13194,"Ġglory":13195,"Ġproblematic":13196,"Ġsuperhero":13197,"Ġlunchbox":13198,"Ġunaware":13199,"Ġversatility":13200,"Ġwattage":13201,"Ġtitanium":13202,"bri":13203,"enna":13204,"Ġeagle":13205,"Ġsmear":13206,"Ġawareness":13207,"Ġsuffice":13208,"Ġrotors":13209,"Ġtransluc":13210,"Ġhighlighted":13211,"Ġconcentrate":13212,"Ġarab":13213,"false":13214,"bling":13215,"ication":13216,"Ġhardy":13217,"Ġfastened":13218,"Ġshih":13219,"Ġza":13220,"Ġcookware":13221,"Ġdoorbell":13222,"Ġweakness":13223,"Ġimprob":13224,"Ġmagenta":13225,"Ġrocker":13226,"Ġidentity":13227,"Ġantennas":13228,"Ġtidy":13229,"Ġretrieve":13230,"Ġillumination":13231,"Ġevanovich":13232,"Ġsmash":13233,"Ġvalley":13234,"Ġcools":13235,"Ġgravity":13236,"Ġimproves":13237,"Ġindicating":13238,"Ġlicorice":13239,"Ġoverheat":13240,"Ġembroidered":13241,"Ġberries":13242,"Ġcaveat":13243,"Ġprofessionals":13244,"Ġaids":13245,"Ġsean":13246,"cend":13247,"Ġconve":13248,"ffee":13249,"Ġwary":13250,"Ġgravel":13251,"Ġlunches":13252,"Ġknowledgeable":13253,"Ġtransferred":13254,"assembled":13255,"medi":13256,"Ġemily":13257,"Ġgreenish":13258,"Ġimprov":13259,"Ġresemble":13260,"Ġaustin":13261,"Ġemployees":13262,"Ġtacoma":13263,"Ġgrandparents":13264,"uel":13265,"Ġtink":13266,"Ġhire":13267,"Ġhardback":13268,"Ġfinishes":13269,"Ġowns":13270,"Ġwristband":13271,"Ġdetermination":13272,"Ġsketchy":13273,"Ġplumber":13274,"Ġkinks":13275,"Ġnudity":13276,"Ġyuk":13277,"Ġadop":13278,"Ġspind":13279,"Ġwallets":13280,"Ġsubpar":13281,"Ġhandset":13282,"Ġcells":13283,"Ġnegatives":13284,"Ġcountertop":13285,"Ġmuffins":13286,"Ġinvestigation":13287,"Ġvictoria":13288,"Ġsausage":13289,"Ġlle":13290,"Ġinver":13291,"icide":13292,"Ġupstairs":13293,"unable":13294,"Ġcardio":13295,"Ġremix":13296,"Ġannoyance":13297,"Ġseattle":13298,"Ġmorgan":13299,"atography":13300,"Ġpassionate":13301,"Ġvillains":13302,"peare":13303,"bol":13304,"Ġborders":13305,"Ġfrig":13306,"Ġcf":13307,"Ġez":13308,"Ġwhine":13309,"Ġwhirl":13310,"Ġwatercolor":13311,"engu":13312,"Ġcourses":13313,"Ġundo":13314,"Ġresponding":13315,"Ġphilips":13316,"defective":13317,"30":13318,"uated":13319,"Ġstal":13320,"Ġuncom":13321,"assy":13322,"Ġslack":13323,"Ġwaterme":13324,"Ġstudied":13325,"Ġtommy":13326,"bags":13327,"Ġjimmy":13328,"Ġsymbols":13329,"consider":13330,"Ġholocaust":13331,"jet":13332,"Ġthier":13333,"Ġmerc":13334,"Ġwhip":13335,"seat":13336,"lost":13337,"cale":13338,"Ġleopard":13339,"Ġunderlying":13340,"Ġmarry":13341,"Ġdoubles":13342,"Ġjamming":13343,"Ġunexpectedly":13344,"Ġscanned":13345,"Ġharmony":13346,"helpful":13347,"Ġwy":13348,"Ġrates":13349,"Ġcomcast":13350,"Ġpose":13351,"Ġthrott":13352,"Ġedging":13353,"Ġdiana":13354,"Ġclipping":13355,"apparently":13356,"Ġprevented":13357,"orkers":13358,"Ġdangling":13359,"Ġscreaming":13360,"Ġjaws":13361,"Ġdessert":13362,"Ġtranslucent":13363,"leans":13364,"Ġseated":13365,"Ġfringe":13366,"istration":13367,"Ġmisal":13368,"Ġannoun":13369,"Ġpillowcases":13370,"Ġexclusively":13371,"Ġcedar":13372,"Ġbecu":13373,"Ġtipping":13374,"ulum":13375,"Ġedc":13376,"Ġchecks":13377,"Ġxlarge":13378,"Ġnonstick":13379,"Ġmermaid":13380,"Ġcoworkers":13381,"Ġincompat":13382,"Ġheather":13383,"Ġbranch":13384,"Ġip":13385,"Ġshaky":13386,"acies":13387,"Ġoutlook":13388,"Ġoverrated":13389,"upon":13390,"Ġregulator":13391,"Ġpowering":13392,"Ġhumble":13393,"Ġseparates":13394,"Ġcombinations":13395,"Ġgradually":13396,"Ġbanks":13397,"Ġfoolish":13398,"Ġhamper":13399,"Ġache":13400,"Ġinterferes":13401,"Ġdebbie":13402,"Ġawfully":13403,"Ġrobb":13404,"airy":13405,"Ġsteth":13406,"Ġshakespeare":13407,"Ġretirement":13408,"Ġcussler":13409,"Ġunl":13410,"Ġknifes":13411,"Ġrunners":13412,"Ġtasteless":13413,"Ġembell":13414,"Ġdrinker":13415,"Ġrocking":13416,"Ġgigantic":13417,"Ġtimers":13418,"Ġcalibrate":13419,"bottom":13420,"Ġtimberland":13421,"ban":13422,"rous":13423,"Ġcen":13424,"Ġpitt":13425,"Ġexisted":13426,"Ġeastern":13427,"Ġinsides":13428,"Ġfiled":13429,"Ġswee":13430,"Ġsurfing":13431,"Ġabsorbs":13432,"Ġcomprehe":13433,"Ġoxo":13434,"erved":13435,"Ġandy":13436,"estic":13437,"Ġdisassemble":13438,"Ġponder":13439,"Ġscal":13440,"Ġwaking":13441,"Ġaccidently":13442,"Ġzumba":13443,"iolet":13444,"Ġflake":13445,"Ġburied":13446,"Ġscotland":13447,"Ġfussy":13448,"Ġradiator":13449,"lings":13450,"Ġsill":13451,"Ġpoof":13452,"Ġpengu":13453,"Ġworms":13454,"ulu":13455,"istent":13456,"Ġinterests":13457,"Ġswipe":13458,"Ġterminals":13459,"Ġspacers":13460,"Ġvirgin":13461,"Ġpineapple":13462,"Ġome":13463,"Ġdutch":13464,"Ġdairy":13465,"Ġdistinguish":13466,"igo":13467,"Ġunpl":13468,"Ġslats":13469,"Ġsidew":13470,"Ġdrivel":13471,"Ġgrains":13472,"Ġlearns":13473,"Ġaffair":13474,"Ġcamry":13475,"Ġencouragement":13476,"fabulous":13477,"Ġsavvy":13478,"Ġhannah":13479,"Ġtrampo":13480,"dire":13481,"Ġhills":13482,"Ġorleans":13483,"lson":13484,"Ġmaine":13485,"ronics":13486,"logist":13487,"iko":13488,"different":13489,"ettes":13490,"Ġcinematography":13491,"Ġmash":13492,"itz":13493,"Ġglows":13494,"pods":13495,"Ġinstalls":13496,"Ġcustomize":13497,"Ġtracker":13498,"Ġrotates":13499,"Ġunfolds":13500,"Ġbridal":13501,"Ġbrowsing":13502,"Ġsauces":13503,"Ġmiserable":13504,"ui":13505,"Ġchubby":13506,"Ġlovable":13507,"Ġmaggie":13508,"Ġbackstory":13509,"Ġerrand":13510,"Ġmagnifier":13511,"Ġmultiplayer":13512,"Ġscraped":13513,"Ġgamble":13514,"Ġencouraged":13515,"Ġsynops":13516,"face":13517,"Ġitching":13518,"Ġwhining":13519,"Ġenforce":13520,"Ġsimon":13521,"Ġproperties":13522,"Ġtouchy":13523,"Ġdavis":13524,"Ġpetals":13525,"Ġelectrician":13526,"john":13527,"recieved":13528,"Ġcommitted":13529,"Ġcarrots":13530,"Ġaggravating":13531,"Ġhelicopter":13532,"cup":13533,"ican":13534,"Ġanc":13535,"Ġgriffin":13536,"Ġeleven":13537,"Ġmattresses":13538,"Ġmaintaining":13539,"Ġmerchant":13540,"Ġadventurous":13541,"dish":13542,"flo":13543,"Ġliz":13544,"Ġseating":13545,"Ġfinder":13546,"Ġtailgate":13547,"Ġapocalypse":13548,"Ġmistakenly":13549,"Ġarguments":13550,"Ġlighthearted":13551,"Ġfeaturing":13552,"Ġemboss":13553,"Ġpays":13554,"Ġbeeping":13555,"allas":13556,"erella":13557,"Ġcanad":13558,"plot":13559,"Ġavo":13560,"Ġinvict":13561,"Ġantics":13562,"Ġstatistics":13563,"Ġsketch":13564,"Ġconfigure":13565,"Ġtolerable":13566,"Ġbubbled":13567,"Ġtrendy":13568,"Ġarmpit":13569,"Ġappoint":13570,"Ġaccustomed":13571,"ela":13572,"Ġabras":13573,"Ġmama":13574,"Ġrecreat":13575,"Ġscales":13576,"Ġstride":13577,"Ġaddicting":13578,"itched":13579,"Ġhyd":13580,"appears":13581,"Ġstatements":13582,"Ġmortar":13583,"durable":13584,"uries":13585,"Ġwaaay":13586,"Ġquicken":13587,"Ġmustang":13588,"Ġsolves":13589,"Ġforming":13590,"gae":13591,"Ġpicnic":13592,"Ġcros":13593,"Ġinflatable":13594,"Ġscraping":13595,"Ġconsequences":13596,"Ġcongr":13597,"lear":13598,"Ġraces":13599,"Ġalgae":13600,"Ġlend":13601,"Ġbrook":13602,"Ġcorrupt":13603,"shop":13604,"Ġchristie":13605,"Ġcrapped":13606,"Ġfingern":13607,"Ġslavery":13608,"Ġgmc":13609,"Ġuggs":13610,"Ġwizard":13611,"Ġthrottle":13612,"Ġdane":13613,"esis":13614,"Ġmeg":13615,"Ġmudd":13616,"Ġwarms":13617,"Ġfastener":13618,"excelent":13619,"Ġsucceed":13620,"Ġfunnier":13621,"Ġloosens":13622,"fia":13623,"Ġwack":13624,"Ġdental":13625,"Ġchai":13626,"Ġcoils":13627,"Ġsip":13628,"Ġeffectiveness":13629,"Ġcinch":13630,"cups":13631,"Ġaxle":13632,"Ġcalibration":13633,"Ġadoles":13634,"step":13635,"Ġextensions":13636,"Ġwinding":13637,"Ġswell":13638,"Ġairing":13639,"Ġsandpaper":13640,"Ġinvo":13641,"Ġprojection":13642,"Ġhdx":13643,"Ġobstacles":13644,"shapen":13645,"zip":13646,"Ġench":13647,"Ġbackward":13648,"plain":13649,"Ġletdown":13650,"Ġairsoft":13651,"Ġshooter":13652,"Ġcrucial":13653,"Ġdetected":13654,"Ġclaws":13655,"Ġcitizen":13656,"Ġfasci":13657,"bull":13658,"ox":13659,"Ġht":13660,"rix":13661,"Ġseag":13662,"icked":13663,"mented":13664,"Ġbrows":13665,"Ġropes":13666,"Ġbreakable":13667,"Ġgravy":13668,"Ġsyl":13669,"Ġtransfers":13670,"Ġcommute":13671,"Ġpatent":13672,"Ġshutter":13673,"Ġinsects":13674,"spe":13675,"Ġion":13676,"Ġdallas":13677,"isms":13678,"Ġens":13679,"Ġvig":13680,"Ġwearings":13681,"uded":13682,"cript":13683,"Ġross":13684,"Ġshowers":13685,"Ġdrapes":13686,"Ġloudly":13687,"Ġjuicy":13688,"Ġpolka":13689,"Ġtackle":13690,"Ġterminal":13691,"Ġhorizontally":13692,"Ġtutorial":13693,"Ġcomprehend":13694,"Ġought":13695,"Ġhugs":13696,"iler":13697,"Ġvince":13698,"plicated":13699,"Ġdelta":13700,"Ġwarmers":13701,"Ġtuna":13702,"Ġcreamer":13703,"Ġoscar":13704,"Ġstewart":13705,"Ġwimpy":13706,"Ġtrampoline":13707,"Ġsynopsis":13708,"overs":13709,"Ġsple":13710,"Ġpbs":13711,"Ġprd":13712,"mob":13713,"Ġmisshapen":13714,"Ġorig":13715,"Ġmars":13716,"Ġsilverware":13717,"luster":13718,"Ġdestination":13719,"Ġfaithful":13720,"Ġwrenches":13721,"Ġdevotion":13722,"Ġloaf":13723,"Ġblazer":13724,"Ġunsatisfactory":13725,"terrific":13726,"ilst":13727,"Ġspong":13728,"Ġsprung":13729,"Ġpilled":13730,"Ġheartbeat":13731,"Ġbeaten":13732,"Ġshotgun":13733,"Ġbullets":13734,"Ġquilts":13735,"Ġchronicles":13736,"Ġreversible":13737,"Ġharris":13738,"Ġlifespan":13739,"11":13740,"rub":13741,"Ġdb":13742,"Ġstake":13743,"adays":13744,"Ġstarters":13745,"Ġdecides":13746,"Ġsupermarket":13747,"Ġcheers":13748,"covers":13749,"Ġmarshm":13750,"Ġjealous":13751,"acord":13752,"Ġuh":13753,"Ġsender":13754,"Ġrecived":13755,"Ġmanif":13756,"Ġsurpass":13757,"Ġbirken":13758,"Ġidentified":13759,"Ġfifteen":13760,"Ġryp":13761,"Ġpixels":13762,"Ġrussia":13763,"Ġcuddly":13764,"Ġcheat":13765,"Ġswearing":13766,"Ġburlap":13767,"Ġmercy":13768,"Ġfulfilled":13769,"Ġdiabet":13770,"Ġsuprised":13771,"Ġavoided":13772,"Ġsnoo":13773,
[...]
